<pad>	0
<unk>	-1
<s>	-2
</s>	-3
!	-4
"	-5
#	-6
$	-7
%	-8
&	-9
'	-10
(	-11
)	-12
*	-13
+	-14
,	-15
-	-16
.	-17
/	-18
0	-19
1	-20
2	-21
3	-22
4	-23
5	-24
6	-25
7	-26
8	-27
9	-28
:	-29
;	-30
<	-31
=	-32
>	-33
?	-34
@	-35
A	-36
B	-37
C	-38
D	-39
E	-40
F	-41
G	-42
H	-43
I	-44
J	-45
K	-46
L	-47
M	-48
N	-49
O	-50
P	-51
Q	-52
R	-53
S	-54
T	-55
U	-56
V	-57
W	-58
X	-59
Y	-60
Z	-61
[	-62
\	-63
]	-64
^	-65
_	-66
a	-67
b	-68
c	-69
d	-70
e	-71
f	-72
g	-73
h	-74
i	-75
j	-76
k	-77
l	-78
m	-79
n	-80
o	-81
p	-82
q	-83
r	-84
s	-85
t	-86
u	-87
v	-88
w	-89
x	-90
y	-91
z	-92
{	-93
|	-94
}	-95
~	-96
¡	-97
¢	-98
£	-99
§	-100
©	-101
®	-102
°	-103
±	-104
¶	-105
·	-106
¿	-107
Â	-108
Ä	-109
Ç	-110
É	-111
Ó	-112
×	-113
Ø	-114
Ü	-115
á	-116
â	-117
ã	-118
ä	-119
ç	-120
è	-121
é	-122
ë	-123
í	-124
ï	-125
ö	-126
÷	-127
û	-128
ü	-129
č	-130
ğ	-131
İ	-132
ı	-133
Ş	-134
ş	-135
Ÿ	-136
ʕ	-137
ʻ	-138
ʼ	-139
̈	-140
̋	-141
α	-142
β	-143
μ	-144
о	-145
щ	-146
֗	-147
ְ	-148
ִ	-149
ֹ	-150
ׁ	-151
ו	-152
ז	-153
ח	-154
י	-155
כ	-156
מ	-157
פ	-158
ר	-159
ש	-160
أ	-161
ا	-162
ب	-163
ة	-164
ت	-165
ج	-166
د	-167
ر	-168
س	-169
ش	-170
ص	-171
ع	-172
ق	-173
ل	-174
م	-175
ه	-176
و	-177
ى	-178
ي	-179
ُ	-180
ْ	-181
۞	-182
۩	-183
߹	-184
ख	-185
त	-186
े	-187
စ	-188
ဒ	-189
ပ	-190
ာ	-191
ိ	-192
ု	-193
်	-194
၊	-195
ღ	-196
ሀ	-197
ሁ	-198
ሂ	-199
ሃ	-200
ሄ	-201
ህ	-202
ሆ	-203
ሇ	-204
ለ	-205
ሉ	-206
ሊ	-207
ላ	-208
ሌ	-209
ል	-210
ሎ	-211
ሏ	-212
ሐ	-213
ሑ	-214
ሒ	-215
ሓ	-216
ሔ	-217
ሕ	-218
ሖ	-219
ሗ	-220
መ	-221
ሙ	-222
ሚ	-223
ማ	-224
ሜ	-225
ም	-226
ሞ	-227
ሟ	-228
ሠ	-229
ሡ	-230
ሢ	-231
ሣ	-232
ሤ	-233
ሥ	-234
ሦ	-235
ሧ	-236
ረ	-237
ሩ	-238
ሪ	-239
ራ	-240
ሬ	-241
ር	-242
ሮ	-243
ሯ	-244
ሰ	-245
ሱ	-246
ሲ	-247
ሳ	-248
ሴ	-249
ስ	-250
ሶ	-251
ሷ	-252
ሸ	-253
ሹ	-254
ሺ	-255
ሻ	-256
ሼ	-257
ሽ	-258
ሾ	-259
ሿ	-260
ቀ	-261
ቁ	-262
ቂ	-263
ቃ	-264
ቄ	-265
ቅ	-266
ቆ	-267
ቈ	-268
ቊ	-269
ቋ	-270
ቌ	-271
ቍ	-272
ቐ	-273
በ	-274
ቡ	-275
ቢ	-276
ባ	-277
ቤ	-278
ብ	-279
ቦ	-280
ቧ	-281
ቨ	-282
ቩ	-283
ቪ	-284
ቫ	-285
ቬ	-286
ቭ	-287
ቮ	-288
ተ	-289
ቱ	-290
ቲ	-291
ታ	-292
ቴ	-293
ት	-294
ቶ	-295
ቷ	-296
ቸ	-297
ቹ	-298
ቺ	-299
ቻ	-300
ቼ	-301
ች	-302
ቾ	-303
ቿ	-304
ኀ	-305
ኁ	-306
ኂ	-307
ኃ	-308
ኄ	-309
ኅ	-310
ኆ	-311
ኋ	-312
ኌ	-313
ኍ	-314
ነ	-315
ኑ	-316
ኒ	-317
ና	-318
ኔ	-319
ን	-320
ኖ	-321
ኗ	-322
ኘ	-323
ኙ	-324
ኚ	-325
ኛ	-326
ኜ	-327
ኝ	-328
ኞ	-329
ኟ	-330
አ	-331
ኡ	-332
ኢ	-333
ኣ	-334
ኤ	-335
እ	-336
ኦ	-337
ኧ	-338
ከ	-339
ኩ	-340
ኪ	-341
ካ	-342
ኬ	-343
ክ	-344
ኮ	-345
ኰ	-346
ኲ	-347
ኳ	-348
ኴ	-349
ኵ	-350
ኸ	-351
ኹ	-352
ኺ	-353
ኻ	-354
ኼ	-355
ኽ	-356
ኾ	-357
ዂ	-358
ዅ	-359
ወ	-360
ዉ	-361
ዊ	-362
ዋ	-363
ዌ	-364
ው	-365
ዎ	-366
ዏ	-367
ዐ	-368
ዑ	-369
ዒ	-370
ዓ	-371
ዔ	-372
ዕ	-373
ዖ	-374
ዘ	-375
ዙ	-376
ዚ	-377
ዛ	-378
ዜ	-379
ዝ	-380
ዞ	-381
ዟ	-382
ዠ	-383
ዡ	-384
ዢ	-385
ዣ	-386
ዤ	-387
ዥ	-388
ዦ	-389
ዧ	-390
የ	-391
ዩ	-392
ዪ	-393
ያ	-394
ዬ	-395
ይ	-396
ዮ	-397
ዯ	-398
ደ	-399
ዱ	-400
ዲ	-401
ዳ	-402
ዴ	-403
ድ	-404
ዶ	-405
ዷ	-406
ዺ	-407
ዽ	-408
ጀ	-409
ጁ	-410
ጂ	-411
ጃ	-412
ጄ	-413
ጅ	-414
ጆ	-415
ጇ	-416
ገ	-417
ጉ	-418
ጊ	-419
ጋ	-420
ጌ	-421
ግ	-422
ጎ	-423
ጏ	-424
ጐ	-425
ጒ	-426
ጓ	-427
ጔ	-428
ጕ	-429
ጠ	-430
ጡ	-431
ጢ	-432
ጣ	-433
ጤ	-434
ጥ	-435
ጦ	-436
ጧ	-437
ጨ	-438
ጩ	-439
ጪ	-440
ጫ	-441
ጬ	-442
ጭ	-443
ጮ	-444
ጯ	-445
ጰ	-446
ጲ	-447
ጳ	-448
ጴ	-449
ጵ	-450
ጶ	-451
ጸ	-452
ጹ	-453
ጺ	-454
ጻ	-455
ጼ	-456
ጽ	-457
ጾ	-458
ጿ	-459
ፀ	-460
ፁ	-461
ፂ	-462
ፃ	-463
ፄ	-464
ፅ	-465
ፆ	-466
ፈ	-467
ፉ	-468
ፊ	-469
ፋ	-470
ፌ	-471
ፍ	-472
ፎ	-473
ፏ	-474
ፐ	-475
ፑ	-476
ፒ	-477
ፓ	-478
ፔ	-479
ፕ	-480
ፖ	-481
፠	-482
፡	-483
።	-484
፣	-485
፤	-486
፥	-487
፦	-488
፧	-489
፨	-490
፩	-491
፪	-492
፫	-493
፬	-494
፭	-495
፮	-496
፯	-497
፰	-498
፱	-499
፲	-500
፳	-501
፴	-502
፵	-503
፶	-504
፷	-505
፸	-506
፹	-507
፻	-508
᐀	-509
ᤰ	-510
•	-511
′	-512
‹	-513
›	-514
※	-515
⁄	-516
€	-517
₹	-518
←	-519
→	-520
⇒	-521
═	-522
╔	-523
▁!	-524
▁"	-525
▁#	-526
▁$	-527
▁%	-528
▁&	-529
▁'	-530
▁(	-531
▁)	-532
▁*	-533
▁+	-534
▁,	-535
▁-	-536
▁.	-537
▁/	-538
▁0	-539
▁1	-540
▁2	-541
▁3	-542
▁4	-543
▁5	-544
▁6	-545
▁7	-546
▁8	-547
▁9	-548
▁:	-549
▁;	-550
▁<	-551
▁=	-552
▁>	-553
▁?	-554
▁@	-555
▁A	-556
▁B	-557
▁C	-558
▁D	-559
▁E	-560
▁F	-561
▁G	-562
▁H	-563
▁I	-564
▁J	-565
▁K	-566
▁L	-567
▁M	-568
▁N	-569
▁O	-570
▁P	-571
▁Q	-572
▁R	-573
▁S	-574
▁T	-575
▁U	-576
▁V	-577
▁W	-578
▁X	-579
▁Y	-580
▁Z	-581
▁[	-582
▁\	-583
▁]	-584
▁^	-585
▁_	-586
▁a	-587
▁b	-588
▁c	-589
▁d	-590
▁e	-591
▁f	-592
▁g	-593
▁h	-594
▁i	-595
▁j	-596
▁k	-597
▁l	-598
▁m	-599
▁n	-600
▁o	-601
▁p	-602
▁q	-603
▁r	-604
▁s	-605
▁t	-606
▁u	-607
▁v	-608
▁w	-609
▁x	-610
▁y	-611
▁z	-612
▁{	-613
▁|	-614
▁}	-615
▁~	-616
▁¢	-617
▁£	-618
▁§	-619
▁©	-620
▁°	-621
▁±	-622
▁¶	-623
▁·	-624
▁¿	-625
▁Â	-626
▁Ä	-627
▁Ç	-628
▁×	-629
▁Ø	-630
▁Ü	-631
▁á	-632
▁â	-633
▁÷	-634
▁û	-635
▁ü	-636
▁İ	-637
▁ʕ	-638
▁ʼ	-639
▁̈	-640
▁̋	-641
▁α	-642
▁β	-643
▁μ	-644
▁ז	-645
▁כ	-646
▁מ	-647
▁פ	-648
▁ר	-649
▁أ	-650
▁ا	-651
▁ج	-652
▁س	-653
▁ص	-654
▁ع	-655
▁ق	-656
▁و	-657
▁۞	-658
▁۩	-659
▁ख	-660
▁စ	-661
▁ღ	-662
▁ሀ	-663
▁ሁ	-664
▁ሂ	-665
▁ሃ	-666
▁ሄ	-667
▁ህ	-668
▁ሆ	-669
▁ሇ	-670
▁ለ	-671
▁ሉ	-672
▁ሊ	-673
▁ላ	-674
▁ሌ	-675
▁ል	-676
▁ሎ	-677
▁ሐ	-678
▁ሑ	-679
▁ሒ	-680
▁ሓ	-681
▁ሔ	-682
▁ሕ	-683
▁ሖ	-684
▁መ	-685
▁ሙ	-686
▁ሚ	-687
▁ማ	-688
▁ሜ	-689
▁ም	-690
▁ሞ	-691
▁ሟ	-692
▁ሠ	-693
▁ሡ	-694
▁ሢ	-695
▁ሣ	-696
▁ሥ	-697
▁ሦ	-698
▁ረ	-699
▁ሩ	-700
▁ሪ	-701
▁ራ	-702
▁ሬ	-703
▁ር	-704
▁ሮ	-705
▁ሯ	-706
▁ሰ	-707
▁ሱ	-708
▁ሲ	-709
▁ሳ	-710
▁ሴ	-711
▁ስ	-712
▁ሶ	-713
▁ሷ	-714
▁ሸ	-715
▁ሹ	-716
▁ሺ	-717
▁ሻ	-718
▁ሼ	-719
▁ሽ	-720
▁ሾ	-721
▁ቀ	-722
▁ቁ	-723
▁ቂ	-724
▁ቃ	-725
▁ቄ	-726
▁ቅ	-727
▁ቆ	-728
▁ቈ	-729
▁ቊ	-730
▁ቋ	-731
▁ቍ	-732
▁በ	-733
▁ቡ	-734
▁ቢ	-735
▁ባ	-736
▁ቤ	-737
▁ብ	-738
▁ቦ	-739
▁ቧ	-740
▁ቨ	-741
▁ቩ	-742
▁ቪ	-743
▁ቫ	-744
▁ቬ	-745
▁ቭ	-746
▁ቮ	-747
▁ተ	-748
▁ቱ	-749
▁ቲ	-750
▁ታ	-751
▁ቴ	-752
▁ት	-753
▁ቶ	-754
▁ቸ	-755
▁ቹ	-756
▁ቺ	-757
▁ቻ	-758
▁ቼ	-759
▁ች	-760
▁ቾ	-761
▁ኀ	-762
▁ኃ	-763
▁ኅ	-764
▁ኋ	-765
▁ነ	-766
▁ኑ	-767
▁ኒ	-768
▁ና	-769
▁ኔ	-770
▁ን	-771
▁ኖ	-772
▁ኗ	-773
▁ኘ	-774
▁ኛ	-775
▁አ	-776
▁ኡ	-777
▁ኢ	-778
▁ኣ	-779
▁ኤ	-780
▁እ	-781
▁ኦ	-782
▁ኧ	-783
▁ከ	-784
▁ኩ	-785
▁ኪ	-786
▁ካ	-787
▁ኬ	-788
▁ክ	-789
▁ኮ	-790
▁ኰ	-791
▁ኲ	-792
▁ኳ	-793
▁ኴ	-794
▁ኵ	-795
▁ኸ	-796
▁ኹ	-797
▁ኺ	-798
▁ኻ	-799
▁ኾ	-800
▁ዅ	-801
▁ወ	-802
▁ዉ	-803
▁ዊ	-804
▁ዋ	-805
▁ዌ	-806
▁ው	-807
▁ዎ	-808
▁ዐ	-809
▁ዑ	-810
▁ዒ	-811
▁ዓ	-812
▁ዔ	-813
▁ዕ	-814
▁ዖ	-815
▁ዘ	-816
▁ዙ	-817
▁ዚ	-818
▁ዛ	-819
▁ዜ	-820
▁ዝ	-821
▁ዞ	-822
▁ዟ	-823
▁ዢ	-824
▁ዣ	-825
▁ዥ	-826
▁የ	-827
▁ዩ	-828
▁ዪ	-829
▁ያ	-830
▁ዬ	-831
▁ይ	-832
▁ዮ	-833
▁ዯ	-834
▁ደ	-835
▁ዱ	-836
▁ዲ	-837
▁ዳ	-838
▁ዴ	-839
▁ድ	-840
▁ዶ	-841
▁ጀ	-842
▁ጁ	-843
▁ጂ	-844
▁ጃ	-845
▁ጄ	-846
▁ጅ	-847
▁ጆ	-848
▁ገ	-849
▁ጉ	-850
▁ጊ	-851
▁ጋ	-852
▁ጌ	-853
▁ግ	-854
▁ጎ	-855
▁ጏ	-856
▁ጐ	-857
▁ጒ	-858
▁ጓ	-859
▁ጔ	-860
▁ጕ	-861
▁ጠ	-862
▁ጡ	-863
▁ጢ	-864
▁ጣ	-865
▁ጤ	-866
▁ጥ	-867
▁ጦ	-868
▁ጧ	-869
▁ጨ	-870
▁ጩ	-871
▁ጪ	-872
▁ጫ	-873
▁ጭ	-874
▁ጮ	-875
▁ጲ	-876
▁ጳ	-877
▁ጴ	-878
▁ጸ	-879
▁ጹ	-880
▁ጺ	-881
▁ጻ	-882
▁ጼ	-883
▁ጽ	-884
▁ጾ	-885
▁ፀ	-886
▁ፁ	-887
▁ፃ	-888
▁ፄ	-889
▁ፅ	-890
▁ፆ	-891
▁ፈ	-892
▁ፉ	-893
▁ፊ	-894
▁ፋ	-895
▁ፌ	-896
▁ፍ	-897
▁ፎ	-898
▁ፏ	-899
▁ፐ	-900
▁ፑ	-901
▁ፒ	-902
▁ፓ	-903
▁ፔ	-904
▁ፕ	-905
▁ፖ	-906
▁፠	-907
▁፡	-908
▁።	-909
▁፣	-910
▁፤	-911
▁፥	-912
▁፦	-913
▁፧	-914
▁፨	-915
▁፩	-916
▁፪	-917
▁፫	-918
▁፬	-919
▁፭	-920
▁፮	-921
▁፯	-922
▁፰	-923
▁፱	-924
▁፲	-925
▁፳	-926
▁፴	-927
▁፵	-928
▁፶	-929
▁፷	-930
▁፸	-931
▁፹	-932
▁፻	-933
▁ᤰ	-934
▁•	-935
▁′	-936
▁‹	-937
▁›	-938
▁※	-939
▁€	-940
▁₹	-941
▁←	-942
▁→	-943
▁⇒	-944
▁╔	-945
▁■	-946
▁▪	-947
▁▶	-948
▁▷	-949
▁▸	-950
▁►	-951
▁▼	-952
▁◆	-953
▁◈	-954
▁◉	-955
▁◊	-956
▁●	-957
▁★	-958
▁☛	-959
▁☞	-960
▁♡	-961
▁♦	-962
▁♪	-963
▁♻	-964
▁⛱	-965
▁✓	-966
▁✔	-967
▁❀	-968
▁❐	-969
▁❑	-970
▁❖	-971
▁❤	-972
▁➜	-973
▁⭐	-974
▁。	-975
▁ア	-976
▁停	-977
▁的	-978
▁�	-979
▁🇲	-980
▁🌤	-981
▁👉	-982
▁📚	-983
▁🔥	-984
▁😀	-985
▁😉	-986
▁🙂	-987
▁🛑	-988
■	-989
▪	-990
▶	-991
▷	-992
▸	-993
►	-994
▼	-995
◆	-996
◈	-997
◉	-998
◊	-999
●	-1000
★	-1001
☛	-1002
☞	-1003
♐	-1004
♡	-1005
♦	-1006
♪	-1007
♻	-1008
⛱	-1009
✅	-1010
✓	-1011
✔	-1012
❀	-1013
❐	-1014
❑	-1015
❖	-1016
❤	-1017
➜	-1018
⭐	-1019
ⶋ	-1020
、	-1021
。	-1022
ア	-1023
ハ	-1024
ム	-1025
ラ	-1026
停	-1027
的	-1028
語	-1029
︎	-1030
️	-1031
�	-1032
🇲	-1033
🇽	-1034
🌤	-1035
👉	-1036
📚	-1037
🔥	-1038
😀	-1039
😉	-1040
😏	-1041
😳	-1042
🙂	-1043
🛑	-1044
▁እን	-1045
▁ነው	-1046
ቸው	-1047
▁እና	-1048
ዎች	-1049
ንድ	-1050
▁እንደ	-1051
▁የሚ	-1052
ስጥ	-1053
ዚህ	-1054
▁ውስጥ	-1055
▁ላይ	-1056
ንም	-1057
ገር	-1058
▁ጊዜ	-1059
▁ይህ	-1060
▁ግን	-1061
ነት	-1062
▁አይ	-1063
▁ወደ	-1064
ርሱ	-1065
▁ሁሉ	-1066
▁የተ	-1067
ል።	-1068
ለም	-1069
▁ነበ	-1070
ንተ	-1071
ለው	-1072
▁እንዲ	-1073
▁ነገር	-1074
▁ስለ	-1075
▁እነ	-1076
ችሁ	-1077
ቶች	-1078
አብ	-1079
▁ጋር	-1080
ለሁ	-1081
ሆን	-1082
▁በእ	-1083
ግዚ	-1084
▁ነበር	-1085
ግዚአብ	-1086
ሔር	-1087
ግዚአብሔር	-1088
▁አለ	-1089
ሆነ	-1090
ዚያ	-1091
ሪያ	-1092
▁እኔ	-1093
ችን	-1094
▁አንድ	-1095
▁አስ	-1096
▁ነው።	-1097
ውን	-1098
በት	-1099
ርስ	-1100
ለት	-1101
▁ወይ	-1102
▁አን	-1103
▁መን	-1104
ላል	-1105
▁ሰው	-1106
ተኛ	-1107
ፈል	-1108
ሁን	-1109
▁ከእ	-1110
▁አል	-1111
ድር	-1112
ትን	-1113
ጣም	-1114
▁ወይም	-1115
▁በጣም	-1116
ለን	-1117
ሆኑ	-1118
▁ብቻ	-1119
▁ብዙ	-1120
▁በመ	-1121
▁አላ	-1122
ም።	-1123
▁አይደ	-1124
▁ናቸው	-1125
ምን	-1126
▁የእ	-1127
ያን	-1128
ደር	-1129
ሮች	-1130
ንያ	-1131
ናል	-1132
▁በአ	-1133
▁እግዚአብሔር	-1134
▁ቀን	-1135
▁ምን	-1136
▁እኛ	-1137
▁ለእ	-1138
ስት	-1139
ገድ	-1140
▁ዓመ	-1141
ጀመ	-1142
▁በተ	-1143
ድረ	-1144
መለ	-1145
▁አሁን	-1146
ደረ	-1147
ምላ	-1148
▁መል	-1149
▁እስ	-1150
▁ለመ	-1151
ነበ	-1152
ላሉ	-1153
ዋል	-1154
▁የሚያ	-1155
ይወ	-1156
▁የመ	-1157
ርግ	-1158
▁እርሱ	-1159
ዳን	-1160
▁ምክ	-1161
ቸውን	-1162
▁እንደሚ	-1163
ውም	-1164
▁እሱ	-1165
▁ይች	-1166
ካከ	-1167
▁አይደለም	-1168
ላይ	-1169
ሎች	-1170
▁እንዳ	-1171
▁አንተ	-1172
ባት	-1173
ስተ	-1174
ራት	-1175
ኋላ	-1176
▁የም	-1177
▁ነው.	-1178
▁ደግ	-1179
ናም	-1180
▁ምክንያ	-1181
ማሪ	-1182
ጀመሪያ	-1183
ርስዎ	-1184
ታት	-1185
ላቸው	-1186
▁20	-1187
ምላክ	-1188
ድረግ	-1189
ንን	-1190
ረት	-1191
▁እየ	-1192
▁ነገ	-1193
ሉ።	-1194
ፊት	-1195
..	-1196
▁የማ	-1197
▁እንዲህ	-1198
ቱም	-1199
ጆች	-1200
▁ምንም	-1201
መል	-1202
▁እው	-1203
▁መንገድ	-1204
ህን	-1205
ቅር	-1206
▁የአ	-1207
▁ለማ	-1208
ላችሁ	-1209
▁ከተ	-1210
▁ይሆ	-1211
ረው	-1212
▁አብ	-1213
▁ከአ	-1214
▁ማን	-1215
ሉት	-1216
የት	-1217
መን	-1218
▁አገ	-1219
▁ነበር።	-1220
ል.	-1221
መስ	-1222
▁እነሱ	-1223
ነው	-1224
▁ያለው	-1225
ችል	-1226
ርት	-1227
ሰማ	-1228
ቱን	-1229
ውቃ	-1230
ይወት	-1231
▁ዘንድ	-1232
ዴት	-1233
ኞች	-1234
ካከል	-1235
ርግጥ	-1236
ትም	-1237
ናንተ	-1238
ያው	-1239
ሳይ	-1240
ገባ	-1241
▁ያለ	-1242
▁በሚ	-1243
▁ጌታ	-1244
▁ቤት	-1245
▁እነዚህ	-1246
መጣ	-1247
ሰብ	-1248
ረጃ	-1249
ኖር	-1250
ንዴት	-1251
▁ሥራ	-1252
▁መካከል	-1253
ናት	-1254
ለህ	-1255
ረስ	-1256
ኘት	-1257
ዶች	-1258
ከተ	-1259
▁ሌላ	-1260
▁"እ	-1261
ሱስ	-1262
▁በእርግጥ	-1263
▁መስ	-1264
▁ማለት	-1265
▁መጠ	-1266
የሱስ	-1267
▁ሆኖ	-1268
ረሻ	-1269
▁ባለ	-1270
ቦች	-1271
ሰው	-1272
ገና	-1273
▁እንኳ	-1274
ንግ	-1275
ስታ	-1276
▁እንዲሁ	-1277
▁ምር	-1278
ጣት	-1279
▁ከሆነ	-1280
▁እነርሱ	-1281
▁ቃል	-1282
ልቅ	-1283
▁እስከ	-1284
▁ልጅ	-1285
ዎቹ	-1286
00	-1287
ጨረሻ	-1288
▁አምላክ	-1289
▁እናንተ	-1290
ኔታ	-1291
▁ቦታ	-1292
▁ዓመት	-1293
ባቸው	-1294
ጽሐ	-1295
▁ድረስ	-1296
ላት	-1297
▁ይሆናል	-1298
▁ሁኔታ	-1299
ጨማሪ	-1300
▁አት	-1301
▁ሕዝ	-1302
እነ	-1303
ወቅ	-1304
▁ክፍ	-1305
ራዊ	-1306
ዋል።	-1307
መር	-1308
ዲስ	-1309
በለ	-1310
ናገ	-1311
▁ዓለም	-1312
በል	-1313
▁አድር	-1314
▁ሆይ	-1315
ሪካ	-1316
ለሁ።	-1317
▁አባ	-1318
▁ከፍ	-1319
ክት	-1320
▁ማድረግ	-1321
ሩት	-1322
ግር	-1323
▁ከመ	-1324
ሉም	-1325
▁አለው	-1326
▁መሆን	-1327
ቀር	-1328
ቅም	-1329
ህል	-1330
▁ሆነ	-1331
▁የሆነ	-1332
ግኘት	-1333
▁ያስ	-1334
▁ዓይ	-1335
ሞች	-1336
ድን	-1337
▁አንዳ	-1338
ኤል	-1339
መሳ	-1340
▁እር	-1341
ጠቀ	-1342
▁አስፈ	-1343
▁አሉ	-1344
▁አያ	-1345
ዓለም	-1346
ያንዳን	-1347
ወሰ	-1348
▁ዛሬ	-1349
ለች	-1350
:1	-1351
▁የእግዚአብሔር	-1352
▁ነኝ	-1353
▁ኢየሱስ	-1354
ላቅ	-1355
▁ሁለት	-1356
ቻቸው	-1357
▁ለአ	-1358
▁አስተ	-1359
▁ቤተ	-1360
▁ዓመታት	-1361
ላጊ	-1362
ቢያ	-1363
▁እንደሆነ	-1364
▁እያ	-1365
ኖች	-1366
▁ሁለ	-1367
ስራ	-1368
ጌታ	-1369
▁የለም	-1370
ለኛ	-1371
ምና	-1372
▁አካ	-1373
ኛውም	-1374
ጽሐፍ	-1375
ሳሌ	-1376
ከት	-1377
ንዘ	-1378
ታል	-1379
▁ወንድ	-1380
መሳሳይ	-1381
▁ይችላሉ	-1382
ጥር	-1383
▁አስፈላጊ	-1384
▁ትን	-1385
ምህ	-1386
ክክ	-1387
በለጠ	-1388
ፈልጋ	-1389
▁ምክንያት	-1390
ለያ	-1391
ብር	-1392
▁አንዳንድ	-1393
ላህ	-1394
ጊዜ	-1395
ምር	-1396
ተው	-1397
ፈለ	-1398
▁እንዲሁም	-1399
▁ያህል	-1400
▁አው	-1401
ነርሱ	-1402
▁ነው?	-1403
ገው	-1404
መጀመሪያ	-1405
▁ቅዱ	-1406
▁አላህ	-1407
ሳት	-1408
ጠቃ	-1409
ቸው።	-1410
▁አገል	-1411
ወደ	-1412
▁አማ	-1413
ላል።	-1414
▁ጉዳ	-1415
▁ሳይ	-1416
ነበረ	-1417
▁እንኳን	-1418
ይል	-1419
ግብ	-1420
ችኋ	-1421
ረዳ	-1422
ሄድ	-1423
ዎችን	-1424
▁አዲስ	-1425
▁የበለጠ	-1426
ያንዳንዱ	-1427
▁ተስ	-1428
ቀጥ	-1429
▁ፊት	-1430
▁ምክንያቱም	-1431
▁19	-1432
▁ስም	-1433
▁እርስዎ	-1434
▁ሁል	-1435
▁መሆኑ	-1436
▁ሊሆን	-1437
▁ምድር	-1438
ካም	-1439
ነቱ	-1440
ንዘብ	-1441
▁ይሰ	-1442
▁በማ	-1443
ገኛ	-1444
ፍት	-1445
▁"አ	-1446
ቀት	-1447
▁እንጂ	-1448
ወስ	-1449
▁በር	-1450
▁አመ	-1451
▁ጀም	-1452
ታው	-1453
ረጋ	-1454
▁ነው,	-1455
ጠራ	-1456
▁ናቸው።	-1457
ናል።	-1458
▁201	-1459
ለን።	-1460
▁በእው	-1461
ሜሪካ	-1462
ዎን	-1463
ት።	-1464
▁መጽሐፍ	-1465
በር	-1466
ዓት	-1467
ገል	-1468
ታቸው	-1469
...	-1470
ሳቸው	-1471
▁ይችላል	-1472
ጠር	-1473
▁ሌሎች	-1474
▁ሕይወት	-1475
ደርጋ	-1476
▁አብዛ	-1477
ነሱ	-1478
▁አም	-1479
▁የማይ	-1480
▁እርሱም	-1481
ዲህ	-1482
ርድ	-1483
ሁሉ	-1484
ሎት	-1485
▁ምስ	-1486
ንስ	-1487
▁ደረጃ	-1488
ወዳ	-1489
ማር	-1490
▁እውነት	-1491
ስተኛ	-1492
ሠራ	-1493
▁10	-1494
ፈልግ	-1495
ቻችን	-1496
▁ከተማ	-1497
▁በአንድ	-1498
▁ታላቅ	-1499
▁ቅዱስ	-1500
ቂት	-1501
ግል	-1502
▁እውነ	-1503
▁ሊያ	-1504
ሙሉ	-1505
ማን	-1506
▁አሳ	-1507
▁ወን	-1508
▁እኔም	-1509
ራቸው	-1510
ም.	-1511
▁መሆኑን	-1512
ግባ	-1513
▁ከሚ	-1514
▁ሙሉ	-1515
▁የምት	-1516
ወጣ	-1517
ምድር	-1518
▁ክርስ	-1519
ሰጠ	-1520
ውያን	-1521
ታዊ	-1522
ሰራ	-1523
▁ተቀ	-1524
ባንያ	-1525
▁ይጠ	-1526
▁ሲሆን	-1527
ሥራ	-1528
ፈልጉ	-1529
ከራ	-1530
ርሃ	-1531
▁ያሉ	-1532
በረ	-1533
ል፤	-1534
ጢአ	-1535
ኛው	-1536
▁ትምህ	-1537
ማድረግ	-1538
ናገር	-1539
▁እየተ	-1540
መረ	-1541
ዎት	-1542
ሆንም	-1543
ገለ	-1544
ማት	-1545
ግራ	-1546
ጣን	-1547
▁እንዲያ	-1548
▁ተስፋ	-1549
▁ሆኖም	-1550
ምነት	-1551
ገኝ	-1552
ዲያ	-1553
ሪክ	-1554
▁ያል	-1555
▁ነው፤	-1556
▁የተሻ	-1557
ገኙ	-1558
ገኘ	-1559
▁መጥ	-1560
ባቢ	-1561
ኩል	-1562
▁ነበር.	-1563
ቤተ	-1564
ዚያም	-1565
▁ጓደ	-1566
ለይ	-1567
ምት	-1568
ረን	-1569
ስራኤል	-1570
ልክ	-1571
ሌላ	-1572
ም፤	-1573
ብን	-1574
:2	-1575
▁እንድ	-1576
▁ወቅ	-1577
▁ተመሳሳይ	-1578
▁መንግ	-1579
ደን	-1580
▁"በ	-1581
ፍራ	-1582
▁እሷ	-1583
እግዚአብሔር	-1584
▁ዕድ	-1585
ደረገ	-1586
ለያዩ	-1587
▁ፕሮ	-1588
ሉ.	-1589
▁ቀላል	-1590
ዮች	-1591
ና።	-1592
▁ኩባንያ	-1593
ሪዎች	-1594
▁ስለሆነ	-1595
▁ለሚ	-1596
ይት	-1597
▁ነን	-1598
እኔ	-1599
ዋታ	-1600
ቀው	-1601
ሱን	-1602
▁ሴት	-1603
▁ያውቃ	-1604
ችላ	-1605
▁አገልግ	-1606
በቅ	-1607
ታችን	-1608
ያቄ	-1609
▁ንጉ	-1610
ብዙ	-1611
▁የለ	-1612
▁ተመል	-1613
ባል	-1614
ሆና	-1615
▁መልካም	-1616
▁በው	-1617
ችንም	-1618
▁ልብ	-1619
ቤት	-1620
▁የት	-1621
▁ትልቅ	-1622
▁ተጨማሪ	-1623
ላም	-1624
ኝነት	-1625
▁ነበረ	-1626
▁ቀናት	-1627
ችሉ	-1628
▁መረጃ	-1629
▁የነበ	-1630
▁ትክክ	-1631
ጫወ	-1632
▁አለበት	-1633
ደም	-1634
▁ውጤ	-1635
▁(አ	-1636
ገን	-1637
▁ወቅት	-1638
ነሳ	-1639
▁ትምህርት	-1640
ተጨማሪ	-1641
ጅግ	-1642
▁"የ	-1643
ልም	-1644
▁እነርሱም	-1645
ማግኘት	-1646
▁ጥያቄ	-1647
▁አላቸው	-1648
▁ከባ	-1649
ኖሩ	-1650
▁ከፍተኛ	-1651
ሕዝ	-1652
ያስ	-1653
ዛት	-1654
ራል	-1655
ያት	-1656
ደርግ	-1657
▁ድር	-1658
የር	-1659
▁ወር	-1660
▁ገንዘብ	-1661
ከር	-1662
▁ትንሽ	-1663
▁እያንዳንዱ	-1664
ደው	-1665
ታል።	-1666
ኞቹ	-1667
▁መላ	-1668
ክር	-1669
▁ልዩ	-1670
ጠሩ	-1671
▁ዓይነት	-1672
ቷል	-1673
ዘጋ	-1674
▁እንዳለ	-1675
በብ	-1676
▁አለ።	-1677
እኛ	-1678
▁እንደገና	-1679
ናልባት	-1680
▁ያለውን	-1681
▁የምን	-1682
▁እንግ	-1683
▁ክፍል	-1684
▁ዋጋ	-1685
▁ግንኙ	-1686
▁ማንም	-1687
ም,	-1688
ተር	-1689
▁የሚያስ	-1690
▁የመጀመሪያ	-1691
▁መንገ	-1692
ቶስ	-1693
ቸዋል	-1694
▁ምናልባት	-1695
ን?	-1696
መለስ	-1697
▁ጨዋታ	-1698
▁እነሆ	-1699
ሮፓ	-1700
ሌሎች	-1701
ርግጠ	-1702
ፈር	-1703
ይህ	-1704
▁መለ	-1705
▁ማግኘት	-1706
▁በእርሱ	-1707
▁አቀ	-1708
ዮን	-1709
ከታ	-1710
ላጎ	-1711
▁ማስ	-1712
▁ፍቅር	-1713
ክርስ	-1714
ቀድ	-1715
▁ከእርሱ	-1716
▁12	-1717
▁ሁልጊዜ	-1718
ጥነት	-1719
ንቋ	-1720
▁አልተ	-1721
ነጋ	-1722
ኝ።	-1723
መሰ	-1724
▁ማህ	-1725
መው	-1726
▁የታ	-1727
▁የእርስዎ	-1728
ካታ	-1729
▁ነህ	-1730
መራ	-1731
ከቱ	-1732
ቻል	-1733
▁18	-1734
ፈስ	-1735
ደት	-1736
▁በል	-1737
መና	-1738
ማይ	-1739
▁በመጨረሻ	-1740
▁እነዚያ	-1741
▁ፍላጎ	-1742
ሖዋ	-1743
ምሳሌ	-1744
ፈራ	-1745
ደረግ	-1746
▁ንግ	-1747
ፋት	-1748
▁መብ	-1749
▁ድን	-1750
እነዚህ	-1751
እስራኤል	-1752
ሞክ	-1753
በልጥ	-1754
ወድ	-1755
▁ጥቂት	-1756
ያውቁ	-1757
ጠት	-1758
▁ዋና	-1759
▁አጋ	-1760
or	-1761
▁ከእናንተ	-1762
▁እጅ	-1763
ረብ	-1764
▁ፈቃ	-1765
ንዱ	-1766
▁ዘመን	-1767
ጠብ	-1768
▁አዳ	-1769
▁በቀ	-1770
▁ይመስ	-1771
ንት	-1772
ችሁን	-1773
▁ይሄ	-1774
▁አደ	-1775
ሩ።	-1776
▁መሠ	-1777
▁ተማሪ	-1778
ጠፋ	-1779
ሕይወት	-1780
er	-1781
▁መር	-1782
▁የተሻለ	-1783
ዲዮ	-1784
ራስ	-1785
▁ሕዝብ	-1786
ጠና	-1787
ቹን	-1788
▁ይችላሉ.	-1789
▁ማየት	-1790
ደርጉ	-1791
▁ምርጥ	-1792
▁አድ	-1793
▁የተለ	-1794
ቀም	-1795
▁ናቸው.	-1796
ሞት	-1797
ል,	-1798
ቀመ	-1799
መኑ	-1800
▁ግል	-1801
▁ድም	-1802
▁11	-1803
ምራ	-1804
▁‹‹	-1805
▁ስራ	-1806
ፈው	-1807
▁አለው።	-1808
▁መጠን	-1809
ሰባ	-1810
▁አልነበረ	-1811
▁ታሪክ	-1812
▁መግ	-1813
ብኝ	-1814
▁ኃይል	-1815
▁ከባድ	-1816
ያንስ	-1817
ከና	-1818
ሁለ	-1819
▁እርስ	-1820
▁ሰዓት	-1821
▁ቋንቋ	-1822
▁ማወቅ	-1823
ጅም	-1824
▁ይሆናል.	-1825
▁ችግር	-1826
ሚያ	-1827
ሰጥ	-1828
▁ልጆ	-1829
▁ጉዳይ	-1830
በራዊ	-1831
▁አብዛኛ	-1832
▁ይገባ	-1833
ረጥ	-1834
ቶችን	-1835
▁ቢሆንም	-1836
▁ገና	-1837
ዋቂ	-1838
▁ቢሆን	-1839
መላ	-1840
▁15	-1841
ድቅ	-1842
▁ቁጥር	-1843
ዳት	-1844
▁በተለይ	-1845
አሜሪካ	-1846
ቻቸውን	-1847
በቃ	-1848
▁ስሜ	-1849
ላማ	-1850
▁አሉት	-1851
ስብ	-1852
▁ነፍ	-1853
ነገ	-1854
▁ነፃ	-1855
▁አይደለም።	-1856
ንቀ	-1857
▁ለእኔ	-1858
▁ያሳ	-1859
▁መው	-1860
ተጨማሪም	-1861
▁ቢያንስ	-1862
▁ኃጢአ	-1863
የው	-1864
ንካ	-1865
በላ	-1866
▁ባል	-1867
ልክት	-1868
ደረጉ	-1869
▁ህዝ	-1870
ወለ	-1871
ሰበ	-1872
ወረ	-1873
ታች	-1874
▁ደስ	-1875
ችንን	-1876
▁እሱን	-1877
▁ይችላል.	-1878
ጠቀም	-1879
ወን	-1880
ሰማይ	-1881
ሥት	-1882
ከሰ	-1883
ሊዮን	-1884
▁ይችላል።	-1885
ደግ	-1886
▁ግንኙነት	-1887
▁ነው!	-1888
ብራ	-1889
ኖራ	-1890
ቸዋል።	-1891
▁ዙሪያ	-1892
ቨር	-1893
▁ኖሮ	-1894
▁መጨረሻ	-1895
ሰቡ	-1896
ላለም	-1897
▁ለው	-1898
▁200	-1899
አው	-1900
ህም	-1901
ምንት	-1902
▁ደን	-1903
ቂያ	-1904
ማንኛውም	-1905
አሁ	-1906
▁በም	-1907
▁ናት	-1908
▁ክርስቲ	-1909
▁አይችል	-1910
▁ግብ	-1911
▁እውነተኛ	-1912
ራሽ	-1913
▁እግዚአብሔርን	-1914
ወሰነ	-1915
ሃል	-1916
▁14	-1917
ገቡ	-1918
▁አባት	-1919
▁በእውነት	-1920
on	-1921
▁ስለሆነም	-1922
ውል	-1923
ሰድ	-1924
ገነ	-1925
▁ጥቅም	-1926
▁ተብ	-1927
ኑን	-1928
ተዋል	-1929
ሁለት	-1930
ከፍ	-1931
▁ቅር	-1932
ለማ	-1933
ሩን	-1934
ሳብ	-1935
▁አስደ	-1936
ታማ	-1937
▁የተለያዩ	-1938
ንግድ	-1939
ለሁ፤	-1940
▁ስፍራ	-1941
ምጃ	-1942
ላዊ	-1943
▁ከሆነ,	-1944
▁ሲል	-1945
▁ከእኔ	-1946
ን።	-1947
▁ክፉ	-1948
▁ስር	-1949
▁እነሱን	-1950
▁ይሰጣ	-1951
▁እምነት	-1952
▁ይቀ	-1953
ብረት	-1954
▁ልክ	-1955
ተኞች	-1956
▁እንደተ	-1957
▁መጀመሪያ	-1958
ላችንም	-1959
ጠቃሚ	-1960
▁አሉ።	-1961
▁ያደርጋ	-1962
▁ችግ	-1963
ም፣	-1964
▁(በ	-1965
ቅድ	-1966
▁ተጠ	-1967
▁ለእናንተ	-1968
ዘላለም	-1969
▁ካል	-1970
ሲቲ	-1971
in	-1972
▁ለተ	-1973
▁መጣ	-1974
ኒቨር	-1975
ኒቨርሲቲ	-1976
re	-1977
▁ስት	-1978
ቻችሁ	-1979
ልፍ	-1980
▁ሙሴ	-1981
ቸውም	-1982
▁መም	-1983
▁የሚቆ	-1984
ውቅ	-1985
▁ብት	-1986
ንና	-1987
▁ምግብ	-1988
ጫወት	-1989
ፈጥ	-1990
መሆን	-1991
▁አካል	-1992
▁ሲያ	-1993
ቸዋ	-1994
ምኑ	-1995
▁17	-1996
መድ	-1997
▁እርምጃ	-1998
▁ትክክለኛ	-1999
▁ወዳ	-2000
▁እኔን	-2001
▁ትር	-2002
▁በእውነቱ	-2003
▁ሳይሆን	-2004
▁ከእነርሱ	-2005
▁ወላ	-2006
ዛሬ	-2007
ሎስ	-2008
ይና	-2009
20	-2010
▁መተ	-2011
▁አገልግሎት	-2012
ርያ	-2013
ርነት	-2014
ሆኑም	-2015
ደል	-2016
▁በፍ	-2017
▁ይታ	-2018
ንድን	-2019
ታችሁ	-2020
▁ዝግ	-2021
▁አሜሪካ	-2022
ትክክ	-2023
ጡት	-2024
▁በርካታ	-2025
ርዝ	-2026
▁ታውቃ	-2027
▁ማንኛውም	-2028
ይን	-2029
በሩ	-2030
▁"እኔ	-2031
ሰጣ	-2032
ፈለግ	-2033
▁ቤተሰ	-2034
ቀላ	-2035
ተት	-2036
በትን	-2037
በያ	-2038
:3	-2039
▁ወይስ	-2040
▁በየ	-2041
አውሮፓ	-2042
ኛል	-2043
▁ጉዞ	-2044
ከብ	-2045
▁በኢ	-2046
▁16	-2047
▁እርግጠ	-2048
ጠቃላይ	-2049
▁በስ	-2050
ትና	-2051
መለከተ	-2052
▁ጓደኛ	-2053
▁እኛም	-2054
▁በሰ	-2055
ምሮ	-2056
ፖርት	-2057
ች።	-2058
▁ፍላጎት	-2059
▁ጣቢያ	-2060
▁የቀ	-2061
ጠይ	-2062
ለሁ.	-2063
▁13	-2064
▁በቂ	-2065
▁ቅጣት	-2066
ሁሉም	-2067
▁ሰላም	-2068
ክል	-2069
ወር	-2070
ዱት	-2071
▁መሠረት	-2072
▁መቼ	-2073
ከል	-2074
ረጋገ	-2075
▁በጭ	-2076
000	-2077
▁እሱም	-2078
▁ይሆናል።	-2079
▁ደግሞ	-2080
▁በጥ	-2081
ዋን	-2082
ጎች	-2083
ገራ	-2084
▁ይፈልጋ	-2085
▁ነው"	-2086
▁የለው	-2087
ፉት	-2088
ግና	-2089
▁ብርሃ	-2090
ጠረ	-2091
▁ይቅር	-2092
▁ኳስ	-2093
▁ብቸ	-2094
ስትሪ	-2095
▁በእኔ	-2096
▁ሁላችንም	-2097
ፎች	-2098
ጠው	-2099
ገብ	-2100
ለውን	-2101
▁በረ	-2102
▁መመ	-2103
ወቁ	-2104
ነዚህ	-2105
▁አላቸው።	-2106
▁(እ	-2107
▁ለእርስዎ	-2108
▁እንቅ	-2109
እክት	-2110
ቡር	-2111
ልን	-2112
▁ተግባ	-2113
▁አውቃ	-2114
▁30	-2115
▁ራስ	-2116
ጀመር	-2117
▁አገር	-2118
ሎጂ	-2119
▁አቀፍ	-2120
▁አታ	-2121
ሻሻ	-2122
▁ከአንተ	-2123
▁እነሱም	-2124
▁ምሳሌ	-2125
በው	-2126
ቂቃ	-2127
▁ይመጣ	-2128
▁ተጠቃሚ	-2129
▁ስል	-2130
▁ቡድን	-2131
▁አግ	-2132
▁ተማሪዎች	-2133
ነፍ	-2134
ማማ	-2135
ለፍ	-2136
▁እራ	-2137
▁ወሰ	-2138
▁አዎ	-2139
▁(የ	-2140
ጋሪ	-2141
ቴን	-2142
ክብ	-2143
እነሱ	-2144
ሳዊ	-2145
▁አፍ	-2146
ጠቀሙ	-2147
▁አንዳን	-2148
ንዱስትሪ	-2149
▁አያስ	-2150
▁ይሰማ	-2151
ማለት	-2152
▁ባህ	-2153
▁ዕድሜ	-2154
ስታው	-2155
▁በስተ	-2156
▁በሆነ	-2157
ፈለጉ	-2158
ሊዝ	-2159
▁ብቸኛ	-2160
ዚህ,	-2161
▁ትኩ	-2162
ኪና	-2163
▁መልስ	-2164
ደኛ	-2165
▁ሁለቱም	-2166
ገት	-2167
▁ያላቸው	-2168
▁ዩኒቨርሲቲ	-2169
▁የመጀመሪያው	-2170
ርክ	-2171
ሊት	-2172
ቾች	-2173
ቅርብ	-2174
ሶች	-2175
ታቸውን	-2176
ላችሁ።	-2177
▁የሰ	-2178
▁ተጫ	-2179
ርሷ	-2180
መልከት	-2181
▁ሕዝቡ	-2182
▁"ከ	-2183
ገዛ	-2184
▁ውድ	-2185
▁መኖር	-2186
▁እርግጠኛ	-2187
▁ምላ	-2188
▁መንፈስ	-2189
መጠ	-2190
▁በውስ	-2191
▁ቀጥ	-2192
ጹም	-2193
ለዋል	-2194
▁እድ	-2195
▁በት	-2196
▁መልክ	-2197
▁መሰ	-2198
▁ሀብ	-2199
▁እንዳይ	-2200
ሉን	-2201
ሉ፤	-2202
le	-2203
▁አቅ	-2204
ሙያ	-2205
▁ደቂቃ	-2206
▁ከአንድ	-2207
ቀበል	-2208
ሣሪያ	-2209
ለህ?	-2210
▁የሆኑ	-2211
▁ከእኛ	-2212
▁አለባቸው	-2213
ለች።	-2214
▁አካባቢ	-2215
▁ተና	-2216
▁በሕ	-2217
ተመሳሳይ	-2218
|1	-2219
ቶቹ	-2220
▁አይደለም.	-2221
ዱን	-2222
ሽን	-2223
▁የአምላክ	-2224
▁ብዙውን	-2225
▁ነበር,	-2226
ፍጥነት	-2227
▁አጥ	-2228
▁24	-2229
▁ክርስቶስ	-2230
▁መታ	-2231
ግን	-2232
▁መጥፎ	-2233
ችው	-2234
ቃል	-2235
▁እስኪ	-2236
ትምህ	-2237
▁ይመለ	-2238
ፊቱ	-2239
ወጥ	-2240
▁አማራ	-2241
ላችኋ	-2242
ጠበ	-2243
▁የእግዚአብሔርን	-2244
▁ከእግዚአብሔር	-2245
▁አገልጋ	-2246
ንግዲህ	-2247
▁የለም።	-2248
▁ወጣ	-2249
▁ባሪያ	-2250
▁መሣሪያ	-2251
ግበ	-2252
ክኖ	-2253
▁ያላ	-2254
ረተ	-2255
▁ፕሮግራ	-2256
▁መንግሥት	-2257
▁በደ	-2258
ይማ	-2259
ዚያን	-2260
▁ይናገ	-2261
ነቶች	-2262
▁በጭራሽ	-2263
▁ስን	-2264
▁ይገኛ	-2265
▁እባ	-2266
▁ሁለተኛ	-2267
ክርስቲ	-2268
▁ይላሉ	-2269
▁ይሁን	-2270
▁ተገ	-2271
oo	-2272
ደሰ	-2273
ል?	-2274
▁ገደ	-2275
▁ዝርዝ	-2276
▁ብር	-2277
▁ለእኛ	-2278
▁በዓ	-2279
ይማኖ	-2280
▁ኪዳን	-2281
▁አግኝ	-2282
▁ለም	-2283
ምን?	-2284
▁የሚል	-2285
▁መጻ	-2286
ናቸው	-2287
▁ስላ	-2288
ጋት	-2289
▁ውስጥ,	-2290
▁አንተም	-2291
ቆም	-2292
▁"ይህ	-2293
▁እናውቃ	-2294
▁ቀደም	-2295
▁ማሳ	-2296
▁ሰዎች	-2297
▁ግልጽ	-2298
▁መሳ	-2299
ገንዘብ	-2300
ሪቱ	-2301
▁ተነ	-2302
ዳታ	-2303
ታይ	-2304
ቃሚ	-2305
▁ተራ	-2306
▁ጠቃሚ	-2307
አየር	-2308
▁የራ	-2309
▁ስብ	-2310
ረድ	-2311
▁አለኝ	-2312
▁መቶ	-2313
▁አምላ	-2314
ዊት	-2315
ንካራ	-2316
▁ጥር	-2317
ክኖሎጂ	-2318
▁ቪዲዮ	-2319
ፈጸ	-2320
▁ንጉሥ	-2321
ህና	-2322
▁እስራ	-2323
▁ሚሊዮን	-2324
▁ሆነው	-2325
▁ለዘላለም	-2326
ለህ።	-2327
▁ዓላማ	-2328
▁ተጫዋ	-2329
መጡ	-2330
▁ሞት	-2331
ላቸው።	-2332
ሙን	-2333
▁ውሃ	-2334
▁ገጽ	-2335
ረጅም	-2336
መደ	-2337
ካት	-2338
▁ማስተ	-2339
▁አለብ	-2340
▁ሚስ	-2341
በሉ	-2342
ርሱም	-2343
▁ይመል	-2344
▁ቤተሰብ	-2345
ናቂ	-2346
ኖረው	-2347
▁ችሎ	-2348
ንጉ	-2349
▁ፈቃድ	-2350
▁ተጽ	-2351
▁25	-2352
ሁዳ	-2353
3|	-2354
▁መሥ	-2355
▁አደጋ	-2356
▁ብርሃን	-2357
▁ትል	-2358
▁ይሖዋ	-2359
▁ያሉት	-2360
▁አይደሉም	-2361
ትምህርት	-2362
▁ሆይ፥	-2363
▁ስህ	-2364
▁መዝ	-2365
▁ማስታ	-2366
▁መሄድ	-2367
▁ፈጽ	-2368
▁ከል	-2369
ቋቋ	-2370
▁የሚፈልጉ	-2371
▁ይዘ	-2372
የሁ	-2373
▁ጥቅ	-2374
,000	-2375
ማየት	-2376
▁ፍሬ	-2377
▁የሚቆጠሩ	-2378
▁መስጠት	-2379
ንዳ	-2380
ጥቂት	-2381
ኝም	-2382
ሏል	-2383
▁አር	-2384
▁አብዛኛዎቹ	-2385
▁ስለዚህ,	-2386
▁ድጋ	-2387
▁በኋላ	-2388
ዲያው	-2389
ራችሁ	-2390
▁በግል	-2391
▁ለሁሉም	-2392
▁ትችላ	-2393
ታን	-2394
ስቃ	-2395
ረዳት	-2396
▁ሥር	-2397
ዛዝ	-2398
▁የጌታ	-2399
▁ሕግ	-2400
▁አለመ	-2401
▁ሰዓ	-2402
ሬት	-2403
ናይት	-2404
ዕራ	-2405
▁ጠንካራ	-2406
▁እግዚአብሔርም	-2407
ዲት	-2408
▁ምርጫ	-2409
▁ምላሽ	-2410
ባይ	-2411
▁ብሎ	-2412
ድል	-2413
የቅ	-2414
መት	-2415
ናይትድ	-2416
▁ይኖር	-2417
▁ክብር	-2418
▁ህይወት	-2419
▁ስሜት	-2420
▁ታላ	-2421
▁ሁለቱ	-2422
ኮች	-2423
▁26	-2424
እክ	-2425
▁ደንበ	-2426
▁ዘር	-2427
ቀድሞ	-2428
ሩም	-2429
ማስ	-2430
ባለ	-2431
ኩት	-2432
▁አስቸ	-2433
▁ህዝብ	-2434
▁ፕሮጀ	-2435
▁አይነት	-2436
ሰሙ	-2437
▁የሆነው	-2438
▁እንደሚያ	-2439
ቁር	-2440
ወቀ	-2441
ቻላል	-2442
▁ለውጥ	-2443
ሣኤ	-2444
▁ምልክት	-2445
ወሰኑ	-2446
ኾኑ	-2447
ጮች	-2448
ጠላ	-2449
▁ነበር፤	-2450
▁ደህን	-2451
▁ሰይ	-2452
ንደ	-2453
▁መደ	-2454
ትክክል	-2455
ሰጠው	-2456
ሩትን	-2457
መለሱ	-2458
▁አለብን	-2459
▁ስኬ	-2460
ፈልገ	-2461
▁ታዲያ	-2462
ሆኑት	-2463
ችለው	-2464
▁ትዕ	-2465
▁በእኛ	-2466
▁ቀድ	-2467
▁አያውቁ	-2468
ያዝ	-2469
ነግ	-2470
ለን.	-2471
▁ከእንግዲህ	-2472
ቤተሰብ	-2473
መግ	-2474
▁የሌ	-2475
ማወቅ	-2476
▁(ከ	-2477
፡-	-2478
ውልድ	-2479
▁ባይ	-2480
▁ሠራ	-2481
ግበሪያ	-2482
▁ማህበራዊ	-2483
ረጋግ	-2484
▁ፍርድ	-2485
ከተማ	-2486
ሳኔ	-2487
▁የእርሱ	-2488
▁በእናንተ	-2489
ደረገው	-2490
ቃት	-2491
▁ጽሑ	-2492
▁ሚስት	-2493
ሉ,	-2494
▁ትኩረት	-2495
▁መፍ	-2496
▁ድርጅ	-2497
ወንድ	-2498
▁መድረ	-2499
▁ደስታ	-2500
▁ሦስት	-2501
ኾን	-2502
▁ይኖራ	-2503
▁የካ	-2504
▁ኃጢአት	-2505
▁ቆይ	-2506
▁ቃላት	-2507
▁እንዳል	-2508
▁በመሆኑም	-2509
▁ቁር	-2510
ጥረት	-2511
▁ክስተ	-2512
▁አሸ	-2513
▁ነጻ	-2514
▁ድጋፍ	-2515
ውቅም	-2516
at	-2517
▁ልጆች	-2518
ሴት	-2519
19	-2520
▁ለማን	-2521
▁በሚቀጥ	-2522
▁ማዕ	-2523
▁የተለየ	-2524
▁ዝርዝር	-2525
▁22	-2526
ቻለ	-2527
ረዱ	-2528
ሕዛ	-2529
ያል	-2530
▁ፍጹም	-2531
▁የሚችል	-2532
▁ሰማ	-2533
▁በአላህ	-2534
▁ሳምንት	-2535
ደርገ	-2536
▁ባለው	-2537
▁መቅ	-2538
ቶቻችን	-2539
▁ጊዜ,	-2540
▁ዝግጁ	-2541
▁በነ	-2542
ሉ?	-2543
▁አደረገ	-2544
▁21	-2545
▁ደስተኛ	-2546
ጠል	-2547
▁ኢንዱስትሪ	-2548
▁ችሎታ	-2549
አል	-2550
ከው	-2551
ስር	-2552
ሳን	-2553
▁ዜና	-2554
ገደ	-2555
▁አስቸጋሪ	-2556
ላፊ	-2557
ይሖዋ	-2558
ከፈ	-2559
ተኛው	-2560
▁ትርጉ	-2561
▁ቁጥ	-2562
ተን	-2563
▁ውሳኔ	-2564
ሄር	-2565
ar	-2566
▁መኪና	-2567
▁ልት	-2568
ወጡ	-2569
▁ትእ	-2570
▁ስቴ	-2571
ልህ	-2572
መም	-2573
▁በጌታ	-2574
ጋና	-2575
▁ይሆና	-2576
▁ዕው	-2577
▁ንጉሡ	-2578
▁ነቢ	-2579
ነጋገር	-2580
ዋት	-2581
ct	-2582
▁የተመ	-2583
▁እንግዲህ	-2584
ጓዝ	-2585
ከረ	-2586
ሁት	-2587
▁ፈጽሞ	-2588
▁ሰባት	-2589
ኾነ	-2590
ላንድ	-2591
ro	-2592
▁ይችላሉ።	-2593
▁ዘዴ	-2594
ቤቱ	-2595
ምድ	-2596
st	-2597
▁ገበያ	-2598
▁በስተቀር	-2599
▁ሰም	-2600
▁አማካ	-2601
ጋራ	-2602
▁መተግበሪያ	-2603
▁መከራ	-2604
ስን	-2605
▁ካለ	-2606
▁እኛን	-2607
▁ሰጠ	-2608
▁መፍት	-2609
ረንሳይ	-2610
ጨነ	-2611
ዶቹ	-2612
ኔን	-2613
ናገረ	-2614
▁ወዲያው	-2615
ዘጋጀ	-2616
ዚቃ	-2617
ቆጣ	-2618
▁እባክ	-2619
ስቃሴ	-2620
ሴፍ	-2621
▁ይፈ	-2622
▁እንድት	-2623
▁መመሪያ	-2624
ተና	-2625
መጨረሻ	-2626
▁አምስት	-2627
▁በዚያም	-2628
ዕኖ	-2629
▁እንጅ	-2630
ጽሐፉ	-2631
▁ሂደት	-2632
▁መጠቀም	-2633
መጠቀም	-2634
▁የምድር	-2635
▁መሆና	-2636
▁ፈር	-2637
▁የመጣ	-2638
an	-2639
▁እንድን	-2640
▁በተመለከተ	-2641
ጀር	-2642
ስቡ	-2643
ሳች	-2644
▁ያልተ	-2645
ችሉም	-2646
▁ያስተ	-2647
▁አሉት።	-2648
ቷል።	-2649
▁አዲ	-2650
▁በዚያን	-2651
ታውቁ	-2652
ሕዝቡ	-2653
:4	-2654
▁መሪ	-2655
▁በታ	-2656
▁ለእግዚአብሔር	-2657
▁እርዳታ	-2658
ሕዛብ	-2659
▁ከማ	-2660
▁ባለቤ	-2661
▁አደርጋ	-2662
ሞከር	-2663
▁ፎቶ	-2664
▁ወጣት	-2665
▁አገልግሎ	-2666
አላህ	-2667
ሎችን	-2668
ጦታ	-2669
ሲያ	-2670
▁ተከታ	-2671
▁Me	-2672
▁23	-2673
ዳል	-2674
ውቁ	-2675
▁ሕይወ	-2676
▁የበ	-2677
ዚሁ	-2678
▁ይመልከቱ	-2679
▁እስካ	-2680
▁ነበሩ	-2681
▁እንቅስቃሴ	-2682
ኮኖ	-2683
ቆየት	-2684
▁ነውና	-2685
▁እህ	-2686
▁አብዛኞቹ	-2687
▁ቀር	-2688
ሄዱ	-2689
ቀቅ	-2690
▁የነበረ	-2691
▁ድምፅ	-2692
ዘው	-2693
ቢት	-2694
ልኝ	-2695
▁ክርስቲያ	-2696
▁በብዙ	-2697
ኖረ	-2698
▁ስቴት	-2699
ከባ	-2700
▁አውቃለሁ	-2701
▁አራት	-2702
▁ፈጣን	-2703
▁አዝ	-2704
ያንዳንዳ	-2705
▁ትክክል	-2706
▁በራ	-2707
ራን	-2708
▁ደግሞም	-2709
ክስ	-2710
▁አይደለሁ	-2711
▁ስለሚ	-2712
ኞችን	-2713
▁አመሰ	-2714
it	-2715
▁እግር	-2716
ጣሪ	-2717
ኢየሱስ	-2718
▁ጤና	-2719
▁ዘመ	-2720
▁ቀድሞ	-2721
ሙር	-2722
▁ተደር	-2723
▁ለሰ	-2724
▁ተደ	-2725
ጥሩ	-2726
ዳር	-2727
ሐንስ	-2728
▁እሳት	-2729
ሕር	-2730
▁ወንድሞ	-2731
ግዚአብሄር	-2732
▁ከሰ	-2733
▁ወስ	-2734
ጭር	-2735
ናችሁ	-2736
ሜን	-2737
▁የምታ	-2738
ጀም	-2739
▁የፈ	-2740
▁ታማ	-2741
ደርገው	-2742
ፈጥሮ	-2743
▁ቴክኖሎጂ	-2744
▁መሳሪያ	-2745
▁መቀ	-2746
▁Cor	-2747
▁አድርገ	-2748
ቀመጥ	-2749
ሠሩት	-2750
▁ገብ	-2751
▁እናት	-2752
ማሳ	-2753
▁ዶላ	-2754
▁የምና	-2755
▁በላ	-2756
ዕቆ	-2757
▁አልቻ	-2758
▁ምክር	-2759
ነዚያ	-2760
ነበር	-2761
ክምና	-2762
ከተል	-2763
ማሚ	-2764
▁ጠላ	-2765
ለል	-2766
4|	-2767
▁አስደሳች	-2768
መስጠት	-2769
▁ዳር	-2770
በኛ	-2771
ተናል	-2772
ክርስቲያን	-2773
▁ተዋ	-2774
ገኘው	-2775
ነሣ	-2776
መነ	-2777
ጋል	-2778
ባበ	-2779
▁ለራ	-2780
ገረ	-2781
ደርስ	-2782
ለቲ	-2783
እምሮ	-2784
▁ተጠቃሚዎች	-2785
ሃለሁ	-2786
▁ርዕ	-2787
ችልም	-2788
ታል.	-2789
▁የተቀ	-2790
▁አባላት	-2791
▁ተጽዕኖ	-2792
ቶቻቸው	-2793
ሬን	-2794
ይታ	-2795
ዋል.	-2796
▁የሆነውን	-2797
▁አዎን	-2798
▁ምስክር	-2799
ኃጢአ	-2800
▁እንደሆኑ	-2801
▁ተናግ	-2802
▁ተወዳ	-2803
ላለን	-2804
▁በክ	-2805
▁ማስታወ	-2806
ድስት	-2807
▁100	-2808
▁ይወዳ	-2809
▁የተወሰነ	-2810
▁ዕድል	-2811
▁እንችላ	-2812
▁እርሱን	-2813
ሰጡ	-2814
ሞላ	-2815
▁አና	-2816
ዚህም	-2817
ቻለሁ	-2818
ጆቹ	-2819
ዬን	-2820
ገነዘ	-2821
ዘን	-2822
አም	-2823
▁ስጦታ	-2824
ጦች	-2825
▁ጥበብ	-2826
▁50	-2827
ክርስቶስ	-2828
ናገሩ	-2829
▁ጨም	-2830
▁ሌሊት	-2831
▁እም	-2832
▁ለእነርሱ	-2833
ሳተ	-2834
▁መድ	-2835
ማሽ	-2836
▁ውጤታማ	-2837
▁ናችሁ	-2838
ረበ	-2839
▁ነጥ	-2840
▁መጠበቅ	-2841
▁ለል	-2842
▁አንዲት	-2843
ፈልገው	-2844
ጣሚ	-2845
▁የሚታ	-2846
▁የመጨረሻ	-2847
▁ሰማይ	-2848
▁ሄደ	-2849
እግር	-2850
ህዝ	-2851
▁ክል	-2852
▁አገኘ	-2853
▁በመቶ	-2854
መካከ	-2855
▁ውጤት	-2856
ውጭ	-2857
ኛውንም	-2858
▁ክርስቲያን	-2859
▁ተፈ	-2860
ለምን	-2861
▁ይናገራ	-2862
▁ወዲያውኑ	-2863
ሳችሁ	-2864
▁ዝቅ	-2865
▁ምርት	-2866
▁መውሰድ	-2867
▁እንደም	-2868
▁አላህም	-2869
▁ነፍስ	-2870
▁ምንድን	-2871
ውሎስ	-2872
▁ኃይ	-2873
▁መልአ	-2874
▁ዶላር	-2875
▁ወጥ	-2876
▁ይቆ	-2877
rect	-2878
▁ሰጥ	-2879
ሪስ	-2880
▁ያገኛ	-2881
▁የል	-2882
▁ናቸው,	-2883
▁ማው	-2884
ዕቆብ	-2885
▁ሃይማኖ	-2886
7|	-2887
ሰሩ	-2888
ሞን	-2889
ላቸውም	-2890
▁28	-2891
▁አለን	-2892
▁በአንተ	-2893
ዘር	-2894
ሉም።	-2895
▁ስህተት	-2896
ንቅ	-2897
ሃል።	-2898
ባህ	-2899
ረጋገጥ	-2900
▁በቀር	-2901
▁Correct	-2902
ናገረው	-2903
ቦት	-2904
▁አይችሉም	-2905
ሻሻል	-2906
ራው	-2907
▁ወጪ	-2908
▁እስራኤል	-2909
ፈሳዊ	-2910
ባችሁ	-2911
▁ጦርነት	-2912
▁ይላል	-2913
▁በመን	-2914
▁ምድ	-2915
ጋለሁ	-2916
▁ፍጥነት	-2917
▁አስታው	-2918
ያቸው	-2919
ፖር	-2920
ቅረብ	-2921
▁የወደ	-2922
▁እንዲያውም	-2923
▁ናቸው፤	-2924
▁ቡድ	-2925
▁ማህበረ	-2926
▁ነኝ።	-2927
▁ትውልድ	-2928
▁ሚዲያ	-2929
ከለ	-2930
▁በፊት	-2931
በረታ	-2932
▁ንግድ	-2933
ቀል	-2934
ቡብ	-2935
▁በእሱ	-2936
ሊዝኛ	-2937
ፕላ	-2938
ያዘ	-2939
ቀጥታ	-2940
ህይወት	-2941
ሄዳ	-2942
▁ወዲህ	-2943
▁እፈልጋ	-2944
▁አስደናቂ	-2945
▁በእነርሱ	-2946
▁ምልክ	-2947
▁ማለ	-2948
ባረ	-2949
▁ጠየ	-2950
▁ጠብ	-2951
▁ጊዜም	-2952
ጣል	-2953
መፍ	-2954
▁ወላጆች	-2955
ሞክሮ	-2956
▁አዳዲስ	-2957
▁ትርጉም	-2958
▁መጫወት	-2959
▁ለአንተ	-2960
ስቱ	-2961
▁መብት	-2962
ታም	-2963
▁ጥረት	-2964
ከናወ	-2965
አብዛ	-2966
▁የሕይወት	-2967
▁እርሷ	-2968
▁አነ	-2969
ሰን	-2970
መጥ	-2971
▁ወገ	-2972
▁አድርጓ	-2973
▁ተሞክሮ	-2974
▁ከጌታ	-2975
ኸው	-2976
ቡን	-2977
ለቲካ	-2978
▁ያላቸውን	-2979
▁ባለሙያ	-2980
▁ማንኛውንም	-2981
መክ	-2982
▁እውቀት	-2983
ከፋ	-2984
ዓመ	-2985
ሏቸው	-2986
ነው።	-2987
ግብፅ	-2988
ሁድ	-2989
9|	-2990
▁ስብሰባ	-2991
ከላ	-2992
ገናኘት	-2993
ወስድ	-2994
ወላ	-2995
▁ያሉትን	-2996
▁መገ	-2997
▁አላውቅም	-2998
▁አያው	-2999
ዎታል	-3000
▁ፈተና	-3001
▁(1	-3002
ንክ	-3003
▁እንደሆን	-3004
▁ንብረት	-3005
መኛ	-3006
▁ይሆን	-3007
▁በቃ	-3008
ብቻ	-3009
▁አመሰግና	-3010
ነትን	-3011
ሰር	-3012
en	-3013
▁ምሽ	-3014
ርግጠኝነት	-3015
ልጣ	-3016
▁ይሆናል,	-3017
▁ወራት	-3018
ou	-3019
ግም	-3020
ዋር	-3021
ሳችን	-3022
ጥረ	-3023
ታረ	-3024
ሁኑ	-3025
ac	-3026
ጊያ	-3027
ባብ	-3028
▁እኮ	-3029
▁ነው፣	-3030
መንግ	-3031
▁199	-3032
ካል	-3033
▁ይረዳ	-3034
ላለሁ	-3035
▁ጥርጥር	-3036
▁እንስ	-3037
▁መስመር	-3038
▁የሚለው	-3039
ዘዝ	-3040
▁ውኃ	-3041
▁እንዲሆን	-3042
ሾች	-3043
▁የተፈ	-3044
▁አይችልም	-3045
▁በቅ	-3046
መዝ	-3047
▁ይመለሳ	-3048
▁ከእሱ	-3049
ጣቸው	-3050
▁ነበሩ።	-3051
▁ሆኗ	-3052
▁40	-3053
▁ተቋ	-3054
ማቸው	-3055
▁ጸሎት	-3056
▁የአላህ	-3057
▁ዛፍ	-3058
ከናወን	-3059
መቀ	-3060
▁የሚጠ	-3061
▁አማራጭ	-3062
ነበሩ	-3063
▁በሚያ	-3064
እያንዳንዱ	-3065
ብህ	-3066
▁ክፍያ	-3067
▁ምሥ	-3068
ባቡር	-3069
gle	-3070
▁ሥጋ	-3071
ቀደ	-3072
▁ሳምን	-3073
▁ሀገር	-3074
ናን	-3075
▁በእርስዎ	-3076
▁ፕሮግራም	-3077
ዋለሁ	-3078
▁ጥራት	-3079
▁ያውቃል	-3080
▁ከላይ	-3081
ሊያ	-3082
▁ደቂቃዎች	-3083
▁የተወሰኑ	-3084
▁የለውም	-3085
▁በሕይወ	-3086
አጠቃላይ	-3087
ሎቹ	-3088
▁ወረ	-3089
▁አይሆንም	-3090
ዩናይትድ	-3091
ኩ።	-3092
ሮን	-3093
▁እስካሁን	-3094
▁በሚቀጥለው	-3095
▁ማታ	-3096
▁ሀገ	-3097
oogle	-3098
▁አምላካ	-3099
▁በእርግጠኝነት	-3100
▁ሰራ	-3101
▁መጻሕ	-3102
▁መንግስት	-3103
ኖራቸው	-3104
▁ልጄ	-3105
▁የማያ	-3106
▁የሚሆን	-3107
▁ካሉ	-3108
▁ነዋ	-3109
ፈሩ	-3110
ጠበቀ	-3111
ድርጉ	-3112
▁አጋጣሚ	-3113
▁አንተን	-3114
ሏል።	-3115
▁አመት	-3116
▁ነውና።	-3117
▁ምዕራ	-3118
▁ይል	-3119
▁ሆይ፣	-3120
መለከት	-3121
am	-3122
▁ጽሑፍ	-3123
ምረ	-3124
ያየት	-3125
ሁለተኛ	-3126
▁ያስፈልጋ	-3127
▁በዳ	-3128
የሩ	-3129
5|	-3130
▁በመጨረሻም	-3131
ነገር	-3132
ቼን	-3133
▁በጎ	-3134
ነው?	-3135
ሠሩ	-3136
ናፊ	-3137
ደረጋ	-3138
▁በገ	-3139
ዳደር	-3140
▁ዳዊት	-3141
▁አይደለም,	-3142
▁ታማኝ	-3143
ንቃ	-3144
ማል	-3145
▁ጀመረ	-3146
▁ለእርሱ	-3147
ይም	-3148
ሔራዊ	-3149
▁ኢን	-3150
▁ሊሆኑ	-3151
መለከቱ	-3152
▁እንደሚችሉ	-3153
▁እንጀ	-3154
››	-3155
ዎቹን	-3156
እሳት	-3157
ንጆ	-3158
ስም	-3159
).	-3160
▁ልን	-3161
▁ለማስ	-3162
ባኤ	-3163
one	-3164
▁በኋላ,	-3165
▁ጳውሎስ	-3166
ከተሉ	-3167
ትዮ	-3168
▁ፈል	-3169
▁አባል	-3170
▁ናት።	-3171
▁በተቻለ	-3172
ጡ።	-3173
ቻይና	-3174
ማም	-3175
▁ረጅም	-3176
ሌለ	-3177
ለመ	-3178
ኖሪያ	-3179
▁ተወዳጅ	-3180
ጁን	-3181
ኮኖሚ	-3182
ነስ	-3183
ሮችን	-3184
▁ጀር	-3185
▁እናንተም	-3186
▁በግልጽ	-3187
▁መማር	-3188
ውነ	-3189
ስቡክ	-3190
▁የላ	-3191
▁መሥራት	-3192
ፊያ	-3193
ውኑ	-3194
ሴን	-3195
መርዳት	-3196
▁ከሆኑ	-3197
▁ማር	-3198
▁የተነሳ	-3199
▁ቆንጆ	-3200
ንዳንድ	-3201
ስለ	-3202
▁ምንጭ	-3203
▁ላይ,	-3204
ወቃ	-3205
ከፍተኛ	-3206
▁የኢ	-3207
▁ታዋቂ	-3208
ገም	-3209
ኛል።	-3210
ውቀው	-3211
▁ዝም	-3212
▁እንደሚችል	-3213
▁ደህንነት	-3214
▁ይላል።	-3215
ባሉ	-3216
ሳል	-3217
▁ግለ	-3218
▁ለአንድ	-3219
ፍትዌ	-3220
ስመር	-3221
::	-3222
2|	-3223
ከሩ	-3224
▁በሽ	-3225
▁ሰብ	-3226
▁መልካ	-3227
ጋዊ	-3228
ዳም	-3229
ደንብ	-3230
ያለሁ	-3231
▁ከም	-3232
▁ሰዓታት	-3233
ንም።	-3234
▁ግድ	-3235
▁ስልክ	-3236
▁መናገር	-3237
▁ጥናት	-3238
ተዋል።	-3239
▁አንቀ	-3240
ጀመሪያው	-3241
ኞቻቸው	-3242
▁ይባ	-3243
ምፒ	-3244
8|	-3245
ትዮጵ	-3246
ሆነው	-3247
▁እናውቃለን	-3248
▁በዙ	-3249
▁ማጥ	-3250
ጋለን	-3251
▁የአባ	-3252
▁በቀን	-3253
▁ራሱን	-3254
▁መጻሕፍት	-3255
▁መላእክት	-3256
ደጋ	-3257
የም	-3258
ና፤	-3259
:5	-3260
ናዳ	-3261
ባቸውን	-3262
▁የነበረው	-3263
▁ወገን	-3264
▁አንዳንዶቹ	-3265
ይሁዳ	-3266
ሐይ	-3267
▁ቢሆንም,	-3268
▁ሞዴ	-3269
ደገ	-3270
ሞክራ	-3271
ም?	-3272
▁ፈለ	-3273
▁ይሻ	-3274
▁ዐዋቂ	-3275
▁አሳል	-3276
ም)	-3277
▁ባለቤት	-3278
ነቱን	-3279
▁ይጠብ	-3280
▁ይወስ	-3281
▁በሰማይ	-3282
▁መመለስ	-3283
▁ለእነሱ	-3284
ግሌ	-3285
ዩት	-3286
▁በላቸው።	-3287
ዕክ	-3288
ወገድ	-3289
:,	-3290
▁iP	-3291
ጾች	-3292
ሰላም	-3293
▁እንደማይ	-3294
ገንባት	-3295
ራዊት	-3296
ሥር	-3297
▁ካር	-3298
ዎችም	-3299
▁አሸናፊ	-3300
▁ባለፉት	-3301
▁የሚችሉ	-3302
▁ውሸ	-3303
▁እያንዳንዳ	-3304
▁አንቺ	-3305
▁መምረጥ	-3306
አት	-3307
▁ዮሴፍ	-3308
▁ተጋ	-3309
ገሩ	-3310
nd	-3311
ic	-3312
▁ባለፈው	-3313
▁ሶስት	-3314
▁ምንድ	-3315
ዚያው	-3316
ቀስ	-3317
▁ቀጣ	-3318
ልጣን	-3319
ለዋል።	-3320
6|	-3321
▁ይቅርታ	-3322
▁ሰባ	-3323
▁ፕሮጀክት	-3324
▁ይችላል,	-3325
▁ማስረጃ	-3326
ጋሚ	-3327
▁ጠይ	-3328
▁ያለን	-3329
▁እወዳ	-3330
▁ልዩነት	-3331
ጥፍ	-3332
ሰማያት	-3333
▁አውታረ	-3334
▁ተሰ	-3335
▁ፕሬ	-3336
▁ሆይ፤	-3337
ኣን	-3338
ላችሁ?	-3339
▁ጥበ	-3340
▁ይበ	-3341
▁የጉ	-3342
▁ክብ	-3343
▁2020	-3344
▁202	-3345
ዋዕ	-3346
▁በበ	-3347
ጤና	-3348
ረቱ	-3349
ኔት	-3350
ረፍት	-3351
▁ያም	-3352
▁አመሰግናለሁ	-3353
▁በርሱ	-3354
አቸው	-3355
ላችን	-3356
▁ፈጣሪ	-3357
▁32	-3358
ጋሉ	-3359
▁ሀሳብ	-3360
ይቱ	-3361
▁የግ	-3362
▁አጠቃላይ	-3363
▁ነው;	-3364
▁መዛ	-3365
ደስ	-3366
ቶቻችሁ	-3367
ሠረተ	-3368
▁የስ	-3369
ሻለ	-3370
ለጋ	-3371
▁ቀጠ	-3372
ጣጫ	-3373
የሩሳሌ	-3374
ዖን	-3375
▁አሉ.	-3376
▁የተሳ	-3377
▁ክፍት	-3378
▁እንደምት	-3379
▁ነበረው	-3380
▁ታሪ	-3381
▁ምድርን	-3382
በትም	-3383
መኖር	-3384
▁ከዚህም	-3385
▁አየር	-3386
▁አውሮፓ	-3387
▁(ይ	-3388
▁...	-3389
ባህር	-3390
ሌላው	-3391
▁ይመስለኛ	-3392
▁ይሠራ	-3393
ማስተ	-3394
▁ሙዚቃ	-3395
▁መልአክ	-3396
ጠቅ	-3397
ወል	-3398
ትር	-3399
▁የሞ	-3400
ይነ	-3401
▁ዳርቻ	-3402
▁ከፈለጉ	-3403
ሄደ	-3404
al	-3405
ረቡ	-3406
▁ያመኑ	-3407
▁የተወለ	-3408
ካሪ	-3409
ነሰ	-3410
▁ቅርብ	-3411
ጠኝ	-3412
እሱ	-3413
ስሊ	-3414
▁ጓደኞች	-3415
▁ከሰማይ	-3416
▁አንዱን	-3417
▁ትእዛዝ	-3418
▁ከእርስዎ	-3419
ድረስ	-3420
▁ዎቹ	-3421
▁ኾነው	-3422
▁ክርስቲያኖች	-3423
▁ትንሣኤ	-3424
▁በኢየሱስ	-3425
▁መክ	-3426
ከታተ	-3427
ሸነፍ	-3428
▁አመለ	-3429
ፈረ	-3430
ባባ	-3431
▁Google	-3432
▁እያለ	-3433
ታችንን	-3434
▁አሰ	-3435
ዋም	-3436
et	-3437
▁"አንተ	-3438
ወዱ	-3439
▁ከአላህ	-3440
ፈት	-3441
▁ጀመር	-3442
ጎብ	-3443
ዘጋጅ	-3444
▁ድንጋ	-3445
▁አለ?	-3446
ዎቻቸው	-3447
ስክ	-3448
▁አለብዎት	-3449
ደረሰ	-3450
▁ተጫዋቾች	-3451
▁ቅድ	-3452
ሩሲያ	-3453
▁አበ	-3454
▁መሆናቸውን	-3455
ባዊ	-3456
:12	-3457
▁ያምና	-3458
▁የአንድ	-3459
ጥሮ	-3460
▁የእሱ	-3461
▁አይገባ	-3462
▁ህይወ	-3463
▁የሚሆኑት	-3464
ያዙ	-3465
ቦቹ	-3466
ርሃት	-3467
ሥታት	-3468
▁አነስተኛ	-3469
▁ባቡር	-3470
▁መኾ	-3471
ቤተሰ	-3472
ቁም	-3473
ለጫ	-3474
:9	-3475
▁አቅጣጫ	-3476
▁ሰይጣን	-3477
▁መፍትሄ	-3478
ትዮጵያ	-3479
▁ተራራ	-3480
▁ምስጋና	-3481
▁ማንበብ	-3482
▁የተሰ	-3483
▁ዝቅተኛ	-3484
▁አጠ	-3485
ጸል	-3486
ስታውስ	-3487
▁ፖሊ	-3488
▁ውይ	-3489
▁ሲሉ	-3490
▁ለሌሎች	-3491
ነበሩት	-3492
ሰት	-3493
መንገድ	-3494
ላፊነት	-3495
▁አስገራ	-3496
▁አስገራሚ	-3497
▁በሺ	-3498
እርሱ	-3499
ነም	-3500
ፋን	-3501
ታዎች	-3502
ለየ	-3503
he	-3504
ገዱ	-3505
ዝም	-3506
ሮፕላ	-3507
መጠበቅ	-3508
hone	-3509
▁ጠቅ	-3510
▁ግልፅ	-3511
▁የነበሩት	-3512
▁በምን	-3513
▁አለ,	-3514
▁በተለያዩ	-3515
ግዳ	-3516
ተህ	-3517
▁ፍት	-3518
▁አደረግ	-3519
ፊዎች	-3520
ጀርመን	-3521
አለም	-3522
ንጉሡ	-3523
▁ተቃ	-3524
ሙሴ	-3525
መሩ	-3526
▁"እኛ	-3527
ኞቻችን	-3528
▁መሬት	-3529
ውነት	-3530
ሌቪ	-3531
▁ጠዋት	-3532
▁ጊዜያት	-3533
▁ይላሉ።	-3534
▁አዘ	-3535
▁ምሽት	-3536
▁ይችላሉ,	-3537
▁ንጹ	-3538
▁ነን።	-3539
▁ስርዓት	-3540
ው።	-3541
ተኞቹ	-3542
ረሳ	-3543
ሌቪዥ	-3544
▁ገል	-3545
▁በአምላክ	-3546
▁ሦስተኛ	-3547
▁ምርምር	-3548
ገናኙ	-3549
የሩሳሌም	-3550
ክሮች	-3551
አንዳንድ	-3552
ንፃ	-3553
▁ይሄዳ	-3554
▁እንዴ	-3555
▁ተሳ	-3556
▁አደርጋለሁ	-3557
▁መና	-3558
▁ለምንድን	-3559
ህዝብ	-3560
▁እነሆ፥	-3561
▁ትሆና	-3562
▁ባሕር	-3563
ብሎስ	-3564
ረታዊ	-3565
▁አይደለሁም	-3566
▁አየሁ	-3567
▁ተቀባይ	-3568
▁ሙከራ	-3569
እነዚያ	-3570
▁ፈቃደኛ	-3571
▁አለበት።	-3572
▁ተል	-3573
ጨለማ	-3574
ay	-3575
▁ማህበረሰብ	-3576
▁መጽ	-3577
▁ሆይ!	-3578
ሙት	-3579
ላችሁም	-3580
ባር	-3581
es	-3582
▁ይገባል	-3583
▁እነዚያን	-3584
ቀርባ	-3585
ስና	-3586
:15	-3587
▁ቀድሞውኑ	-3588
▁ለስ	-3589
መረብ	-3590
▁ገባ	-3591
እናንተ	-3592
ማሪዎች	-3593
▁የእርስዎን	-3594
▁እኩል	-3595
ሁለቱ	-3596
ቋቋም	-3597
▁ጽድቅ	-3598
▁ደብ	-3599
▁አስተዋ	-3600
▁አመጣ	-3601
▁በታላቅ	-3602
▁መንፈሳዊ	-3603
ደድ	-3604
▁የቆ	-3605
▁ሶፍትዌ	-3606
▁ምሕ	-3607
ግምት	-3608
ራኒ	-3609
ማግሌ	-3610
▁እንጀራ	-3611
▁ኋላ	-3612
ፖለቲካ	-3613
ፈረንሳይ	-3614
አፍ	-3615
ንቱ	-3616
ረፍ	-3617
ag	-3618
▁የሚገባ	-3619
▁ሽል	-3620
ዮቹ	-3621
▁ወንጌ	-3622
▁እድገት	-3623
▁እንዳለው	-3624
ጠረው	-3625
ገለግ	-3626
▁የሚያሳ	-3627
▁አለ:	-3628
▁ትምህር	-3629
▁መስማት	-3630
▁ይጠይ	-3631
▁በከ	-3632
▁መጠየቅ	-3633
▁ቅን	-3634
እነርሱ	-3635
▁ራስህን	-3636
ቀርብ	-3637
▁ይህች	-3638
▁አሕዛብ	-3639
▁ተስማሚ	-3640
▁በምት	-3641
▁ማሰብ	-3642
▁ማመን	-3643
ፈለገ	-3644
ውስ	-3645
ረኛ	-3646
▁አላህን	-3647
▁ብርቱ	-3648
▁ቁልፍ	-3649
▁መልእክ	-3650
▁29	-3651
▁"ጌታ	-3652
ቷል.	-3653
መናዊ	-3654
ሁ።	-3655
▁ደጋ	-3656
▁የእኔን	-3657
▁እንደሚሆን	-3658
▁ነቢይ	-3659
▁ሰር	-3660
ፈልግም	-3661
ኃይል	-3662
ቀርቡ	-3663
ሌት	-3664
id	-3665
▁አቤቱ	-3666
▁መልእክት	-3667
▁ሕያው	-3668
ቆይ	-3669
▁ጠላት	-3670
▁ይው	-3671
▁ከፈ	-3672
▁ህብረት	-3673
▁(ለ	-3674
ድቃ	-3675
ዕለት	-3676
ሁለቱም	-3677
▁ለማሳ	-3678
ቁን	-3679
መስል	-3680
▁ያድርጉ	-3681
▁እንደዚሁ	-3682
▁ትራ	-3683
▁ሚና	-3684
ጉት	-3685
ከሰት	-3686
ም፥	-3687
▁ደም	-3688
▁እላችኋ	-3689
▁አብሮ	-3690
▁አባቴ	-3691
▁አስባ	-3692
▁ተገቢ	-3693
▁ረገድ	-3694
▁iPhone	-3695
ሸጥ	-3696
መዱ	-3697
▁ከበ	-3698
▁እንደምን	-3699
▁እሷን	-3700
▁እይታ	-3701
▁አፈ	-3702
▁ትላ	-3703
▁"ለ	-3704
▁2018	-3705
ድም	-3706
ለት።	-3707
▁ደር	-3708
▁ዝና	-3709
▁አልነበረም።	-3710
▁ለመሄድ	-3711
▁ክልል	-3712
▁በሌ	-3713
ሓዲ	-3714
▁ደህና	-3715
▁የሕ	-3716
▁በውስጡ	-3717
ኩም	-3718
▁ይመጣል	-3719
ዎትም	-3720
ስፋ	-3721
ራስዎ	-3722
▁ያን	-3723
▁የነበሩ	-3724
▁እንዲህም	-3725
▁ሳለ	-3726
▁ሪፖርት	-3727
ዎቻችን	-3728
አብዛኛ	-3729
አን	-3730
ንተር	-3731
ሦስት	-3732
ገልገል	-3733
ዕድ	-3734
ክን	-3735
▁የጥ	-3736
▁ከፊ	-3737
▁እችላ	-3738
▁ተግባራዊ	-3739
▁መኖሪያ	-3740
ቁ።	-3741
0|	-3742
▁በላይ	-3743
▁መጋ	-3744
▁የቁ	-3745
▁ዛሬም	-3746
▁እስቲ	-3747
▁ምስጢ	-3748
ገኙት	-3749
ሯል።	-3750
▁ይሁንና	-3751
▁አመለካከ	-3752
▁አለብኝ	-3753
▁27	-3754
መልክ	-3755
ላለ	-3756
▁የመጡ	-3757
▁እሷም	-3758
▁ርዕስ	-3759
▁ፊል	-3760
▁አሳይ	-3761
▁ምናልባትም	-3762
▁ሕፃ	-3763
▁ልም	-3764
ጠየ	-3765
ቆች	-3766
▁ጋር,	-3767
▁የይሖዋ	-3768
▁አንድም	-3769
▁አጭር	-3770
▁በዘ	-3771
▁መፈለግ	-3772
ደንበ	-3773
ባታ	-3774
▁ምኞ	-3775
ንቲ	-3776
ናል.	-3777
▁ድርጅት	-3778
▁ከሁለት	-3779
▁አማልክት	-3780
▁አራ	-3781
▁ሳምንታት	-3782
▁ሀሳ	-3783
ነበረው	-3784
▁የዘ	-3785
▁አቅም	-3786
▁ስድስት	-3787
▁31	-3788
ፓን	-3789
ትንና	-3790
መለሰ	-3791
▁ይስ	-3792
▁አየ	-3793
ህንም	-3794
▁ያመጣ	-3795
▁ተቀባይነት	-3796
▁ይወድ	-3797
▁ሁሌ	-3798
▁ጥቂ	-3799
▁እግ	-3800
▁አያውቁም።	-3801
▁አልፈ	-3802
▁"እናንተ	-3803
ኦል	-3804
ንቀሳ	-3805
_1	-3806
ፍቅር	-3807
ደቡብ	-3808
ሳኝ	-3809
ሱም	-3810
▁ሞተ	-3811
▁አክ	-3812
ግለ	-3813
ዳንት	-3814
▁ያያ	-3815
ቁት	-3816
▁ድንቅ	-3817
▁ድል	-3818
▁አምና	-3819
ሌቪዥን	-3820
▁የሚያደርጉ	-3821
▁ብለዋል	-3822
ችሁም	-3823
ቦችን	-3824
:11	-3825
▁በሽታ	-3826
▁ለሰዎች	-3827
▁ለምሳሌ	-3828
ጠነ	-3829
ጠበቅ	-3830
ዳቤ	-3831
ርም	-3832
መሰግ	-3833
1|	-3834
▁ደንበኞች	-3835
▁የሚመጣ	-3836
▁አምላክን	-3837
▁በሁለት	-3838
▁መቼም	-3839
▁ብሔራዊ	-3840
▁ቢያ	-3841
▁መለያ	-3842
▁ሆን	-3843
ጠቀማ	-3844
ከባቢ	-3845
▁ዮሐንስ	-3846
▁ይሰጣል	-3847
▁በጽ	-3848
ጣሉ	-3849
ወይን	-3850
ናዊ	-3851
▁ነዎት	-3852
▁በእጅ	-3853
ክፉ	-3854
▁ገደማ	-3855
▁ሚኒ	-3856
ሯል	-3857
▁ጸሎ	-3858
▁ዳዊ	-3859
▁ሰዎችም	-3860
ዊተር	-3861
▁ይመ	-3862
▁የተመሠረተ	-3863
▁ኢየሱስም	-3864
▁ብሏል	-3865
ቀኝ	-3866
▁ድርጊ	-3867
▁እርግጥ	-3868
▁ስኬታማ	-3869
ዩን	-3870
ባቱ	-3871
▁የሰጠ	-3872
ራል።	-3873
▁ደቀ	-3874
▁ከነሱ	-3875
▁ተቀም	-3876
ያዊ	-3877
ውሃ	-3878
ርያም	-3879
ላችሁ፤	-3880
ላሉ።	-3881
▁አፍሪካ	-3882
▁ብላ	-3883
ጎብኘት	-3884
ላል.	-3885
ለሁ,	-3886
▁ጥንካ	-3887
▁ክስተቶች	-3888
አንተ	-3889
:8	-3890
▁ወሰን	-3891
▁አለበት.	-3892
▁ተመልከት	-3893
ጠብቃ	-3894
ጅነት	-3895
አፍሪካ	-3896
ችሉት	-3897
ሕዝብ	-3898
:18	-3899
▁ብል	-3900
▁በድ	-3901
ቦቻቸው	-3902
▁ይኖርብ	-3903
▁የደ	-3904
▁አለ.	-3905
▁አቅር	-3906
▁ነቢያ	-3907
ጠን	-3908
ኃጢአት	-3909
ሙሳ	-3910
▁ሥርዓት	-3911
ጓደ	-3912
▁አድራ	-3913
▁አይኖር	-3914
ደሰት	-3915
▁የእነሱ	-3916
▁የገ	-3917
▁አስቀድሞ	-3918
ጽና	-3919
ገናኘ	-3920
▁አስተማማ	-3921
ቀን	-3922
ለኝ	-3923
▁ያደረገ	-3924
▁እራሳ	-3925
▁ባሉ	-3926
▁ሂድ	-3927
ጥፋት	-3928
ረቃ	-3929
መፍጠር	-3930
መጀመር	-3931
▁የለም.	-3932
▁አያውቅም	-3933
▁በፊ	-3934
▁መጽሐፉ	-3935
▁ላለ	-3936
ወሰን	-3937
▁በዓል	-3938
▁ለማንኛውም	-3939
ራሉ	-3940
መለክ	-3941
▁ጉዳት	-3942
▁የሚለውን	-3943
▁ዕቅድ	-3944
▁ወሳኝ	-3945
▁ታያ	-3946
▁ስኬት	-3947
ለን፤	-3948
▁የመጨረሻው	-3949
▁እውነትን	-3950
▁ነበር?	-3951
ቪዲዮ	-3952
መረዳት	-3953
ለሁ"	-3954
▁ጥበቃ	-3955
▁የባ	-3956
▁በዙሪያ	-3957
▁ለናንተ	-3958
▁በረከት	-3959
▁ለወደ	-3960
ጻፈ	-3961
ትክክለኛ	-3962
▁ዳግ	-3963
▁ክስተት	-3964
ኅበራዊ	-3965
ላላ	-3966
▁ዓለምን	-3967
▁ከሁሉ	-3968
▁አገልጋዮች	-3969
▁አማኞች	-3970
▁ምርመራ	-3971
ዱ።	-3972
ንተርኔት	-3973
መስራት	-3974
▁ጉባኤ	-3975
▁አስተያየት	-3976
▁መላው	-3977
ቸዉ	-3978
ሊክ	-3979
▁የሠራ	-3980
▁2019	-3981
ናሽ	-3982
ረገ	-3983
ማህ	-3984
:6	-3985
▁መስክ	-3986
መንግስት	-3987
ሌክት	-3988
▁ጠባ	-3989
▁ጋዜ	-3990
▁ያድ	-3991
▁ውስ	-3992
▁አለም	-3993
▁ነጥብ	-3994
▁ልታ	-3995
ጃቸው	-3996
ና፥	-3997
ብቅ	-3998
ቃብር	-3999
▁ትፈልጋ	-4000
▁በባ	-4001
▁ማግ	-4002
ተፈጥሮ	-4003
ሞታ	-4004
ላውያን	-4005
▁እንዳለበት	-4006
▁ሙስሊ	-4007
▁ፕሮጀክ	-4008
▁እውነታ	-4009
▁እቅድ	-4010
▁በሺዎች	-4011
▁ሽማግሌ	-4012
▁ስምምነት	-4013
▁ሁለቱንም	-4014
አገ	-4015
ናውያን	-4016
▁ጥቁር	-4017
▁ይቀበ	-4018
▁ኢዮ	-4019
▁ለመስ	-4020
ካባቢ	-4021
▁ፓር	-4022
▁ያውቃሉ	-4023
▁ነዉ	-4024
▁ሆኑ	-4025
ውና	-4026
▁ጥሩ	-4027
▁ጌታዬ	-4028
▁በርሳቸው	-4029
▁ስደ	-4030
ያዕቆብ	-4031
ክሬን	-4032
ቷን	-4033
መተ	-4034
▁ነጋ	-4035
▁ቅዱሳን	-4036
▁መምጣት	-4037
ጠጣ	-4038
▁ኤል	-4039
▁ተደርጓ	-4040
ንቃቄ	-4041
▁ክፍለ	-4042
▁ተሰጥ	-4043
▁ቁጥጥር	-4044
▁መነ	-4045
ዝና	-4046
▁የአንተ	-4047
▁ተጫዋች	-4048
▁መረዳት	-4049
ውቀ	-4050
ንጫ	-4051
ነገሩ	-4052
ስባ	-4053
ህ።	-4054
▁ይወስዳ	-4055
▁ከስ	-4056
▁እግዚአብሄር	-4057
ጦር	-4058
ዘጋጀት	-4059
ወቅቱ	-4060
▁አንደኛ	-4061
▁ነፋ	-4062
▁ረዳ	-4063
-1	-4064
▁ቀኝ	-4065
▁ሰራተ	-4066
ጠፉ	-4067
ድርግ	-4068
በርካታ	-4069
pp	-4070
:10	-4071
ወለደ	-4072
▁የቤተ	-4073
▁ካልሆነ	-4074
▁ካለው	-4075
▁ደብዳቤ	-4076
▁ይወጣ	-4077
▁ከቶ	-4078
ውንም	-4079
ኪያ	-4080
ከተሉት	-4081
ሱት	-4082
▁እንመልከት	-4083
▁አስተማማኝ	-4084
▁አለች	-4085
እይ	-4086
ቱንም	-4087
▁ፍለጋ	-4088
▁ይተ	-4089
▁ይሸ	-4090
▁ከሞት	-4091
▁አመስ	-4092
▁ቤተክርስቲያን	-4093
▁2016	-4094
ገዙ	-4095
ንግሊዝኛ	-4096
ታደ	-4097
ለሁ፥	-4098
ጨመር	-4099
ይነመረብ	-4100
ዎስ	-4101
▁ያስፈልግ	-4102
▁ወደዚህ	-4103
▁አልነበረም	-4104
▁አጠቃ	-4105
ፈጸም	-4106
as	-4107
▁ጴጥሮ	-4108
▁አውሮፕላ	-4109
ንነት	-4110
ኃኒ	-4111
ባቴ	-4112
ቁንም	-4113
ሯቸው	-4114
ለሁ?	-4115
▁ያደርገ	-4116
ፔን	-4117
ቆጣጠር	-4118
ሳምን	-4119
መልካም	-4120
ለዋ	-4121
▁አድርግ	-4122
▁ተን	-4123
ዳሚ	-4124
ዋክብ	-4125
አዲስ	-4126
ሃን	-4127
:13	-4128
▁ዘላ	-4129
ስፒ	-4130
ሪው	-4131
ማሩ	-4132
▁ፍር	-4133
▁ትንቢት	-4134
▁ተወ	-4135
▁ሰፊ	-4136
ገፍ	-4137
ሪት	-4138
▁የኾነ	-4139
▁ነኝ.	-4140
▁ተሸ	-4141
▁ቅዱስን	-4142
▁ሆነ።	-4143
አብርሃ	-4144
መግባት	-4145
ub	-4146
▁በላቸው	-4147
ጓዙ	-4148
ትንሣኤ	-4149
ታወቅ	-4150
ሞቱ	-4151
▁ጥንካሬ	-4152
ጉን	-4153
ዛቤ	-4154
ናቸውን	-4155
ስታን	-4156
▁እውነቱን	-4157
▁አምል	-4158
▁ታላላቅ	-4159
▁ስንት	-4160
▁መልክተኛ	-4161
▁መረ	-4162
ያውቅ	-4163
ወረደ	-4164
ክሲ	-4165
ማረ	-4166
ማመን	-4167
ለን?	-4168
▁ድምጽ	-4169
▁ሙሳ	-4170
▁33	-4171
ችኋል።	-4172
ሰል	-4173
ማሳየት	-4174
ሊያን	-4175
ለሽ	-4176
is	-4177
▁ጎዳ	-4178
▁እንዳሉ	-4179
▁አማካኝነት	-4180
▁አለው.	-4181
▁ማስታወቂያ	-4182
▁ልጆቹ	-4183
አምስት	-4184
መግዛት	-4185
▁ዲያ	-4186
▁ዕውቀት	-4187
▁አላቸው.	-4188
▁In	-4189
ኬት	-4190
▁ተግባር	-4191
▁ሂደ	-4192
ዎታ	-4193
:7	-4194
▁ፍርሃት	-4195
▁አታውቁ	-4196
▁ኛው	-4197
▁ብቻውን	-4198
▁ሰነ	-4199
▁መለወጥ	-4200
ጨመረ	-4201
ችኋል፤	-4202
▁ነገሮች	-4203
▁ተመለሱ	-4204
▁መለሰ	-4205
ጅት	-4206
ለበት	-4207
▁ጎን	-4208
▁ይገኛል	-4209
▁ያየ	-4210
▁አሮ	-4211
▁ቢኖር	-4212
ቶችም	-4213
▁ደረ	-4214
▁ከአሁን	-4215
ጨት	-4216
ዋዕት	-4217
▁ጥና	-4218
▁ያውቃል።	-4219
▁በተሻለ	-4220
▁በብ	-4221
ተኞችን	-4222
ሰለ	-4223
▁ወደዚያ	-4224
▁አብረን	-4225
▁ቃሉን	-4226
▁ሶፍትዌር	-4227
ፋል	-4228
ተኮ	-4229
በት።	-4230
መቀበል	-4231
▁ይቀጥ	-4232
▁እንደሚያስ	-4233
▁ነጋዴ	-4234
▁ነዋሪዎች	-4235
▁ተዓ	-4236
▁ሐሳብ	-4237
ጀል	-4238
ርቶ	-4239
ለማት	-4240
▁የፍ	-4241
▁የነ	-4242
▁አለኝ።	-4243
▁ተከ	-4244
▁ጉድ	-4245
▁ይችላል?	-4246
▁እየሰራ	-4247
▁ብዙዎቹ	-4248
▁በእነሱ	-4249
▁መልዕክ	-4250
▁መዋ	-4251
▁2017	-4252
ጸሎት	-4253
ጣቱ	-4254
ግባር	-4255
ክኒ	-4256
ችሁት	-4257
ቻችሁን	-4258
ሪዝም	-4259
ሎን	-4260
▁ጨለማ	-4261
▁ወይንም	-4262
▁በጉ	-4263
ገነባ	-4264
ኖቹ	-4265
ሰበሰቡ	-4266
ምነ	-4267
ለህ፤	-4268
▁የሚገኙ	-4269
▁አይመስ	-4270
▁አመለካከት	-4271
▁በፊትህ	-4272
ገናኛ	-4273
50	-4274
▁ከእሷ	-4275
▁እንደነበረ	-4276
▁አልችልም	-4277
▁በወቅቱ	-4278
▁ሊቀ	-4279
▁(አስታውስ	-4280
ቀሰ	-4281
ሞክሩ	-4282
▁የዳ	-4283
▁ሠራተ	-4284
▁ማረ	-4285
ፈን	-4286
ከረም	-4287
▁እስከሚ	-4288
▁ተመራ	-4289
▁በአን	-4290
▁ማክ	-4291
ጥን	-4292
ሳቱ	-4293
▁ያሳያ	-4294
▁ከመቼ	-4295
▁እንግዳ	-4296
▁እነዚያም	-4297
▁ቻይና	-4298
▁ተጠቅ	-4299
▁መፅ	-4300
▁2015	-4301
ኤላውያን	-4302
ሰጣቸው	-4303
ሮቹ	-4304
▁ውብ	-4305
▁በቤ	-4306
ጥም	-4307
▁ይዘት	-4308
▁ይመስለኛል	-4309
▁የጉዞ	-4310
▁የለብ	-4311
▁ከታ	-4312
▁በየት	-4313
▁ለወደፊቱ	-4314
ቴዎስ	-4315
ሎም	-4316
ow	-4317
▁የው	-4318
▁እንችላለን።	-4319
▁ናቸው?	-4320
ዮሐንስ	-4321
የኝ	-4322
▁ጸጋ	-4323
▁ያረጋግ	-4324
▁በደስታ	-4325
▁መራ	-4326
▁(አስታውስ)	-4327
ጻሜ	-4328
ጠብቅ	-4329
ዋርያት	-4330
ሳካ	-4331
▁ጥን	-4332
▁ይነ	-4333
▁አይችልም.	-4334
▁መጥቶ	-4335
ዳቸው	-4336
ረዋል	-4337
▁ደህንነ	-4338
▁የለውም።	-4339
▁ከመቼውም	-4340
▁አብዛኛውን	-4341
▁አልቻለም	-4342
▁መጓዝ	-4343
▁መሪዎች	-4344
▁ልምድ	-4345
ዋቸው	-4346
ከታተል	-4347
ቸዋል.	-4348
▁ዓይን	-4349
▁መላእክ	-4350
▁መጀመር	-4351
▁ለእያንዳንዱ	-4352
▁ሀብታም	-4353
ስትና	-4354
ስትራ	-4355
ሞቹ	-4356
▁ፊልም	-4357
▁ፈረንሳይ	-4358
▁የሚፈልጉትን	-4359
▁አሏ	-4360
▁ማዕከል	-4361
▁መስራት	-4362
▁2021	-4363
ገበያ	-4364
ብረተ	-4365
▁ጠባቂ	-4366
▁በፊቱ	-4367
▁ሰውን	-4368
▁ማም	-4369
▁መፍትሔ	-4370
▁80	-4371
▁ጥልቅ	-4372
▁ይጠራ	-4373
▁ይነግ	-4374
▁የኮ	-4375
▁የሰማ	-4376
▁ዕለት	-4377
▁ተገኝ	-4378
▁ሀብት	-4379
▁"ወደ	-4380
▁አይችልም።	-4381
ጀመረ	-4382
▁ግንዛቤ	-4383
▁ዓሣ	-4384
▁እንደ,	-4385
▁ብለህ	-4386
▁ሲሆኑ	-4387
ምንም	-4388
መመለስ	-4389
▁ጆሮ	-4390
▁አያምኑ	-4391
▁አማራጮች	-4392
▁አለ፤	-4393
▁ነው...	-4394
▁መግዛት	-4395
▁"ይ	-4396
ዞች	-4397
ሬዎች	-4398
▁ያስፈልገ	-4399
▁ዩናይትድ	-4400
▁እወዳለሁ	-4401
▁ተመ	-4402
ፌስቡክ	-4403
ጠይቅ	-4404
ዳጅ	-4405
ዝን	-4406
ከበ	-4407
ኝም።	-4408
ምላካ	-4409
መገንባት	-4410
▁እባክዎን	-4411
▁በሥራ	-4412
▁ሥልጣን	-4413
▁ምሥራ	-4414
▁(ማ	-4415
ሽከር	-4416
▁ፈጥ	-4417
▁ጥቅሞች	-4418
ወራ	-4419
ንታ	-4420
ታዩ	-4421
ላትን	-4422
▁የጻ	-4423
▁ካህ	-4424
▁ሊኖር	-4425
▁ከብ	-4426
▁እንዳት	-4427
▁አገልጋይ	-4428
▁አድርጌ	-4429
▁አትፍ	-4430
▁አእምሮ	-4431
ጆቻቸው	-4432
መውሰድ	-4433
:19	-4434
▁ጻድቅ	-4435
▁ያስታው	-4436
▁የሚያስችል	-4437
▁አይቀር	-4438
▁በግ	-4439
ኝ፤	-4440
ንጀ	-4441
ኒያ	-4442
ችኋል	-4443
በሳ	-4444
▁እናውቃለን።	-4445
▁ተነስ	-4446
ፍን	-4447
ወሩ	-4448
▁ግማሽ	-4449
▁ደካ	-4450
▁የተለመደ	-4451
▁አይፈ	-4452
▁ለነርሱ	-4453
አብርሃም	-4454
ቴጂ	-4455
ቃሉ	-4456
om	-4457
▁ይሆን?	-4458
▁ያገኘ	-4459
▁ከዛ	-4460
▁ታውቃላችሁ	-4461
▁ሙሴን	-4462
አካባቢ	-4463
ርሻ	-4464
▁ያውቁ	-4465
▁አካላዊ	-4466
▁ነበርኩ	-4467
▁በመጣ	-4468
ምግብ	-4469
▁የቁማር	-4470
▁የሚያውቅ	-4471
▁ዘይት	-4472
▁ሕዝቡም	-4473
ጨዋታ	-4474
ክርስቲያ	-4475
ኖስ	-4476
ቲቱ	-4477
ባይል	-4478
ቀጣ	-4479
ስፖርት	-4480
ሙታን	-4481
▁የላቸው	-4482
▁በቤተ	-4483
እነዚያም	-4484
ቢዎች	-4485
ስከ	-4486
ram	-4487
:17	-4488
▁ይመስላል።	-4489
▁የመጽሐፍ	-4490
▁አይደሉም።	-4491
▁ባሪያዎች	-4492
▁በተጨማሪ	-4493
▁ሊኖረው	-4494
ፈልገውን	-4495
ኩባንያ	-4496
ሩት።	-4497
▁እንዲሆኑ	-4498
▁ትክክለኛውን	-4499
▁መሞከር	-4500
ዛው	-4501
ከም	-4502
ማራ	-4503
ሃም	-4504
▁የትኛው	-4505
▁እየጨመረ	-4506
▁አደገኛ	-4507
▁አይደለም፤	-4508
▁አያስፈልግ	-4509
▁በፍቅር	-4510
▁በተቃ	-4511
▁ቀኑን	-4512
▁ሲኾኑ	-4513
▁መካከ	-4514
▁ልጃ	-4515
ዘገ	-4516
ባችን	-4517
ስራቅ	-4518
ሮት	-4519
ሟላ	-4520
መድረስ	-4521
ህን?	-4522
▁ይላ	-4523
▁ዘመናዊ	-4524
▁ተመልከቱ	-4525
▁በመሆኑ	-4526
▁ቀጥተኛ	-4527
▁ስሙ	-4528
▁(2	-4529
ዋጋ	-4530
ኢትዮጵያ	-4531
ቶቹን	-4532
ረምት	-4533
▁ይሆናሉ	-4534
▁የለበት	-4535
▁የሰማይ	-4536
▁ውይይት	-4537
▁ንስ	-4538
▁ነጭ	-4539
ጨነቅ	-4540
ዶችና	-4541
ክተር	-4542
ካፈል	-4543
ልስ	-4544
▁ይጀም	-4545
▁ወንጌል	-4546
▁እኔና	-4547
▁ምክንያት,	-4548
ጉር	-4549
ኝን	-4550
ኖቼ	-4551
ንበት	-4552
ችም	-4553
ቤን	-4554
ing	-4555
▁ግም	-4556
▁ዳግመኛ	-4557
▁የቅ	-4558
▁በእምነት	-4559
▁በፈ	-4560
▁መዛሙር	-4561
▁መዳ	-4562
▁መቆ	-4563
▁መቀበል	-4564
ዳሪ	-4565
ይቱም	-4566
ያቂ	-4567
ዋለሁ።	-4568
ችልም።	-4569
ሃል?	-4570
▁ገንዘ	-4571
▁የሚያደርግ	-4572
▁እንዳልሆነ	-4573
▁እንደሌለ	-4574
▁መሰረት	-4575
ቻሉ	-4576
ረግ	-4577
ers	-4578
▁አልቻል	-4579
ገናኝ	-4580
ውያ	-4581
ንቀት	-4582
ሜል	-4583
ሃለሁ።	-4584
▁ግን,	-4585
▁አይደለች	-4586
ገስ	-4587
ጀት	-4588
ዋና	-4589
ቅርቢ	-4590
ለቅ	-4591
▁ያወጣ	-4592
▁የጎ	-4593
▁አልነበ	-4594
▁መፍጠር	-4595
▁ለመጠ	-4596
ፃፀ	-4597
ታኝ	-4598
ባን	-4599
▁ያዕቆብ	-4600
▁የሚፈ	-4601
▁ዋስትና	-4602
▁ወለ	-4603
▁ካርድ	-4604
▁ከሆን	-4605
▁ተናገረ	-4606
▁ማዳ	-4607
ፍርድ	-4608
ወጣት	-4609
ሥጋ	-4610
▁ፈራ	-4611
▁ይልቁንም	-4612
▁የራሱን	-4613
▁የገባ	-4614
▁ታይ	-4615
▁ምህ	-4616
▁ማርያም	-4617
▁መግለጫ	-4618
▁ሆቴ	-4619
ወይም	-4620
ሙዚቃ	-4621
ሃኒ	-4622
▁ጩኸ	-4623
▁ጠጅ	-4624
▁የተጠበቀ	-4625
▁ኢየሱስን	-4626
▁አጠገብ	-4627
▁ነኝ፤	-4628
▁ቁርኣን	-4629
▁42	-4630
▁ገለ	-4631
▁ይን	-4632
▁ዓይኖች	-4633
▁ክት	-4634
▁አደረጉ	-4635
▁ባህሪ	-4636
▁ስትራ	-4637
ጓጓ	-4638
▁ጋብቻ	-4639
▁ይቻላል	-4640
▁ያግ	-4641
▁የመጀመሪያውን	-4642
▁የሶ	-4643
▁ኢያ	-4644
▁አዛ	-4645
▁ተጓ	-4646
▁በመካከ	-4647
▁ምሕረት	-4648
▁ሌሊ	-4649
ያያዘ	-4650
▁የሚኖሩ	-4651
▁አሥር	-4652
▁ስትራቴጂ	-4653
▁መግባት	-4654
▁(እና	-4655
ህ?	-4656
ook	-4657
▁ዓይነቶች	-4658
▁ስታ	-4659
▁ሲኾን	-4660
▁ሰሎ	-4661
▁ሊያስ	-4662
ነበብ	-4663
ስራኤልም	-4664
▁የመስመር	-4665
▁አምላካችን	-4666
▁አቋ	-4667
▁ሲመጣ	-4668
▁ማስታወሻ	-4669
▁ማረጋገጥ	-4670
▁መውጣት	-4671
▁ለመሆኑ	-4672
▁ሃይማኖት	-4673
▁(ይህ	-4674
ኢንዱስትሪ	-4675
ብረ	-4676
ቡት	-4677
ሞተ	-4678
ማህበራዊ	-4679
stag	-4680
stagram	-4681
▁የተሰጠ	-4682
▁አለመሆኑ	-4683
▁ስላል	-4684
▁ሞክ	-4685
▁ልማት	-4686
ፋቸው	-4687
ናይ	-4688
ቃይ	-4689
ላለፍ	-4690
▁ይለ	-4691
▁የታወቀ	-4692
▁ውስጥ.	-4693
▁እንደማ	-4694
▁ሽልማት	-4695
▁ምግ	-4696
▁ሙሴም	-4697
▁መብላት	-4698
▁90	-4699
:16	-4700
▁ጀምሮ	-4701
▁ያደረግ	-4702
▁የመጀመሪያዎቹ	-4703
▁የለም፤	-4704
▁ከጥ	-4705
▁ከት	-4706
▁ኢኮኖሚ	-4707
▁አጠቃቀም	-4708
▁አንዴ	-4709
▁ትእዛ	-4710
▁ብሏል።	-4711
▁And	-4712
ክብካ	-4713
ከማ	-4714
ትክል	-4715
:20	-4716
▁ያደርጋል	-4717
▁እያሉ	-4718
▁በመንፈስ	-4719
▁በዚህ	-4720
▁ምእ	-4721
ድፍ	-4722
ወደው	-4723
▁ጠፍ	-4724
▁እንዲኖር	-4725
▁አላገኘ	-4726
▁አለዎት	-4727
ርዳ	-4728
30	-4729
▁የሚሠራ	-4730
▁ወዳጅ	-4731
▁በሐ	-4732
▁ለተወሰነ	-4733
ጠናቀ	-4734
ቃስ	-4735
ሰቢያ	-4736
▁ፍቅ	-4737
▁ከሰው	-4738
▁ቤተሰቦ	-4739
▁በተለየ	-4740
▁በኔ	-4741
ፕሮ	-4742
ቀበ	-4743
ed	-4744
▁ከማንኛውም	-4745
▁እናቴ	-4746
▁ተፈጥሮ	-4747
▁በረራ	-4748
ጸለይ	-4749
ደርሱ	-4750
ዘርላንድ	-4751
ዎቻቸውን	-4752
ታል፤	-4753
ስተው	-4754
hat	-4755
▁ፍጻሜ	-4756
▁የጌታን	-4757
▁የተመሰ	-4758
▁እንግሊዝኛ	-4759
▁አዎንታዊ	-4760
▁አስታ	-4761
▁በሰይ	-4762
▁ምዕራፍ	-4763
ምም	-4764
▁የሚያውቁ	-4765
▁አንብ	-4766
▁አንባቢ	-4767
▁ራሳ	-4768
▁መደበኛ	-4769
▁ለመማር	-4770
▁2014	-4771
አዊ	-4772
▁የሚኖር	-4773
▁አብዛኞቻቸው	-4774
▁ታውቃለህ?	-4775
▁በውስጧ	-4776
▁ስህተ	-4777
▁ሥነ	-4778
▁35	-4779
ጠንቀ	-4780
ጎዳ	-4781
ዓን	-4782
ከሰተ	-4783
ሌክትሪክ	-4784
▁ከነ	-4785
▁እንቅልፍ	-4786
▁እራሱን	-4787
▁አስታውስ	-4788
▁ማውራት	-4789
▁ሆስፒ	-4790
ችሉም።	-4791
ምሩ	-4792
▁ይፈልጉ	-4793
▁በአንድነት	-4794
▁ቀይ	-4795
ደራ	-4796
ንደዚህ	-4797
ናለን	-4798
ህይወ	-4799
roid	-4800
ad	-4801
▁ይሁኑ	-4802
▁ዓይነቱ	-4803
▁እናደርጋ	-4804
▁ባህል	-4805
▁በራሳቸው	-4806
ደህን	-4807
ይዛ	-4808
ውነተኛ	-4809
ሮቻቸው	-4810
ማቅረብ	-4811
▁ኪዳ	-4812
▁እንድታ	-4813
▁እንክብካ	-4814
▁ነግ	-4815
▁ስልጣን	-4816
▁መርዳት	-4817
▁ሕዝቡን	-4818
ዘዙ	-4819
ሲኖ	-4820
8_	-4821
▁ይታያ	-4822
▁ከእነርሱም	-4823
▁ኃላፊነት	-4824
▁Android	-4825
ቶቻቸውን	-4826
ሦስተኛ	-4827
ሕክምና	-4828
ለች፤	-4829
eb	-4830
:14	-4831
▁ፕሬዚ	-4832
▁ያካት	-4833
▁ውበት	-4834
▁አይደለምን?	-4835
▁አያውቁም	-4836
▁ትናን	-4837
▁ላሉት	-4838
ድንገት	-4839
ደርጉት	-4840
ላቸውን	-4841
▁ጀርመን	-4842
▁ይሰበ	-4843
▁አንድን	-4844
▁ተቋማት	-4845
▁በ19	-4846
▁ለመን	-4847
▁ሆኗል	-4848
ጨምር	-4849
ጆቼ	-4850
ዴታ	-4851
ያየ	-4852
ወቂያ	-4853
ከዚያም	-4854
▁የተሻለው	-4855
▁ቢሮ	-4856
▁በእኔና	-4857
▁መድረክ	-4858
▁ሌላውን	-4859
ጡን	-4860
ከላከል	-4861
ቸዋል፤	-4862
መፈለግ	-4863
el	-4864
▁ዲያብሎስ	-4865
▁ይመለሳሉ።	-4866
▁ዘንድ.	-4867
▁ከቀ	-4868
▁እሰጣ	-4869
▁አይደል?	-4870
▁አይደለ	-4871
▁ንግግር	-4872
▁ቀለም	-4873
▁ሞዴል	-4874
አዲ	-4875
">	-4876
▁ንገ	-4877
▁ነች	-4878
▁ተነሳ	-4879
▁በመጨረሻው	-4880
▁ሰለ	-4881
ፍር	-4882
ጠይቃ	-4883
ደህንነት	-4884
ዕለ	-4885
ስል	-4886
▁ጥቃት	-4887
▁ያልሆኑ	-4888
▁አድርጉ	-4889
▁ንጉሡም	-4890
▁በርሷ	-4891
▁መንግስ	-4892
▁ለነሱ	-4893
ጣል።	-4894
ራስህ	-4895
▁ደመና	-4896
▁ይሆናል፤	-4897
▁ነገሥታት	-4898
▁ተመልክ	-4899
▁ለማሻሻል	-4900
▁ለመናገር	-4901
ፀሐይ	-4902
ሆናቸው	-4903
▁ያልሆነ	-4904
▁የሚችለው	-4905
▁እምላ	-4906
▁አልለ	-4907
▁ልና	-4908
ጠባ	-4909
ድቃን	-4910
ዥም	-4911
ዕድሜ	-4912
ሁ፤	-4913
10	-4914
▁ያለበት	-4915
▁ወታደ	-4916
▁ከሚያ	-4917
▁እያንዳንዱን	-4918
▁ተቀብ	-4919
▁ስሞች	-4920
ዖንም	-4921
ካይ	-4922
ችው።	-4923
ሰማያትና	-4924
:22	-4925
▁አዳም	-4926
▁አቆ	-4927
ገማ	-4928
ቴክኖሎጂ	-4929
ሱ።	-4930
ማረጋገጥ	-4931
ለታ	-4932
▁ጎብ	-4933
▁ዳን	-4934
▁ይመስል	-4935
ጨነቁ	-4936
ገለጸ	-4937
ዋክብት	-4938
ከተለው	-4939
ንግሊዝ	-4940
ቲን	-4941
▁ጦር	-4942
▁የተመረ	-4943
▁የሐ	-4944
▁አላት።	-4945
▁ትችላለህ	-4946
▁በቁ	-4947
▁ሩቅ	-4948
▁መሠረታዊ	-4949
▁198	-4950
▁"እነ	-4951
ንዲህ	-4952
▁አብር	-4953
▁መሐ	-4954
ገባት	-4955
ደረጉት	-4956
ዎቹም	-4957
ወረድ	-4958
አይ	-4959
ቃወ	-4960
ሳሰብ	-4961
ራሱ	-4962
▁ፍጥረት	-4963
▁አምላኬ	-4964
ጠብቁ	-4965
ገልግ	-4966
ዘግ	-4967
ንስፖርት	-4968
ችኋለሁ	-4969
ቻለው	-4970
ሉትን	-4971
il	-4972
▁ወድ	-4973
▁እንደሚቻል	-4974
▁አማካይ	-4975
▁አረ	-4976
▁መክፈል	-4977
▁ላከ	-4978
ተኩ	-4979
ም"	-4980
▁ይደረጋ	-4981
▁ያደረገው	-4982
▁የአምላክን	-4983
▁ማጥናት	-4984
▁ማድ	-4985
▁ለሚያ	-4986
ጀርባ	-4987
▁ጴጥሮስ	-4988
▁ገቢ	-4989
▁የማን	-4990
▁የሠ	-4991
▁ዙፋን	-4992
▁ወዲያ	-4993
▁እናም,	-4994
▁ኃይለኛ	-4995
▁በተቃራኒ	-4996
▁በመል	-4997
▁ቀና	-4998
▁"ል	-4999
ፍል	-5000
ግሩ	-5001
ብሪካ	-5002
ሩቅ	-5003
▁ፖሊሲ	-5004
▁ይኸ	-5005
▁ከእርሱም	-5006
▁ከአምላክ	-5007
▁መሸ	-5008
▁ለዘ	-5009
ድሮ	-5010
ወለድ	-5011
ከበረ	-5012
▁ምንድነው?	-5013
▁ሚስቱ	-5014
▁መቆየት	-5015
▁2012	-5016
▁"አንድ	-5017
ድኑ	-5018
ከባከብ	-5019
ባለው	-5020
▁የላቸውም	-5021
▁ሚኒስት	-5022
▁ለምሳሌ,	-5023
▁ለማዳን	-5024
▁Instagram	-5025
▁36	-5026
▁2008	-5027
ፈልጋቸው	-5028
የን	-5029
መሥ	-5030
▁የለኝም	-5031
▁የጽ	-5032
▁ከወ	-5033
▁አይተ	-5034
▁አለቃ	-5035
▁ነጠላ	-5036
▁ተቆ	-5037
▁መዝሙር	-5038
▁መሥዋዕት	-5039
▁ለማለት	-5040
ሴቶች	-5041
▁የክርስቶስ	-5042
▁ኮምፒ	-5043
▁እውነቱ	-5044
▁እንክብካቤ	-5045
▁እራስ	-5046
▁ነፃነት	-5047
▁ነህ።	-5048
▁ላክ	-5049
ደነ	-5050
ስትራሊያ	-5051
ራሪ	-5052
ሃይማኖ	-5053
▁ይጠቀማ	-5054
▁አገራት	-5055
▁ተነሥ	-5056
▁በክርስቶስ	-5057
እርስ	-5058
ናደር	-5059
ነውን	-5060
ነኛ	-5061
ሂብ	-5062
▁ፋይ	-5063
▁ይልቅ	-5064
▁ያነሰ	-5065
▁የነበሩትን	-5066
▁የማይቻል	-5067
▁የላቀ	-5068
▁የኔ	-5069
ፈጸመ	-5070
ጠቀሙበት	-5071
ምና።	-5072
ሕግ	-5073
▁ፓርቲ	-5074
▁ይኖረ	-5075
▁ያውቅ	-5076
▁የሚሆኑ	-5077
▁አይችሉም።	-5078
▁ነውን?	-5079
▁ነው:	-5080
▁ተከታዮች	-5081
▁በቻይና	-5082
▁ሳይንስ	-5083
▁መኾኑን	-5084
ፊክ	-5085
ናቱ	-5086
ችሁ።	-5087
ለስ	-5088
us	-5089
5)	-5090
▁ያጠፋ	-5091
▁እድሜ	-5092
▁እንዳያ	-5093
▁እ.	-5094
▁አይቶ	-5095
▁በመስመር	-5096
▁ስምንት	-5097
▁መያዝ	-5098
▁መምህ	-5099
ድና	-5100
ዘጋጁ	-5101
ኑ።	-5102
ቶቡ	-5103
▁ይከ	-5104
▁የብ	-5105
▁ውድድር	-5106
▁በሚገባ	-5107
▁በሉ	-5108
▁37	-5109
▁(አላህ	-5110
ዝቃ	-5111
ናል፤	-5112
ቻለሁ።	-5113
ምኑት	-5114
ማስታ	-5115
መቅ	-5116
ልበት	-5117
▁ፍጡ	-5118
▁ውጊያ	-5119
▁ከርሱ	-5120
▁አሉ,	-5121
ኮት	-5122
በያው	-5123
ሰራው	-5124
ላልቅ	-5125
▁ጨረቃ	-5126
▁ገነት	-5127
▁ይናገራል።	-5128
▁የግብ	-5129
▁ከሓዲ	-5130
▁እንድና	-5131
▁እንስሳት	-5132
▁እጥፍ	-5133
▁አለው,	-5134
▁ተለይ	-5135
▁ብላችሁ	-5136
▁ባን	-5137
▁ባሕ	-5138
▁ረድ	-5139
▁'የ	-5140
ፎችን	-5141
ፍረት	-5142
ያጭ	-5143
ዛን	-5144
ካናዳ	-5145
ከላከ	-5146
ስተር	-5147
ሳው	-5148
ሞችን	-5149
▁ድርሻ	-5150
▁ይሉ	-5151
▁የሚፈልግ	-5152
▁ዕቃ	-5153
▁ኮሚ	-5154
▁ከመጀመሪያው	-5155
▁አስተዳደር	-5156
▁አጠፋ	-5157
▁ተፅ	-5158
▁ብጤ	-5159
▁ምንዳ	-5160
▁ለባ	-5161
ከፊ	-5162
መወ	-5163
▁ያደርጋል።	-5164
▁ነበሩ.	-5165
▁ችላ	-5166
▁በሚቀጥሉት	-5167
▁በመጀመሪያው	-5168
▁[...	-5169
▁[...]	-5170
▁34	-5171
▁ይጠበቃ	-5172
▁ትናንሽ	-5173
▁በቅርቢ	-5174
▁ለኔ	-5175
ዱም	-5176
ቋቋመ	-5177
▁ይወ	-5178
▁የካዱት	-5179
▁የሚገኝ	-5180
▁ኑሮ	-5181
▁ማቅረብ	-5182
▁ሚስጥ	-5183
▁መጡ	-5184
▁ሊረዳ	-5185
▁ህል	-5186
ገዳ	-5187
ጃፓን	-5188
ሳስ	-5189
መለከታ	-5190
▁ጠላቶች	-5191
▁ያቀ	-5192
▁የተሞላ	-5193
▁ውስብ	-5194
▁ውስብስብ	-5195
▁ከየት	-5196
▁አክብ	-5197
▁ነበር"	-5198
▁በዝ	-5199
▁ስልጠና	-5200
▁ሌሎቹ	-5201
▁ሊወስድ	-5202
ውቀት	-5203
ቾት	-5204
ስቴ	-5205
▁እናንተን	-5206
▁ተናገር	-5207
▁መከተል	-5208
▁You	-5209
▁(ተ	-5210
ገለጠ	-5211
ጀምራ	-5212
▁ይበል	-5213
▁የሚመ	-5214
▁እንደዚያ	-5215
▁አመስጋ	-5216
▁ተሰብ	-5217
▁ባለቤቴ	-5218
▁ሕንፃ	-5219
ቶቼ	-5220
ቴሌቪዥን	-5221
ባቸውም	-5222
▁ጉብኝ	-5223
▁የሚሆነው	-5224
▁ወንዝ	-5225
▁አለባቸው።	-5226
▁ሲባል	-5227
ጭት	-5228
ከሰቱ	-5229
ናኛ	-5230
ማው	-5231
ሙኤል	-5232
መለሳ	-5233
ሀገ	-5234
un	-5235
▁የወደፊት	-5236
▁አዋቂ	-5237
▁ቁጣ	-5238
▁መገናኘት	-5239
ዋል,	-5240
ኞቼ	-5241
ኖራል	-5242
ንቺ	-5243
ባቢያ	-5244
ሰማው	-5245
▁ይገባል።	-5246
▁ያውቃሉ።	-5247
▁የሚችሉት	-5248
▁እየሞ	-5249
▁እውን	-5250
▁ንጹሕ	-5251
▁መመልከት	-5252
▁(ዘ	-5253
ኑም	-5254
ማገልገል	-5255
መርጣ	-5256
ለማዊ	-5257
▁አህ	-5258
▁ባህሪያ	-5259
ድጋሚ	-5260
ቡ።	-5261
ሻገር	-5262
ሻው	-5263
ube	-5264
201	-5265
▁ጊዜ፣	-5266
▁ይጫወ	-5267
▁የተጠቀ	-5268
▁እንዴ?	-5269
▁ነበረ።	-5270
▁ምስጢር	-5271
▁ማረፊያ	-5272
▁60	-5273
ፈጽ	-5274
ጠናቀቅ	-5275
ዎታል.	-5276
ካዊ	-5277
ንሳዊ	-5278
ባቸው።	-5279
ሸን	-5280
ሩ፤	-5281
ሟላት	-5282
ሞባይል	-5283
▁ይኖራል	-5284
▁የተነሣ	-5285
▁ወደሚ	-5286
▁አስብ	-5287
▁ተካ	-5288
▁በነፃ	-5289
▁ላይ.	-5290
▁ለመገናኘት	-5291
▁100%	-5292
ወግ	-5293
ኖሩት	-5294
ብት	-5295
ሚሊዮን	-5296
▁ያገለግ	-5297
▁ወንድሞቹ	-5298
▁አንቀጾች	-5299
▁አለመሆኑን	-5300
▁አዋ	-5301
▁አሥራ	-5302
▁ልጁን	-5303
▁ለካ	-5304
▁ፌስቡክ	-5305
▁ጠቢ	-5306
▁ዘው	-5307
▁እሄዳ	-5308
▁ብን	-5309
▁በነበሩት	-5310
▁ምት	-5311
▁ማዕከ	-5312
ፈርዖን	-5313
ወጠ	-5314
ወትር	-5315
um	-5316
▁ጌታችን	-5317
▁ክር	-5318
▁ትዕዛዝ	-5319
▁ቱርክ	-5320
▁በደል	-5321
▁በወ	-5322
▁ቃሉ	-5323
▁ስለተ	-5324
▁ልቡ	-5325
ጉጉት	-5326
ታውቅ	-5327
ind	-5328
▁ይፈልጋል።	-5329
▁ይሠራል	-5330
▁የክ	-5331
▁አደረገ።	-5332
▁ተጠያቂ	-5333
▁"ለምን	-5334
ፍጥረት	-5335
ወረደው	-5336
ቸው፤	-5337
ላሉ)	-5338
▁ዮርክ	-5339
▁ያው	-5340
▁ኮከብ	-5341
▁ከሆኑት	-5342
▁ነው)	-5343
▁ነበረች	-5344
▁መጥተው	-5345
▁ለሕዝቡ	-5346
▁(ወይም	-5347
ጠይቁ	-5348
ኢኮኖሚ	-5349
ነገረ	-5350
በታል።	-5351
ቋረጥ	-5352
ለያየ	-5353
▁ጠረ	-5354
▁ግምገማ	-5355
▁የማያውቁ	-5356
▁የሚሰ	-5357
▁እንዳለባቸው	-5358
▁አስተማሪ	-5359
▁ተመለሰ	-5360
▁ቢኖሩ	-5361
▁በተወሰነ	-5362
▁መጠቀ	-5363
ዎች,	-5364
ነካ	-5365
ብሔር	-5366
ቆሙ	-5367
ስማማ	-5368
ሰስ	-5369
ራር	-5370
ሪዎቹ	-5371
መሰክ	-5372
ሊስ	-5373
▁የእነዚህ	-5374
▁ወርቅ	-5375
▁እንደሆንኩ	-5376
▁አስባለሁ	-5377
▁ተሳት	-5378
▁ሠር	-5379
▁መስፈር	-5380
▁ለሁለት	-5381
ጀምር	-5382
በስ	-5383
ቀትን	-5384
ስቲ	-5385
ሳምንት	-5386
▁ግብር	-5387
▁ደርሶ	-5388
▁ይገል	-5389
▁የድር	-5390
▁ካናዳ	-5391
▁እንዳላቸው	-5392
▁እንደ.	-5393
▁በሌሊት	-5394
▁ማይ	-5395
▁ሆና	-5396
ገዝ	-5397
ጄሪያ	-5398
ናንት	-5399
▁ግለሰ	-5400
▁ይሆናሉ።	-5401
▁ይጨ	-5402
▁ይሁዳ	-5403
▁እስራኤላውያን	-5404
▁(ይባ	-5405
ዳሜ	-5406
ዓመታት	-5407
ወሰድ	-5408
ቀመጡ	-5409
ራችሁት	-5410
▁ጣዖ	-5411
▁ግንኙነ	-5412
▁የከፋ	-5413
▁ካሉት	-5414
▁ተመልሰው	-5415
▁በምድ	-5416
▁ርስት	-5417
▁ለመም	-5418
▁"እግዚአብሔር	-5419
ገግ	-5420
ዓመት	-5421
ቀሉ	-5422
ራራ	-5423
▁ደካማ	-5424
▁ያዘ	-5425
▁የእርሱን	-5426
▁የትም	-5427
▁ወጥቶ	-5428
▁አድርጎ	-5429
▁አላቸው፦	-5430
▁በመጽሐፍ	-5431
▁ቆይቷል	-5432
▁መዳረሻ	-5433
▁መካከለኛ	-5434
▁መሆ	-5435
ከን	-5436
በለዚያ	-5437
ረጋገጫ	-5438
መጣም	-5439
መቱ	-5440
ላሳ	-5441
3)	-5442
▁ፀሐይ	-5443
▁ጓዶች	-5444
▁ወዴት	-5445
▁ከመጣ	-5446
▁እል	-5447
▁አይደለህ	-5448
▁አለው:	-5449
▁ርቀት	-5450
▁መረብ	-5451
▁ለማንበብ	-5452
▁ህጋዊ	-5453
▁"ታ	-5454
ጧል	-5455
ዱስ	-5456
ንሰ	-5457
ነው፤	-5458
▁ዳዊትም	-5459
▁ይሄን	-5460
▁የሚከተሉ	-5461
▁ኩራት	-5462
▁እንስሳ	-5463
▁አለብን።	-5464
▁ነገረ	-5465
▁ታውቃለህ	-5466
▁ሞኝ	-5467
▁ምሥክሮች	-5468
▁መድሃኒ	-5469
▁ሕል	-5470
▁70	-5471
ፕሬ	-5472
ጥናት	-5473
ዎት።	-5474
ላህን	-5475
▁ያስፈል	-5476
▁ወደኋላ	-5477
▁ካልተ	-5478
▁ከጓደ	-5479
▁ከናንተ	-5480
▁ነው፥	-5481
▁በመባል	-5482
▁በጨለማ	-5483
▁ቀኖች	-5484
ገለግል	-5485
ተናል።	-5486
መሰግኑ	-5487
x)	-5488
▁ጠየቀ	-5489
▁ደቡብ	-5490
▁ይመራ	-5491
▁አመታት	-5492
▁አላት	-5493
▁ታች	-5494
▁በፍጹም	-5495
▁ማቆም	-5496
ዎች.	-5497
ሳይያስ	-5498
ራቸውን	-5499
ምድርም	-5500
ማሳደግ	-5501
:25	-5502
▁ያስባ	-5503
▁የሚወድ	-5504
▁ዝናብ	-5505
▁ውሸት	-5506
▁ካሲኖ	-5507
▁ከጌታህ	-5508
▁አዲሱን	-5509
▁አይወድ	-5510
▁አልፈልግም	-5511
▁አለ፦	-5512
▁ነብ	-5513
▁ብታ	-5514
▁ማነው?	-5515
▁ህመም	-5516
ጠኛ	-5517
ገልጋ	-5518
ዕክት	-5519
ዕል	-5520
ዋርያ	-5521
ቃሉ።	-5522
መለከ	-5523
▁ጣል	-5524
▁ድንኳ	-5525
▁ደሴ	-5526
▁የመን	-5527
▁ከሕዝቡ	-5528
▁ነቢያት	-5529
▁በርግጥ	-5530
▁ቅጽ	-5531
▁ሁለቱን	-5532
ዕይ	-5533
እኖ	-5534
እንግሊዝ	-5535
ኒው	-5536
ሷን	-5537
ሮታ	-5538
ሟል	-5539
ሂድ	-5540
▁ይፈልጋሉ?	-5541
▁ይኸው	-5542
▁የዚህ	-5543
▁ወንድሞች	-5544
▁ተከታታይ	-5545
▁ተር	-5546
▁በምር	-5547
▁ርዕሰ	-5548
▁ምስክርነት	-5549
▁መድረስ	-5550
▁መናፍ	-5551
ጠንቀቂያ	-5552
ዎታል።	-5553
ና,	-5554
ታሉ	-5555
ባቸዋል።	-5556
ምስ	-5557
ማውያን	-5558
ol	-5559
▁ይጠፋ	-5560
▁ያደርጉ	-5561
▁ዓይኖ	-5562
▁እምነ	-5563
▁አንስ	-5564
▁ብለዋል።	-5565
▁በእር	-5566
▁በበለጠ	-5567
▁ቅድሚያ	-5568
▁ማስታወስ	-5569
ደጋጋሚ	-5570
ዓብ	-5571
እርሱም	-5572
ተፍ	-5573
ሶስት	-5574
መልስ	-5575
ለጥ	-5576
ሀነም	-5577
_2	-5578
▁ይችላሉ?	-5579
▁ይገ	-5580
▁የጊዜ	-5581
▁እፈልጋለሁ።	-5582
▁አዎ,	-5583
▁ናት፤	-5584
▁በእርግጥም	-5585
▁በአንዱ	-5586
▁ስማ	-5587
▁ሲነ	-5588
▁መንግስታት	-5589
▁38	-5590
▁"እነዚህ	-5591
ጻፍ	-5592
ዩም	-5593
ውቅም።	-5594
ተዋል.	-5595
ቀሱ	-5596
ስፔን	-5597
መሬት	-5598
▁ያለብ	-5599
▁አትፍራ	-5600
▁አሳማሚ	-5601
▁አሜሪካውያን	-5602
▁በእርሷ	-5603
▁በርስ	-5604
▁ለመመልከት	-5605
ዳይ	-5606
ተደጋጋሚ	-5607
ሽከርካሪ	-5608
ማምጣት	-5609
▁ዳግም	-5610
▁ይወር	-5611
▁የዩ	-5612
▁ወንዶችና	-5613
▁እንደመ	-5614
▁ታሪኮች	-5615
▁በጥንቃቄ	-5616
▁በእጁ	-5617
▁መቅደስ	-5618
ጥራ	-5619
ኤስ	-5620
መለወጥ	-5621
ሑፍ	-5622
ላችሁን	-5623
ur	-5624
▁ፍጥረ	-5625
▁ይናገራል	-5626
▁የሚያስተ	-5627
▁ዘግ	-5628
▁ዘገባ	-5629
▁አስቀድ	-5630
▁አዘጋጅ	-5631
▁መጻፍ	-5632
▁ልቤ	-5633
ይቱን	-5634
ዕምሮ	-5635
ኸኝ	-5636
ኩን	-5637
ሳል።	-5638
መቆየት	-5639
ላን	-5640
▁ጭፍ	-5641
▁የነበረውን	-5642
▁እላችኋለሁ	-5643
▁አይሁድ	-5644
▁አውቃለሁ።	-5645
▁ተጨ	-5646
▁ባልደረ	-5647
▁በመስ	-5648
▁ቅሬ	-5649
▁ቀለ	-5650
▁ሥራውን	-5651
▁48	-5652
▁"ምን	-5653
ፁም	-5654
ሜራ	-5655
▁ግምት	-5656
▁ይወዳል	-5657
▁የተባረ	-5658
▁እብ	-5659
▁እላለሁ	-5660
▁አላቸው:	-5661
▁ታሪካ	-5662
▁በድን	-5663
▁በሩሲያ	-5664
▁500	-5665
▁"ስለ	-5666
ፈልጉት	-5667
ካን	-5668
ና.	-5669
ቆት	-5670
ማሸነፍ	-5671
▁ገጽታ	-5672
▁አካላት	-5673
▁በዩ	-5674
ጋችሁ	-5675
ያችሁ	-5676
ወሰደ	-5677
ኮል	-5678
ከፈተ	-5679
ነግር	-5680
ረዋል።	-5681
ማል።	-5682
▁ጋር.	-5683
▁ካላ	-5684
▁ከሌ	-5685
▁እባክህ	-5686
▁እረፍት	-5687
▁አውጥ	-5688
▁አሁን,	-5689
▁ብስክ	-5690
▁መቀጠል	-5691
▁መፈ	-5692
ገለጥ	-5693
ቴም	-5694
ቲት	-5695
ማስወገድ	-5696
ሙትን	-5697
to	-5698
▁ግሩም	-5699
▁ይበሉ	-5700
▁ክብደት	-5701
▁ከእስራኤል	-5702
▁እውቅ	-5703
▁እናያ	-5704
▁አሉታዊ	-5705
▁ታናሽ	-5706
▁ታስ	-5707
▁ሸክ	-5708
▁ልማ	-5709
▁ለመጎብኘት	-5710
▁ሆይ:,	-5711
ደሰቱ	-5712
ዕግ	-5713
ካሚ	-5714
ታየው	-5715
ሌጅ	-5716
ህነት	-5717
▁ግንባታ	-5718
▁ጆን	-5719
▁የሚቀ	-5720
▁ክንድ	-5721
▁አወጣ	-5722
▁ነበረበት	-5723
▁ተኝ	-5724
▁ብቃት	-5725
▁ሰውም	-5726
▁ማጣት	-5727
▁ለመስማት	-5728
▁"ሰ	-5729
ጠቅላላ	-5730
ጂታል	-5731
ቨስት	-5732
ብላት	-5733
በላይ	-5734
_"	-5735
▁ጭምር	-5736
▁ገብቶ	-5737
▁ድንጋይ	-5738
▁ድርጊት	-5739
▁ይኖሩ	-5740
▁እርስዎን	-5741
▁እመ	-5742
▁አሉን	-5743
▁ትዕዛ	-5744
▁በሆኑ	-5745
▁ለመጫወት	-5746
ዮሴፍ	-5747
ወቀው	-5748
iv	-5749
ir	-5750
▁ግብፅ	-5751
▁ያግኙ	-5752
▁እንፈልጋ	-5753
▁ተአ	-5754
▁ባየ	-5755
▁በተያያዘ	-5756
▁ምስክሮች	-5757
▁ምስል	-5758
▁ምስራቅ	-5759
▁ህግ	-5760
አመ	-5761
ትራ	-5762
ለዓለም	-5763
ሂዱ	-5764
ter	-5765
_4	-5766
▁የተሟላ	-5767
▁ወንድሞቼ	-5768
▁ካህናት	-5769
▁እውነታው	-5770
▁ነገሮችም	-5771
▁ነገድ	-5772
▁ትናንት	-5773
▁ታገኛ	-5774
▁በውጭ	-5775
▁ቀጣዩ	-5776
ውር	-5777
መልካ	-5778
ሊዮ	-5779
ion	-5780
▁ገን	-5781
▁ይሞ	-5782
▁ወደቀ	-5783
▁አጥን	-5784
▁አምናለሁ	-5785
▁በኢየሩሳሌም	-5786
▁በቀጣ	-5787
▁በሰይፍ	-5788
▁2013	-5789
ኩበት	-5790
አጭር	-5791
ን፤	-5792
ቸዋለሁ	-5793
በዛ	-5794
ራሲ	-5795
ልብ	-5796
▁ያንብ	-5797
▁ያሳያል	-5798
▁የተሳሳተ	-5799
▁የደረ	-5800
▁ወራ	-5801
▁ኾነ	-5802
▁አድራጊ	-5803
▁አቤቱ፥	-5804
▁አደረ	-5805
▁ንድፍ	-5806
▁ተከት	-5807
▁ባት	-5808
▁ባሉት	-5809
▁በሻ	-5810
▁ስደተኞች	-5811
▁ማኅ	-5812
▁ማረጋገጫ	-5813
▁መተው	-5814
▁ሕዝቤ	-5815
ኩትን	-5816
በልጡ	-5817
ሐሴ	-5818
:26	-5819
▁ፕላ	-5820
▁ጭፍሮች	-5821
▁ግዙ	-5822
▁ከእርሷ	-5823
▁እያደገ	-5824
▁አስፈላጊነት	-5825
▁ተሰማ	-5826
▁ባለመ	-5827
▁ቁማር	-5828
▁ሳሙኤል	-5829
▁ሐኪ	-5830
▁ለዚያ	-5831
ጠራጠር	-5832
ያይ	-5833
አላህም	-5834
ሙ።	-5835
ሃል፤	-5836
▁ፕሬዚዳንት	-5837
▁ግዛ	-5838
▁ገደብ	-5839
▁ይም	-5840
▁የምንችለው	-5841
▁የራስ	-5842
▁ባዶ	-5843
▁በየትኛውም	-5844
▁በእነዚያ	-5845
▁በሀ	-5846
▁ረዳት	-5847
▁መቻል	-5848
▁(ዮሐንስ	-5849
▁(ቅ	-5850
ጋራት	-5851
ድማ	-5852
እነርሱም	-5853
ንንም	-5854
ራችን	-5855
ረታ	-5856
መቀጠል	-5857
▁ፋብሪካ	-5858
▁ግብይት	-5859
▁የመጣው	-5860
▁እነርሱን	-5861
▁እርሻ	-5862
▁እሁድ	-5863
▁አምጡ	-5864
▁ተገል	-5865
▁ተዕለት	-5866
▁ባንተ	-5867
▁ማሳየት	-5868
ጋው	-5869
ዳል።	-5870
ናኝ	-5871
ስቶች	-5872
ርን	-5873
መጠን	-5874
ሕዝቦቹ	-5875
▁ይሞክሩ	-5876
▁ውሻ	-5877
▁ወዳንተ	-5878
▁እችላለሁ?	-5879
▁እስከዛሬ	-5880
▁አባቶቻችን	-5881
▁አሏቸው	-5882
▁ናችሁ።	-5883
▁ትዝ	-5884
▁ሳይቆይ	-5885
▁መጽሐፉን	-5886
▁ሆስፒታል	-5887
ግነት	-5888
ክሲኮ	-5889
ኤሌክትሪክ	-5890
አምላክ	-5891
ናገሩት	-5892
ነብ	-5893
ረሱ	-5894
መደገፍ	-5895
መጋ	-5896
ልፉ	-5897
▁ፈገግ	-5898
▁ጎረ	-5899
▁የሚመራ	-5900
▁አጥብ	-5901
▁አይቻ	-5902
▁አስተሳሰብ	-5903
▁አራተኛ	-5904
▁ብልህ	-5905
▁በካ	-5906
▁ለመሞከር	-5907
▁ለጥቂት	-5908
▁the	-5909
ጓጓዣ	-5910
ናቅ	-5911
ትንሽ	-5912
ቀላቀል	-5913
ሻል	-5914
መሥራት	-5915
መያዝ	-5916
ልጣናት	-5917
ለምዶ	-5918
:24	-5919
▁ደስተ	-5920
▁የሚገል	-5921
▁የወ	-5922
▁ክፋት	-5923
▁እያንዳንዳቸው	-5924
▁እንደሌ	-5925
▁አይደለንም	-5926
▁በጌ	-5927
▁በን	-5928
▁ማለፍ	-5929
▁መግቢያ	-5930
▁መጸለይ	-5931
▁197	-5932
ጪው	-5933
ይጣን	-5934
ወስዱ	-5935
ን፣	-5936
ቃል።	-5937
ሰውነት	-5938
ሌን	-5939
▁ፈሪ	-5940
▁ጸሐ	-5941
▁ይይዛ	-5942
▁ያደ	-5943
▁የተናገረው	-5944
▁የማት	-5945
▁ዘወትር	-5946
▁ነህ?	-5947
▁ተመላ	-5948
▁በሲ	-5949
▁በሁለቱም	-5950
▁በሁለቱ	-5951
▁ምቾት	-5952
▁መገንባት	-5953
▁ላይሆን	-5954
▁ለራሱ	-5955
▁ለመጓዝ	-5956
ጦርነት	-5957
ደሱ	-5958
አል።	-5959
ብሊክ	-5960
ምሌ	-5961
▁የእናንተ	-5962
▁ከሳ	-5963
▁በላይ,	-5964
▁ስሪት	-5965
▁መጽሐፍን	-5966
▁መጽሔ	-5967
▁ህልም	-5968
▁(ቁር	-5969
ኮኖሚያ	-5970
ና፣	-5971
ብራራ	-5972
መክራ	-5973
መቀነስ	-5974
ch	-5975
7_	-5976
▁ጓደኛዬ	-5977
▁ዩክሬን	-5978
▁የአትክል	-5979
▁እራሳቸውን	-5980
▁ነገሩ	-5981
▁ብሩ	-5982
▁ማበረታ	-5983
▁መፍራት	-5984
▁መቁ	-5985
▁ህፃ	-5986
▁"አሁን	-5987
ግለጽ	-5988
ግብር	-5989
ንግሥ	-5990
ነቴ	-5991
ረው።	-5992
መፍታት	-5993
መርመር	-5994
ልዩ	-5995
ia	-5996
▁ደርሷ	-5997
▁ይሰጠ	-5998
▁የሕይወ	-5999
▁ዘጠኝ	-6000
▁ከልጅ	-6001
▁እነሆ፣	-6002
▁ነኝ"	-6003
▁መዛሙርቱ	-6004
ጣሬ	-6005
ጊዜው	-6006
ደንበኞች	-6007
ናቸውም	-6008
ባበሩት	-6009
▁ይሰጣል.	-6010
▁ያኔ	-6011
▁ዘላቂ	-6012
▁ውር	-6013
▁እርዳ	-6014
▁በተለምዶ	-6015
▁ቀጠሮ	-6016
▁ራሴ	-6017
▁ሠራዊት	-6018
▁መዳን	-6019
▁45	-6020
ጋጥ	-6021
ገልግሎት	-6022
ካተ	-6023
ካሄ	-6024
ኩኝ	-6025
ንጉሥ	-6026
ነፍስ	-6027
ሻሽ	-6028
ሰላ	-6029
ows	-6030
▁ጫማ	-6031
▁ጩኸት	-6032
▁ይከሰ	-6033
▁ያገኛሉ	-6034
▁የተጻፈ	-6035
▁የቻይና	-6036
▁አፍቃ	-6037
▁አድነ	-6038
▁አውሮፕላን	-6039
▁ቀርቶ	-6040
▁ሰሎሞን	-6041
ዝቃዛ	-6042
ኑት	-6043
በደ	-6044
ሰብሰብ	-6045
ረጋጋ	-6046
ልቀት	-6047
▁ፈርዖን	-6048
▁ግንቦት	-6049
▁ይጀምራል	-6050
▁ያውቃሉ?	-6051
▁ያስፈልግዎታል	-6052
▁የሉም	-6053
▁እንዲያገኙ	-6054
▁ናቸው"	-6055
▁ተመራማሪዎች	-6056
▁ተዘጋጅ	-6057
▁በገዛ	-6058
▁ቀጣይ	-6059
▁መቃብር	-6060
▁ሊፈ	-6061
ጣው	-6062
ጡ.	-6063
ለን!	-6064
▁ፈጠራ	-6065
▁ጠንክ	-6066
▁ዳንኤል	-6067
▁ይኖራል።	-6068
▁የግድ	-6069
▁የሚከተሉትን	-6070
▁የዛሬ	-6071
▁በእርሱም	-6072
▁ስርዓ	-6073
▁ማነው	-6074
▁ለመግ	-6075
▁ለ,	-6076
▁in	-6077
▁194	-6078
ሰቡን	-6079
▁ፍጡር	-6080
▁ጀመር።	-6081
▁ይችል	-6082
▁የተሻሉ	-6083
▁የሚሰጡ	-6084
▁የወጣ	-6085
▁አላቸው,	-6086
▁መንፈ	-6087
▁ለእነዚህ	-6088
▁ሀሳቦች	-6089
ገነዘቡ	-6090
ዮችን	-6091
ታለች	-6092
ቆጠሩ	-6093
ስያ	-6094
ሥራቅ	-6095
መስገን	-6096
ለው።	-6097
ህንድ	-6098
▁ጥፋ	-6099
▁ያደርጋል.	-6100
▁የዚህን	-6101
▁የአትክልት	-6102
▁ወሬ	-6103
▁እሺ	-6104
▁አግኝቷል	-6105
▁አባቱን	-6106
▁ምኞት	-6107
▁ላም	-6108
▁(ይባላሉ)	-6109
ጸልይ	-6110
ራም	-6111
ላቸው)	-6112
ለን"	-6113
ሁትን	-6114
▁ጥንታዊ	-6115
▁የእስራኤልም	-6116
▁የሚወ	-6117
▁የሚናገር	-6118
▁የኤ	-6119
▁ዝርያ	-6120
▁ወንበር	-6121
▁እየሆነ	-6122
▁አልቻሉም	-6123
▁ንስሐ	-6124
▁ተናግሯል።	-6125
▁ተጣ	-6126
▁መገኘት	-6127
▁ለማሳካት	-6128
▁44	-6129
ውስጥ	-6130
ታቸውም	-6131
ቀቁ	-6132
መሰግና	-6133
indows	-6134
:30	-6135
▁ጌታን	-6136
▁ይሻላል	-6137
▁ያለፈ	-6138
▁የተለመዱ	-6139
▁የሚተ	-6140
▁የሚሰጥ	-6141
▁አስተና	-6142
▁ኒው	-6143
▁በወር	-6144
▁ሰጥቶ	-6145
▁ራሳቸው	-6146
▁ማስጠንቀቂያ	-6147
▁ላለው	-6148
▁ለን	-6149
ጫወቱ	-6150
ይረስ	-6151
ንንት	-6152
ብብር	-6153
ሰና	-6154
ለወጥ	-6155
▁ዘመቻ	-6156
▁ወንጀል	-6157
▁እስኪያ	-6158
▁እህት	-6159
▁እሆና	-6160
▁ታደርጋ	-6161
▁ተጠንቀ	-6162
▁ለአን	-6163
ኣንን	-6164
ቻችንም	-6165
ቆማ	-6166
▁ግንኙነቶች	-6167
▁ይታወቃ	-6168
▁የተስፋ	-6169
▁የጠፋ	-6170
▁ወንድሜ	-6171
▁አዎን፣	-6172
▁በክፉ	-6173
▁በሚል	-6174
▁በከተማ	-6175
▁ልጆቼ	-6176
▁ልጆቻቸውን	-6177
▁ለርሱ	-6178
▁Windows	-6179
ፈጠረ	-6180
ደርገውን	-6181
ራቢያ	-6182
▁ያለም	-6183
▁የቀረበ	-6184
▁የሌለበት	-6185
▁የዋ	-6186
▁ዕጣ	-6187
▁አይሁዳ	-6188
▁ብራ	-6189
▁ማሽ	-6190
ዚያች	-6191
ዎታለን	-6192
ውተር	-6193
እነርሱም፣	-6194
አንድ	-6195
ታትን	-6196
ቱሪዝም	-6197
በታል	-6198
ቀጥለው	-6199
ቀመጫ	-6200
ሽም	-6201
መለከተው	-6202
|7	-6203
14	-6204
▁ፈታኝ	-6205
▁ይቀመጣ	-6206
▁ይከተ	-6207
▁ከወንድ	-6208
▁እነሆ:,	-6209
▁እርስዋም	-6210
▁አስተዳ	-6211
▁ተፈጥ	-6212
▁በነጻ	-6213
▁በማይ	-6214
▁ሰሜን	-6215
▁ሪፖር	-6216
▁ማብ	-6217
▁ሕልም	-6218
ግንኙ	-6219
ጋጠ	-6220
ና"	-6221
ሶችን	-6222
:23	-6223
▁ፓሪስ	-6224
▁ፈርዖንም	-6225
▁ፈለገ	-6226
▁የፈጠረ	-6227
▁የሚፈልጉት	-6228
▁ከፈለግ	-6229
▁እባክዎ	-6230
▁አዝማ	-6231
▁አለበለዚያ	-6232
▁በኾነ	-6233
ጀመሩ	-6234
ደብ	-6235
ቦቼ	-6236
ቡል	-6237
ሯዊ	-6238
ረሰ	-6239
ማስታወስ	-6240
ለቆ	-6241
ሃነም	-6242
▁ጀምሮ,	-6243
▁የሆኑት	-6244
▁ክህ	-6245
▁እየፈለጉ	-6246
▁ኢኮኖሚያ	-6247
▁መንግሥ	-6248
▁መኖሩ	-6249
▁ለአላህ	-6250
▁"እነሆ	-6251
ጓድ	-6252
ጊዜም	-6253
ዕለቱ	-6254
ከራከሩ	-6255
ሰማቸው	-6256
▁ጨምሮ	-6257
▁ጥቃ	-6258
▁ደራሲ	-6259
▁ይችሉ	-6260
▁የተጋ	-6261
▁ወረር	-6262
▁ነኝ,	-6263
▁ነበር፣	-6264
▁በዚህች	-6265
▁(አላህ)	-6266
▁"በዚህ	-6267
ፓሪስ	-6268
ጠለ	-6269
ዚል	-6270
ንዲ	-6271
ቆዩ	-6272
ሳኤ	-6273
|2	-6274
▁ግዙፍ	-6275
▁ደጋግ	-6276
▁የሁለት	-6277
▁ውሾች	-6278
▁እግዚ	-6279
▁አናውቅም	-6280
▁ተመዝ	-6281
▁ባለሥ	-6282
▁በሦስተኛ	-6283
▁ማስቀመጥ	-6284
ጣዊ	-6285
ናገራ	-6286
ኋቸው	-6287
ቡድን	-6288
ሰብኩ	-6289
ለብ	-6290
▁ጭንቀት	-6291
▁ይጠቀሙ	-6292
▁የቀረ	-6293
▁ዘን	-6294
▁እንደሚሰራ	-6295
▁እንደሚመጣ	-6296
▁እንደነበሩ	-6297
▁አጋማሽ	-6298
▁ባህር	-6299
▁ሁላችሁም	-6300
ፃፍ	-6301
ይፋ	-6302
ዕራብ	-6303
አእምሮ	-6304
ታለሁ	-6305
ቅም።	-6306
ቀበሉ	-6307
ሳምንቱ	-6308
ልጠና	-6309
ላዊነት	-6310
ላችሁን?	-6311
▁ይሰማኛል	-6312
▁የዓ	-6313
▁ወላጅ	-6314
▁ወዮ	-6315
▁በሰሜን	-6316
▁በሚያስ	-6317
▁በትንሣኤ	-6318
▁በቁም	-6319
▁በሕይወት	-6320
▁ሞተር	-6321
▁ላንተ	-6322
▁ለብ	-6323
ፕል	-6324
ጠበቁ	-6325
ግማሽ	-6326
ጋይ	-6327
ገባው	-6328
ያለሁ።	-6329
ቧል	-6330
ሲብ	-6331
▁እናገኛ	-6332
▁ኢዮብ	-6333
▁አሮጌ	-6334
▁አሻ	-6335
▁ንግዶች	-6336
▁ተቆጣ	-6337
▁ሰውነት	-6338
▁ሰጠው	-6339
▁ማስተዋል	-6340
▁ለማንም	-6341
ፉን	-6342
ጽፍ	-6343
ዲያብሎስ	-6344
ብርሃን	-6345
ቀመጠ	-6346
መልከ	-6347
ህ፤	-6348
▁፡-	-6349
▁ፖለቲካ	-6350
▁ፈጣ	-6351
▁ጋራ	-6352
▁ይቻ	-6353
▁የለበትም	-6354
▁ዝግጅት	-6355
▁እፈልጋለሁ.	-6356
▁አይደለም?	-6357
▁አያስፈልገ	-6358
▁አምራ	-6359
▁አላችሁ	-6360
▁ብሎ:	-6361
▁ቢሆኑ	-6362
▁በነበረ	-6363
▁በሕዝቡ	-6364
▁ስለማ	-6365
▁መስሎ	-6366
▁ሌላኛው	-6367
▁2009	-6368
▁(ኢ	-6369
ጋብቻ	-6370
ገኝም	-6371
ተዋ	-6372
ረጋግጥ	-6373
ማከናወን	-6374
__	-6375
:21	-6376
▁ገዥ	-6377
▁ይቆያ	-6378
▁የሚሆነ	-6379
▁ወሰደ	-6380
▁አንችልም	-6381
▁አታው	-6382
▁ንግሥ	-6383
▁ታገ	-6384
▁ባቡ	-6385
▁በአው	-6386
▁በመጀመሪያ	-6387
▁በሰማያት	-6388
▁ስድ	-6389
▁ማንነት	-6390
▁መድኃኒ	-6391
ፍሬ	-6392
ፈጠራ	-6393
ይዝ	-6394
ከላከያ	-6395
አካል	-6396
ርጂ	-6397
ረጋገጠ	-6398
ሕዝቦች	-6399
ለን,	-6400
ለሁ!	-6401
11	-6402
▁ይፈልጋሉ.	-6403
▁ይከፈ	-6404
▁ወገኖቼ	-6405
▁ኪንግ	-6406
▁ከሆንክ	-6407
▁ከፋ	-6408
▁እዚያው	-6409
▁እርግ	-6410
▁አንድነት	-6411
▁ትምህርቶች	-6412
▁ተሳታ	-6413
▁ቃለ	-6414
▁ስላለው	-6415
▁ሰይጣ	-6416
▁ሰማያት	-6417
▁መርከ	-6418
▁ለራሳቸው	-6419
▁(4	-6420
ጠሪያ	-6421
ዘም	-6422
ክበር	-6423
ኒክ	-6424
ማቾች	-6425
ላሉ.	-6426
ss	-6427
▁ይሰጣል።	-6428
▁ይጀምራ	-6429
▁ዘመናት	-6430
▁ወሰነ	-6431
▁አንጻ	-6432
▁አስተያየ	-6433
▁አስር	-6434
▁አምነ	-6435
▁ቡና	-6436
▁በቅርቢቱ	-6437
▁ቅጣ	-6438
▁መንገዱን	-6439
▁መስከረም	-6440
▁CO	-6441
▁196	-6442
▁"አይ	-6443
ወሰዱ	-6444
ኖርበት	-6445
ታችሁን	-6446
▁››	-6447
▁ፎቶግራ	-6448
▁ካሜራ	-6449
▁እናምና	-6450
▁አዘዘ	-6451
▁አቃ	-6452
▁ተዓምር	-6453
▁በጌት	-6454
▁በኤ	-6455
▁ሽማግሌዎች	-6456
ደዱ	-6457
ኮን	-6458
ርጥ	-6459
ልጅነት	-6460
ሉት።	-6461
:28	-6462
-2	-6463
▁ድረ	-6464
▁አውቀ	-6465
▁በጌታቸው	-6466
▁ልጆችም	-6467
▁Pl	-6468
▁"መ	-6469
ይቅ	-6470
ቸዋለሁ።	-6471
ሳይንስ	-6472
ማጥፋት	-6473
▁ጣሊያን	-6474
▁ያቀርባ	-6475
▁የእግዚአብሔርም	-6476
▁የሚመጣው	-6477
▁የሽ	-6478
▁ወፎች	-6479
▁ከንቱ	-6480
▁አይጨነቁ	-6481
▁አዝማሚያ	-6482
▁አለባቸው.	-6483
▁አጣ	-6484
▁ባንክ	-6485
▁በመቶዎች	-6486
▁መላክ	-6487
▁2011	-6488
▁(ም	-6489
ጠራው	-6490
ሕዝቤ	-6491
ore	-6492
▁ጥቂቶች	-6493
▁የከ	-6494
▁ወላጆቹ	-6495
▁ወኪ	-6496
▁ከፊት	-6497
▁እንግዲህ,	-6498
▁አጋጣሚዎች	-6499
▁በሃ	-6500
▁ስፖርት	-6501
▁ማሳለፍ	-6502
▁2007	-6503
ፍና	-6504
ጠጡ	-6505
ዷል	-6506
ያውያን	-6507
ችለውን	-6508
ተኮር	-6509
ቪድ	-6510
ቋል	-6511
ስበው	-6512
ራሉ።	-6513
ረም	-6514
co	-6515
▁ግለሰብ	-6516
▁ያለንን	-6517
▁ያህል፣	-6518
▁የተወለደው	-6519
▁የይሁዳ	-6520
▁ካን	-6521
▁እንዳለብኝ	-6522
▁ኢሜ	-6523
▁ኖኅ	-6524
▁ተከተ	-6525
▁በሚያሳ	-6526
▁ቁጥሮች	-6527
▁ቀንም	-6528
▁ራእይ	-6529
▁ማውጣት	-6530
▁ሙያ	-6531
▁ሕይወትን	-6532
▁ሕጋዊ	-6533
▁ለአባ	-6534
▁ሁሉ፣	-6535
▁YouT	-6536
▁What	-6537
▁1,	-6538
▁(፪	-6539
▁'በ	-6540
ፖሊስ	-6541
ወርቅ	-6542
ኩት።	-6543
በክ	-6544
ቀጥል	-6545
መስረት	-6546
th	-6547
▁ዶክተር	-6548
▁ይቻላል።	-6549
▁የእምነት	-6550
▁የሰማያትና	-6551
▁ክን	-6552
▁ከመካከ	-6553
▁እንዲኖራቸው	-6554
▁ተአም	-6555
▁በኢንተርኔት	-6556
▁ቀንና	-6557
▁ቀርቦ	-6558
▁መንደር	-6559
▁መሃል	-6560
ፍራት	-6561
ጠሩት	-6562
ዶችን	-6563
ካሄድ	-6564
ኗኗ	-6565
ቻቸውም	-6566
ራሳቸው	-6567
ለክ	-6568
▁ይገለ	-6569
▁የተሰጠው	-6570
▁የሚመጡ	-6571
▁ኢኮኖሚያዊ	-6572
▁ኢንቨስት	-6573
▁አይታ	-6574
▁ኃያል	-6575
▁ቶን	-6576
▁ትላልቅ	-6577
▁ቢሆኑም	-6578
▁በሞ	-6579
▁መድረሻ	-6580
▁ለጌታ	-6581
▁(፪x)	-6582
▁'እኔ	-6583
ጥበብ	-6584
ዴን	-6585
ተግባር	-6586
ሰጡት	-6587
ሰቃ	-6588
OS	-6589
▁ይፈር	-6590
▁ይዛ	-6591
▁ከሐ	-6592
▁አመስጋኝ	-6593
▁ነፋስ	-6594
▁ቻይ	-6595
▁ቤቱን	-6596
▁በጌትነቱ	-6597
▁በመጨረሻይቱ	-6598
▁በሰማ	-6599
▁ሰምተው	-6600
▁ሰላምታ	-6601
▁ለሌላው	-6602
ጣቢያ	-6603
ሆች	-6604
▁ጠር	-6605
▁ይፋ	-6606
▁ይነሳ	-6607
▁ያበ	-6608
▁የተገነባ	-6609
▁የሌለው	-6610
▁አክብሮት	-6611
▁ኀጢአ	-6612
▁ቴክኒ	-6613
▁ተገን	-6614
▁ቢሊዮን	-6615
▁በምንም	-6616
▁ሰይፍ	-6617
▁ሕክምና	-6618
ዋርያው	-6619
ከባቢው	-6620
ታችንም	-6621
ቱት	-6622
ቃብ	-6623
ሸት	-6624
ሳሉ	-6625
ሠሩትን	-6626
▁የማይወ	-6627
▁የላቸውም።	-6628
▁እንግሊዝ	-6629
▁እፈራ	-6630
▁አለው፤	-6631
▁በሚመጣ	-6632
▁በሆነው	-6633
▁ቆሞ	-6634
▁ቅድመ	-6635
▁ስለም	-6636
▁ምዕራብ	-6637
▁ሆኜ	-6638
▁YouTube	-6639
▁37|	-6640
▁"እስከ	-6641
ጫን	-6642
ወዳደር	-6643
ወለዱ	-6644
ናገረውን	-6645
ለወጠ	-6646
▁ጣፋ	-6647
▁ይልቅ,	-6648
▁ያደረ	-6649
▁የሚያደርገው	-6650
▁የወን	-6651
▁አለን።	-6652
▁ነበር!	-6653
▁ተቀመጠ	-6654
▁በሰባ	-6655
▁በሥ	-6656
▁ምድሪ	-6657
▁ማሽን	-6658
▁መልእክተኛ	-6659
▁መላውን	-6660
▁ለቤተ	-6661
▁ለቅ	-6662
ጀመረው	-6663
ዳችሁ	-6664
የውም	-6665
ን)	-6666
ተረ	-6667
ተም	-6668
ስተዋ	-6669
ሪዎችን	-6670
ለመደው	-6671
▁ፈቀቅ	-6672
▁ግን፣	-6673
▁ግዴታ	-6674
▁ይገኛሉ	-6675
▁ያዩ	-6676
▁ክርክር	-6677
▁እያንዳንዳችን	-6678
▁እነግራ	-6679
▁አባቶቻችሁ	-6680
▁ነሽ	-6681
▁ምድርም	-6682
▁መጽሐ	-6683
▁መገለ	-6684
▁ልጆቻችሁ	-6685
ደሩ	-6686
ይስ	-6687
ቻችንን	-6688
ብዛ	-6689
ሊን	-6690
▁ገለል	-6691
▁የሚወስ	-6692
▁ዓይነ	-6693
▁ውስን	-6694
▁ከአባ	-6695
▁አንዱ	-6696
▁ትእዛዛት	-6697
▁በምድረ	-6698
▁ለንደን	-6699
ጎበ	-6700
ክተ	-6701
ናው	-6702
ነጋገሩ	-6703
ብራሂ	-6704
ሰጠን	-6705
መከላከል	-6706
መሩ።	-6707
:32	-6708
▁ፍትሕ	-6709
▁ጥበብን	-6710
▁ጀርባ	-6711
▁ዳይ	-6712
▁ዳኛ	-6713
▁ያደረገውን	-6714
▁የሚገባው	-6715
▁የሚሆነውን	-6716
▁የሚቻል	-6717
▁የሚመስ	-6718
▁እንደሚፈልጉ	-6719
▁እነዚያንም	-6720
▁ኢየሩሳሌም	-6721
▁አድርገን	-6722
▁አይተው	-6723
▁አስፈሪ	-6724
▁አለች።	-6725
▁ባረ	-6726
▁በልጅ	-6727
▁ምንጊዜም	-6728
▁ምስሎች	-6729
▁ማብራ	-6730
▁መወሰን	-6731
ፋችሁ	-6732
ፋስ	-6733
ጫወቻ	-6734
ካቸው	-6735
ከናወነ	-6736
አገር	-6737
ራል.	-6738
ምርት	-6739
▁ግንብ	-6740
▁ያምናሉ	-6741
▁ያህል,	-6742
▁ከሌላው	-6743
▁እንጂ።	-6744
▁እራሴን	-6745
▁እጁን	-6746
▁አጋር	-6747
▁አንተና	-6748
▁በእጅህ	-6749
▁በተቃራኒው	-6750
▁በቤቱ	-6751
▁በሮች	-6752
▁ስጋ	-6753
▁ማስወገድ	-6754
▁መጨነቅ	-6755
▁Whats	-6756
ጠኞች	-6757
ግባባት	-6758
ዓቱ	-6759
ውያንም	-6760
ዋል፤	-6761
ቡም	-6762
በኞች	-6763
ቃጠል	-6764
ሙከራ	-6765
▁ጥርጣሬ	-6766
▁ጠርቶ	-6767
▁ጌታም	-6768
▁ያስደ	-6769
▁ከዓ	-6770
▁እጃ	-6771
▁አድናቂ	-6772
▁አውቶቡ	-6773
▁አውራ	-6774
▁አልጋ	-6775
▁ናቸው!	-6776
▁ታዛ	-6777
▁በእንግሊዝኛ	-6778
▁በርሳችሁ	-6779
▁በሚያሳዝን	-6780
▁ማበረታቻ	-6781
▁ሙቀት	-6782
▁መገንዘብ	-6783
▁(መ	-6784
ዋጋት	-6785
እውነተኛ	-6786
ኝ"	-6787
ንቀጾ	-6788
ስፈራ	-6789
ሰረ	-6790
ሮም	-6791
ራቅ	-6792
ebook	-6793
▁ዮና	-6794
▁የሌላ	-6795
▁እጆ	-6796
▁አንዳች	-6797
▁አትፍሩ	-6798
▁አርባ	-6799
▁ተግባራት	-6800
▁ቪዲዮዎችን	-6801
▁በኮ	-6802
▁ቀዝቃዛ	-6803
▁ሳይንሳዊ	-6804
▁መፅሐ	-6805
▁ለዚያም	-6806
ፈቅድ	-6807
ገቢ	-6808
ደኞች	-6809
ደሉ	-6810
ያዋን	-6811
ባበር	-6812
ሻውን	-6813
ራቸውም	-6814
መንፈሳዊ	-6815
መች	-6816
▁ፕሬዝ	-6817
▁ድንኳን	-6818
▁ዓይነቱን	-6819
▁ውሰድ	-6820
▁አለው፦	-6821
▁ነበርን	-6822
▁በገበያው	-6823
▁በእንደዚህ	-6824
▁በማኅበራዊ	-6825
▁በላጭ	-6826
▁ስሙን	-6827
▁ሲቀ	-6828
▁መጠጊያ	-6829
▁መድሃኒት	-6830
▁ሐዋርያት	-6831
▁ሆቴል	-6832
▁ሃሳብ	-6833
ያውቁት	-6834
ከኝ	-6835
ቴክኒ	-6836
በዝ	-6837
ሉትም	-6838
▁ጀመሩ።	-6839
▁ይባላል	-6840
▁ያንብቡ	-6841
▁ያለምንም	-6842
▁የለንም	-6843
▁ከባለ	-6844
▁እጠብቃ	-6845
▁አስፈራሪ	-6846
▁ነበረች።	-6847
▁ትዊተር	-6848
▁ተወስ	-6849
▁ቅዳሜ	-6850
▁መንግሥታት	-6851
▁መልዕክት	-6852
▁ለሆኑ	-6853
▁ሄደ።	-6854
▁ሁን	-6855
ፈልግም።	-6856
ዶችም	-6857
ድጉ	-6858
ከናወኑ	-6859
በተ	-6860
ረኞች	-6861
መሰክር	-6862
ሁፍ	-6863
acebook	-6864
_5	-6865
▁ጓደኞቼ	-6866
▁ይጥ	-6867
▁ያደርገዋል	-6868
▁የጸ	-6869
▁ዘይ	-6870
▁እያደረጉ	-6871
▁ኢትዮጵያ	-6872
▁አፈር	-6873
▁ቴሌቪዥን	-6874
▁በመልካም	-6875
▁ለመጠየቅ	-6876
ገነዘባ	-6877
ያቸውን	-6878
ዖንና	-6879
ከተማይ	-6880
ንስሳት	-6881
ስልክ	-6882
ne	-6883
▁ጽዋ	-6884
▁ጉብኝት	-6885
▁ደሴት	-6886
▁ይፈልጋሉ።	-6887
▁የሚበልጥ	-6888
▁የፊ	-6889
▁የሰራ	-6890
▁ኮሪያ	-6891
▁ከዋክብት	-6892
▁ከክ	-6893
▁እያደረገ	-6894
▁ንጉስ	-6895
▁ትችላለህ።	-6896
▁ታሪካዊ	-6897
▁ተሰብስ	-6898
▁ብሔር	-6899
▁በውኑ	-6900
▁በች	-6901
▁መለስ	-6902
▁ሆኗል.	-6903
▁(ሙሳ	-6904
ጠራችሁ	-6905
ድግ	-6906
ለዳ	-6907
7)	-6908
....	-6909
▁ፀሐ	-6910
▁ጥረ	-6911
▁ግማ	-6912
▁ጊዜ።	-6913
▁ደግሞ,	-6914
▁ይጠብቁ	-6915
▁ይሁን።	-6916
▁ይደ	-6917
▁ይለያ	-6918
▁ያመኑትን	-6919
▁የምፈልገው	-6920
▁የሚባል	-6921
▁የጠ	-6922
▁ዐይ	-6923
▁ከነዚህ	-6924
▁ከረጅም	-6925
▁አባባል	-6926
▁አረጋግ	-6927
▁ንጥረ	-6928
▁መሰረታዊ	-6929
▁ሆነን	-6930
▁for	-6931
ጨስ	-6932
ዘጋጃ	-6933
ዉን	-6934
ኾነው	-6935
ኩስ	-6936
እድ	-6937
ስማ	-6938
ሳቁ	-6939
ሪታ	-6940
መቻ	-6941
App	-6942
▁ድንበር	-6943
▁ይሰጥ	-6944
▁ያገኙ	-6945
▁የሚያምኑ	-6946
▁የዕ	-6947
▁ወይ?	-6948
▁ኾናችሁ	-6949
▁ካም	-6950
▁አስተናጋ	-6951
▁በሕይወቴ	-6952
▁ሞገስ	-6953
▁ማንንም	-6954
▁መልክተኞች	-6955
▁43	-6956
ዩክሬን	-6957
ሞክር	-6958
ሙም	-6959
ለመደ	-6960
|4	-6961
▁ጣፋጭ	-6962
▁ይኖራሉ	-6963
▁ይምረ	-6964
▁ይለኛ	-6965
▁የእሱን	-6966
▁ዘውታ	-6967
▁እምቢ	-6968
▁እመኑ	-6969
▁አፈፃፀ	-6970
▁አብረ	-6971
▁ንብረ	-6972
▁ታውቃላችሁ።	-6973
▁ተረድ	-6974
▁በይነመረብ	-6975
▁በቦ	-6976
▁ሰዎች,	-6977
▁ምል	-6978
▁ሜዳ	-6979
▁መተማመን	-6980
▁WhatsApp	-6981
▁'ከ	-6982
ዕውቀት	-6983
ዎትን	-6984
ሪን	-6985
ሪል	-6986
ረዳን	-6987
መኪና	-6988
መረጃ	-6989
ላጭ	-6990
▁ይሄዳሉ	-6991
▁የዳዊት	-6992
▁የያዕቆብ	-6993
▁ከእግዚአብሄር	-6994
▁ከክፉ	-6995
▁እመጣ	-6996
▁አቋም	-6997
▁አሞ	-6998
▁ትግል	-6999
▁ተለው	-7000
▁ብሎግ	-7001
▁በተሳካ	-7002
▁በዋ	-7003
▁ምነው	-7004
▁ማዳመጥ	-7005
▁ማሻሻ	-7006
▁መጠጥ	-7007
▁መላእክትን	-7008
▁ሐዋርያው	-7009
▁Facebook	-7010
▁2000	-7011
▁"ዛሬ	-7012
ጠዋል	-7013
ግንባታ	-7014
አብዛኛዎቹ	-7015
ኋችሁ	-7016
ሶን	-7017
ምርምር	-7018
መንት	-7019
ላቸዋል።	-7020
ለኞች	-7021
ሆናችሁ	-7022
▁ይመለከ	-7023
▁የበይነመረብ	-7024
▁የራቀ	-7025
▁የሚሰጠው	-7026
▁የወንድ	-7027
▁ውሂብ	-7028
▁ወይን	-7029
▁አልበ	-7030
▁አለብዎት።	-7031
▁ብሏል፦	-7032
▁በየዕለቱ	-7033
▁ማከናወን	-7034
▁ማሸነፍ	-7035
▁መኾናቸውን	-7036
▁ልጅም	-7037
▁ሊያደርግ	-7038
ጽናፈ	-7039
ገነዘብ	-7040
ያያዙ	-7041
ያችን	-7042
የውን	-7043
ዞን	-7044
ክቶ	-7045
በቁ	-7046
ቆያ	-7047
ቅን	-7048
ሷል	-7049
ርዳታ	-7050
ርሳ	-7051
ማንም	-7052
ለታል።	-7053
▁ጥላ	-7054
▁ጊዜ.	-7055
▁የእንግሊዝኛ	-7056
▁የትዳር	-7057
▁የሚገር	-7058
▁የሚወዱ	-7059
▁የሚሰራ	-7060
▁የሰጠው	-7061
▁ኮድ	-7062
▁ካለዎት	-7063
▁እራት	-7064
▁ትንቢ	-7065
▁ታው	-7066
▁በውስጣቸው	-7067
▁በትዊተር	-7068
▁በዛ	-7069
▁በቤተሰብ	-7070
▁ሰጣቸው	-7071
▁ሞዴሎች	-7072
▁መሻሻል	-7073
▁ላክን	-7074
▁(ኤ	-7075
ጻጸ	-7076
ጡ፤	-7077
ዘረ	-7078
ካችሁ	-7079
ናቸው።	-7080
ታገ	-7081
ቲክ	-7082
ቃቂ	-7083
ሳተፉ	-7084
ልኮ	-7085
ልታ	-7086
▁ፍራ	-7087
▁ጸጥ	-7088
▁ግኝ	-7089
▁ይታወ	-7090
▁ይኑ	-7091
▁የሚገቡ	-7092
▁ከመጽሐፉ	-7093
▁ከደ	-7094
▁ከኔ	-7095
▁እንደኾነ	-7096
▁እራሳችንን	-7097
▁አይቻልም	-7098
▁አናት	-7099
▁ነበርና።	-7100
▁ተቃራኒ	-7101
▁ተመለስ	-7102
▁በየሳምንቱ	-7103
▁በይሁዳ	-7104
▁ማራ	-7105
▁ሄዶ	-7106
▁(ሉ	-7107
ጠቀሰው	-7108
ጓዴ	-7109
ዴራል	-7110
አውስትራሊያ	-7111
ንቀሳቃ	-7112
ኑት።	-7113
ትውልድ	-7114
ተኛት	-7115
ቂኝ	-7116
ረንጓዴ	-7117
ማችሁ	-7118
▁ይደግ	-7119
▁ያስች	-7120
▁የግብይት	-7121
▁የካዱ	-7122
▁የመሆን	-7123
▁አንጻር	-7124
▁አብረው	-7125
▁አባትህ	-7126
▁አስከት	-7127
▁አደረገው	-7128
▁አቁ	-7129
▁ንጹህ	-7130
▁ነበረኝ	-7131
▁ትርፍ	-7132
▁ተናጋሪ	-7133
▁በጽድቅ	-7134
▁በእውነት,	-7135
▁ሽልማ	-7136
▁ስጋት	-7137
▁ራዕይ	-7138
▁ሥራቸውን	-7139
▁መገመት	-7140
▁መነጋገር	-7141
▁23|	-7142
▁(ራ	-7143
ጣችሁ	-7144
ዓዊ	-7145
ካች	-7146
ኘው	-7147
ሳቢ	-7148
መቆጣጠር	-7149
▁ጌታህ	-7150
▁ይግባ	-7151
▁የሃ	-7152
▁እኩ	-7153
▁አያምኑም።	-7154
▁አልነበሩ	-7155
▁አለቆች	-7156
▁ነበራቸው	-7157
▁ታየ	-7158
▁ተጋብ	-7159
▁ተቋም	-7160
▁በተመሳሳይ	-7161
▁ሸሽ	-7162
▁ሳይንቲ	-7163
▁ራስህ	-7164
▁ምድረ	-7165
▁ምና	-7166
▁39	-7167
▁"።	-7168
ጸኞች	-7169
ይዙ	-7170
ዋውያን	-7171
ካሪዎች	-7172
ኞቻችንን	-7173
ንባ	-7174
በህ	-7175
ሳትን	-7176
ሪውን	-7177
ሠራው	-7178
መክፈት	-7179
ሉ)	-7180
ሁም	-7181
8)	-7182
▁ፖሊስ	-7183
▁ጣልቃ	-7184
▁የሞተ	-7185
▁ከዘ	-7186
▁ከሙታን	-7187
▁ንገረ	-7188
▁ነህ፤	-7189
▁ትው	-7190
▁በመሠ	-7191
▁በግራ	-7192
▁መልሱ	-7193
▁መመለ	-7194
▁"ተ	-7195
▁"ብ	-7196
ፋር	-7197
ጴዛ	-7198
ገራችን	-7199
ወላጆቹ	-7200
ከባድ	-7201
ነታቸው	-7202
ተኛውም	-7203
▁ጥበበኛ	-7204
▁ድንገት	-7205
▁ይጋ	-7206
▁ያስፈልገናል	-7207
▁የተወረደው	-7208
▁የተወ	-7209
▁የማይችል	-7210
▁የያዘ	-7211
▁እየቀ	-7212
▁አስታውሳ	-7213
▁አላቸው፤	-7214
▁ንግሥና	-7215
▁ተፅእኖ	-7216
▁በአሕዛብ	-7217
▁በድር	-7218
▁በምድርም	-7219
▁ሩሲያ	-7220
▁ማስተማር	-7221
▁ሙሽ	-7222
▁ሐሳ	-7223
▁2010	-7224
ክሮ	-7225
ከበሩ	-7226
ነቃ	-7227
ብረተሰብ	-7228
ባቢያዊ	-7229
ሰዱ	-7230
መቋቋም	-7231
ov	-7232
▁ፈጠረ	-7233
▁ይነግረ	-7234
▁ያምናሉ።	-7235
▁ያደረጉ	-7236
▁ያረ	-7237
▁የሚገኘው	-7238
▁የባለ	-7239
▁እንዲያደርጉ	-7240
▁እጄ	-7241
▁አማኝ	-7242
▁አሏቸው።	-7243
▁አሉኝ	-7244
▁ብሔ	-7245
▁ባህላዊ	-7246
▁ባዩ	-7247
▁በሰሙ	-7248
▁በኃ	-7249
▁ሕፃን	-7250
▁ልባ	-7251
▁ሊከሰት	-7252
▁41	-7253
ዝገባ	-7254
ዕም	-7255
ከለከ	-7256
ኖችን	-7257
ት)	-7258
ራጭ	-7259
ረንሣ	-7260
መካከለኛ	-7261
ሕንድ	-7262
ለን፣	-7263
ሁላችንም	-7264
ma	-7265
;,	-7266
▁ፍጥረታት	-7267
▁ገነቶች	-7268
▁ደንብ	-7269
▁የወደፊቱ	-7270
▁የተደ	-7271
▁ከእንቅ	-7272
▁እንደምና	-7273
▁አሉ፤	-7274
▁ትበላ	-7275
▁ተሰጥቶ	-7276
▁ተይ	-7277
▁በፍርድ	-7278
▁ቋሚ	-7279
▁ስጦታዎች	-7280
▁ስና	-7281
▁ሲናገር	-7282
▁ሰማያ	-7283
▁መጣ።	-7284
▁መጠጣት	-7285
▁መሞት	-7286
▁ለማግኘት	-7287
▁(1)	-7288
ፓር	-7289
ፈሩት	-7290
ዲሱ	-7291
ዱ፤	-7292
ያም	-7293
ታላ	-7294
ቀሳ	-7295
ሽነት	-7296
ልድ	-7297
ሃዊ	-7298
▁ጥሩው	-7299
▁ይኸውም	-7300
▁ይወሰ	-7301
▁ያጣ	-7302
▁የአላህን	-7303
▁የበለ	-7304
▁ኪንግደም	-7305
▁እንመለከታ	-7306
▁እኔንም	-7307
▁አድና	-7308
▁አይቻል	-7309
▁ተዋጊ	-7310
▁ተቀምጦ	-7311
▁በረከ	-7312
▁በነፍ	-7313
▁ቅሬታ	-7314
▁ራሳችንን	-7315
▁ረዥም	-7316
▁ማክበር	-7317
▁ማዳን	-7318
▁ማንን	-7319
▁ሙሳንም	-7320
▁መነሻ	-7321
▁መደረግ	-7322
▁ሌላን	-7323
▁ለመው	-7324
▁ለመብላት	-7325
▁ለደ	-7326
▁ለቤተሰ	-7327
▁ሁላችን	-7328
▁2006	-7329
▁(ወደ	-7330
ጢር	-7331
ግባት	-7332
ገናል።	-7333
ዱሳን	-7334
ደደ	-7335
ደሪያ	-7336
ዓምራ	-7337
ኳቸው	-7338
ካሄደ	-7339
ከብር	-7340
አለሁ	-7341
ነጋገራ	-7342
ችኋለሁ።	-7343
ረንሣይ	-7344
ሙቀት	-7345
ህሳስ	-7346
▁ፍቅርን	-7347
▁ጠይቅ	-7348
▁ድረስ.	-7349
▁ዮርዳ	-7350
▁ይገኛል።	-7351
▁የታመነ	-7352
▁የሚደረግ	-7353
▁የሉ	-7354
▁ዝግጅ	-7355
▁ዜጋ	-7356
▁ከጎ	-7357
▁ከገ	-7358
▁እንሰጣ	-7359
▁እርስዋ	-7360
▁ነፍሴ	-7361
▁በተጨማሪም,	-7362
▁በሕይወቱ	-7363
▁ቅርንጫ	-7364
▁ሳም	-7365
▁ሙታን	-7366
▁ልባቸው	-7367
▁ለአምላክ	-7368
▁ሆይ,	-7369
▁(ማቴዎስ	-7370
▁"አምላክ	-7371
ፍትን	-7372
ገድሉ	-7373
ቶች.	-7374
ትል	-7375
ታሪክ	-7376
ማቋረጥ	-7377
ሏል.	-7378
ሌክ	-7379
ሉ፥	-7380
|10|	-7381
5%	-7382
"በ	-7383
▁ጠቢብ	-7384
▁ጌታህም	-7385
▁ጊዜውን	-7386
▁ይመልከቱ.	-7387
▁የጽድቅ	-7388
▁የሚሹ	-7389
▁የሚሰሩ	-7390
▁ኾኖ	-7391
▁ተገለጠ	-7392
▁ቤትህ	-7393
▁በአካ	-7394
▁በልጁ	-7395
▁በጸ	-7396
▁ቀውስ	-7397
▁ሶስተኛ	-7398
▁ስለሆኑ	-7399
▁ማገልገል	-7400
▁ማድረ	-7401
▁ልጆቹን	-7402
፤+	-7403
ፋኑ	-7404
ጥቅም	-7405
ዶም	-7406
ቱርክ	-7407
ቃድ	-7408
መውጣት	-7409
ላችሁ"	-7410
ሆንኩ	-7411
▁ፀጉር	-7412
▁ጽኑ	-7413
▁ግብዣ	-7414
▁ያደርግ	-7415
▁ወስዶ	-7416
▁ከሩቅ	-7417
▁እህል	-7418
▁አይፈልጉ	-7419
▁አልቻልኩም	-7420
▁ኃጢአተኛ	-7421
▁በነበ	-7422
▁በኃጢአት	-7423
▁ሳት	-7424
▁ሰፈር	-7425
▁ምንኛ	-7426
▁ማዘጋጀት	-7427
▁ለይ	-7428
▁ሆናችሁ	-7429
▁Mac	-7430
ጭሩ	-7431
ጣራ	-7432
ግባብ	-7433
ዎቼ	-7434
ወርድ	-7435
ንቀሳቀስ	-7436
ተኞቹም	-7437
ቢዩ	-7438
ራቸው።	-7439
ረትን	-7440
መነዳ	-7441
200	-7442
▁ደንበኛ	-7443
▁ይሠሩት	-7444
▁የሚጠቀሙ	-7445
▁የሚሉ	-7446
▁ዘግይ	-7447
▁ወለደ	-7448
▁ካህና	-7449
▁ከቤተ	-7450
▁እነማን	-7451
▁አንዷ	-7452
▁አስቡ	-7453
▁ተደርጓል.	-7454
▁ተዘግ	-7455
▁ተናገ	-7456
▁በአእምሮ	-7457
▁በመከራ	-7458
▁በሙሴ	-7459
▁ቀስ	-7460
▁ሚኒስትር	-7461
▁ሊመጣ	-7462
▁Re	-7463
▁Play	-7464
▁(እንደ	-7465
▁'እ	-7466
ጽሑፍ	-7467
ግደ	-7468
ዳዩ	-7469
ዕክቶች	-7470
ዑል	-7471
ንቶ	-7472
በላው	-7473
ስኤ	-7474
ሰህ	-7475
ርቱ	-7476
ሃብ	-7477
ack	-7478
▁ጥቅምት	-7479
▁ጀመረ።	-7480
▁የመረ	-7481
▁ዕድሜያቸው	-7482
▁እንደዚሁም	-7483
▁እንሄዳ	-7484
▁አይቻለሁ	-7485
▁ታምና	-7486
▁ተዛ	-7487
▁በቃሉ	-7488
▁ስለዚህ	-7489
▁ማለቴ	-7490
▁መጽሔት	-7491
▁መጨረሻው	-7492
▁መውደድ	-7493
▁"አላህ	-7494
ፈርድ	-7495
ጣቸው።	-7496
ደረጃ	-7497
ዋወቅ	-7498
ታችሁም	-7499
ሻለሁ	-7500
መዋጋት	-7501
ለ።	-7502
"የ	-7503
▁ግማሹ	-7504
▁ደረሰ	-7505
▁ይጠይቁ	-7506
▁ይመጣል።	-7507
▁የአባት	-7508
▁ከመስ	-7509
▁እንረዳ	-7510
▁አልፈጠር	-7511
▁አላደረገ	-7512
▁ነው'	-7513
▁ነበረብኝ	-7514
▁ታም	-7515
▁በጎች	-7516
▁ምግቦች	-7517
▁ምህረት	-7518
▁ማዕከላዊ	-7519
▁መጨመር	-7520
▁ሊኖሩ	-7521
ያዎች	-7522
ዎትም.	-7523
ወደድ	-7524
ሪታንያ	-7525
ማዊ	-7526
መልከቻ	-7527
ልና	-7528
ህክምና	-7529
▁ፈለግ	-7530
▁ጻድቃን	-7531
▁ግዜ	-7532
▁ገዢ	-7533
▁ያደርጋሉ	-7534
▁ያዝ	-7535
▁ያተኮ	-7536
▁የተባ	-7537
▁ወንድሙን	-7538
▁እንጠብቃ	-7539
▁አይችሉም.	-7540
▁አያደርግ	-7541
▁አትበ	-7542
▁ተአምራት	-7543
▁ተመልከት።	-7544
▁ብርታት	-7545
▁በእግዚአብሔር	-7546
▁በይሖዋ	-7547
▁ቅርጸ	-7548
▁ቀን,	-7549
▁ቀረ	-7550
▁ሸለቆ	-7551
▁ሰውየው	-7552
▁ሰን	-7553
▁መርከብ	-7554
▁ለምንድ	-7555
▁ለልጆች	-7556
▁ህጻ	-7557
▁(ያ	-7558
ጻፈው	-7559
ጥብቅ	-7560
ደርጋቸው	-7561
ዝነት	-7562
እኛም	-7563
ንም፣	-7564
ቤቴ	-7565
ቋንቋ	-7566
ቅል	-7567
ሰባችን	-7568
ማስተማር	-7569
ሙርት	-7570
-19	-7571
▁ጊዜ፥	-7572
▁ይገባል.	-7573
▁ያመለክ	-7574
▁የሚጠጉ	-7575
▁የሚያሳይ	-7576
▁እቅ	-7577
▁አድርገህ	-7578
▁አደርጋለሁ።	-7579
▁አይሁ	-7580
▁አዛኝ	-7581
▁አስቂኝ	-7582
▁አመራር	-7583
▁ነፍሶ	-7584
▁ነገርን	-7585
▁ታቦት	-7586
▁ስለነበረ	-7587
▁ሰላማ	-7588
▁ማሻሻል	-7589
▁መለየት	-7590
ጣኝ	-7591
ጠየቁ	-7592
የኝ"	-7593
ኮችን	-7594
ኛውን	-7595
ሩ.	-7596
ማካይ	-7597
መዳን	-7598
ሕያው	-7599
ሁም።	-7600
ut	-7601
ra	-7602
:27	-7603
▁ጅምር	-7604
▁ይነሣ	-7605
▁ያገኛሉ.	-7606
▁ያሳድ	-7607
▁ዕዳ	-7608
▁ኮሌጅ	-7609
▁ከታች	-7610
▁እሞክራ	-7611
▁አትክል	-7612
▁አታውቅም	-7613
▁አልገባ	-7614
▁ነዋሪ	-7615
▁ኃላፊ	-7616
▁ትቶ	-7617
▁ባሻገር	-7618
▁በኒው	-7619
▁ቆመው	-7620
▁ቁሳቁ	-7621
▁ሳል	-7622
▁ሰዎቹ	-7623
▁ለራሴ	-7624
▁App	-7625
▁"ይህን	-7626
ጥንት	-7627
ጀምሩ	-7628
ደባ	-7629
ወስዳ	-7630
እስር	-7631
ነጋገ	-7632
ቶሊክ	-7633
ቱ።	-7634
መለየት	-7635
ሌዳ	-7636
ላስ	-7637
ሊፍ	-7638
ሊና	-7639
▁ገጽታዎች	-7640
▁ገበ	-7641
▁የሚሄድ	-7642
▁እወድ	-7643
▁አድርጓል	-7644
▁አይሰጥ	-7645
▁አልተገኘ	-7646
▁አለችው።	-7647
▁ትዳር	-7648
▁ቱሪዝም	-7649
▁ተኩል	-7650
▁በከንቱ	-7651
▁በባሕር	-7652
▁ሸሹ	-7653
▁ሰኞ	-7654
▁ሥርዓ	-7655
▁ማያ	-7656
▁ሙስሊም	-7657
▁መከታተል	-7658
▁ሊኖራቸው	-7659
▁and	-7660
ደንቅ	-7661
አልና።	-7662
ባቸዋል	-7663
ሶቹ	-7664
ስታንቡል	-7665
ሯል.	-7666
ርምያስ	-7667
መስከረም	-7668
መላክ	-7669
ልደት	-7670
VI	-7671
▁ይፈራ	-7672
▁ያልተለመደ	-7673
▁ዘላለማዊ	-7674
▁ወንድማማ	-7675
▁እንደሆንክ	-7676
▁እርካታ	-7677
▁ኢያሱ	-7678
▁አይሰራ	-7679
▁አያምኑም	-7680
▁አስተው	-7681
▁አወ	-7682
▁ነዉ።	-7683
▁ብቻዬን	-7684
▁ቤቴ	-7685
▁በእሷ	-7686
▁በቀኝ	-7687
▁በኩ	-7688
▁ስለነበር	-7689
▁ስቃይ	-7690
▁መጋቢት	-7691
▁መልሰው	-7692
▁ላለፉት	-7693
▁iOS	-7694
ፁህ	-7695
ዋሪ	-7696
ዋለን።	-7697
ስጥኤ	-7698
ርፍ	-7699
5_	-7700
▁ጫፍ	-7701
▁ግብረ	-7702
▁ጀመሩ	-7703
▁ይላል:	-7704
▁ይህንም	-7705
▁ይክ	-7706
▁ያስታውሱ	-7707
▁ዩኒቨርሲቲው	-7708
▁ዓላማዎች	-7709
▁ክትባት	-7710
▁እችል	-7711
▁ብስክሌት	-7712
▁በግልፅ	-7713
▁በአካል	-7714
▁ሞክር	-7715
▁ማሻሻያ	-7716
▁መደም	-7717
▁ለነ	-7718
ፎቶ	-7719
ግሪክ	-7720
ገኘውን	-7721
ዎች፣	-7722
ዋለን	-7723
ወላጅ	-7724
ክሉ	-7725
ኖረን	-7726
ንም፤	-7727
ንፈ	-7728
ች፤	-7729
ቀኛ	-7730
ስኮ	-7731
ሮንቶስ	-7732
ርዱ	-7733
ሆንበት	-7734
▁ጌታ,	-7735
▁የተባረከ	-7736
▁የብዙ	-7737
▁ዛፎች	-7738
▁እየሞከሩ	-7739
▁እርሷም	-7740
▁አመኑ	-7741
▁አላስ	-7742
▁ንገረኝ	-7743
▁ነን፤	-7744
▁ትብብር	-7745
▁ተሰበሰቡ	-7746
▁ባለጠ	-7747
▁ባህሪያት	-7748
▁በምድሪቱ	-7749
▁ሳያ	-7750
▁ሰጪ	-7751
▁መንስኤ	-7752
▁መሸጥ	-7753
▁ሊባል	-7754
▁ሁላችሁ	-7755
ዋይ	-7756
ናቴ	-7757
ቶች,	-7758
ርጅ	-7759
ረህ	-7760
ሙላት	-7761
ለውጥ	-7762
▁ጸሎቶች	-7763
▁ግብፃ	-7764
▁ግቡ	-7765
▁ይፈሩ	-7766
▁ይሄንን	-7767
▁የማይታ	-7768
▁የይ	-7769
▁ከቤተሰብ	-7770
▁ከሦስት	-7771
▁እንደምታ	-7772
▁እንደነዚህ	-7773
▁ኤልያስ	-7774
▁አዩ	-7775
▁ኃጢ	-7776
▁ትዕግ	-7777
▁ተደራሽ	-7778
▁ቢኖሩም	-7779
▁በትዕግ	-7780
▁በነበር	-7781
▁ሸማቾች	-7782
▁ማብራሪያ	-7783
▁ማእ	-7784
▁መልሶ	-7785
▁መዘ	-7786
▁ልጆቻቸው	-7787
▁ለመምረጥ	-7788
▁ለመግለጽ	-7789
▁ሆንሁ	-7790
ጣሊያን	-7791
ዳዊት	-7792
ዳመጥ	-7793
ዘረጋ	-7794
እርስዎ	-7795
አብዛኞቹ	-7796
ቂቱ	-7797
ቀፍ	-7798
ራብ	-7799
|6	-7800
▁ጸሐፊ	-7801
▁ጤንነት	-7802
▁ጠቀ	-7803
▁ድምፁ	-7804
▁የጎደ	-7805
▁የተፈጠረ	-7806
▁የተባበሩት	-7807
▁የሚሰማ	-7808
▁ውጣ	-7809
▁ወንጀ	-7810
▁እንዳደረገ	-7811
▁እንደሚያሳ	-7812
▁አይነ	-7813
▁አያውቅም።	-7814
▁አምላክህ	-7815
▁ተሞ	-7816
▁በልቡ	-7817
▁በኩል	-7818
▁ሲኦል	-7819
▁ራሳችሁን	-7820
▁ራሴን	-7821
▁ምስጉን	-7822
▁ማህበረሰ	-7823
▁ለማቆየት	-7824
▁300	-7825
▁"አዎ	-7826
ጆሮ	-7827
ክርስቲያኗ	-7828
ኗኗር	-7829
ርስዋ	-7830
ሬው	-7831
ማክበር	-7832
መክፈል	-7833
ሎችም	-7834
ላችኋል።	-7835
ሉይ	-7836
ry	-7837
li	-7838
ft	-7839
ab	-7840
▁ፈንታ	-7841
▁ጥብቅ	-7842
▁ገደቦች	-7843
▁ዳይሬ	-7844
▁ይመጣሉ	-7845
▁ይመስላል	-7846
▁ይሂዱ	-7847
▁ያለብን	-7848
▁የአብርሃም	-7849
▁ወጪዎች	-7850
▁ከቤተሰ	-7851
▁እንደምንችል	-7852
▁እንወዳ	-7853
▁እራስዎን	-7854
▁አዳኝ	-7855
▁አንበሳ	-7856
▁አሃ	-7857
▁ኀይል	-7858
▁ቸር	-7859
▁ትፈልጋለህ?	-7860
▁ትራንስፖርት	-7861
▁ትልልቅ	-7862
▁ብፁ	-7863
▁ብሄ	-7864
▁በነበረበት	-7865
▁በሕይወታችን	-7866
▁በፌስቡክ	-7867
▁ሰውዬ	-7868
▁መች	-7869
▁መቀመጫ	-7870
▁ለማሟላት	-7871
▁ሆነህ	-7872
ጣሉ።	-7873
ጠናቅ	-7874
ዎቻችሁ	-7875
ኪኖች	-7876
ከበር	-7877
ነገረው	-7878
ችውን	-7879
ቤል	-7880
በረሰብ	-7881
በዙ	-7882
ቋቸው	-7883
መጨመር	-7884
ላችሁ.	-7885
ለናል	-7886
;.	-7887
▁ጽድቅን	-7888
▁ጠቀሜ	-7889
▁ዳቦ	-7890
▁ደንቦች	-7891
▁ደመወ	-7892
▁ዮሐ	-7893
▁የነበራችሁት	-7894
▁የኾኑ	-7895
▁ውስጣዊ	-7896
▁ወላጆ	-7897
▁እንችላለን.	-7898
▁እንሆና	-7899
▁እላችኋለሁ፥	-7900
▁አጋጥ	-7901
▁አለበት,	-7902
▁ባይሆንም	-7903
▁ቀረበ	-7904
ጽኦ	-7905
ደትን	-7906
ካሽ	-7907
ም!	-7908
ል"	-7909
|5	-7910
▁ፕሬዝዳንት	-7911
▁ፈራጅ	-7912
▁ግንባር	-7913
▁ያለብዎት	-7914
▁የሸ	-7915
▁ከጓደኞች	-7916
▁እውነተኛውን	-7917
▁እንሂድ	-7918
▁እሄዳለሁ	-7919
▁አስፈላጊው	-7920
▁አለመታ	-7921
▁ታስተ	-7922
▁ተማ	-7923
▁ብዙዎችን	-7924
▁በውሃ	-7925
▁በአንጻ	-7926
▁ቁጭ	-7927
▁ምሥክር	-7928
▁መዛሙርት	-7929
▁መተግበሪያዎች	-7930
▁መጎብኘት	-7931
▁መቆጣጠር	-7932
▁ሕጎች	-7933
▁ሐዋርያ	-7934
▁ሊታ	-7935
▁ለራስህ	-7936
▁ሃሳ	-7937
▁(ሉቃስ	-7938
ኳይ	-7939
ኩትም	-7940
በጋ	-7941
ልበ	-7942
ልስጥኤ	-7943
:29	-7944
▁ዳዊትን	-7945
▁ይግ	-7946
▁ይወቁ	-7947
▁ያቀር	-7948
▁የምታውቁ	-7949
▁የማይችሉ	-7950
▁የሚያምን	-7951
▁የሚከተሉት	-7952
▁ዘርፍ	-7953
▁ክፋ	-7954
▁ካንሰር	-7955
▁ከሁለቱ	-7956
▁እንዲኖሩ	-7957
▁አብርሃ	-7958
▁ተልእ	-7959
▁ተጠር	-7960
▁ተናገሩ	-7961
▁ተለዋ	-7962
▁በፊት,	-7963
▁በአቅ	-7964
▁በማስተ	-7965
▁በወንድ	-7966
▁በነገሩ	-7967
▁በለ	-7968
▁ሲያስ	-7969
▁ሲሄድ	-7970
▁ሮሜ	-7971
▁ምሳሌዎች	-7972
▁መልካሙን	-7973
▁ሕዝቦች	-7974
▁ለእርሷ	-7975
▁ለመታ	-7976
▁49	-7977
ጠቀምበት	-7978
ግንቦት	-7979
ግሪ	-7980
ደረሱ	-7981
ዎች)	-7982
ውቃቸው	-7983
ኝዎች	-7984
መካ	-7985
ላክ	-7986
ላቸዋል	-7987
ለኞቹ	-7988
|8	-7989
te	-7990
PS	-7991
2)	-7992
▁ይሖዋን	-7993
▁የሚታወቅ	-7994
▁የን	-7995
▁አፈፃፀም	-7996
▁አይሆንም።	-7997
▁አልነበረውም	-7998
▁አለብዎት.	-7999
▁ተወለደ	-8000
▁በሚመጣበት	-8001
▁በጠ	-8002
▁በይ	-8003
▁ሳን	-8004
▁ሙታ	-8005
▁መገለጫ	-8006
▁መደብ	-8007
▁መዝናኛ	-8008
▁መታሰቢያ	-8009
▁መስፈ	-8010
▁መሬ	-8011
▁ለመግደል	-8012
▁ለጊዜው	-8013
▁"እንደ	-8014
ፋውያን	-8015
ጥቅምት	-8016
ጠናቀቀ	-8017
ጓደኛ	-8018
ዳሉ	-8019
ችት	-8020
ቶን	-8021
ቃቸው	-8022
ቀቱ	-8023
ቀረ	-8024
ርቅ	-8025
ማቆም	-8026
ላለሁ።	-8027
ለህን?	-8028
6)	-8029
3_	-8030
▁ጎረቤ	-8031
▁ገለልተኛ	-8032
▁ይጠበቃል	-8033
▁ይመሰክ	-8034
▁ያሳያል።	-8035
▁ያዙ	-8036
▁ዩኒ	-8037
▁የለም,	-8038
▁የሆኑትን	-8039
▁ውይይ	-8040
▁ከሚያስ	-8041
▁ከኢ	-8042
▁እየሠራ	-8043
▁እየመጣ	-8044
▁እንዳሉት	-8045
▁እስክት	-8046
▁እሰጥ	-8047
▁አድርጓል።	-8048
▁አባታችን	-8049
▁አሳዩ	-8050
▁አምሳ	-8051
▁አልፈጠርናቸው	-8052
▁አወቅ	-8053
▁ባይሆን	-8054
▁በሩ	-8055
▁ቃላትን	-8056
▁ስምህ	-8057
▁ሴቲ	-8058
▁ሥራን	-8059
▁ሁልጊዜም	-8060
▁1x	-8061
ፌዴራል	-8062
ጮችን	-8063
ጠኑ	-8064
ዶቹን	-8065
ደክ	-8066
ውም፤	-8067
ወጣው	-8068
ንግተን	-8069
ነዳጅ	-8070
ነባ	-8071
ቆስ	-8072
ቃወም	-8073
መናችሁ	-8074
መኝ	-8075
መታ	-8076
ሃፍ	-8077
▁ጥንቃቄ	-8078
▁ያደር	-8079
▁የተያያዙ	-8080
▁የሚረዳ	-8081
▁የጨዋታ	-8082
▁የገዛ	-8083
▁ኮምፒውተር	-8084
▁እውነተኞች	-8085
▁አግኝተናል	-8086
▁አበባ	-8087
▁ነውና፤	-8088
▁ትችላለህ?	-8089
▁ቪዛ	-8090
▁በናንተ	-8091
▁ቆር	-8092
▁ሬዲዮ	-8093
▁ምንን	-8094
▁መካ	-8095
▁ልመና	-8096
▁ሊገድ	-8097
▁Apple	-8098
▁(ቁ	-8099
ፕሪል	-8100
ድብ	-8101
ደሙ	-8102
ዋሚ	-8103
ወረደውን	-8104
ባንክ	-8105
ሰዋል	-8106
ለፉ	-8107
ህ፥	-8108
coin	-8109
▁ጥም	-8110
▁ጠቀሜታ	-8111
▁ጀግና	-8112
▁ይከፍ	-8113
▁የተሸ	-8114
▁ዘውታሪዎች	-8115
▁ውስጠ	-8116
▁ከእናንተም	-8117
▁እንዴት	-8118
▁እናድርግ	-8119
▁ኢሳይያስ	-8120
▁አስርት	-8121
▁ተባባ	-8122
▁ተሽ	-8123
▁ቆየ	-8124
▁ሳይንቲስቶች	-8125
▁ምክንያታዊ	-8126
▁ማግኘ	-8127
▁መዝገብ	-8128
▁መቀነስ	-8129
▁መለሱ	-8130
▁ልምዶች	-8131
▁ልማድ	-8132
▁ሆይ:	-8133
▁"ታዲያ	-8134
ፕሮጀ	-8135
ፈፀ	-8136
ያዛ	-8137
ካኤል	-8138
ቸዋለን።	-8139
ቅያ	-8140
ማዘጋጀት	-8141
መንግሥት	-8142
ለው፣	-8143
ለምሳሌ	-8144
ent	-8145
ation	-8146
4_	-8147
40	-8148
1)	-8149
▁ጭማሪ	-8150
▁ይጨምራ	-8151
▁ያስፈልጋል	-8152
▁ዩሮ	-8153
▁ዕድሜው	-8154
▁ክረምት	-8155
▁ከልብ	-8156
▁እንደሚገባ	-8157
▁ኤም	-8158
▁አልነበረም.	-8159
▁ነበሩ,	-8160
▁ትተው	-8161
▁ተደረገ	-8162
▁ባለስ	-8163
▁በአጭሩ	-8164
▁በስሜ	-8165
▁በፓሪስ	-8166
▁ስምምነ	-8167
▁ሳይቀር	-8168
▁ሰነዶች	-8169
▁ለእነዚያ	-8170
▁ለእሷ	-8171
▁ለንጉሡ	-8172
▁ሁኑ	-8173
▁(የሚ	-8174
▁"ም	-8175
ጠባበቅ	-8176
ጉም	-8177
ዞር	-8178
ቢያት	-8179
ቢያው	-8180
ቀቀ	-8181
ሽታ	-8182
ሳሰ	-8183
ሜክሲኮ	-8184
ማገዝ	-8185
ማኅበራዊ	-8186
መናት	-8187
ለህ፥	-8188
im	-8189
▁ፈለጉ	-8190
▁ጥቅስ	-8191
▁ገሃነም	-8192
▁ይባላል።	-8193
▁ያልታ	-8194
▁ያለህ	-8195
▁የተወለደ	-8196
▁የሚሰሙ	-8197
▁የድ	-8198
▁የርሱ	-8199
▁ከከተማ	-8200
▁ከመን	-8201
▁እርግጠኞች	-8202
▁አድርጓል,	-8203
▁አይችልም,	-8204
▁አንፃ	-8205
▁አታድርግ	-8206
▁ትኖራ	-8207
▁ተቀበለ	-8208
▁ተስፋዎች	-8209
▁ብክ	-8210
▁ቤዛ	-8211
▁በግብ	-8212
▁ቁም	-8213
▁ስለምን	-8214
▁ሳሉ	-8215
▁ሰላ	-8216
▁ራሳችሁ	-8217
▁ልቦ	-8218
▁ላሉ	-8219
▁ሊቃ	-8220
▁ሁሉ,	-8221
▁"ያ	-8222
ያተ	-8223
ዘገቡ	-8224
ዎችንም	-8225
ክንያ	-8226
አገልግሎት	-8227
ትሮ	-8228
ቨርስ	-8229
በቀ	-8230
በራ	-8231
ቀይ	-8232
ርከ	-8233
ራረብ	-8234
ምበር	-8235
መልሱ	-8236
ለዩ	-8237
ren	-8238
▁ፈጠር	-8239
▁ጽፏ	-8240
▁ጥገና	-8241
▁ይገልጻ	-8242
▁ይናገራሉ።	-8243
▁ያስባሉ	-8244
▁የካቲት	-8245
▁የመስ	-8246
▁ዘላለም	-8247
▁ዕረፍት	-8248
▁ካልሆኑ	-8249
▁እጁ	-8250
▁እቃ	-8251
▁አርቲ	-8252
▁አደርግ	-8253
▁ተደርጓል	-8254
▁ተመልካች	-8255
▁ተግዳ	-8256
▁በዙሪያው	-8257
▁ማሳደግ	-8258
▁ማጣ	-8259
▁ማደግ	-8260
▁ለማሳለፍ	-8261
▁ሆነ፤	-8262
▁ሄዱ	-8263
▁Wi	-8264
ጥል	-8265
ጎም	-8266
ግንኙነት	-8267
ገተኛ	-8268
ንቀሳቃሽ	-8269
ብሔራዊ	-8270
ሞክራሲ	-8271
ምዕራብ	-8272
ሆናችን	-8273
ሀብ	-8274
▁ፊቱን	-8275
▁ጊዜን	-8276
▁ድግም	-8277
▁ይከሰታል	-8278
▁የተቻ	-8279
▁የሚያውቀው	-8280
▁የፌስቡክ	-8281
▁የፈለጉ	-8282
▁የና	-8283
▁ካርታ	-8284
▁ከምን	-8285
▁እንዲችሉ	-8286
▁ኢንተርኔት	-8287
▁አስተዋጽኦ	-8288
▁አላወቁ	-8289
▁አሥ	-8290
▁ችግሩን	-8291
▁በአባቴ	-8292
▁በራሳችን	-8293
▁ስሜታዊ	-8294
▁ስለማይ	-8295
▁ሪፐ	-8296
▁ማመልከቻ	-8297
ጸጸ	-8298
ገለጸው	-8299
ከፊል	-8300
ከባከ	-8301
ነጋግ	-8302
ቬስት	-8303
መምጣት	-8304
መከታተል	-8305
መሸጥ	-8306
መሮች	-8307
ላቸው፤	-8308
ለድ	-8309
_7	-8310
▁ጭንቅ	-8311
▁ድሃ	-8312
▁ይጠቅ	-8313
▁ይኖራሉ።	-8314
▁ይነገ	-8315
▁የሚያሰ	-8316
▁የሐሰት	-8317
▁የፈለገ	-8318
▁የች	-8319
▁ዘንድ,	-8320
▁ዋንጫ	-8321
▁ወረቀት	-8322
▁ከጠላ	-8323
▁ከማን	-8324
▁እንመልከት።	-8325
▁እናውቃለን.	-8326
▁አፍቃሪ	-8327
▁አዝ፦	-8328
▁አንደ	-8329
▁አልሰማ	-8330
▁ንባብ	-8331
▁ና,	-8332
▁ተፈጥሯዊ	-8333
▁በነሱ	-8334
▁ስፖር	-8335
▁መቋቋም	-8336
▁ላል	-8337
▁50%	-8338
▁"ሁሉም	-8339
ዎችና	-8340
ኛለሁ	-8341
ብራዚል	-8342
ብራውያን	-8343
ስተን	-8344
ሰፊ	-8345
ምረው	-8346
መርጡ	-8347
ሐመድ	-8348
ህ፣	-8349
wit	-8350
9_	-8351
▁ጠቅላይ	-8352
▁ጠራ	-8353
▁ግራ	-8354
▁የአምላካ	-8355
▁የሚያደርጉት	-8356
▁የኦ	-8357
▁ዘይቤ	-8358
▁ኮር	-8359
▁ከኢየሱስ	-8360
▁ከሌለ	-8361
▁እምላለሁ	-8362
▁አልፈጠርናቸውም፤	-8363
▁አረንጓዴ	-8364
▁ነበረው።	-8365
▁ትወዳ	-8366
▁በቤቴ	-8367
▁በመንገዱ	-8368
▁በህይወ	-8369
▁ሸክም	-8370
▁ስዕ	-8371
▁ስዊ	-8372
▁ሰነድ	-8373
▁ሥራቸው	-8374
▁ምክንያቱም.	-8375
▁ሚኒስቴ	-8376
▁መታዘዝ	-8377
▁መቀየር	-8378
▁ለማስተ	-8379
▁ለኛ	-8380
▁ሀገራት	-8381
▁of	-8382
▁(መዝ	-8383
ጋስ	-8384
ገነቡ	-8385
ደረጋችሁ	-8386
እም	-8387
አሁን	-8388
ተዋል፤	-8389
ባልንጀ	-8390
6_	-8391
▁ጌታ.	-8392
▁ይመለከታ	-8393
▁ያየሁ	-8394
▁የተዘጋጀ	-8395
▁የሚያደርጉትን	-8396
▁የሚጠብቅ	-8397
▁ኦር	-8398
▁እነሆም፥	-8399
▁ኤልሳ	-8400
▁አገኘሁ	-8401
▁አንዳቸው	-8402
▁አሜሪካዊ	-8403
▁ንፁህ	-8404
▁ነቅ	-8405
▁ባለት	-8406
▁በራሴ	-8407
▁ቃሌን	-8408
▁ማል	-8409
▁ሚዛ	-8410
▁መግለ	-8411
▁ለሕዝቦቹ	-8412
▁(እርሱም	-8413
▁(እርሱም)	-8414
ጠሉ	-8415
ገነት	-8416
ድስ	-8417
ደዋል	-8418
ዛኝ	-8419
ወላጆች	-8420
አይሁድ	-8421
ኖራቸውን	-8422
ነቅ	-8423
ኋለኛ	-8424
ቸት	-8425
ቴክኒክ	-8426
ቡና	-8427
ቀመጠው	-8428
ስለዚህ	-8429
ስቶ	-8430
ማጭ	-8431
መጋቢት	-8432
መሄድ	-8433
ልቶ	-8434
witter	-8435
**	-8436
▁ፍትሃዊ	-8437
▁ጽድ	-8438
▁ጎዳና	-8439
▁ጉድጓድ	-8440
▁ገዳይ	-8441
▁ገዛ	-8442
▁ድብ	-8443
▁ይወጣል	-8444
▁ይፈጥ	-8445
▁የለባቸው	-8446
▁የዚያ	-8447
▁የሳ	-8448
▁ኮንግ	-8449
▁ካሳ	-8450
▁ከአባቱ	-8451
▁አልነበሩም	-8452
▁አልቻሉም።	-8453
▁አልለ።	-8454
▁አላውቅም።	-8455
▁ተቀበ	-8456
▁በዓመቱ	-8457
▁ሲደርስ	-8458
▁ሦስቱ	-8459
▁መፅሐፍ	-8460
▁መሆናቸው	-8461
▁ሆኗል።	-8462
▁2005	-8463
▁(መልካም	-8464
ፈጠር	-8465
ጣዖ	-8466
ዝግ	-8467
ኛል፤	-8468
ናመሰግ	-8469
ቀጥቀጥ	-8470
ቀበላ	-8471
ሰማዎት	-8472
ለፈ	-8473
▁ጉልበት	-8474
▁ደርሷል	-8475
▁ይገኛል.	-8476
▁ይቀበላል	-8477
▁ይደር	-8478
▁የተላ	-8479
▁የጠራ	-8480
▁ዞር	-8481
▁ክሊ	-8482
▁አድራሻ	-8483
▁አንብብ	-8484
▁አምጥ	-8485
▁አፕል	-8486
▁አዳን	-8487
▁ተከስ	-8488
▁ተአምር	-8489
▁ተልእኮ	-8490
▁ተው	-8491
▁በክብር	-8492
▁በልቤ	-8493
▁ሳኦል	-8494
▁ምርጡን	-8495
▁ማለዳ	-8496
▁ሚስቶች	-8497
▁ሙሳም	-8498
▁መጠይቅ	-8499
▁ልምምድ	-8500
▁ለጥ	-8501
ፈለገው	-8502
ፃናት	-8503
ዘርላንድስ	-8504
ውው	-8505
ከብራ	-8506
ቀዋል	-8507
ሮኒ	-8508
ራቱ	-8509
ሞትም	-8510
ልኩ	-8511
ላቸውም።	-8512
▁ፓርክ	-8513
▁ፈልጎ	-8514
▁ጠበቃ	-8515
▁ይሰጡ	-8516
▁ይህችን	-8517
▁ይር	-8518
▁የተጠ	-8519
▁የተዋ	-8520
▁የባሰ	-8521
▁ወጥተው	-8522
▁ወታደራዊ	-8523
▁ወረደ	-8524
▁ካህን	-8525
▁ከዛም	-8526
▁ከሰዓት	-8527
▁እንደመጣ	-8528
▁እናሳ	-8529
▁እዚያም	-8530
▁አጋንንት	-8531
▁አይፈቀድ	-8532
▁አይደለም"	-8533
▁አይቀርም	-8534
▁አላየሁ	-8535
▁አለመታደል	-8536
▁አዘጋጀ	-8537
▁አነጋገር	-8538
▁ኃጢአትን	-8539
▁ተልዕ	-8540
▁በየወሩ	-8541
▁በፀ	-8542
▁በጀት	-8543
▁በዲ	-8544
▁ስንኳ	-8545
▁መቅረብ	-8546
▁መጡ።	-8547
▁ሄዱ።	-8548
▁2004	-8549
▁(ው	-8550
ፈጸሙ	-8551
ፈተ	-8552
ጾችን	-8553
ደቅ	-8554
ወድቅ	-8555
ወዱት	-8556
ክሌ	-8557
ኩም።	-8558
አስ	-8559
ናይጄሪያ	-8560
ተወ	-8561
ቆሮ	-8562
ምራቶች	-8563
ማችን	-8564
ሀገር	-8565
▁ይወዳል።	-8566
▁ይከብ	-8567
▁ያስቡ	-8568
▁ያለማቋረጥ	-8569
▁የአማ	-8570
▁የተደረገው	-8571
▁ዙር	-8572
▁ከመሆኑም	-8573
▁ከኋላ	-8574
▁አድናቆት	-8575
▁አንችልም።	-8576
▁አታድርጉ	-8577
▁አስረ	-8578
▁አማካሪ	-8579
▁አጎ	-8580
▁አከባቢ	-8581
▁ተወዳዳሪ	-8582
▁በሦስተኛው	-8583
▁በዕ	-8584
▁በአብዛኛዎቹ	-8585
▁ማሳያ	-8586
▁(ለምሳሌ	-8587
ፋል።	-8588
ፈጽም	-8589
ገባቸው	-8590
ገሰ	-8591
የትኛው	-8592
ከናው	-8593
አል፤	-8594
ኛል.	-8595
ቆጠር	-8596
ሳራ	-8597
ሮቹን	-8598
ረብኛ	-8599
መኖሪያ	-8600
|9	-8601
ord	-8602
▁ፈልጌ	-8603
▁ይመስላል.	-8604
▁ይዋ	-8605
▁ይካ	-8606
▁የተደረገ	-8607
▁ዓመታዊ	-8608
▁እግዚአብሔር።	-8609
▁እንደዚህ,	-8610
▁እሳቸው	-8611
▁አገኙ	-8612
▁ተሳፋ	-8613
▁ባላቸው	-8614
▁ባላ	-8615
▁በማስ	-8616
▁በሥጋ	-8617
▁በሆ	-8618
▁መጽሐፍት	-8619
▁መቆም	-8620
▁ሊገኝ	-8621
▁ለሚፈልጉ	-8622
▁65	-8623
▁(አሊፍ	-8624
ጽ)	-8625
ጠባበ	-8626
ግራም	-8627
ድያ	-8628
ደረግን	-8629
ኖኅ	-8630
ንሲ	-8631
በላሸ	-8632
ሳውያን	-8633
ሲባዊ	-8634
ሮጥ	-8635
ሞንም	-8636
ሞና	-8637
መዋል	-8638
ሕፍትን	-8639
ሃድ	-8640
ሀፍ	-8641
▁ዮሴፍም	-8642
▁ይወስዳል።	-8643
▁ይረዳል	-8644
▁የተቆ	-8645
▁ወደርሱ	-8646
▁ከሆነ.	-8647
▁እጅህን	-8648
▁እያሳ	-8649
▁እየሰሩ	-8650
▁እንችላለን?	-8651
▁ኤርምያስ	-8652
▁አይቀርም።	-8653
▁አትሁኑ	-8654
▁አስተናጋጅ	-8655
▁አሰበ	-8656
▁ነው-	-8657
▁ነበል	-8658
▁ተገንዝ	-8659
▁ተናገረ።	-8660
▁ተነሥቶ	-8661
▁ባሏ	-8662
▁በአል	-8663
▁በስልክ	-8664
▁በመካከላችሁ	-8665
▁ምግባር	-8666
▁ሕፃናት	-8667
▁ላማ	-8668
▁ሃያ	-8669
▁PS	-8670
▁400	-8671
▁(ከዚህ	-8672
ጀምረው	-8673
ዳና	-8674
የረ	-8675
ዘመን	-8676
ዋጭ	-8677
ወሰነው	-8678
እንደ	-8679
ሸነ	-8680
ስትሪያ	-8681
ሳቸውን	-8682
ሳሉ።	-8683
ረጋጋት	-8684
መህ	-8685
ለትን	-8686
ህም።	-8687
ly	-8688
▁ፀጋ	-8689
▁ዲጂታል	-8690
▁ደፋር	-8691
▁ይህን	-8692
▁ያስከት	-8693
▁ያለዉ	-8694
▁የታመ	-8695
▁የሚያምር	-8696
▁የነገ	-8697
▁ዕውቀትን	-8698
▁ዓመቱን	-8699
▁እብድ	-8700
▁እረኛ	-8701
▁ኢብራሂ	-8702
▁አይደሉም.	-8703
▁አንተንም	-8704
▁አልሆነ	-8705
▁አነሳ	-8706
▁ቶሎ	-8707
▁ትናገራ	-8708
▁ተነሳሽነት	-8709
▁በሚለው	-8710
▁በመቀ	-8711
▁ቅጂ	-8712
▁ስሜን	-8713
▁ሰሌዳ	-8714
▁ሪፐብሊክ	-8715
▁ሥፍራ	-8716
▁ምዝገባ	-8717
▁ሊያሳ	-8718
▁ለራስዎ	-8719
▁Pro	-8720
▁"አት	-8721
ፋዊ	-8722
ጌል	-8723
ዳጊ	-8724
ካሄደው	-8725
ከናወነው	-8726
እነሆ	-8727
ኣን)	-8728
ቀና	-8729
ረር	-8730
ልቁ	-8731
ሃይማኖት	-8732
ress	-8733
▁ጽሑፎች	-8734
▁ጋዜጣ	-8735
▁ጉዳዩን	-8736
▁ይጠብቃ	-8737
▁ይታወቃል	-8738
▁ይታያል	-8739
▁ይገደ	-8740
▁ያለባቸው	-8741
▁ያንተ	-8742
▁የተገለ	-8743
▁የመንፈስ	-8744
▁የንጉሡ	-8745
▁የቦ	-8746
▁ከይሁዳ	-8747
▁እንጨት	-8748
▁እንሰራ	-8749
▁እራሱ	-8750
▁አይደለሁም።	-8751
▁አውታረመረ	-8752
▁ተልዕኮ	-8753
▁ተዘ	-8754
▁ተመለከተ	-8755
▁ብክለት	-8756
▁ሲሄዱ	-8757
▁ሰዓቶች	-8758
▁ሚዛን	-8759
▁መልአኩ	-8760
▁ለወንድ	-8761
▁ለህ	-8762
ፋሉ	-8763
ፈረንሣይ	-8764
ጎድ	-8765
ግስ	-8766
ወልደ	-8767
ኮታዊ	-8768
አቸው።	-8769
ንግል	-8770
ቴ.	-8771
ቀሱበት	-8772
ሰግ	-8773
ረዥም	-8774
ረቅ	-8775
ምራቶቻችን	-8776
ሙስሊ	-8777
|3	-8778
18	-8779
"።	-8780
▁ጠቅላላ	-8781
▁ዲግሪ	-8782
▁ይጣ	-8783
▁ያነሳ	-8784
▁ዩኒቨርስ	-8785
▁የተሰራ	-8786
▁የሠራዊት	-8787
▁የማድረግ	-8788
▁የለብንም	-8789
▁የኃጢአት	-8790
▁ከፈተ	-8791
▁እየሞከር	-8792
▁አደረገ.	-8793
▁አይሰማ	-8794
▁አቆየኝ"	-8795
▁አልማ	-8796
▁ተሰም	-8797
▁ተሽከርካሪ	-8798
▁ብሩህ	-8799
▁ባለሥልጣናት	-8800
▁በመሆናቸው	-8801
▁በልባቸው	-8802
▁ሳንቲ	-8803
▁ሰዎች.	-8804
▁ማስገባት	-8805
▁መሠረት,	-8806
▁መመለሻ	-8807
▁"እርሱ	-8808
ይኑ	-8809
ዋሽ	-8810
ዋለሁ፤	-8811
ንቀጾቻችን	-8812
ነበበ	-8813
ነኝነት	-8814
ቋሚ	-8815
ራትን	-8816
ሙና	-8817
▁ጫና	-8818
▁ግባ	-8819
▁ይገኛሉ።	-8820
▁ከማንም	-8821
▁እጅህ	-8822
▁እንነጋገራ	-8823
▁አብያተ	-8824
▁ተረ	-8825
▁በአላህም	-8826
▁በዋና	-8827
▁በሶ	-8828
▁በሱ	-8829
▁በርሱም	-8830
▁ሥልጠና	-8831
▁ሞተ።	-8832
▁ማስታወቂያዎች	-8833
▁መፍታት	-8834
▁መቅደሱ	-8835
▁መጓጓዣ	-8836
▁ሆነ.	-8837
▁"እስከሚ	-8838
▁"እስከሚቀሰ	-8839
▁"እስከሚቀሰቀሱበት	-8840
▁"እውነት	-8841
ጳውሎስ	-8842
ዛመዱ	-8843
ዘዘው	-8844
ውድ	-8845
ኮዝ	-8846
ከውን	-8847
መለከቱት	-8848
ሉበት	-8849
ለች.	-8850
ለር	-8851
15	-8852
▁‹‹የ	-8853
▁ፕሮፌ	-8854
▁ጥቅሶች	-8855
▁ገር	-8856
▁ጀመርኩ	-8857
▁ድግምት	-8858
▁ይደረጋል.	-8859
▁ይቀመጣል።	-8860
▁ይቀጣ	-8861
▁ይዟ	-8862
▁የተለዩ	-8863
▁የተገደ	-8864
▁የተለያየ	-8865
▁የሚሸ	-8866
▁የገቡ	-8867
▁ዘንጊ	-8868
▁ዘና	-8869
▁ዉስጥ	-8870
▁እንግዶች	-8871
▁እንደነበረው	-8872
▁አንዳንዴ	-8873
▁አንዳቸውም	-8874
▁አራቱ	-8875
▁አፋ	-8876
▁አሮን	-8877
▁ነን.	-8878
▁ነበልባል	-8879
▁ተልከ	-8880
▁ተከተል	-8881
▁ብዙዎቻችን	-8882
▁ባድማ	-8883
▁በፊቴ	-8884
▁በማድረግ	-8885
▁በወን	-8886
▁በሁ	-8887
▁ሳለሁ	-8888
▁ሰምቶ	-8889
▁ርዝ	-8890
▁ሥራ)	-8891
▁ምሥራች	-8892
▁ማውረድ	-8893
▁ሚኒስቴር	-8894
▁መንገድ,	-8895
▁መታየት	-8896
▁መብራት	-8897
▁መበ	-8898
▁ልጆች,	-8899
▁ልብህ	-8900
▁ለታ	-8901
▁ለሦስት	-8902
▁ሁኔታ,	-8903
ፈነ	-8904
ጠ።	-8905
ግሬ	-8906
ያውቀው	-8907
ያኔ	-8908
አልና	-8909
አችሁ	-8910
አባ	-8911
ኖረውም	-8912
ነግራ	-8913
ባበለ	-8914
ቀኑ	-8915
ማቸውን	-8916
መ።	-8917
ላቱ	-8918
so	-8919
ot	-8920
ig	-8921
2_	-8922
▁፲፪	-8923
▁ፊትህን	-8924
▁ይበቃ	-8925
▁ያካትታል	-8926
▁የሚያረጋግጥ	-8927
▁የሚያመጣ	-8928
▁ዝርዝሮች	-8929
▁ከግማሽ	-8930
▁ከነበሩት	-8931
▁ከሞተ	-8932
▁እውነተኛው	-8933
▁አካሄድ	-8934
▁አቅርቦት	-8935
▁ነን!	-8936
▁ተገረ	-8937
▁በጥልቀት	-8938
▁በእጃቸው	-8939
▁በተራ	-8940
▁በስምህ	-8941
▁ስጠኝ	-8942
▁ርካሽ	-8943
▁መደብር	-8944
▁መኖራቸውን	-8945
▁ለሁለቱም	-8946
▁ሃይማኖታዊ	-8947
▁(ራእይ	-8948
ፎር	-8949
ፈጠሩ	-8950
ፈቀደ	-8951
ጓቸው	-8952
ዳቸውን	-8953
ክሌር	-8954
ኑሮ	-8955
ባቢሎን	-8956
ባክ	-8957
ቆዳ	-8958
ቀውን	-8959
ሰበሰብ	-8960
ረዝ	-8961
ማስተካከል	-8962
ለዋል.	-8963
ሃል.	-8964
ሃለሁ፤	-8965
ሁንም	-8966
uc	-8967
ost	-8968
est	-8969
),	-8970
▁ጠረጴዛ	-8971
▁ጃፓን	-8972
▁ይቻላል?	-8973
▁ይሰጣሉ	-8974
▁ይሄዳል	-8975
▁ይሞክ	-8976
▁ይማ	-8977
▁የምስ	-8978
▁የጸሎት	-8979
▁የኛ	-8980
▁ዋነኛ	-8981
▁ወይንስ	-8982
▁እስትን	-8983
▁እርግማን	-8984
▁ኢንቬስት	-8985
▁አሳዛኝ	-8986
▁አለህ	-8987
▁ነኝ!	-8988
▁በዋነኝነት	-8989
▁በእጅጉ	-8990
▁በእርግጥ,	-8991
▁በተወሰኑ	-8992
▁በሕግ	-8993
▁ሲያደርጉ	-8994
▁ራ)	-8995
▁ሠራተኛ	-8996
▁ምሁ	-8997
▁ሚካኤል	-8998
▁ሚም	-8999
▁መንከባከብ	-9000
▁ልጆችና	-9001
▁ልጅዎ	-9002
▁ልጅን	-9003
▁ልጥፍ	-9004
▁ሌላም	-9005
▁ሄደው	-9006
ፋፋ	-9007
ጋቢ	-9008
ገኙም	-9009
ዦች	-9010
ዘረዘ	-9011
ወጣም	-9012
ካተት	-9013
ካር	-9014
እጅ	-9015
ኀጢአ	-9016
ስብሰባ	-9017
ሳሽ	-9018
ርሽ	-9019
ሬያለሁ	-9020
ሟል።	-9021
ማስተዳደር	-9022
መለክተው	-9023
ሊያም	-9024
▁ይችላሉ!	-9025
▁ያለሁ	-9026
▁የተወደ	-9027
▁የተባለ	-9028
▁የማስ	-9029
▁የሚያስፈራ	-9030
▁ኮከ	-9031
▁ክፈ	-9032
▁ካርዶች	-9033
▁እየተደረገ	-9034
▁እንመክራ	-9035
▁አድርጓል.	-9036
▁አዋጅ	-9037
▁አንፃር	-9038
▁አስተዳዳሪ	-9039
▁አስመልክ	-9040
▁ትኩረ	-9041
▁ታስታው	-9042
▁ተናገሩ።	-9043
▁ተመለሱ።	-9044
▁ተተ	-9045
▁ተባ	-9046
▁በሦስት	-9047
▁ቀዳሚ	-9048
▁ስምህን	-9049
▁ልቦች	-9050
▁ሉቃስ	-9051
ጠቅላላው	-9052
ክልል	-9053
ኖረኝ	-9054
ነሱም	-9055
ቸው)	-9056
ታሉ።	-9057
ል፣	-9058
▁ፍቃድ	-9059
▁ፍርሃ	-9060
▁ፈሩ።	-9061
▁ግምገማዎች	-9062
▁ይሆናሉ.	-9063
▁ይረዱ	-9064
▁ያለኝ	-9065
▁የእውነት	-9066
▁የመጨረሻውን	-9067
▁ዘመድ	-9068
▁ወደድ	-9069
▁ከጉ	-9070
▁ከሱ	-9071
▁እናደርጋለን።	-9072
▁እርሷን	-9073
▁አገዛዝ	-9074
▁አይደለም!	-9075
▁አስተዋፅ	-9076
▁ቤትም	-9077
▁በአባቱ	-9078
▁በስም	-9079
▁በምስ	-9080
▁ቆሮንቶስ	-9081
▁ስርዓቶች	-9082
▁መቀመጥ	-9083
▁ላማናውያን	-9084
▁ሊተ	-9085
▁ህንፃ	-9086
▁1000	-9087
▁(አናቅ	-9088
▁(አናቅጽ)	-9089
ጠበቀው	-9090
ዷቸው	-9091
ዱር	-9092
ውንት	-9093
ካው	-9094
ከናውን	-9095
አደጋ	-9096
ኗን	-9097
ናል,	-9098
ነበቡ	-9099
ብዓ	-9100
ቁጥ	-9101
ሾችን	-9102
ሰጠኝ	-9103
ሰበስብ	-9104
itcoin	-9105
ber	-9106
and	-9107
▁ፍራን	-9108
▁ጉልህ	-9109
▁ደጋፊዎች	-9110
▁ይመለሳል።	-9111
▁የሚጋ	-9112
▁የሌላቸው	-9113
▁የነገር	-9114
▁ዕውር	-9115
▁ወሮች	-9116
▁ክስ	-9117
▁ከወን	-9118
▁እንደሚፈልግ	-9119
▁እገባ	-9120
▁አዎ፣	-9121
▁አንባቢዎች	-9122
▁አንቀጽ	-9123
▁አቅራቢያ	-9124
▁አስተዋይ	-9125
▁አምላክም	-9126
▁አልሉ።	-9127
▁አላየ	-9128
▁ነበር;	-9129
▁ትውስታ	-9130
▁ተጠቃሚው	-9131
▁ተግ	-9132
▁በቀጣዩ	-9133
▁በመካከላቸውም	-9134
▁በደረሰ	-9135
▁ስብስብ	-9136
▁ስጡ	-9137
▁ምድሪቱን	-9138
▁ምድሪቱ	-9139
▁ምዕ	-9140
▁ሚስጥር	-9141
▁ልደት	-9142
▁ለጉ	-9143
▁MP	-9144
ፖርቱ	-9145
ፈላጊ	-9146
ዳዲስ	-9147
ዘገበ	-9148
ኤም	-9149
ኗል	-9150
ናትን	-9151
ነዋል	-9152
ነን	-9153
ትራንስፖርት	-9154
ቫይረስ	-9155
ቀዱ	-9156
መሳተፍ	-9157
ልባ	-9158
ሁህ	-9159
▁ፈረስ	-9160
▁ይኖርብናል።	-9161
▁ይናገራሉ	-9162
▁ያመኑት	-9163
▁የዩኒቨርሲቲ	-9164
▁የቀሩት	-9165
▁የምናውቀው	-9166
▁የልጅ	-9167
▁የቢ	-9168
▁የሙሴ	-9169
▁ዘፍጥረት	-9170
▁ኮሚሽን	-9171
▁ከአንተም	-9172
▁ከተለያዩ	-9173
▁ከኛ	-9174
▁እንፈልጋለን።	-9175
▁እንዲኖረው	-9176
▁እናመሰግና	-9177
▁እርዳኝ	-9178
▁እጠይቃ	-9179
▁እመኛ	-9180
▁አገላለ	-9181
▁አውታረመረቦች	-9182
▁አብረውት	-9183
▁አባታችሁ	-9184
▁አልነበር	-9185
▁ተመር	-9186
▁በጥበብ	-9187
▁በእጃ	-9188
▁በአላህና	-9189
▁በአስተ	-9190
▁በቤት	-9191
▁ሲሰሙ	-9192
▁ሰለሞን	-9193
▁ምሥጋና	-9194
▁መመገብ	-9195
▁መኪኖች	-9196
▁ሕይወቴን	-9197
▁ለማስቀመጥ	-9198
▁SE	-9199
▁53	-9200
▁(ምሳሌ	-9201
ጮኻ	-9202
ዝገብ	-9203
ካኝ	-9204
እነሱም	-9205
ነታቸውን	-9206
ቧን	-9207
ብጥ	-9208
ቀሳቀስ	-9209
ሪያቸው	-9210
ረጡ	-9211
lers	-9212
ip	-9213
▁ፍፁም	-9214
▁ፋይል	-9215
▁ይወስዳል.	-9216
▁ይድ	-9217
▁ይዞ	-9218
▁ይሞታ	-9219
▁ይለው	-9220
▁ያውቃል፤	-9221
▁ያዳም	-9222
▁ያብራ	-9223
▁የተማሪ	-9224
▁የቀን	-9225
▁የሚናገረው	-9226
▁የመጽሐፉ	-9227
▁የለውም.	-9228
▁ዋጋው	-9229
▁ክሪስ	-9230
▁ከፈለጉ,	-9231
▁ከእነዚያ	-9232
▁ከው	-9233
▁እውቀ	-9234
▁እነግር	-9235
▁ኢሜል	-9236
▁አዳራሽ	-9237
▁አብሬ	-9238
▁አሰራ	-9239
▁ተግዳሮ	-9240
▁ተነሣ	-9241
▁በደህና	-9242
▁በአንቀጾቻችን	-9243
▁በማግ	-9244
▁በመተ	-9245
▁በዕለት	-9246
▁በቅድ	-9247
▁ረዘም	-9248
▁ማጥፋት	-9249
▁ማምጣት	-9250
▁ማህበር	-9251
▁ለማመን	-9252
▁ለመከተል	-9253
▁ለድ	-9254
▁99	-9255
▁67	-9256
▁(ሰ	-9257
▁""	-9258
ፊቱን	-9259
ጠየቅ	-9260
ጠዋል።	-9261
ዷል።	-9262
ወሲብ	-9263
ንጋ	-9264
ኒስ	-9265
ችኋል.	-9266
ቸዋል,	-9267
ቸዋለሁ፤	-9268
ት.	-9269
ታለሁ።	-9270
ተሮች	-9271
ሥራች	-9272
ሠራር	-9273
ሁ፥	-9274
ap	-9275
-መ	-9276
▁ጓደኞቹ	-9277
▁ግፍ	-9278
▁ይችላል!	-9279
▁ይመለሳሉ	-9280
▁የተራ	-9281
▁የሚያን	-9282
▁ከአስር	-9283
▁ከምት	-9284
▁እንዳለብን	-9285
▁እንቢ	-9286
▁እናያለን	-9287
▁አደራ	-9288
▁አለብኝ?	-9289
▁አደርገ	-9290
▁በጥሞና	-9291
▁በውኃ	-9292
▁በኦ	-9293
▁በሴ	-9294
▁ምንድነው	-9295
▁ምላሽ,	-9296
▁መሆናችንን	-9297
▁ሊውል	-9298
▁ለመንከባከብ	-9299
▁ለመነጋገር	-9300
▁ለዓ	-9301
▁ሁኔታውን	-9302
▁"በእ	-9303
ገለግሉ	-9304
ደቱ	-9305
ውሰድ	-9306
ውሉ	-9307
ወዳቸው	-9308
ከሰተው	-9309
አማካይ	-9310
ናችን	-9311
ኑክሌር	-9312
ቶችና	-9313
ቶቻቸውም	-9314
ረጉ	-9315
ልማት	-9316
ልሃል	-9317
ለያይ	-9318
ህግ	-9319
ul	-9320
ce	-9321
12	-9322
▁ፈረ	-9323
▁ይዘን	-9324
▁ይላል፦	-9325
▁ያስችላ	-9326
▁ያስቀም	-9327
▁የእያንዳንዱ	-9328
▁የሽያጭ	-9329
▁የሚለ	-9330
▁የክርስቲያን	-9331
▁የሙ	-9332
▁የሁሉ	-9333
▁ዜግነት	-9334
▁ውድቀት	-9335
▁እንዲያውቁ	-9336
▁እንባ	-9337
▁እርሱንም	-9338
▁እሆናለሁ	-9339
▁አገልጋዮ	-9340
▁አመነ	-9341
▁አልችልም።	-9342
▁አሉት.	-9343
▁ተጫው	-9344
▁ተጻፈ	-9345
▁በእንዲህ	-9346
▁በተለያየ	-9347
▁በመጡ	-9348
▁በቢ	-9349
▁በሌላው	-9350
▁ቅዱሳት	-9351
▁ሴትየ	-9352
▁ሰው፣	-9353
▁ሰብዓዊ	-9354
▁መከላከያ	-9355
▁መሲ	-9356
▁ሐኪም	-9357
▁ሊታይ	-9358
▁ለማድረግ	-9359
▁ለመል	-9360
▁ለሌ	-9361
▁ህንድ	-9362
▁2,	-9363
▁193	-9364
▁'አት	-9365
ጠናከር	-9366
ጠቢያ	-9367
ጠም	-9368
ያንዳንዳችን	-9369
ዘዘ	-9370
ኝታ	-9371
ኗቸው	-9372
ት፤	-9373
ታሞች	-9374
ብዛት	-9375
ቀው።	-9376
ቀዳ	-9377
ስተኛው	-9378
መውን	-9379
os	-9380
▁ፍትህ	-9381
▁ጾም	-9382
▁ደጋፊ	-9383
▁ደመወዝ	-9384
▁ይህንኑ	-9385
▁የአው	-9386
▁የሚፈራ	-9387
▁የሚናገሩ	-9388
▁የመሰ	-9389
▁ዘንድ፥	-9390
▁ዐይን	-9391
▁ወሲባዊ	-9392
▁ኮን	-9393
▁ክለ	-9394
▁ከአንቺ	-9395
▁እድገ	-9396
▁እየተባለ	-9397
▁እንደሆንን	-9398
▁አሰብኩ	-9399
▁ተፈታ	-9400
▁ብትሆን	-9401
▁ባሪያዬ	-9402
▁ባሪያህ	-9403
▁በአማ	-9404
▁በምላ	-9405
▁መደምደ	-9406
▁መጪ	-9407
▁ሕንፃዎች	-9408
▁ልጃገረ	-9409
▁ለማሰብ	-9410
▁ለመደሰት	-9411
▁66	-9412
ጸና	-9413
ጣት)	-9414
ጠኝነት	-9415
ጎል	-9416
ይኔ	-9417
ወቃችሁ	-9418
ከርካሪዎች	-9419
ኦልም	-9420
ታዘዙ	-9421
ሻል።	-9422
ሱ.	-9423
ማጠናቀቅ	-9424
መዝገብ	-9425
መኑት	-9426
መቀየር	-9427
ላው	-9428
ላእክት	-9429
ለኝም	-9430
17	-9431
▁ፓው	-9432
▁ጨዋታውን	-9433
▁ግጥ	-9434
▁ድርጣቢያ	-9435
▁ደጅ	-9436
▁ደሞ	-9437
▁ያቺ	-9438
▁የራስህን	-9439
▁የሚከተ	-9440
▁የሚስማማ	-9441
▁የሚሉትን	-9442
▁የጠበቀ	-9443
▁ዝንባ	-9444
▁ዘረጋ	-9445
▁ዕለ	-9446
▁ከአማ	-9447
▁ከሴቶች	-9448
▁እውነትም	-9449
▁እንድንሆን	-9450
▁እንደሚሉት	-9451
▁እንደመሆኑ	-9452
▁እናምናለን።	-9453
▁እወቁ	-9454
▁እኖራ	-9455
▁እመርጣ	-9456
▁አልላቸው።	-9457
▁ነበሩት	-9458
▁ቱሪስ	-9459
▁ተቀምጠው	-9460
▁ተቋቋመ	-9461
▁ተማር	-9462
▁በአንጻራዊ	-9463
▁ቅጣቱ	-9464
▁ሚስተር	-9465
▁መልዕክቶችን	-9466
▁ላክን፤	-9467
▁ህክምና	-9468
▁80%	-9469
▁52	-9470
▁"እንዴት	-9471
ገርም	-9472
ያማ	-9473
ወት	-9474
አለሁ።	-9475
ቶቻችንን	-9476
ቁ፤	-9477
ቀጥሉ	-9478
ምርጫ	-9479
ሎቻቸው	-9480
ህናት	-9481
_6	-9482
VID	-9483
:-	-9484
▁ጎራ	-9485
▁ጊዜያዊ	-9486
▁ይመጣል፤	-9487
▁የሚያስደ	-9488
▁የሚረዱ	-9489
▁የሚሉት	-9490
▁ወዳጅነት	-9491
▁ወተት	-9492
▁ኪሎ	-9493
▁አድራጊዎች	-9494
▁አይወድም።	-9495
▁አላማ	-9496
▁ቸርነት	-9497
▁ትሰማ	-9498
▁ተናግሯል	-9499
▁ተስማም	-9500
▁ተሳታፊዎች	-9501
▁ተከፈተ	-9502
▁ብቅ	-9503
▁በረዶ	-9504
▁በኛ	-9505
▁በንጉሡ	-9506
▁ቆዳ	-9507
▁ቀን)	-9508
▁ማስተላለፍ	-9509
▁መሰና	-9510
▁መልካምን	-9511
▁መጫወቻ	-9512
▁መሓ	-9513
▁ሊከናወን	-9514
▁ሂደቱ	-9515
ጻፉ	-9516
ጸባረ	-9517
ጎበኙ	-9518
ግበር	-9519
ኝ,	-9520
ቸዋለህ።	-9521
ቶቻችንም	-9522
ሺህ	-9523
ስ?	-9524
ሰኞ	-9525
ሮና	-9526
ራል,	-9527
መላለ	-9528
መወሰን	-9529
ላችኋል	-9530
_8	-9531
-3	-9532
▁ዩኒቨርስቲ	-9533
▁የኢሜል	-9534
▁የተገኘ	-9535
▁የሚጠብ	-9536
▁የለኝም።	-9537
▁የዲያብሎስ	-9538
▁ከኃጢአ	-9539
▁ከሙሴ	-9540
▁እንደማንኛውም	-9541
▁እመል	-9542
▁አገባ	-9543
▁አገሮች	-9544
▁አይመስልም	-9545
▁አይቼ	-9546
▁አያስደን	-9547
▁ነበራችሁ	-9548
▁ትመለሳ	-9549
▁ብሔራት	-9550
▁ብድ	-9551
▁ቢኾን	-9552
▁ቅጥር	-9553
▁ቁራጭ	-9554
▁ሰማያዊ	-9555
▁ማድረግ.	-9556
▁መስካሪ	-9557
▁መሳተፍ	-9558
▁መርሆ	-9559
▁መስተ	-9560
▁ልጄን	-9561
▁ልዩነቶች	-9562
▁ልውው	-9563
▁ሊሰጥ	-9564
▁ሆኑ።	-9565
▁ህዝቡን	-9566
▁72	-9567
▁"ሰዎች	-9568
ዲዎች	-9569
ዖንን	-9570
ወረድነው	-9571
ኪዎች	-9572
ነኛው	-9573
ቾችን	-9574
ተኝነት	-9575
ባባቂ	-9576
ባጭ	-9577
ባሪ	-9578
በረታታ	-9579
በኛው	-9580
በሉት	-9581
ቀርበው	-9582
ሹም	-9583
ሪያዎች	-9584
ሩበት	-9585
ሥነ	-9586
ለትም።	-9587
▁ግድግዳ	-9588
▁ገንዘብን	-9589
▁ይናገሩ	-9590
▁ይታመ	-9591
▁ያውቃል?	-9592
▁ያለፉ	-9593
▁የአን	-9594
▁የምንኖረው	-9595
▁የሚወስድ	-9596
▁ዝንባሌ	-9597
▁ክፉን	-9598
▁ከእናቱ	-9599
▁ከምንም	-9600
▁ከሆነው	-9601
▁እንዳለን	-9602
▁አገልጋዮቹ	-9603
▁አይሰ	-9604
▁አናውቅም።	-9605
▁አሰልጣ	-9606
▁አማልክ	-9607
▁አመስግ	-9608
▁አለው?	-9609
▁አግባብ	-9610
▁አቢ	-9611
▁ትኬት	-9612
▁ተናግሮ	-9613
▁ብረት	-9614
▁ቤተሰቦቹ	-9615
▁ባለበት	-9616
▁ባቢ	-9617
▁በጠላ	-9618
▁በገባ	-9619
▁ቀጠለ	-9620
▁ስራውን	-9621
▁ስለሚያ	-9622
▁ሰራተኛ	-9623
▁ምእመ	-9624
▁ማታለል	-9625
▁ሙታንን	-9626
▁መራመድ	-9627
▁ለማጥናት	-9628
▁ለማካፈል	-9629
▁2003	-9630
▁"ወንድ	-9631
▁"ሰው	-9632
ጆቻችሁ	-9633
ዳሴ	-9634
ደውን	-9635
እና	-9636
ቶቻችሁን	-9637
በጎ	-9638
ቋርጥ	-9639
ሸሽ	-9640
ሰራጨት	-9641
ረፈረ	-9642
ምራትን	-9643
ሆኔ	-9644
▁ፎቶግራፍ	-9645
▁ግር	-9646
▁ጋሻ	-9647
▁ድምፁን	-9648
▁ይገዛ	-9649
▁ይኾ	-9650
▁ያተኮረ	-9651
▁የእግዚአብሄር	-9652
▁የአባቱን	-9653
▁የተናገረውን	-9654
▁እንዲመለሱ	-9655
▁አድማ	-9656
▁አካባቢያዊ	-9657
▁አትሁን	-9658
▁አብን	-9659
▁አልቻለም።	-9660
▁አለን.	-9661
▁ነበርና	-9662
▁ትንሳኤ	-9663
▁ታሪኮችን	-9664
▁ተዋናይ	-9665
▁ተገናኝ	-9666
▁ቦርድ	-9667
▁በቀስ	-9668
▁በማድረ	-9669
▁መደምደሚያ	-9670
▁ለየት	-9671
▁ሃላፊነት	-9672
▁Mic	-9673
▁250	-9674
▁150	-9675
ጓዛ	-9676
ይንኛ	-9677
የቱ	-9678
ከለከለ	-9679
ኑሕ	-9680
ነርሱም	-9681
ብቃ	-9682
በዋል	-9683
ቆጣጠሪያ	-9684
ቁጥጥር	-9685
ሰጣችሁ	-9686
መጣው	-9687
▁ፈቃደኞች	-9688
▁ፈውስ	-9689
▁ጥቂትን	-9690
▁ጠፋ	-9691
▁ጓደኝነት	-9692
▁ይኖረዋል	-9693
▁ይነግሩ	-9694
▁ይቻላል.	-9695
▁ያሳየ	-9696
▁የተሳካ	-9697
▁የተባለው	-9698
▁የሚገርመው	-9699
▁የሚያስፈልጉ	-9700
▁የሚበልጡ	-9701
▁ክርስቲያናት	-9702
▁ከአራት	-9703
▁ከቅ	-9704
▁አይገባም	-9705
▁አይደለችም።	-9706
▁አይደላችሁ	-9707
▁አይቻልም።	-9708
▁አይሁዳውያን	-9709
▁አይታወቅ	-9710
▁አያመሰግኑ	-9711
▁አያመሰግኑም።	-9712
▁ነገዶች	-9713
▁ተቃው	-9714
▁ቤተሰቦቼ	-9715
▁በአምላካ	-9716
▁በኋላ፣	-9717
▁በብር	-9718
▁በሉ።	-9719
▁ቆይታ	-9720
▁ቀደ	-9721
▁ሰዎች፣	-9722
▁ሰጣቸው።	-9723
▁ሰሙ	-9724
▁ምንድር	-9725
▁ማቆየት	-9726
▁መንጋ	-9727
▁መስፈርት	-9728
▁መተኛት	-9729
▁ሉጥ	-9730
▁[ተጨማሪ	-9731
ፎም	-9732
ጥቁር	-9733
ጎዱ	-9734
ደርሰው	-9735
ደጃ	-9736
ይንት	-9737
ውይ	-9738
ኮራ	-9739
ከተማይቱ	-9740
ከፈል	-9741
ኣብሔር	-9742
ነጻ	-9743
ተኞቻችንን	-9744
ብል	-9745
ረዳው	-9746
ማሉ	-9747
▁ፍጆ	-9748
▁ፋይሎች	-9749
▁ጭንቀ	-9750
▁ይመስለኛል።	-9751
▁የወደፊቱን	-9752
▁የትኞቹ	-9753
▁የሚስብ	-9754
▁የመታ	-9755
▁የግራ	-9756
▁የሳይንስ	-9757
▁የለህ	-9758
▁ወኪል	-9759
▁ኪሳራ	-9760
▁እየተከናወነ	-9761
▁እየሞከረ	-9762
▁እናገራ	-9763
▁ኤስ	-9764
▁አይኖርም።	-9765
▁አዝናኝ	-9766
▁አምናለሁ።	-9767
▁አምባ	-9768
▁ትሞታ	-9769
▁ታያለህ	-9770
▁ተለዋዋጭ	-9771
▁ተናገረው	-9772
▁ተም	-9773
▁ተላ	-9774
▁በፍፁም	-9775
▁በውስጥ	-9776
▁በትር	-9777
▁በታምራቶቻችን	-9778
▁በመደ	-9779
▁በጨ	-9780
▁ቆይተዋል	-9781
▁ሽፋን	-9782
▁ስደተኛ	-9783
▁ሲመጡ	-9784
▁ሰብስ	-9785
▁ሰምተናል	-9786
▁ሰበ	-9787
▁ሞኝነት	-9788
▁ማስተካከ	-9789
▁መንቀጥቀጥ	-9790
▁መወለድ	-9791
▁መርሃ	-9792
▁ሀይል	-9793
▁is	-9794
▁US	-9795
▁Twitter	-9796
▁St	-9797
ፊልም	-9798
ጻጸር	-9799
ጸልዩ	-9800
ጧል።	-9801
ጠፍ	-9802
ገኛል	-9803
ዋለህ	-9804
ወልድ	-9805
ወገ	-9806
ከማቻ	-9807
እንግዲህ	-9808
ብኝ።	-9809
ቅረ	-9810
ስተካከ	-9811
ስፋት	-9812
ሰሙት	-9813
ማርክ	-9814
መጣጣኝ	-9815
ህሉ	-9816
ሁት።	-9817
ors	-9818
op	-9819
500	-9820
24	-9821
▁ፍልስ	-9822
▁ጌታቸውን	-9823
▁ጋኔን	-9824
▁ድንገተኛ	-9825
▁ይመለከታል	-9826
▁ይረ	-9827
▁ይመር	-9828
▁የተመሰረተ	-9829
▁የተሰጡ	-9830
▁የቤተሰቡ	-9831
▁የሚኖረው	-9832
▁ወቅታዊ	-9833
▁ካገኘ	-9834
▁ከጥንት	-9835
▁ከሶስት	-9836
▁እወዳለሁ።	-9837
▁እንድንችል	-9838
▁እንደምችል	-9839
▁እዛ	-9840
▁አያስፈልግዎትም	-9841
▁አውራጃ	-9842
▁አሳይቷል	-9843
▁ንግግ	-9844
▁ናይ	-9845
▁ትውል	-9846
▁ተለይቶ	-9847
▁ባልንጀ	-9848
▁በተሞላ	-9849
▁በምዕራ	-9850
▁በማለዳ	-9851
▁በጋ	-9852
▁በዚያች	-9853
▁ቅርንጫፍ	-9854
▁ሲታይ	-9855
▁ማግኛ	-9856
▁መንገር	-9857
▁ለት	-9858
▁com	-9859
▁20%	-9860
▁"እርሱም	-9861
▁"ስ	-9862
ፕላኔ	-9863
ፍሬዎች	-9864
ፌሶን	-9865
ፃፀር	-9866
ጠቁ	-9867
ገኝም።	-9868
ገልጽ	-9869
ዲድ	-9870
ይናንስ	-9871
ዘኛ	-9872
ናልና	-9873
ኑንም	-9874
ተርጎም	-9875
ተውም	-9876
ብስ	-9877
በላሹ	-9878
ስተኞች	-9879
ማማት	-9880
መሳሰ	-9881
መመስረት	-9882
ህተት	-9883
lersች	-9884
▁ገመድ	-9885
▁ይወድቃ	-9886
▁ያቀርባል.	-9887
▁ያላት	-9888
▁የምድ	-9889
▁የምሥራች	-9890
▁የለበትም።	-9891
▁የክፉ	-9892
▁ዘወር	-9893
▁ውጤታማነት	-9894
▁ውቅያ	-9895
▁ወዲያውም	-9896
▁ከኃጢአት	-9897
▁እንደሌለው	-9898
▁እናቱን	-9899
▁እርሳቸው	-9900
▁አሳልፈው	-9901
▁ታና	-9902
▁ተቀመጡ	-9903
▁ተራራው	-9904
▁ብዙሃን	-9905
▁ብሄራዊ	-9906
▁ብስ	-9907
▁በእርሳቸው	-9908
▁በአስ	-9909
▁በመጽሐፉ	-9910
▁በመልክ	-9911
▁በሕይወታቸው	-9912
▁ሽብር	-9913
▁ስለመ	-9914
▁ሰፋ	-9915
▁ምሥራቅ	-9916
▁መፍትሄዎች	-9917
▁መመዝገብ	-9918
▁ልጃገ	-9919
▁ልጃገረድ	-9920
▁ልባችን	-9921
▁ሊያስከት	-9922
▁ሄደ፤	-9923
▁ሀያ	-9924
▁جل	-9925
▁Bitcoin	-9926
▁(እነሱ	-9927
ድጋ	-9928
ኪም	-9929
ናገሩትን	-9930
ታውቁት	-9931
ታቸውንም	-9932
ብላ	-9933
ርዝር	-9934
ራይ	-9935
ሄድበት	-9936
ሃቸው	-9937
ryp	-9938
ive	-9939
har	-9940
▁ጥላቻ	-9941
▁ጢሞ	-9942
▁ጠንቅ	-9943
▁ጊዜዎች	-9944
▁ገዝ	-9945
▁ጀልባ	-9946
▁ዲዛ	-9947
▁ይወዳሉ	-9948
▁ይቆጠራ	-9949
▁ይሆናል!	-9950
▁ይደሰቱ	-9951
▁ይደረ	-9952
▁የታተ	-9953
▁ከሃ	-9954
▁እንደዛ	-9955
▁እንረዳለን።	-9956
▁እናስ	-9957
▁እነግራችኋለሁ	-9958
▁እችላለሁ።	-9959
▁አውቶቡስ	-9960
▁አላቸውም።	-9961
▁አለባት	-9962
▁ናቸውና።	-9963
▁ነገሩን	-9964
▁ነውን	-9965
▁ትሆናለህ።	-9966
▁ትስ	-9967
▁ታውቅ	-9968
▁ተመዝግ	-9969
▁ተከፍ	-9970
▁ብሎኛል	-9971
▁ቤታችን	-9972
▁በገነት	-9973
▁በአፍ	-9974
▁ሲመለከቱ	-9975
▁ምክንያቱም,	-9976
▁ማግባት	-9977
▁ማመልከት	-9978
▁መልክተኞችን	-9979
▁ለፈራ	-9980
▁ሁለታችሁም	-9981
▁43|	-9982
▁(ሙሳም)	-9983
ፖላንድ	-9984
ፈፀም	-9985
ፈራም	-9986
ጥቅ	-9987
ጃን	-9988
ኾናችሁ	-9989
ኩህ	-9990
ነውም	-9991
ችበት	-9992
ቶችዎ	-9993
ምድና	-9994
ልኝ።	-9995
▁‹‹በ	-9996
▁ፈጥነው	-9997
▁ፈጣሪዎች	-9998
▁ጠብቅ	-9999
▁ድንበ	-10000
▁ይሆናል?	-10001
▁ያስችል	-10002
▁ያለኝን	-10003
▁ያክል	-10004
▁የተፈጠረው	-10005
▁የባለሙያ	-10006
▁የራሳችን	-10007
▁የሚፈልገው	-10008
▁ካንተ	-10009
▁እንደማይችል	-10010
▁አገና	-10011
▁አቀፋዊ	-10012
▁አለብኝ።	-10013
▁ነን"	-10014
▁ነበር...	-10015
▁ትወጣ	-10016
▁ታማኝነት	-10017
▁ተገኝቷል	-10018
▁ተገዢ	-10019
▁ተደነ	-10020
▁ባቢሎን	-10021
▁በዐ	-10022
▁ስዕል	-10023
▁ምግባ	-10024
▁ምሳ	-10025
▁ማክሰኞ	-10026
▁መምህር	-10027
▁ሐምሌ	-10028
▁ልባችሁ	-10029
▁ሊያደርገው	-10030
▁ለመጥ	-10031
▁ሃይማኖቶች	-10032
▁82	-10033
▁....	-10034
▁(የተ	-10035
ዌይ	-10036
እመና	-10037
ቦቻቸውን	-10038
ብርኤል	-10039
ብሩ	-10040
ቀለ	-10041
ስራኤላውያን	-10042
ራቢ	-10043
ምፕ	-10044
ምስራቅ	-10045
ማውጣት	-10046
ማምን	-10047
መገብ	-10048
ለትም	-10049
ለታል	-10050
9)	-10051
-የ	-10052
▁ፈገግታ	-10053
▁ጎጂ	-10054
▁ድክ	-10055
▁ይፈልጋል.	-10056
▁የፈለጉትን	-10057
▁የእነሱን	-10058
▁የአይ	-10059
▁የትኛውም	-10060
▁የተፈጠሩ	-10061
▁የተገነባው	-10062
▁የተረጋገጠ	-10063
▁የሚገ	-10064
▁የፀ	-10065
▁የቱ	-10066
▁የቤ	-10067
▁ዋነኛው	-10068
▁እጃቸውን	-10069
▁እየተካሄደ	-10070
▁እንጂ,	-10071
▁እንዳይሆን	-10072
▁እንዲመጣ	-10073
▁እገዳ	-10074
▁አንጀ	-10075
▁አስተም	-10076
▁አስቀም	-10077
▁አልረሳ	-10078
▁ናይጄሪያ	-10079
▁ነበረ፤	-10080
▁ነች።	-10081
▁ትሰጣ	-10082
▁ተጠባባቂ	-10083
▁ተባለ	-10084
▁ተምረ	-10085
▁ባይኖር	-10086
▁በጌታውም	-10087
▁በአስር	-10088
▁በበጋ	-10089
▁በቅዱ	-10090
▁በሳ	-10091
▁ሲሳይ	-10092
▁ሥራዎቻቸውን	-10093
▁ማስረጃዎች	-10094
▁ማጨስ	-10095
▁ማሟላት	-10096
▁መድኃኒት	-10097
▁መስኮት	-10098
▁መመስ	-10099
▁መመርመር	-10100
▁ሐሰ	-10101
▁you	-10102
▁2022	-10103
▁"የሚ	-10104
ፈታ	-10105
ጠነቅ	-10106
ዎትም።	-10107
ኩረት	-10108
ከትም	-10109
እምና	-10110
ኢን	-10111
ንጻ	-10112
ቢያን	-10113
ቃችሁ	-10114
ስዊ	-10115
ሰውን	-10116
ራኝ	-10117
ራቂ	-10118
ሜዳ	-10119
ማስገባት	-10120
ሚሊዮ	-10121
መጡት	-10122
ሃለሁ"	-10123
ver	-10124
ew	-10125
em	-10126
▁ፊቴን	-10127
▁ጥቅል	-10128
▁ግጭት	-10129
▁ድልድ	-10130
▁ድካም	-10131
▁ደንበኞችን	-10132
▁ይሰራሉ	-10133
▁ያቀርባል	-10134
▁ያላችሁ	-10135
▁የሚከተለውን	-10136
▁የመረጥ	-10137
▁የለባቸውም	-10138
▁የዮሴፍ	-10139
▁የኃ	-10140
▁የቻ	-10141
▁የላችሁ	-10142
▁ዕውሮች	-10143
▁ዓሳ	-10144
▁ውድድ	-10145
▁ከመጣደ	-10146
▁ከቻሉ	-10147
▁ኧረ	-10148
▁እንዲሠራ	-10149
▁እንደተጠቀሰው	-10150
▁እንደምትችል	-10151
▁እንደማስ	-10152
▁እነሆም	-10153
▁እገም	-10154
▁አይደለም...	-10155
▁አይደለህም	-10156
▁አቀረበ	-10157
▁አልታ	-10158
▁አዕምሮ	-10159
▁አወቁ	-10160
▁ነበር፥	-10161
▁ተኛ	-10162
▁ብና	-10163
▁ባሕርያት	-10164
▁በቦታው	-10165
▁በማወቅ	-10166
▁በመመር	-10167
▁በመመርኮዝ	-10168
▁በሕይወትህ	-10169
▁በሩን	-10170
▁ቀን፣	-10171
▁ሰጠነው፤	-10172
▁ሥነ-	-10173
▁ሚስቱን	-10174
▁መሆኑን,	-10175
▁መደሰት	-10176
▁ልጥ	-10177
▁ልኮ	-10178
▁ለነገሩ	-10179
▁90%	-10180
▁(ሁሉ	-10181
▁"ብዙ	-10182
ጽፉ	-10183
ደይ	-10184
ዜና	-10185
ወረድን	-10186
ከራከራ	-10187
ኖሩበት	-10188
ችልበት	-10189
ቧል።	-10190
ባበል	-10191
ሸፈን	-10192
ሰሳ	-10193
ራቱን	-10194
ራሴ	-10195
ምሥራቅ	-10196
rypto	-10197
▁ፋንታ	-10198
▁ግፊት	-10199
▁ግዴ	-10200
▁ይጠቀማሉ	-10201
▁ይሁን፤	-10202
▁ያደርጋል,	-10203
▁ያየውን	-10204
▁ያመነ	-10205
▁የምትችለው	-10206
▁የሚያሳዝ	-10207
▁የመንግሥ	-10208
▁ወዳጆች	-10209
▁ካላቸው	-10210
▁ከስድስት	-10211
▁ከሆነ፣	-10212
▁እንዳለብ	-10213
▁እንደሚያውቁ	-10214
▁እንደቀ	-10215
▁እናገኛለን	-10216
▁አግኝቻለሁ	-10217
▁አድርጋችሁ	-10218
▁አውቆ	-10219
▁አስች	-10220
▁አልመጣም	-10221
▁አለህ?	-10222
▁አመልካ	-10223
▁ነፍሱን	-10224
▁ትስስር	-10225
▁ትመጣ	-10226
▁ታጋ	-10227
▁ተመልክተናል	-10228
▁ብፁዓን	-10229
▁በጉባኤ	-10230
▁በአም	-10231
▁በሚሆንበት	-10232
▁ሽያጭ	-10233
▁ማነጋገር	-10234
▁ማቆ	-10235
▁መለኮታዊ	-10236
▁መት	-10237
▁ሕጉ	-10238
▁ሌሊቱን	-10239
▁ለመጻፍ	-10240
▁ለመቀላቀል	-10241
▁ለባለ	-10242
▁ለቆ	-10243
▁ሁሉ፥	-10244
▁Micro	-10245
▁(መዝሙር	-10246
▁"ጌታዬ	-10247
ፎርኒያ	-10248
ጹት	-10249
ጦርነቱ	-10250
ጢያት	-10251
ከራከር	-10252
አግባ	-10253
ናር	-10254
ነቡ	-10255
ቶችህ	-10256
ሽት	-10257
ማዳ	-10258
ማሪያ	-10259
ማል፤	-10260
መገናኛ	-10261
ሊፎርኒያ	-10262
ሄድም	-10263
ik	-10264
▁ጀመረ.	-10265
▁ድንግል	-10266
▁ይጠበቅ	-10267
▁ይቀበላሉ	-10268
▁ያስፈልጋል።	-10269
▁ያመጣል	-10270
▁የደስታ	-10271
▁የውሂብ	-10272
▁የተመረጡ	-10273
▁የምለው	-10274
▁የማያውቅ	-10275
▁የመጣሁት	-10276
▁ዘንድ፣	-10277
▁ወ)	-10278
▁ክፉውን	-10279
▁እያየ	-10280
▁እንዳላ	-10281
▁እንደማስበው	-10282
▁እንደሚታየው	-10283
▁እንደደረሰ	-10284
▁እስራኤ	-10285
▁እይ	-10286
▁እሰራ	-10287
▁እማ	-10288
▁አግኝተዋል	-10289
▁አውታረመረብ	-10290
▁አውቅ	-10291
▁አባቴን	-10292
▁አስባለሁ።	-10293
▁አማራጮችን	-10294
▁ነበረ.	-10295
▁ነበረን	-10296
▁ኃያ	-10297
▁ትልቁን	-10298
▁ትሆናለህ	-10299
▁ባያ	-10300
▁ባሮች	-10301
▁በየትኛው	-10302
▁በመታ	-10303
▁በላዩ	-10304
▁በጆሮ	-10305
▁በራስዎ	-10306
▁ቀዳ	-10307
▁ስጥ	-10308
▁ሰይጣንም	-10309
▁ሥልጣ	-10310
▁ምስጢራዊ	-10311
▁ማንሳት	-10312
▁ማለቱ	-10313
▁ማናቸውም	-10314
▁ማተኮር	-10315
▁ሙዚ	-10316
▁መሠዊ	-10317
▁መሆኑን.	-10318
▁መሞ	-10319
▁ልጅ,	-10320
▁55	-10321
▁46	-10322
ፕሮጀክ	-10323
ፓስ	-10324
ገልጋዮቹ	-10325
ይጣ	-10326
ኝና	-10327
ሰብአዊ	-10328
ሰበው	-10329
ሰማኝ	-10330
ሞሉ	-10331
ሐዋርያት	-10332
ላሉ፤	-10333
ሊላ	-10334
ak	-10335
%)	-10336
▁ፕላኔት	-10337
▁ጸንቶ	-10338
▁ጥፋተኛ	-10339
▁ጥልቀት	-10340
▁ጉልበ	-10341
▁ደግሞስ	-10342
▁ደስታን	-10343
▁ይምረጡ	-10344
▁ይገድ	-10345
▁ይሞክራ	-10346
▁ይለዋል	-10347
▁የሚያስቡ	-10348
▁የሚደግ	-10349
▁የሚሰጠ	-10350
▁የሌለ	-10351
▁የሆን	-10352
▁ወገኖቼ፤	-10353
▁ከመጣደፋችሁ	-10354
▁ከመሆን	-10355
▁ከሥራ	-10356
▁እጠብቃለሁ	-10357
▁እንዳደረግ	-10358
▁እንዲሄድ	-10359
▁እኅ	-10360
▁አይደለም;	-10361
▁አይኖርም	-10362
▁አይመስለኝም	-10363
▁አዝና	-10364
▁አስተንት	-10365
▁አስተንትኑት።	-10366
▁አስቡትና	-10367
▁አሳድ	-10368
▁አላወቀ	-10369
▁አለቀሰ	-10370
▁ነግሮ	-10371
▁ትገረ	-10372
▁ተቃዋሚ	-10373
▁ተጠራ	-10374
▁ቢኖርም	-10375
▁በዓይና	-10376
▁በተጨማሪ,	-10377
▁በመጠራጠር	-10378
▁በታች	-10379
▁ቅርፅ	-10380
▁ቃላ	-10381
▁ሰላማዊ	-10382
▁ረድቶ	-10383
▁ማስታወሻ:	-10384
▁ማስተካከል	-10385
▁መንገድን	-10386
▁መነሳት	-10387
▁ሕይወቱን	-10388
▁ሎተ	-10389
▁ልጆችህ	-10390
▁ለስድብ	-10391
▁ለድር	-10392
▁ለወ	-10393
▁to	-10394
▁1,000	-10395
▁(በላቸው)	-10396
▁(ጌታ	-10397
▁"እሱ	-10398
ፉ።	-10399
ጣትን	-10400
ጠቃል	-10401
ጠቀሙባቸው	-10402
ገልገ	-10403
ደኝ	-10404
ዓዛ	-10405
ካፈ	-10406
ኪስታን	-10407
እውነት	-10408
ነታችን	-10409
በታ	-10410
በርግ	-10411
ሳሳተ	-10412
ሮቻችን	-10413
ረኝ	-10414
መለክት	-10415
መደው	-10416
aw	-10417
4|"	-10418
▁ፈት	-10419
▁ፀጉ	-10420
▁ጠብቆ	-10421
▁ጌታችሁ	-10422
▁ያገኛል	-10423
▁ያያሉ።	-10424
▁የነበራችሁ	-10425
▁የተረጋጋ	-10426
▁የማይወድ	-10427
▁የመነ	-10428
▁ዘርግ	-10429
▁ወዳጄ	-10430
▁ኮሚቴ	-10431
▁ክርስቶስ)	-10432
▁ከገባ	-10433
▁ከኤ	-10434
▁አድርገዋል.	-10435
▁አንተስ	-10436
▁አስነሣ	-10437
▁አልነበረም,	-10438
▁አለባችሁ	-10439
▁ትሠሩት	-10440
▁ተፈጥሮአዊ	-10441
▁ተፈታታኝ	-10442
▁ተጽፎ	-10443
▁ተጀመረ	-10444
▁በዓላት	-10445
▁በመጥ	-10446
▁ሲቲ	-10447
▁ሰአት	-10448
▁ሰራዊ	-10449
▁ርዝመት	-10450
▁ሙሴና	-10451
▁መቃብ	-10452
▁ለእናንተም	-10453
▁ለእርሱም	-10454
▁ሆነዋል	-10455
▁LG	-10456
▁44|	-10457
ጸው	-10458
ጭነት	-10459
ጧቸው	-10460
ጠየቀ	-10461
ጋቸው	-10462
ገበ	-10463
ድቁ	-10464
ድሩ	-10465
ያዩ	-10466
ዝቅ	-10467
ናቀ	-10468
ትራፊክ	-10469
ቋል።	-10470
ራቸው፤	-10471
ረ-	-10472
ማምረት	-10473
ለጫዎች	-10474
ሁ.	-10475
soft	-10476
AR	-10477
▁ጊዜና	-10478
▁ጆርጅ	-10479
▁ያገኛሉ።	-10480
▁ያደርገዋል።	-10481
▁የፈጠረው	-10482
▁የእሷ	-10483
▁የምወደው	-10484
▁የለኝ	-10485
▁የዲ	-10486
▁የደረሰ	-10487
▁ዕጓ	-10488
▁ዕጓለ	-10489
▁ዕቅ	-10490
▁ወንድሞቹን	-10491
▁ካሲኖዎች	-10492
▁ከሰዎችም	-10493
▁ከርሷ	-10494
▁ከረ	-10495
▁እንበ	-10496
▁እመሕያው	-10497
▁አያስፈልገውም	-10498
▁አንዲ	-10499
▁አትችልም	-10500
▁አባቶቻቸው	-10501
▁አስቀድመው	-10502
▁አማካይነት	-10503
▁ናቸውና	-10504
▁ነፍሰ	-10505
▁ታዳሚ	-10506
▁ተጓlersች	-10507
▁ተሰር	-10508
▁ቫይረስ	-10509
▁በደመና	-10510
▁በዙፋኑ	-10511
▁በትዕግሥት	-10512
▁በስራ	-10513
▁ቅርጸት	-10514
▁ቀለል	-10515
▁ሰው,	-10516
▁ሚስጥራዊ	-10517
▁ሚያዝ	-10518
▁ሚያዝያ	-10519
▁መተግበሪያው	-10520
▁ሎጥ	-10521
▁ሊመስል	-10522
▁ለነበሩት	-10523
▁COVID	-10524
▁"የተ	-10525
▁"እዚህ	-10526
ፍለ	-10527
ፈለጉት	-10528
ፃፉ	-10529
ዙን	-10530
ወክ	-10531
ከልከ	-10532
ነፃ	-10533
ቷል,	-10534
ተኛውን	-10535
ተራ	-10536
ቆሙበት	-10537
ቃጠ	-10538
ስቱን	-10539
ሴሎም	-10540
ሮፕላን	-10541
ራቢዎች	-10542
ለውም	-10543
ለወጡ	-10544
:33	-10545
4|በ	-10546
-12	-10547
▁ፈረንሳይኛ	-10548
▁ጥሪዎች	-10549
▁ጋዜጠኛ	-10550
▁ገልጸ	-10551
▁ደንበኞቻችን	-10552
▁ይውሰዱ	-10553
▁ይቀላ	-10554
▁ይለኛል	-10555
▁ያደርጋሉ።	-10556
▁ያስፈልገናል።	-10557
▁ያሳያል.	-10558
▁የማውቀው	-10559
▁የሚገኙት	-10560
▁የመሰለ	-10561
▁የህ	-10562
▁ዕለታዊ	-10563
▁ወቅት,	-10564
▁ከጨ	-10565
▁ከወደ	-10566
▁ከኃ	-10567
▁ከመልክ	-10568
▁እንቆ	-10569
▁እናቀርባ	-10570
▁አገላለጽ	-10571
▁አድሮ	-10572
▁አሳሳቢ	-10573
▁አሉን።	-10574
▁አለዎት?	-10575
▁ነበረባቸው	-10576
▁ቻር	-10577
▁ተጀም	-10578
▁ተረጋግ	-10579
▁ብድር	-10580
▁ባልተ	-10581
▁ባነሰ	-10582
▁በፍርሃት	-10583
▁በሰባተኛውም	-10584
▁በኃጢአ	-10585
▁በባለ	-10586
▁በሰጠ	-10587
▁በሕዝ	-10588
▁ቃሎች	-10589
▁ስላለ	-10590
▁ሰዉ	-10591
▁ማስተዳደር	-10592
▁ማደሪያ	-10593
▁ማሪ	-10594
▁ለምንድነው	-10595
▁ለሚቆጠሩ	-10596
▁ለልጆቹ	-10597
▁ለኢ	-10598
▁ለቀ	-10599
▁ለምን	-10600
▁ሆቴሎች	-10601
▁ሂዱ	-10602
▁47	-10603
▁2)	-10604
▁(ቅጣት)	-10605
▁(ወልደ	-10606
ጦት	-10607
ድምፅ	-10608
ዳግም	-10609
ደለ	-10610
ዓል	-10611
ክሩ	-10612
ከፈቱ	-10613
ችም።	-10614
ታር	-10615
መጠጥ	-10616
መልጥ	-10617
ለጡ	-10618
▁ጭነት	-10619
▁ጥቅሞችን	-10620
▁ግብፃውያን	-10621
▁ይሰበሰባ	-10622
▁የፍለጋ	-10623
▁የእው	-10624
▁የተረ	-10625
▁ዕድሎች	-10626
▁ወዘ	-10627
▁እንግዲያው	-10628
▁እንደሚከተለው	-10629
▁እስያ	-10630
▁እትም	-10631
▁እለምን	-10632
▁አድም	-10633
▁አዳራ	-10634
▁አያዩ	-10635
▁አስታውሱ	-10636
▁አልነበረም፤	-10637
▁አልወደ	-10638
▁ኖረ	-10639
▁ቶማስ	-10640
▁ትንበያ	-10641
▁ታላላ	-10642
▁ታውቁ	-10643
▁ተቀላቅ	-10644
▁ተሻ	-10645
▁ተመስ	-10646
▁ብትኾኑ	-10647
▁ባልደረባ	-10648
▁በጥቂቱ	-10649
▁በዋናነት	-10650
▁በአባ	-10651
▁በትጋት	-10652
▁በምትሠሩት	-10653
▁በሚገኘው	-10654
▁ቁል	-10655
▁ሰባቱን	-10656
▁ሥዕ	-10657
▁ምድብ	-10658
▁ማምለክ	-10659
▁መግደል	-10660
▁መሐመድ	-10661
▁መሆኔን	-10662
▁መገባ	-10663
▁መገባደጃ	-10664
▁ልጅህ	-10665
▁ሊነግ	-10666
▁ለቤተሰቡ	-10667
▁10,000	-10668
▁(ይህንን	-10669
▁"ልጄ	-10670
ፍትዌር	-10671
ጋጣሚ	-10672
ጋሩ	-10673
ጀመርያ	-10674
ደግሞ	-10675
ደረስ	-10676
ያያ	-10677
ወግዳ	-10678
ክረምት	-10679
ናገድ	-10680
ነስተኛ	-10681
ች.	-10682
ባሕር	-10683
ቀበሉት	-10684
ሰዋል።	-10685
ሬዲዮ	-10686
ራቶች	-10687
ሟቸው	-10688
ሙስ	-10689
መዝናኛ	-10690
መዋል።	-10691
ላችሁ!	-10692
ላቸዋል፤	-10693
ain	-10694
▁ጽሁፍ	-10695
▁ጠየቅ	-10696
▁ይጠይቃ	-10697
▁ይጠቁ	-10698
▁ይተኛ	-10699
▁ይቀድ	-10700
▁ያውቁታል።	-10701
▁ያስባል	-10702
▁ያድር	-10703
▁የራሳ	-10704
▁የሚገኘውን	-10705
▁የሚች	-10706
▁የለም"	-10707
▁የሆነን	-10708
▁የሆነበት	-10709
▁ዘለ	-10710
▁ውጥረት	-10711
▁ወሰንኩ	-10712
▁ከአባቴ	-10713
▁ከሲ	-10714
▁ከ19	-10715
▁እንደሚመስል	-10716
▁እንኖራ	-10717
▁እንቀጥ	-10718
▁እሰማ	-10719
▁አገሩ	-10720
▁አድርገዋል,	-10721
▁አድርገዋል	-10722
▁አይደል	-10723
▁አይል	-10724
▁አያስደንቅም	-10725
▁አቅርቦ	-10726
▁አሳወቀ	-10727
▁አሰቃቂ	-10728
▁አምስተኛ	-10729
▁አላመኑ	-10730
▁አለብህ።	-10731
▁አለን?	-10732
▁ነበር)	-10733
▁ነበሩ፤	-10734
▁ችሮታ	-10735
▁ትዕይንት	-10736
▁ታገሱ	-10737
▁ተናግረዋል።	-10738
▁ቢል	-10739
▁በጉዞ	-10740
▁በዳዊት	-10741
▁በእግዚአብሔርም	-10742
▁በአሥራ	-10743
▁በሚያስደንቅ	-10744
▁በ201	-10745
▁ቁርአን	-10746
▁ቀጣይነት	-10747
▁ስትኾን	-10748
▁ርኩስ	-10749
▁ማጋራት	-10750
▁መካከልም	-10751
▁መቆጣጠሪያ	-10752
▁ሆኖ,	-10753
▁ህመ	-10754
▁Microsoft	-10755
▁2.	-10756
▁195	-10757
▁(ዘፍጥረት	-10758
▁(ቁርኣንን	-10759
▁(2)	-10760
▁(201	-10761
ፀው	-10762
ጠነቀቁ	-10763
ጓሚ	-10764
ዮና	-10765
ዘገበው	-10766
ዎቻቸውም	-10767
ወንጀል	-10768
ወጫ	-10769
ክብር	-10770
ከፈት	-10771
ከብሩ	-10772
ንተን	-10773
ናል"	-10774
ችሁም።	-10775
ቸዋለን	-10776
በዋል።	-10777
በቀል	-10778
በሽታ	-10779
ቃማ	-10780
ቀዝ	-10781
ሷል።	-10782
ሜይል	-10783
መልቀቅ	-10784
ላዎች	-10785
od	-10786
▁ፈው	-10787
▁ጳጳ	-10788
▁ጠየቁ	-10789
▁ግኝት	-10790
▁ጃክ	-10791
▁የግላዊነት	-10792
▁የተቀደሰ	-10793
▁የሰይጣን	-10794
▁የሰዎችን	-10795
▁የሚያመለክተው	-10796
▁የሚኖሩት	-10797
▁የጀመረው	-10798
▁ዛሬ,	-10799
▁ወጥመድ	-10800
▁ወንድና	-10801
▁ወስደ	-10802
▁ክፉዎች	-10803
▁ከፍሬ	-10804
▁ከጌታው	-10805
▁ከልጆች	-10806
▁እየሞከርኩ	-10807
▁እንደማት	-10808
▁እንቁ	-10809
▁እስከዚህ	-10810
▁እዝነት	-10811
▁እመለሳ	-10812
▁አይመለስ	-10813
▁አዋቂዎች	-10814
▁አንሥ	-10815
▁አብዝ	-10816
▁አቀራረብ	-10817
▁አልፈልግ	-10818
▁አላደረጉ	-10819
▁አሊያም	-10820
▁ነፍሳት	-10821
▁ትችላላችሁ።	-10822
▁ተገዙ	-10823
▁ተመላሽ	-10824
▁ተክ	-10825
▁ተሰጣ	-10826
▁ተሰጠው	-10827
▁በዙሪያቸው	-10828
▁በክረምት	-10829
▁በአቅራቢያ	-10830
▁በነፍሶ	-10831
▁በተስፋ	-10832
▁ቅናሽ	-10833
▁ስደት	-10834
▁ሲገቡ	-10835
▁ሰራዊት	-10836
▁ራእ	-10837
▁ማራኪ	-10838
▁መከራን	-10839
▁መቅደ	-10840
▁መርህ	-10841
▁መልበስ	-10842
▁መገኘ	-10843
▁ልጆቼን	-10844
▁ልጇ	-10845
▁ሊደረግ	-10846
▁ለረዥም	-10847
▁ሂሳብ	-10848
▁forum	-10849
▁7|1	-10850
▁69|	-10851
▁26_1	-10852
▁14፡	-10853
ፎቹ	-10854
ጫው	-10855
ደኝነት	-10856
የሚ	-10857
ዘንብ	-10858
ወያየት	-10859
ኬቶች	-10860
ከታታይ	-10861
ከተለ	-10862
ናፍ	-10863
ቿን	-10864
ትንሳኤ	-10865
ቪል	-10866
ቀሩ	-10867
ምራት	-10868
መላለስ	-10869
መድን	-10870
ሄደው	-10871
ሀት	-10872
qu	-10873
1_	-10874
▁ፍጆታ	-10875
▁ፍሩ	-10876
▁ፈሮ	-10877
▁ፈሮዖንና	-10878
▁ጦርነቶች	-10879
▁ደረቅ	-10880
▁ይመስልሃል?	-10881
▁ይመልከቱ።	-10882
▁ይፈጸ	-10883
▁ይጸ	-10884
▁ይመለስ	-10885
▁ያያሉ.	-10886
▁ያገባ	-10887
▁ያተኩ	-10888
▁የአለማት	-10889
▁የተወሰኑት	-10890
▁የተከበረ	-10891
▁የተናገር	-10892
▁የምድርም	-10893
▁የሚያስፈልግ	-10894
▁የሚፈልገውን	-10895
▁የሚጠራ	-10896
▁የሚበላ	-10897
▁የለበትም፤	-10898
▁የለሽ	-10899
▁የጨለማ	-10900
▁የወረ	-10901
▁የሀ	-10902
▁ዝምድና	-10903
▁ከሰሜን	-10904
▁ከመካከላቸው	-10905
▁ከቁ	-10906
▁ከራሱ	-10907
▁እየሄደ	-10908
▁እንሰጣለን።	-10909
▁እስክ	-10910
▁ኢብራሂም	-10911
▁አገኘ።	-10912
▁አያያዝ	-10913
▁አሸን	-10914
▁አሳየ	-10915
▁አሰል	-10916
▁አልችል	-10917
▁አቶ	-10918
▁ነገር,	-10919
▁ተፅዕኖ	-10920
▁ተመለሰ።	-10921
▁ባስ	-10922
▁በነገ	-10923
▁በቶ	-10924
▁ሹማምን	-10925
▁ሹማምንቶቹ	-10926
▁ሴቲቱም	-10927
▁ሲገባ	-10928
▁ሲታ	-10929
▁ሰንበት	-10930
▁ማኅበር	-10931
▁መክፈት	-10932
▁መቆምን	-10933
▁መባ	-10934
▁ሕዝቅ	-10935
▁ልጆቻችን	-10936
▁ለዘለዓለም	-10937
▁ለአዲሱ	-10938
▁ለነርሱም	-10939
▁ለሰባት	-10940
▁ለደንበ	-10941
▁ለነዚያ	-10942
▁Word	-10943
▁(19	-10944
▁"ብለዋል	-10945
▁"በጣም	-10946
ፍያ	-10947
ጨረቃ	-10948
ጠናቀቁ	-10949
ደጉ	-10950
ያዣ	-10951
ዎችዎ	-10952
ዋሸ	-10953
አምልኮ	-10954
ንጋፖር	-10955
ንቅልፍ	-10956
ነህ	-10957
ቶቼን	-10958
ትመት	-10959
ተኞችም	-10960
በቱ	-10961
ቆችን	-10962
ሾቹ	-10963
ሲካ	-10964
ሰላሰል	-10965
ረዱት	-10966
ሚኒ	-10967
ላችሁ,	-10968
ላማናውያን	-10969
ላኩ	-10970
Fi	-10971
-ገ	-10972
▁ፖርቱ	-10973
▁ጎል	-10974
▁ድረስ,	-10975
▁ዳይሬክተር	-10976
▁ዲናር	-10977
▁ይሰበስባ	-10978
▁ይላል፤	-10979
▁ይኼ	-10980
▁ያውቃሉ.	-10981
▁ያወ	-10982
▁የተሰጠውን	-10983
▁የተጣ	-10984
▁የምስራ	-10985
▁የማደርገው	-10986
▁የሚቻለው	-10987
▁የሚቀበል	-10988
▁የልጆ	-10989
▁የለበትም.	-10990
▁የፋ	-10991
▁የሮ	-10992
▁የሠሩ	-10993
▁የሕዝቡ	-10994
▁ዘሮች	-10995
▁ውሸታም	-10996
▁ወዘተ	-10997
▁ወላጆቼ	-10998
▁ከጠ	-10999
▁እውቀትን	-11000
▁እንሞክራ	-11001
▁እራስህን	-11002
▁እለት	-11003
▁አንቺን	-11004
▁አስተያየቶች	-11005
▁አመጸኞች	-11006
▁አለኝ,	-11007
▁ትራፊክ	-11008
▁ትበል	-11009
▁ተማሪዎችን	-11010
▁ተደርገ	-11011
▁ቤተሰቡን	-11012
▁በውስጣ	-11013
▁በሚገኙ	-11014
▁በመጀመሪያዎቹ	-11015
▁በጧ	-11016
▁ቍጣ	-11017
▁ቆይቷል.	-11018
▁ቀጥሏል	-11019
▁ሰል	-11020
▁ምርኮ	-11021
▁ማኅበራዊ	-11022
▁ማርያ	-11023
▁መናፍስት	-11024
▁መጣን	-11025
▁ሕያዋን	-11026
▁ሐቀኛ	-11027
▁ላላቸው	-11028
▁ሊያመጣ	-11029
▁ሊገኙ	-11030
▁ለልጆቻቸው	-11031
▁ለብቻ	-11032
▁ህገ	-11033
▁ሃብ	-11034
▁'ይህ	-11035
▁"እን	-11036
▁"+	-11037
ፍሩ	-11038
ፈዋል	-11039
ፈወስ	-11040
ጻሚ	-11041
ጠቅም	-11042
ጌታዬ	-11043
ገኝነት	-11044
ዘዋል	-11045
ዋንም	-11046
ዊስ	-11047
ካሉ	-11048
ኩ፤	-11049
አቸውም	-11050
ኞቻችሁ	-11051
ነሳው	-11052
ቢስ	-11053
ቅርታ	-11054
ረሕ	-11055
ሐቅ	-11056
ሎችንም	-11057
ሃለሁ,	-11058
oc	-11059
ob	-11060
ard	-11061
:31	-11062
▁ፈሪዎች	-11063
▁ዮርዳኖ	-11064
▁ይታወቃል።	-11065
▁ይሄዳል።	-11066
▁ያደገው	-11067
▁ያካ	-11068
▁የተመሰረቱ	-11069
▁የተደገ	-11070
▁የምችለው	-11071
▁የሚያውቁት	-11072
▁የሚያደርገውን	-11073
▁የሚታወቀው	-11074
▁የጋብቻ	-11075
▁የደንበኞች	-11076
▁የዚያን	-11077
▁ዓመፀ	-11078
▁ዑደት	-11079
▁ወጣ።	-11080
▁ከእነሱም	-11081
▁ከሆኑ,	-11082
▁እኛንም	-11083
▁እንጀራና	-11084
▁እንዳስ	-11085
▁እንዲያደርግ	-11086
▁እንቆማ	-11087
▁እና,	-11088
▁አድርግ።	-11089
▁አይፈቅድ	-11090
▁አይመጣም	-11091
▁አያደርጉ	-11092
▁አውስትራሊያ	-11093
▁አስብ።	-11094
▁አስረጅ	-11095
▁አምላካችሁ	-11096
▁አሉኝ።	-11097
▁አጽናፈ	-11098
▁አመን	-11099
▁ናችሁ፤	-11100
▁ነህን?	-11101
▁ኀጢአት	-11102
▁ትዳ	-11103
▁ቴክኒካዊ	-11104
▁ታህሳስ	-11105
▁ተዓምራቶች	-11106
▁ተሳታፊ	-11107
▁ተሞል	-11108
▁ተያይ	-11109
▁ብለ	-11110
▁በእርሻ	-11111
▁በርሳችን	-11112
▁በቤተሰ	-11113
▁በሰውነት	-11114
▁ስልኮች	-11115
▁ረዳቶች	-11116
▁ምስኪ	-11117
▁ማገ	-11118
▁መኖሩን	-11119
▁መስቀል	-11120
▁መርየም	-11121
▁መምራት	-11122
▁ሊረዱ	-11123
▁ለማግባት	-11124
▁ለልጅ	-11125
▁ለግ	-11126
▁ህዳር	-11127
▁con	-11128
▁Mar	-11129
▁1990	-11130
▁192	-11131
▁(ት	-11132
ፕሬዚ	-11133
ፉም	-11134
ጫዊ	-11135
ጎራ	-11136
ጉ።	-11137
ዳግ	-11138
ዮርዳ	-11139
ይዘ	-11140
ነጋገረ	-11141
ቡድኑ	-11142
ቃጥ	-11143
ቁ.	-11144
ሸንፍ	-11145
ሸከም	-11146
ሰዎች	-11147
ሰውም	-11148
ረዳቸው	-11149
መርጥ	-11150
▁ፍን	-11151
▁ጉርሻ	-11152
▁ገቡ	-11153
▁ይደሰ	-11154
▁ያያሉ	-11155
▁ያስፈልጋቸዋል	-11156
▁ያስተምረ	-11157
▁የኾነን	-11158
▁የተወሰኑትን	-11159
▁የተሳሳቱ	-11160
▁የምናደርገው	-11161
▁የማይፈልግ	-11162
▁የመሳሰ	-11163
▁የሕይወትን	-11164
▁የከተማ	-11165
▁ወረቀ	-11166
▁ከእሳት	-11167
▁ከሕ	-11168
▁ኦፕሬ	-11169
▁እድለኛ	-11170
▁እንዳይደክ	-11171
▁እንቅፋት	-11172
▁እሞክራለሁ	-11173
▁እላችኋለሁ፣	-11174
▁እጠላ	-11175
▁እረዳ	-11176
▁እሠራ	-11177
▁እመክራ	-11178
▁አደረግን	-11179
▁አይመስለኝ	-11180
▁አይሆንም.	-11181
▁አያስፈልግም	-11182
▁አንዳችን	-11183
▁አንገ	-11184
▁አልሉት።	-11185
▁ነበርን።	-11186
▁ተከታዮችን	-11187
▁ተሸክ	-11188
▁ተሳፋሪዎች	-11189
▁ተሰጣቸው።	-11190
▁በገንዘ	-11191
▁በኩል,	-11192
▁በአራት	-11193
▁በኋላ.	-11194
▁በህ	-11195
▁ቅደም	-11196
▁ምትክ	-11197
▁ሜክሲኮ	-11198
▁መዝሙ	-11199
▁መኪናው	-11200
▁ሐረግ	-11201
▁ለእኔም	-11202
▁ለቤተሰብ	-11203
▁One	-11204
▁2ኛ	-11205
▁(45)	-11206
▁"እንዲህ	-11207
▁"መልካም	-11208
▁"ሁ	-11209
ፕላኔቷ	-11210
ፈቻ	-11211
ፃፈ	-11212
ጣለን	-11213
ጀመሪያዎቹ	-11214
ዳሉ።	-11215
ኸውን	-11216
ከፍል	-11217
እንስሳት	-11218
ነምን	-11219
ቀጥሉት	-11220
ስተምር	-11221
ሳተፍ	-11222
ማመድ	-11223
ሎቹን	-11224
ሉ"	-11225
ity	-11226
if	-11227
AN	-11228
4)	-11229
25|	-11230
▁ፕሮጄ	-11231
▁ፍርድን	-11232
▁ፀሎት	-11233
▁ጠል	-11234
▁ጓደኛሞች	-11235
▁ይሁን,	-11236
▁ይለዋል።	-11237
▁ያበቃ	-11238
▁የተወሳ	-11239
▁የተከለከለ	-11240
▁የቀረቡ	-11241
▁የማታ	-11242
▁የሚሠሩ	-11243
▁የኢየሱስ	-11244
▁የበረ	-11245
▁የሰው	-11246
▁ወሬዎች	-11247
▁ከእያንዳንዱ	-11248
▁ከልባቸው	-11249
▁እየተናገር	-11250
▁እየሰራን	-11251
▁እንዳልሆኑ	-11252
▁እንደማይችሉ	-11253
▁እንደማያ	-11254
▁እንጠቀማ	-11255
▁እልክ	-11256
▁አታውቁምን?	-11257
▁አመጠኞች	-11258
▁አልሰጠ	-11259
▁አጽ	-11260
▁ነበራቸው።	-11261
▁ተጨባጭ	-11262
▁ብስክሌ	-11263
▁ብሎ,	-11264
▁ብሆን	-11265
▁ባልሆነ	-11266
▁ባር	-11267
▁ቢመስ	-11268
▁በአመ	-11269
▁በቀኑ	-11270
▁በረከቶች	-11271
▁በምትኩ	-11272
▁በመንገ	-11273
▁በልጅነቱ	-11274
▁በልብህ	-11275
▁ቍጥር	-11276
▁ቁርጠኛ	-11277
▁ሺሕ	-11278
▁ስለእሱ	-11279
▁ሳይኖር	-11280
▁ሜትር	-11281
▁ማዶ	-11282
▁መቅሰ	-11283
▁መቁረጥ	-11284
▁መሓሪ	-11285
▁መለኪያ	-11286
▁ለማጋራት	-11287
▁ለመለ	-11288
▁ሁለታችንም	-11289
▁WordP	-11290
▁WordPress	-11291
▁(እስከ	-11292
ፋቱ	-11293
ፋሉ።	-11294
ጊት	-11295
ገኙም።	-11296
ጂን	-11297
ካክ	-11298
ከፍሉ	-11299
ከፋፈል	-11300
እድገት	-11301
እነዚያንም	-11302
ቷቸው	-11303
ቆቹ	-11304
ስማሙ	-11305
ስላም	-11306
ርቀት	-11307
ራመድ	-11308
ሞቻቸው	-11309
ማደግ	-11310
መሆናችን	-11311
ሎግ	-11312
ልኛል	-11313
ላለን።	-11314
ላለች	-11315
ለንደን	-11316
ለምና	-11317
hi	-11318
FC	-11319
60	-11320
▁ፍርዱ	-11321
▁ጠጣ	-11322
▁ጠማማ	-11323
▁ድፍረት	-11324
▁ዴቪድ	-11325
▁ደንቆሮ	-11326
▁ይገመ	-11327
▁ይበላ	-11328
▁የካዱትን	-11329
▁የታወቁ	-11330
▁የተያያዘ	-11331
▁የቆየ	-11332
▁የሚያሳዝነው	-11333
▁የሚያዩ	-11334
▁የሚሻውን	-11335
▁የሚሄዱ	-11336
▁የመጡት	-11337
▁የፈር	-11338
▁የረ	-11339
▁ውሃው	-11340
▁ወንድማማቾች	-11341
▁ኺዱ፤	-11342
▁ክትትል	-11343
▁እንዲያስ	-11344
▁እኔ,	-11345
▁እስራኤልም	-11346
▁እርስዎም	-11347
▁እጠራ	-11348
▁እሰ	-11349
▁አድርጉ።	-11350
▁አትኹ	-11351
▁አስታውስ።	-11352
▁አስተባበ	-11353
▁አስከፊ	-11354
▁አመራ	-11355
▁አላምንም	-11356
▁አሰብ	-11357
▁ንጉሡን	-11358
▁ነበረበት።	-11359
▁ነዳጅ	-11360
▁ትንታ	-11361
▁ተፈት	-11362
▁ቤተሰቦቻቸውን	-11363
▁በዝርዝር	-11364
▁በበኩ	-11365
▁በመደበኛ	-11366
▁በመቅ	-11367
▁በነጋ	-11368
▁በምሳሌ	-11369
▁በሆን	-11370
▁ቆሻሻ	-11371
▁ቀሪውን	-11372
▁ሲነጻጸር	-11373
▁ምዕተ	-11374
▁ማሪያ	-11375
▁ሚዛናዊ	-11376
▁መስጠ	-11377
▁መሆንን	-11378
▁ሎጥም	-11379
▁ልዑል	-11380
▁ለማዳመጥ	-11381
▁ለሚያምኑ	-11382
▁ለመደ	-11383
▁Ch	-11384
▁36|	-11385
▁(ነ	-11386
▁(3	-11387
ጠቃሚዎች	-11388
ገሩኝ	-11389
ይስጥ	-11390
ያሜ	-11391
ዘዛ	-11392
ው፣	-11393
እኔም	-11394
ትም፤	-11395
ተዉ	-11396
ብራይስጥ	-11397
ቀዋል።	-11398
ረዳኝ	-11399
ሞንን	-11400
ምራለን	-11401
ማስተዋወቅ	-11402
ማኝ	-11403
ሙስሊሞች	-11404
መጋገብ	-11405
መተባበር	-11406
ሀን	-11407
ine	-11408
ies	-11409
AD	-11410
▁ጨምሮ)	-11411
▁ገባ።	-11412
▁ገነትን	-11413
▁ይሰጣሉ።	-11414
▁ያጋጠ	-11415
▁የተጀመረው	-11416
▁የማያምኑ	-11417
▁የሚጀምረው	-11418
▁የሚባለው	-11419
▁የኖረ	-11420
▁ዓላማው	-11421
▁ወገኖቹ	-11422
▁ወል	-11423
▁ከኮ	-11424
▁ከምድ	-11425
▁ኦፊ	-11426
▁እየተባለ;	-11427
▁እንዳይደክም.	-11428
▁እንጨ	-11429
▁ኤሌክትሪክ	-11430
▁ኢንቨስትመንት	-11431
▁አገናኝ	-11432
▁አደረግን።	-11433
▁አዘነ	-11434
▁አንዳችሁ	-11435
▁አብራ	-11436
▁አሻንጉ	-11437
▁አሳየኝ	-11438
▁አመጡ	-11439
▁አለብህ	-11440
▁አደን	-11441
▁ነዎት?	-11442
▁ነበርኩ።	-11443
▁ታስተባብ	-11444
▁ታካሚ	-11445
▁ታስባ	-11446
▁ተቀበል	-11447
▁ተከተሉ	-11448
▁ተቈ	-11449
▁ተሻሽ	-11450
▁በእውነቱ,	-11451
▁በእውነ	-11452
▁በእውቀት	-11453
▁በእስያ	-11454
▁በአዕምሮ	-11455
▁በርሳቸው,	-11456
▁በማን	-11457
▁በግሌ	-11458
▁በሂ	-11459
▁ሲያደርግ	-11460
▁ሰብአዊ	-11461
▁ራቅ	-11462
▁ምሕረቱ	-11463
▁ማቆሚያ	-11464
▁ማድረስ	-11465
▁መፍቀድ	-11466
▁መከላከል	-11467
▁ልውውጥ	-11468
▁ልከ	-11469
▁ለማፍ	-11470
▁ለነፍ	-11471
▁SEO	-11472
▁"እንግዲህ	-11473
ጣሪዎች	-11474
ግበራ	-11475
ጌታህ	-11476
ጋባ	-11477
ዳዮች	-11478
ያዘው	-11479
የው።	-11480
ዚች	-11481
ካተተ	-11482
ካቶሊክ	-11483
ኝ.	-11484
ንላችሁ	-11485
ናገኝ	-11486
ችላቸው	-11487
ቺን	-11488
ቷቸዋል።	-11489
ቲቭ	-11490
ተከታታይ	-11491
ቪዬ	-11492
ብሃል	-11493
ቃልህ	-11494
ቃቸው።	-11495
ቀ፤	-11496
ሳይንሳዊ	-11497
ሰበስባ	-11498
ሪዳ	-11499
ረዱ።	-11500
ረግን	-11501
ሣጽ	-11502
ማሰብ	-11503
ሙ፤	-11504
መናቸው	-11505
ለቲከ	-11506
ለሁ፣	-11507
ለቱ	-11508
ሃት	-11509
ሀል	-11510
له	-11511
_9	-11512
▁ጮኹ	-11513
▁ጠጡ	-11514
▁ይጫወታል	-11515
▁ይጠብቅ	-11516
▁ይሆናል፥	-11517
▁ያረጋግጣል	-11518
▁ያለሁት	-11519
▁ያሰ	-11520
▁የተገናኘ	-11521
▁የሰለ	-11522
▁የሚጣ	-11523
▁የለብዎትም	-11524
▁የሆነች	-11525
▁የጀመር	-11526
▁ውስጥ፣	-11527
▁ወደብ	-11528
▁ወራቶች	-11529
▁ወፍ	-11530
▁ከአባት	-11531
▁ከአብርሃም	-11532
▁እድሎች	-11533
▁እንዲገቡ	-11534
▁እንወዳለን	-11535
▁እንበል	-11536
▁እናስባ	-11537
▁እስትንፋስ	-11538
▁አንጀለስ	-11539
▁አሥርተ	-11540
▁አለ፥	-11541
▁ናቸው:	-11542
▁ናት.	-11543
▁ተካሂ	-11544
▁ተሰምቶ	-11545
▁ተረዳ	-11546
▁በማያ	-11547
▁በሚገኝ	-11548
▁በሩቅ	-11549
▁በሠ	-11550
▁ቀበ	-11551
▁ስለእርስዎ	-11552
▁ስለሌለ	-11553
▁ስፍር	-11554
▁ሰውየውም	-11555
▁ሰጭ	-11556
▁ማእከል	-11557
▁መጣል	-11558
▁መደገፍ	-11559
▁መምሪያ	-11560
▁መፃፍ	-11561
▁መሰብሰብ	-11562
▁ላለመ	-11563
▁ሊሠራ	-11564
▁ሆነ፥	-11565
▁ሂደቱን	-11566
▁[.	-11567
▁26|1	-11568
▁(ማቴ.	-11569
▁"አባቴ	-11570
ፓኒ	-11571
ፋፋት	-11572
ፀል	-11573
ጥታ	-11574
ጌታህም	-11575
ጋቡ	-11576
ገሉ	-11577
ዳል.	-11578
ደዱት	-11579
ደተኞች	-11580
ዝቅተኛ	-11581
ዓይ	-11582
ናግ	-11583
ቡዕ	-11584
በን	-11585
ሹን	-11586
ራሳችን	-11587
ማረው	-11588
መምረጥ	-11589
ላጦ	-11590
bet	-11591
Bet	-11592
▁ፈረን	-11593
▁ጠይዎች	-11594
▁ግሪክ	-11595
▁ድረስ፥	-11596
▁ይንገ	-11597
▁ይሰራል.	-11598
▁ይለወጣ	-11599
▁ያስተምራ	-11600
▁ያጠቃል	-11601
▁ያነ	-11602
▁የፈጠር	-11603
▁የዳዊ	-11604
▁የተወረደውን	-11605
▁የተሠራ	-11606
▁የምድርን	-11607
▁የማይረሳ	-11608
▁የሚያስፈልገውን	-11609
▁የሚቀርቡ	-11610
▁የፕሮ	-11611
▁የጭ	-11612
▁የመለ	-11613
▁የሎ	-11614
▁የሁለቱ	-11615
▁ውስጥ)	-11616
▁ውሳኔዎች	-11617
▁ወስዳ	-11618
▁ወያኔ	-11619
▁ኬሚ	-11620
▁ከመቶ	-11621
▁እያስተ	-11622
▁እየተናገረ	-11623
▁እንዲያምኑ	-11624
▁አይኖች	-11625
▁አውቶ	-11626
▁አስወግ	-11627
▁አስበው	-11628
▁አሰራር	-11629
▁አረጋ	-11630
▁ብርቱን	-11631
▁ባሕርይ	-11632
▁በዳይ	-11633
▁በነበራችሁት	-11634
▁በልጆች	-11635
▁ሮም	-11636
▁ማፍ	-11637
▁ማሰ	-11638
▁ሚሊ	-11639
▁መልክተኛው	-11640
▁መላእክትም	-11641
▁መጨ	-11642
▁ላከ።	-11643
▁ሊያጠፋ	-11644
▁ለአባቱ	-11645
▁ለአብዛኞቹ	-11646
▁ለበ	-11647
▁ለሴት	-11648
▁ለ.	-11649
▁ሆነች	-11650
▁ሃይል	-11651
▁COVID-19	-11652
▁59	-11653
▁000	-11654
▁(ቁርኣንን)	-11655
▁"አባ	-11656
ግለሰብ	-11657
ገጥ	-11658
ገላ	-11659
ደባባይ	-11660
ይረ	-11661
ዬም	-11662
የካ	-11663
ው፤	-11664
ንሰ-	-11665
ችሁትን	-11666
ቱና	-11667
ቡድ	-11668
ቆመ	-11669
ቅዶ	-11670
ሬሽን	-11671
ሠል	-11672
ምችት	-11673
ማጅ	-11674
ማሬ	-11675
ሕትና	-11676
ሐመድን	-11677
ሏት	-11678
ሊቱ	-11679
ለት፤	-11680
ህያ	-11681
_3	-11682
Tun	-11683
SE	-11684
▁ፖለቲካዊ	-11685
▁ጮኸ	-11686
▁ጥቁ	-11687
▁ጊዜ:	-11688
▁ገልጿ	-11689
▁ይፈጽ	-11690
▁ይደረጋል	-11691
▁ይከጀ	-11692
▁ይቀየ	-11693
▁ይከተሉ	-11694
▁ይራ	-11695
▁ያለው።	-11696
▁የኢየሱስን	-11697
▁የታሰበ	-11698
▁የተቆራ	-11699
▁የተሻለውን	-11700
▁የቤተክርስቲያን	-11701
▁የቆዩ	-11702
▁የሶስተኛ	-11703
▁የማያምኑት	-11704
▁የሚፈሩ	-11705
▁የሚወጡ	-11706
▁የሚከተለው	-11707
▁የሚቀጥለው	-11708
▁የሚመስል	-11709
▁የመላ	-11710
▁የጣ	-11711
▁የሥ	-11712
▁ወዳድ	-11713
▁ወርቃማ	-11714
▁ወለድ	-11715
▁ክርስትና	-11716
▁ካልቻሉ	-11717
▁ከክርስቶስ	-11718
▁ከሶ	-11719
▁ከምና	-11720
▁እንዲጠብቁ	-11721
▁እንደሚኖር	-11722
▁እንደሚኖሩ	-11723
▁እንሄዳለን	-11724
▁እንዳን	-11725
▁እኔስ	-11726
▁እዚሁ	-11727
▁አድርጐ	-11728
▁አይደለችም	-11729
▁አይኖሩ	-11730
▁አትሁኑ።	-11731
▁አትችልም።	-11732
▁አበዛ	-11733
▁አሉ?	-11734
▁አለብን.	-11735
▁ኖሮ፣	-11736
▁ንጋት	-11737
▁ተጽእኖ	-11738
▁ተገድ	-11739
▁ብቻ።	-11740
▁ብትሆኑ	-11741
▁በትዳር	-11742
▁በሚቆሙበት	-11743
▁በሰማያትና	-11744
▁በሕዝብ	-11745
▁ቀን.	-11746
▁ሲናገሩ	-11747
▁ሲቀር	-11748
▁ሰጪዎች	-11749
▁ማዕበል	-11750
▁ማዋ	-11751
▁ሕይወታችን	-11752
▁ልቦና	-11753
▁ላይ)	-11754
▁ለመልካም	-11755
▁ለመመርመር	-11756
▁ለልጁ	-11757
▁ለስራ	-11758
▁ሆስፒታ	-11759
▁iPad	-11760
▁35|	-11761
▁2001	-11762
▁1997	-11763
▁***	-11764
ፍሉ	-11765
ጽፍበት	-11766
ጣጠር	-11767
ዳንኤል	-11768
ዲቆይ	-11769
ዱባይ	-11770
ውይይት	-11771
ዋእ	-11772
ነሳሳት	-11773
ነዚያም	-11774
ችኋለሁ.	-11775
ቸውን?	-11776
ቶቹም	-11777
ትም፣	-11778
ታውቀው	-11779
ታንም	-11780
ተዋል,	-11781
ቪያ	-11782
በለው	-11783
ርስዋም	-11784
መወያየት	-11785
መንግሥ	-11786
መልአ	-11787
|13|	-11788
ex	-11789
ari	-11790
▁ጓደኛዎ	-11791
▁ግብጽ	-11792
▁ጌታው	-11793
▁ጊዜ)	-11794
▁ገብቷል	-11795
▁ገብርኤል	-11796
▁ዳሩ	-11797
▁ይሰራል	-11798
▁ይላቸዋል።	-11799
▁ያለፈው	-11800
▁ያለነው	-11801
▁ያደረጉት	-11802
▁የተጻፈው	-11803
▁የተደራ	-11804
▁የተቀመጠ	-11805
▁የሰጠናቸው	-11806
▁የሚታወቁ	-11807
▁የሚሰበሰቡ	-11808
▁የኪ	-11809
▁ዘግይቶ	-11810
▁ዘፈ	-11811
▁ዓሦ	-11812
▁ውርደት	-11813
▁ውርርድ	-11814
▁ወቅቶች	-11815
▁ከአን	-11816
▁ከሓዲዎች	-11817
▁ከሺህ	-11818
▁ኦፊሴ	-11819
▁ኦፊሴላዊ	-11820
▁እንድናደርግ	-11821
▁እንሠራ	-11822
▁እነሱንም	-11823
▁ኢየሱስ፣	-11824
▁አይደላችሁም	-11825
▁አብዮ	-11826
▁አባቶቻችንን	-11827
▁አስቤ	-11828
▁አልወድ	-11829
▁አልኩ	-11830
▁አላስተዋ	-11831
▁ንግሥት	-11832
▁ነገሥት	-11833
▁ትታ	-11834
▁ታውቃላችሁ.	-11835
▁ተኝቶ	-11836
▁ተነሱ	-11837
▁ቬጋስ	-11838
▁በአንፃ	-11839
▁በንጹ	-11840
▁በሺህ	-11841
▁በስውር	-11842
▁በሰባተኛው	-11843
▁በመኪና	-11844
▁በትምህ	-11845
▁በቍ	-11846
▁በምና	-11847
▁ቅጥ	-11848
▁ቀላሉ	-11849
▁ሰማያትንና	-11850
▁መግባ	-11851
▁መዋል	-11852
▁ላይ።	-11853
▁ሊያድ	-11854
▁ሊረዳህ	-11855
▁ለተለያዩ	-11856
▁ለህዝ	-11857
▁dr	-11858
▁crypto	-11859
▁1.	-11860
▁(ዓለም	-11861
▁"የሰው	-11862
ፈጥሩ	-11863
ጎን	-11864
ጋሪያ	-11865
ገራችሁ	-11866
ጆቻችን	-11867
ደንበኛ	-11868
ደናቂ	-11869
የካቲት	-11870
ዊን	-11871
ንቁ	-11872
ችኋለሁ፤	-11873
ትን፣	-11874
ትርፍ	-11875
በዚህ	-11876
ቀኝነት	-11877
ሽከርከር	-11878
ሽ?	-11879
ሳሳቱ	-11880
ሱትን	-11881
ራቸውም።	-11882
ረተው	-11883
ሞቹን	-11884
ምሳ	-11885
ሙሳም	-11886
ሙንም	-11887
መምራት	-11888
መሸፈን	-11889
ለማችን	-11890
▁ጻፍ	-11891
▁ጥሩውን	-11892
▁ጉግል	-11893
▁ዲዳ	-11894
▁ደጃ	-11895
▁ይጀምሩ	-11896
▁ይላል,	-11897
▁ይፈልግ	-11898
▁ይመጡ	-11899
▁ያስተም	-11900
▁ያለውም	-11901
▁የአከባቢ	-11902
▁የአር	-11903
▁የተመዘገበ	-11904
▁የተደረጉ	-11905
▁የተረገ	-11906
▁የተማረ	-11907
▁የሚያስከት	-11908
▁የወጡ	-11909
▁የብርሃን	-11910
▁ዓመታት.	-11911
▁ውረድ	-11912
▁ውለታ	-11913
▁ወንድሞቻችን	-11914
▁ክትባ	-11915
▁ከትዕግ	-11916
▁ከትዕግስተኞች	-11917
▁ከተለመደው	-11918
▁ከበፊቱ	-11919
▁እንሰጥ	-11920
▁እነርሱንም	-11921
▁እስማማ	-11922
▁እቆ	-11923
▁እረ	-11924
▁አባቷ	-11925
▁አስከ	-11926
▁አሰልጣኝ	-11927
▁አምጡልኝ	-11928
▁አመጣጥ	-11929
▁አለፈ	-11930
▁ነገሥ	-11931
▁ነኝና	-11932
▁ኅብረት	-11933
▁ኃይሉ	-11934
▁ትእዛዛ	-11935
▁ታውቃለህ።	-11936
▁ተቆጥ	-11937
▁ተገናኘ	-11938
▁ተገነዘብ	-11939
▁ተዉ	-11940
▁ተለያዩ	-11941
▁ባለቤቷ	-11942
▁በአጠቃላይ	-11943
▁በተዓምራ	-11944
▁በጠቅላላው	-11945
▁በቻ	-11946
▁በሙ	-11947
▁በል።	-11948
▁ቅርቢ	-11949
▁ሞገ	-11950
▁ምድራዊ	-11951
▁ምክንያቱ	-11952
▁ምስክሮችም	-11953
▁ማብቂያ	-11954
▁ማቴ	-11955
▁መስዋእ	-11956
▁መምጣ	-11957
▁መሐላ	-11958
▁መልዕክተኞቻችንን	-11959
▁መሆን,	-11960
▁ልብሶች	-11961
▁ለነሱም	-11962
▁ለማመስገን	-11963
▁ሄጄ	-11964
▁ሁነ	-11965
▁10%	-11966
▁(3)	-11967
▁'አንተ	-11968
ፍትህ	-11969
ፍታ	-11970
ጽድቅ	-11971
ጐደ	-11972
ከፍት	-11973
እናንተም	-11974
ናል?	-11975
ኋቸው።	-11976
ቦቻችን	-11977
ቀሚያ	-11978
ስቲክ	-11979
ሳወቅ	-11980
ሳትም	-11981
ሳለሁ	-11982
ሰጣቸውን	-11983
ራተኛው	-11984
ረፍተ	-11985
ሚን	-11986
መሳሰል	-11987
ሏቸውን	-11988
ልስጥኤማውያን	-11989
urren	-11990
up	-11991
rom	-11992
Tunes	-11993
16	-11994
▁ፓውንድ	-11995
▁ፓስፖርት	-11996
▁ፈጸ	-11997
▁ጸልዩ	-11998
▁ገላጭ	-11999
▁ድረስ።	-12000
▁ድሆች	-12001
▁ዮናታን	-12002
▁ይባረ	-12003
▁ያቀርቡ	-12004
▁የእናት	-12005
▁የትኛውን	-12006
▁የተገኘው	-12007
▁የተቋቋመ	-12008
▁የብል	-12009
▁የማያቋርጥ	-12010
▁የሚችሉበት	-12011
▁የሚን	-12012
▁የለባቸውም።	-12013
▁የሲ	-12014
▁የሆ	-12015
▁ዓመቴ	-12016
▁ዒላማ	-12017
▁ውይይቶች	-12018
▁ከአንዱ	-12019
▁እንዲያገኝ	-12020
▁እንዲገባ	-12021
▁እንዲመጡ	-12022
▁እንደሚሆኑ	-12023
▁እስራኤልን	-12024
▁አደረግነው።	-12025
▁አይፈልጉም	-12026
▁አይርሱ	-12027
▁አይመስል	-12028
▁አያስፈልጋ	-12029
▁አቅኚ	-12030
▁አቀባበል	-12031
▁አሳያ	-12032
▁አረቢያ	-12033
▁አድን	-12034
▁አቤ	-12035
▁ንቅ	-12036
▁ነኝ?	-12037
▁ነህ.	-12038
▁ትኩስ	-12039
▁ታግ	-12040
▁ተቀባ	-12041
▁ተክል	-12042
▁ተመለከት	-12043
▁በድፍረት	-12044
▁በተመሳሳይ,	-12045
▁በተሳሳተ	-12046
▁በብሉይ	-12047
▁በመጨረሻይቱም	-12048
▁በመጽሐ	-12049
▁በኀ	-12050
▁ቀን።	-12051
▁ስትኾኑ	-12052
▁ስለሌ	-12053
▁ሞል	-12054
▁ማንኛ	-12055
▁ሚስቱም	-12056
▁ሙሉውን	-12057
▁መጣጥ	-12058
▁መዛሙርቱም	-12059
▁መዋጮ	-12060
▁መንገድም	-12061
▁መንቀሳቀስ	-12062
▁ሐሳቦች	-12063
▁ልብን	-12064
▁ህፃን	-12065
▁1991	-12066
▁..."	-12067
▁'አ	-12068
▁"ጥሩ	-12069
▁"ምንም	-12070
፡2	-12071
ፓኒሽ	-12072
ፏል።	-12073
ፍጠር	-12074
ጠብቀው	-12075
ጠቀምባቸው	-12076
ዞት	-12077
ዕና	-12078
ውያንን	-12079
ኳት	-12080
ኢንተርኔት	-12081
ኖቻቸው	-12082
ኔንም	-12083
ኑትን	-12084
ችኋቸው	-12085
ትያን	-12086
ቦን	-12087
ባህል	-12088
ቡዓን	-12089
ቀበለው	-12090
ስቱም	-12091
ሰማት	-12092
ሰኛ	-12093
ራሚ	-12094
ራለሁ	-12095
ረክ	-12096
ምፒክ	-12097
መጥፎ	-12098
መናችን	-12099
መሳብ	-12100
መከላከያ	-12101
ለች፦	-12102
|12|	-12103
ate	-12104
av	-12105
*።	-12106
▁‹‹ከ	-12107
▁ጨካኝ	-12108
▁ግድያ	-12109
▁ጃን	-12110
▁ዶክተ	-12111
▁ይቆዩ	-12112
▁ይመጣል.	-12113
▁ይላል.	-12114
▁ይስጥ	-12115
▁ያውቃል.	-12116
▁ያሳል	-12117
▁ያምናሉ.	-12118
▁ያለብኝ	-12119
▁የጎደለው	-12120
▁የካር	-12121
▁የእን	-12122
▁የአኗኗር	-12123
▁የተፈቀደ	-12124
▁የተጠራ	-12125
▁የተማር	-12126
▁የሚታየው	-12127
▁የሚቆይ	-12128
▁የመል	-12129
▁የያዙ	-12130
▁ዝነኛ	-12131
▁ዜጎ	-12132
▁ክብሩን	-12133
▁ከእርስዋ	-12134
▁ከግብ	-12135
▁ከአብ	-12136
▁እውነት,	-12137
▁እንዲሰሩ	-12138
▁እንደሚቻለው	-12139
▁እጸል	-12140
▁አድርጋ	-12141
▁አይታይ	-12142
▁አውቃለሁ.	-12143
▁አምላክ፣	-12144
▁አልተደረገ	-12145
▁አለብን?	-12146
▁አለ!	-12147
▁ኃጢአተኞች	-12148
▁ትዕዛዛት	-12149
▁ትዕቢ	-12150
▁ትችላላችሁ	-12151
▁ታዳጊ	-12152
▁ተቀመጥ	-12153
▁ተሰበሰቡ።	-12154
▁ተርፎም	-12155
▁ተፈጸመ	-12156
▁ተከሰተ	-12157
▁በተመሳሳይም	-12158
▁በቀኙ	-12159
▁በመር	-12160
▁በመመልከት	-12161
▁በሕጋዊ	-12162
▁በኾነው	-12163
▁በንግ	-12164
▁በነበሩ	-12165
▁ቆራ	-12166
▁ቅጽበት	-12167
▁ቁርጠኝነት	-12168
▁ቀርበው	-12169
▁ስያሜ	-12170
▁ስሕ	-12171
▁ሰጠው።	-12172
▁ሰጡ	-12173
▁ሩሌት	-12174
▁ሞዓብ	-12175
▁መግለጽ	-12176
▁መናፍቃ	-12177
▁መዘግ	-12178
▁መወያየት	-12179
▁ሌባ	-12180
▁ሊያገለግል	-12181
▁ለአው	-12182
▁ለተወሰኑ	-12183
▁ለሚፈሩት	-12184
▁ህፃናት	-12185
▁ህያው	-12186
▁ሃገር	-12187
▁ሃይ	-12188
ጽዳት	-12189
ጹን	-12190
ጥበ	-12191
ጠህ	-12192
ጋብ	-12193
ገደለ	-12194
ገኝ።	-12195
ጅና	-12196
ድኃኒ	-12197
ያፊ	-12198
ዥያ	-12199
ዜር	-12200
ወና	-12201
ክብሮት	-12202
ነር	-12203
ቸኳይ	-12204
ታለል	-12205
ተኞቻቸው	-12206
ብራራት	-12207
ባቸውና	-12208
ሽ።	-12209
ርሃዊ	-12210
ረጠ	-12211
ማህበረሰብ	-12212
መጨረሻው	-12213
መቃብር	-12214
ሃልን?	-12215
se	-12216
-አ	-12217
's	-12218
▁ፍሰት	-12219
▁ፈሪሳውያን	-12220
▁ጢሞቴዎስ	-12221
▁ጠጥ	-12222
▁ጠንቋ	-12223
▁ጌታውን	-12224
▁ጉጉት	-12225
▁ገበያው	-12226
▁ድምፃ	-12227
▁ይፈረድ	-12228
▁ይገኛሉ.	-12229
▁ይታያሉ	-12230
▁ይሻላል።	-12231
▁ይሰማኛል።	-12232
▁ይሠራል።	-12233
▁ይደው	-12234
▁ያግኙ.	-12235
▁ያዛ	-12236
▁የእነርሱ	-12237
▁የአንተን	-12238
▁የነበራችሁትን	-12239
▁የምስክር	-12240
▁የሉጥ	-12241
▁ዘለዓለም	-12242
▁ወጪዎችን	-12243
▁ከሰይጣን	-12244
▁ከይሖዋ	-12245
▁ከካ	-12246
▁ከ2	-12247
▁እፈራለሁ	-12248
▁እንደማል	-12249
▁እንጠይቃ	-12250
▁እሴቶች	-12251
▁አደረጉ።	-12252
▁አይገባም።	-12253
▁አይደሉም,	-12254
▁አትችሉም	-12255
▁አሉ፦	-12256
▁አሰጣ	-12257
▁አራዊት	-12258
▁አሠራር	-12259
▁ነገርም	-12260
▁ነው››	-12261
▁ነዉ፤	-12262
▁ትችላለህ.	-12263
▁ትገኛ	-12264
▁ታስታውሳ	-12265
▁ተገዝ	-12266
▁ተኳ	-12267
▁ቢመጣ	-12268
▁በድንጋይ	-12269
▁በቅርቢቱም	-12270
▁በሰንበት	-12271
▁በመሠረቱ	-12272
▁በመንግሥ	-12273
▁በልባችሁ	-12274
▁በቆ	-12275
▁ስፔን	-12276
▁ሲያዩ	-12277
▁ሰዓቲቱ	-12278
▁ሰገዱ	-12279
▁ራሳችን	-12280
▁ሥቃይ	-12281
▁ሞባይል	-12282
▁ምእመና	-12283
▁መጠለያ	-12284
▁መዋጋት	-12285
▁መረጠ	-12286
▁መልካሞች	-12287
▁መሆኗን	-12288
▁መግባባት	-12289
▁ለጥያቄ	-12290
▁ለሚገኙ	-12291
▁Pay	-12292
▁More	-12293
▁9፤	-12294
▁(ሁሉ)	-12295
▁(ጣዖ	-12296
▁'አትፍራ	-12297
▁"አዎን	-12298
▁"ሕዝ	-12299
▁"'	-12300
ፈርስ	-12301
ፃሚ	-12302
ጸጋ	-12303
ጸአት	-12304
ገድሉኝ	-12305
ገለጽ	-12306
ኝ፥	-12307
ንቀጠቀ	-12308
ነው፣	-12309
ቸውንም	-12310
ቶቡስ	-12311
ብዛም	-12312
ሯቸው።	-12313
ሮሜ	-12314
ምታ	-12315
ማሉ።	-12316
መላእክት	-12317
ለግ	-12318
ሀነምን	-12319
og	-12320
▁ፖርቱጋል	-12321
▁ፖለቲከ	-12322
▁ፈጥረ	-12323
▁ፈን	-12324
▁ፆታ	-12325
▁ጊዜ፤	-12326
▁ድንጋጌ	-12327
▁ዲዛይን	-12328
▁ይጠየ	-12329
▁ይኑራችሁ	-12330
▁ይታያል።	-12331
▁ይመጣሉ።	-12332
▁ይጓዛ	-12333
▁ይሳ	-12334
▁የአስተ	-12335
▁የአሮን	-12336
▁የተሰጡት	-12337
▁የተሰበ	-12338
▁የበጎ	-12339
▁የሶፍትዌር	-12340
▁የሚገልጽ	-12341
▁የሚያስፈልገው	-12342
▁የሚያመል	-12343
▁የሚጠሩ	-12344
▁የመጀመሪያዎቹን	-12345
▁የልጁ	-12346
▁ዘፈን	-12347
▁ውሸትን	-12348
▁ውል	-12349
▁ዋሻ	-12350
▁ወግ	-12351
▁ኮሌ	-12352
▁ክምችት	-12353
▁ከፋ!	-12354
▁ከዓመታት	-12355
▁ከለ	-12356
▁እድሉን	-12357
▁እየተሻሻ	-12358
▁እውነትና	-12359
▁እኩለ	-12360
▁እንላለን	-12361
▁እባብ	-12362
▁እሰጠ	-12363
▁አይገኝም	-12364
▁አንበ	-12365
▁አሸነ	-12366
▁አክስ	-12367
▁አኑ	-12368
▁ትዕይን	-12369
▁ትንታኔ	-12370
▁ትሆናለች	-12371
▁ታዛዥ	-12372
▁ተወካ	-12373
▁ተቀይ	-12374
▁ተጉ	-12375
▁ተከላ	-12376
▁ብቻህን	-12377
▁በአፋቸው	-12378
▁በቤተክርስቲያን	-12379
▁በስሙ	-12380
▁በመጀመሪያ,	-12381
▁በሰው	-12382
▁ቆመ	-12383
▁ቅንጣት	-12384
▁ቅርጽ	-12385
▁ሲነፃፀር	-12386
▁ሰው.	-12387
▁ማርቆስ	-12388
▁መጥታ	-12389
▁መጀመሪያው	-12390
▁መጫን	-12391
▁መቻ	-12392
▁ሕመም	-12393
▁ሎተሪ	-12394
▁ለመጫን	-12395
▁ለገ	-12396
▁ሄድ	-12397
▁iTunes	-12398
▁54	-12399
▁51	-12400
▁17እነርሱም፣	-12401
▁1)	-12402
▁(200	-12403
▁"የእኔ	-12404
▁"ስለዚህ	-12405
ፅን	-12406
ጽናና	-12407
ጫዋ	-12408
ገዙት	-12409
ገመት	-12410
ዶቻችን	-12411
ድንጋይ	-12412
ድምጽ	-12413
ዋቂዎች	-12414
ኮሩ	-12415
ንጎ	-12416
ኔም	-12417
ናናት	-12418
ነዚህም	-12419
ችኋልን	-12420
ታወቁ	-12421
ቦቻችሁ	-12422
ቀ።	-12423
ሸጡ	-12424
ስቲክስ	-12425
ሲያዊ	-12426
ሱንም	-12427
ሰማን	-12428
ምስጋና	-12429
መሞከር	-12430
ላል፤	-12431
ላሁ	-12432
ሉም፤	-12433
ህበረ	-12434
ሁድን	-12435
ort	-12436
ith	-12437
TO	-12438
Google	-12439
▁ጲላጦ	-12440
▁ጨር	-12441
▁ጥቃቅን	-12442
▁ጠራው	-12443
▁ድህነት	-12444
▁ዮርዳኖስ	-12445
▁ይፈቅ	-12446
▁ይጠራል።	-12447
▁ይጠሩ	-12448
▁ይደግፋ	-12449
▁ይኑር	-12450
▁ይቀበላል።	-12451
▁ይሰጣል,	-12452
▁ይላሉ፤	-12453
▁ይጮኻ	-12454
▁ይኽ	-12455
▁ያስፈራ	-12456
▁ያስገቡ	-12457
▁ያር	-12458
▁የጥን	-12459
▁የእውቀት	-12460
▁የተወለዱ	-12461
▁የተመካ	-12462
▁የሠራች	-12463
▁የምትኖር	-12464
▁የሚመረ	-12465
▁የመጀመሪያዋ	-12466
▁የላቸውም.	-12467
▁የደንበ	-12468
▁ዜናዎች	-12469
▁ውቅያኖስ	-12470
▁ክቡር	-12471
▁ካላችሁ	-12472
▁ከቤተሰቡ	-12473
▁ከሓዲዎቹ	-12474
▁ከገንዘብ	-12475
▁እንመለከታለን	-12476
▁እምብዛም	-12477
▁እላ	-12478
▁አጋንን	-12479
▁አያስፈልጋቸው	-12480
▁አጸ	-12481
▁አወድ	-12482
▁አሁኑ	-12483
▁ነብይ	-12484
▁ነህ"	-12485
▁ትርፋ	-12486
▁ትገባ	-12487
▁ትሆን	-12488
▁ተቀማጭ	-12489
▁ተመሠረተ	-12490
▁ብቻቸውን	-12491
▁በአጋጣሚ	-12492
▁በሕይወትዎ	-12493
▁ቋንቋዎችን	-12494
▁ቅቡዓን	-12495
▁ስማቸው	-12496
▁ስሚ	-12497
▁ሰዶ	-12498
▁ምናባዊ	-12499
▁ምጽ	-12500
▁ማርች	-12501
▁ማማ	-12502
▁ልቅ	-12503
▁ሊቃውንት	-12504
▁ሊግ	-12505
▁ለአንዳን	-12506
▁ለመንገር	-12507
▁ለሥራ	-12508
▁ህልሞች	-12509
▁75	-12510
▁37|1	-12511
▁39|	-12512
▁(ሙሳ)	-12513
▁"ነገር	-12514
ፍረድ	-12515
ፈጥር	-12516
ጫወተ	-12517
ጡት፤	-12518
ገፋ	-12519
ዮሐ	-12520
ዕሶች	-12521
ዋቸው።	-12522
ዋቸውን	-12523
ወደውን	-12524
ከበረው	-12525
ከሉ	-12526
ኦግራ	-12527
እርሷ	-12528
አስተ	-12529
ኅንነት	-12530
ቶቻችሁም	-12531
ቱ)	-12532
ተረጎ	-12533
ሽቀዳ	-12534
ረሕማን	-12535
ማስቆ	-12536
መጣል	-12537
መቻቸት	-12538
መርየም	-12539
መፈጸም	-12540
ልናል።	-12541
ላችኋለሁ።	-12542
ላችንን	-12543
ላሴ	-12544
ለም)	-12545
ለፉት	-12546
▁ፕሮጄክ	-12547
▁ፋይዳ	-12548
▁ፈለገ።	-12549
▁ጥበበኛው	-12550
▁ጥገኛ	-12551
▁ጓደኛህ	-12552
▁ግብዞች	-12553
▁ግጭ	-12554
▁ጊዜያቸውን	-12555
▁ገንብ	-12556
▁ደግነት	-12557
▁ደክ	-12558
▁ይፈሩታል።	-12559
▁ይፈልጋሉ,	-12560
▁ይይዛል	-12561
▁ይዛመ	-12562
▁ይወድቃሉ	-12563
▁ይወክ	-12564
▁ይችላል፤	-12565
▁ይሆናሉ?	-12566
▁ይማራ	-12567
▁ያለች	-12568
▁የይሖዋን	-12569
▁የነበር	-12570
▁የተመሠ	-12571
▁የምትፈልገው	-12572
▁የሚታዩ	-12573
▁የሚደርስ	-12574
▁የሚደረገው	-12575
▁ዓለት	-12576
▁ውድቅ	-12577
▁ወጣ.	-12578
▁ክህሎ	-12579
▁ከታላ	-12580
▁ከበደ	-12581
▁ከነበረው	-12582
▁እንደሚያሳየው	-12583
▁እንደሚለው፣	-12584
▁እንቆማለን፣	-12585
▁እርሾ	-12586
▁እጣ	-12587
▁አድጓ	-12588
▁አይደለም፣	-12589
▁አዘዘ።	-12590
▁አካዳሚ	-12591
▁አንዱም	-12592
▁አስኪያ	-12593
▁አሰልቺ	-12594
▁አመኑ፥	-12595
▁አልነበረምን?	-12596
▁አላፊ	-12597
▁አለመኖር	-12598
▁አለመኖሩ	-12599
▁አላል	-12600
▁ትም	-12601
▁ታገሱም፤	-12602
▁ተቀላ	-12603
▁ተልከናልና	-12604
▁ተልከናልና'	-12605
▁ተወላጅ	-12606
▁ተረት	-12607
▁ባለትዳ	-12608
▁ባህሎች	-12609
▁በጽሑፍ	-12610
▁በጎዳና	-12611
▁በአንፃራዊ	-12612
▁በሁሉ	-12613
▁ቀጥተኛው	-12614
▁ሴትየዋ	-12615
▁ሳኦልም	-12616
▁ሲጋራ	-12617
▁ሲደርሱ	-12618
▁ሰማሁ	-12619
▁ሕሊና	-12620
▁ሊጠቀሙበት	-12621
▁ለእግር	-12622
▁ለመጠጣት	-12623
▁ሃገ	-12624
▁8፤	-12625
▁57	-12626
▁14፡10	-12627
▁14፡10-12	-12628
▁13፤	-12629
▁(ዓለም)	-12630
▁(በተ	-12631
▁(ሥራ	-12632
▁"ት	-12633
▁"መን	-12634
ፕሎ	-12635
ፈልጉበት	-12636
ጭበር	-12637
ጥፋ	-12638
ጣሉ፤	-12639
ገቢው	-12640
ገኘት	-12641
ገራቸው	-12642
ውንና	-12643
ውቀውን	-12644
ኾና	-12645
ካቾች	-12646
ቻችሁም	-12647
ታህሳስ	-12648
ተርፍ	-12649
ተነ	-12650
ቤቷ	-12651
ባበቅ	-12652
በረታታት	-12653
ስፈራሪዎቹ	-12654
ስተዋል	-12655
ሳም	-12656
ሯት	-12657
ርጂያ	-12658
ርፎ	-12659
ርባ	-12660
ራዊቱ	-12661
ማይካ	-12662
ሙ.	-12663
መለከቱምን?	-12664
ልሃል።	-12665
ላችኋል፤	-12666
ላል,	-12667
ህንና	-12668
ህልን	-12669
ung	-12670
ha	-12671
PN	-12672
PA	-12673
:40	-12674
▁፳፬	-12675
▁ፌዴ	-12676
▁ጽዮን	-12677
▁ጋዝ	-12678
▁ይፈርድ	-12679
▁ይገናኛ	-12680
▁ያስባሉ?	-12681
▁ያለበትን	-12682
▁ያደረጋ	-12683
▁የችሮታ	-12684
▁የተጻፈውን	-12685
▁የብልግና	-12686
▁የማያደርግ	-12687
▁የሚቆሙትን	-12688
▁የጆ	-12689
▁ዘንድ።	-12690
▁ዋይ	-12691
▁ከጌታቸው	-12692
▁ከመው	-12693
▁ከመሰ	-12694
▁ከቻይና	-12695
▁እግዚአብሔር፤	-12696
▁እግሮች	-12697
▁እየተጠቀሙ	-12698
▁እየጠበቁ	-12699
▁እንገነዘባ	-12700
▁እናንተንም	-12701
▁እፈልግ	-12702
▁እሳትን	-12703
▁ኢዮአብ	-12704
▁አይሰሙ	-12705
▁አብዛኞቻችሁ	-12706
▁አባታቸው	-12707
▁አስታራቂ	-12708
▁አስተባበለ	-12709
▁አስቦ	-12710
▁አልደረሰ	-12711
▁አላደርግ	-12712
▁አእም	-12713
▁አሪ	-12714
▁ነፍሶቻቸውን	-12715
▁ትዕዛዞች	-12716
▁ትርዒ	-12717
▁ትግበራ	-12718
▁ተደስ	-12719
▁ተነግ	-12720
▁ተገኘ	-12721
▁ቤተሰቦች	-12722
▁ባለስልጣናት	-12723
▁ባርያ	-12724
▁ባመኑ	-12725
▁በአደባባይ	-12726
▁በአትክል	-12727
▁በልብ	-12728
▁በኵ	-12729
▁በቪዲዮ	-12730
▁በሰበሰብ	-12731
▁ስለሆን	-12732
▁ሠራ።	-12733
▁ማስተካከያ	-12734
▁ማይል	-12735
▁መገሰ	-12736
▁መለሱለት።	-12737
▁ሐሴት	-12738
▁ላይ፣	-12739
▁ሊያድን	-12740
▁ለአጭር	-12741
▁ለናንተም	-12742
▁ለራሳችን	-12743
▁ለመመዝገብ	-12744
▁ለመሆን	-12745
▁ሁሉ።	-12746
▁(አል	-12747
▁((	-12748
ጤን	-12749
ጠቀስ	-12750
ደርግል	-12751
ዮስ	-12752
ዊያው	-12753
ወላጆቼ	-12754
ኮሌጅ	-12755
ካትት	-12756
ኩር	-12757
እድሜ	-12758
አስቸኳይ	-12759
አያ	-12760
በቂያ	-12761
በርት	-12762
ቋቋመው	-12763
ሰጥም	-12764
ሯችን	-12765
ሪያው	-12766
መተግበር	-12767
መርከብ	-12768
መዘገቡ	-12769
ሏቸዋል።	-12770
ሎሪዳ	-12771
ans	-12772
TS	-12773
3|"	-12774
-4	-12775
▁‹‹አ	-12776
▁‹በ	-12777
▁ጻፈ	-12778
▁ጫካ	-12779
▁ጓደኛው	-12780
▁ገላ	-12781
▁ድረስም	-12782
▁ደንበኛው	-12783
▁ይኖራል.	-12784
▁ይገነዘ	-12785
▁ይመርጣ	-12786
▁ይመረ	-12787
▁ያገለ	-12788
▁የጻድቃን	-12789
▁የእነ	-12790
▁የራሴን	-12791
▁የማደርገውን	-12792
▁የሚሠራው	-12793
▁የሚወጣ	-12794
▁የፈለግ	-12795
▁የሞላ	-12796
▁ዘንድም	-12797
▁ዕድሎችን	-12798
▁ወሲብ	-12799
▁ክሬ	-12800
▁ከሚገኙት	-12801
▁ከሚሠሩት	-12802
▁ከውስጥ	-12803
▁ከውሃ	-12804
▁እጄን	-12805
▁እጁንም	-12806
▁እያንዳንዱም	-12807
▁እንዲያው	-12808
▁ኢሜይል	-12809
▁አጋጥሞ	-12810
▁አድርገዋል።	-12811
▁አድርገናል	-12812
▁አይሰራም	-12813
▁አይን	-12814
▁አይቀ	-12815
▁አያስፈልገንም	-12816
▁አልነበሩም።	-12817
▁አላደረጉም	-12818
▁አላደረግ	-12819
▁አዶ	-12820
▁ንጉሱ	-12821
▁ነህ,	-12822
▁ትላንት	-12823
▁ትሄዳ	-12824
▁ተፈጠረ	-12825
▁ተነሡ	-12826
▁ተንቀሳቃሽ	-12827
▁ተመጣጣኝ	-12828
▁በውስጤ	-12829
▁በኔዘርላንድስ	-12830
▁በለዓ	-12831
▁በታማ	-12832
▁በባህ	-12833
▁ቀጣዩን	-12834
▁ስጣቸው	-12835
▁ሰዎቹም	-12836
▁ሩት	-12837
▁ረዳቴ	-12838
▁መለከት	-12839
▁መረዳ	-12840
▁መ:	-12841
▁ልጆቻችሁን	-12842
▁ሊያስከትል	-12843
▁ሊኖርዎት	-12844
▁ለካዱት	-12845
▁ለራሳችሁ	-12846
▁ለሙሴ	-12847
▁ሃብት	-12848
▁ሀይ	-12849
▁The	-12850
▁Net	-12851
▁"የእግዚአብሔር	-12852
ፎን	-12853
ፈጸመው	-12854
ጮኹ	-12855
ዳው	-12856
ያትር	-12857
ወገዱ	-12858
ካቸውን	-12859
ካል።	-12860
ከፋፈ	-12861
ከበረች	-12862
ኖራችሁ	-12863
ንንና	-12864
ናገርም	-12865
በድ	-12866
ቃደኝነት	-12867
ቀረው	-12868
ሽቀዳደሙ	-12869
ሴይ	-12870
ሱፍ	-12871
ሞቱም	-12872
መስሉ	-12873
መለከታቸው	-12874
መቶች	-12875
ለቁ	-12876
ህትና	-12877
|15|	-12878
ri	-12879
____	-12880
_19	-12881
IS	-12882
▁ፈፅ	-12883
▁ፈሳሽ	-12884
▁ጥያቄው	-12885
▁ግማሹን	-12886
▁ጋዜጠኞች	-12887
▁ጄምስ	-12888
▁ደነገ	-12889
▁ይጨምራል።	-12890
▁ይስጡ	-12891
▁ይማሩ	-12892
▁ያየሁት	-12893
▁የጻድቅ	-12894
▁የእግዚአብሔርንም	-12895
▁የእስራኤል	-12896
▁የሠራችዉን	-12897
▁የልጁን	-12898
▁የጠፉ	-12899
▁የቪ	-12900
▁የህይወ	-12901
▁ዓለ	-12902
▁ወንድምህ	-12903
▁ወጡ።	-12904
▁ወተ	-12905
▁ወርሃዊ	-12906
▁ካለህ	-12907
▁ከነሱም	-12908
▁ከች	-12909
▁ከላ	-12910
▁ከሁ	-12911
▁እንዳደረጉ	-12912
▁እንደሚታ	-12913
▁እንደሚል	-12914
▁እልካ	-12915
▁እጩ	-12916
▁አደገ	-12917
▁አይደለህም።	-12918
▁አይገቡ	-12919
▁አይተናል	-12920
▁አብሮት	-12921
▁አባዬ	-12922
▁አስተማሪዎች	-12923
▁አምሳል	-12924
▁አማልክትን	-12925
▁አመጣንላችሁ	-12926
▁አለችው	-12927
▁አበረታ	-12928
▁ናቸው፣	-12929
▁ትክክለኛነት	-12930
▁ትሁት	-12931
▁ተግሣጽ	-12932
▁ተከስቷል.	-12933
▁ተናግሬ	-12934
▁ተከተሉት	-12935
▁በጌታዬ	-12936
▁በከዋክብት	-12937
▁በእጃችሁ	-12938
▁በቶሎ	-12939
▁በቅን	-12940
▁በጣ	-12941
▁በሙያ	-12942
▁ቀጥሎም	-12943
▁ስልቶች	-12944
▁ሳጥን	-12945
▁ሳያስ	-12946
▁ረቡዕ	-12947
▁ምእምና	-12948
▁መፅሃፍ	-12949
▁መገሰጫ	-12950
▁መውጫ	-12951
▁መታመን	-12952
▁መቁጠሪያ	-12953
▁መለከትም	-12954
▁መሆንህን	-12955
▁መኳ	-12956
▁መረጥ	-12957
▁ሌዋውያን	-12958
▁ሊደርስ	-12959
▁ለመቆ	-12960
▁ለመቅ	-12961
▁ሄደህ	-12962
▁re	-12963
▁62	-12964
▁600	-12965
▁."	-12966
▁(ኢሳይያስ	-12967
▁(አላቸው)	-12968
▁(በዚህ	-12969
▁"ደ	-12970
ፈቀ	-12971
ፆታ	-12972
ፀን	-12973
ጎት	-12974
ገደብ	-12975
ዷል.	-12976
ዳሰሳ	-12977
ዖል	-12978
ውን)	-12979
ነቷ	-12980
ነቶችን	-12981
ኃኒቶች	-12982
ባውያን	-12983
በታል፤	-12984
በሰ	-12985
ሻለሁ።	-12986
ስዊድን	-12987
ስታወ	-12988
ስተም	-12989
ሳድ	-12990
ሰጥህ	-12991
ሰናል	-12992
ሰሰ	-12993
ርሱ)	-12994
ሞቻቸውን	-12995
ሜናዊ	-12996
መረጡ	-12997
መሰብሰብ	-12998
ላትም።	-12999
ሃኒቶች	-13000
ሁኑን	-13001
|10	-13002
urrenc	-13003
ite	-13004
▁ጣዕም	-13005
▁ጡን	-13006
▁ጡንቻ	-13007
▁ጓደኞችን	-13008
▁ገጸ	-13009
▁ይጠንቀ	-13010
▁ይኖራቸዋል	-13011
▁ይነግር	-13012
▁ይቀጥላል።	-13013
▁ይሰራ	-13014
▁ይከናወ	-13015
▁ይመኑ	-13016
▁የተለመደው	-13017
▁የሰሜን	-13018
▁የራሴ	-13019
▁የሚሰጠውን	-13020
▁የሚችለውን	-13021
▁የሚመሩ	-13022
▁የሚመለከት	-13023
▁የብር	-13024
▁የቤተሰ	-13025
▁የሻ	-13026
▁ወስደው	-13027
▁ኮረብ	-13028
▁ካለፈው	-13029
▁ከአዳም	-13030
▁ከመቃብ	-13031
▁ከብር	-13032
▁ኦሊ	-13033
▁እያገኘ	-13034
▁እንጠብቃለን	-13035
▁እንዳለብዎ	-13036
▁እንዳይወ	-13037
▁እናገኛለን።	-13038
▁እናያለን።	-13039
▁እነግራችኋለሁና	-13040
▁እራሷን	-13041
▁እምላለሁ።	-13042
▁አጥብቆ	-13043
▁አይሻ	-13044
▁አያፍር	-13045
▁አየሁ፤+	-13046
▁አብዛና	-13047
▁አብዛናዎቻቸው	-13048
▁አስታውሳለሁ	-13049
▁አምራች	-13050
▁አመሰግናለሁ።	-13051
▁አላየሁም	-13052
▁አለም።	-13053
▁አጉ	-13054
▁ንስሓ	-13055
▁ነበር:	-13056
▁ትርፋማ	-13057
▁ትቀ	-13058
▁ተጠም	-13059
▁ተጋላጭ	-13060
▁ተመራማሪ	-13061
▁ቤትዎ	-13062
▁ባረከው	-13063
▁ቢያዩ	-13064
▁በክፍል	-13065
▁በእኩል	-13066
▁በአንቺ	-13067
▁በጻ	-13068
▁በነርሱ	-13069
▁በሌላ	-13070
▁ስለሱ	-13071
▁ሳለን	-13072
▁ሲኖር	-13073
▁ሞሮኒ	-13074
▁ምድሪቱም	-13075
▁ማህደረ	-13076
▁መውደ	-13077
▁መንገደኞች	-13078
▁መስዋእት	-13079
▁መፈጸም	-13080
▁መሙላት	-13081
▁መሄ	-13082
▁ለአራት	-13083
▁ለምሳሌ፣	-13084
▁ለብዙ	-13085
▁ሆንኩ	-13086
▁ህይወታቸውን	-13087
▁SD	-13088
▁800	-13089
▁1xBet	-13090
▁(ስለ	-13091
▁(ምን	-13092
፣በ	-13093
ፆች	-13094
ጠይቀው	-13095
ጠፈ	-13096
ጠመ	-13097
ጎረ	-13098
ዮብ	-13099
ይህን	-13100
ዩተር	-13101
ዓላት	-13102
ውነተኛው	-13103
ክዱ	-13104
ካጎ	-13105
ከራከ	-13106
እርሱም፣	-13107
እምነት	-13108
ነበብኩትም	-13109
ቻለም	-13110
ቱን)	-13111
ተው።	-13112
ብኝም	-13113
ባትም	-13114
በት)	-13115
በልጠው	-13116
በሻ	-13117
ቀሉት	-13118
ሾም	-13119
ሮቼ	-13120
ሮስ	-13121
ርግዝና	-13122
ማመጥ	-13123
ለሰ	-13124
|17|	-13125
ll	-13126
art	-13127
:35	-13128
▁ፈጠረ።	-13129
▁ጨው	-13130
▁ጠየቁት	-13131
▁ጠንቃ	-13132
▁ጓደኞ	-13133
▁ገንዘቡን	-13134
▁ገበሬ	-13135
▁ድልድይ	-13136
▁ደግነቱ	-13137
▁ደጋግሞ	-13138
▁ይገልጻል።	-13139
▁ይሰማሉ	-13140
▁ይሆናል;	-13141
▁ይጠቀ	-13142
▁ያሉት።	-13143
▁ያዘጋጃ	-13144
▁ያበረታ	-13145
▁የእነዚያን	-13146
▁የእረፍት	-13147
▁የእህ	-13148
▁የተከሰተ	-13149
▁የምናስብ	-13150
▁የምትኖረው	-13151
▁የሚያሳዩ	-13152
▁የሚያይ	-13153
▁የሚደረጉ	-13154
▁የሚመለከቱ	-13155
▁የመግ	-13156
▁የፍት	-13157
▁የዶ	-13158
▁የወሰነ	-13159
▁የኩባንያ	-13160
▁የሠሩት	-13161
▁የሙታን	-13162
▁ዘል	-13163
▁ወንጌልን	-13164
▁ክበብ	-13165
▁ከፈለግን	-13166
▁ከእውነት	-13167
▁ከመጀመሩ	-13168
▁ከነርሱ	-13169
▁ከሠ	-13170
▁እንዳየ	-13171
▁እንዲወስዱ	-13172
▁እንደሚጠቀሙ	-13173
▁አፍቃሪዎች	-13174
▁አጥንት	-13175
▁አደርገዋለሁ	-13176
▁አይችሉም,	-13177
▁አይጠቀሙ	-13178
▁አብራችሁ	-13179
▁አምላክ.	-13180
▁አለማ	-13181
▁አዘው	-13182
▁አሠ	-13183
▁ነፍሴን	-13184
▁ነጻነት	-13185
▁ነገም	-13186
▁ትዕግስት	-13187
▁ትንቢቶች	-13188
▁ታያለህ።	-13189
▁ታመኑ	-13190
▁ተጠንቀቁ	-13191
▁ተካሄደ	-13192
▁ቫይረ	-13193
▁በዩኒቨርሲቲ	-13194
▁በንቃት	-13195
▁በተባሉ	-13196
▁በቋሚ	-13197
▁ቆይቷል።	-13198
▁ቁርኣንን	-13199
▁ቀዳዳ	-13200
▁ስለነበሩ	-13201
▁ስውር	-13202
▁ሳንቲም	-13203
▁ሲፈልጉ	-13204
▁ሰዓቱ	-13205
▁ሰባቱ	-13206
▁ምኞቶች	-13207
▁ምሥጢር	-13208
▁ምረጥ	-13209
▁መውለድ	-13210
▁መቆጠብ	-13211
▁መለሰለት።	-13212
▁ሕንድ	-13213
▁ሐዲድ	-13214
▁ሌሊቱ	-13215
▁ሊያገኝ	-13216
▁ሊያቀርብ	-13217
▁ሊታዩ	-13218
▁ለመነ	-13219
▁ለፍ	-13220
▁ለጓደ	-13221
▁ለኢየሱስ	-13222
▁ለሁላችንም	-13223
▁ሆነ,	-13224
▁40%	-13225
▁1980	-13226
▁"እኔም	-13227
ፎካ	-13228
ፋይናንስ	-13229
ፈርዖንም	-13230
ፈልገኝ	-13231
ፈቅ	-13232
ጥልቅ	-13233
ጉዳት	-13234
ገደል	-13235
ጅህ	-13236
ክርስትና	-13237
ካተቱ	-13238
ከስ	-13239
ከመ	-13240
እነርሱም)	-13241
ኝት	-13242
ናቸዉ	-13243
ብሪታንያ	-13244
ቁረጥ	-13245
ቀሙ	-13246
ሽቱ	-13247
ሳሉ፤	-13248
ሮቼን	-13249
ሞቼ	-13250
ማዳበር	-13251
ማቋቋም	-13252
ሐዋርያ	-13253
ልጄ	-13254
ላት።	-13255
ለይሂ	-13256
ለችም	-13257
ለህ.	-13258
ሁበት	-13259
orex	-13260
ok	-13261
-በ	-13262
--	-13263
▁ፖሊሲዎች	-13264
▁ፕላኔ	-13265
▁ፍቅረኛ	-13266
▁ፍሬያማ	-13267
▁ጥምረት	-13268
▁ጣዖቶች	-13269
▁ግጥሚያ	-13270
▁ገሀነም	-13271
▁ዱባይ	-13272
▁ይግባው	-13273
▁ይካሄዳ	-13274
▁ይቆያል።	-13275
▁ይመለከታሉ	-13276
▁ይመለከቱ	-13277
▁ይሆናል:	-13278
▁ይሄው	-13279
▁ይሁን.	-13280
▁ይነጋገሩ	-13281
▁ይመሳሰ	-13282
▁ያስነሳ	-13283
▁ያጋጥ	-13284
▁ያነሱ	-13285
▁የታቀደ	-13286
▁የተጠቀሱት	-13287
▁የተወሳሰበ	-13288
▁የተሰማ	-13289
▁የተሞሉ	-13290
▁የበዛ	-13291
▁የሚያስፈልጋ	-13292
▁ካፒ	-13293
▁ከፍተኛውን	-13294
▁ከመቃብር	-13295
▁ከዋክብ	-13296
▁ከወጣ	-13297
▁ከሞ	-13298
▁እፈልጋለሁ	-13299
▁እግዚኣብሔር	-13300
▁እየተጠቀም	-13301
▁እየሮ	-13302
▁እንዳገኘ	-13303
▁እንዳዘዘው	-13304
▁እንዳንተ	-13305
▁እንዲማሩ	-13306
▁እንደተገለጸው	-13307
▁እንደሚያስፈልግ	-13308
▁እንነጋገራለን	-13309
▁እነሆም,	-13310
▁እስከዚያ	-13311
▁እስማማለሁ	-13312
▁እርሱም፦	-13313
▁እወደ	-13314
▁እወስዳ	-13315
▁ኤፕሪል	-13316
▁አደርጋለሁ.	-13317
▁አይደለንም።	-13318
▁አይተን	-13319
▁አንችል	-13320
▁አሳይቶ	-13321
▁አመሰግን	-13322
▁አመጋ	-13323
▁አላውቅም፤	-13324
▁አላችሁ?	-13325
▁አደረጋ	-13326
▁አሽከርካሪ	-13327
▁ነው::	-13328
▁ተጠባበ	-13329
▁ተገልጦ	-13330
▁ተከታይ	-13331
▁ተናግረዋል	-13332
▁ብራዚል	-13333
▁ብሉ፤	-13334
▁ባታ	-13335
▁በአጠቃላይ,	-13336
▁በተሞላች	-13337
▁በመጨረሻም,	-13338
▁በመቀጠል	-13339
▁በልቦቻቸው	-13340
▁በሆነዉ	-13341
▁በደረ	-13342
▁በወጣ	-13343
▁በኾኑ	-13344
▁በሕዝቤ	-13345
▁በሉትም	-13346
▁ስለዚያች	-13347
▁ስሪ	-13348
▁ሴቶቹ	-13349
▁ሲቀሩ።	-13350
▁ሰበብ	-13351
▁ርኵ	-13352
▁ሥርዓቶች	-13353
▁ሥዕል	-13354
▁ሜሪ	-13355
▁ማካተት	-13356
▁ማከል	-13357
▁ማቴዎስ	-13358
▁መጥራት	-13359
▁መስበክ	-13360
▁መልክተኛውን	-13361
▁መለያዎች	-13362
▁ሊለው	-13363
▁ለእርዳታ	-13364
▁ለሚኖሩ	-13365
▁ለመስበክ	-13366
▁ለመሞት	-13367
▁ለአብ	-13368
▁ለቁ	-13369
▁ለምት	-13370
▁ለሁሉ	-13371
▁2002	-13372
▁1994	-13373
▁188	-13374
▁(ሱ.	-13375
▁"እነዚያ	-13376
▁"እሺ	-13377
▁"አን	-13378
ፋሪ	-13379
ፋለን	-13380
ፈቃደኝነት	-13381
ፅዳት	-13382
ፀባር	-13383
ጨርስ	-13384
ጥላ	-13385
ግራይ	-13386
ጋን	-13387
ገልግሎ	-13388
ዮርዳኖስ	-13389
ክትባት	-13390
እጥፍ	-13391
ኋለኞቹ	-13392
ቻርድ	-13393
ቶቻቸውንም	-13394
ታል?	-13395
ታይን	-13396
ብዓም	-13397
ባባዮች	-13398
በረዶ	-13399
በላይነት	-13400
በናል	-13401
ቃው	-13402
ቂቅ	-13403
ርጦ	-13404
ረባ	-13405
ምል	-13406
ማንበብ	-13407
ሊፒ	-13408
tube	-13409
ec	-13410
currenc	-13411
]።	-13412
TM	-13413
,"	-13414
▁ፕሮፌሰር	-13415
▁ፈልግ	-13416
▁ፈረሰ	-13417
▁ጽፌ	-13418
▁ጸለየ	-13419
▁ጥገኝነት	-13420
▁ጠንቃቃ	-13421
▁ድሀ	-13422
▁ዱቄ	-13423
▁ይጠፋል።	-13424
▁ይደረጋል,	-13425
▁ይቀን	-13426
▁ይሆኑ	-13427
▁ያደርገዋል.	-13428
▁ያገ	-13429
▁የኮምፒ	-13430
▁የአሁኑን	-13431
▁የተጠቀሰው	-13432
▁የምትጠጡ	-13433
▁የሚያስደስት	-13434
▁የሚያስብ	-13435
▁የሚያግ	-13436
▁የሚነሱ	-13437
▁የሚሠሩትን	-13438
▁የፈርዖን	-13439
▁ዘርግቶ	-13440
▁ዕድገት	-13441
▁ዓይኖቹ	-13442
▁ዓይና	-13443
▁ዓለም)	-13444
▁ክብረ	-13445
▁ከአሥራ	-13446
▁ከፀሐይ	-13447
▁እያንዳንዳችሁ	-13448
▁እየፈለግ	-13449
▁እንዳላችሁ	-13450
▁እንዲያዩ	-13451
▁እንደምናውቀው	-13452
▁እንደሆነች	-13453
▁እንቆቅል	-13454
▁እናቷ	-13455
▁እምላለሁ፤	-13456
▁እመርጣለሁ	-13457
▁እጽ	-13458
▁አድርገው	-13459
▁አያውቅም.	-13460
▁አስቸኳይ	-13461
▁አስተማ	-13462
▁አሜሪካኖች	-13463
▁አልቆያ	-13464
▁አልቆያችሁም	-13465
▁ኖር	-13466
▁ናት"	-13467
▁ትራምፕ	-13468
▁ትወድ	-13469
▁ትወዱ	-13470
▁ትሸ	-13471
▁ትሠራ	-13472
▁ታውቋ	-13473
▁ታላቅና	-13474
▁ተቀበሉ	-13475
▁ተሸካሚ	-13476
▁ተመልከቱ።	-13477
▁ተመለሱ፤	-13478
▁ተፎካ	-13479
▁ባሕሩ	-13480
▁ባለቤትነት	-13481
▁ባርነት	-13482
▁ባላሳ	-13483
▁ቢችልም	-13484
▁ቢራ	-13485
▁በዳዮች	-13486
▁በውስጣችሁ	-13487
▁በከፊ	-13488
▁በአገልግሎት	-13489
▁በስድስት	-13490
▁በሰበሰብናቸዉ	-13491
▁በሰበሰብናቸዉና	-13492
▁በማግስቱ	-13493
▁በመያዝ	-13494
▁በላቸው፤	-13495
▁በወጣት	-13496
▁በሸ	-13497
▁ቅኔ	-13498
▁ሸሸ	-13499
▁ስዕሎች	-13500
▁ሳምንታዊ	-13501
▁ሲጀምሩ	-13502
▁ሰምቻለሁ	-13503
▁መጣ,	-13504
▁መርሆዎች	-13505
▁መተርጎም	-13506
▁ሕይወቴ	-13507
▁ልጅቷ	-13508
▁ለአስር	-13509
▁ህብረተሰብ	-13510
▁23|8	-13511
▁19፤	-13512
▁(ምንም	-13513
▁"ወ	-13514
ፀጉር	-13515
ጨመሩ	-13516
ጠጣም	-13517
ግቡ	-13518
ገልጻ	-13519
ጀንሲ	-13520
ዳችሁን	-13521
ደራል	-13522
ይህም	-13523
ውም።	-13524
ዉም	-13525
ወንዶች	-13526
ከለክ	-13527
አዳዲስ	-13528
ኝም፤	-13529
ነግራችሁ	-13530
ቻቸው።	-13531
ቀረቡ	-13532
ሪስት	-13533
ሟሉ	-13534
ምላኩ	-13535
ሜት	-13536
ሜሌክ	-13537
ሕሩ	-13538
ሓዲዎች	-13539
ላል)	-13540
ለቀ	-13541
ሃሃ	-13542
ud	-13543
bo	-13544
SD	-13545
:38	-13546
43|	-13547
▁ፋይሎችን	-13548
▁ገልፀ	-13549
▁ድግምተኛ	-13550
▁ይኖርበታል	-13551
▁ይኖራሉ.	-13552
▁ይምጣ	-13553
▁ይደነ	-13554
▁ያድርጉት	-13555
▁ያስፈልግዎታል.	-13556
▁ያዳ	-13557
▁ያይ	-13558
▁ያብራራ	-13559
▁የደረሰው	-13560
▁የውር	-13561
▁የክርስቶስን	-13562
▁የአከባቢው	-13563
▁የንባብ	-13564
▁የተገናኙ	-13565
▁የምናገ	-13566
▁የማወቅ	-13567
▁የሚቆጠር	-13568
▁የመጨረሻዎቹ	-13569
▁የለውም,	-13570
▁የለም?	-13571
▁ውጫዊ	-13572
▁ወኪሎች	-13573
▁ከፈጠረው	-13574
▁ከሁለቱም	-13575
▁እጠይቃለሁ	-13576
▁እግዚአብሔርንም	-13577
▁እይታዎች	-13578
▁እንድትሆኑ	-13579
▁እንዳታ	-13580
▁እንዲሰራ	-13581
▁እንደገና,	-13582
▁እንደሚከሰት	-13583
▁እንውሰድ	-13584
▁እመጣለሁ	-13585
▁አድኖ	-13586
▁አይሁዳዊ	-13587
▁አይበልጥ	-13588
▁አያት	-13589
▁አንዳንዶቹን	-13590
▁አትፍቀድ	-13591
▁አትስ	-13592
▁አስጠ	-13593
▁አስበህ	-13594
▁አሳቢ	-13595
▁አሰና	-13596
▁አሏት።	-13597
▁አሁኑኑ	-13598
▁ናፍ	-13599
▁ናሙና	-13600
▁ነው;.	-13601
▁ነበረው.	-13602
▁ትጠራ	-13603
▁ተጠቅሞ	-13604
▁ተመላሾች	-13605
▁ቤተመቅ	-13606
▁ባሪያዎችህ	-13607
▁ባለጠጋ	-13608
▁በጉዳዩ	-13609
▁በዙሪያችን	-13610
▁በታማኝነት	-13611
▁በተገቢው	-13612
▁በቅድሚያ	-13613
▁በቁጥር	-13614
▁በመጪው	-13615
▁በመጓዝ	-13616
▁በመካከል	-13617
▁በደም	-13618
▁በአብ	-13619
▁በሶስት	-13620
▁በ200	-13621
▁ቁልፉ	-13622
▁ስለእነሱ	-13623
▁ሴንት	-13624
▁ሱቅ	-13625
▁ሰንጠረ	-13626
▁ሰለባ	-13627
▁ማመስገን	-13628
▁መጋባት	-13629
▁መሰናክ	-13630
▁መኾን	-13631
▁ሐሤ	-13632
▁ሊያገኙ	-13633
▁ለቀው	-13634
▁ሀ)	-13635
▁CO2	-13636
▁7_1	-13637
▁64	-13638
▁1999	-13639
▁1970	-13640
▁1960	-13641
▁"አባት	-13642
ጸያፊ	-13643
ጮኽ	-13644
ጫት	-13645
ግግር	-13646
ግስና	-13647
ዶን	-13648
ዳግመኛ	-13649
ደራጀት	-13650
ከፈለ	-13651
እይታ	-13652
ንተኛ	-13653
ን.	-13654
ናል፣	-13655
ኑ፤	-13656
ነበብኩት	-13657
ኅሣ	-13658
ኅሣሥ	-13659
ቹም	-13660
ቧቸው	-13661
ባቸው፤	-13662
በጥ	-13663
ስክሌት	-13664
ስታወስ	-13665
ረካ	-13666
ሠልጠን	-13667
ምንሰማ	-13668
ምራችሁ	-13669
ምላኬ	-13670
ማጠናከር	-13671
ማችንን	-13672
ልን"	-13673
|68|	-13674
|14|	-13675
[አል	-13676
AC	-13677
:42	-13678
35|	-13679
2|በ	-13680
20|	-13681
▁ፓርላማ	-13682
▁ፈቃዱን	-13683
▁ጽሑፎችን	-13684
▁ጥሪ	-13685
▁ጎረቤት	-13686
▁ገንዘቦቻቸውን	-13687
▁ጀመርኩ።	-13688
▁ደረጃዎችን	-13689
▁ይገባዋል	-13690
▁ይንከባከ	-13691
▁ይነግራ	-13692
▁ይቀጥላል.	-13693
▁ይቀጥሉ	-13694
▁ይወደ	-13695
▁ይቀርባ	-13696
▁ያድርጉ።	-13697
▁ያስፈልገናል.	-13698
▁ያጠና	-13699
▁ያዘጋጀ	-13700
▁የገባውን	-13701
▁የአዳም	-13702
▁የአል	-13703
▁የተሰወረ	-13704
▁የተጠቃሚ	-13705
▁የስኬት	-13706
▁የሚጠቅ	-13707
▁የሚያስፈልጋቸው	-13708
▁የሚነግ	-13709
▁የመጓጓዣ	-13710
▁የቻል	-13711
▁የቅድ	-13712
▁የሱ	-13713
▁ዕውቀ	-13714
▁ዕፅ	-13715
▁ውሰ	-13716
▁ውሏል	-13717
▁ወደየ	-13718
▁ወደ,	-13719
▁ወረርሽ	-13720
▁ክርክ	-13721
▁ከአስተ	-13722
▁ከአሕዛብ	-13723
▁ከልጅነቱ	-13724
▁ከግራ	-13725
▁ከሞቱ	-13726
▁እፈልጋለሁ,	-13727
▁እጁም	-13728
▁እንደሚያገኙ	-13729
▁እንመልከት.	-13730
▁እንማራ	-13731
▁እናቴን	-13732
▁እስኪመጣ	-13733
▁እጆች	-13734
▁እዘ	-13735
▁ኤልሳዕ	-13736
▁ኢትዮጵ	-13737
▁አገናኞች	-13738
▁አዝዣ	-13739
▁አውቄ	-13740
▁አንብቤ	-13741
▁አትርሳ	-13742
▁አታውቁም	-13743
▁አስነሳ	-13744
▁አሳብ	-13745
▁አምጣ	-13746
▁አምስቱ	-13747
▁አልፈልግም።	-13748
▁አላወቅ	-13749
▁አለ፡-	-13750
▁አህጉር	-13751
▁አሌክ	-13752
▁ናቸው;	-13753
▁ነዎት.	-13754
▁ትጠ	-13755
▁ተጫዋቹ	-13756
▁ተአምራትን	-13757
▁ተነስተ	-13758
▁ተሟ	-13759
▁ባላሳወቃ	-13760
▁ባላሳወቃችሁም	-13761
▁ባለነበብኩትም	-13762
▁ባለን	-13763
▁በነገራችን	-13764
▁በተናገረ	-13765
▁በሐሳብ	-13766
▁በሐሰት	-13767
▁በግለሰብ	-13768
▁በነበረው	-13769
▁በሌለ	-13770
▁ቃሌ	-13771
▁ስሕተት	-13772
▁ሰጣት	-13773
▁ረሃብ	-13774
▁ማሳካት	-13775
▁ሙሽራ	-13776
▁መካከል.	-13777
▁መተን	-13778
▁መቅሰፍት	-13779
▁መስኮ	-13780
▁መዋዕ	-13781
▁ሐኪሞች	-13782
▁ለእነርሱም	-13783
▁ለአንባቢ	-13784
▁ለአሕዛብ	-13785
▁ለማስተላለፍ	-13786
▁ለወን	-13787
▁ህይወቱን	-13788
▁II	-13789
▁Am	-13790
▁77	-13791
▁1995	-13792
▁"ይሖዋ	-13793
ፖርቱጋል	-13794
ጫኑ	-13795
ጧል.	-13796
ጠሩ።	-13797
ግግ	-13798
ጋጭ	-13799
ጋኒ	-13800
ድርጅ	-13801
ዟቸው	-13802
ዝር	-13803
ክቶሪያ	-13804
ክ።	-13805
ከረው	-13806
ነግርዎ	-13807
ነቴን	-13808
ታሉ.	-13809
ተሃል?	-13810
ቢሎስ	-13811
በዓል	-13812
ቅርበት	-13813
ቀመዛ	-13814
ስተውሉ	-13815
ሴቲቱ	-13816
ሰቃዩ	-13817
ማሳወቅ	-13818
ማል.	-13819
መደብ	-13820
መገቡ	-13821
ላለፊያ	-13822
ሉ፣	-13823
ለመዱ	-13824
ለናል።	-13825
lix	-13826
flix	-13827
ax	-13828
PR	-13829
▁፣...	-13830
▁ጽፏል	-13831
▁ጭብጥ	-13832
▁ግላዊነት	-13833
▁ድርድር	-13834
▁ድራ	-13835
▁ይጠፋል	-13836
▁ይችላሉ:	-13837
▁ይባላሉ።	-13838
▁ይረዳናል።	-13839
▁ይመለሱ	-13840
▁ይገር	-13841
▁ይሁ	-13842
▁ያስከትላል	-13843
▁ያሳስ	-13844
▁ያልፋል	-13845
▁ያውቀ	-13846
▁ያነጋ	-13847
▁ያመናችሁ	-13848
▁የእነዚህን	-13849
▁የአባቱ	-13850
▁የተወለድ	-13851
▁የተከበሩ	-13852
▁የሞቱት	-13853
▁የሚያሳየው	-13854
▁የሚደርሱ	-13855
▁የመተ	-13856
▁የለም!	-13857
▁የኃጢአ	-13858
▁የቲ	-13859
▁ዘንድሮ	-13860
▁ዕብ	-13861
▁ውሎች	-13862
▁ወንድማማች	-13863
▁ከፍቶ	-13864
▁ከእኔም	-13865
▁ከእምነት	-13866
▁ከአሥር	-13867
▁ከተማዋን	-13868
▁ከተዓምራ	-13869
▁ከተሞች	-13870
▁ከመከራ	-13871
▁ከወጡ	-13872
▁ከከተ	-13873
▁ከሰሙት	-13874
▁እየታ	-13875
▁እውነትንም	-13876
▁እንዲቆዩ	-13877
▁እንደሚያደርግ	-13878
▁እንበል።	-13879
▁እታ	-13880
▁አድርጉ፤	-13881
▁አዳነ	-13882
▁አያለሁ	-13883
▁አትክልት	-13884
▁አስባለሁ.	-13885
▁አርቲስ	-13886
▁አልተለወጠ	-13887
▁አላቸው:-	-13888
▁አላጠፋ	-13889
▁ንገረን	-13890
▁ኃጥ	-13891
▁ትዕቢት	-13892
▁ትመርጣ	-13893
▁ታውቋቸዋ	-13894
▁ተጠባባቂዎች	-13895
▁ተደርጓል,	-13896
▁ተወዳጅነት	-13897
▁ተብሏል	-13898
▁ተመልከት.	-13899
▁ተባብ	-13900
▁ቦታውን	-13901
▁ብቻ.	-13902
▁ባልኾን	-13903
▁ቢመስልም	-13904
▁በውስጣችን	-13905
▁በአንፃራዊነት	-13906
▁በነበርንም	-13907
▁በማታ	-13908
▁በሚጽፍበት	-13909
▁በመጫወት	-13910
▁በወረ	-13911
▁በሃይማኖ	-13912
▁ቅመ	-13913
▁ቁርጥራ	-13914
▁ቁሳዊ	-13915
▁ስሚዝ	-13916
▁ስነ	-13917
▁ስላሉ	-13918
▁ሳቅ	-13919
▁ሲወጡ	-13920
▁ሲመለከት	-13921
▁ሰጠነው።	-13922
▁ሰምተህ	-13923
▁ሰፈሩ	-13924
▁ማዕከላት	-13925
▁ማስተዋ	-13926
▁ማቋቋም	-13927
▁ሙሽራው	-13928
▁መጥፋት	-13929
▁መዝገ	-13930
▁መንደ	-13931
▁ሕዝቦችን	-13932
▁ልቡን	-13933
▁ለአማ	-13934
▁ለምስ	-13935
▁ለማጣ	-13936
▁ለማይ	-13937
▁ለማብራራት	-13938
▁ለዳዊት	-13939
▁ለይሖዋ	-13940
▁ለክፉ	-13941
▁ለሆኑት	-13942
▁ሆነዋል።	-13943
▁ህብረተ	-13944
▁ሃሪ	-13945
▁has	-13946
▁Law	-13947
▁67|10|	-13948
▁67|10|"የ	-13949
▁67|10|"የምንሰማ	-13950
▁42|	-13951
▁1xbet	-13952
▁(ቁርኣን)	-13953
▁(20	-13954
ፈረንሳይኛ	-13955
ፈቱ	-13956
ገንዘ	-13957
ዴንማርክ	-13958
ዳል፤	-13959
ደግነት	-13960
ይቱንም	-13961
ያትን	-13962
ዛመድ	-13963
ዎታለሁ	-13964
ዋለሁ.	-13965
ወዱም	-13966
ወስደው	-13967
ወጅ	-13968
ክፍያ	-13969
ከታተሉ	-13970
አንደኛ	-13971
አቸው፤	-13972
ኙን	-13973
ትም።	-13974
ታለች።	-13975
ተሽ	-13976
ባት።	-13977
በትና	-13978
ቋቋሙ	-13979
ቀላቀሉ	-13980
ሳቸው።	-13981
ሳር	-13982
ሮችም	-13983
ርባን	-13984
ረጋገጠው	-13985
ምህን	-13986
ማጥናት	-13987
ማኔ	-13988
መጠኞች	-13989
ልንም	-13990
ሌክትሮ	-13991
ላፊዎች	-13992
ሊፒንስ	-13993
ለንን	-13994
ለሽ።	-13995
ሃኑ	-13996
ሃነ	-13997
ሃለሁ.	-13998
ld	-13999
ist	-14000
haric	-14001
eng	-14002
BD	-14003
▁ግላዊ	-14004
▁ይፈቀድ	-14005
▁ይጠይቃል።	-14006
▁ይወጣል።	-14007
▁ይሸፍ	-14008
▁ይሞክሩ.	-14009
▁ይመስገን	-14010
▁ያዳምጡ	-14011
▁ያደርጋችኋል፤	-14012
▁ያስችላቸዋል	-14013
▁ያስፈልጉ	-14014
▁ያጠ	-14015
▁የፈለገውን	-14016
▁የተመዘገቡ	-14017
▁የራሳችንን	-14018
▁የሚወጡበትን	-14019
▁የሚነ	-14020
▁የጠየ	-14021
▁የንግ	-14022
▁ዘጸአት	-14023
▁ውስጥ።	-14024
▁ወደ.	-14025
▁ኮምፒተር	-14026
▁ካደረጉ	-14027
▁ካስ	-14028
▁ከተሰጡት	-14029
▁ከሰባት	-14030
▁ከመልክተኞቹ	-14031
▁ከመሬት	-14032
▁ከሄዱ	-14033
▁እገምታለሁ	-14034
▁እንሰራለን	-14035
▁እንመክራለን	-14036
▁እናደርጋለን.	-14037
▁እመቤት	-14038
▁አይመለሱ	-14039
▁አያቶች	-14040
▁አዘጋጀ።	-14041
▁አካሉ	-14042
▁አንዱ,	-14043
▁አቤሴሎም	-14044
▁አቅራቢ	-14045
▁አስተምረ	-14046
▁አመንዝ	-14047
▁አሏት	-14048
▁አሁንስ	-14049
▁አቻ	-14050
▁አትን	-14051
▁አሌ	-14052
▁አሊ	-14053
▁ኔፋውያን	-14054
▁ነቢያትን	-14055
▁ነቢያትም	-14056
▁ትዝታዎች	-14057
▁ትላለህ?	-14058
▁ተከታዮቹ	-14059
▁ተወሰደ	-14060
▁ቤን	-14061
▁በፊት.	-14062
▁በፈጠረው	-14063
▁በጽዮን	-14064
▁በጧትና	-14065
▁በእርግጥም,	-14066
▁በአካባቢያ	-14067
▁በነፃነት	-14068
▁በነበራችሁ	-14069
▁በማድረግ,	-14070
▁በህይወቴ	-14071
▁በሁላቸውም	-14072
▁በዚያ	-14073
▁በሠራ	-14074
▁በሠሩት	-14075
▁ቁስ	-14076
▁ስሙ።	-14077
▁ስፋት	-14078
▁ሳምንቶች	-14079
▁ሲወጣ	-14080
▁ሲመለስ	-14081
▁ሰርቷል	-14082
▁ሰረገ	-14083
▁ሠረገ	-14084
▁ሞቅ	-14085
▁ምድርንም	-14086
▁ምንንም	-14087
▁ሙዚቃን	-14088
▁መጣ.	-14089
▁መታወቂያ	-14090
▁መስራ	-14091
▁መልእክተኞችን	-14092
▁መልሰህ	-14093
▁ሕይወቱ	-14094
▁ሐና	-14095
▁ልብሱን	-14096
▁ለእነሱም	-14097
▁ለማጫወት	-14098
▁ለመተው	-14099
▁ለመር	-14100
▁ለፈርዖን	-14101
▁th	-14102
▁Un	-14103
▁51|	-14104
▁10_1	-14105
▁00	-14106
▁(አሉ)	-14107
▁(i	-14108
▁"ከዚህ	-14109
▁"እነሆ:,	-14110
▁"የት	-14111
፡3	-14112
ፍም	-14113
ጻድቅ	-14114
ጴዛው	-14115
ገድል	-14116
ገምገም	-14117
ዶምያስ	-14118
ድጋፍ	-14119
ዳኝ	-14120
ያጮች	-14121
ያለን	-14122
ዚህች	-14123
ዘገይ	-14124
ዘመ	-14125
ዖት	-14126
ዎታለን።	-14127
ወረደል	-14128
ኳር	-14129
ኮር	-14130
ክህ	-14131
ኪዳን	-14132
ንያም	-14133
ችሉበት	-14134
ታደር	-14135
ተኛም	-14136
ባትን	-14137
በሳጭ	-14138
በታል.	-14139
ቀሻ	-14140
ቀህ	-14141
ስታውሱ	-14142
ሮይ	-14143
ራጅ	-14144
ራህ	-14145
ረፈረፈ	-14146
ረሃብ	-14147
ማድረስ	-14148
መነሳት	-14149
መማር	-14150
ሎሞን	-14151
ላቸዋ	-14152
ለይም	-14153
itors	-14154
70	-14155
7,	-14156
100	-14157
▁ፍጥ	-14158
▁ፍሩ፤	-14159
▁ጥራ	-14160
▁ጠፍቷል	-14161
▁ጠብቁ	-14162
▁ጠርቼ	-14163
▁ገለፃ	-14164
▁ገድ	-14165
▁ድፍ	-14166
▁ይነግረናል	-14167
▁ይሉታል።	-14168
▁ይለያያ	-14169
▁ይሮ	-14170
▁ይረሳ	-14171
▁ያካትታል.	-14172
▁ያስወግዳ	-14173
▁ያረጋግጡ	-14174
▁ያለብህ	-14175
▁የጉባኤ	-14176
▁የዓለማት	-14177
▁የወንዶችም	-14178
▁የታሪክ	-14179
▁የተገለጡ	-14180
▁የተጣራ	-14181
▁የተነ	-14182
▁የተቀመጡ	-14183
▁የምንጠራ	-14184
▁የማይፈልጉ	-14185
▁የማል	-14186
▁የሚወስደው	-14187
▁የሚሹት	-14188
▁የሚመስሉ	-14189
▁የሚናገሩት	-14190
▁የሌላውን	-14191
▁የስብ	-14192
▁የሁ	-14193
▁ዘመን,	-14194
▁ዘመኑ	-14195
▁ዕድለኛ	-14196
▁ዐዋቂዎች	-14197
▁ወንድሞችና	-14198
▁ክፋትን	-14199
▁ክወና	-14200
▁ከተወለደ	-14201
▁ከመቃብሮቻቸው	-14202
▁ከመሆኑ	-14203
▁ከነበረ	-14204
▁ከመልካም	-14205
▁ከህ	-14206
▁እንዳሳ	-14207
▁እንዲያሳ	-14208
▁እንደምትፈልግ	-14209
▁እናቀርባለን	-14210
▁እባካችሁ	-14211
▁እስከዚያው	-14212
▁ኤጀንሲ	-14213
▁አድነኝ	-14214
▁አደረገው።	-14215
▁አደረገ፤	-14216
▁አትበሉ።	-14217
▁አትው	-14218
▁አብርሃምን	-14219
▁አሸዋ	-14220
▁አስታወቀ	-14221
▁አስተባበሉ።	-14222
▁አስጸያፊ	-14223
▁አሳልፈ	-14224
▁አልተሳ	-14225
▁አለኝ.	-14226
▁አኗኗር	-14227
▁ትጠፋ	-14228
▁ትንን	-14229
▁ትቢያ	-14230
▁ታጋሽ	-14231
▁ታዩ	-14232
▁ተፈጻሚ	-14233
▁ተዋቸው)	-14234
▁ተሰጥኦ	-14235
▁ብዙን	-14236
▁ባለማ	-14237
▁ባንድ	-14238
▁በእጄ	-14239
▁በአክብሮት	-14240
▁በተራራ	-14241
▁በማንም	-14242
▁በላይ.	-14243
▁በሉትም፦	-14244
▁በብርሃን	-14245
▁ስምዖን	-14246
▁ስለሚያስ	-14247
▁ስጠን	-14248
▁ስእ	-14249
▁ሴቲቱ	-14250
▁ሣራ	-14251
▁ሠራ.	-14252
▁ሞር	-14253
▁ምሥራቹን	-14254
▁ምልክቶችን	-14255
▁መጠበቂያ	-14256
▁መሸከም	-14257
▁መርጫ	-14258
▁መራራ	-14259
▁መልሶች	-14260
▁መለሰ።	-14261
▁ሔዋን	-14262
▁ልጁ	-14263
▁ሌዋ	-14264
▁ለመላ	-14265
▁ለዛሬ	-14266
▁ለች	-14267
▁ለሱ	-14268
▁ለሆነው	-14269
▁Sn	-14270
▁61	-14271
▁120	-14272
▁'ጌታ	-14273
፤"	-14274
ፕሎማ	-14275
ፈሱ	-14276
ጽግና	-14277
ጣ።	-14278
ጣቢ	-14279
ጠቀመ	-14280
ገኛቸው	-14281
ያሱ	-14282
የትን	-14283
ዘረዘሩት	-14284
ወግድ	-14285
ከለከሉ	-14286
አር	-14287
ንቀጽ	-14288
ቶሊ	-14289
ቦቹን	-14290
በረራ	-14291
ቁርኣን)	-14292
ቀደው	-14293
ቀየር	-14294
ሳልፉ	-14295
ሳለሁ።	-14296
ሱ፤	-14297
ሪድ	-14298
ረጋግጡ	-14299
ማመኑ	-14300
መጠየቅ	-14301
ሐምሌ	-14302
ላትም	-14303
|18|	-14304
ie	-14305
ams	-14306
_44_	-14307
:48	-14308
:34	-14309
-ሰር	-14310
▁፦አላህ	-14311
▁ጻድቃ	-14312
▁ድርጣቢያዎች	-14313
▁ደጋግመው	-14314
▁ይጠበቃል።	-14315
▁ይጠባ	-14316
▁ይጠባበቃ	-14317
▁ይጀምራል.	-14318
▁ይታያል.	-14319
▁ይሰበስባችኋል፤	-14320
▁ይመርጣሉ	-14321
▁ይላልና።	-14322
▁ይጎብ	-14323
▁ይጎብኙ	-14324
▁ያገለግላሉ	-14325
▁ያለፈውን	-14326
▁ያደግ	-14327
▁ያሞታ	-14328
▁ያሞታችኋል፤	-14329
▁ያመጡ	-14330
▁የጌታህ	-14331
▁የዛሬው	-14332
▁የእውነትን	-14333
▁የእናንተን	-14334
▁የአምላካችንን	-14335
▁የአንዱ	-14336
▁የተቆራኘ	-14337
▁የተዛመዱ	-14338
▁የቀደ	-14339
▁የምትሠራ	-14340
▁የሚያበቃ	-14341
▁የሚከናወነው	-14342
▁የሚነካ	-14343
▁ዕወቁ	-14344
▁ውጤቶቹ	-14345
▁ወስነ	-14346
▁ክብርም	-14347
▁ካህናቱ	-14348
▁ኩሩ	-14349
▁ከእንቅልፍ	-14350
▁ከእግዚ	-14351
▁ከእጁ	-14352
▁ከሚቀል	-14353
▁ከሚቀልዱት	-14354
▁ከመጽሐፍ	-14355
▁ከመገናኘ	-14356
▁ከመም	-14357
▁ከልጅነቴ	-14358
▁ከሥ	-14359
▁እያሰቡ	-14360
▁እየተጓዙ	-14361
▁እየሆኑ	-14362
▁እንደሚሠራ	-14363
▁እንደሚለው	-14364
▁እችላለሁ	-14365
▁እራስዎ	-14366
▁እመለከታ	-14367
▁አጥብቀው	-14368
▁አይፈልግም	-14369
▁አካሂ	-14370
▁አትኹን፤	-14371
▁አትበል	-14372
▁አብረዋቸው	-14373
▁አቀማመጥ	-14374
▁አሮንም	-14375
▁አርቲስት	-14376
▁አምላካቸው	-14377
▁አመጸ	-14378
▁አጠራ	-14379
▁አነሣ	-14380
▁አታውቅ	-14381
▁ነጥቦችን	-14382
▁ነግሬ	-14383
▁ቸል	-14384
▁ታላቅነት	-14385
▁ታደርግ	-14386
▁ተደብ	-14387
▁ተሰራ	-14388
▁ብርሃንን	-14389
▁ባለትዳር	-14390
▁ባዮ	-14391
▁ባሳ	-14392
▁በከፊሉ	-14393
▁በእግዚአብሔርና	-14394
▁በተዓምራቶቻችንም	-14395
▁በቤተሰቡ	-14396
▁በሰይጣን	-14397
▁በማስተማር	-14398
▁በመሠዊያው	-14399
▁በመፍራት	-14400
▁በመጠባበቅ	-14401
▁ቆዩ	-14402
▁ቅናት	-14403
▁ቃልህን	-14404
▁ስልጣ	-14405
▁ስለሆንኩ	-14406
▁ሠላሳ	-14407
▁ሞከረ	-14408
▁ሞላ	-14409
▁ምስክ	-14410
▁ማዳበር	-14411
▁ማህበ	-14412
▁ሚስዮ	-14413
▁መጣህልን	-14414
▁መጠኑ	-14415
▁መጋራት	-14416
▁መደበቅ	-14417
▁መርሳት	-14418
▁መጪው	-14419
▁መገረ	-14420
▁መከተ	-14421
▁መሮጥ	-14422
▁ሕገ	-14423
▁ለአንዱ	-14424
▁ለምንስ	-14425
▁ለጦርነት	-14426
▁ለደንበኞች	-14427
▁ለከ	-14428
▁Ex	-14429
▁3.	-14430
▁180	-14431
▁11፤	-14432
▁(የሐዋርያት	-14433
▁(አሁን	-14434
▁(ሮም	-14435
▁"የአምላክ	-14436
▁"እና	-14437
ፕሮግራ	-14438
ፐር	-14439
ፈልጓቸው	-14440
ጣል.	-14441
ግዱ	-14442
ገልጥ	-14443
ገቤ	-14444
ጀንቲ	-14445
ደነቅ	-14446
ዮሽ	-14447
ዝግጅት	-14448
ዋጉ	-14449
ኳን	-14450
ክብሩ	-14451
ኩ,	-14452
እመናን	-14453
ኛል"	-14454
ኖቻችን	-14455
ንቧ	-14456
ናቸው፤	-14457
ነግራቸው	-14458
ነዓን	-14459
ችቶ	-14460
ቻለሁ.	-14461
ቷል፤	-14462
ትስ	-14463
ባራቸው	-14464
ቢይ	-14465
ቆጥ	-14466
ቆር	-14467
ሽው	-14468
ሰባሰብ	-14469
ርኖ	-14470
ረምቱ	-14471
ማለን	-14472
መልከው	-14473
መፈፀም	-14474
ሕዛብን	-14475
ልጅ	-14476
ላቻ	-14477
ለመሆኑ	-14478
ለህ"	-14479
ለህን	-14480
p>	-14481
TC	-14482
:39	-14483
▁ፕሮቶ	-14484
▁ፓት	-14485
▁ፍልስፍና	-14486
▁ጓጉ	-14487
▁ጉድለ	-14488
▁ጉዞን	-14489
▁ገንቢ	-14490
▁ገንዳ	-14491
▁ድረ-ገ	-14492
▁ድግስ	-14493
▁ድሆ	-14494
▁ይጠራል	-14495
▁ይይዛሉ	-14496
▁ይወድቃል	-14497
▁ይነግረናል።	-14498
▁ይሞታሉ።	-14499
▁ይፈጸም	-14500
▁ይጽ	-14501
▁ይደርስ	-14502
▁ይቆጣ	-14503
▁ያስከፍ	-14504
▁ያመጣል።	-14505
▁ያመጣል.	-14506
▁ያመሰግኑ	-14507
▁የጻፈው	-14508
▁የገሀነም	-14509
▁የዩኤስ	-14510
▁የእውነተኛ	-14511
▁የተወደደ	-14512
▁የሰጠውን	-14513
▁የምትበሉ	-14514
▁የሚገኙትን	-14515
▁የሚከፍ	-14516
▁የመናገር	-14517
▁የጀመረ	-14518
▁የወሰ	-14519
▁የኖ	-14520
▁የሉም።	-14521
▁ዕረፍ	-14522
▁ዓመፅ	-14523
▁ወንዶች	-14524
▁ወለል	-14525
▁ክፍተት	-14526
▁ከእጄ	-14527
▁ከትውልድ	-14528
▁ከፊቱ	-14529
▁ከዐ	-14530
▁ከባልንጀ	-14531
▁እያደጉ	-14532
▁እኩልነት	-14533
▁እንጠቀማለን	-14534
▁እንዳይድኑ	-14535
▁እንዲጠቀሙ	-14536
▁እንደሚሽቀዳደሙ	-14537
▁እንደመሆን	-14538
▁እንናገራ	-14539
▁እንተ	-14540
▁እላለሁ።	-14541
▁አፍር	-14542
▁አድርጓል?	-14543
▁አይመለከቱምን?	-14544
▁አውድ	-14545
▁አትጨነቅ	-14546
▁አትሌ	-14547
▁አብዮት	-14548
▁አስተምሮ	-14549
▁አስቀድሜ	-14550
▁አርአያ	-14551
▁አላስፈላጊ	-14552
▁አለና	-14553
▁አተ	-14554
▁ነገር.	-14555
▁ነበራት	-14556
▁ትምህርቱን	-14557
▁ትሰራ	-14558
▁ትሁን	-14559
▁ታድያ	-14560
▁ተጓዥ	-14561
▁ተባባሪ	-14562
▁ተሰማኝ	-14563
▁ተሰዳጅ	-14564
▁ባለጠግነት	-14565
▁ባደረግ	-14566
▁ባሎች	-14567
▁በዝቶ	-14568
▁በእግ	-14569
▁በእምነ	-14570
▁በአገ	-14571
▁በነቢዩ	-14572
▁በቀጣዮቹ	-14573
▁በራእይ	-14574
▁በምላሹ	-14575
▁በመረ	-14576
▁በፎቶ	-14577
▁በግም	-14578
▁በንጉ	-14579
▁በኅ	-14580
▁ቃልም	-14581
▁ቁጥሩ	-14582
▁ሲቀሩ	-14583
▁ሰብሳቢ	-14584
▁ሰከን	-14585
▁ሰነፍ	-14586
▁ሩጫ	-14587
▁ሥራዎቻቸው	-14588
▁ሠሪዎች	-14589
▁ሠሙ	-14590
▁ምርቱን	-14591
▁ማይክ	-14592
▁ማልቀስ	-14593
▁ማጠናቀቅ	-14594
▁ማካፈል	-14595
▁ሙሴን፦	-14596
▁መፈጠር	-14597
▁መጣ፤	-14598
▁መጠቀሙ	-14599
▁መልሱን	-14600
▁መያዣ	-14601
▁ሕንጻ	-14602
▁ልጆቹም	-14603
▁ሊያደርጉ	-14604
▁ሊያወጣ	-14605
▁ሊደረስ	-14606
▁ሊወሰድ	-14607
▁ለማወቅ	-14608
▁ሂሳ	-14609
▁Snap	-14610
▁10_16_	-14611
▁10_16_አላህ	-14612
▁(እስከሚ	-14613
▁(እስከሚገናኙ	-14614
▁(ሙ	-14615
▁'ለ	-14616
▁"ይሄ	-14617
፥2	-14618
ፖርቹ	-14619
ገባችሁ	-14620
ገመ	-14621
ይዙት	-14622
ያንን	-14623
ዛቱ	-14624
ዎቻችንን	-14625
ዎቹ)	-14626
ዋችሁ	-14627
ክበት	-14628
እምናን	-14629
ች፣	-14630
ቻልኩ	-14631
ቻልን	-14632
ቶች፣	-14633
ቶችንም	-14634
ቬምበር	-14635
ቫን	-14636
ቀናል	-14637
ስቁ	-14638
ሳል፤	-14639
ሮናቫይረስ	-14640
ሮጌ	-14641
ሮቻቸውን	-14642
ራትም	-14643
ሩም፤	-14644
ምና"	-14645
ማቅ	-14646
ሚዲያ	-14647
ልሙ	-14648
ሌታ	-14649
ላቸው፥	-14650
ሉኝ	-14651
ለች፥	-14652
ለህና።	-14653
ang	-14654
"እኔ	-14655
"እናንተ	-14656
▁፲፩	-14657
▁ፈረሶች	-14658
▁ጠብቁ።	-14659
▁ጠባብ	-14660
▁ጎኖች	-14661
▁ጎብኝ	-14662
▁ግምጃ	-14663
▁ገደል	-14664
▁ይጠጡ	-14665
▁ይኖርብናል.	-14666
▁ይልቁ	-14667
▁ይገነዘባ	-14668
▁ይወዱ	-14669
▁ያጠቃልላል	-14670
▁ያስተምር	-14671
▁የገባው	-14672
▁የገቢያ	-14673
▁የውኃ	-14674
▁የእስራኤልንም	-14675
▁የአፍ	-14676
▁የተጋለጡ	-14677
▁የተገኙ	-14678
▁የተያዙ	-14679
▁የቅዱሳን	-14680
▁የሚጠይቅ	-14681
▁የሚጓዙ	-14682
▁የሚታይ	-14683
▁የሚሻ	-14684
▁የጄ	-14685
▁የትንሣኤ	-14686
▁የቃ	-14687
▁የሬዲዮ	-14688
▁ዝርዝሮችን	-14689
▁ዝመና	-14690
▁ዙፋ	-14691
▁ዘመዶ	-14692
▁ዓመታት,	-14693
▁ዐውቃ	-14694
▁ወዳጃ	-14695
▁ወዲያውኑም	-14696
▁ኮርፖ	-14697
▁ክሊኒ	-14698
▁ካለዎት,	-14699
▁ካየ	-14700
▁ከፊቴ	-14701
▁ከአዲሱ	-14702
▁ከልጆቻቸው	-14703
▁ከየ	-14704
▁ከን	-14705
▁ከሙስሊሞች	-14706
▁እጆቹን	-14707
▁እያደረግን	-14708
▁እኛስ	-14709
▁እንዳለብህ	-14710
▁እንዳለህ	-14711
▁እንዲመለስ	-14712
▁እንወስዳ	-14713
▁እንበላ	-14714
▁እስረኞች	-14715
▁እራሳቸው	-14716
▁እምነትን	-14717
▁እህቴ	-14718
▁እዛው	-14719
▁እሞታ	-14720
▁ኢንች	-14721
▁ኢትዮጵያውያን	-14722
▁ኢ-	-14723
▁አይደለሁም፤	-14724
▁አይፈልግም።	-14725
▁አይሆኑ	-14726
▁አስተዋፅዖ	-14727
▁አስማ	-14728
▁አሪፍ	-14729
▁አምላክ,	-14730
▁አመቺ	-14731
▁አልቻልንም	-14732
▁አልተገኘም	-14733
▁አልደ	-14734
▁አልላክ	-14735
▁አፌ	-14736
▁አግብ	-14737
▁አኖራ	-14738
▁ነበሩት።	-14739
▁ችግረኛ	-14740
▁ትበልጣ	-14741
▁ትግ	-14742
▁ታዝ	-14743
▁ታት	-14744
▁ተጠቃሚዎችን	-14745
▁ተዘርግ	-14746
▁ተከታዮ	-14747
▁ብቻዋን	-14748
▁ብልጭ	-14749
▁ባየሁ	-14750
▁ቢያውቁ	-14751
▁በየስ	-14752
▁በኢሜል	-14753
▁በተከበረች	-14754
▁በተከበረችዋ	-14755
▁በሚያደርጉት	-14756
▁በሚከተሉት	-14757
▁በመቻ	-14758
▁በመሆኔ	-14759
▁በላክን	-14760
▁በጦርነቱ	-14761
▁በገቡ	-14762
▁በወደ	-14763
▁ቅዱስ፣	-14764
▁ሸቀ	-14765
▁ስዊዘርላንድ	-14766
▁ስርጭት	-14767
▁ስህተቶችን	-14768
▁ሰሎሞንም	-14769
▁ሰሚ	-14770
▁ሥራህን	-14771
▁ምግቦችን	-14772
▁ማይክል	-14773
▁ማርቲን	-14774
▁ማምረት	-14775
▁ማከማቻ	-14776
▁መደወል	-14777
▁መታገል	-14778
▁መቅረ	-14779
▁መኝታ	-14780
▁ሕልውና	-14781
▁ሐሙስ	-14782
▁ልባም	-14783
▁ሊለወጥ	-14784
▁ለህዝቡ	-14785
▁ለግል	-14786
▁ለርሷ	-14787
▁ህጻናት	-14788
▁ሄይ	-14789
▁SAR	-14790
▁8:5	-14791
▁30%	-14792
▁(ዕ	-14793
ፈጠረው	-14794
ፈሻ	-14795
ጭን	-14796
ግለጥ	-14797
ጋሪዎች	-14798
ጂየም	-14799
ዶር	-14800
ድጓ	-14801
ዲየም	-14802
ደሉትን	-14803
ይሁድ	-14804
ዞሩ	-14805
ዝናናት	-14806
ዙ።	-14807
ውሸት	-14808
ንተና	-14809
ንሰ-ሀ	-14810
ናገራቸው	-14811
ኒን	-14812
ነፈር	-14813
ችኋለሁ"	-14814
ቹህ	-14815
ቸዋል፥	-14816
ታችኋል	-14817
ታላችሁ?	-14818
ባኖስ	-14819
ቡባዊ	-14820
ቃያ	-14821
ስተካከል	-14822
ርትራ	-14823
ራግ	-14824
መረምር	-14825
ሕረት	-14826
ሎምቢያ	-14827
ልሲ	-14828
ሌክትሮኒክ	-14829
ላዊው	-14830
ላለፉ	-14831
ለኛው	-14832
ለም።	-14833
ህንፃ	-14834
ሂሳብ	-14835
uck	-14836
ime	-14837
iz	-14838
ff	-14839
ast	-14840
TA	-14841
-20	-14842
▁፲፱	-14843
▁ፕሮጄክቶች	-14844
▁ፊደ	-14845
▁ፀሐፊ	-14846
▁ጣዖት	-14847
▁ግብዝ	-14848
▁ጀብ	-14849
▁ይጠቀማል	-14850
▁ይገባል,	-14851
▁ይወድቃሉ።	-14852
▁ይህችም	-14853
▁ይሄዳሉ።	-14854
▁ይከልከ	-14855
▁ያነጋግሩ	-14856
▁ያሳለፍ	-14857
▁ያያል	-14858
▁ያቃጥ	-14859
▁የጠፋውን	-14860
▁የአባቶቻቸውን	-14861
▁የነበራቸው	-14862
▁የትዊተር	-14863
▁የተመረጠ	-14864
▁የበለፀ	-14865
▁የሚያገለግል	-14866
▁የሚከሰቱ	-14867
▁የመግቢያ	-14868
▁የመጠቀም	-14869
▁የጠላ	-14870
▁የጋ	-14871
▁የንጉ	-14872
▁የሂ	-14873
▁ዓይነቶችን	-14874
▁ዓለማት	-14875
▁ውጡ	-14876
▁ወድጄ	-14877
▁ወንድሞቹም	-14878
▁ካህኑ	-14879
▁ከተወሰነ	-14880
▁ከመገናኘትም	-14881
▁ከልጁ	-14882
▁ከዚያ	-14883
▁ከራሳቸው	-14884
▁እንግሊ	-14885
▁እንጂ፣	-14886
▁እንዲሁ።	-14887
▁እናነባ	-14888
▁እጅግ	-14889
▁እጅግም	-14890
▁አጥንቶች	-14891
▁አይተህ	-14892
▁አያቴ	-14893
▁አየሁ፤	-14894
▁አዝናለሁ	-14895
▁አውቃለሁ,	-14896
▁አውቃለሁ፤	-14897
▁አውሮፓውያን	-14898
▁አንቀጾችን	-14899
▁አንጎል	-14900
▁አቅጣጫዎች	-14901
▁አስፈላጊውን	-14902
▁አሰጣጥ	-14903
▁አምነውም	-14904
▁አመጋገብ	-14905
▁አልልም	-14906
▁አለኝ፤	-14907
▁አሁን፣	-14908
▁ንድ	-14909
▁ናቸውን?	-14910
▁ትንንሽ	-14911
▁ትመስ	-14912
▁ታውቃላችሁ?	-14913
▁ታወ	-14914
▁ተፈቅዶ	-14915
▁ተጓዦች	-14916
▁ተንኮል	-14917
▁ተብቃቂ	-14918
▁ተጎ	-14919
▁ብቸኝነት	-14920
▁ብልህነት	-14921
▁በጸሎ	-14922
▁በዝግ	-14923
▁በዘመኑ	-14924
▁በእርግጠኝነት,	-14925
▁በእግዚአብሄር	-14926
▁በችግር	-14927
▁በሚሆኑ	-14928
▁በደግነት	-14929
▁በኪ	-14930
▁በቸ	-14931
▁ስለዚህ፣	-14932
▁ሳይሆኑ	-14933
▁ሰጥቷል።	-14934
▁ሰይጣንን	-14935
▁ርኅ	-14936
▁ሞከር	-14937
▁ምሳሌዎችን	-14938
▁ማርያምን	-14939
▁መጠቀሚያ	-14940
▁መዝናናት	-14941
▁መራቅ	-14942
▁መሥዋዕ	-14943
▁መልቀቅ	-14944
▁ሕዝብም	-14945
▁ሐሰተኛ	-14946
▁ሌት	-14947
▁ሊጎዳ	-14948
▁ለማግኘት.	-14949
▁ለማግኘት,	-14950
▁ለማደግ	-14951
▁ለማየት	-14952
▁ለሚያስ	-14953
▁ለልጄ	-14954
▁ለቀጣ	-14955
▁vis	-14956
▁Netflix	-14957
▁IM	-14958
▁68	-14959
▁3,	-14960
▁(A	-14961
▁"እናንተም	-14962
▁"ኢየሱስ	-14963
▁"በል	-14964
ፕስ	-14965
ፈለጋችሁ	-14966
ጾም	-14967
ጻሕ	-14968
ጸባር	-14969
ጨው	-14970
ጥብ	-14971
ጡትን	-14972
ጠባበቁ	-14973
ገቢያ	-14974
ጀርመንኛ	-14975
ደግሞም	-14976
ዋለን፤	-14977
ክርስቲያኖች	-14978
ክሳስ	-14979
ክ?	-14980
ከለክል	-14981
ከሙ	-14982
እዛ	-14983
ኗል።	-14984
ነሳት	-14985
ኋት።	-14986
ች፥	-14987
ቶችዎን	-14988
ታላችሁ።	-14989
ተኸ	-14990
ቦታው	-14991
ባበሉት	-14992
ባባይ	-14993
ቂያው	-14994
ሻሉ	-14995
ሸነፈ	-14996
ሰብክ	-14997
ሮቻቸውም	-14998
ርሳቸው	-14999
ምለክ	-15000
ማዎች	-15001
መሰክራ	-15002
ላችሁበት	-15003
sk	-15004
nt	-15005
ink	-15006
??	-15007
6|ለ	-15008
49|	-15009
21	-15010
-መጽሐፍ	-15011
▁፳፮	-15012
▁፳፫	-15013
▁ፖል	-15014
▁ፒራሚ	-15015
▁ፈረሰኞች	-15016
▁ጸጸ	-15017
▁ጠብታ	-15018
▁ግለሰቡ	-15019
▁ግጥም	-15020
▁ጉዞ,	-15021
▁ገልጸዋል።	-15022
▁ደነ	-15023
▁ይጠብቃል።	-15024
▁ይከጀላል	-15025
▁ይበዛ	-15026
▁ይሰማቸዋል።	-15027
▁ይምሉ	-15028
▁ይላሉ,	-15029
▁ይህቺ	-15030
▁ይሄዳል.	-15031
▁ያገኘሁት	-15032
▁ያስደስታ	-15033
▁ያሳለፈ	-15034
▁ያመለክታል	-15035
▁ያውም	-15036
▁የአመጋገብ	-15037
▁የተቀሩት	-15038
▁የተከፈተ	-15039
▁የምታደርግ	-15040
▁የምኖረው	-15041
▁የምሥራቅ	-15042
▁የማይመለሱ	-15043
▁የሚመጣውን	-15044
▁የሚከፈ	-15045
▁የጨ	-15046
▁የደንበኛ	-15047
▁የቻለ	-15048
▁ዋጋን	-15049
▁ዋሽ	-15050
▁ከእነዚህም	-15051
▁ከባሮቹ	-15052
▁ከሚገኘው	-15053
▁ከጨለማ	-15054
▁ከቤ	-15055
▁እያደረግ	-15056
▁እየሱስ	-15057
▁እየሰጠ	-15058
▁እንደሚሰጥ	-15059
▁እንደሚሄድ	-15060
▁እንደሆነና	-15061
▁እንቀጥላለን	-15062
▁እንሸ	-15063
▁እንሁን	-15064
▁እመኑ፤	-15065
▁ኤዶምያስ	-15066
▁ኢሳ	-15067
▁አግኝተው	-15068
▁አዳን።	-15069
▁አይደሉም፤	-15070
▁አይደሉም?	-15071
▁አይደሉ	-15072
▁አይታወቅም	-15073
▁አይጠበቅ	-15074
▁አያስፈልግዎትም።	-15075
▁አትግ	-15076
▁አልነበረኝም	-15077
▁አልቻለም.	-15078
▁አልተናገር	-15079
▁አልሰ	-15080
▁አለው፥	-15081
▁አዘንብ	-15082
▁ነውር	-15083
▁ትወዱላቸው	-15084
▁ታሪኩን	-15085
▁ቲቪ	-15086
▁ተገንብ	-15087
▁ተኳሃ	-15088
▁ተቀባዮች	-15089
▁ተቀማ	-15090
▁ተለውጧል	-15091
▁ተባረ	-15092
▁ተለያይ	-15093
▁ቪዲዮውን	-15094
▁ብልጽግና	-15095
▁ባህሪያትን	-15096
▁በጥን	-15097
▁በኮምፒ	-15098
▁በአትክልቱ	-15099
▁በአምላካችን	-15100
▁በአልጋ	-15101
▁በቀላል	-15102
▁በምሩ	-15103
▁በመደበኛነት	-15104
▁በድል	-15105
▁ቋንቋን	-15106
▁ሸሽቶ	-15107
▁ሳለ,	-15108
▁ሲዘ	-15109
▁ሰጥቶናል።	-15110
▁ሰጠን	-15111
▁ሰማን	-15112
▁ሰልፍ	-15113
▁ሞተዋል	-15114
▁ማባ	-15115
▁መጽሃፍ	-15116
▁መዳረሻዎች	-15117
▁መውደቅ	-15118
▁መዋቅር	-15119
▁መንገድ።	-15120
▁መሠረ	-15121
▁መለወጫ	-15122
▁መረጋጋት	-15123
▁ሊጠይቅ	-15124
▁ለምንድነው?	-15125
▁ለማበረታታት	-15126
▁ለመለማመድ	-15127
▁ለወላጆች	-15128
▁ለነበረው	-15129
▁ህይወቴ	-15130
▁ሁኑ።	-15131
▁MP4	-15132
▁Au	-15133
▁1992	-15134
▁1ኛ	-15135
▁(ዳግመኛ	-15136
▁(ዳግመኛ)	-15137
▁(ዮሐ	-15138
▁"እነዚህን	-15139
▁"አንቺ	-15140
ፌደራል	-15141
ፋይ	-15142
ፃን	-15143
ጾሙ	-15144
ጻል	-15145
ጨም	-15146
ጣል፤	-15147
ጠቃቀም	-15148
ጠንካራ	-15149
ጠበቃ	-15150
ጌጥ	-15151
ገነዘበ	-15152
ገጃ	-15153
ገሠ	-15154
ያትንና	-15155
ዕቆብን	-15156
ኮትላንድ	-15157
ኩ.	-15158
ኑ.	-15159
ችሁ፤	-15160
ቻለሁ፤	-15161
ቸው፥	-15162
ታገሉ	-15163
ታላችሁ	-15164
ቨን	-15165
ባሪያ	-15166
ባማ	-15167
በላሽ	-15168
ቀረት	-15169
ሰማህ	-15170
ረደ	-15171
ሣፍ	-15172
ሜንት	-15173
ማስታወቂያ	-15174
ማርኩ	-15175
መንጃ	-15176
መላእክ	-15177
ሐዊ	-15178
ሎምፒክ	-15179
ልት	-15180
ለሽ?	-15181
ሄይ	-15182
mak	-15183
ill	-15184
:36	-15185
99	-15186
▁ፎቶግራፎች	-15187
▁ፍላ	-15188
▁ጸል	-15189
▁ጠብቀው	-15190
▁ጠን	-15191
▁ጋር።	-15192
▁ይፈርዳል።	-15193
▁ይጠራሉ።	-15194
▁ይደግፋል.	-15195
▁ይመከራ	-15196
▁ይደረግ	-15197
▁ይኾን	-15198
▁ያቀፈ	-15199
▁ያረጋግጣል።	-15200
▁ያልታወቀ	-15201
▁ያልሆነው	-15202
▁ያካተተ	-15203
▁ያሸን	-15204
▁ያማረ	-15205
▁የጎን	-15206
▁የውርደትን	-15207
▁የተነገረ	-15208
▁የሰሙ	-15209
▁የማያደርግና	-15210
▁የሚጠይቁ	-15211
▁የሚጠላ	-15212
▁የሌለውን	-15213
▁የለንም።	-15214
▁የቡና	-15215
▁ወደእኛ	-15216
▁ወይም,	-15217
▁ወርዶ	-15218
▁ካወቁ	-15219
▁ከግብጽ	-15220
▁ከሚችሉት	-15221
▁ከልቡ	-15222
▁ከፈለገ	-15223
▁ከጥፋት	-15224
▁ከወላጆቹ	-15225
▁ከቀኝ	-15226
▁እፈራለሁ።	-15227
▁እየጠበቀ	-15228
▁እንጀምር	-15229
▁እንዳልተ	-15230
▁እንዳደረገው	-15231
▁እንዲሰጡ	-15232
▁እንደዚህም	-15233
▁እንደኾናችሁ	-15234
▁እናውቃለን፤	-15235
▁እርዳኝ።	-15236
▁እወቅ	-15237
▁እቀጥ	-15238
▁ኤፍ	-15239
▁አገኛ	-15240
▁አይችልም፤	-15241
▁አይገኝ	-15242
▁አይስ	-15243
▁አያውቁም.	-15244
▁አንቺም	-15245
▁አብሯቸው	-15246
▁አቀፉ	-15247
▁አሳማኝ	-15248
▁አልፈቀደ	-15249
▁አልመ	-15250
▁አሉ!	-15251
▁አርት	-15252
▁አረብ	-15253
▁ንግስት	-15254
▁ነበርና,	-15255
▁ነበረኝ።	-15256
▁ትችላለች	-15257
▁ትኾና	-15258
▁ትክ	-15259
▁ታዲያስ	-15260
▁ተባባሉ።	-15261
▁ተቀላቅለዋል	-15262
▁ተማሪው	-15263
▁ብዙዎቹን	-15264
▁ቢኖራቸው	-15265
▁በትዕ	-15266
▁በቋሚነት	-15267
▁በሲና	-15268
▁በርቱ	-15269
▁በመናገር	-15270
▁በዘር	-15271
▁በኬ	-15272
▁በኋለኛ	-15273
▁በሬ	-15274
▁በህይወት	-15275
▁ቅጽል	-15276
▁ቃየን	-15277
▁ስለዚያ	-15278
▁ሰጥቼ	-15279
▁ሰባተኛውን	-15280
▁ሥዕሎች	-15281
▁ሠርግ	-15282
▁ማዕቀፍ	-15283
▁ሚስቶችን	-15284
▁መተግበሪያዎችን	-15285
▁መሠዊያ	-15286
▁መለያየት	-15287
▁መሆን.	-15288
▁መከ	-15289
▁ሕዝቅያስ	-15290
▁ሐይቅ	-15291
▁ልትሆን	-15292
▁ልኬ	-15293
▁ልኡ	-15294
▁ልቀ	-15295
▁ለእኛም	-15296
▁ለባሏ	-15297
▁ለስሜ	-15298
▁ለማንሳት	-15299
▁ለመደበቅ	-15300
▁ለመዳን	-15301
▁ለመዝ	-15302
▁ለያዕቆብ	-15303
▁ለራስ	-15304
▁ሆይ:.	-15305
▁ህገ-	-15306
▁ሂድ,	-15307
▁جلا	-15308
▁جلاله	-15309
▁dr.	-15310
▁book	-15311
▁Youtube	-15312
▁Wi-	-15313
▁Wi-Fi	-15314
▁Sams	-15315
▁PR	-15316
▁IE	-15317
▁CE	-15318
▁900	-15319
▁53|	-15320
▁30,000	-15321
▁10፤	-15322
▁(ይህን	-15323
▁"አይሆንም	-15324
▁"ኢ	-15325
፤የ	-15326
ፈራው	-15327
ፈራም።	-15328
ፈልገን	-15329
ጻናት	-15330
ጫዎች	-15331
ጥሮስ	-15332
ጣጡ	-15333
ጠቡ	-15334
ገናኘው	-15335
ገልጋዮች	-15336
ገበር	-15337
ጀመረበት	-15338
ድጓድ	-15339
ድገ	-15340
ድብቅ	-15341
ዳድ	-15342
ደሉት	-15343
ዝያ	-15344
ዎችንና	-15345
ውድድር	-15346
ውያኑ	-15347
ዋታው	-15348
ወስኑ	-15349
ካፈሉ	-15350
ካኔ	-15351
ከራከሩህም	-15352
ከራቸውን	-15353
ነጋገርን	-15354
ትናንት	-15355
ቴል	-15356
ታችሁ)	-15357
ታቸዉ	-15358
ታሙ	-15359
ቲዩ	-15360
ባሪዎች	-15361
ባሉት	-15362
ቆጠረ	-15363
ቆየ	-15364
ቀድሞዎቹ	-15365
ሰው።	-15366
ሰብዓዊ	-15367
ሮው	-15368
ር።	-15369
ራችንን	-15370
ረጡ።	-15371
ምራውያን	-15372
መለሳል	-15373
ላችሁ፣	-15374
ህፍት	-15375
ሃቸው።	-15376
ous	-15377
ere	-15378
90	-15379
))	-15380
▁፲፰	-15381
▁ፍቀድ	-15382
▁ፈጥኖ	-15383
▁ፈለግሁ	-15384
▁ጥቂቶቹ	-15385
▁ጡረታ	-15386
▁ጠባይ	-15387
▁ግኝቶች	-15388
▁ገም	-15389
▁ዱቄት	-15390
▁ደሞዝ	-15391
▁ዮርዳኖስን	-15392
▁ይገለጣል	-15393
▁ይደርሳ	-15394
▁ይኖርባ	-15395
▁ይታይ	-15396
▁ይቆያል	-15397
▁ይሰማቸዋል	-15398
▁ይመስለኛል.	-15399
▁ይዘጋ	-15400
▁ያገኛል።	-15401
▁ያደርጋል፤	-15402
▁ያካትታሉ	-15403
▁ያመል	-15404
▁የተያዘ	-15405
▁የቅን	-15406
▁የሠሩትን	-15407
▁የምንጠራበትን	-15408
▁የምትሠሩትን	-15409
▁የምትሉ	-15410
▁የምናገረው	-15411
▁የሚያስችሉ	-15412
▁የሚችሉትን	-15413
▁የሚሆኑትን	-15414
▁የሚመል	-15415
▁የፓ	-15416
▁የራስህ	-15417
▁ዜናዎችን	-15418
▁ዘንጊዎች	-15419
▁ዓረፍተ	-15420
▁ውጭ	-15421
▁ወዳለበት	-15422
▁ወደኔ	-15423
▁ኳስን	-15424
▁ክለብ	-15425
▁ካምፓስ	-15426
▁ካቶሊ	-15427
▁ከእርሷም	-15428
▁ከእህ	-15429
▁ከሚለው	-15430
▁ከፀ	-15431
▁ከጭ	-15432
▁ከያዕቆብ	-15433
▁ከነፍ	-15434
▁እግዚአብሄርን	-15435
▁እያለሁ	-15436
▁እየጠበቅ	-15437
▁እየመራ	-15438
▁እንዲኖረን	-15439
▁እንዲቀ	-15440
▁እንደሚወስድ	-15441
▁እንደሚሄዱ	-15442
▁እንምላ	-15443
▁እናንተና	-15444
▁እህቱ	-15445
▁እፎ	-15446
▁እለምና	-15447
▁ኤር	-15448
▁ኤሚ	-15449
▁ኢስታንቡል	-15450
▁አድርገሃል	-15451
▁አደርጋለሁ!	-15452
▁አንተው	-15453
▁አትፍራ።	-15454
▁አስቀድመን	-15455
▁አስቀ	-15456
▁አሳወቀህ?	-15457
▁አሳው	-15458
▁አልፈዋል	-15459
▁አል-	-15460
▁አላወቁም	-15461
▁አለበለዚያ,	-15462
▁አጠና	-15463
▁ነገራቸው	-15464
▁ነህና	-15465
▁ትፈልጋለህ	-15466
▁ትምህርቶችን	-15467
▁ትሑ	-15468
▁ታላቁን	-15469
▁ታውቀ	-15470
▁ተፎካካሪ	-15471
▁ተጠንቀቅ	-15472
▁ተገኝተዋል	-15473
▁ተገልጿ	-15474
▁ቦይ	-15475
▁ብሎም	-15476
▁ባየህ	-15477
▁ቢሆን፥	-15478
▁በፊታቸው	-15479
▁በፈተና	-15480
▁በጥንት	-15481
▁በዲጂታል	-15482
▁በዓይ	-15483
▁በውጤ	-15484
▁በአሳ	-15485
▁በተና	-15486
▁በማይታ	-15487
▁በሚስጥ	-15488
▁በመሪያቸው	-15489
▁በላያቸው	-15490
▁በፕላኔቷ	-15491
▁በሙታን	-15492
▁በ20	-15493
▁ቂጣ	-15494
▁ቀንዶች	-15495
▁ቀሪ	-15496
▁ቀረብ	-15497
▁ስለሚችል	-15498
▁ስው	-15499
▁ሳስብ	-15500
▁ሲጀምር	-15501
▁ሞገስን	-15502
▁ማድረግ,	-15503
▁ማድረጋ	-15504
▁ማርታ	-15505
▁ሙያዊ	-15506
▁መፅሀፍ	-15507
▁መገሠ	-15508
▁መዘመር	-15509
▁መንፈሱን	-15510
▁መንግሥቱ	-15511
▁መንገድ.	-15512
▁መንገዴን	-15513
▁መቁጠር	-15514
▁መቀመጫዎች	-15515
▁መልስ፤	-15516
▁መልሳ	-15517
▁መዘዝ	-15518
▁መከናወን	-15519
▁ሕፃኑ	-15520
▁ልታደርግ	-15521
▁ልበ	-15522
▁ላክነው።	-15523
▁ለአገልጋዮቹ	-15524
▁ለጓደኛ	-15525
▁ለኃጢአ	-15526
▁ለሁ	-15527
▁ሆድ	-15528
▁ህይወታችንን	-15529
▁ሄዳ	-15530
▁ሁለተኛውን	-15531
▁on	-15532
▁Amharic	-15533
▁86	-15534
▁24/	-15535
▁1998	-15536
▁1993	-15537
▁1989	-15538
▁(ን	-15539
▁"የአላህ	-15540
▁"ከእኔ	-15541
▁"እነሱ	-15542
▁"እሱም	-15543
ፈውን	-15544
ጣቱ)	-15545
ግኖች	-15546
ገባን	-15547
ገለፀው	-15548
ድሜ	-15549
ይዘው	-15550
ዓመቱ	-15551
ዎቼን	-15552
ዋደድ	-15553
ወጣም።	-15554
ወላጆቻቸው	-15555
ነቀ	-15556
ትናም	-15557
ብሄር	-15558
ቂው	-15559
ቀርቡት	-15560
ሾመ	-15561
ሻል፤	-15562
ስታግራም	-15563
ስልጠና	-15564
ስ።	-15565
ሴቶች)	-15566
ሮዎች	-15567
ምሳሌው	-15568
ምሽት	-15569
ማውረድ	-15570
መሰል	-15571
መቅረብ	-15572
ልዎ	-15573
ላውቅ	-15574
ለቡ	-15575
ሃድሶ	-15576
ED	-15577
"አ	-15578
▁ፍራፍሬዎች	-15579
▁ፍጹ	-15580
▁ፍልስጥኤ	-15581
▁ጣዖታት	-15582
▁ጎበዝ	-15583
▁ግመ	-15584
▁ገፅ	-15585
▁ደካሞች	-15586
▁ደቂቃዎችን	-15587
▁ደጆች	-15588
▁ዮሴፍን	-15589
▁ይውላል	-15590
▁ይናገራል፤	-15591
▁ይቀራል	-15592
▁ይሰጠናል።	-15593
▁ይሆናሉ፤	-15594
▁ይጋራ	-15595
▁ያዘዘ	-15596
▁ያስፈልግዎታል።	-15597
▁ያስፈልጋቸዋል።	-15598
▁ያስታውሰ	-15599
▁ያስባል።	-15600
▁ያስባሉ።	-15601
▁ያልተለመዱ	-15602
▁ያፍራ	-15603
▁ያስታ	-15604
▁የጻፍ	-15605
▁የወጣው	-15606
▁የተጠቀሱትን	-15607
▁የተቀየ	-15608
▁የምትፈልግ	-15609
▁የምትፈልገውን	-15610
▁የሚያስፈልጋቸውን	-15611
▁የሚያገኙ	-15612
▁የሚወዷ	-15613
▁የሚሰጡዋቸውን	-15614
▁የሚገዛ	-15615
▁የሚቀጥ	-15616
▁የሚሞ	-15617
▁የመስማት	-15618
▁የሌሊት	-15619
▁የላቁ	-15620
▁የሆነችው	-15621
▁የጐደ	-15622
▁የኾነው	-15623
▁የቅርቢ	-15624
▁የሊ	-15625
▁ዞን	-15626
▁ዝምታ	-15627
▁ዝሙት	-15628
▁ዙሪያውን	-15629
▁ውጤቱን	-15630
▁ወጣ,	-15631
▁ወደኛ	-15632
▁ወልድ	-15633
▁ኮምፒው	-15634
▁ክፍለዘመን	-15635
▁ክርስቲያናዊ	-15636
▁ክላ	-15637
▁ካደረግ	-15638
▁ካዩ	-15639
▁ኪዳንን	-15640
▁ከወዴት	-15641
▁ከእንቅል	-15642
▁ከእግር	-15643
▁ከተገኘ	-15644
▁ከምታ	-15645
▁ከሚገኙ	-15646
▁ከመካከላችሁ	-15647
▁ከከ	-15648
▁እያጋጠ	-15649
▁እንጅ።	-15650
▁እንደዚያው	-15651
▁እንኳ,	-15652
▁እንል	-15653
▁እናንት	-15654
▁እጠቀማ	-15655
▁አግኝቶ	-15656
▁አደባባይ	-15657
▁አይወድምና።	-15658
▁አይልም።	-15659
▁አያደርግም	-15660
▁አዛውን	-15661
▁አዘዛ	-15662
▁አዎን,	-15663
▁አታውቁም።	-15664
▁አቢሜሌክ	-15665
▁አበኔ	-15666
▁አስነሣው	-15667
▁አስታውስ፤	-15668
▁አርብ	-15669
▁አመለካከቶች	-15670
▁አልፈለገ	-15671
▁አልሰሙ	-15672
▁አልሄድም	-15673
▁አላውቅም.	-15674
▁አሉት,	-15675
▁አህያ	-15676
▁አጀ	-15677
▁አለሁ	-15678
▁ንጉሥ,	-15679
▁ንገራቸው	-15680
▁ነው፡	-15681
▁ነውም፣	-15682
▁ነኝ'	-15683
▁ታስተባብሉ	-15684
▁ታክሲ	-15685
▁ተጫዋቾችን	-15686
▁ተወግ	-15687
▁ተከትለው	-15688
▁ተመሳሳይነት	-15689
▁ተመልሷል	-15690
▁ተጠብ	-15691
▁ተማም	-15692
▁ብስክሌቶች	-15693
▁ብላለች፦	-15694
▁ባሉበት	-15695
▁በኩራት	-15696
▁በአሥራዎቹ	-15697
▁በብቃት	-15698
▁በቃለ	-15699
▁በማናቸውም	-15700
▁በሚኖሩበት	-15701
▁በሕልም	-15702
▁ቅረቡ	-15703
▁ቀጠሉ፤	-15704
▁ስብዕና	-15705
▁ስላላ	-15706
▁ስመለከት	-15707
▁ሳይሆን፣	-15708
▁ማብሰል	-15709
▁ማለቂያ	-15710
▁ማወቁ	-15711
▁ሚሊዮ	-15712
▁መጠጊያዬ	-15713
▁መዘግየት	-15714
▁መውሰድ,	-15715
▁መብል	-15716
▁መስማማት	-15717
▁መመዘኛ	-15718
▁መልካምም	-15719
▁መልእክቶች	-15720
▁መጸ	-15721
▁መገልገ	-15722
▁መዘጋጀት	-15723
▁ሐሰት	-15724
▁ልጃችሁ	-15725
▁ለአምላካ	-15726
▁ለስላሳ	-15727
▁ለመውደድ	-15728
▁ለሕዝቦቹ፡-	-15729
▁ሁከት	-15730
▁cryptocurrenc	-15731
▁VPN	-15732
▁Samsung	-15733
▁88	-15734
▁83	-15735
▁700	-15736
▁56|	-15737
▁56	-15738
▁190	-15739
▁"እባክ	-15740
▁"በሕይወት	-15741
▁"ሕዝቦቼ	-15742
ፈውስ	-15743
ፈዋል።	-15744
ጻፉት	-15745
ጢኣ	-15746
ገደድ	-15747
ገኝበት	-15748
ገናኛው	-15749
ገለገል	-15750
ገዛት	-15751
ደንጋጭ	-15752
ደዋል።	-15753
ያላን	-15754
ዛዥ	-15755
ዘዋል።	-15756
ዓሉ	-15757
ው)	-15758
ወርዳ	-15759
ካስ	-15760
ከላዊ	-15761
ኦን	-15762
እንደዚሁ	-15763
ኢስታንቡል	-15764
ነት፣	-15765
ኋችሁን	-15766
ቲዩብ	-15767
ቱ፣	-15768
ቪን	-15769
ብድር	-15770
ብኛል	-15771
ባበስ	-15772
ቀሰቅ	-15773
ራረ	-15774
ራመዱ	-15775
ሦር	-15776
ምራል	-15777
መሠ	-15778
መሙ	-15779
ልሃለሁ	-15780
ሌሊ	-15781
ላጎት	-15782
ለዋወጥ	-15783
ሆኗ	-15784
ney	-15785
SL	-15786
Pl	-15787
::"	-15788
13	-15789
▁ፕሬዚዳን	-15790
▁ጥበበኞች	-15791
▁ጣቶች	-15792
▁ገልጦ	-15793
▁ድምፄ	-15794
▁ዳርም	-15795
▁ይጠቀሙ.	-15796
▁ይሞታል።	-15797
▁ይመስላችኋ	-15798
▁ይሆን,	-15799
▁ይገናኙ	-15800
▁ይድና	-15801
▁ይቃወ	-15802
▁ያምኑ	-15803
▁የጸጋ	-15804
▁የገነት	-15805
▁የዳዊትን	-15806
▁የወንጌል	-15807
▁የእያንዳንዱን	-15808
▁የእና	-15809
▁የታሰረ	-15810
▁የተደገፈ	-15811
▁የተሰለፉ	-15812
▁የተፃፈ	-15813
▁የተከሰተው	-15814
▁የተተረጎ	-15815
▁የራስዎን	-15816
▁የማም	-15817
▁የሚጠራው	-15818
▁የጳውሎስ	-15819
▁የበላ	-15820
▁የሦስት	-15821
▁ዝግመተ	-15822
▁ዘረ	-15823
▁ውሰዱ	-15824
▁ወዳለው	-15825
▁ወስዷል	-15826
▁ወሰደው	-15827
▁ከአው	-15828
▁ከአመጠኞች	-15829
▁ከተቻለ	-15830
▁ከሚኖሩ	-15831
▁ከመግ	-15832
▁ከልጅነት	-15833
▁ከሌለው	-15834
▁ከበላ	-15835
▁ከማየት	-15836
▁እየቀረበ	-15837
▁እንዲወጡ	-15838
▁እንደተገናኙ	-15839
▁እንደሌላቸው	-15840
▁እንቁላል	-15841
▁እቅዶች	-15842
▁አፈጻጸ	-15843
▁አድነን።	-15844
▁አደርጋለሁ፤	-15845
▁አይጠፉ	-15846
▁አይ,	-15847
▁አንሥቶ	-15848
▁አንጸባረ	-15849
▁አትግደ	-15850
▁አትናገር	-15851
▁አብዛኞቹን	-15852
▁አሸንፈ	-15853
▁አስነስ	-15854
▁አምነው	-15855
▁አሕዛብም	-15856
▁አልነበረው	-15857
▁አልነበረውም።	-15858
▁አልቆ	-15859
▁አለብዎ	-15860
▁አወረድን	-15861
▁ንጥ	-15862
▁ቻይንኛ	-15863
▁ትርኢ	-15864
▁ተፈጽ	-15865
▁ተሸክመው	-15866
▁ተመኘ	-15867
▁ተደን	-15868
▁ተኩ	-15869
▁ቤተሰቦቻቸው	-15870
▁ቢሻ	-15871
▁በአከባቢው	-15872
▁በነሐሴ	-15873
▁በኀይል	-15874
▁በቅጽ	-15875
▁በቁጣ	-15876
▁በቀጣይ	-15877
▁በሚስጥር	-15878
▁በመከተል	-15879
▁በመለ	-15880
▁በፋ	-15881
▁በያዕቆብ	-15882
▁በራስ	-15883
▁ቆም	-15884
▁ቆሜ	-15885
▁ቅዱሳዊ	-15886
▁ቃልኪዳን	-15887
▁ቀድመው	-15888
▁ቀን"	-15889
▁ቀናት,	-15890
▁ስሙም	-15891
▁ስላሳወቅ	-15892
▁ስላሳወቅነው	-15893
▁ስለምት	-15894
▁ሴቲቱን	-15895
▁ምስኪን	-15896
▁ማስረዳት	-15897
▁ሙሐመድ	-15898
▁መጀመ	-15899
▁መዘን	-15900
▁ሕፃኑን	-15901
▁ሕዝቦችም	-15902
▁ልጅ.	-15903
▁ልቤን	-15904
▁ልቀት	-15905
▁ላባ	-15906
▁ለምታ	-15907
▁ለማያ	-15908
▁ለማመልከት	-15909
▁ለሚቀጥለው	-15910
▁ለመቆጠብ	-15911
▁ለመምታት	-15912
▁ለመሙላት	-15913
▁ለአብርሃም	-15914
▁ለሌላ	-15915
▁ሆይ:?	-15916
▁it	-15917
▁OS	-15918
▁Forex	-15919
▁Ad	-15920
▁(ከእምነት	-15921
▁(ከእምነት)	-15922
▁(አንድ	-15923
▁(እኔ	-15924
▁(ሮሜ	-15925
▁"ይህም	-15926
▁"በአላህ	-15927
▁"አብ	-15928
ፎርድ	-15929
ፍሬም	-15930
ጩኸ	-15931
ግራችሁ	-15932
ገሀነም	-15933
ጆችን	-15934
ይዩ	-15935
ያንዳንዳቸው	-15936
ወደስ	-15937
ኼዱ	-15938
ካሄዱ	-15939
ከሻ	-15940
አልኮል	-15941
አቸውን	-15942
አቀፍ	-15943
አለሁ፤	-15944
ንቀሳቀሱ	-15945
ናግል	-15946
ናቢስ	-15947
ቻላቸው	-15948
ታል፥	-15949
ቪየት	-15950
ብረር	-15951
ብቅም	-15952
ባችንን	-15953
በቡ	-15954
ቆምም	-15955
ሪቱን	-15956
ሪሚ	-15957
ሠራበት	-15958
ሠራም	-15959
ምድርና	-15960
ማስጀመር	-15961
ማድ	-15962
ሚር	-15963
መናዊው	-15964
መስለው	-15965
መልአክ	-15966
ሕይወ	-15967
ሐቅም	-15968
ላለች።	-15969
ለች)	-15970
ሃለሁ፥	-15971
orn	-15972
ome	-15973
lack	-15974
ial	-15975
ht	-15976
_"የ	-15977
SA	-15978
27|	-15979
2,	-15980
0_	-15981
-ወደ	-15982
▁‹እኔ	-15983
▁ፊትም	-15984
▁ፈሩ.	-15985
▁ጩኸታቸውን	-15986
▁ጥያቄውን	-15987
▁ጥሎ	-15988
▁ጠላትን	-15989
▁ጠቁ	-15990
▁ጎሳ	-15991
▁ገንቢዎች	-15992
▁ገብቷል።	-15993
▁ዲፕሎማ	-15994
▁ደብዳቤዎች	-15995
▁ይደረጋል።	-15996
▁ይንገሩ	-15997
▁ይችላል...	-15998
▁ይታመናል	-15999
▁ይቀራል።	-16000
▁ይምሉላችኋል፤	-16001
▁ይለኛል።	-16002
▁ይቈ	-16003
▁ያድነ	-16004
▁ያደርጉታል	-16005
▁ያውቃል,	-16006
▁ያለህን	-16007
▁የክፍል	-16008
▁የእኛ	-16009
▁የአማዞን	-16010
▁የነበረች	-16011
▁የተቻለንን	-16012
▁የቅንጦት	-16013
▁የምንፈልገው	-16014
▁የሚያስፈልገ	-16015
▁የሚያከብር	-16016
▁የሚገናኙ	-16017
▁የሚሰራው	-16018
▁የመጨረሻይቱም	-16019
▁የለብዎትም.	-16020
▁የከበረ	-16021
▁የናይጄሪያ	-16022
▁የትን	-16023
▁ዕብራውያን	-16024
▁ወሰለም)	-16025
▁ኾና	-16026
▁ክንፍ	-16027
▁ከተማይቱን	-16028
▁ከስምንት	-16029
▁ከምሥራቅ	-16030
▁ከኩባንያ	-16031
▁እውቀትም	-16032
▁እንጂ፥	-16033
▁እንዲሉ	-16034
▁እንደወደ	-16035
▁እንደነበ	-16036
▁እንሰጥዎታለን	-16037
▁እንቀበላ	-16038
▁እናትህ	-16039
▁እናደርገ	-16040
▁እሰጣለሁ	-16041
▁እርጉ	-16042
▁እቤት	-16043
▁እቀጣ	-16044
▁እሳ	-16045
▁ኤን	-16046
▁አድጓል	-16047
▁አይደርስ	-16048
▁አይመስለኝም።	-16049
▁አይኖረውም	-16050
▁አያስፈልጋቸውም	-16051
▁አየሁ.	-16052
▁አየ።	-16053
▁አትደ	-16054
▁አባቶቼ	-16055
▁አስፈፃሚ	-16056
▁አስተያየቶችን	-16057
▁አስደንጋጭ	-16058
▁አልተናገረ	-16059
▁አላነበ	-16060
▁አመልክ	-16061
▁ኖኅና	-16062
▁ነፍስህን	-16063
▁ነፍስን	-16064
▁ነግረው	-16065
▁ትክክል?	-16066
▁ትርጉሙ	-16067
▁ታጥ	-16068
▁ተደጋ	-16069
▁ተዛማጅ	-16070
▁ተናግራ	-16071
▁ተቀመጡ።	-16072
▁ተደም	-16073
▁ተሰው	-16074
▁ቧንቧ	-16075
▁ቦታን	-16076
▁ብንሆን	-16077
▁ብትወዱም	-16078
▁ብጁ	-16079
▁ብለው	-16080
▁ባለሥልጣን	-16081
▁ቡድናችን	-16082
▁በፊታችሁ	-16083
▁በድንኳ	-16084
▁በከነዓን	-16085
▁በኢን	-16086
▁በነገር	-16087
▁በቤትዎ	-16088
▁በረሃ	-16089
▁በመንገዳቸው	-16090
▁በልባችን	-16091
▁በ1914	-16092
▁በዮርዳኖስ	-16093
▁በቁር	-16094
▁በሙሉ	-16095
▁ቍርባን	-16096
▁ቅጣቱን	-16097
▁ቅርጸቶች	-16098
▁ቅርቢቱን	-16099
▁ቀደምት	-16100
▁ቀንድ	-16101
▁ቀባ	-16102
▁ቀረጥ	-16103
▁ስፍራው	-16104
▁ስድብ	-16105
▁ስብስ	-16106
▁ስለራሱ	-16107
▁ሴቶችም	-16108
▁ሲነሳ	-16109
▁ሲሰራ	-16110
▁ሲሉም	-16111
▁ሰማይን	-16112
▁ሰማያትን	-16113
▁ምላሽ:	-16114
▁ማስታወቂያዎችን	-16115
▁ማፍራት	-16116
▁ማጫወቻ	-16117
▁ማጫወት	-16118
▁ማና	-16119
▁ማሞ	-16120
▁ሚስቴ	-16121
▁መጥቀስ	-16122
▁መኪናውን	-16123
▁መብረር	-16124
▁መሰረዝ	-16125
▁መርጦ	-16126
▁መልሼ	-16127
▁መሻ	-16128
▁ሕይወታቸውን	-16129
▁ሕዝብን	-16130
▁ሉዓ	-16131
▁ለእግዚአብሄር	-16132
▁ለአንተም	-16133
▁ለባሪያ	-16134
▁ለጋ	-16135
▁ሂድ.	-16136
▁visitors	-16137
▁AM	-16138
▁70%	-16139
▁5G	-16140
▁35|4	-16141
▁2:	-16142
▁(እነሱ)	-16143
▁(ሰለ	-16144
▁(ረ	-16145
▁"ከእናንተ	-16146
▁"ማ	-16147
ፓርታማ	-16148
ፅሐ	-16149
ጥመድ	-16150
ጣፍ	-16151
ጢያ	-16152
ጠነቀ	-16153
ጠባበቃ	-16154
ገለጹት	-16155
ይር	-16156
ዘዋ	-16157
ዎታል?	-16158
ዌር	-16159
ዋለ	-16160
ወገኖቼ	-16161
ካንሰር	-16162
ከራካሪ	-16163
ኞቻቸውን	-16164
ኝ!	-16165
ኘውን	-16166
ኖክ	-16167
ንግግር	-16168
ንግዳ	-16169
ንስሐ	-16170
ናት።	-16171
ናልድ	-16172
ናጸ	-16173
ነፃነት	-16174
ነግርህ	-16175
ታችሁንም	-16176
ተኛውና	-16177
ብረተሰቡ	-16178
ባኝ	-16179
ቃል፤	-16180
ቂያዎች	-16181
ሰኝ	-16182
ርብ	-16183
ሪኮች	-16184
ሠሩትም	-16185
ምራን	-16186
ማች	-16187
መረጥ	-16188
ሐዋርያትም	-16189
ሊድ	-16190
ሊል	-16191
ሉት፤	-16192
ሃል፥	-16193
lic	-16194
eg	-16195
box	-16196
..."	-16197
-5	-16198
▁ፊልሙን	-16199
▁ጠየቀው	-16200
▁ጓደኛዋ	-16201
▁ግርማ	-16202
▁ግራም	-16203
▁ገሀነምን	-16204
▁ድርብ	-16205
▁ዱካ	-16206
▁ደህንነታቸው	-16207
▁ይገባሉ።	-16208
▁ይዘህ	-16209
▁ይነገራል።	-16210
▁ይነካል	-16211
▁ይቆያል.	-16212
▁ይሰማናል	-16213
▁ይሁኑ.	-16214
▁ያመለክታል።	-16215
▁ያለውንም	-16216
▁ያለባቸውን	-16217
▁ያከናው	-16218
▁ያሏቸው	-16219
▁የታመኑ	-16220
▁የተቀደሱ	-16221
▁የተቀረ	-16222
▁የተሻሻለ	-16223
▁የተናገረ	-16224
▁የሠራው	-16225
▁የሚፈጽ	-16226
▁የሚመጡትን	-16227
▁የሚከፈል	-16228
▁የሚናገሩትን	-16229
▁የነገረ	-16230
▁የሥራ	-16231
▁ዓመት,	-16232
▁ወታደር	-16233
▁ከእንቅልፉ	-16234
▁ከአል	-16235
▁ከተቀ	-16236
▁ከምግብ	-16237
▁ከብዙ	-16238
▁ከረዳ	-16239
▁እየተከሰተ	-16240
▁እየፈለገ	-16241
▁እንድታደርግ	-16242
▁እንዲያስተ	-16243
▁እንዲገዙ	-16244
▁እንዲሳተፉ	-16245
▁እንዲሰሙ	-16246
▁እንዲሰ	-16247
▁እንደሚያደርጉ	-16248
▁እንደው	-16249
▁እንነግር	-16250
▁እስከም	-16251
▁እዳ	-16252
▁እሴ	-16253
▁አድርግ፤	-16254
▁አይኼዱ	-16255
▁አያምንም	-16256
▁አዩ።	-16257
▁አየሁ፥	-16258
▁አውጥቶ	-16259
▁አስተምራ	-16260
▁አልወድም	-16261
▁አልፈለጉ	-16262
▁አልመጣ	-16263
▁አላደረገም።	-16264
▁አላህንም	-16265
▁አኃ	-16266
▁ነኝ፥	-16267
▁ነሽ።	-16268
▁ኀይ	-16269
▁ተዛወረ	-16270
▁ተከላካይ	-16271
▁ተንኮ	-16272
▁ተቤ	-16273
▁ቦታ,	-16274
▁ብሪታንያ	-16275
▁ባዩት	-16276
▁ቢሆንም.	-16277
▁በገንዘቦቻቸው	-16278
▁በቅዱሳት	-16279
▁በቅንነት	-16280
▁በስተቀር.	-16281
▁በመጨረሻዎቹ	-16282
▁በመቀጠ	-16283
▁በመግ	-16284
▁በዱባይ	-16285
▁በትን	-16286
▁ቆይተዋል።	-16287
▁ቁመት	-16288
▁ቀርበህ	-16289
▁ቀዶ	-16290
▁ቀኝም	-16291
▁ስለሚችሉ	-16292
▁ሲሰጥ	-16293
▁ሲልም	-16294
▁ሰጠ።	-16295
▁ሰውዬው	-16296
▁ሰሞን	-16297
▁ራሷን	-16298
▁ሪፑ	-16299
▁ሪፑብሊክ	-16300
▁ምድራቸው	-16301
▁ምርቶቻችን	-16302
▁ማንነቱን	-16303
▁ማሳወቂያ	-16304
▁ማጭበር	-16305
▁መገሠጫ	-16306
▁መዘንጋት	-16307
▁መብራ	-16308
▁መበለት	-16309
▁መቃብሩ	-16310
▁መሲሑ	-16311
▁መረጃውን	-16312
▁መምታት	-16313
▁መልካሙ	-16314
▁መሆንዎን	-16315
▁መሃ	-16316
▁ሐውል	-16317
▁ልጥፎች	-16318
▁ሊገዛ	-16319
▁ሊበ	-16320
▁ለአሁኑ	-16321
▁ለማስደሰት	-16322
▁ለማር	-16323
▁ለሚፈልግ	-16324
▁ለመፈወስ	-16325
▁ለመመገብ	-16326
▁ለህይወት	-16327
▁ህዝብን	-16328
▁ህልውና	-16329
▁ሄደ.	-16330
▁ሃምሳ	-16331
▁ሂድና	-16332
▁ሂጂ	-16333
▁ሀዘን	-16334
▁bookmak	-16335
▁CBD	-16336
▁5.	-16337
▁3)	-16338
▁2:4	-16339
▁27|	-16340
▁1996	-16341
▁185	-16342
▁1፡	-16343
▁(አላህም)	-16344
▁(አንተ	-16345
▁(ትንሣኤ	-16346
▁"በእርሱ	-16347
▁"ንጉሡ	-16348
▁"ሁሉ	-16349
ጧቸው።	-16350
ጥ።	-16351
ጠው።	-16352
ጠነከረ	-16353
ግሱ	-16354
ጀማሪዎች	-16355
ደርስበት	-16356
ዩኒቨርሲቲ	-16357
ዝግብ	-16358
ዜማ	-16359
ዘጉ	-16360
ውነቱ	-16361
ወቀም	-16362
ወራው	-16363
አላህን	-16364
ናቸውንም	-16365
ናችንን	-16366
ነበብኩ	-16367
ት,	-16368
ተሃል	-16369
ቧራ	-16370
ቦችም	-16371
ቦራ	-16372
ባው	-16373
ባበሉ	-16374
ባሆ	-16375
ቢው	-16376
በጀት	-16377
ስፒታል	-16378
ስታወቂያ	-16379
ሰባቱ	-16380
ረቡ።	-16381
ረናል	-16382
ም፦	-16383
ምቢ	-16384
ማዕ	-16385
ሙ)	-16386
መስግ	-16387
ልን።	-16388
ልቦ	-16389
ላል?	-16390
ህልም	-16391
ሃል"	-16392
|4|	-16393
ya	-16394
oud	-16395
ock	-16396
St	-16397
CO	-16398
▁፲፫	-16399
▁ፍራንሲ	-16400
▁ፊደል	-16401
▁ፈርተው	-16402
▁ፈልገ	-16403
▁ፈላጊ	-16404
▁ጨዋ	-16405
▁ጥያቄ፤	-16406
▁ጥምቀት	-16407
▁ጥግ	-16408
▁ጠቢባን	-16409
▁ጆሮዎች	-16410
▁ድረስ፣	-16411
▁ደናግል	-16412
▁ይወዳል.	-16413
▁ይቀላቀሉ	-16414
▁ይሰጣሉ.	-16415
▁ይሰጠናል	-16416
▁ይሆናል፣	-16417
▁ይህም.	-16418
▁ይገድሉ	-16419
▁ያድጋል	-16420
▁ያንንም	-16421
▁ያስፈልገኛ	-16422
▁ያስተው	-16423
▁ያሳዝ	-16424
▁ያሳውቁ	-16425
▁ያለዉም	-16426
▁ያገኘው	-16427
▁ያከብራ	-16428
▁ያመለ	-16429
▁ያህሉ	-16430
▁የጥራት	-16431
▁የድርጅ	-16432
▁የአባቴ	-16433
▁የአራት	-16434
▁የነበረችው	-16435
▁የተናገሩትን	-16436
▁የስነ	-16437
▁የማና	-16438
▁የማሰብ	-16439
▁የሚያስጨ	-16440
▁የሚያደር	-16441
▁የሚልበትን	-16442
▁የሚከሰት	-16443
▁የሚቀመጥ	-16444
▁የመላኪያ	-16445
▁የመከራ	-16446
▁የጾ	-16447
▁የሩ	-16448
▁ዜማ	-16449
▁ዓላማችን	-16450
▁ዐፈር	-16451
▁ዐው	-16452
▁ዎች	-16453
▁ውዳሴ	-16454
▁ወንድማችን	-16455
▁ወሰዱ	-16456
▁ክብርና	-16457
▁ክበር	-16458
▁ኪዳኑን	-16459
▁ከደመና	-16460
▁ከአደጋ	-16461
▁ከመድረ	-16462
▁ከጐ	-16463
▁ከድ	-16464
▁ከውነ	-16465
▁ከምር	-16466
▁ኦርዮ	-16467
▁እገባለሁ	-16468
▁እያዩ	-16469
▁እያየን	-16470
▁እያሰብኩ	-16471
▁እወደዋለሁ	-16472
▁እኩሌታ	-16473
▁እንጠብቃለን።	-16474
▁እንዲቀጥል	-16475
▁እንዲሰማቸው	-16476
▁እንደምታየው	-16477
▁እንደመሆንዎ	-16478
▁እንደሆነም	-16479
▁እንሄዳለን።	-16480
▁እርም	-16481
▁እመክራለሁ	-16482
▁እወጣ	-16483
▁እሞላ	-16484
▁እለ	-16485
▁አግኝቷል.	-16486
▁አድርግል	-16487
▁አዳምን	-16488
▁አይደሉምን?	-16489
▁አይሰጥም	-16490
▁አይረዱ	-16491
▁አያስፈልግዎትም.	-16492
▁አዝማሚያዎች	-16493
▁አውቀው	-16494
▁አንደበት	-16495
▁አታድርጉት።	-16496
▁አስችሎ	-16497
▁አስተዋፅኦ	-16498
▁አልገባኝም	-16499
▁አልተቻለም	-16500
▁አላውቅም,	-16501
▁አጥር	-16502
▁አሉም	-16503
▁ነገር።	-16504
▁ነገረው።	-16505
▁ነው፤'	-16506
▁ነን?	-16507
▁ነን,	-16508
▁ትክዳ	-16509
▁ትቀበላ	-16510
▁ትመነዳ	-16511
▁ታድ	-16512
▁ታወጣ	-16513
▁ተጠንቀቁ።	-16514
▁ተደራሽነት	-16515
▁ተዋጡ።	-16516
▁ተናሰ	-16517
▁ተልኳ	-16518
▁ተድ	-16519
▁ተለየ	-16520
▁ብዙዎቻችሁ	-16521
▁ብርቱዎች	-16522
▁ቤተሰቤ	-16523
▁ባልነበረ	-16524
▁ባገኘ	-16525
▁በፊት፣	-16526
▁በአንቀጾቻችንና	-16527
▁በአር	-16528
▁በቃላት	-16529
▁በርግጥም	-16530
▁በማየ	-16531
▁በሚፈልጉት	-16532
▁በመጥፎ	-16533
▁በሕጉ	-16534
▁በጫ	-16535
▁በጠረ	-16536
▁በሮ	-16537
▁ቁልፎች	-16538
▁ሸሹ።	-16539
▁ስዊድን	-16540
▁ሰንጠረዥ	-16541
▁ራሱንም	-16542
▁ሪኮ	-16543
▁ሞክር።	-16544
▁ምትኬ	-16545
▁ምላሾች	-16546
▁ማስተዋወቅ	-16547
▁ማርክ	-16548
▁መጣንህ	-16549
▁መጣሁ	-16550
▁መጠኖች	-16551
▁መግለፅ	-16552
▁መንዳት	-16553
▁መስህ	-16554
▁መርሃግብር	-16555
▁መመስከራቸውን	-16556
▁መኖራቸው	-16557
▁መቀላቀል	-16558
▁መሥራ	-16559
▁ላስ	-16560
▁ሊፈርድ	-16561
▁ሊከሰቱ	-16562
▁ሊቆም	-16563
▁ለጉዞ	-16564
▁ለዘላለምም	-16565
▁ለህይወ	-16566
▁or	-16567
▁cont	-16568
▁contain	-16569
▁contains	-16570
▁Rep	-16571
▁</	-16572
▁33ሐዋርያትም	-16573
▁2008,	-16574
▁(አይ	-16575
▁(አዎ	-16576
▁(i)	-16577
▁(ሲ	-16578
▁(ሞ	-16579
▁(ሁሉም	-16580
▁"የመጀመሪያ	-16581
ፕሮጀክቱ	-16582
ፎቻቸው	-16583
ፈተሽ	-16584
ፈርዳ	-16585
ጣሉ.	-16586
ጠይቃቸው	-16587
ጓዘ	-16588
ጀንቲና	-16589
ድህ	-16590
ዳራዊ	-16591
ዲያና	-16592
ይጣንም	-16593
ይቁ	-16594
ዛዊ	-16595
ዐት	-16596
ዌ)	-16597
ኳስ	-16598
ካሉ።	-16599
ከማቸት	-16600
ኧረ	-16601
እውነ	-16602
እዋ	-16603
ንሰለት	-16604
ቸገሩ	-16605
ታለ	-16606
ባችሁን	-16607
ባል።	-16608
ቀመዛሙር	-16609
ቀደም	-16610
ቀረበ	-16611
ሽኖች	-16612
ስተካከለ	-16613
ስልምና	-16614
ሴምበር	-16615
ሴሎ	-16616
ሰማያትንና	-16617
ሯን	-16618
ራራው	-16619
ረፈ	-16620
ረዱን	-16621
መራው	-16622
መንን	-16623
ላይን	-16624
ላችሁ፥	-16625
ለችው	-16626
ህዌ)	-16627
ሃል,	-16628
ሃለን	-16629
ment	-16630
all	-16631
_8_	-16632
1,	-16633
▁፳፰	-16634
▁፲፭	-16635
▁ጴጥሮስን	-16636
▁ጥንካሬን	-16637
▁ጥንድ	-16638
▁ጠንከር	-16639
▁ግን፥	-16640
▁ጀምሮ.	-16641
▁ይግባውና	-16642
▁ይወዳሉ።	-16643
▁ይምረጡ.	-16644
▁ይልቁንስ	-16645
▁ይህም,	-16646
▁ያብራራል።	-16647
▁ያብራራል	-16648
▁ያመኑትንና	-16649
▁ያለዉና	-16650
▁ያፈ	-16651
▁ያዕቆብን	-16652
▁የፍጥረት	-16653
▁የጽድቅን	-16654
▁የኢየሩሳሌም	-16655
▁የአስ	-16656
▁የነገርኋችሁን	-16657
▁የታላ	-16658
▁የተወለዱት	-16659
▁የተቀረው	-16660
▁የተሰበሰቡ	-16661
▁የቀረበው	-16662
▁የሰጠኝ	-16663
▁የምንፈልገውን	-16664
▁የምስራች	-16665
▁የማዝ	-16666
▁የሚጠብቁ	-16667
▁የሚናገረውን	-16668
▁የመር	-16669
▁የለውም፤	-16670
▁የኩ	-16671
▁የቤቱ	-16672
▁ዘምሩ	-16673
▁ዕውቅ	-16674
▁ውርስ	-16675
▁ወደታች	-16676
▁ወሰኑ	-16677
▁ክንው	-16678
▁ክብርህን	-16679
▁ካምፕ	-16680
▁ካህናቱም	-16681
▁ኪም	-16682
▁ከፍጥረት	-16683
▁ከአስ	-16684
▁ከመንፈስ	-16685
▁ከመሞቱ	-16686
▁ከሀ	-16687
▁ኦስትሪያ	-16688
▁እግዜር	-16689
▁እየተጫወተ	-16690
▁እየተነጋገርን	-16691
▁እንፈልጋለን.	-16692
▁እንድታውቁ	-16693
▁እንዲያድጉ	-16694
▁እንዲያውቅ	-16695
▁እንደተናገረው	-16696
▁እንደሚያሳዩት	-16697
▁እንኖራለን	-16698
▁እንሆናለን።	-16699
▁እንሆናለን	-16700
▁እንይ	-16701
▁እናድርግ.	-16702
▁እናውቃለን?	-16703
▁እሱም፥	-16704
▁እምነቱ	-16705
▁እከፍ	-16706
▁እሳቱ	-16707
▁አዳራሾች	-16708
▁አደረጉ፤	-16709
▁አይነቱ	-16710
▁አያዩምን	-16711
▁አዘውት	-16712
▁አክስቴ	-16713
▁አክብር	-16714
▁አነባ	-16715
▁አትመኑ	-16716
▁አስኪያጅ	-16717
▁አስተዋል	-16718
▁አሳፋሪ	-16719
▁አሞጽ	-16720
▁አምላኩ	-16721
▁አላፊዎችን	-16722
▁አላደረገም	-16723
▁ነፍሳቸው	-16724
▁ነው;,	-16725
▁ኃጢያት	-16726
▁ኀጥ	-16727
▁ትዕግሥት	-16728
▁ትች	-16729
▁ትሕትና	-16730
▁ታያቸዋለህ።	-16731
▁ተቆራኝ	-16732
▁ተስፋን	-16733
▁ተገናኙ	-16734
▁ተለ	-16735
▁ብቻችንን	-16736
▁ብልጥ	-16737
▁ቤል	-16738
▁ቢፈቅድ	-16739
▁ቢስ	-16740
▁በዚህን	-16741
▁በእውነትም	-16742
▁በእረፍት	-16743
▁በንጹህ	-16744
▁በትኩረት	-16745
▁በተፈጥሮ	-16746
▁በተን	-16747
▁በቅዱሳን	-16748
▁በምታ	-16749
▁በሚናገሩ	-16750
▁በመልክተኛውም	-16751
▁በሕዝብህ	-16752
▁በሌሊ	-16753
▁በያ	-16754
▁በቺ	-16755
▁በበረ	-16756
▁በቃልህ	-16757
▁ቅድስና	-16758
▁ቃል፣	-16759
▁ቀልጣ	-16760
▁ቀልጣፋ	-16761
▁ሻይ	-16762
▁ሸሹ.	-16763
▁ስልት	-16764
▁ስለእ	-16765
▁ሳምሰ	-16766
▁ሳምሰንግ	-16767
▁ሱስ	-16768
▁ሰሙድ	-16769
▁ሰፈ	-16770
▁ሰዎቹን	-16771
▁ሮዝ	-16772
▁ሮበርት	-16773
▁ርኩ	-16774
▁ሬሳ	-16775
▁ሪቻርድ	-16776
▁ረቂቅ	-16777
▁ሞቶ	-16778
▁ማሳወቅ	-16779
▁ማረፍ	-16780
▁መንገድህን	-16781
▁መምጣቱን	-16782
▁መልካምንም	-16783
▁መልካሚ	-16784
▁ሐዘን	-16785
▁ልጆችዎ	-16786
▁ልትገድሉኝ	-16787
▁ሌሊትና	-16788
▁ላክን።	-16789
▁ሊኖረን	-16790
▁ሊል	-16791
▁ለእያንዳንዳችን	-16792
▁ለመጋ	-16793
▁ለመጀመሪያዎቹ	-16794
▁ለየ	-16795
▁ለክ	-16796
▁ሄደን	-16797
▁ሂዱ።	-16798
▁ሁን።	-16799
▁with	-16800
▁be	-16801
▁WW	-16802
▁APS	-16803
▁84	-16804
▁6:4	-16805
▁67|	-16806
▁67|6|ለ	-16807
▁67|6|ለእነዚያም	-16808
▁54|	-16809
▁33|	-16810
▁(ይህ)	-16811
▁(እነርሱም)	-16812
▁"የምሥራቅ	-16813
▁"ሰባት	-16814
▁"ፊ	-16815
▁"ማንም	-16816
ጭቆ	-16817
ጤንነት	-16818
ጠቃለያ	-16819
ጋንዳ	-16820
ገኑ	-16821
ጅምላ	-16822
ጃለሁ	-16823
ዶኔ	-16824
ዴሞክራሲ	-16825
ዳኑ	-16826
ዱኝ	-16827
ዪቱ	-16828
የትኛውም	-16829
ዜን	-16830
ዓዛር	-16831
ዋንና	-16832
ክተሮች	-16833
ከፋፍ	-16834
ከፋፈለ	-16835
እርግጥ	-16836
አላህ)	-16837
ኝ፣	-16838
ነዌ	-16839
ቶሪ	-16840
ታደራዊ	-16841
ቱሪስት	-16842
ተው፣	-16843
ተኩር	-16844
ቃዊ	-16845
ቀች	-16846
ሽያጭ	-16847
ሹት	-16848
ሶቻቸው	-16849
ሰናከ	-16850
ሮድስ	-16851
ረን።	-16852
ረዋል.	-16853
ረኛው	-16854
ሞክራሲያዊ	-16855
ምብ	-16856
ማምለጥ	-16857
ማደስ	-16858
መሳሳ	-16859
መቆም	-16860
ል)	-16861
ሌቅ	-16862
ሊንግተን	-16863
ህበት	-16864
ሂደት	-16865
quari	-16866
ower	-16867
lackj	-16868
lackjack	-16869
loud	-16870
8]	-16871
4,	-16872
33|	-16873
▁ጸሐፊዎች	-16874
▁ጨርሶ	-16875
▁ጡር	-16876
▁ጠየቀው።	-16877
▁ጠባቂዎች	-16878
▁ጃፓ	-16879
▁ጀርመንኛ	-16880
▁ድሆችን	-16881
▁ደነቆ	-16882
▁ደነቆሩም፤	-16883
▁ደረስ	-16884
▁ይጠቀማል.	-16885
▁ይገመታል	-16886
▁ይወጣሉ	-16887
▁ይወገዳ	-16888
▁ይከጅ	-16889
▁ይበልጣል።	-16890
▁ይመልከቱ)	-16891
▁ይላቸዋል	-16892
▁ይሆናል"	-16893
▁ይሁን!	-16894
▁ይፍ	-16895
▁ይዤ	-16896
▁ያድናል	-16897
▁ያዕቆብም	-16898
▁ያወጣል	-16899
▁ያወጣሉ።	-16900
▁ያንብቡ።	-16901
▁ያስፈልጋቸዋል.	-16902
▁ያስወግ	-16903
▁ያደገ	-16904
▁ያቆ	-16905
▁የፈርዖንን	-16906
▁የአባቴን	-16907
▁የነበሩትም	-16908
▁የታገ	-16909
▁የተመሠረቱ	-16910
▁የተዛ	-16911
▁የሠራውን	-16912
▁የሚያጠጣ	-16913
▁የሚያገኙት	-16914
▁የሚጫወቱ	-16915
▁የሚበልጠው	-16916
▁የላከ	-16917
▁የለዎትም	-16918
▁ዘርህ	-16919
▁ዓይኖቹን	-16920
▁ዓሦች	-16921
▁ዓመፀኞች	-16922
▁ዐርፎ	-16923
▁ዐርፎአልና።	-16924
▁ወደነሱ	-16925
▁ወንዙ	-16926
▁ክሪ	-16927
▁ካቶሊክ	-16928
▁ከመታ	-16929
▁ከገዛ	-16930
▁ከዘላለም	-16931
▁ከሠራ	-16932
▁ከማይ	-16933
▁ከሆ	-16934
▁እያልን	-16935
▁እየተሻሻለ	-16936
▁እየተቃ	-16937
▁እንድንኖር	-16938
▁እንድሆን	-16939
▁እንዲናገሩ	-16940
▁እንደፈጠረ	-16941
▁እንነጋገር	-16942
▁እንመነዳ	-16943
▁እናውቃለን,	-16944
▁እስከሚመጣ	-16945
▁እርጉዝ	-16946
▁ኤሊ	-16947
▁ኢንቨስትመን	-16948
▁አገኘው	-16949
▁አገኘን	-16950
▁አገልጋዮቹን	-16951
▁አገራቸው	-16952
▁አገለ	-16953
▁አይፈልግ	-16954
▁አይኖራቸው	-16955
▁አይበደ	-16956
▁አይበ	-16957
▁አይሰጡ	-16958
▁አውሬ	-16959
▁አክሎም	-16960
▁አታድርግ።	-16961
▁አታውቁም?	-16962
▁አስታውሱ።	-16963
▁አስጨ	-16964
▁አሳስ	-16965
▁አመሰግናለሁ!	-16966
▁አሉት፦	-16967
▁አለ፣	-16968
▁አቀርባ	-16969
▁አለምን	-16970
▁ንብረቶች	-16971
▁ናችሁ?	-16972
▁ናት?	-16973
▁ነኝ፣	-16974
▁ነህ!	-16975
▁ነቀ	-16976
▁ትርዒት	-16977
▁ትላለች።	-16978
▁ትኬቶች	-16979
▁ታወሩ	-16980
▁ቲያትር	-16981
▁ተናጋሪዎች	-16982
▁ተቀመጠ።	-16983
▁ተቀበረ	-16984
▁ተጋሪ	-16985
▁ተመስገን	-16986
▁ቦታ.	-16987
▁ብልሃ	-16988
▁ብራን	-16989
▁ቤተክርስቲያ	-16990
▁ባደረገው	-16991
▁በጥቅ	-16992
▁በግብጽ	-16993
▁በዓይናችን	-16994
▁በእውነተኛው	-16995
▁በእነርሱም	-16996
▁በእርስዋ	-16997
▁በአማዞን	-16998
▁በኔፋውያን	-16999
▁በተግባ	-17000
▁በመቃብር	-17001
▁በፈረንሳይኛ	-17002
▁በግን	-17003
▁በጀርመንኛ	-17004
▁በወረደ	-17005
▁በክርስቲያን	-17006
▁ቆየ።	-17007
▁ቀናት.	-17008
▁ቀደሰ	-17009
▁ቀደሰውም፤	-17010
▁ቀሪው	-17011
▁ሽማግሌዎችም	-17012
▁ስብከት	-17013
▁ስሪቶች	-17014
▁ስቲቭ	-17015
▁ሲሆን፣	-17016
▁ሰጥቷል	-17017
▁ሰዎችና	-17018
▁ሰውየውን	-17019
▁ርህ	-17020
▁ረክ	-17021
▁ሥራዬን	-17022
▁ሥራዬ	-17023
▁ማድረጉን	-17024
▁ማይክሮ	-17025
▁ማየት.	-17026
▁ማለትን	-17027
▁ማለታቸው	-17028
▁መንግሥተ	-17029
▁መሸሽ	-17030
▁መስሚያ	-17031
▁መሰል	-17032
▁መሥሪያ	-17033
▁መለያው	-17034
▁መወገድ	-17035
▁መወሰድ	-17036
▁መኮን	-17037
▁ላያ	-17038
▁ላላ	-17039
▁ሊያደርጉት	-17040
▁ሉዊስ	-17041
▁ለእና	-17042
▁ለስድስት	-17043
▁ለማስረዳት	-17044
▁ለሚፈሩ	-17045
▁ለመገምገም	-17046
▁ለምን?	-17047
▁ለምኑት	-17048
▁ሁላችሁንም	-17049
▁ሁሉ.	-17050
▁that	-17051
▁her	-17052
▁UN	-17053
▁Air	-17054
▁4.	-17055
▁25%	-17056
▁10)	-17057
▁(ትንሣኤ)	-17058
▁(እኛ	-17059
▁"ነ	-17060
ፖች	-17061
ፌር	-17062
ፋጠን	-17063
ፈኛ	-17064
ጸልያ	-17065
ጪዎች	-17066
ጓጓዝ	-17067
ጎልበት	-17068
ጌን	-17069
ጋኒስታን	-17070
ጋጤ	-17071
ድቅም	-17072
ያውቋቸው	-17073
ያለሁ.	-17074
ዊያን	-17075
ካሊፎርኒያ	-17076
ከለክሉ	-17077
እን	-17078
እስያ	-17079
አስተዳደር	-17080
ንቀጠቀጡ	-17081
ኑሕን	-17082
ኑ,	-17083
ቼዋለሁ	-17084
ቼክ	-17085
ትግራይ	-17086
ቴንም	-17087
ታማነት	-17088
ቲሽ	-17089
ባዊው	-17090
ባትህ	-17091
ባሲ	-17092
በትንሣኤ	-17093
ቋረ	-17094
ቃታማ	-17095
ቃለሁ	-17096
ቀውም።	-17097
ስትን	-17098
ሰግዱ	-17099
ሰበውን	-17100
ረጋገጡ	-17101
ረ።	-17102
ሦስቱ	-17103
ምና፥	-17104
ምህረት	-17105
ማስቆም	-17106
ማሰራጨት	-17107
ማለሁ	-17108
መቃብር)	-17109
መለሰው	-17110
ሕዝቦችም	-17111
ልህ።	-17112
ላለፈ	-17113
ላከ	-17114
ለያዩበት	-17115
ሃቸው፤	-17116
res	-17117
ong	-17118
ank	-17119
:17)	-17120
▁ፍየ	-17121
▁ፋሽን	-17122
▁ፊቱ	-17123
▁ጥንዶች	-17124
▁ጣት	-17125
▁ጠየቀ።	-17126
▁ጠጋ	-17127
▁ጎህ	-17128
▁ግን...	-17129
▁ግንድ	-17130
▁ጌታችንም	-17131
▁ጋዜጦች	-17132
▁ገልጿል።	-17133
▁ጅራት	-17134
▁ድብልቅ	-17135
▁ድራማ	-17136
▁ደጋግሜ	-17137
▁ይጠቀማሉ.	-17138
▁ይደውሉ	-17139
▁ይኖራል፤	-17140
▁ይመስላችኋል?	-17141
▁ይመራል	-17142
▁ይለናል።	-17143
▁ይወስድ	-17144
▁ይከበ	-17145
▁ይሞላ	-17146
▁ያገለግላል	-17147
▁ያስፈልጋል.	-17148
▁ያመ	-17149
▁የክፋት	-17150
▁የኢን	-17151
▁የአባትህ	-17152
▁የተባለውን	-17153
▁የተካሄደው	-17154
▁የተባሉ	-17155
▁የማያውቁት	-17156
▁የሚያዳም	-17157
▁የሚጠቀሙበት	-17158
▁የሚደገ	-17159
▁የለብንም።	-17160
▁የድሮ	-17161
▁የዛ	-17162
▁የውስ	-17163
▁የሕዝ	-17164
▁የላትም።	-17165
▁የሄደ	-17166
▁ዕርዳታ	-17167
▁ውሸታሞች	-17168
▁ውስተ	-17169
▁ካርታዎች	-17170
▁ከፈለግህ	-17171
▁ከእንደዚህ	-17172
▁ከእና	-17173
▁ከሚስቱ	-17174
▁ከመጡ	-17175
▁ከሐዲዎች	-17176
▁ከሌለዎት	-17177
▁ከነገ	-17178
▁እየሠሩ	-17179
▁እንዴት?	-17180
▁እንዲል	-17181
▁እንደሚሰሩ	-17182
▁እንደማን	-17183
▁እንሞክራለን	-17184
▁እንችል	-17185
▁እንመረ	-17186
▁እናወጣ	-17187
▁እስካለ	-17188
▁እስራኤላውያንን	-17189
▁እሱና	-17190
▁እዚህ	-17191
▁ኢያሱም	-17192
▁አገኛለሁ	-17193
▁አይደለም)	-17194
▁አይኼዱምና	-17195
▁አያስፈልጉ	-17196
▁አትታ	-17197
▁አታምኑ	-17198
▁አስፈራሪን	-17199
▁አማላ	-17200
▁አመስጋኞች	-17201
▁አልጠጣም	-17202
▁አልቀረ	-17203
▁አልላቸው	-17204
▁አለን"	-17205
▁አለበት!	-17206
▁አቆም	-17207
▁አሁንም	-17208
▁ኔዘርላንድስ	-17209
▁ናቸው፥	-17210
▁ነፍሱ	-17211
▁ነበረብን	-17212
▁ነበረባቸው።	-17213
▁ችለዋል	-17214
▁ታዘዙ	-17215
▁ታን	-17216
▁ተዓምርንም	-17217
▁ተነስቷል	-17218
▁ተቆራኝተው	-17219
▁ተሟጋ	-17220
▁ተጠናቅ	-17221
▁ተገለ	-17222
▁ተማረ	-17223
▁ተላል	-17224
▁ብጤያችን	-17225
▁ብስለት	-17226
▁ብለሽ	-17227
▁ባለኝ	-17228
▁ባለች	-17229
▁በውስጧም	-17230
▁በካር	-17231
▁በእኛና	-17232
▁በቤትህ	-17233
▁በሰፈሩ	-17234
▁በማየት	-17235
▁በለዓምን	-17236
▁በሂደቱ	-17237
▁በፈርዖን	-17238
▁በጆ	-17239
▁በወላጆቹ	-17240
▁ቆይተዋል.	-17241
▁ቆጣቢ	-17242
▁ቅጂዎች	-17243
▁ቀጭን	-17244
▁ሻምፒ	-17245
▁ስላገኘ	-17246
▁ስለወደ	-17247
▁ስታውቅ	-17248
▁ሰጠ.	-17249
▁ሰብስቦ	-17250
▁ሞቃት	-17251
▁ምድሪቱንም	-17252
▁ምሕረትን	-17253
▁ማስረጃዎችን	-17254
▁ማሳሰቢያ	-17255
▁ማሰሪያ	-17256
▁ማወዳደር	-17257
▁ማታም	-17258
▁ማቅ	-17259
▁ማሽከርከር	-17260
▁መጻሕፍ	-17261
▁መጠን,	-17262
▁መንገድ፣	-17263
▁መንደሮች	-17264
▁መስመ	-17265
▁መሰናክሎች	-17266
▁መሪነት	-17267
▁መካፈል	-17268
▁መሀል	-17269
▁ሎስ	-17270
▁ልቅሶ	-17271
▁ሊያጋጥ	-17272
▁ሊረዳን	-17273
▁ለዓለማት	-17274
▁ለውጦ	-17275
▁ለተሻለ	-17276
▁ለሚቀጥሉት	-17277
▁ለመጀመሪያው	-17278
▁ለነገ	-17279
▁ሁለቴ	-17280
▁Snapc	-17281
▁Snapchat	-17282
▁FA	-17283
▁35|44|በ	-17284
▁35|44|በምድር	-17285
▁1930	-17286
▁186	-17287
▁1:	-17288
▁(ዐ	-17289
▁(ማለት	-17290
▁(5	-17291
▁"ይህንን	-17292
▁"የምሥራቅና	-17293
▁"የምት	-17294
▁"እነዚያም	-17295
▁"እስቲ	-17296
ፏል	-17297
ፋለሁ	-17298
ፈልጓ	-17299
ጽሑ	-17300
ጮህ	-17301
ጢፋ	-17302
ጡት።	-17303
ጠፋም።	-17304
ጠርን	-17305
ጠቱ	-17306
ጠላት	-17307
ጋብር	-17308
ገሰጹ	-17309
ዶቻቸውን	-17310
ድረው	-17311
ድዮ	-17312
ድስተኛው	-17313
ደንት	-17314
ይዘት	-17315
የእግዚአብሔር	-17316
የሙ	-17317
ዑዲ	-17318
ውቀውም	-17319
ወለዱት	-17320
ወርሱ	-17321
ክፈት	-17322
ኬን	-17323
ከንድ	-17324
አል፥	-17325
ኖርዌይ	-17326
ነጋገረው	-17327
ኋችሁ።	-17328
ታችኋል፤	-17329
ታመን	-17330
ቪዬሽን	-17331
ባቸው፥	-17332
ቀላቀ	-17333
ሸፍ	-17334
ሸጊያ	-17335
ሸሹም	-17336
ስቶቻቸው	-17337
ስልጣን	-17338
ሰበሰበ	-17339
ሞቻችን	-17340
ማትን	-17341
ሐዲዎች	-17342
ሏቸው።	-17343
ህም"	-17344
ህኒ	-17345
ህ)	-17346
ሄዱበት	-17347
ሄድን	-17348
rote	-17349
rc	-17350
ight	-17351
ern	-17352
ana	-17353
BT	-17354
:9)	-17355
:.	-17356
31|	-17357
26|	-17358
▁ፍቅሩን	-17359
▁ፍርሃትን	-17360
▁ፍርዶች	-17361
▁ፍሎሪዳ	-17362
▁ፌዴሬሽን	-17363
▁ፈልጉ	-17364
▁ፀሐይን	-17365
▁ፀሀ	-17366
▁ጲላጦስ	-17367
▁ጭንቅላ	-17368
▁ጎብኚ	-17369
▁ጋላ	-17370
▁ጊዜዬ	-17371
▁ጊዜያ	-17372
▁ጉድለት	-17373
▁ገንዘቡ	-17374
▁ጄኒ	-17375
▁ድምፄን	-17376
▁ይጠናቀ	-17377
▁ይገባል?	-17378
▁ይጀምራሉ.	-17379
▁ይወስዳል,	-17380
▁ይኖርብናል	-17381
▁ይኖረዋል.	-17382
▁ይቆጣጠራ	-17383
▁ይሰጣቸዋል።	-17384
▁ይመጣሉ.	-17385
▁ይዳ	-17386
▁ይሄድ	-17387
▁ያዝ።	-17388
▁ያስተምራቸው	-17389
▁ያከናወ	-17390
▁ያነጋግ	-17391
▁ያብ	-17392
▁የእንስ	-17393
▁የተደበቀ	-17394
▁የተሰደዱት	-17395
▁የቤተክርስቲያኗ	-17396
▁የስደተኞች	-17397
▁የሠርግ	-17398
▁የምንሰራው	-17399
▁የምታው	-17400
▁የማይገባ	-17401
▁የማየት	-17402
▁የማታውቁ	-17403
▁የሚጠቁም	-17404
▁የሚያስፈልገንን	-17405
▁የሚያስች	-17406
▁የሚያው	-17407
▁የሚያመለክት	-17408
▁የሚታመን	-17409
▁የሚሰጡት	-17410
▁የሚመስለው	-17411
▁የሚበ	-17412
▁የልጆቹ	-17413
▁የፌደራል	-17414
▁የኖረው	-17415
▁የኒው	-17416
▁ዝንጀ	-17417
▁ዓይኖቻቸው	-17418
▁ውደዱ	-17419
▁ወሮታ	-17420
▁ክህደትን	-17421
▁ከጌታችሁ	-17422
▁ከአንዳንድ	-17423
▁ከአሁኑ	-17424
▁ከታላቁ	-17425
▁ከሰማይም	-17426
▁ከመስማት	-17427
▁ከመሆናቸው	-17428
▁ከሰጠ	-17429
▁ከርሱም	-17430
▁ከ,	-17431
▁እያለች	-17432
▁እዘምራ	-17433
▁እንጂ፤	-17434
▁እንዲወጣ	-17435
▁እንደሚታወቀው	-17436
▁እንደወጣ	-17437
▁እንከን	-17438
▁እስካል	-17439
▁እስከመጨረሻው	-17440
▁እለምንሃለሁ	-17441
▁እገዛ	-17442
▁አጥጋቢ	-17443
▁አድርግ.	-17444
▁አይበደሉም።	-17445
▁አይጠ	-17446
▁አይዞ	-17447
▁አይመለከ	-17448
▁አዘዘው	-17449
▁አውጪ	-17450
▁አውሳ	-17451
▁አንጸባረቀ፤	-17452
▁አንዱ.	-17453
▁አናሳ	-17454
▁አብዛኞቻችን	-17455
▁አበቦች	-17456
▁አስተማር	-17457
▁አምባሳ	-17458
▁አልተሰማ	-17459
▁አልሆነም	-17460
▁አልል	-17461
▁አላስብ	-17462
▁አለባቸው,	-17463
▁አፓርታማ	-17464
▁ንጽ	-17465
▁ነገሩት።	-17466
▁ነገረው	-17467
▁ነብዩ	-17468
▁ነቢዩም	-17469
▁ኃይሉን	-17470
▁ትራክ	-17471
▁ትሆናላችሁ።	-17472
▁ትሆናለች።	-17473
▁ትመራ	-17474
▁ትሉ	-17475
▁ታኅሣሥ	-17476
▁ተጠጋ	-17477
▁ተገቢውን	-17478
▁ተገረሙ።	-17479
▁ተነስተህ	-17480
▁ተርጓሚ	-17481
▁ተሞክሮዎች	-17482
▁ተምሬ	-17483
▁ተገዛ	-17484
▁ተወል	-17485
▁ተከተለው	-17486
▁ተመረ	-17487
▁ብዙ,	-17488
▁ብናደርግ	-17489
▁ብቃ	-17490
▁ባይሆኑም	-17491
▁ባሕሩን	-17492
▁ባለስልጣን	-17493
▁በፍርዱ	-17494
▁በአውሮፕላን	-17495
▁በአጠ	-17496
▁በትላልቅ	-17497
▁በቅጽበት	-17498
▁በራስ-ሰር	-17499
▁በሚችል	-17500
▁በሚመለከት	-17501
▁በመሰብሰብ	-17502
▁በሌለበት	-17503
▁ቅድመ-	-17504
▁ቃልን	-17505
▁ቃላቶች	-17506
▁ቀን፥	-17507
▁ሶፍትዌሩ	-17508
▁ስማርት	-17509
▁ሲሳይን	-17510
▁ሲጀመር	-17511
▁ሰልችቶ	-17512
▁ምክንያት.	-17513
▁ማገገም	-17514
▁መዛግብ	-17515
▁መንፈሱ	-17516
▁መስለው	-17517
▁መሪዎችን	-17518
▁መሠረተ	-17519
▁መልካምና	-17520
▁መገለጥ	-17521
▁መቸ	-17522
▁ልኡክ	-17523
▁ላድርግ	-17524
▁ሊያወጣችሁ	-17525
▁ሊጨምር	-17526
▁ለደቀ	-17527
▁ለእናቱ	-17528
▁ለአባቴ	-17529
▁ለማለፍ	-17530
▁ለመጨ	-17531
▁ለመሸከም	-17532
▁ለልጆቻችሁ	-17533
▁ሆንህ	-17534
▁ህጻን	-17535
[...]
