<pad>
<unk>
<s>
</s>
▁
ን
ት
ው
ም
በ
ለ
የ
አ
እ
ል
መ
ር
ስ
ይ
ነ
ተ
ች
ያ
።
ና
ደ
ላ
ግ
ማ
ብ
ገ
ከ
ድ
ህ
ረ
ወ
ታ
ሰ
ራ
ጥ
ሁ
ባ
ሚ
ቀ
.
ክ
ሉ
ጠ
ዎ
ሆ
ቅ
ሳ
ፍ
ዳ
ጋ
ቸ
ፈ
ዚ
ካ
ኛ
ጣ
ሪ
ዋ
"
ቱ
ዲ
ቶ
ቃ
ዘ
ሱ
ሩ
፣
ሮ
ኝ
ዝ
1
ሞ
ኔ
ዓ
ቻ
ኖ
ጊ
ዜ
ሊ
ሎ
ኑ
,
ጉ
?
ቢ
0
ሌ
ሽ
ሲ
2
፤
ቤ
ጀ
-
ሙ
ዛ
ዊ
ጨ
ቁ
ኩ
ፋ
ጅ
ቡ
ዱ
e
ሻ
:
፡
ቆ
ሥ
ፊ
ዕ
ሕ
ዙ
ጽ
ሬ
ኢ
ሃ
ቦ
!
ጭ
o
ዮ
ዩ
ኮ
ጃ
)
ጎ
ሜ
ጫ
(
ዴ
ሄ
ቹ
r
ቲ
3
a
i
ቂ
ጡ
ቴ
ሴ
t
ዶ
ሔ
ሀ
ኤ
5
ቋ
ኘ
4
ሐ
ኋ
ሠ
ሸ
n
ጆ
s
ኒ
9
ኞ
ፕ
ኪ
፥
ሶ
ኳ
ዬ
8
ጸ
6
ፖ
ፉ
‹
ኙ
7
ፎ
ጂ
ጻ
ጓ
ኃ
l
ጌ
c
ፃ
ፓ
ቷ
ፅ
›
ጤ
/
ቄ
ቼ
ጦ
ፀ
'
ዉ
ሂ
d
u
ኦ
C
m
ዞ
h
A
P
M
ቪ
ሣ
S
p
ሷ
ኬ
ጁ
ጵ
ሏ
g
ፌ
ፒ
T
ሯ
ሺ
y
>
ጪ
b
E
ሟ
;
ጢ
I
ጄ
D
ጹ
ኸ
ዥ
ሦ
ኅ
ጮ
N
ቺ
ቨ
O
ሹ
ኗ
k
B
፦
_
R
ሾ
w
f
ዐ
G
x
ቾ
v
ሑ
F
%
+
ዌ
W
L
[
ኣ
ቫ
ቧ
|
H
]
*
ጾ
ኾ
ጩ
V
ዷ
U
ጳ
ፁ
ጧ
ዣ
<
ፔ
ሓ
ሡ
ዖ
ጐ
X
ሖ
ዑ
ፏ
K
ዢ
ቭ
ጴ
Y
ኡ
ቬ
#
ኹ
ሼ
ዟ
ቿ
ፐ
$
ኀ
z
ፆ
ኚ
ኽ
ኜ
J
ኼ
ቍ
·
ዔ
፲
፪
=
ጿ
ቈ
ዒ
ኵ
Q
ሒ
&
j
ኧ
Z
^
፳
፩
ጇ
ل
ሇ
ቮ
፫
ጕ
ዪ
←
ኻ
ፑ
★
፬
ዤ
ጬ
q
ፄ
~
@
•
፭
ዦ
ኰ
ጲ
ዠ
፮
→
፰
{
፴
ጼ
፱
፯
°
፻
ዯ
ه
€
÷
}
£
ا
ሤ
ኟ
ሿ
️
ጒ
●
✔
′
ቐ
ጶ
ቊ
ዡ
ı
፵
ጺ
👉
ሗ
ج
🙂
😉
ኄ
ب
ü
ق
ሢ
ዽ
أ
ኁ
ኺ
ፂ
í
م
❤
ي
é
ر
İ
☞
ጯ
◆
►
®
ش
و
፶
ኆ
ع
፨
س
Ø
ş
ጰ
■
§
ᤰ
×
а
ö
➜
о
ኲ
☆
Ş
е
፧
ዃ
ã
ア
¡
語
ቕ
ハ
ム
ラ
♪
©
😂
ى
ص
✓
≤
⁄
፷
â
√
♦
ፇ
※
á
и
Ü
▶
▪
р
፹
с
Ç
н
⇒
י
ኴ
ç
♥
ğ
т
ä
᎓
፺
❖
̈
፸
\
ዀ
✅
ጏ
≥
†
ዅ
、
ኍ
ኂ
̋
ቓ
к
ن
ت
Ö
л
ቩ
🇪
ጔ
ó
Â
м
😀
🇹
᎐
å
ו
፠
ቛ
д
👇
፟
د
▼
✞
ቌ
🙏
в
у
。
😍
μ
◇
¢
ל
‡
ʼ
ዻ
➡
α
ο
َ
פ
ُ
מ
ኌ
═
♫
✍
😭
¿
ש
□
🔥
נ
👍
ጝ
】
😘
ה
ቯ
è
ة
😢
±
ñ
【
💭
ƒ
ዂ
¬
і
ν
א
➤
ጱ
ר
❗
Ã
ʻ
ዼ
σ
發
音
з
ת
◉
︎
ρ
ח
―
🇺
ς
п
❑
̿
↓
ד
▷
○
🤣
ï
ု
」
ဒ
ာ
ိ
်
▲
စ
ပ
၊
「
ι
ѕ
ם
ቑ
‐
🙁
र
ጷ
É
ك
ዧ
β
κ
В
М
ע
ቖ
◎
阿
ε
С
ú
г
ы
я
ⷀ
我
🇸
💚
б
й
ቇ
🤔
ָ
ف
ኯ
∙
τ
ْ
♬
❝
😊
😛
ë
П
ح
ዏ
ጛ
−
ʺ
ሧ
❞
⭐
요
📌
😏
¶
ā
π
ב
क
ा
ዸ
⟵
🔴
č
ь
◊
语
👌
😥
🛑
ê
ᎀ
✿
➢
拉
💛
ß
😱
à
ù
Ž
ِ
哈
姆
Ý
х
ኊ
│
♀
♣
・
К
Р
ֹ
ጘ
《
🏾
υ
Д
ч
्
△
☈
☺
š
Г
О
Т
ִ
ס
ק
天
👏
🥇
า
◈
☛
嘅
ì
ć
А
ш
त
प
ी
ዺ
♂
📖
Ä
Н
ա
स
े
ጙ
▫
▽
♡
的
아
🇬
😜
œ
Ÿ
ּ
⚡
🇨
💕
🔷
🙄
ð
ω
ц
ג
ط
ม
ቒ
▸
어
이
γ
λ
ی
ब
⃣
⚠
於
表
😅
¤
Á
î
ְ
ह
‛
♠
⟶
ⷘ
니
지
하
📻
🔰
😁
😡
¦
æ
þ
ō
̎
ю
һ
ַ
כ
ץ
ि
≠
◦
☀
⚽
Å
Þ
̧
ֶ
ो
া
፼
✨
ⷕ
の
￼
🌟
💖
¥
Ñ
ɪ
̄
خ
आ
द
य
เ
้
ᆞ
ዄ
ᎃ
↑
✎
✝
〇
发
을
🇳
ə
̊
ή
ό
Б
ф
ն
צ
ⷅ
你
에
😃
😳
ø
δ
φ
У
ן
ल
น
อ
่
‰
❀
❓
➋
➦
➨
有
가
다
🇷
🌺
📱
🔶
🔹
🙆
Ó
ý
ă
ʽ
ύ
ո
ט
ّ
ი
⁃
☑
♨
✋
日
昨
💞
😄
😈
🙊
🥰
ô
ʔ
Φ
Ω
Ф
ж
ׂ
إ
ز
व
श
ა
᐀
◄
♚
♭
✆
✘
✦
❥
➊
前
🇮
🔆
û
ě
έ
ֳ
٤
۞
ก
ง
ด
ო
↪
∷
☝
♋
✏
丨
고
🇦
🇲
🌷
💎
💰
😎
🤲
ˈ
θ
χ
ս
ւ
ׁ
؟
ज
ผ
ร
ส
თ
ዾ
ọ
♤
♻
⚄
⛱
➥
➮
⭕
加
劳
斯
為
翻
주
🇰
🌹
📲
🔑
🕳
Õ
Ú
ł
Š
Е
ז
ئ
भ
ค
ท
უ
ቝ
ἐ
ῶ
≈
▬
✈
❌
➠
➺
し
で
ル
分
🇵
🏽
🙈
È
ò
Ğ
ά
η
З
э
ե
ի
ֱ
ذ
غ
ग
ण
ว
ั
ხ
ኇ
ኈ
ዿ
ᎌ
‧
‵
₹
╚
╝
⚀
⛔
➔
⮚
ⷈ
ⷛ
て
タ
本
添
等
译
미
싶
좋
🌕
🍔
🎧
👈
👎
👨
💜
💡
😆
õ
Ā
Č
ē
ǎ
ș
ɡ
ʾ
ί
ր
ـ
پ
च
न
ต
ป
ิ
ี
ุ
გ
ნ
ቔ
ᎂ
ា
₿
↗
≔
⋆
☪
♑
♔
⚂
✮
⦁
⦿
ⷍ
る
ん
ー
人
製
里
錄
는
방
법
해
﷽
🌗
🎈
👦
💔
📞
📮
🔵
😇
😋
😔
😕
🤗
ė
ī
ŋ
И
Л
ך
ء
ظ
ई
ु
উ
დ
ე
კ
ლ
მ
ღ
ዹ
ጞ
ፘ
₴
₽
↔
⏰
─
▣
☘
☢
⚖
✌
✟
✭
❐
➵
ⵆ
ⷐ
》
さ
に
ビ
一
去
国
想
生
讀
这
點
것
를
사
서
음
🅔
🇭
🇴
🎨
🏻
🏼
💓
💥
🚀
🚚
🤓
🤭
Æ
Í
Ð
ő
ū
ż
ɛ
ɨ
ʕ
̣
Δ
ώ
պ
ֲ
߹
ं
म
ू
ত
প
স
ি
ু
ਰ
ు
ය
พ
๑
ს
ᎋ
ᥙ
ờ
⇨
⊖
╔
╩
◀
⚜
✧
✩
❁
➑
ⶀ
か
イ
中
他
和
在
女
意
機
用
第
考
譯
體
ꬃ
게
만
의
책
핑
🇧
🇱
🌏
🌲
🌼
🎶
👑
💢
📍
🔯
😩
🚨
🤞
Ê
Ô
ą
đ
ę
ś
ů
ž
ɑ
̵
Κ
ξ
Ц
յ
֗
ֵ
ף
،
ث
ض
ً
ٌ
ٰ
ھ
ܐ
अ
इ
ই
র
্
ਾ
ล
ห
แ
ไ
ვ
፞
ᎇ
ᐈ
‟
₺
⇢
∗
⏭
┗
▌
☻
♌
✒
✕
✪
❇
❷
き
な
カ
ト
仰
兴
午
品
好
对
怎
爱
繁
般
说
高
그
메
습
시
안
오
은
정
학
휴
🇯
🇽
🌀
🌑
🍟
🎤
🎬
🎯
🎲
🐜
👀
👊
👬
👱
💋
💧
💪
💻
📚
📝
📢
🔞
🔱
🔻
😌
😞
😤
🚫
🤡
🤨
🧡
À
Ë
Ł
ŏ
Œ
Ż
ƅ
ɒ
ʁ
ʉ
ʊ
ʿ
ˉ
˴
́
̃
̕
͇
Я
є
է
լ
խ
չ
ֻ
ہ
ە
ܘ
ܵ
ः
ै
চ
ਨ
న
ස
ํ
་
ခ
ီ
ျ
რ
ᅲ
ጚ
ጟ
ᎈ
ᓪ
ប
ế
ἰ
ὐ
‣
↠
↳
∕
∞
∵
≧
⊙
█
◪
☂
♊
♍
♎
♏
⚕
✖
✲
✴
❣
➍
➖
➚
➧
ⲟ
ⵑ
ⶋ
い
く
す
た
は
ま
よ
り
ス
ホ
为
了
二
产
件
信
做
停
公
司
商
器
士
夏
小
彼
待
得
微
文
机
発
私
类
育
至
詞
请
趣
通
酒
重
限
雨
類
ꬆ
ꬋ
갈
결
기
돈
로
말
보
선
스
않
용
저
전
제
차
체
표
했
혼
🇩
🇼
🌴
🎸
🏆
👁
👆
👳
💗
💙
💝
💫
💯
💿
📈
🔔
🗣
🗯
😒
😠
😷
🙌
🟢
🤚
🤝
🤦
🥺
Ì
Î
ď
ġ
ħ
ň
ť
ǒ
ɔ
ʌ
ˆ
Α
Β
Ё
ї
҉
ү
Ԍ
Դ
ը
թ
մ
տ
ք
֙
ک
ܗ
ܠ
ߋ
उ
আ
দ
ন
ব
ম
২
ਅ
ਉ
ਚ
ਮ
ௐ
గ
త
ల
ె
ത
സ
്
ත
ข
ฟ
ภ
ย
ู
က
ရ
း
္
ቚ
ᎄ
᎗
᎘
ᐅ
ᐊ
ᕆ
ᖅ
ង
រ
ំ
ṭ
ứ
ὲ
₸
↘
↙
∈
≦
⍆
⏳
⓷
┇
░
▒
▓
◌
☯
♈
♉
♐
♞
♾
⚫
⛄
✗
✰
❍
❸
➌
➛
➳
➻
➽
➿
⨳
⬤
ⶏ
ⶭ
ⶴ
ⷝ
あ
う
お
っ
ど
や
ょ
れ
を
オ
メ
下
义
乙
会
体
修
到
北
吗
喂
多
夫
娘
嬴
州
巴
店
延
式
後
御
憑
政
教
时
春
来
株
歌
洗
港
物
狐
班
社
祝
站
给
自
航
英
误
谷
购
资
走
車
还
道
隨
題
香
갑
거
나
난
내
네
대
랑
레
렌
문
반
발
산
성
세
쇼
수
실
쓰
없
왔
우
임
있
재
집
커
탈
터
화
🅝
🅞
🇿
🌓
🌙
🌻
🍉
🍦
🍽
🎆
🎵
👅
👩
👴
💏
💑
💒
💠
💬
💸
📎
📜
📡
📣
📴
🔊
🔙
🗲
😰
🙇
🙉
🙋
🛌
🞄
🤑
🤟
🤠
🤪
🤷
🦋
🧹
Ù
ÿ
Đ
Ġ
Į
Ľ
ţ
Ŧ
ų
Ƅ
Ɔ
Ə
ǔ
ǰ
ȝ
ː
˗
̱
̶
Η
Μ
Χ
ψ
ϊ
Ѕ
І
Ч
Ш
Э
Ю
щ
ћ
ѡ
ԝ
Մ
Ս
դ
կ
ջ
ռ
վ
֣
ֽ
ٍ
چ
۩
ܲ
औ
ख
छ
ड
ध
़
१
९
ক
ড
ভ
য
শ
হ
়
ে
৷
ਖ
ਜ
ਪ
ਬ
ਿ
ੀ
ੱ
స
ా
్
ಕ
ಣ
ಸ
ಹ
ಾ
ು
ഏ
പ
ാ
ൻ
ං
ඉ
ද
ි
ෝ
ฉ
ซ
ธ
ษ
ใ
์
།
န
မ
ဝ
ზ
პ
ჭ
ჯ
ᄂ
ቘ
ጜ
ᎎ
᎒
᎖
ᓗ
ត
᧐
ả
ễ
ệ
Ị
ị
ἕ
ὅ
ὑ
ὸ
ᾶ
ῆ
ῷ
‒
₩
↩
⇊
⇔
⇝
⇡
⇣
⇿
∠
∫
∴
≯
⊛
⊿
⋱
⏩
⏹
⏺
┈
║
◁
◑
◙
◡
◽
◾
☁
☕
☜
☹
☽
☾
⚔
⚪
⛅
⛪
✂
✉
✊
✡
✱
✻
❒
❔
❶
➒
➙
➣
➹
⬅
⬛
ⶄ
ⶆ
ⶐ
ⶽ
ⷌ
じ
だ
と
ふ
ら
キ
ケ
コ
サ
ザ
シ
ッ
テ
ナ
ニ
パ
モ
ン
ヽ
㗹
㜎
七
主
京
今
们
住
俩
出
制
医
危
古
叫
名
后
回
囧
國
场
大
太
奶
定
家
富
少
山
川
工
差
带
当
录
彙
徴
手
打
択
抦
摩
改
放
是
時
曲
月
標
樣
氣
海
火
特
独
电
端
简
粉
继
義
者
能
节
装
訂
評
論
词
话
輕
連
鐘
降
随
集
霜
靠
页
首
鬆
麼
개
교
꽁
년
눈
달
당
데
등
디
때
라
러
리
마
머
뭐
바
백
복
션
신
악
애
역
옵
원
유
일
읽
절
첫
추
친
카
캠
컴
트
퓨
할
홍
후
🅓
🅗
🅘
🅜
🅥
🇶
🌃
🌅
🌈
🌊
🌍
🌐
🍂
🍎
🍕
🍥
🍬
🍮
🍷
🎁
🎂
🎒
🎺
🎼
🏃
🏈
🏹
🏿
👂
👃
👓
👙
👧
👫
👯
💘
💦
💵
📊
📑
📩
📫
📰
📸
🔈
🔌
🔍
🔜
🔦
🔧
🕊
🕍
🕖
🕯
🖖
😝
😣
😲
😸
🙅
🙎
🚆
🚗
🤙
🤜
🦁
🦄
🧑
🧒
🧚
`
Ï
Ò
Ă
ĉ
ĕ
Ħ
ķ
ļ
ń
Ō
ř
Ū
Ƈ
Ɛ
ơ
Ƭ
ư
ƿ
ǐ
Ǟ
ɗ
ɣ
ɭ
ɹ
ɻ
ɽ
ɾ
ʀ
ʃ
ʏ
ˋ
̂
̏
͡
Ά
Ύ
Ώ
Γ
Ε
Ι
Ν
Σ
Τ
ζ
Ϝ
Х
Щ
Ь
ъ
ђ
љ
ғ
Ա
Գ
Ը
Թ
Ո
Փ
Օ
բ
գ
ձ
ղ
ց
֑
֖
֞
֫
آ
ؤ
٢
٪
ٱ
ٹ
ٽ
ٿ
ڀ
ڈ
ڌ
ڑ
گ
ۃ
ې
ے
ܛ
ܡ
ܣ
ܩ
ܪ
ޠ
ޡ
ߴ
ߵ
ए
घ
ट
थ
फ
ष
ृ
ौ
२
७
ও
জ
থ
ল
ী
ਈ
ਊ
ਓ
ਕ
ਛ
ਣ
ਤ
ਥ
ਦ
ਫ
ਹ
਼
ੇ
ੈ
ੋ
੧
੭
੮
੯
ੰ
ગ
જ
ત
ર
ા
ી
ુ
த
ம
ழ
ி
்
ం
ఘ
థ
ప
ം
എ
ക
മ
യ
ല
ള
േ
ൾ
ඇ
උ
ධ
ම
ර
්
ා
ු
ේ
ช
ญ
ณ
ถ
บ
ฬ
ฮ
ฯ
โ
ๆ
็
๏
๒
ཏ
ཐ
བ
ཝ
ར
ཨ
ེ
ོ
င
ဆ
ဖ
ယ
ေ
့
ြ
ှ
၁
၅
၇
၈
შ
წ
ᇬ
ቜ
ፗ
ፚ
፝
ᎉ
ᎊ
ᎏ
Ꮇ
ᐃ
ᐳ
ᑑ
ᑕ
ᑭ
ᑲ
ᓕ
ᚠ
ទ
ន
ព
យ
ស
ី
្
ᯭ
ḍ
ạ
ấ
ắ
ồ
ỗ
ớ
ừ
ἑ
ἔ
ἷ
ὠ
ῦ
‖
₱
↖
⇐
⇑
⇓
∧
∪
∼
≅
≢
≮
≱
⌊
⌋
⏪
⏬
⏲
⏸
⓵
⓶
━
┣
◯
◼
☎
☠
☣
☮
☰
☼
♛
♢
♧
♩
⚒
⛴
✤
✥
✳
❄
❆
❈
❎
❦
❹
❺
❾
➀
➐
➗
➩
➪
➫
➲
➶
⤴
⬇
Ⲟ
ⶈ
ⶉ
ⶥ
ⷃ
ⷄ
々
え
が
こ
ご
ず
そ
べ
ほ
み
も
ゃ
ゅ
ガ
ク
グ
ゴ
セ
ツ
ノ
バ
プ
ボ
ロ
㦻
䧏
三
上
不
乐
九
也
以
休
伯
何
作
像
兄
免
入
內
全
共
典
军
利
副
力
动
勇
動
华
单
厨
叭
向
告
员
周
味
哪
啤
喇
增
夕
如
姉
始
媒
孔
学
安
察
将
尊
局
巢
布
幫
年
庆
库
庭
开
弋
彩
影
往
必
思
愛
懲
抐
押
捨
据
接
敏
数
料
新
方
明
晚
曜
最
期
木
杜
杯
東
标
格
業
構
様
正
歩
民
氷
汉
泳
活
涨
潮
澳
灵
然
照
父
爾
牙
狗
猫
玩
理
瓜
甫
田
画
登
目
票
秋
筋
簿
結
線
细
维
缉
网
罰
習
職
胖
胡
膏
與
興
芬
蒙
行
衫
裤
言
試
読
警
认
记
证
诉
详
读
象
費
赫
足
載
辞
过
运
近
进
追
退
運
達
選
那
部
酷
铃
链
門
間
门
间
陽
雑
離
雪
靈
青
面
顺
题
飞
饮
験
鳥
鸟
ꬁ
ꬂ
ꬅ
ꬊ
ꬎ
ꬓ
객
건
걸
겠
공
국
글
날
남
냈
너
녕
노
논
뉴
답
더
동
된
됩
둑
들
루
륙
름
린
먹
목
못
무
별
봇
부
빌
뿔
설
송
식
암
앞
업
었
여
연
영
와
욕
운
울
월
자
작
잘
장
적
조
죄
즈
춤
치
컨
키
토
톱
통
특
틀
티
퍼
플
피
필
한
함
합
행
향
현
환
﴾
𐌌
𐌎
🅐
🅒
🅕
🅡
🅢
🅦
🅩
🆓
🇫
🇻
🌎
🌖
🌚
🌛
🌝
🌞
🌤
🌧
🌭
🌱
🌳
🌸
🌿
🍃
🍅
🍇
🍌
🍏
🍝
🍭
🍯
🍵
🎄
🎅
🎟
🎣
🎩
🎭
🎮
🎷
🏁
🏅
🏎
🏔
🏘
🏙
🏝
🏠
🏣
🏫
🏴
🐹
👄
👗
👚
👠
👡
👥
👭
👲
👶
👻
👽
👿
💃
💌
💍
💐
💟
💨
💩
💾
📃
📋
📥
📨
📵
📶
📷
🔀
🔄
🔒
🔗
🔘
🔟
🔢
🔤
🔸
🔺
🔽
🕑
🕒
🕰
🕸
🕺
🖍
🖤
🗂
🗄
🗡
😐
😑
😓
😗
😙
😦
😧
😨
😪
😴
😶
😹
😻
🙀
🙃
🚒
🚓
🚔
🚘
🚩
🚵
🚶
🛀
🛠
🟠
🟡
🤐
🥤
🦱
🦼
🧏
∶
⋮
ꬄ
ꬌ
▢
ⵗ
ꬉ
ǝ
ꗺ
ꬑ
🚴
ᎁ
ۆ
🎋
˃
ᎅ
℗
注
Π
డ
〉
皿
華
쩝
🌽
🎍
ё
ⶁ
個
僕
束
條
结
視
頻
🍀
😖
🤧
˅
̇
̔
Υ
ј
ܬ
క
చ
మ
య
ర
ీ
ై
ನ
ḱ
Ἐ
ὰ
⋅
ⶂ
エ
デ
マ
丘
她
您
강
계
낱
녁
누
드
또
위
코
테
팔
히
𓁹
🍄
🏺
🐐
👋
💽
📆
😚
😫
😮
🛅
🤥
🧸
Ǐ
Ǜ
˂
̷
ѣ
҆
ܒ
ܦ
ळ
ి
ಡ
್
ፙ
ḥ
ḧ
≡
◅
⛰
ⶅ
ⶊ
ⶖ
ち
む
ろ
ダ
仕
供
単
子
市
幽
旧
晋
暇
果
校
水
熊
熱
白
西
録
闲
겨
꿈
멘
삼
으
케
🌉
🐅
🐕
📒
😼
🤘
🤩
🤬
🤴
🤸
🥒
🥦
🧐
ኧ_ው
ኦች
ኡ_ን
እንድ
አቸው_ን
ኧት
ኦች_ን
ኡ_በት
ኦች_ኡ
ር_አ
ው_ን
ኣ_ው
ኧ_ው_ን
ኧ_በት
መ_አስ
አል_ኡ
ኧ_ው_አል
ኡት_ን
ኢ_ዎች
ኢ_ያ
ሚ_ም
ሚ_ግ
አት_ኡ
ሚ_ስ
ሚ_ቅ
ኧ_ን
ያ_ድ
ኧች
ዎች_ን
ማ_ይ
ሚ_ፍ
ሚ_ጥ
ኢ_ው
መ_አይ
ይ_አስ
ሚ_ክ
አት_ን
ሚ_ው
ሚ_ድ
ኧት_ኡ
ይ_አ
ዎች_ኡ
ሚ_ን
ኣቸው
ብ_አ
ሚ_ይ_እ
አቸው_አል
ል_እ
ው_አል
ተ_ው
ት_ኡ
ኢ_ነት
ት_አል
ኢያ
ኦች_ኡ_ን
ኢ_ዎች_ኡ
ጥ_አ
ዋኢማ
ኧ_ኛ
ያ_ቅ
ኦች_አቸው
ል_አቸው
ድ_አ
ያ_ግ
ነት_ን
አት_ኡ_ን
አችን_ን
ነት_ኡ
ሚ_ት_እ
ያ_ን
ሚ_ያ_ድ
ኣ_ው_ን
ያ_ም
ኧች_ው
ያ_ክ
ያ_ው
ሚ_እ
አል_ን
አት_አቸው
ብእል
ን_አ
አች
ኢ_ዎች_ን
ኣ_ዎች
ተ_ው_አል
ኛ_ው
ኧት_ኡ_ን
ነት_አቸው
በት_ን
ው_እ
ኡ_በት_ን
ግኝይ
ኧ_ለት
አስ_ት
ኧ_ል_አቸው
ሚ_ል
ኧ_ኝ
ሚ_ች
ነጥብ
ያ_እ
ያ_ብ
ሚ_ት
አል_እ
ያ_ስ
ሚ_ዝ
ሚ_ብ
ኧት_ን
መ_አ
ሚ_ህ
ሚ_ያ_ም
ሚ_ያ_ግ
አለ_መ
ሚ_ያ_እ
ኧት_አቸው
ት_አ
አል_ች
ም_እ
ተ_ን
ት_እ
ው_ያ_ን
ህውን
ብህል
ሚ_ይ_አስ_እ
ር_ብ
ኦች_አቸው_ን
ሚ_ያ_ክ
ተ_ኛ
አት_አቸው_ን
ክውን
ኤ_ው
ሚ_ር
ያ_ጥ
ሚ_ሽ
አስ_ተ
ን_አል
ኦች_አችን
ኧ_ች
አዊ_ው
ኧ_ኛ_ው
ነት_ኡ_ን
ባህል
ያ_ይ
ሚ_ይ_አስ_ች
ት_ኦች
ኡ_ት
አት_ኦች
ኢ_ው_ን
ኧ_ን_አል
ት_ን
ኦት_አል
ኧ_በት_ን
ኧት_አቸው_ን
ህ_ን
ሚ_ያ_ቅ
ስ_አ
ችእል
አል_ህ
ኣለች
ስጥይ
አል_ተ_ስ
ኣ_በት
አፍሪካ
ኣል_ኡ
ት_ኡ_ን
አባል
ያ_ዝ
አዊ_ነት
ኤ_ን
ኧ_ኛ_ኦች
ሚ_ካ_ህ
በሽታ
እውቅ
ደንብ
ል_ብ
ር_ኣቸው
አል_ፍ
ድርስ
ኡ_ለት
ውጥእ
ዜጋ
ሚ_ያ_ብ
ክይድ
ግብእ
ሚ_ሥ
እንግሊዝ
ኧት_ኦች
ዋ_ን
ያ_ር
ይእዝ
አል_ቅ
አችሁ_ን
አጋር
ሚ_ያ_ው
አንድ_አንድ
ኢ_ያ_ው
እይይ
ጥ_ኣቸው
ሚኒስትር
ር_አ_ር
ር_ኧ_ብ
ቅውም
ቋ_ቅ
ት_አቸው
አት_ኣ
ኡት_አል
እግር
ጋዜጣ
ፕሮጀክት
ም_አ
ነት_አቸው_ን
ኦ_ው
ኧች_በት
መብት
ሚ_ጭ
ስርእ
አል_ት_እ
አመት
አካል
ኡ_ል_አቸው
ኤ_ዎች
ሚ_ይ_አስ_ፍ
ር_ኡ_ብ
አል_ው
አት_አል
እልፍ
ምጥእ
ሚ_ያ_ስ
ማዕከል
ን_ን
አል_ም
አል_ስ
ሚ_ጅ
ን_በት
ኣ_ዎች_ን
ል_ን
ም_ት_እ
ስ_ኧ_ብ
ስሜት
ንስእ
ግልፅ
ር_አለ
ቅርስ
ተ_ኛ_ኦች
አል_ተ_ም
ያ_ሽ
ጣ_ጥ
ፕሮግራም
ህብረተሰብ
ሚ_ይ
ተ_ስ
አል_ጥ
ያ_ካ_ህ
መቶ
ንውር
ኢኮኖሚ
ውህብ
ውጤት
ዎች_ኡ_ን
ግለሰብ
ባንክ
አል_ብ
አል_ግ
አቅም
አደጋ
ኢንዱስትሪ
ኧ_ው_ት_አል
ምክንያት
ስ_ብ
በት_አል
ኃላፊ
ን_አቸው
ኦ_በት_አል
ወቅት
ዩንቨርሲቲ
ል_አ
ር_ኧ_ዉ
ኡ_ኝ
መካከል
ሚ_ያ_ካ_ህ
ር፤
ሶማሊ
ንብረት
አገር_ኢት
ኢ_ያ_ዎች
ኣ_ነት
ያ_ት
ኡ_ው
እትው
ያ_ፍ
ፋብሪካ
ህይድ
ሚ_ያ_ር
ም_ኣቸው
ስ_ኣቸው
ተ_ብ
አል_ድ
ወንዝ
ውእል
ግ_ብ
መኪና
ር_እ
ቅ_ብ
ተ_ካ
ትሕዝ
አል_ተ_ቅ
ኧች_ው_ን
ክ_ኤት
መ_አስ_ተ
መድረክ
ሱዳን
ብጽሕ
ነት_አችን
ወታደር
ዎች_አቸው
ጉባኤ
ግ_ኢት
ጥብቅ
ሃብት
ህግ_መ_ን
መ_አስ_ት
ሚሊዮን
ሰነድ
ሳምንት
ኝ_ነት
ኢ_ነት_ኡ
ኤ_ዎች_ን
እይ_እ
ፖሊሲ
ል_ኧ_ብ
መ_ት
መ_ን
ስለዝ
ተ_ለ
አል_ተ_ግ
አውሮፕላን
ኢ_ዎች_ኡ_ን
ግድል
ህጻን
ም_ና
ምሁር
ምን_እ
ና_ው
እንግዳ
ዝ_አ
ያ_ስ_እ
ግ_አ
ጣሊያን
ጥንት
መንደር
ሚ_ይ_አስ_ቅ
ሚኒስቴር
ማእከል
ስርሕ
ት_ኦ
ኣት_ኡ
ኦ_በት
ሆቴል
ኛ_ኦች
አን_ን
ኧ_ህ
ክብር
ው_ኣል
ግ_እ
ፍፅም
ሃላፊ
ሚ_ይ_አስ_ት
ሚ_ይ_አስ_ክ
ሰሜን
ቅ_አ
ት_አዊ
አት_አን
አን_ቅ
ኦት_ኡ
ኮሌጅ
ውስድ
ድ_ብ
ጉባዔ
ጎረቤት
ሆስፒታል
ል_ኡ_ብ
ሚ_ያ_ጥ
ም_ብ
ምልክት
በኩል
ቢሮ
ና_ና
አል_አችሁ
አት_ኦች_ን
ኧ_ኝ_ነት
ያ_ዊ
ፊልም
ሀገር_ኢት
ሚ_ን_ቅ
ሚ_ይ_አስ_ግ
ማህበረሰብ
ምስራቅ
ሠላም
ር_አች
ርድእ
ስትፍ
ቅጥል
አል_ተ_ድ
አል_ተ_ፍ
አርበኛ
ኮሚቴ
ዎች_አቸው_ን
ድሃ
ገጠር
ግብፅ
ጥቅም
ጭምር
ፍጥር
ፓርላማ
ል_ኝ
ልይይ
ምዕራብ
ር_አም
ተ_ኛ_ው
ተ_አ
ተ_ይ
አህጉር
አራት
አውሮፓ
ኡ_ል_ን
ኡ_ነት
ኢ_ነት_ን
እቃ
ኬንያ
ዲዛይን
ፍ_አ
ፍልግ
ህንድ
ሥነ
ስህተት
ባቡር
ና_ን
ን_ብ
ን_ኧ_ብ
ንብር
አል_ተ_ጥ
ኢ_ዎች_አቸው
ኢያ_ዎች
ኦሮሞ
ኩ_ት
ዊ_ው
ግብጽ
ጥብብ
ል_አለ
ል_ኧ_ዉ
መርከብ
ማ_ይ_አስ
ቀበሌ
ብ_ኢ_ይ
ተ_በ
ት_ኧ_ብ
ነጭ
አል_አቸው
አን_ኡ
እድግ
ዝግጅይ
ያ_ዎች
ያ_ጽ
ፈረንሳይ
ም_ኡ
ምዝግብ
ት_አት
ት_ኣ
ት_ኦች_ን
አል_ተ_ክ
አምባሳደር
አስ_ተ_ለ
አት_አችን
አዊ_ው_ን
አድዋ
ኡ_ህ
ኡ_ው_አቸው
ኣ_ዎች_ኡ
ኦች_አችን_ን
ክስት
ፌዴራል
ፓርክ
ል_አል፤
ል_ኧኛ
ሚ_ይ_አ_ስ
ሚ_ጽ
ማስረጃ
ር_አል፤
ር_ኢት
ስ_ተ
ስድስት
ቆዳ
ብሔረሰብ
ተቋራጭ
ች_ን
ች_አች
ኛ_ው_ን
አል_ኡት
አማርኛ
አችሁ_ት
አዊ_ት
አይነት
ኤጀንሲ
እቅድ
ኧት_ኦች_ን
ኬሚካል
ክ_አ
ኮሚሽን
ዘንድሮ
ዲሞክራሲ
ድንበር
ዶክተር
ሀላፊ
ሀይማኖት
ልቅቅ
መርህ
መስክ
ሙስሊም
ሚ_ያ_ሽ
ማ_ት
ማሽን
ማኅበር
ም_ት_ስ
ም_ት_ጥ
ምርጽ
ምውት
ር_ኡ፤
ቅ_እ
ብ_ቶ_እ
ቱሪስት
ታ_ድ
ት_አቸው_ን
አል_ተ_ል
አል_ተ_ው
አበባ
ኢ_ነት_አቸው
ኢ_ን
ኢያ_ው
ኢጣሊያን
እህት
እድር
ኦ_ዎች
ኧ_ኛ_ኦች_ን
ይ_እ
ጅ_ኧ_ጀ
ግብርና
ጥእል
ፊደል
ሚ_ያ_ዝ
ሚስት
ሚይ_እ
ም_ታ_ድ
ም_ት_ግ
ሪፖርት
ር_አው
ሰ_እ
ሰብል
ብ_እ
ተ_ኝ_ነት
ኝ_አል
አል_ተ_እ
አቅጣጫ
አጀንዳ
አፍ
ኤምባሲ
እሴት
ኦ_ው_ን
ኦች_አን
ይ_አስ_ት
ዳያስፖራ
ፕሬዝዳንት
ሀይል
መ_አይ_ት
ሙስና
ሚ_ይ_አስ_ም
ማዕድን
ምርት
ር_ኢ_ይ
ስ_ኡ_ብ
በአል
ተ_መ
ተ_ን_አል
ተራራ
ት_አማ
አካ_ህ
አየር
አደባባይ
አፋር
ኤ_ው_ን
ኧ_ነው
ካርታ
ካንሰር
ክፍት
ው_ያ_ን_ን
ዓይነት
ያ_ል
ደብዳቤ
ጥንቅቅ
ህዳሴ
ሌለ
መነሻ
ም_ኡ_ብ
ምን_ጥ
ምእር
ስፍራ
ቀጠና
ቱሪዝም
ት_ብ
ች_አቸ
ነው_ን
አት_እ
አይ_ት
ኡ_አቸው
ኢ_ያ_ነት
እራስ
እሳት
ኦት_አቸው
ኧ_ው_አቸው
ኧት_አችን
ክልክል
ኮርፖሬሽን
ዘጠኝ
ጥ_ቸው
ጫማ
ሚ_ይ_አስ_ተ_ል_እ
ማ_አ
ም_ኧ_ብ
ምዕመን
ራዕይ
ር_ኧን
ሲጋራ
ስ_ኦ_እ
ስምንት
ስኳር
ቁይይ
ቱርክ
ንግር
አት_አዊ
አእምሮ
አያት
አጥንት
ኢራቅ
ኮንፈረንስ
ኮከብ
ወባ
ውኃ
ይ_አ_ዩ
ይ_አስ_ተ
ድ_ኧ_ብ
ጎንደር
ጥ_ኧ_ብ
ፌዴሬሽን
ሃገር_ኢት
ህፃን
ል_ህ
ልእክ
መኮንን
መዲና
ም_ት_ቅ
ምን_ፍ
ሩሲያ
ስእል
ተልዕኮ
ቴክኒክ
ት_አችን
ትላንት
ኅብረተሰብ
ነት_አችን_ን
ነት_ኦች
ን_ኤት
አርቲስት
አት_ጥ
ኡ_በት_አል
ኢ_ያ_ው_ን
ኣ_ን
ኣችን
እስር
እስብ
እኩል
ኦ_ሽ
ኦት_ኦች
ኧ_ች_ው
ክረምት
ኮሪያ
ዊ_ያ_ን
ውሀ
ውጪ
ዘርፍ
ዝ_አኛ
ያ_ጭ
ዲያስፖራ
ዳይሬክተር
ገበሬ
ጋብቻ
ግ_ኧ_ዉ
ግሪክ
ግንባር
ጥ_ብ
ፍ_ኡ_ብ
ል_ኡ፤
ልዑክ
ሐይቅ
ሕጻን
መ_ተ
ሚ_ይ_አስ_ር
ሚ_ይ_አስ_ድ
ም_ት_ም
ር_አ_ብ
ርግጽ
ስል_እ
ሽንፍ
ቁርጥ
ቁጽር
ቅ_ኧ_ዉ
ቅምጥ
ቅርንጫፍ
ቅርይ
ባሕል
ቤተክርስቲያን
ብ_ኧ_ዉ
ቴሌቪዥን
ነዳጅ
ን_ኡ_ብ
አለቃ
አላማ
አትሌት
አካዳሚ
አዊ_ያ_ን
አውቶቡስ
አፈር
ኡ_ን_ን
ኢ_ዋ
እድሜ
ኧ_ት
ኧች_አቸው
ካናዳ
ወሲብ
ወደብ
ይ_ብ
ድምፅ
ግጥም
ጨርቅ
ፌደራል
ፍልይ
ፕሮጄክት
ሀይቅ
ህግ_ው
ለት_አል
ሕንድ
ሕግ_ኧ_መ_ን
መስኖ
መንስኤ
መድሃኒት
መፍትሄ
ሚ_ተ_ል_እ
ሚ_ያ_ን
ም_ን
ምሥራቅ
ምእራብ
ሞተር
ስልት
ስ፤
ብ_አታ
ብ_አች
ታ_ቅ
ታ_ው
ቴአትር
ት_ኦች_ኡ
ትራንስፖርት
ትውፊት
ኃይማኖት
ን_ኤታ
አል_ክ
አረብ
አት_ነት
አክሱም
አውሮጳ
አዕምሮ
ኢ_ያ_ዎች_ን
ኣ_ዋ
ኣ_ው_አል
ኧ_ኛ_ው_ን
ኧት_አን
ከንቲባ
ክትት
ወረቀት
ውስክ
ዕቃ
ድ_እ
ድንጋይ
ጋምቤላ
ግንብእ
ግዝእ
ጥ_አም
ጥ_ኡ_ብ
ጥርእ
ጥንክር
ጥይቅ
ጽንሕ
ፍ_ብ
ሀውልት
ህልውና
ሊቢያ
ሕፃን
መ_ስ
ሚ_ያ_ት
ሚ_ያ_ፍ
ም_ም
ምርእ
ምን_ም
ምክር
ሰአት
ስልክ
ስምእ
ሸዋ
ቁርጽ
ቅጠል
ባሕር
ተ_ው_ት_አል
ተዋጽኦ
ቻ_ች
ች_ው
ኃጢአት
ናሙና
ን_ኡ
አንገት
አካባቢ
አደራ
አዳማ
ኢ_ነት_ኡ_ን
ኢንስቲትዩት
እና_ድ
እንስሳት
ኧ_ል_አቸው_ን
ኧ_ው_በት_አል
ኧት_ኡት
ኧት_ኣ
ኮምፒውተር
ወፍ
ው_አቸው
ዎች_አችን
ዘዴ
ዛፍ
ዝግእ
ዩኒቨርስቲ
ጓ_ግ
ጭውት
ፍልስጤም
ፕሮፌሰር
ል_አችሁ
መሳፍንት
መቀሌ
መከራ
መድሀኒት
ሚ_ያ_ስ_እ
ማ_ይ_ት
ማሳ
ም_ት_ው
ምኒልክ
ሪፖርተር
ር_ኧኛ
ሱቅ
ቅ_ኣቸው
ቅብል
ቅትል
በረሃ
ቤተ_መ_ን
ተ_ኛ_ኦች_ኡ
ት_ኡት
ና_ው_ን
ን_ኢት
ን_እ
ን_ኧ_ዉ
አል_ተ_ር
አል_ተ_ዝ
አል_ኧት_አ
አልበም
አቻ
አክሲዮን
አዳራሽ
አፄ
ኢሕአዴግ
ኤሌክትሪክ
ኤድስ
ኤግዚቢሽን
እህል
እቴጌ
እግድ
እጽ
ኦ_ለት
ኦት_ን
ኦት_ኡ_ን
ኦች_ኣ
ኧ_ለት_ን
ኧ_አል_ኡ
ኩ_በት
ካቶሊክ
ክንድ
ወታደር_ኦች_ኡች
ወንበር
ውጤት_ኣማ
ዕብይ
ዕጽው
ዘውድ
ዝርግሕ
ዩኒቨርሲቲ
ያ_አ_ጥ
ጂቡቲ
ጄኔራል
ጥ_እ
ፌስቲቫል
ሁከት
ህንጽ
ሊቀ_መንበር
ላሊበላ
ል_አቸው_አል
ሕብርተሰብ
መኳንንት
መድፍ
ሚ_ብ_እ
ሚ_አ_ጥ
ሚ_ይ_አስ_ተ_ው_እ
ማ_ካ
ም_ት_ች
ም_ት_ድ
ም_አለ
ምን_ግ
ምዕራፍ
ሩዋንዳ
ሪፐብሊክ
ር_አችው
ስ_ኧ_ዉ
ስርአት
ሺሕ
በረዶ
ባለስልጣን
ብ_ኧ_ብ
ብ_ዓት
ብልጥ
ብአዴን
ቦንድ
ቴዎድሮስ
ት_አት_አል
ት_አን
ትርኢት
ችግኝ
ኃብት
አል_ተ_ች
አል_ተ_ን
አምባገነን
አረንጓዴ
አሰ_ት
አስከሬን
አባይ
አት_ኣ_ው
አት_ግ
አትክልት
አገር_ኣቸው
አፍሪቃ
ኡት_ኡ
ኢህአዴግ
ኢጣልያ
ኣት_ኡ_ን
እንስሳ
ኧ_ው_ት
ኩ_ኝ
ክህሎት
ው_ት_አል
ዓለም_እ
ዕውት
የት_እ
ያ_አስ_እ
ደህን
ደመወዝ
ዲፕሎማሲ
ዳርቻ
ድልይ
ድሬዳዋ
ድግፍ
ጉድእ
ግልግል
ግንቦት
ጥ_ኧ_ዉ
ጭንቅላት
ጸጥታ
ጽንፍ
ጽድቅ
ጾታ
ፅድቅ
ፈረንጅ
ሂሳብ
ህዳር
ሉአላዊ
ሐረር
ሐገር
መ_አስ_አ
መድኃኒት
መፍትሔ
ሙክር
ማኀበር
ም_ት_ፍ
ምልእ
ምን_ር
ሞዴል
ሰሞን
ሳ_ይ_ህ
ስ_አለ
ስ_እ
ሻ_ሽ
ሽእል
ቅ_አለ
ቅ_አል፤
ባሪያ
ተ_ህ
ተጽእኖ
ታ_ስ
ት_ነት
ት_አል_ች
ት_አት_ኡ
ትራፊክ
ትርዒት
ነርስ
ን_አለ
ኝ_ኡ_ብ
አረጋዊ
አሸዋ
አብዮት
አን_እ
አንበሳ
አዛውንት
አይ_አ
አይ_አስ
አይሁድ
ኡ_ል_ኝ
እብር
ኦሮሚያ
ኦት_ኣ
ኧት_ኧ
ኬኒያ
ክ_ህ
ክ_ኤት_አማ
ክሊኒክ
ዋሻ
ዕጩ
ዲግሪ
ድንኳን
ጅ_ኦት_አ
ጅቡቲ
ጎጃም
ጐን
ጥ_አ_ብ
ጥ_አል፤
ጥ_አች
ጥ_ኡ፤
ጥቅምት
ጥይት
ጭርስ
ፀጥታ
ፅንፍ
ፍራፍሬ
ፎቶግራፍ
ህልም
ህወሓት
ህዋስ
ህዳስ
ሉዓላዊ
ል_ም፤
ል_ስ
ል_አች
ል_ኣቸው
ልጃገረድ
ሐውልት
ሕስብ
ሕግ_ኧ_ው
መ_ካ
መጋዘን
ሚንስትር
ማኔጅመንት
ም_ት_ህ
ም_ት_ክ
ም_ኧን
ም_ክ
ምርቅ
ምን_ስ
ምን_ክ
ምን_ድ
ሞራል
ር_ም፤
ር_አቸዉ
ር_ኧ፤
ሳጥን
ቅሬታ
ቅኔ
በጋ
ቢሊዮን
ባ_ለ
ብ_ኢ_ዉ
ቦምብ
ቦይንግ
ተልእኮ
ታቦት
ት_አለ
ት_ኡ_ብ
ነፋስ
ኛ_ነት
ኝ_ኧ_ሁ
አህጉር_ኢት
አል_ኧ_ው
አገልግሎት
ኡ_ን_አል
ኡጋንዳ
ኢ_ያ_ን
ኢራን
ኣት_ን
እሳቸው
እክል
ኦርቶዶክስ
ኦች_ኤ
ኧ_ል
ኧ_ኝ_አል
ኧ_ው_አቸው_አል
ካቢኔ
ክ_ኣ_ህ
ክርስትና
ክንውን
ኮሚሽነር
ወላይታ
ወሬ
ወንድም
ዊ_ነት
ውድድር
ዓድዋ
ዝውር
ያ_ፅ
ዴሞክራሲ_ይ
ድ_አል፤
ድ_ኡ_ብ
ጅማ
ጨረቃ
ፋሽን
ፎረም
ሁለተኛ
ሌሊት
ል_ሁ
ሐምሌ
ሐይማኖት
መሀል
መስዋዕት
መስጊድ
ሚ_ያ_ል
ሚ_ያ_አ_ጥ
ሚ_ይ_አስ_ት_ም
ሚ_ይ_አስ_ጥ
ሚያ_ም
ሚያ_ድ
ማ_ን
ማኅበረሰብ
ማዕረግ
ሜክሲኮ
ም_ት_ል
ም_ኧ_ዉ
ሞስኮ
ር_አለ_ሁ
ር_አል_ኡ፤
ሰንደቅ
ሲሚንቶ
ሲይ_እ
ስ_ኧ_ን
ስፍእ
ስፔን
ሶፍትዌር
ቄስ
ቅንስ
ቅጥእ
በለስ
ቢዝነስ
ባህርዳር
ብ_አለ
ብልህ
ብርር
ብስክሌት
ተፅዕኖ
ታ_ን
ታ_ጥ
ታክስ
ት_አል፤
ት_አታ
ት_አችሁ
ት_አይ
ትራንስፎርሜሽን
ቶ_ት
ነት_አን
ን_አቸው_ን
ን_ኦች
ን_ኦች_ኡች
አል_ር
አል_ኧ
አልሸባብ
አልጋ
አርባ
አርአያ
አስር
አብን
አት_ስ
አት_ቅ
አንቀጽ
አንጋፋ
አውራጃ
ኢ_ዎች_አቸው_ን
ኢንቨስትመንት
ኢንተርኔት
ኢጣልያን
ኤርፖርት
እሁድ
እር
እስያ
እጩ
ኧ_ው_አል_ን
ኧ_ው_ኣል
ኧች_አቸው_ን
ካህን
ካርድ
ካፒታል
ክለብ
ኮምፒዩተር
ወለጋ
ወሎ
ወኔ
ወገብ
ዋልታ
ዋሽንግተን
ው_ያ_ን_ኡ
ውቅዕ
ዓረብ
ዝ_ኦት_አ
ዩናይትድ
ይ_አይ
ደሞዝ
ደሴት
ዳኛ
ድ_አለ
ድ_ኧ_ዉ
ድራማ
ዶላር
ግ_ኦል
ጠባይ
ጠዋት
ጤፍ
ጥቅእ
ጥንድ
ጽ_አ
ጽቤት
ጽውዕ
ፀጉር
ፋሽስት
ፍ_አ_ፍ
ፖርቲ
ሀምሌ
ላይቤሪያ
ል_ን_እ
ል_አል
ል_አት
ል_አቸው_ን
ል_ኡ
ል_ኧን
ሕንፃ
ሕገ
መሳሪያ
መስከረም
መንጋ
መጋቢት
ሙዚየም
ሚ_በ_እ
ሚ_እል
ሚ_ያ_ን_ቅ
ሚ_ያ_ን_ጽ
ሚሊየን
ማህበር
ማራቶን
ማክሰኞ
ም_ታ_እ
ም_ኦች
ምን_ን
ምፅዋ
ር_አር
ር_ኧ_ው
ር_ኧ_ው፤
ርዕይ
ርግእ
ሰማዕት
ሴኔት
ሴክተር
ስ_አል፤
ስ_ኡ፤
ስንዴ
ሶሪያ
ሽፍን
ቅ_ኤ_ይ
ቅ_ኧ_ብ
ቅ፤
በጅ
በጎ
ቡድን
ቢት_እ
ባዶ
ብ_አም
ብ_ኡ_ብ
ብሄር_ኧ_ሰ_ብ
ብርትእ
ብርእ
ቫይርስ
ተ_ኛ_ኦች_ን
ተሀድሶ
ታ_ም
ታህሳስ
ታጋይ
ቴሌኮም
ት_ት
ት_ኧ_ዉ
ት_ኧ_ው
ትምክህት
ትራምፕ
ትከሻ
ትግሬ
ትግብር
ኀብረተሰብ
ነት_ኣ
ን_አል፤
ንክይ
አል_ት
አሻራ
አት_ህ
አት_ፍ
አችሁ_አል
አናት
አዋሽ
አውቶብስ
አያ_ም
ኡ_ኝ_አል
ኡ_ዎች
ኢትዮ
ኢትዮጵያዊ
ኢያ_ዎች_ን
ኢጋድ
ኢጣሊያ
ኤችአይቪ
ኤክስፖርት
እርፍ
እንስ
እንባ
እክብ
ኦ_ለት_አል
ኦት_አቸው_ን
ኧ_ል_አት
ኧ_ነት
ኧ_ን_ን
ኧ_ኛ_ኦች_ኡ
ኧ_አቸው
ኧት_አችን_ን
ኧት_ኧ_ኛ_ኦች
ከምዘይ
ኪሎ
ካምፕ
ካንስር
ወልዲያ
ውቅያኖስ
ውግድ
ውጭ
ዐማራ
ዐዐ
ዝ_ኣቸው
ዝርብ
የካቲት
ዩኒየን
ዩኤስ
ያ_ሥ
ያሬድ
ድ_ኣቸው
ድንገት
ድ፤
ዶሮ
ጋፋት
ግ_አለ
ግርማ
ጎሳ
ጳጳስ
ፋሲል
ፋሺስት
ፍ_አማ
ፍ_ኢት
ፍ_ኧ_ብ
ፍ_ኧ_ዉ
ፓናል
ፕላን
ፕሮቶኮል
ሀረር
ሃይቅ
ሃገር_ኣችን
ህሊና
ህበረተሰብ
ለ_መ
ለ_አ
ሊቀመንበር
ሌል
ል_አቸዉ
ል_አቸው፤
ል_ያን
ል_ፍ
ልልይ
ሐዋርያ
ሕግ_ኧ_መንግሥት
መ_አስ_ተ_ስ
መርፌ
ሙልእ
ሚ_ይ_አ_ም
ሚ_ይ_አስ_ት_እ
ሚ_ይ_አስ_ው
ሚሲዮን
ማሽነሪ
ማኑፋክቸሪንግ
ም_ስ
ም_ው
ምትእ
ምድብ
ምግብ
ሞባይል
ሥርዓተ
ሥዕል
ረሃብ
ር_ኡት፤
ር፥
ሰንሰለት
ሲቪል
ሳ_ስ
ሳተላይት
ሳንባ
ሴኔጋል
ስርዝ
ስርጭይ
ስቴት
ስነ_ምግባር
ሸክላ
ሻዕቢያ
ሽይጥ
በራስ
በሺታ
ቢቢሲ
ባለቤት
ብ_አት_ኣ_ዉ
ብልሃት
ብሪታንያ
ብርክት
ቫቲካን
ተ_ኛ_ነት
ተ_ኛ_ው_ን
ተዋናይ
ተግዳር
ቴምብር
ት_አስ
ት_አቸው_አል
ት_አቻ
ት_አዊ_ት
ትናት
ትዕይንት
ች_ን_ን
ችሎት
ና_ድ
ንዋይ
አል_ኧ_ን
አምድ
አሥር
አሰ_ት_እ
አስኪያጅ
አት_ኦች_ኡ
አት_ው
አኝ
አዊ_ነት_ን
አዊ_ነት_ኡ
አዚያ
አጎበር
ኡ_ለት_ን
ኡ_አቸው_ን
ኡ_ው_ን
ኢ_ያ_ዎች_ኡ
ኢትዮዽያ
ኢትዮጰያ
ኢንተርኘራይዝ
ኢንተርፕራይዝ
ኢንፎርሜሽን
ኢያ_አቸው
ኣ_ህ
ኣ_ነት_አቸው
ኤክስፐርት
እምቦጭ
እርከን
እንጨት
እኩይ
እጥእ
ኦ_አል
ኦ_አቸው
ኦሪት
ኦዲት
ኧ_ል_ን
ኧ_ኝ_ነት_ን
ኧ_አል
ኧች_በት_ን
ክ_አቸው
ክስስ
ኮንትራት
ኮንግረስ
ወዲያ
ዕ_ር
ዙፋን
ዛምቢያ
ዜግ
ዝ_እ
የ_አ
የ_አስ
ያ_ን_ን
ይት_እ
ዲፕሎማት
ድ_ኧኛ
ድልድይ
ድይብ
ጉብኝይ
ግ_አል፤
ግ_ኧ_ብ
ግመል
ጓደኝ
ጣይቱ
ጥ_አ_ጥ
ጥ፤
ፀጋ
ፊንጫ
ፋና
ፋውንዴሽን
ፌርማታ
ፍ_ኣ_ፊ
ፍርድ
ፍቤት
ፍትሕ
ፍንድእ
ፓለቲካ
ፓኪስታን
ፕሬዚደንት
ፖናማ
ሀዋሳ
ሃያ
ሄሊኮፕተር
ህዳሴ_ይ
ለት_ን
ሊግ
ል_ል
ል_ት_እ
ል_ን_ቅ
ል_ን_አል
ል_ን_ው
ል_ኧ_ው፤
ልክፍ
ሐረሪ
ሐቅ
ሓደጋ
ሕውስ
መለኮት
መርሃ_ግብር
መስፍን
መኰንን
መጽሄት
ሙዚቃ
ሚ_ስ_ት
ሚ_ፅ
ሚያዚያ
ማላዊ
ማእድን
ም_ት_ን
ም_ን_እ
ም_ኡ_ን
ም_ኣ_አ
ም_ኤት
ም_ጥ
ምን_አ_ድ
ምን_ው
ሞሮኮ
ሠራዊት
ራስ_ዎ
ሬስቶራንት
ር_ቤት
ር_አ_ለች
ር_ኦን
ር_ኧ_ው_አል፤
ርዕስ
ሰሌዳ
ሰራተኛ
ሰኔ
ሲዲ
ሳምባ
ሳንቲም
ስ_አለ_ሁ
ስ_ኧን
ስብዕና
ስቱዲዮ
ስዊድን
ሸለቆ
ሻደይ
ቀንድ
ቅ_ኡ፤
ቅ_ኢት
ቅልቅል
ቅይር
ቅዳሜ
ባንድ
ባዕድ
ባግዳድ
ብ_አል፤
ብ_ኧ፤
ብርሀን
ብቅዕ
ብዝሕ
ተ_ው_ኣል
ተሃድሶ
ተባይ
ተጽዕኖ
ቲቢ
ታንዛኒያ
ታክሲ
ቴክሳስ
ቴክኖሎጅ
ት_አች
ትክል
ትክእ
ትዳር
ቶ_ለት
ቶ_በት_አል
ኅበረሰብ
ነት_ኤ
ና_ክ
ኔትወርክ
ን_አቸዉ
ንጽር
ኛ_ዉ
ኝ_ኧ_ብ
አህመድ
አል_አ_ቅ
አል_አስ_እ
አረቢያ
አርሲ
አሮጌ
አስ_ተ_ስ
አስፋልት
አብነት
አት_ም
አት_ኣን
አን_አቸው
አን_ፍ
አዊ_ነት_ኡ_ን
አውሮኘላን
አውስትራሊያ
አውታር
አዚህ
አዝማች
አድማስ
አገዳ
አፍጋኒስታን
አፓርታማ
ኢታኖል
ኢንቬስትመንት
ኢንዶኔዥያ
ኢያ_ው_ን
ኣ_ል_አቸው
ኣ_ነው
ኤችአይቪኤድስ
እርእ
እትም
እትዮጵያ
እና_ም
እንቁ
እንጦጦ
እውጅ
እይታ
እድገት
ኦ_ነት
ኦ_ን_አል
ኦ_ዎች_ን
ኦ_ዎች_ኡ
ኦህዴድ
ኦች_ህ
ኧ_ኡ
ኧ_ዎች
ኩርድ
ኩባ
ካይሮ
ክ_ት_ኧኛ
ኮንሰርት
ኮንትሮባንድ
ወልቃይት
ወተት
ዋና_ኧኛ
ዋዜማ
ውብ
ውንጭፍ
ውይይት
ዕልብ
ዕጣ
ዘላለም
ዝ_ሃ
ዝግጅት
የመን
ዩክሬን
ይኸ
ይኼ
ደህንነት
ደረት
ደሳለኝ
ደሴ
ዱባይ
ድ_አለ_ሁ
ድህረ
ድእን
ጃንሆይ
ጅ_ቱ
ገንዳ
ጉዕዝ
ግ_አት_አ
ግምብ
ግርማዊ
ግእዝ
ግድብ
ግድድ
ጕዳይ
ጠርሙስ
ጣሪያ
ጥ_አ_ጡ
ጥ_አለ
ጥ_ኣ_ብ
ጥ_ኣው
ጥ_ኧን
ጥርስ
ጥግእ
ጽ_ኣ_ው_እ
ጽብጽብ
ፈረንሣይ
ፋርስ
ፋይናንስ
ፌደሬሽን
ፍ_አል፤
ፍ_አቸዉ
ፍላጎት
ፍትእ
ፍንው
ፖርቱጋል
ሁል_ኣም
ሃይል
ህንጻ
ህክምና
ሊቅ
ሊቅ_አውንት
ላልይበላ
ላቦራቶሪ
ል_ም
ል_ን_ጥ
ል_አለ_ሁ
ል_ዎ
ል_ጥ
ሐላፊ
ሐሙስ
ሐብት
ሕርይ
ሕዋስ
መሀመድ
መላኩ
መልእክት
መርሃ
መስኮት
መስዋእት
መቅደላ
መቸ
ሙል
ሚ_ያ_ጭ
ሚ_ይ_አስ_ተ_ስ_እ
ሚ_ይ_አስ_ጭ
ሚኒሊክ
ሚንስቴር
ሚያዝያ
ማህበራዊ
ማሽላ
ም_ት_ት
ም_ት_ት_እ
ም_አቸዉ
ም_ፍ
ምላስ
ምረቃ
ምቤት
ምን_ቅ
ሞቃዲሾ
ሞገድ
ሥልት
ሥነ_ሥርዓት
ረሀብ
ረመዳን
ሩስያ
ሬዲዮ
ር_ሃት
ር_አ_ዉ
ር_አሉ
ር_ኢ_ዎቿ
ር_ኢ_ያ_ቤት
ር_ኣው
ር_ኦ_ብ
ርውጥ
ሰሊጥ
ሰሎሞን
ሰከንድ
ሲኒማ
ስ_ኦ_ብ
ስሕብ
ስምምነት
ስምርእ
ስብር
ስታር
ስነ_ስርዓት
ሶማሊያ
ሶቭየት
ሽልማት
ሽውም
ቅኝ
ቆርቆሮ
በርሊን
ባሌ
ባል_ድ
ባልደረባ
ባንዲራ
ባንዳ
ቤተክርስትያን
ቤንሻንጉል
ብ_ለ
ብ_ብ
ብ_አቸዉ
ብ_ኢ_ያዊ
ብዝእ
ቦሌ
ቪዛ
ቫይታሚን
ተ_ው_ት
ተዓምር
ታ_እ
ታ_ክ
ት_አችን_ን
ት_ኤ
ትምባሆ
ቶ_በት
ኃይለ_ማሪያም
ኒውዮርክ
ና_ም
ናይሮቢ
ኔዘርላንድ
ን_በት_ን
ን_አል_ሁ
ን_ኡ፤
ን_ኦ_ብ
ንእድ
ኝ_ነት_ን
ኝ_እ
አለ_ማ
አሉላ
አሉባልታ
አላ_ድ
አል_ኧ_ዉ
አል_ኧች
አልኮል
አልጀዚራ
አምቡላንስ
አምባ
አምጥ
አራፋት
አሽከር
አቤቱታ
አት_አችን_ን
አት_ኤ
አትሌቲክስ
አን_ች
አን_ጥ
አንድበት
አንጎላ
አውሬ
አውሮፖ
አይሮፕላን
አይጥ
አዲስ_አበባ
አዲግራት
አዳም
አድማ
አገር_ኣችን
አጎት
አፍንጫ
ኡ_ት_ን
ኢ_ት
ኢትየጵያ
ኢያ_ዎች_ኡ
ኣ_ያ
ኣለን
ኣት_አቸው_ን
ኣት_ኦች
ኤ_ዎች_ኡ
ኤችአይቪ_ኤድስ
ኤደን
ኤጄንሲ
እመቤት
እምቢ
እይ_አስ_እ
እጣ
ኦ_ል_አቸው_አል
ኦሎምፒክ
ኦት_አችን
ኦት_ኦች_ን
ኦች_ች
ኦች_አችሁ
ኦነግ
ኧ_ን_በት
ኧ_አቸው_ን
ኧች_ን
ካሜራ
ካይዘን
ኬላ
ክ_እ
ኮሙኒኬሽን
ኮምቦልቻ
ኮርፖሬት
ኮንስትራክሽን
ኮንሶ
ኮንትራክትር
ኮንጎ
ኳታር
ወንጂ
ወይዘሮ
ውድቅ
ውግእ
ውጫሌ
ዐረብ
ዓሣ
ዓፄ
ዕድል
ዩኒሴፍ
ዩኒእንስስ_አትርስቲ
ዩጋንዳ
ያ_ቋ_ቅ
ያ_ጣ_ጥ
ይ_ሁ
ይ_ት_አ
ይ_ኡ_ብ
ይ_ኧ_ብ
ይ_ኧን
ደደቢት
ደጀን
ዲያቆን
ዲፕሎማ
ዴኤታ
ድልው
ድርጅት
ገጽታ
ጉራጌ
ግብዓት
ግንድ
ግ፤
ጐዳና
ጓዳኝ
ጠመንጃ
ጢስ
ጣኦት
ጥ_ሁ
ጥ_አችው
ጥ_ኣ_ሁ
ጥ_ኣም
ጥ_ኣችሁ
ጥላሁን
ጥቃቅን
ጥናት
ጨረር
ጨዋ
ጫካ
ጸሀይ
ጸሀፊ
ጸጥ
ጽርይ
ጽውት
ፀሎት
ፊሊፒንስ
ፋሲካ
ፋይዳ
ፍ_ኡ፤
ፍ_እ
ፍ_ኧ፤
ፍየል
ፓሪስ
ፓትሪያርክ
ፓኬጅ
ፓይለት
ፔሩ
ፕላስቲክ
ፕላኔት
ፖሊዮ
ሀረሪ
ሀዲስ
ሁሴን
ሂደት
ሃይሌ
ህልፈት
ህብረት
ህወሃት
ህዋ
ላብራቶሪ
ላቲን
ል_ት_ም
ል_ት_ው
ል_ን_ር
ል_ን_ግ
ል_ዉ
ልቡና
ልኡክ
ልዑል
ሐሜት
ሐሰት
ሕንጽጽ
ሕዳስ
መ_ተ_ለ
መሃንዲስ
መሐመድ
መትረየስ
መናኸሪያ
መንእሰይ
መካከለኛ
መኸር
መደብር
መጽሀፍ
ሙሰኛ
ሚ_በ
ሚ_ተ_ለ_እ
ሚሊኒዬም
ሚት_እ
ማ_ስ
ማ_ው
ማለዳ
ማርቲን
ማን_ቅ
ም_ታ_ክ
ም_ኣዋ
ም_ኦች_ኡ
ም_ድ
ምሕይሽ
ምሬት
ምሰሶ
ምት_እ
ምች
ምኒሊክ
ምናብ
ምን_ህ
ምን_ል
ምን_ት
ምን_ች
ሞገስ
ሥነ_ምግባር
ሥፍራ
ሪፎርም
ራ_ር
ሬሳ
ሬድዮ
ር_አ_ለ
ር_ኢ_ዉ
ር_ኣም
ር_ኦል
ር_ኧኝ
ርእሲ
ርእስ
ሰሃራ
ሰለሞን
ሰዶማዊ
ሲያ_ም
ሲዳማ
ሴራሊዮን
ሴናተር
ስ_አል_ሁ
ስብሐት
ስነልቦና
ስኝይ
ስይም
ስድሰት
ስግር
ሶስተኛ
ሹፌር
ሽምብራ
ሽባ
ሽቦ
ቀለበት
ቁረአን
ቄሮ
ቅ_ም፤
ቅ_ኧኛ
ቍጽሪ
በቅሎ
በቆሎ
ቢራ
ቢይ_እ
ባህረ
ባህሪ_ያት
ባዛር
ቤተ_ም
ቤኒሻንጉል
ብ_አው
ብልጽ
ብራና
ብሮድካስት
ብቅእ
ብዝሃ
ቦረና
ተ_የ
ተቋም
ተዋፅኦ
ተፅእኖ
ቱቦ
ቱኒዚያ
ታ_ዝ
ታ_ግ
ታዳሚ
ት_ኧ_ኛ
ትህትና
ትምሀርት
ቶ_ት_አል
ቻድ
ች_አ
ችርቻሮ
ኀላፊ
ኀይል
ኃያል
ኋላ_ቅ
ነሀስ
ነርቭ
ነት_ኦች_ን
ናሚቢያ
ናይል
ናፍጣ
ን_አለ_ሁ
ን_አም
ን_አስ
ን_ኡን
ን_ኣቸዉ
ን_ኤ_ዉ
ንጽግ
ኛ_ዋ
ኝ_ብ
ኝ_ኧ_ዉ
አህያ
አለ_ብ
አል_ሽ
አል_ባት
አልቃይዳ
አሕጉር
አመክንዮ
አማን
አማካይ
አምባሰደር
አሞራ
አረመኔ
አሸንዳ
አባወራ
አባገዳ
አብይ
አቪዬሽን
አት_ች
አት_ኣ_ው_ን
አት_ኦች_አቸው
አን_ም
አን_ስ
አንጀት
አንጎል
አንፃር
አውሎ
አውሮፕላን_ኦች_ኡች
አያሌ
አይ_ን
አድባር
አገር_ኣዊ
አጼ
አፈ_ጉባኤ
ኡ_ነት_ኡ
ኡ_ዎች_ኡ
ኡት_አቸው
ኢ_ዋ_ን
ኢላማ
ኢሬቴድ
ኢሳያስ
ኢትዮጲያ
ኢነርጂ
ኢንጂነር
ኢየሩሳሌም
ኣ_ነት_ን
ኣ_ኝ
ኣ_ኦች
ኣ_ዋ_ን
ኣለሁ
ኤንመርካር
ኤክስፖ
እርስ_ዎ
እርግ
እስቴት
እስክንድር
እና_ቅ
እንቅስቃሴ
እንቅፋት
እንቦጭ
እንዱስትሪ
እውስ
እገዳ
ኦ_ን
ኦሕዴድ
ኧ_ች_አቸው
ኧ_ኛ_ነት
ኧ_ው_በት
ኧ_ው_ን_አል
ኧት_ኤ
ኩላሊት
ኩዌት
ኪነ
ኪነ_ጥብብ
ካሜሮን
ካሴት
ካቴድራል
ካውንስል
ኮሎምቢያ
ኮሎኔል
ኮሚሸን
ኮሚኒስት
ኮርስ
ኮታ
ኮንቴይነር
ኮንክሪት
ኮንፍረንስ
ወለል
ወትሮ
ወንድ_ም_አም_አች
ወጪ
ዊንዲጎ
ውለታ
ውሻ
ውድር
ውድብ
ውፍር
ዕቅብ
ዕንው
ዘበኛ
ዛቻ
ዝ_ኧ_ዉ
ዝሆን
ዝምት
ዝንጀሮ
ዝዝም
ዩሮ
ያ_ን_ኡ
ያህል
ይሁዳ
ይልቅ
ደቡብ_ኣዊ
ደብረ
ደንበኛ
ደኢህዴን
ደጃዝማች
ዲላ
ድ_ቤት
ድ_አቸዉ
ድሀ
ድሬደዋ
ድጋፍ
ጀነራል
ጂጂ
ጅብ
ጅግጅጋ
ገብስ
ጊዮርጊስ
ጋ_ግ
ጋለሪ
ጋሞ
ጋሻ
ጋዛ
ግ_ሁ
ግምገማ
ግርእ
ግብአት
ግዛት
ግዴታ
ግድ_ኤት
ጎዳና
ጠሚኒስትር
ጠረፍ
ጠጅ
ጥ_አው
ጥ_ኣ_ዉ
ጥ_ኣች
ጥልፍ
ጥቃት
ጥቅስ
ጭብርብር
ጸጉር
ጽ_ድ
ጽምብል
ፅ_ኦል
ፈንታ
ፍ_አለ
ፍትሀዊ
ፎቅ
ፔንታጐን
ፕሬዘዳንት
ፕሮፓጋንዳ
ፖለቲካ_ኧኝ
ሀሙስ
ሀበሻ
ሀብረተሰብ
ሀብታም
ሀያ
ሀዲድ
ሁለገብ
ሁል_ጊዜ
ሃምሌ
ሃምሳ
ሃገር_ኣቸው
ህወኃት
ህዳስ_ኤ_ይ
ሆድ
ሊባኖስ
ል_ን_ክ
ል_አል_ኡ፤
ል_አልይህ
ል_ኧኝ
ል_ኧ፤
ል_ከ
ልቦለድ
ልትም
ሐዋርያት
ሐዋሳ
ሒጃብ
ሓላፊ
ሕሊና
ሕልው
ሕሙም
ሕክም
መሀንዲስ
መሃል
መልዕክት
መሐል
መሥዋዕት
መርሀ
መስዋት
መቃብር
መተሃራ
መተማ
መጋዝን
መጽናዕቲ
ሙላቱ
ሙከራ
ሙዝየ
ሙይ
ሚ_ይ_አ_ጥ
ሚሊሻ
ሚሊኒየ
ሚሌኒየ
ሚሳየል
ሚስተር
ሚያ_ክ
ሚድያ
ማ_ለ_ማ
ማ_ነት
ማ_ይ_አ
ማህጸን
ማልታ
ማስተር
ማን_ች
ማእከላዊ
ማእድ
ማዕበል
ማይጨው
ሜቴክ
ሜዳሊያ
ሜጀር
ሜጋ
ም_ቅ
ም_ታ_ም
ም_ታ_ቅ
ም_ታ_ካ_ህ
ም_ታ_ው
ም_ት_ሽ
ም_ት_ጭ
ም_ነት
ም_ኣ_ሁ
ም_ኣችን
ም_ኣዊ
ም_ኧት_ኣቸው
ም_ኧ፤
ም_ግ
ምህዝ
ምሕድር
ምርመራ
ምችይ
ምን_ብ
ምን_ዝ
ምንጭይ
ምክኒያት
ምዕት
ምጥን
ምጽጽ
ሞጆ
ሟ_ም
ሣምንት
ረገድ
ሩዝ
ራዲዮ
ራዳር
ር_ሁ
ር_ተ_ው
ር_ኃት
ር_አ_ሩ
ር_አል_ሁ
ር_ኡኝ
ር_ኢ_ያ፤
ር_ኢና
ር_ኤ_ይ
ር_ኩት
ር_ው
ር_ዎ
ር_ዎት
ርሕቅ
ርእቅ
ሰርቪስ
ሰርተፊኬት
ሰፊ
ሲምፖዚየ
ሲንጋፖር
ሲኦል
ሲያ_ግ
ሳዑዲ
ሳይንቲስት
ሳዳም
ሴክሬታሪ_ያት
ስ_ኣችሁ
ስ_ኧኛ
ስ_ያን
ስሌት
ስልጠና
ስርዕ
ስነልቦናዊ
ስንድእ
ስእብ
ስእት
ስኬት
ስፍሕ
ስፍር
ሽንኩርት
ሽእር
ቀሚስ
ቀትር
ቀዳም
ቀፎ
ቁልቁል
ቁስል
ቂርቆስ
ቃጫ
ቅ_ሁ
ቅ_አሉ
ቅ_ኡ_ብ
ቅ_ኡት፤
ቅ_ኧ_ው፤
ቅ_ኧኝ
ቅልዕ
ቅማንት
ቅርጫት
ቅርፅ
ቅንይ
ቆራኝ
ቋራ
በረሀ
በረራ
በርበሬ
በቀል
ባለሥ
ባል_ን
ባክቴሪያ
ባድሜ
ቤተ_ክርስቲያን
ቤንዚን
ቤጂንግ
ብ_አችው
ብ_አኝ
ብ_ኢን
ብ_ኣ_ዉ
ብ_ኣች
ብ_ኧ_ው
ብ_ኧ_ው_አል፤
ብ_ኧኛ
ብሄራዊ
ብልት
ብሪታኒያ
ብስኩት
ብትን
ብእስ
ብው
ብዕር
ብጹእ
ብ፤
ቦርሳ
ቦንብ
ቪታሚን
ቪኤድስ
ቬትናም
ተ_ው_አቸው_አል
ተርሚናል
ተርባይን
ተስፋዬ
ተቓውሞ
ተንዳሆ
ተዓማኒ
ተግባር
ተጻዋቲ
ቱባ
ቲያትር
ታማሚ
ታዋቂ
ታይላንድ
ቴኒስ
ት_ኦ_ብ
ት_ኦች_አቸው
ት_ኧ_ል
ት_ኧ_ው፤
ት_ኧኛ
ትቤት
ትብዕ
ትንሣኤ
ትእይንት
ትክክል
ትዕግስት
ትያትር
ቶ_ል_አቸው
ቶ_ን_አል
ቻይ
ቼክ
ች_ኡ
ችቦ
ኃይሌ
ኅዳር
ነሃሴ
ነሐሴ
ነቀምቴ
ነብስ
ነፍጥ
ኒውክሊየር
ኔፓል
ን_ነት
ን_አችሁ
ን_ኣችሁ
ን_ኤ_ይ
ንቅእ
ንኽ
ንጋት
ንጽብርቅ
ኖህ
ኖሬጋ
ኛ_ኦች_ን
ኛ_ዎች_ኡ
ኝ_ቱ
ኝ_ኣቸው
አ_ን
አለ_አስ
አሉታ
አሊያንስ
አል_ል
አል_መ_ስ
አል_መ_ግ
አል_ተ_ሽ
አል_ተ_ካ_ህ
አል_ተ_ይ
አል_ኝ
አል_አ_ስ
አል_አስ_ቅ
አል_አስ_ች
አል_አስ_ግ
አል_አት
አል_ጅ
አል_ጽ
አልሻባብ
አማኑኤል
አምሰት
አምባላጌ
አምና
አረጋ
አርጎባ
አሰላ
አሰሳ
አስማት
አስተዳደር
አሶሳ
አበበ
አባተ
አብዛኛ
አብያተ
አብዬ
አት_ት
አት_አት
አት_ኡት
አት_ድ
አትላንቲክ
አትላንታ
አቸው_አል_ን
አን_አል
አን_ኦች
አን_ጽ
አዋሳ
አውሮፓ_ዊ_ያን
አውስትራሊ
አውደ
አዎንታ
አየርላንድ
አይ_ተ
አገሬ
አገው
አጐበር
አፈ
አፈ_ጉባዔ
አፈጉባኤ
አፓርትመንት
ኡ_ሽ_ነት
ኡ_ት_አል
ኡ_ነት_ን
ኢ_ነት_አቸው_ን
ኢ_ኝ
ኢ_ዎች_አችን
ኢህዴንብአዴን
ኢሉባቦር
ኢምባሲ
ኢሳት
ኢቢሲ
ኢቦላ
ኢትጵያ
ኢንሹራንስ
ኢንተርናሽናል
ኢንእንስስ_አትስትመንት
ኢኮኖሚ_ያዊ
ኢኮኖሚ_ይ
ኢዜአ
ኢያ_ነት
ኢፌዴሪ
ኣ_በት_ን
ኣ_ኛ
ኤሌክትሮኒክ
ኤኤንሲ
ኤክስቴንሽን
ኤግዚብሽን
ኤፍቢሲ
እሑድ
እምእ
እምዬ
እስላም
እስትራቴጂ
እስፔን
እና_እ
እንሰስ
እንቁላል
እንፋሎት
እየሩሳሌም
እይ_አስ_ፍ
እግዚአብሄር
እጭ
ኦ_አቸው_ን
ኦ_ዋ
ኦ_ው_አቸው_ን
ኦህዴድኢህአዴግ
ኦክላሆማ
ኦክስፎርድ
ኦፕሬሽን
ኦፕሬተር
ኧ_ል_ኝ
ኧ_ሽ
ኧ_ኡ_ን
ኧ_ኦች
ኧ_ዋ
ኧት_አችሁ
ከርሰ
ከንፈር
ኩ_ት_ን
ኩሬ
ኩንታል
ኪቦርድ
ኪቶ
ካሊፎርኒያ
ካምፓስ
ካርቦን
ካርዲናል
ካስትሮ
ክ_አታ
ክንፍ
ኮሚኒቲ
ኮሜቴ
ኮተቤ
ኮንትራ
ወልደጊዎርጊስ
ወተሃደር
ወንጀል
ወጭ
ዊ_ው_ን
ዊ_ያ_ን_ን
ዊሊያም
ዋ_ው
ዋሺንግተን
ዋኢማ_ኢትዮጵያ
ውህድ
ውሑድ
ውቅር
ውክል
ውድእ
ዐቅም
ዑደት
ዓቃቤ
ዓቅም
ዕልም
ዕብራይስጥ
ዕንግዳ
ዕድም
ዕግት
ዕጽዋት
ዕፅ
ዕፅዋት
ዜናዊ
ዝ_ሀ
ዝ_ኡ_ሃን
ዝ_ኡ_ብ
ዝትይ
ዝይም
የ_ተ
የመ_ጅ
የሚይ_እ
ዩኔስኮ
ያ_ዎች_ን
ይኽ
ደማስቆ
ደብር
ደብተር
ደኀ
ደዌ
ዱቄት
ዲፕሎማሲ_ያዊ
ዳሰነች
ዳቦ
ዴፖ
ድ_ኡ፤
ድርቅ
ድስስ
ድንቅ
ዶክትሬት
ጁቡቲ
ጁባ
ጃንሜዳ
ጃካርታ
ጃዝ
ጃፖን
ጅ_ኧ_ዉ
ገበየሁ
ጉምሩክ
ጉጂ
ጊቤ
ግ_አች
ግ_ኡ_ብ
ግ_ኣቸው
ግ_ኧ_ል_አቸዉ
ግንኙነት
ግድያ
ግጭት
ግፍሕ
ጎያዪ
ጐሣ
ጐረቤት
ጓሮ
ጠለያ
ጠጠር
ጥ_አለ_ሁ
ጥ_ኣ_ሽ
ጥቁም
ጥንት_ኣዊ
ጥገኛ
ጨርቅ_አ_ጨረቅ
ጨቅላ
ጭራ
ጳጉሜ
ፀሃይ
ፀሓይ
ፈረስ
ፋሲለደስ
ፍ_አ_ፊ
ፍልስጤ
ፍሎሪዳ
ፍስስ
ፍንቅል
ፍ፤
ፏፏቴ
ፓርቲ_ይ
ፓወር
ፖሊቲካ
ፖርቹጋል
ፖፕ
ሀላፊነት
ሀቅ
ሀዘን
ሀይሌ
ሀገር_አቸዉ
ሁሌ
ሁናቴ
ሁዋዌ
ሂፕ
ሃገር_ኣዊ
ሄሊኮኘተር
ሄክታር
ህብብ
ህይዎት
ህገወጥ
ሆላንድ
ሆርሞን
ሆርቲካልቸር
ሆሳእና
ለ_ማ
ለ_አስ
ለገዳዲ
ሉሲ
ሊቀ
ል_አለ_ን፤
ል_አል_ኡ
ል_አት_አል
ል_አት፤
ል_አችው
ል_ኣ_ለ
ል_ኣለ
ል_ኤ_ለ_ዉ
ል_ኦ_ብ
ል_ኧ_ለ
ል_ኧ_ኝ_አ
ል_ኧ_ው_አል፤
ል_ኧሁ
ል_ኩት
ል_ይ
ልምእ
ሐረግ
ሐበሻ
ሐዲስ
ሓይማኖት
ሓጋዚ
ሓጺር
ሕርሻ
ሕትም
መልክ_አም
መሰቦ
መስተዋት
መቤት
መት_እ
መንሴ
መንስዔ
መንዙማ
መኮነን
መዝናኛ
መይሳው
መድሐኒት
መድበል
መጠጥ
ሚ_ት_አ
ሚ_ከ_ህ
ሚ_ያ_ባ_ብ
ሚ_ያ_ይ
ሚ_ያ_ጽ
ሚ_ጋር
ሚሌኒየም
ሚኒልክ
ሚኒስተር
ሚያ_ቅ
ሚያ_ብ
ሚያ_ግ
ሚድሮክ
ማህተም
ማሕበር
ማቴሪያል
ማቴ፥
ማንዴላ
ማእቀብ
ማከል
ማይክሮ
ማጂ
ሜዲካል
ም_ት_ር
ም_ት_ብ
ም_ት_አ_ስ
ም_ት_አስ_ግ
ም_ና_ድ
ም_አል_ኡ፤
ም_አል፤
ም_አም
ም_አት፤
ም_ኣ_ም
ም_ኣ_ዉ
ም_ኣ_ጥ
ም_ኣች
ም_ኧ_ዋል
ም_ኧኛ
ምርኢት
ምሶሶ
ምሻጥ
ምትእትታው
ምን_አ_ክ
ምን_ጊዜ
ምእራፍ
ምኩራብ
ምክት
ምግቢ
ሞሪታንያ
ሞግዚት
ሞጣ
ሠላሳ
ሥነ_ሕዝብ
ሪከርድ
ር_ተኛ
ር_ተኝ
ር_አሽ
ር_አቸው፤
ር_ኣለ
ር_ኣችሁ
ር_ኤት
ር_እች
ርህራሄ
ርምድ
ርዝም
ሰማእት
ሰርቢያ
ሰርተፍኬት
ሰርዓት
ሰበብ
ሰበታ
ሰው_የ
ሱፍ
ሲሳይ
ሲሼልስ
ሲቪክ
ሲያ_ስ
ሲያ_ው
ሲያ_ድ
ሳሊኒ
ሳሪስ
ሳኒቴሽን
ሳንቃ
ሴማዊ
ስ_ም፤
ስ_ት
ስ_ት_አዊ_ችን
ስ_አ_ለች
ስ_አቸዉ
ስ_ኤ_ይ
ስ_ኧ_ው
ስ_ኧ_ው፤
ስ_ኧ፤
ስ_ዎ
ስልም
ስሕተት
ስትራቴጅ
ስነ_ስራት
ስንብት
ስእሊ
ስዊዘርላንድ
ስውር
ስጋት
ሶማሌ
ሶማሌላንድ
ሶሰት
ሹመት
ሹርባ
ሻሸመኔ
ሻንጣ
ሽ_ኝ
ሽምም
ሽንት
ሽኩቻ
ቀስት
ቀዬ
ቁርጭምጭሚት
ቁጠባ
ቁጥጥር
ቅ_ሁት
ቅ_ቅ
ቅ_አ_ለ
ቅ_አለ_ሁ
ቅ_አቸው፤
ቅ_ኤን
ቅ_ኧ_ው_አል፤
ቅ_ኧ፤
ቅርጽ
ቅትለት
ቅንብር
ቅጽዕ
ቆልዓ
ቆቦ
በርሃ
በርሜል
በስተ
በሽታ_ዉ
በቀለ
በኩር
በየነ
ቡሽ
ቢጫ
ባሀል
ባህሪ_ይ
ባህርይ
ባላባት
ባል_ተ_ድ
ባል_ጥ
ባርያ
ባሮ
ባዴን
ቤተ_መ_ቅ
ቤተ_መ_ጽ
ቤተ_መጽ
ቤተመንግስት
ቤኒን
ብ_ለ_ን_አ
ብ_አ_ዉ
ብ_አለ_ሁ
ብ_አት_አ
ብ_አት፤
ብ_ኧ_ው፤
ብ_ኧን
ብ_ዎ
ብሉይ
ብልእ
ብራንድ
ብሮሸር
ብስእ
ብክል
ብግስ
ብፁዕ
ቦቴ
ቦትስዋና
ቨርችዋል
ተ_ተ
ተ_ው_አቸው
ተሃድስ
ተስን
ተቃውሞ
ተቓዋሚ
ተበ
ተአማኒ
ተከዜ
ተወልደ
ተገብ
ተግ
ቲማቲም
ታ_ው_ን
ታ_ጭ
ታ_ፍ
ታሪካዊ
ታብሌት
ታኅሣሥ
ታንዛንያ
ታደሰ
ታዳሽ
ቴክኒሻን
ት_አም
ት_አው
ትልም
ትሕትና
ትራክትር
ትራኮማ
ትብ
ትንሳዔ
ትንኝ
ትኩረት
ትኩር
ትኩስ
ትዕግሥት
ቶ_ኝ_አል
ቶ_አል
ቶሮንቶ
ቶጎ
ቸልታ
ቻርተር
ች_በት
ች_አቸት
ች_አቸው
ች_ው_ን
ችግኛ
ኋይል
ነቀርሳ
ነቢይ
ነብዩ
ነት_ህ
ነውር
ነገድ
ኒኮቲን
ኒጀር
ና_ል
ና_ቅ
ናዝሬት
ናይጀሪያ
ኔፓድ
ን_ኧ_ው_አል፤
ን_ኧ፤
ንዑስ
ንድእ
ንግግር
ንጥረ
ንጥፍ
ንፅ
ኖርዌይ
ኘሮግራም
ኛ_ኦች_ኡ
ኝ_ተ_ው
ኝ_አ_ለ
ኝ_አለ
ኝ_አል_ኡ፤
አለማቀፍ
አለም_ኣችን
አለት
አሊ
አላም
አል_መ_እ
አል_ተ_ሥ
አል_ተ_ጅ
አል_ተ_ጽ
አል_ት_ም
አል_አስ_ፍ
አል_አቸዉ
አል_ዝ
አልማዝ
አልቃኢዳ
አልበሽር
አልጀርስ
አመታዊ
አሚሶም
አሜሪቃ
አምባሲ
አምቦ
አምክንዮ
አምፑል
አራዊት
አራጣ
አርማ
አርባኛ
አርት
አርያ
አርጀንቲ
አርጀንቲና
አርጆ
አሰ_ግ
አሲድ
አስመራ
አሻንጉሊት
አቃቂ
አቃቤ
አበሻ
አባያ
አቤት
አብርሃም
አቧራ
አቴንስ
አት_ል
አት_አዊ_ነት
አት_ኣ_ዎች
አት_ኧ
አት_ዝ
አትዮጵያ
አችሁ_በት
አችሁ_ት_ን
አኅጉር
አን_ህ
አን_ር
አን_ብ
አን_ዝ
አን_ዥ
አን_ድ
አን_ግ
አንበጣ
አንደበት
አንድ_ግ
አንጻር
አኩስም
አክሊል
አዉሮፕላን
አዉስትራሊያ
አዊ_ን
አዋጭ
አውድ
አዝርዕት
አዞ
አየርለ_አንድ
አደገኛ
አዲሰ
አዴፓ
አጋርነት
አጋፋሪ
አግ
አግሮ
አጎዋ
አጐት
አጠቃላይ
አጤ
አፅም
አፍታ
አፎቻ
ኡ_ል_ን_ን
ኡ_ነት_አቸው_ን
ኡ_ነት_አችን
ኡ_ነት_ኡ_ን
ኡ_ነት_ኦች
ኡ_ኣል
ኡ_ው_አቸው_ን
ኡ_ያ
ኡት_ኡ_ን
ኢ_ት_ኡ
ኢ_ነት_አን
ኢህዴን
ኢሕአዲግ
ኢማም
ኢሜይል
ኢብራሂም
ኢብኮ
ኢትዬጵያ
ኢትዮ_ቴሌኮም
ኢትዮ_ኤርትራ
ኢትዮጵ
ኢንዳስትሪ
ኢንዶኔዢያ
ኢንፌክሽን
ኢኳቶሪያል
ኢያ_ን
ኢፌዲሪ
ኣ_ለት
ኣ_ነት_ኡ
ኣ_ዎች_ኡ_ን
ኣል_ን
ኣል_አቸው_ን
ኣል_ኡ_ን
ኣቕሓ
ኣት_አል
ኣፍቃሪ
ኤ_ኤ
ኤሌክትሮኒክስ
ኤስያ
ኤኮኖሚ
ኤግዚም
ኤፍሬም
እ_ን
እልም
እልይ
እልፍኝ
እምር
እርር
እርግጥ
እስላማዊ
እስራት
እስክ
እሸት
እሾህ
እና_ክ
እና_ጥ
እንስስ
እንቆቅልሽ
እንኳ
እንዲስትሪ
እንጀራ
እኮኖሚ
እውነታ
እድም
እጣሊያን
እጽዋት
እፅዋት
ኦ_ህ
ኦ_ል_ኝ_አል
ኦ_ል_አቸው
ኦ_ኛ_ኦች
ኦ_አዊ
ኦስትሪያ
ኦት_ኣል
ኦዲተር
ኦዴፓ
ኧ_ተ
ኧ_ች_በት
ኧ_ኝ_ን
ኧ_ው_ለት_አል
ኧ_ዎች_ን
ኧት_ኡት_ኡ
ኧት_ኦች_ኡ
ከበደ
ካሬ
ካርበን
ካርተር
ካርቱም
ኬብል
ኬክ
ክ_ኣ_ካ
ክህነት
ክሊንተን
ክፍእ
ክፍያ
ኮረብታ
ኮርያ
ኮቪድ
ኮንቬንሽን
ኮንግረንስ
ወልድያ
ወረት
ወርልድ
ወንበዴ
ዉሃ
ዉል
ዉጤት
ዋቢ
ዋዛ
ውርር
ውሳኔ
ውስጥ_ኣችን
ውሽጢ
ውበት
ውትድር
ውዥንብር
ውጥን
ዎች_አን
ዐቢይ
ዐውደ
ዐጤ
ዑጋንዳ
ዓለም_አ
ዓርብ
ዓውደ
ዕለተ
ዕርምጃ
ዕሴት
ዕብየት
ዕውነት
ዕዳጋ
ዕድሜ_ይ
ዕድር
ዕፀዋት
ዘ_ው
ዘ_ፍ
ዘመናዊ
ዘውግ
ዘይቤ
ዘጠነኛ
ዜጋ_ኦች_አ
ዝ_ኃ
ዝ_አ_ብ
ዝ_አም
ዝ_ኡ_ሃ
ዝ_ኡኃን
ዝ_ኡ፤
ዝ_ኧ_ብ
ዝርያ
ዝግይይ
የኛ
ዩሪያ
ያ_ዊ_ነት
ያ_ው_ን
ያ_ዎች_ኡ
ያሚ_ም
ያን_ጽ
ይ_ት_አል፤
ይ_አ_ካ
ይ_አለ
ይ_ኧ_ዉ
ይ_ኧ_ዩ
ይቅር
ደርቡሽ
ደብረታቦር
ደንብ_ኧኛ
ደጋፊ
ዲሞክራት
ዲስትሪክት
ዲዛይን_ኧ_ር
ዲጂታል
ዳሞት
ዳታቤዝ
ዳካር
ድ_አች
ድ_ኦ_ብ
ድ_ኦል
ድ_ኧ፤
ድ_ወት
ድ_ዎ
ድልየት
ድምር
ድምእ
ድምጽ_አውያን
ድረ_ገጽ
ድረ_ገፅ
ድርጅይ
ድንች
ድንግል
ድክም
ጀብዱ
ጂንካ
ጂኦ
ጄኔሬተር
ጄኔቫ
ጅ_ትን
ጅ_ኣቸው
ጅማት
ጅጅጋ
ጆርናል
ጆርጅ
ገ_ግ
ገመዳ
ገበታ
ገብረሚካኤል
ጉልብት
ጉርብት
ጉበት
ጉባኤ_ይ
ጉቦ
ጉንፋን
ጉእዝ
ጊኒ
ጊዜ_ያት
ጊዜ_ያዊ
ጋምቢያ
ጋይንት
ግ_አለ_ሁ
ግ_ኡ፤
ግልገል
ግራኝ
ግርጌ
ግብረ_እ
ግብዝ
ግንባታ
ግጭይ
ጎራዴ
ጎባ
ጎጆ
ጐርፍ
ጐሳ
ጐጥ
ጕብኝት
ጕጅለ
ጠልሰም
ጠሚ
ጠብመንጃ
ጥ_ን_አ
ጥ_አቷ
ጥ_ኡ_ም፤
ጥ_ኣን_አ
ጥ_ኣ፤
ጥ_ኧ_ው_አል፤
ጥ_ኧኝ
ጥ_ጥ
ጥልቅልቅ
ጥልያን
ጥራጥሬ
ጥቅልል
ጥእስ
ጨንፈር
ጨጓራ
ጳጳሳት
ጸሃይ
ጻ_ጽ
ጽ_እ
ጽንሰ
ጽንፍ_ኧኛ
ፀረ_ሰላም
ፀረ_ዴሞክራሲ
ፀጥ
ፅእፍ
ፈጠራ
ፉርዲሳ
ፊሊፒን
ፊሊፒኖ
ፊታውራሪ
ፊኛ
ፍ_አ_ለች
ፍ_አለ_ሁ
ፍ_አም
ፍ_አች
ፍ_ኣም
ፍ_ኦል
ፍ_ኧን
ፍሉይ
ፍርእ
ፍሰት
ፍቃድ
ፍትሐዊ
ፍትኅ
ፍኖተ
ፍእፍእ
ፍጅይ
ፍጥን
ፓስፖርት
ፓናማ
ፕሬዝደንት
ፖሊሲ_ይ
ፖስተር
ሀማ
ሀረማያ
ሀሰት
ሀሰን
ሀብታ
ሀዝብ
ሁነት
ሃሰት
ሃውልት
ሃይቲ
ሃይድሮ
ሃዲድ
ሃጅ
ሄኖክ
ህበረሰብ
ህንዲ
ህዝብ_ኦች_ኡች
ህጋዊ
ህግወጥ
ህጹጽ
ሆሄ
ሆልቲካልቸር
ሆራ
ሆሮ
ሆሳዕና
ለመ_እ
ለበዳ
ለዛ
ሉተር
ሊቃውንት
ሊበን
ሊየ_አስ_እ
ላስታ
ላንቃ
ላፍቶ
ል_ሃል
ል_ባት
ል_ት
ል_ት_ቅ
ል_ት_ግ
ል_ት_ጥ
ል_ነ
ል_ን_ስ
ል_ኝ_አል
ል_አ_ብ
ል_አል_ሁ
ል_አም
ል_አው
ል_ኡ_ም፤
ል_ኡ_ባት
ል_ኣሽ
ል_እች
ል_ክ
ል_ው
ል_ዎት
ል_ግ
ልሕኩ
ልሳን
ልብ_ኦና
ልኡል
ልኡካን
ልኡኽ
ልእቅ
ልውውጥ
ልጅ_አ_ገረድ
ል፥
ል፦
ሎንደን
ሎጂስቲክስ
ሐረር_ጌ
ሐውስ
ሐይኒከን
ሓባር
ሓፂር
ሔኖክ
ሕርቃል
ሕወሐት
ሕዝብ_አች
ሕዝብ_ኦች_ኡች
መ_ብ
መ_ተ_መ
መ_ተ_ስ
መ_አስ_ተ_ለ
መልክዓ
መሐንዲስ
መረዳእታ
መሪነት
መርሀ_ግብር
መርሐ_ግብር
መርኃ
መርከበኛ
መሳርያ
መስተ
መስጂድ
መቀነት
መቄዶንያ
መቐለ
መተሐራ
መተግበር
መነሳት
መነሽ
መነፅር
መናኽሪያ
መንሰኤ
መንበረ
መንጎ
መኢአድ
መኤሶ
መካኒክ
መዋዕለ
መዋዕል
መዓት
መዓዛ
መዝ፥
መገጭ
መግለእ
መግለጺ
መጠለያ
መጥቃዕቲ
ሙርሲ
ሙቀት
ሙያ_አ
ሚ_ስ_ች
ሚ_ስ_እ
ሚ_ተ_ስ_እ
ሚ_ያ_ቋ_ቅ
ሚ_ያ_ን_ፅ
ሚ_ያ_ፅ
ሚ_ይ_አስ_ይ
ሚ_ጣ_ጥ
ሚሊሺያ
ሚሊኒየም
ሚሊንየ
ሚሊንየም
ሚሊየንሺ
ሚሌኒዬም
ሚልዮን
ሚሲሲፒ
ሚሳይል
ሚስዮን
ሚሽን
ሚዙሪ
ሚያ_ር
ሚያ_ን
ማ_ነት_ን
ማ_አስ
ማህፀን
ማሌዢያ
ማሕበረሰብ
ማርሻል
ማሻሻያ
ማትያስ
ማን_ው
ማንጎ
ማእረግ
ማእበል
ማዕዘን
ማዕድ
ማይ_ች
ማይ_ፍ
ማይል
ማዳጋስካር
ማጅራት
ማግስት
ሜዳሊ
ሜዳልያ
ሜጋዋቲ
ም_ህ
ም_ል
ም_ታ_ግ
ም_ት
ም_ት_ዝ
ም_ች
ም_ን_ን
ም_ን_አ
ም_አ_ለ
ም_አ_ዎት
ም_አቸው
ም_አች
ም_አዎት
ም_ኡ፤
ም_ኢት
ም_ኣ_ብ
ም_ኣና
ም_ኧ_ሁ_ን_ኤት
ም_ኧ_ው_ብ
ም_ከ
ምህዞ
ምስር
ምስዝ
ምሽት
ምትሕብባር
ምኅዳር
ምን_ሽ
ምን_ይ
ምንጭው
ምእራባዊ
ምእተ
ምክያት
ምዕራብ_አ
ምዕተ
ምድረ
ምድጃ
ምጥቅ
ምፊ
ሞኖፖል
ሞዛምቢክ
ሞያሌ
ሠው
ሠዓሊ
ሣይንስ
ሥም
ሥርአት
ሥዩም
ሩጫ
ራስ_አቸዉ
ሬጅስትራር
ር_ሰ_ብ
ር_ሽ_ኙ
ር_ተ_ው_አል፤
ር_ት_አል፤
ር_አ_ሁ
ር_አ_ተ_ኞ
ር_አ_ዬ
ር_አለ_ን፤
ር_አተኛ
ር_አ፤
ር_ኡን
ር_ኢ_ወች
ር_ኢ_ዎች፤
ር_ኢ_ያን
ር_ኢዋ
ር_ኢያያ
ር_ኢ፤
ር_ኣ_ብ
ር_ኣሲ
ር_ኣዊ
ር_ኧ_ም፤
ር_ኧ_በዓል
ር_ኧች_ዉ
ር_ኧኛ_ኦችን
ርሀብ
ርሃብ
ርብእ
ርትእ
ርእሰ
ርእሰ_መ_ስ_ት
ርውስ
ርዕሰ
ርይን
ሮሽ
ሰላጤ
ሰልፊ
ሰማዕታት
ሰራሕተኛ
ሰቆጣ
ሰንቅ
ሰይፍ
ሰደቃ
ሱማሊያ
ሱርማ
ሲሙሌተር
ሲምፖዚየም
ሲስተም
ሲያ_ን
ሲድኒ
ሲጂቲኤን
ሳ_ይ
ሳ_ይ_ቅ
ሳ_ይ_አስ_ቅ
ሳ_ይ_እ
ሳ_ጥ
ሳህሉ
ሳሙና
ሳንታ
ሳዉዲ
ሳይንሳዊ
ሴሚናር
ሴቭ
ስ_አም
ስ_አች
ስ_ኡ_ሳ
ስ_ኢት
ስ_ኦች_ኡች
ስ_ኧኝ
ስልጤ
ስሚንቶ
ስሜን
ስምር
ስምይ
ስምጥ
ስርቅ
ስርዓተ
ስታቲስቲክስ
ስታዲየም
ስቴትስ
ስትራተጂ
ስትራቴጂክ
ስትይ
ስነ_ጥ
ስነምግባር
ስነስራት
ስን_ም
ስን_ግ
ስኬል
ስክእ
ስው
ስዓት
ስድድ
ስጕምቲ
ስፔሻሊስት
ስፖንስ
ሶለል
ሶርያ
ሶሳይቲ
ሶሻል
ሶፊያ
ሸረሪት
ሸቶ
ሸንተረር
ሸንኮራ
ሸካ
ሻምፒዮ
ሻምፒዮና
ሻእቢያ
ሼህ
ሼል
ሽልም
ሽሬ
ሽርሽር
ሽርክ
ሽብርተኝነት
ሽክርክር
ሽይም
ቀሊል
ቀንበር
ቀኛዝማች
ቀውስ
ቀዶ
ቀጣና
ቁሳቁስ
ቁጥ
ቃሊቲ
ቃልኪዳን
ቅ_አም
ቅ_አት_አማ
ቅ_ኤት_ኣታ
ቅ_ኧን
ቅ_ዎ
ቅልጡፍ
ቅሬት
ቅርሲ
ቅቤ
ቅንእ
ቅዝቅዝ
ቅጥር
ቆሮ፥
ቆንስላ
ቆንጆ
ቆጋ
ቍጥር
በረሓ
በረንታ
በርበራ
በርናባስ
በዓለ
በገሬ
በጌምድር
በጎ_ፍ
ቡሩንዲ
ቡሬ
ቡርኪናፋሶ
ቡቃያ
ቢሊየን
ቢሮክራሲ
ቢስክሌት
ቢቸና
ባህሊ
ባህሪይ
ባለሙያ
ባላንጣ
ባል_ተ_ስ
ባል_ተ_ግ
ባልቻ
ባሕረ
ባንግላዴሽ
ባዕሊ
ባይ_ን
ቤላሩስ
ቤልጂየም
ቤልጅየም
ቤተ_መ_ፅ
ቤተሠብ
ቤንች
ብ_ሁ
ብ_አ_ር
ብ_አ_ብ
ብ_አማ
ብ_አር
ብ_አባት
ብ_አብ
ብ_አዉ
ብ_ኣም
ብ_ኣችን
ብሄረሰብ
ብሉምበርግ
ብላታ
ብልሀት
ብረታ_ብረት
ብርሃነ
ብርቅ
ብርቱካን
ብርጭቆ
ብሮድካስቲንግ
ብቃት
ብቸና
ብቸኛ
ብክለት
ብዝሀ
ብዥታ
ቦታ_ዉ
ቦንጋ
ቪክቶሪያ
ተ_ት_አል
ተ_ኛ_ን
ተ_ኝ_ነት_ን
ተ_ው_በት_አል
ተ_ው_ን_አል
ተመድ
ተማር
ተረኛ
ተራር
ተሰፋ
ተስፋ_አ
ተንታን
ተኩል
ተወካይ
ተዋጽ
ተገቢ
ተግዳሮት
ተፅኖ
ተፈጥሮ
ተፋሰስ
ቲሸርት
ቲሹ
ታ_ሽ
ታ_ካ_ህ
ታ_ዎች
ታቦር
ታክቲክ
ቴሌ
ቴሌቭዥን
ቴሌኮሙኒኬሽን
ቴክኒካል
ቴዲ
ቴፒ
ቴፕ
ት_ህ
ት_ኛ
ት_አ_ለች
ት_አት_ኡት_ኡ
ት_ኣ_ው_ን
ት_ኣቸው
ት_እች
ት_ኦች_አቸው_ን
ት_ኧ_ው_አል፤
ት_ኧ፤
ትልሚ
ትሕዝቶ
ትትው
ትንቢት
ትንባሆ
ትኬት
ትክክለኛ
ትዅረት
ትውልድ
ቶ_ለት_አል
ቶ_ል_አቸው_አል
ቶኪዮ
ቸል
ቸርችል
ኃጢያት
ኋላፊ
ኋል
ነ_እዚህ
ነስረዲን
ነቀምት
ነውስ
ነውይህ
ነገሌ
ነጻነት
ነፋሪት
ኑክሌር
ና_ዎች
ኔትዎርክ
ን_ት
ን_አቅ
ን_አች
ን_አው
ን_ኡ፥
ን_ኣችን
ን_ኤ
ን_ኦች_ን
ን_ኧት
ን_ይ
ንእሽቶ
ንዴት
ንዶላ
ንጥፈት
ንጹህ
ንፅእ
ንፋስ
ኖኅ
ኗ_ን
ኘሬዚዳንት
ኝ_ለ
ኝ_ን
ኝ_ኦች
ኝ_ኦች_ኡ
አ_እ
አህ
አለማየሁ
አለም_ኣዊ
አለምአቀፍ
አላባ
አል_መ_ው
አል_ሥ
አል_ተ_ብ
አል_አል
አል_አስ_ድ
አል_ኧ_ለታ
አል_ኧ_መ_ን
አል_ኧ_በት
አል_ኧ_ብ
አል_ኧ_እ
አል_ኧ_ግ
አል_ጭ
አል_ፅ
አልበኝ
አልዓዛር
አሚባራ
አሜን
አሪሞንዲ
አራስ
አራተኛ
አራያ
አራዳ
አርመን
አርትራይተስ
አርክቴክት
አሰ_ር
አሰ_ቅ
አሰ_እ
አሰ_ፍ
አሰዉ
አሴት
አስ_ተ_ይ
አስ_አ
አስጊ
አሸናፊ
አሹራ
አቃት
አበል
አበው
አበጋዝ
አቡነ
አቡን
አቢይ
አባላዘር
አባውራ
አብራም
አብዴፓ
አቪየሽን
አተር
አተት
አታ_ድ
አት_ብ
አት_አችሁ
አነስተኛ
አና_ድ
አናሳ
አን_በት
አን_ት
አን_አቸው_ን
አን_ው
አንታርክቲካ
አንደኛ
አንዴ
አንድ_አች
አንድ_ኢት
አንድ_እ
አንድነት
አንጃ
አእዋፍ
አካት
አካዳሚክ
አክሽን
አኳያ
አወዳይ
አዉሮፓ
አውቶማቲክ
አውቶሞቢል
አውቶሞቲቭ
አውነት
አዘቦ
አየ_ተ_ስ
አየ_አስ_ፍ
አያ_ድ
አይ_ካ
አደም
አደዋ
አዴት
አድናቂ
አጀንሲ
አገዋ
አጎራባች
አጥ
አጥቢ
አጭር
አጸፍ
አጽም
አፈጉባዔ
አፍሪካ_ዊ_ያን
ኡ_ል_አቸው_ን
ኡ_ማ
ኡመር
ኡራኤል
ኢ_ኡ
ኢሃዴግ
ኢህአፓ
ኢሉአባቦር
ኢሮብ
ኢታንግ
ኢትዮጵያ_ዉ
ኢትዮጽያ
ኢንተር
ኢንተርኮንቲኔንታል
ኢንዱትሪ
ኢንዲስትሪ
ኢንጂነሪንግ
ኢንጅነር
ኢኮኖሚያዊ
ኢዮብ
ኢዮጵያ
ኢዴፓ
ኢድመንድ
ኢጣሊ
ኢፌድሪ
ኣ_ው_ያ_ን
ኣ_ድ
ኣል_አቸው
ኣል_አችሁ
ኣሰልጣኒ
ኣስተምህሮ
ኣስተዋጽኦ
ኣታዊ
ኣት_ኦች_ን
ኣችሁ
ኣንድ
ኣክሱም
ኤ_ዋ
ኤ_ዎች_አቸው
ኤ_ዎች_ኡ_ን
ኤክስሬይ
ኤግዚቪሽን
ኤፊቆሮስ
እማወር_አ
እምም
እረኛ
እርሳስ
እርሳቸው
እርዳታ
እስልምና
እስጢፋኖስ
እቅፍ
እብድ
እና_ር
እና_ፍ
እንሰሳ
እንስት
እንተዘይ
እንከን
እንክርዳድ
እንደራሴ
እንድት_አ_ስ
እንጂ
እንግሊዘኛ
እንግልት
እየሱስ
እደ
እድስ
እገሌ
እግል
እግዜር
እጥ
እጥብ
እፍር
እፍን
ኦ_ት_አል
ኦ_ኝ_አል
ኦ_ው_አል
ኦሊምፒክ
ኦማን
ኦርኬስትራ
ኦሮም
ኦስሎ
ኦባማ
ኦት_ኣ_ው
ኦች_ኤ_ን
ኦች_ኦ
ኦገስት
ኦጋዴን
ኦፊሰር
ኧ_ል_አት_ን
ኧ_ተ_ው
ኧ_ት_ኡ
ኧ_ነው_ን
ኧ_ነው_አል
ኧ_ን_አቸው
ኧ_ን_አቸው_አል
ኧ_ኝ_ኦች
ኧ_ኝ_ኦች_ኡ
ኧ_አል_ኧች
ኧ_ው_ል_አቸው_አል
ኧት_አል
ኧት_ኡ_ው
ኧት_ኡት_ን
ኧት_ኧ_ኛ
ኧት_ኧ_ው
ከሙን
ከሚ_ጥ
ከምባታ
ከበሮ
ከንት
ከዋክብት
ከይዘን
ከይዲ
ከፊት
ኩራዝ
ኪሎሜትር
ኪርኩክ
ኪነ_ጥ
ካህናት
ካሚዮን
ካማራ
ካምቦዲያ
ካምፓላ
ካርቶን
ካሳሁን
ካንሳስ
ካፍቴሪያ
ክ_ቱ
ክ_አም
ክ_አት_አ
ክ_አቸው_ን
ክ_ኤት_አ
ክስተት
ክእድ
ክፍለ
ኮለጅ
ኮሎራዶ
ኮሙዩኒኬሽን
ኮማንደር
ኮማንድ
ኮምፒተር
ኮሪያ_ውያን
ኮሪደር
ኮሮና
ኮስት
ኮሶ
ኮብል
ኮንትራክተር
ኮፒ
ወላዲ
ወልቂጤ
ወረርሽኝ
ወረዳ
ወርክሾፕ
ወናኒ
ወዲህ
ወዳ_እ
ወጻኢ
ወፍጮ
ዉስጥ
ዉጪ
ዉጫሌ
ዊ_ነት_ን
ዊ_ነት_ኡ
ዋህድ
ዋልያ
ዋኢማ_የ_አዲስ
ዋድላ
ዋጋ_ቸው
ው_ኝ
ውልዕ
ውሑስ
ውሕዝ
ውሕጅ
ውርጃ
ውስእ
ውስጥ_ኣቸው
ውስጥ_ኣዊ
ውሸት
ውጤት_አማ
ውጥረት
ውጽኢት
ዐሥር
ዐሥር_አ
ዐይነት
ዐድዋ
ዐጼ
ዐፄ
ዓለም_አየሁ
ዓመት_ኣዊ
ዓሶ
ዓቀፍ
ዓቅብተ
ዓውዲ
ዕንባ
ዕጭ
ዕጽፊ
ዘ_ል
ዘመቻ
ዘመድ
ዘንባባ
ዘንደሮ
ዘዋሪ
ዘውዴ
ዘፈር
ዚምባቡዌ
ዚምባብዌ
ዛሬ_ዉ
ዜሮ
ዝ_ብ
ዝ_አት_ኢት
ዝ_ኧኛ
ዝ_ኧኝ
ዝርፍ
ዝቋላ
ዥዋዥዌ
የለ_አ_ክ
የሚት_እ
የሚየ_አስ_እ
የምት_እ
የአ_ክ
የዋህ
ዩኒስኮ
ዩኒት
ያ_ሴራ
ያ_ስ_ት
ያ_ስ_ድ
ያ_ሻ_ሽ
ያ_ባ_ብ
ያ_ች_ን
ያ_ን_ግ
ያ_ከ
ያ_ዋ
ያ_ያ_ይ
ያ_ዳግት
ያካ_ህ
ይ_ም፤
ይ_ቱ
ይ_ች_አለ_ሁ
ይ_አል፤
ይ_ኧ_ሁ
ይ_ኧ_የት
ይሀ
ይማም
ይዘት
ይፋ
ዮናስ
ዮናይትድ
ደሀ
ደሕን
ደርሆ
ደቒቕ
ደበብ
ደብረብረሃን
ደብረብርሃን
ደብረወርቅ
ደብተራ
ደንቢያ
ደጃች
ደጃፍ
ደጅ
ደፋር
ዲም
ዲሲፒሊን
ዲባቶ
ዲኘሎማት
ዲዛይነር
ዳላስ
ዳባት
ዳግማዊ
ድ_ት_አለ
ድ_አ_ዩ
ድ_አለ_ሁ፤
ድ_አም
ድ_አችው
ድ_ዎት
ድሪምላይነር
ድራገን
ድርድር
ድኃ
ድንፍዕ
ድ፥
ዶማ
ጀማል
ጀሞ
ጀሪካን
ጀብድ
ጀኔራል
ጁኒየር
ጂማ
ጂኦተርማል
ጂፕሰም
ጃማ
ጃናሞራ
ጄል
ጄነራል
ጅ_አለ
ጅራት
ጆሃንስ
ገሃድ
ገሊላ
ገላውዴዎስ
ገሞራ
ገራገር
ገብረዋህድ
ገብርኤል
ገጠር_አማ
ጉለሌ
ጉሊያኒ
ጉሎ
ጉሮሮ
ጉና
ጉደር
ጉዱይ
ጉጉት
ጊዜ_ወ
ጊዜ_ይ
ጋሊያኖ
ጋሞጎፋ
ጋራዥ
ጋሬጣ
ጋንዲ
ጌታሁን
ጌታቸው
ግ_አ_ለ
ግ_አል_ሁ
ግ_አል_ኡ፤
ግ_ኣች
ግ_ኦቸው
ግ_ኧኝ
ግ_ኧ፤
ግ_ኸ
ግልእነት
ግሎባል
ግማሽ
ግርማዊ_ነት_ዎ
ግርም
ግሼ
ግብጺ
ግእር
ግይር
ግግም
ግፍእ
ጎልፍ
ጎርጎርዮስ
ጎሮ
ጎሹ
ጎበና
ጎቦ
ጐብኚ
ጐንደር
ጐጃም
ጠርዝ
ጠቢብ
ጠብታ
ጣእም
ጣውላ
ጥ_ተ_ው
ጥ_ት_አል፤
ጥ_ቼ
ጥ_አ_ሁ
ጥ_አ_ለች
ጥ_አል_ሁ
ጥ_አል_ኧ_ሁ
ጥ_አቸዉ
ጥ_አጥ
ጥ_ኡን
ጥ_ኡኝ
ጥ_ኡ፥
ጥ_ኣ_ለ
ጥ_ኣጥ
ጥ_ኧ_ችው
ጥ_ኧ_ው
ጥ_ኧ_ው፤
ጥ_ኧ፤
ጥ_ዉ
ጥልቅ
ጥንእ
ጥእር
ጧፍ
ጨጨሆ
ጫጩት
ጭ_ኧ_ዉ
ጭእን
ጸረ_ሰላም
ጸረ_ኤድስ
ጸኒሕ
ጸወታ
ጸደይ
ጻዕሪ
ጽ_ኡት፤
ጽሁፍ
ጽህፈት
ጽባቐ
ጽብይ
ጽናት
ጽዕን
ፀረ_ል
ፀረ_ድሃ
ፅቤት
ፈለማ
ፈረቃ
ፈቃድ
ፈተና
ፈቺ
ፉርጎ
ፊልተር
ፊርማ
ፊንፊኔ
ፋርማሲ
ፋሺሽት
ፋኩልቲ
ፋይበር
ፌስቡክ
ፌደራሊዝም
ፌዴራሊዝም
ፍ_ቱ
ፍ_ኡ_ፊ
ፍ_ኣ_ፋ
ፍ_ኦን
ፍ_ኧ_ው
ፍ_ኧት_ቤት
ፍሬምናጦስ
ፍሬድ
ፍርሕ
ፍብሪካ
ፍትሐ
ፍቼ
ፍጥነት
ፍጻሜ
ፑቲን
ፒኤችዲ
ፓምፕ
ፓርኪንግ
ፓስታ
ፓትርያርክ
ፕሬዜዳንት
ፕሮቲን
ፕሮቴስታንት
ፕሮጀከት
ፕሮጅክት
ፕሮፌሽናል
ፕሮፖጋንዳ
ፖለ_አንድ
ፖሊተር
ፖርላማ
ሀማስ
ሀረርጌ
ሀረግ
ሀሪ
ሀራ
ሀብረት
ሀና
ሀይሉ
ሀይወት
ሀይፋ
ሀገር_አ
ሁለት_ዮሽ
ሁለንተና
ሁልጊዜ
ሁምቦ
ሁነት_አች
ሁነኛ
ሁንዴ
ሁዋላ
ሂራን
ሂትለር
ሂጅራ
ሃለዋት
ሃለፊ
ሃሊፋክስ
ሃሚ
ሃሣብ
ሃሰን
ሃበት
ሃንደበት
ሃዋሪያት
ሃዋሳ
ሃዘን
ሃያት
ሃይማኖት_ኣዊ
ሃይድሮጂን
ሃይድሮጅን
ሃጃጅ
ሃፍቲ
ሄማቶማ
ሄትሮ
ሄንድሪክ
ሄዋን
ህ_አን
ህሙማን
ህማም
ህበር
ህብረ
ህብር
ህትመት
ህወሐት
ህውሃት
ህውሓት
ህዝበ
ህዝባዊ
ህያው
ህዳግ
ህድእ
ህገ
ህግ_መግንስት
ሆለ_አንድ
ሆሊውድ
ሆሣዕና
ለሊት
ለውዝ
ሉላዊ
ሉጋልባንዳ
ሊማ
ሊትር
ላዕላይ
ላዛ
ሌባ
ሌጋሲ
ል_ለ
ል_ሚኒስትር
ል_በ
ል_በት
ል_ታ_ቅ
ል_ን_ም
ል_ን_ም፤
ል_ን_ሥ
ል_ን_ት
ል_ን_አ_ድ
ል_ን_ዝ
ል_ን_ድ
ል_ን_ፍ
ል_አ_ለ
ል_አ_ቻ
ል_አሉ
ል_አት_ን
ል_አችሁ፤
ል_አገር
ል_ኡ_ላት
ል_ኣ_ሉ
ል_ኣው
ል_ኤ_ለ_ብ
ል_እው
ል_ኦል
ል_ኦቸ
ል_ኦች፤
ል_ኦ፤
ል_ኧ
ል_ኧ_ሁ
ል_ኧ_በት፤
ል_ኧ_ውት
ል_ኧ_ዎት
ል_ኧ_ዝ
ል_ኧ_ጦር
ል_ኧር
ል_ኧት
ል_ኧት_አ
ል_ድ
ል_ጽ
ልለ_እዚህ
ልምዓት
ልምዕ
ልበ_ተ_ል
ልብ_አ
ልብ_ዎ
ልብስ
ልብዕ
ልቦናዊ
ልኬት
ልጅነት
ሎሌ
ሎሜ
ሎቶሪ
ሐመር
ሐርጌሳ
ሐሴት
ሐዋ
ሐዋላ
ሐዘን
ሐይል
ሐዲድ
ሐጅ
ሐገር_ኢት
ሐጋር
ሒልተን
ሓላፊነት
ሓላፍነት
ሓሙ
ሓረስታይ
ሓቢ
ሓንጻጺ
ሓውልት
ሓያል
ሓደገ
ሓዳር
ሔሊኮኘተር
ሔክታር
ሕልውና
ሕምም
ሕብረ
ሕብረት
ሕታም
ሕክምና
ሕወሓት
ሕዋሳት
ሕዝበ
ሕድግ
ሕጉምብርዳ
ሕግ_ጋ
መ_መ
መ_አይ_ብ
መ_አይ_ን
መሃከል
መላከ
መልካሙ
መልክ_አች
መሓዛ
መመሪያ
መሥሪያ
መራኸቢ
መርሐ
መርበብ
መሰንቆ
መሰኘት
መሰክ
መሳርሒ
መሳይ
መስ_ት
መስህብ
መስርሕ
መስታወት
መስታውት
መስኪድ
መስዕዋት
መስፈርት
መሶብ
መሸጣ
መቀለ
መበገሲ
መባ
መብረቅ
መተ_መ_እ
መቼት
መነበይቲ
መናኸርያ
መንበሪ
መንታ
መንኮርኮር
መንዝ
መንገድ_ኧኛ
መንፈሳዊ
መንፈቅ
መኢሶ
መከላከያ
መኩሪያ
መካኒሳ
መካን
መካከል_አቸዉ
መኳንን
መኽር
መዓልት
መዕረፊ
መዛሙርት
መዝበር
መደበኛ
መዳኒት
መዳይ
መድብለ
መጻረዪ
መጽሔት
መፀት
መፅሄት
ሙሀመድ
ሙህር
ሙሉነህ
ሙሉእ
ሙሉጌታ
ሙምባይ
ሙሴቬኒ
ሙቅ
ሙባረክ
ሙዚቀኛ
ሚ_ሊ_ይ_አስ_እ
ሚ_ሸ
ሚ_ሹ
ሚ_ተ_መ_እ
ሚ_ት_ር
ሚ_እ_ስ
ሚ_ወር_አ
ሚ_ዉ
ሚ_ው_ል
ሚ_ያስ_እ
ሚ_ይ_አ_ን
ሚ_ይ_አ_ግ
ሚ_ይ_አስ_ል
ሚ_ይ_አስ_ን
ሚ_ጓ_ግ
ሚሌ
ሚሎሶቪች
ሚሳኤል
ሚስትር
ሚቲዎሮሎጂ
ሚኒሰትር
ሚእቲ
ሚካ_ህ
ሚዛን
ሚያ_ስ
ሚያ_ው
ሚያ_ጭ
ሚያ_ፍ
ሚይ_አ_ድ
ማ_መ
ማ_ይ_ብ
ማህሙድ
ማህበረስብ
ማህደር
ማሕሌት
ማሕፀን
ማሪዮት
ማርኬት_ኢ_ን_ግ
ማስ_ም
ማስ_ክ
ማሻ
ማሾሌ
ማት_ች
ማኀበረሰብ
ማኅደር
ማኒላ
ማናጀር
ማኔጀር
ማን_ስ
ማንታ
ማንችስተር
ማንዋል
ማእከላይ
ማእደቅ
ማእዳት
ማክሮ
ማዙት
ማያ
ማያ_ድ
ማያሚ
ማደያ
ማደይ
ማገገሚያ
ማግሥት
ማግኔት
ማጤን
ማፊኪዞሎ
ሜታ
ሜካኒካል
ሜካናይዜሽን
ሜይ
ሜይዴይ
ሜጢ
ም_ሃል
ም_ታ_ር
ም_ታ_ብ
ም_ታ_ን
ም_ታ_ዝ
ም_ት_አስ_ት
ም_ና_ክ
ም_ን_ቅ
ም_ን_ች
ም_ን_ው
ም_አት_አ
ም_አኔ
ም_አኝ
ም_አዊ
ም_ኡ_ም፤
ም_ኡያ
ም_ኢ_ወች
ም_ኢዋ
ም_ኣ_ቅ
ም_ኣ_ክ
ም_ኣለ
ም_ኣም
ም_ኣሪያም
ም_ኣኝ
ም_ኣው
ም_ኦ_ዉ
ም_ኦች_አቸዉ
ም_ኦች_አችን
ም_ኦው
ም_ኧ
ም_ኧ_ባት
ም_ኧ_ው፤
ም_ኧኝ
ም_ዎ
ምህዋር
ምልዓተ
ምሕልፍ
ምሥራች
ምራቅ
ምርክ
ምርዝ
ምስካየ
ምስጋና
ምስግን
ምስጥ
ምቅ
ምት_ት_እ
ምት_ው
ምት_ጥ
ምትእስሳር
ምችው
ምቾት
ምን_አ_ው
ምን_አስ_ም
ምን_አስ_ት_እ
ምን_አስ_እ
ምን_ጭ
ምንቅስቓስ
ምንትዋብ
ምእመን
ምክነት
ምክክር
ምኻድ
ምኽንያት
ምዕባለ
ምዕተ_ዓመት
ምዝብል
ምዝዛም
ምጽዋ
ሞላሰስ
ሞሪታኒያ
ሞሱል
ሞሲዬ
ሞንጎ
ሞጁል
ሠለስት
ሠው_ነት_ኣችን
ሠዓት
ሣንባ
ሥ_ቲ_ቱ
ሥ_እ
ሥርዐተ
ሥነ_ጽ
ሩባ
ሪያሊቲ
ሪጅን
ሪፓብሊክ
ራማ
ራማላ
ራስ_ገዝ
ራሷን
ራሺያ
ራሻ
ራቁት
ሬውተር
ሬውተርስ
ሬድዋን
ሬጅስተራር
ር_ሃ
ር_ር
ር_ተ_ዉ
ር_ቴ
ር_አሁ
ር_አል
ር_አተ
ር_አት፤
ር_አና
ር_አዉ
ር_አያ
ር_ኡ_ባት
ር_ኡ_ን፤
ር_ኡት፥
ር_ኢ_ዎቸ
ር_ኢ_ያው
ር_ኢን
ር_ኢያችን
ር_ኢያን
ር_ኣ_ለ
ር_ኣ_ለች
ር_ኣ_ር
ር_ኣ_ዉ
ር_ኣ_ው፤
ር_ኣቲክ
ር_ኣቸዉ
ር_ኣችን
ር_ኤን
ር_ኤ፤
ር_ኦች_ኡን
ር_ኦችን
ር_ኦች፤
ር_ኦኝ
ር_ኧ_ሰ_ብ
ር_ኧ_ው_አልየ_ኢትዮጵያ
ር_ኧ_ውት
ር_ኧ_ውን
ር_ኧል
ር_ኧት፤
ር_ኧው
ር_ያን
ር_ግ
ር_ጭ
ርህ
ርስእ
ርቀት
ርተ
ርተሰብ
ርኅራኄ
ርእይቶ
ርዕደ
ርይህ
ርጭይ
ሮማ_ውያን
ሮማን
ሮበርት
ሮተሪ
ሮይተር
ሮይተርስ
ሮጦ
ሯ_ር
ሰ_ቅ
ሰሉስ
ሰላሌ
ሰላም_አጎ
ሰላሳ
ሰላት
ሰሙነ
ሰሚት
ሰማኒያ
ሰማንያ
ሰማእታት
ሰማያዊ
ሰሜናዊ
ሰሞነ
ሰርጓጅ
ሰንዳፋ
ሰንድ
ሰንጋ
ሰንጠረዥ
ሰከላ
ሰኮር
ሰዋስው
ሰው_ነት_ዎ
ሰዶማውያን
ሰገነት
ሰገን
ሰፊሕ
ሱመር
ሱማሊ
ሱሰኛ
ሱሰኝ
ሱኳር
ሱዛን
ሱፐር
ሱፐርቫይዝ
ሲምፖዝየ
ሲሸልስ
ሲቢል
ሲት_እ
ሲአርቢቲ
ሲአይኤ
ሲኤንኤን
ሲካ_ህ
ሲያ_ክ
ሲያ_ጥ
ሲያትል
ሲዳሞ
ሲጂሲ
ሲጋር
ሳ_እ
ሳ_ይ_አስ_እ
ሳህል
ሳህን
ሳሙኤል
ሳቡሬ
ሳን_ጥ
ሳንዱቕ
ሳንዳኒስታ
ሳንዳኒስታን
ሳውና
ሳይ_ግ
ሳይሊየም
ሳይበር
ሳይንሰ
ሴማ
ሴባስቶፖል
ሴት_የ
ሴንተር
ሴዑል
ሴፍቲ
ስ_ራ
ስ_አሉ
ስ_አል_ኡ፤
ስ_አሽ
ስ_አዋ
ስ_ኡ_ስ
ስ_ኡል
ስ_ኦእ
ስ_ኧብ
ስ_ዉ
ስልል
ስልጥን
ስሎቫኪያ
ስመኝ
ስምምዕ
ስምነት
ስምኦን
ስምዒት
ስምዖን
ስሞታ
ስረአት
ስራህ
ስቅይ
ስበት
ስብሀት
ስብእ
ስብዕን
ስቲም
ስታህል
ስታትስቲክ
ስታትስቲክስ
ስትራቲጂ
ስነ_ህይወት
ስነ_ልብ_ኦና
ስነ_ምህዳር
ስነ_ሥርዓት
ስነስርዓት
ስን_እ
ስን_ጥ
ስን_ፍ
ስንቃጣ
ስንኝ
ስንዕ
ስአት
ስኬታማ
ስክሪብቶ
ስክሪን
ስዊዲን
ስውእ
ስዕለት
ስዩም
ስፍሕፍሕ
ስፍን
ስፓንያ
ስፔስ
ስፔስፊኬሽን
ስፖንሰር
ስፖንጅ
ስ፥
ሶላር
ሶላት
ሶሻሊስት
ሶቅራጠስ
ሶቪየት
ሸህ
ሸሚዝ
ሸሪፍ
ሸቐጥ
ሸበሌ
ሸፍጥ
ሺ፤
ሻምበል
ሻምቦ
ሻንጋይ
ሻጥር
ሼር
ሼክ
ሽ_ብ
ሽ_ነት
ሽ_ን
ሽ_አ
ሽ_ው
ሽማግለ
ሽራሮ
ሽቅብ
ሽግር
ሽግግር
ቀርከሃ
ቀስተ
ቀበሮ
ቀበቶ
ቀበና
ቀብር
ቀታሊ
ቀነኒሳ
ቀወት
ቀዶጥ
ቀጻልነት
ቀጽሪ
ቁማር
ቁራን
ቁስጥንጥንያ
ቁጣ
ቁፋሮ
ቃለ_ም
ቅ_በ
ቅ_ቱ
ቅ_አ_ሁ
ቅ_አ_ለች
ቅ_አል_ሁ
ቅ_አል_ኡ፤
ቅ_አልን
ቅ_አቸዉ
ቅ_ኣለ
ቅ_ኣም
ቅ_ኦ_ብ
ቅ_ኧ_ው_ት_አል፤
ቅ_ኧም
ቅ_ኧት_ዎ
ቅ_ከ
ቅሌት
ቅልስ
ቅልውላው
ቅስቅስ
ቅስት
ቅስና
ቅብእ
ቅብጢ
ቅንጣት
ቅዲ
ቅድሕ
ቅድስ
ቅድድም
ቅጥዒ
ቅጥፍ
ቅጽበት
ቆራሪት
ቆስጠንጢኖስ
ቆሻሻ
ቆጵሮስ
ቋራጭ
ቍጽጽር
በላይ
በላይነት
በሚ_ም
በሚ_ን
በሚ_ው
በርሀ
በት_አል_ን
በነ_እዚህ
በኩል_አቸዉ
በዓም
በደሌ
በደኖ
በጐ
ቡልቡል
ቡልጋሪያ
ቡምባ
ቢሊየነር
ቢረሳው
ቢሮ_ዉ
ቢሸፍት
ቢሾፍት
ቢካ_ህ
ቢዛንታይን
ባህላዊ
ባህሪ_ያች
ባህር_ይ
ባህታዊ
ባለሀብት
ባለቤትነት
ባላምባራስ
ባል_ተ_ቅ
ባል_ተ_ክ
ባል_ተ_ጥ
ባሕሪ_ያት
ባራቲየሪ
ባራቴሪ
ባርሴሎና
ባቄላ
ባቢሌ
ባነር
ባይነት
ባዮሎጂ
ባዮሜዲካል
ባድመ
ባጀት
ቤስት
ቤተልሔም
ቤተመን
ቤተሰብ_ኦቿ
ቤተክሪስቲያን
ቤተክርስቲያን_ኢት
ቤት፤
ቤንቺ
ብ_
ብ_ሁት
ብ_ም፤
ብ_አ_ለ
ብ_አ_ለች
ብ_አ_ቢ
ብ_አትን
ብ_ኡ_ም፤
ብ_ኡን
ብ_ኡ፤
ብ_ኢ_ዎ
ብ_ኢ_ያ_ቸው
ብ_ኢ_ያው
ብ_ኣ_ሁ
ብ_ኣለ
ብ_ኣቸዉ
ብ_ኣችሁ
ብ_ኣችው
ብ_ኣዊ
ብ_ኣ፤
ብ_ኦች_ዎ
ብ_ኧል
ብ_ይ
ብሄር_ኦች፤
ብሄርተኝ
ብላክ
ብሎኬት
ብሔርተ
ብሩህ
ብሩክታዊት
ብሪቲሽ
ብርሃኑ
ብርሃኔ
ብርቅ_ዬ
ብርቱካን_አማ
ብርቱዕ
ብርጋዴር
ብቅል
ብቕዓት
ብቸኝ
ብዘሃ
ብዙኃን
ብዝኃ
ብዬ
ብይን
ብደር
ብጉር
ቦልካን
ቦሎቄ
ቦምባርዲየር
ቦሰት
ቦኬ
ቦክስ
ቦዲ
ቬር_ው
ቭላድሚር
ተ_ስ_ተ
ተ_ነው_አል
ተ_ኛ_ኦች_ኡ_ን
ተ_ኛ_ዋ
ተ_ኝ_ነት_ኡ_ን
ተ_እ
ተሁለደሬ
ተህዋስ
ተለም
ተል_እ
ተልባ
ተልዕክ
ተመራማሪ
ተረከዝ
ተሸላሚ
ተቐባሊ
ተበግሶ
ተነሳሽነት
ተነስ
ተንተርስ
ተአምር
ተከታታይ
ተኩላ
ተክለ_ብርሃን
ተክሌ
ተኸታታሊ
ተዋሳኢ
ተዋጾ
ተዋፅዖ
ተድላ
ተገኑ
ተገን
ተጋሪ
ተጋብ
ተጠቃሚ
ተፈሪ
ቱሉ
ቱርኩ
ቱርካ
ቱይ
ታ_ር
ታ_ብ
ታ_አ_ጥ
ታህሣሥ
ታሕጓስ
ታሪፍ
ታቦተ
ታኅሳስ
ታንክ
ታዳሚ_ያን
ታዳጊ
ቴሌቪዢን
ቴክስታይል
ቴክኒሺያን
ቴክኒሽያን
ቴኳንዶ
ቴወድሮስ
ቴድሮስ
ት_ቅ
ት_አለ_ሁ
ት_አት_ኡ_ን
ት_አቸዉ
ት_አዊ_ት_ኡ
ት_ኡት_አቸው
ት_ኡ፤
ት_ኣች
ት_ኣው
ት_ኦች_ኡ_ን
ት_ኧ_ኛ_ኦች
ት_ኧ_ኛ_ው
ት_ኧ_ው፥
ት_ኧን
ት_ው
ትመሠረት
ትምህት
ትምርህት
ትረስት
ትራንስ
ትራንስፎርመር
ትቃት
ትቅም
ትብብር
ትንፍስ
ትእዛዝ
ትእግስት
ትኪ
ትክ
ትዉፊት
ትዕቢት
ትዝታ
ትያቄ
ቶሎ
ቶርነት
ቶርፔዶ
ቶሺባ
ቶታል
ቸኳይ
ቻርጅ
ቻይና_ውያን
ቻግኒ
ች_አ_ቸ
ች_አል
ችሎታ
ኀሊና
ኃላ
ኃውልት
ኃይለ_ሥላሴ
ኃይለሥላሴ
ኃይድሮ
ኃጢዓት
ኅበረተሰብ
ኅብረ
ኅብረት
ኋለ
ነሀሴ
ነሐስ
ነቝጣ
ነቢዩ
ነቢያት
ነባሪ
ነት_ህ_ን
ነት_አችሁ
ነት_ኣን
ነት_ኤ_ን
ነች
ነዋይ
ነውበ_ተ_ል
ነዳዲ
ነጋሽ
ነጋዲ
ነጠላ
ነጥብሚሊየን
ነፍሰ
ነፍጥ_ኧኛ
ኑዌር
ኑግ
ኒካራጓ
ኒዮርክ
ናታ
ናትሃን
ኔቶ
ን_ል_አቸው
ን_ም፤
ን_ም፥
ን_ችን
ን_ነት_ን
ን_አለ_ሁ፤
ን_አችን
ን_አና
ን_ኡ_ም፤
ን_እች
ን_ኧ_ም፤
ን_ኧ_ባት
ን_ኧቸው
ን_ኧን
ን_ያን
ንስሕብ
ንሽርትት
ንቅስቅስ
ንእር
ንክኪ
ንኸይ
ንውሕ
ንዝል
ንጉሰ
ንግዳዊ
ንጹር
ንፅብርቅ
ንፍስ
ኖሬጋን
ኖርማል
ኖቤል
ኖቫ
ኖኖ
ኘሮጀክት
ኛ_ን
ኛ_ኦች_ኡ_ን
ኝ_ት_አለ
ኝ_ነት_አቸው
ኝ_አል፤
ኝ_ኡ_በ
ኝ_ኧት_አቸዉ
አሃዝ
አለ_መ_አስ
አለም_አቀፍ
አለም_እ
አለሽ
አለበለዚያ
አላ_ም
አላፊ
አሌክትሪክ
አል_መ_ም
አል_መ_ቅ
አል_መ_ፍ
አል_ሚ_ም
አል_ም_እ
አል_ተ_ከ
አል_ት_አ
አል_ት_አይ
አል_አ_ም
አል_አ_ብ
አል_አ_ድ
አል_አስ_ተ_ም
አል_አቸው_አል
አል_አች
አል_ኡት፤
አል_እት
አል_ዎት
አል_ይ
አል_ዱሪ
አልባሌ
አልቤርቶኒ
አልኮሆል
አልይ
አልጀሪያ
አልጌ
አልፋ
አሕዛብ
አመራር
አመሰያ
አመት_ኣዊ
አመቺ
አመጽ
አሚር
አማጋ
አምላኩ
አምልክ
አምራች
አምሳሉ
አምስተኛ
አምባራስ
አምፖል
አሞሌ
አሥ_ፍ
አረማዊ
አረብኛ
አረንጋዴ
አረፍተ
አሩሻ
አራታ
አራት_ኧ_ኛ_ዉ
አራት_ኧኛ
አርማታ
አርስጣጣሊስ
አርበኝ
አርባምንጭ
አርባዕት
አርብ
አርታኢ
አርኪዮሎጂ
አርኪዮሎጂስት
አርክቴክቸር
አርዓያ
አሰ_ድ
አሰፋ
አስ_አይ
አስረስ
አስተማሪ
አስተናጋጅነት
አስተዋጽኦ
አስቴር
አስቴኒክ
አስቸኳይ
አስከ_አሁን
አስካይ
አስኮ
አስፈጻሚ
አስፕሪን
አሽ
አሽከርካሪ
አቁማዳ
አቃቢ
አበራ
አበአል
አቡ
አቡዳቢ
አቡጃ
አቢዬ
አባልነት
አባባ
አባባል
አባዜ
አቤል
አብመድ
አብረን
አብራክ
አብሬ
አብርሃ
አብሮ
አብያተክርስቲያን
አብዲ
አብዲሳ
አቦል
አት_ር
አት_አቸው_አል
አት_ኦች_አቸው_ን
አት_ኦች_አችን
አት_ይ
አቶምሳ
አችሁ_በት_ን
አኅጉር_ኢት
አኒሜሽን
አናጢ
አን_ኡ_ን
አን_ክ
አንስ
አንሺ
አንበስ
አንባገነን
አንት
አንኮበር
አንዋር
አንድ_ሚ_ስ
አንድ_ሚ_ች
አንድ_ሚ_እ
አንድ_ሚ_ድ
አንድ_ኢ_ስ
አንጎለላ
አንጐል
አአድ
አእ_ድ
አእምሮ_ዎ
አከሱም
አካሌ
አካባቢያዊ
አካውንቲንግ
አካውንት
አካፋ
አክስዮን
አክቲቪስት
አኮቦ
አኮኖሚ
አወልያ
አዊ_ት_አቸው
አዊ_ት_አን
አዊ_ት_ኣ
አዊ_ያ_ን_ን
አዊ_ያ_ን_ኡ
አውራ
አውቶቢስ
አውደ_እ
አዕዋፍ
አዘዞ
አዘጋጅ
አዛኝ
አዝ
አዝማሚያ
አዝራር
አየ_አስ_ቅ
አየ_ግ
አየርመንገድ
አየሱስ
አያ_ር
አይ_ስ
አይነ
አይኤስ
አይኮሎጂስት
አዮን
አደጋ_ዉ
አዳሚ
አዳሚቱሉ
አዳራሹ
አዳነ
አድሓኖም
አድማሱ
አድራሻ
አድባራት
አጃቢ
አገረ
አገር_አ
አገር_አች
አገር_እ
አጋ
አጋር_አጋር
አጋሮ
አግባብ
አግዋ
አጎበር_ኦችመድሀኒት
አጥቢያ
አፀፋ
አፈ_ት
አፍላ
አፍሪካ_ኒ_ዝ
አፍሪካ_ዊት
አፍሪካነር
አፍሪካዊ
አፍሮ
አፓርታይድ
አፕል
ኡ_ህ_ን
ኡ_ች
ኡ_ነት_አችን_ን
ኡ_ዎች_አችን
ኡ_ያ_ው
ኡለማ
ኡሩክ
ኡት_ኣ
ኢ_አቸው
ኢ_ያ_ዋ
ኢ_ያ_ዎች_ኡ_ን
ኢ_ፍትሃዊ
ኢ_ፍትህ
ኢሚሬት
ኢምንት
ኢራቅ_አ
ኢራፓ
ኢር
ኢሲያ
ኢስላም
ኢስት
ኢስጦኢክ
ኢቫን
ኢትዮ_ኬንያ
ኢትዮያ
ኢትዮጵያ_ው_ያ_ኑ
ኢትዮጵያ፤
ኢትዯጵያ
ኢንሳ
ኢንስቲቲዩት
ኢንስቲቲዮት
ኢንስትቲዩት
ኢንስፔክሽን
ኢንቫይሮመንታል
ኢንቬንሽን
ኢንዛይም
ኢንዱሰትሪ
ኢንዲ_ቅ
ኢንዶኒዢያ
ኢንፎርሜሸን
ኢኖቬሽን
ኢዛና
ኢያ_ዊ
ኢያ_ዎች_ኡ_ን
ኢያሱ
ኢዮቤልይ
ኢግዚቢሽን
ኣ_ል_አት
ኣ_ስ
ኣ_ት
ኣ_ነት_ኡ_ን
ኣ_ነት_ኣ
ኣ_ኣል
ኣ_ኦች_ን
ኣ_ዎች_አቸው_ን
ኣል_ኧ_ች
ኣል_ኧች
ኣማኻሪ
ኣምስት
ኣበራ
ኣት_ነት
ኣት_አቸው
ኣት_አችን
ኣት_አን
ኣት_ኦች_ኡ
ኣን_አል
ኣን_ኡ
ኣንድ_አንድ
ኣካያዲ
ኣዙር
ኣዛዚ
ኣየር
ኣይሁድ
ኣድላዪ
ኣድናቒ
ኣገባብ
ኣገዳሲ
ኣጸጋሚ
ኣፈላላይ
ኤ_ነት
ኤሌትሪክ
ኤሌከትሪክ
ኤሌክትሮ
ኤሌክትሮማግኔቲክ
ኤልክትሪክ
ኤልያስ
ኤሩትራይ
ኤር
ኤርባስ
ኤስቴቲክስ
ኤቢሲ
ኤታኖል
ኤንቢሲ
ኤክሳይዝ
ኤዜአ
ኤድሰ
ኤግዚቢት
ኤግዝቢሽን
እሁፍ
እህፈት
እልህ
እልል
እልቂት
እልብ
እመርታ
እምሩ
እሣት
እሥራኤል
እራሱ
እራሱን
እራስ_ዎ
እራት
እርድ
እሳተ
እስልም
እስቱዲዮ
እስትንፋስ
እስክንድሪያ
እብርሀ
እትብት
እነኚህ
እነዚ
እና_ት
እንክ
እንዲሁ
እንጆሪ
እንግዲ
እንግድ
እኝ
እኤአ
እኩለ
እክም
እውነት_ኧኛ
እዚች
እየ_አስ
እዲ_ስ
እድሜ_ይ
እጄ
እጅ_ዎ
እገታ
እግር_ኧኛ
እግዝ
እጥቅ
እፅ
እፎይታ
ኦ_ሽ_ን
ኦ_ት
ኦ_ኝ
ኦ_ዎች_ኡ_ን
ኦርቴጋ
ኦርቶዶክስ_አዊት
ኦርጋኒክ
ኦሮሚኛ
ኦሳማ
ኦስካር
ኦቴሎ
ኦት_አን
ኦት_ኣ_ው_ን
ኦት_ኣ_ዎች
ኦት_ኦች_ኡ
ኦቶማን
ኦች_አችሁ_ን
ኦንላይን
ኦክቶበር
ኦዲዮ
ኦድዮ
ኦፌኮ
ኧ_ተ_ኛ_ኦች
ኧ_ኛ_ን
ኧ_ኝ_ነት_አቸው_ን
ኧ_ኝ_ኦች_ን
ኧ_ኦች_ን
ኧ_ው_ል_ን_አል
ኧ_ው_አል_አቸው_አል
ኧርዝ
ኧት_ህ
ኧት_አችሁ_ን
ኧት_አዊ
ኧት_ኣን
ኧት_ኦች_አቸው_ን
ኧት_ኧ_ኛ_ኦች_ን
ኧት_ኧ_ኛ_ኦች_ኡ
ኧት_ው
ከሚ_ግ
ከሚሴ
ከረን
ከረጢት
ከራስ
ከሰም
ከንባታ
ከፍታ
ኩሪፍቱ
ኩሱሜ
ኩባንይ
ኩታ
ኩናማ
ኩክ
ኩዴታ
ኩፍኝ
ኪሜትር
ኪነት
ኪነጥ
ኪንታሮት
ኪኢላ
ካሊእ
ካሊፎርንያ
ካሎሪ
ካሜሩን
ካምብሪጅ
ካምኘ
ካምፓኒ
ካሪቢያ
ካራማራ
ካርጎ
ካቢኒ
ካድሬ
ካፌ
ካፒታሊዝም
ካፒቴን
ኬ_ህ
ኬሮሲን
ኬጂቢ
ኬፕ
ክ_ት
ክ_ን
ክ_አለ
ክ_አች
ክ_ኡ_ብ
ክ_ኡት
ክ_ኦኛ
ክህል
ክሊፕ
ክምችት
ክራይ
ክስክስ
ክትር
ክትዕ
ኮሌስትሮል
ኮልፌ
ኮሚኒኬሽን
ኮሜሳ
ኮምባይነር
ኮምዩኒኬሽን
ኮምፒውትር
ኮምፕላንት
ኮምፕዩተር
ኮረጆ
ኮርቻ
ኮብልስቶን
ኮንሰትራክሽን
ኮንቴምፕረሪ
ኮንዶሚኒየም
ኮንፌዴሬሽን
ኮካ
ኮኬይን
ኮኮብ
ኮዬ
ኵዕሶ
ኹለት
ኽምራ
ወህኒ
ወረቐት
ወር_አ
ወርቅ_አማ
ወርቅ_ኢት
ወሮ
ወስጥ
ወታደራዊ
ወታደር_ኦች_ኡችን
ወያናይ
ወይራ
ወይባ
ወዴት
ወዶ
ወገን
ወጻእተኛ
ወፂ
ወፍሪ
ዉሀ
ዉጭ
ዊ_ን
ዊ_ያ_ን_ኡ
ዋሕስ
ዋርካ
ዋስትና
ዋሽንት
ዋቤ
ዋይፋይ
ዌልስ
ው_ል
ው_ን_አል
ው_ያ
ውህደት
ውሕስ
ውሕድ
ውሽይ
ውቅሮ
ውቤ
ውንዝፍ
ውዝዋዜ
ውዴታ
ውድድ
ውግዕ
ዎች_አችን_ን
ዎች_ኣ
ዐሊ
ዐራት
ዐርባ
ዐቃቤ
ዒድ
ዓለማየሁ
ዓለም_አቀፉ
ዓለም_አቀፍ
ዓላማ
ዓምድ
ዓረቢያ
ዓርቢ
ዓቢይ
ዓብይ
ዓውድ
ዓየር
ዓይናፋር
ዓይደር
ዓፋር
ዕላማ
ዕርብ
ዕርከን
ዕርይ
ዕርድ
ዕቁባት
ዕብድ
ዕትር
ዕንጨት
ዕኩል
ዕይታ
ዕደ
ዕደ_ጥብብ
ዕድስ
ዕግርግር
ዕፀ
ዘ_ኢትዮጵያ
ዘላቂ
ዘርኢ
ዘብዴዎስ
ዘንድ
ዘንድሮ_ዉ
ዘንዶ
ዘውዲቱ
ዘዬ
ዘይብሉ
ዘጋርዲያን
ዘፈን
ዙር
ዚንክ
ዛላ
ዛጉዌ
ዛግዌ
ዜድቲኢ
ዝ_አል፤
ዝ_እች
ዝርግእ
ዝቅተኛ
ዝነኛ
ዝዋይ
ዝውትር
ዝይድ
ዝግም
ዝፍን
ዞዲያክ
ዟ_ዝ
የ_መ
የመ_አይ_ግ
የምት_ም
የምት_ቅ
የብስ
የት_ኅ
የነ_እዚህ
ዩኒቨርሲቲ_ዉ
ዩኒቪርሲቲ
ዩናይትድስቴትስ
ዩንቨርስ_ቲ
ዩንየን
ዩኤስኤአይዲ
ያ_ላ_ቅ
ያ_ስ_ቅ
ያ_ን_ብ
ያ_ኣን
ያ_ዊ_ው
ያ_ው_ያ_ን
ያሲር
ያፌት
ይ_ተ_ው_አል፤
ይ_ት
ይ_ቼ
ይ_ች
ይ_ነ
ይ_አ_ይ
ይ_ኡ_ዋት
ይ_ዋን
ይሁዲ
ይህ_ን_ኑ
ይርጋጨፌ
ይስሐቅ
ይ፤
ዮናይትድስቴትስ
ዮኤስ
ደሃ
ደምብ
ደራሲ
ደርባ
ደርዘን
ደቡበ
ደቡባዊ
ደብረማርቆስ
ደኅን
ደናግል
ደንገጡር
ደአማት
ደኢህዴንኢህአዴግ
ደኢህዴግ
ደደብ
ዱምኮ
ዱሮ
ዱቤ
ዱብቲ
ዱከም
ዱዳ
ዲምቱ
ዲሞከራሲ
ዲሞክራሲያ
ዲሞክራሲያዊ
ዲሲፕሊን
ዲስኦርደር
ዲበ
ዲቪዲ
ዲንሾ
ዲኘሎማሲ
ዲኤስቲቪ
ዲያቢሎስ
ዲዳ
ዲጄ
ዲጅታል
ዲፓርትመንት
ዳሌ
ዳልኬ
ዳሬክተር
ዳሸን
ዳውሮ
ዳይሬክቶሬት
ዳይሬክቶር_ኤት
ዴሞክራሲ_ያዊ
ዴሞክራሲያ
ዴሞክራቲክ
ዴር
ዴስክ
ዴቪድ
ዴንምርክ
ድ_ም፤
ድ_ን_ብ
ድ_አ_ለ_ሁ
ድ_አ_ድ
ድ_አቸው_ለ
ድ_አቸው፤
ድ_አ፤
ድ_ኣለ
ድ_ኣ፤
ድ_ኧ_ባት
ድ_ኧ_ችው
ድ_ኧን
ድህረምረቃ
ድሙቕ
ድምጸ
ድረ_ገጹ
ድረ_ገፁ
ድረገጽ
ድሪም
ድርቂ
ድርክ
ድባብ
ድብቅ
ድንዝዝ
ድንገተኛ
ድግም
ድግሪ
ድፍር
ዶሎ
ዶናልድ
ዶክመንተሪ
ዶክትሪን
ጀሌ
ጀሮ
ጀቡቲ
ጀኔሬተር
ጀንበር
ጀግና
ጀጎል
ጂኦግራፊ
ጂጂጋ
ጂግጂጋ
ጃንደረባ
ጃንጀሮ
ጄምስ
ጄት
ጄኒሮ
ጅ_ብ
ጅ_አ
ጅ_ኧት_አቸዉ
ጅቡ
ጆን
ጆንያ
ገሀድ
ገሃነም
ገመድ
ገምሹ
ገምገም
ገረብ
ገርባ
ገበዝ
ገባሪ
ገብረማርያም
ገብረሥላሴ
ገብረስላሴ
ገብረክርስቶስ
ገብረጊዮርጊስ
ገብርዬ
ገናሌ
ገንዝብ
ገዥ
ገይሩ
ገዳም
ገዳይ
ገፅታ
ጉለ
ጉልህ
ጉሙሩክ
ጉምዝ
ጉስጢ
ጉበኤ
ጉባ
ጉንጭ
ጉንጽ
ጉዞ
ጉዲት
ጉዲፈቻ
ጉዳተኛ
ጉድን
ጊልጋመሽ
ጊምቢ
ጊንጪ
ጊዚ_ያዊ
ጊዚ_ይ
ጊዜ_ያችን
ጊጤ
ጋሊሳሬ
ጋርዲያን
ጋሽ
ጋብቻ_ቸው
ጋቦን
ጋኔን
ጋዜጠኛ
ጋዳፊ
ጋግዝ
ጌምድር
ጌታ_ዬ
ጌት
ጌዲኦ
ጌዲዮ
ግ_ም፤
ግ_አ_ለች
ግ_አለ_ሁ፤
ግ_አኛ
ግ_ኢና
ግ_ኣ፤
ግ_ኦ_ብ
ግ_ኦት_አች
ግ_ኧ_ው
ግ_ኧ_ው_አል፤
ግ_ኧ_ው፤
ግ_ኧት_አ
ግለስብ
ግል_እ
ግምባር
ግምጃ
ግሩም
ግሩፕ
ግሪን
ግራር
ግራንት
ግራጫ
ግብረአበር
ግብራ
ግትር
ግትእ
ግንዝብ
ግዕዝይና
ግይሽ
ግዮን
ግዴለሽ
ግድ_ኤት_አ
ግድየለሽ
ግድግዳ
ጎልያድ
ጎልድ
ጎሣ
ጎርጎራ
ጎሽ
ጎተራ
ጎታች
ጎይ
ጎደሬ
ጎፋ
ጐላ
ጐማ
ጓሳ
ጓንት
ጓዳ
ጕዕዞ
ጕያ
ጠቕላላ
ጠፈር
ጠፍር
ጥ_ም፤
ጥ_ቶ_ብ
ጥ_ቶት
ጥ_አ_ለ
ጥ_አ_ጣ
ጥ_አት_አ
ጥ_አቸው፤
ጥ_አጡ
ጥ_ኣ_ጥ
ጥ_ኣለ
ጥ_ኣል፤
ጥ_ኣችን
ጥ_ኧ_ን_አ
ጥ_ኧ_ኝ_አ
ጥ_ኧ_ው_አለ
ጥ_ዎ
ጥ_ጡ
ጥሕል
ጥምር
ጥራጭ
ጥርቅም
ጥርብ
ጥቅል
ጥቅቅን
ጥቅት
ጥበቃ
ጥት
ጥንስ
ጥንቅር
ጥንተ
ጥንታዊ
ጥዋት
ጥፍር
ጦማር
ጦቢያ
ጧ_ጧፍ
ጨለንቆ
ጨረራ
ጨፌ
ጩኒ
ጫኔ
ጫንጮ
ጭ_አ
ጭ_እ
ጭላንጭል
ጭልጋ
ጭምብል
ጭርት
ጭቃ
ጭነት
ጭንቂ
ጮራ
ጲላጦስ
ጸሊም
ጸረ_ሽ
ጸብጻብ
ጸጋይ
ጸጕሪ
ጽ_ሕ
ጽ_ኡ_ሕ
ጽ_ኣ_ዉ
ጽ_ኣ_ው_አልበ_ቅ
ጽ_ኣና
ጽ_ኣው
ጽላት
ጽልዋ
ጽሕይ
ጽርጊያ
ጽንስ
ጽጌ
ፀሀይ
ፀባይ
ፀደይ
ፀገ
ፅ_ኧ_ው፤
ፅንሰ
ፅንስ
ፅድእ
ፈላሲ
ፈረንሳ
ፈርጥ
ፈሳሲ
ፈንታሌ
ፈንት
ፉጂ
ፊት_አውራሪ
ፊቸር
ፊቼ
ፊውዳል
ፊዚካል
ፊዚዮቴራፒ
ፋሉጃ
ፋርጣ
ፋቡላ
ፋብሪካ_ዉ
ፋኖ
ፌብሩዋሪ
ፍ_አ_ፋ
ፍ_አ_ፍ_ኣቸው
ፍ_ኡ_ሉ
ፍ_ኡ_ፍ
ፍ_ኡል
ፍ_ኢ_ፊ
ፍ_ኣ_ፍ
ፍ_ኣቸው
ፍ_ኣች
ፍ_ኣ፤
ፍ_ኤት
ፍልልይ
ፍልም
ፍልስጤም_አ
ፍልውሃ
ፍሪጅ
ፍራሽ
ፍራቻ
ፍራንሲስ
ፍራንክ
ፍራንክፈርት
ፍርሀት
ፍርሃት
ፍሽል
ፍቅረኛ
ፍቱን
ፍትሀ
ፍትወት
ፍቺ
ፍች
ፍንዳታ
ፍንጭ
ፍካሬ
ፍፁም
ፎቶ_ግራፍ
ፎክስ
ፎገራ
ፐርል
ፑንትለ_አንድ
ፑኝዶ
ፒሰስ
ፒቪኤች
ፒኮክ
ፒያሳ
ፓሊሲ
ፓሊስ
ፓራዳይድ
ፓውንድ
ፓፕ
ፔንታጎን
ፕላስተር
ፕሪሚየር
ፕሪምየም
ፕሪቶሪያ
ፕራግ
ፕሮሞሽን
ፖለቲከ
ፖለቲከኛ
ፖሊሰ
ፖሊሲ_ዉ
ፖሊትካ
ፖላንድ
ፖል
ፖርክ
ፖስታ
ፖስት
ፖኘ
ፖይለት
፲፱፻፶፯
_ር
ሀሉ
ሀላባ
ሀምሊን
ሀምሳ
ሀሮማያ
ሀበት
ሀብቱ
ሀብታሙ
ሀብቴ
ሀብት_አም
ሀንግኦቨር
ሀዉልት
ሀዋላ
ሀይለ
ሀይለሚካኤል
ሀይለማርያም
ሀይማኖታዊ
ሀይዌይ
ሀይድሮጂ
ሀዲያ
ሀዳሴ
ሀድያ
ሀጂ
ሀገረ
ሀገረማሪያም
ሀገሬ
ሁለም
ሁለት_ኧኛ
ሁለትዮሹ
ሁለትዮሽ
ሁለንተናዊ
ሁላች
ሁሪብጋ
ሁቲ
ሁኔ
ሁኔት
ሁካት
ሁዋንታ
ሁዳዴ
ሂልተን
ሂሣብ
ሂስ
ሂቡ
ሂብሮን
ሂትሮ
ሂውማን
ሂውስተን
ሃመር
ሃረሪ
ሃረር
ሃሩር
ሃርቫርድ
ሃሻናህ
ሃቅ
ሃብታም
ሃኖቨር
ሃዋሪያ
ሃዋይ
ሃውስ
ሃውስተን
ሃይለ
ሃይለማሪያም
ሃይለማርያም
ሃይሉ
ሃይል_ኧኛ
ሃይፖኮንድራሲሲ
ሃድያ
ሃጂ
ሃፋ
ሃፕ
ሄለን
ሄሌኮፕተር
ሄልዝ
ሄሮይን
ሄሮድስ
ሄግ
ህ_ኣን
ህሊና_ቸው
ህልዊ
ህልውን
ህረሰብ
ህርስ
ህስይ
ህብረሰብ
ህብረተስብ
ህቦብላ
ህንጣሎ
ህዑፅ
ህይው
ህደሴ
ህዳስ_ኤ_ዉ
ህዳስ_ኤወ
ህዳጉ
ህድም
ህድስ
ህጋዊነት
ህግ_ግ
ህግር
ሆለታ
ሆሜር
ሆሞ
ሆሰፒታል
ሆቢ
ሆቢ_ይ
ሆታ
ሆዳድ
ለ_ን
ለለ_መ_ሥ
ለስላሳ
ለበን
ለየ_ክ
ለገሃር
ለገጣፎ
ሉላ
ሉሚስ
ሉአላዊነት
ሉካን
ሉዊስ
ሉዊዚያና
ሉዓላ
ሉፍታንዛ
ሊመንበር
ሊማሊሞ
ሊቀ_ካህን
ሊቀ_ጠበብ
ሊቃ_መንበር
ሊብያ
ሊቦ
ሊተር
ሊንክ
ሊዎፖልድ
ሊይ_አስ_ግ
ሊዲያ
ሊጉ
ሊፍት
ሊፎራቶቮ
ላሙዲ
ላሜራ
ላምብ
ላሬ
ላሳድ
ላስቬጋስ
ላባ
ላትቪያ
ላይ_ህ
ላይ_ን
ላይ_እ
ላይቤሪያዋ
ላይነር
ላይዘን
ላይፍ
ላይ፤
ላጤ
ላፕቶፕ
ሌ_እ
ሌለ_ብ
ሌሉ
ሌሊሳ
ሌላ_ዉ
ሌሴት
ሌብል
ሌተና
ሌተናል
ሌኒ
ሌክቸረር
ሌዊስ
ሌጎስ
ል_ሁት
ል_ህ፤
ል_ምለ_በሽታ
ል_ም፥
ል_ሥ
ል_ር
ል_ሽ
ል_ብ_አቸው፤
ል_ተ_ል
ል_ተ_ር
ል_ተ_ክ
ል_ተ_ው
ል_ተ_ድ
ል_ታ_እ
ል_ታ_ድ
ል_ታ_ፍ
ል_ት_ሥ
ል_ት_ስ
ል_ት_ሽ
ል_ት_ን
ል_ት_አስ_እ
ል_ት_ክ
ል_ት_ድ
ል_ት_ፍ
ል_ች
ል_ና_ክ
ል_ና_ድ
ል_ን_ህ
ል_ን_ሽ
ል_ን_ብ
ል_ን_ን
ል_ን_አ_ቅ
ል_ን፤
ል_አ_ለ_ሁ
ል_አ_ለች
ል_አለ_ህ
ል_አለ_ች፤
ል_አል_ች_ሁ
ል_አል_አችሁ፤
ል_አል_ኣች
ል_አልቻይ
ል_አል፦
ል_አሎፕ
ል_አማ
ል_አርናንስን
ል_አቢ
ል_አትላ
ል_አቸው፦
ል_አቻ
ል_አችሁ_አል
ል_አይ
ል_ኡ_ሉ
ል_ኡ_ብ_አቸዉ
ል_ኡ_ን፤
ል_ኡ_ፋ_ይ
ል_ኡም
ል_ኡት፤
ል_ኡና
ል_ኡን
ል_ኡ፥
ል_ኡ፦
ል_ኢት
ል_ኢትሀድ
ል_ኣ_ዉ
ል_ኣ_ይ
ል_ኣል፤
ል_ኣቸዉ
ል_ኣች
ል_ኣኑ
ል_ኣዊ
ል_ኤ_ለ
ል_ኦም
ል_ኦታ
ል_ኦች_አቸዉ
ል_ኦች_ዎ
ል_ኦን
ል_ኦው
ል_ኧ_ሉ
ል_ኧ_ሉት
ል_ኧ_ም፤
ል_ኧ_ባ
ል_ኧ_ናልይሄ
ል_ኧ_ኛና
ል_ኧ_ኝ_ም፤
ል_ኧ_አህጉር
ል_ኧ_አገር
ል_ኧ_ከ_ለ
ል_ኧ_ው_ት_አል፤
ል_ኧ_ውየ_ጉባኤ
ል_ኧ_ው፥
ል_ኧ_ፍ
ል_ኧል
ል_ኧም
ል_ኧው
ል_ኧ፥
ል_ጭ
ል_ፕሬዚዳንት
ልሁቃን
ልሂቃን
ልሂያ
ልህቅ
ልመ_ን
ልምስ
ልሳነ_መ_ን
ልበ_መ_ህ
ልበ_አገር_ኢት
ልበ_እ
ልበ_እዚህ
ልቤ
ልታ_ድ
ልት_ት_እ
ልቻ
ልእልእ
ልእስ
ልእፍ
ልኧ
ልክእ
ልዕል_ና_ዋን
ልየ_ማዕከል
ልየ_አዲስ
ልየታ
ልየኛ
ልዩነት
ልጃ_ገረድ_ኦች_ኡች
ልጅ_ቱ
ልጅ_ቷ
ልጅ_አገረድ
ሎሳ
ሎስአንጀለስ
ሎሽን
ሎተሪ
ሎንዶን
ሎኮሞቲቭ
ሎጂስቲክ
ሎጊያ
ሎግያ
ሎጎ
ሐምራዊ
ሐረርጌ
ሐራጁን
ሐርነት
ሐሰን
ሐብሊ
ሐተታ
ሐና
ሐዋሪያት
ሐውት
ሐውዜን
ሐያት
ሐይንከን
ሐዲያ
ሐጐስ
ሐጢአት
ሒጅራ
ሓለዋ
ሓለፎ
ሓላዊ
ሓምሌ
ሓምሳ
ሓርማዝ
ሓርገጽ
ሓሰር
ሓሰኻ
ሓሳባዊ
ሓሶ
ሓባራዊ
ሓብሓቢ
ሓንጎል
ሓዲ
ሓዳሲ
ሓጺን
ሓፂ
ሓፈሻ
ሓፋሽ
ሔሮድስ
ሕልል
ሕልሚ
ሕልም
ሕልፈት
ሕማ
ሕማቕ
ሕምሽሽ
ሕርር
ሕርሲ
ሕርቀ
ሕስም
ሕሽው
ሕቁፍ
ሕቡእ
ሕብሪ
ሕብእ
ሕቱ
ሕትመት
ሕወሃት
ሕወኃት
ሕዝል
ሕዝብ_ኦች_ኡችን
ሕዝብ_ው
ሕይሽ
ሕይወት_ኤን
ሕይወት_ዎ
ሕድሳት
ሕጉ
ሕጉስ
ሕጫጨ
ሕጽበተ
ሕጽብ
ሕጽይ
መ_ቅ
መ_ንግስ
መ_አይ_ተ_ን
መ_አይ_ት_አይ
መ_አይ_አስ
መ_ይ_አስ
መሀላ
መሀሪ
መሃላ
መሃመድ
መሃይም
መላ_ዉ
መላእ
መላእክት
መልቲሚዲያ
መልአክ
መልከመልካም
መልከዓ
መልክ_አ
መልክዐ
መልክዓ_ምድር
መልክዓምድር
መልክዕ
መልዕልተ
መሐላ
መሐሪ
መማር
መምርሒ
መሠረተ
መረዋ
መረጃ_ውመ_ር
መረጃ_ዎች_ንመ_ር
መረጃ_ዎችመ_ር
መረጋ
መሪሕነት
መራጺ
መሬት_አቸዉ
መርሳ
መርቆሪዮስ
መርኣዪ
መርከብ_ቷ
መርካቶ
መርዋ
መርየ
መርፍእ
መሰለም
መሰላ
መሰልጠኒ
መሰረታዊ
መሰናኽል
መሰከረም
መስሕብ
መስራቲ
መስራች
መስተዳድር
መስክር
መስዋእ
መስጅድ
መሶቦ
መሸታ
መሸፈኒ
መቐለ፤
መቓብር
መበል
መብራህቲ
መብር
መብርሂ
መብት_አቸዉ
መተ_ል_እ
መተሀራ
መተሓላለፊ
መተክ
መትረብ
መትከል
መቻቻ
መነሾ
መነበይቲን
መነጽር
መናህሪያ
መንሻ
መንትያ
መንክር
መንደሪ
መንደቕ
መንዴ
መንድ
መንገሰት
መንገዘብ
መንጋጋ
መንፈቀ
መአሐዲል
መአዛ
መኢሶ_ደወሌ
መኢብን
መእሄት
መእተዊ
መእደቁ
መከላኸሊ
መከካል
መኪን
መካነ
መካነየሱስ
መካኒካል
መካናይዜሸን
መካክል
መክ
መኮጉጽቤት
መኳንት
መኸዳ
መኻከል
መኽዘን
መዋለንዋይ
መዋኛ
መዋእለ
መዋጮ
መውሊድ
መውጅ
መዐሕድ
መዐቀኒ
መዓርግ
መዓንጣ
መዕለቢ
መዘናግዒ
መዘከርታ
መዠም
መዩንግ
መይለ
መደምደምታ
መደረክ
መደቀሲ
መደበር
መደወላቡ
መዲና_ችን
መዲን
መዳለዊ
መዳብ
መዳፍ
መድሀኒዓለም
መድሎ
መድሓኒት
መድር
መድርክ
መድብል
መድኀኒት
መጀመርታ
መጅሊሱ
መጅሊስ
መገርሳ
መገሻ
መጋቤ
መግል
መግስት
መጎዓዓዚ
መጠንቀቕታ
መጥባሕቲ
መጨረኛ
መጸዋዕታ
መጻህፍት
መፃህፍት
መፃወዲ
መፅሔት
መፍ
ሙሀረም
ሙሁራን
ሙሉአለም
ሙሉዓለም
ሙሉዕ
ሙሌት
ሙልሮኒ
ሙርሌ
ሙሳ
ሙሴን
ሙሶሊኒ
ሙሶሎኒ
ሙቀ
ሙኒክ
ሙክት
ሙዚየ
ሙዚዬም
ሙዝየም
ሙያዬን
ሙጃሂዲን
ሙገር
ሙግት
ሙጫ
ሚ_ለኝ
ሚ_ሕ
ሚ_መ_ል
ሚ_መ_ጥ
ሚ_ማር
ሚ_ሯ_ር
ሚ_ስ_ተ_ን
ሚ_ሽ_ቅ
ሚ_ቆ_ር
ሚ_ቋ_ቅ
ሚ_በር
ሚ_በጀው
ሚ_በጅ
ሚ_ባለ
ሚ_ተ_ው_እ
ሚ_ት_አይ
ሚ_ት_ዝ
ሚ_አስ_እ
ሚ_እገን_አ_ውባለ_ሙያ
ሚ_ከ
ሚ_ካ_ሕ
ሚ_የ_አስ_ም
ሚ_የ_እ
ሚ_ያ_ማክል
ሚ_ያ_ምን
ሚ_ያ_ሥ
ሚ_ያ_ሰ_ች
ሚ_ያ_ሰ_ክ
ሚ_ያ_ሰ_ፍ
ሚ_ያ_ሻማ
ሚ_ያ_ቁር
ሚ_ያ_ብ_እ
ሚ_ያ_ች
ሚ_ያ_ን_ሽ
ሚ_ያ_ክል
ሚ_ያ_ድር
ሚ_ያ_ጣ_ጥ
ሚ_ይ_ስ
ሚ_ይ_ስ_እ
ሚ_ይ_አ_ው
ሚ_ይ_አል
ሚ_ይ_አስ
ሚ_ይ_አይ
ሚ_ጠጋ
ሚሉ
ሚሊን
ሚሊየነር
ሚሊየን_ሺ
ሚሊዩን
ሚሊዮንሺህ
ሚላኖ
ሚሞሪ
ሚረጩ
ሚሲዮን_አ
ሚነስትር
ሚኒስር
ሚኒሶታ
ሚኒትር
ሚንስተር
ሚኪያስ
ሚዜ
ሚየ_አስ_እ
ሚያ_ሽ
ሚያ_ባ_ብ
ሚያ_እ
ሚያ_ዝ
ሚያ_ጥ
ሚያ_ጽ
ሚያዚያዋኢማ
ሚይ_አ_ጭ
ሚይ_አይ
ሚዳ
ሚግ
ማ_ማ_ች
ማ_ተ
ማ_አስ_ት
ማሀበረሰብ
ማሃማት
ማሃብ
ማህሌት
ማህበረሠብ
ማህበረስላሴ
ማህከል
ማሊን
ማላሪያ
ማሌዥያ
ማሕላ
ማሙሸት
ማሟያ
ማሪን
ማሪያም
ማርማላታ
ማርሽ
ማርታ
ማርች
ማርኬት
ማር፤
ማሳ_ቸው
ማሳቹሴትስ
ማሳያ
ማስ_ቅ
ማስተርስ
ማስትሬት
ማስኬጃ
ማስጠንቀቂያ
ማሸን
ማሽነሪ_ዎች_ኡን
ማበር
ማተም
ማቲያስ
ማታለያ
ማት_ክ
ማቺጉኤንጋ
ማኅበሰረብ
ማኅተም
ማኑስ
ማኑዋል
ማኒፋክቸሪንግ
ማን_ህ
ማን_ንት
ማን_ኛ_ዉ
ማን_እ
ማን_ክ
ማን_ጥ
ማንሻ
ማንቁርት
ማንቸስተር
ማኛ_ም
ማአከል
ማእቀፍ
ማእክል
ማእዝን
ማእደቁን
ማኪና
ማካቬሊ
ማክሮን
ማክስ
ማዒዳህ
ማዕርነት
ማዕርግ
ማዕከል_ኣዊ
ማዕካል
ማያርዲት
ማይ_ም
ማይ_ቅ
ማይ_ን
ማይ_እ
ማይ_ጥ
ማይልስ
ማይኒንግ
ማይክል
ማዮ
ማደጎ
ማዲካ
ማዳጋሰካር
ማድሪድ
ማዶ
ማጃንግ
ማጆር
ማገር
ማግነት
ማጠቃለያ
ማፌዝ
ማፑቶ
ማፕ
ሜሞሪመ_አስ_ት_እ
ሜሪ
ሜሪለ_አንድ
ሜርኩሪ
ሜርክል
ሜሮን
ሜቲክ
ሜትታሬስ
ሜና
ሜካኒክ
ሜዲትራኒያ
ሜዲትራንያ
ሜድሮክ
ሜድትራንያ
ሜጋሊት
ሜጫ
ም_ም፤
ም_ሥ
ም_ቱ
ም_ት_ሥ
ም_ት_በ_እ
ም_ት_ን_ቅ
ም_ት_አ_ም
ም_ት_አስ_ም
ም_ት_ካ_ህ
ም_ት_ይ
ም_ችን
ም_ኅ
ም_ን_ሥ
ም_ን_ር
ም_ን_ስ
ም_ን_ት_ኦች_ን
ም_ንት
ም_አ_ክ
ም_አለች
ም_አልበ_አፍሪካ
ም_አማ
ም_አስ_ክ
ም_አት_ች
ም_አትቤት
ም_አቸው፤
ም_አችሁ_ን
ም_አይ
ም_አይ_እ
ም_አ፤
ም_ኡ_በት፤
ም_ኢ_ውን
ም_ኢ_ይ
ም_ኢት_አ
ም_ኢነት
ም_ኢና
ም_ኢያው
ም_ኣ_ለ
ም_ኣ_ለ_ሁ
ም_ኣ_ሽ
ም_ኣ_ው
ም_ኣ_ዎች፥
ም_ኣኛ
ም_ኤት_ኣት_አ
ም_ኦች_ን
ም_ኦች_አቸው
ም_ኦች_አችን_ን
ም_ኦች_ኤ
ም_ኦችን
ም_ኦን
ም_ኦዋ
ም_ኧ_በት፤
ም_ኧ_ው_አል
ም_ኧ_ው_አልበ_ክ
ም_ኧ_ው_አልኢትዮጵያ
ም_ኧ_ው_አልእ
ም_ኧ_ው_አል፤
ም_ኧ_ውል
ም_ኧ_ውት
ም_ኧ_ው፥
ም_ኧ፥
ም_ኽ
ም_ው_አል፤
ም_ይ
ም_ይት
ምህላ
ምህረቱ
ምህረታብ
ምህረት
ምህንድስ
ምህንድስና
ምህፃር
ምሊቀመንበር
ምላሽ
ምልምል
ምልክታ
ምሑር
ምሕር
ምሕዋይ
ምሕዝነት
ምሕጽን
ምምላስ
ምሬሃለሁ
ምርታማነት
ምርኣይ
ምርኩስ
ምርካብ
ምስለ
ምስማር
ምስራቃዊ
ምስትምሃር
ምሻ
ምሽይ
ምቁር
ምቕባል
ምቖት
ምባል
ምብራቕ
ምታ_ቅ
ምት_ክ
ምት_ግ
ምትሕልላፍ
ምትኬ
ምኅረት
ምኒስትር
ምን_ሥ
ምን_አ_ር
ምን_አ_ጥ
ምን_አስ_ተ_ው_እ
ምን_አስት_እ
ምን_ጅ
ምን_ግዜ
ምን_ጽ
ምንሊክ
ምንል
ምንባብ
ምንዳ
ምንጃር
ምኢ
ምእምና
ምእራፉ
ምእስ
ምእዳን
ምክልኻል
ምክሬ
ምክትል
ምክንት
ምውል
ምውስ
ምውቅ
ምዕመን_ኣ_ንየ_ው
ምዕዝ
ምዕድ
ምዝሓል
ምዝመዛ
ምዝዝ
ምይይጥ
ምይጥ
ምደር
ምድረክ
ምግድር
ምጣኔ
ምጥዋ
ምጫው
ምጽዋት
ምፅሓፍ
ም፦
ሞሀመድ
ሞሃ
ሞለኪውል
ሞላሰስን
ሞሐመድ
ሞሪሽየስ
ሞርጌንዞን
ሞሶሎኒ
ሞቢል
ሞኒካ
ሞንሮቪያ
ሞንተሬይ
ሞንታና
ሞንቴሬ
ሞንቴሬው
ሞንጎሊያ
ሞኖክስ_አይድ
ሞዛይክ
ሞይሴ
ሞጊሳ
ሞፈር
ሟ_ቅ
ሟርት
ሠሌዳ
ሠረገላ
ሠራዊተ
ሠርፀ
ሠባት
ሠነድ
ሠንጠረዥ
ሠጥ
ሣንብ
ሣጥን
ሥ_ቱ
ሥ_ቴ
ሥ_ት_አት_ኡዊ
ሥ_ቷ
ሥር_አ
ሥርወ_መ_ን
ሥነ_ምህዳር
ሥነ_ስርዓት
ሥነ_ዜጋ
ሥነምግባር
ሥኬት
ሦራን
ረስኒ
ረቂቅ
ረቡእ
ረቢ
ረብሻ
ረኽሲ
ረዴት
ረድኤት
ረጉድ
ረጲ
ረፋድ
ሩህሩ
ሩቢን
ሩብል
ሩጥ
ሪሁ
ሪቻርድ
ሪከርድስ
ሪዞርት
ሪያድ
ሪጂን
ሪፎረም
ሪፓርት
ራህሪሁ
ራሓቐ
ራሔል
ራምስፊልድ
ራስ_ው
ራሽያ
ራአይ
ራያ_አዘቦ
ራይት
ራዲዮሎጂ
ራዲዮግራፊ
ራዲዮግራፍ
ራድዮ
ራጂ
ራጉኤል
ሬሣ
ሬንጅ
ሬክስ
ሬይካቪክ
ሬደዮ
ሬዲዮሎጂ
ሬዲዮአክቲቭ
ሬጉላቶሪ
ሬጌ
ር_ሃል
ር_ል_አቸዉ
ር_ሺ
ር_ባ_ሪ
ር_ብ_ሃል
ር_ብ_ዎት
ር_ብሔር
ር_ተ_ው_አልበ
ር_ቱ
ር_ት
ር_ት_አ
ር_ት_አለ
ር_ቶ_ብ
ር_ቸው
ር_ቼ
ር_ችን
ር_ነ
ር_ን_አል፤
ር_ን፤
ር_አ_ሎግያ
ር_አ_ረ
ር_አ_አስኪያጅ
ር_አ_ወች
ር_አ_የ
ር_አህ
ር_አለች
ር_አል_አቸዉ
ር_አልበ_በሽታ
ር_አልታዲያ
ር_አልዝ
ር_አት_ኡን
ር_አትን
ር_አቸን
ር_አቸው_አል፤
ር_አዊ_ቱ
ር_አዊ፤
ር_አዬ
ር_አ፥
ር_ኡ
ር_ኡ_ብ_አቸዉ
ር_ኡበ_ተ_ል
ር_ኡ፥
ር_ኢ_ር
ር_ኢ_ወቹ
ር_ኢ_ዎች_ን_በ_ተ_ል
ር_ኢ_ዎች_አቸዉ
ር_ኢ_ዎች_ኡ፤
ር_ኢ_ያ_ዉ
ር_ኢ_ያ_ው_ኑ
ር_ኢ_ያ_ዲግሪ
ር_ኢ_ያ፥
ር_ኢ_ይ_አቸዉ
ር_ኢው
ር_ኢይ
ር_ኢ፥
ር_ኣ_ሁ
ር_ኣለ_ሁ
ር_ኣራ
ር_ኣች
ር_ኤ_አለሁ፤
ር_ኤ_ው_አለ_ሁ
ር_ኤት_አ
ር_ኤት_ኣታ
ር_እት
ር_ኦ_ብ_አቸው
ር_ኦ_ዬ
ር_ኦቼ
ር_ኦዋ
ር_ኦው
ር_ኦ፥
ር_ኧ_ል_አቸዉ
ር_ኧ_ባት
ር_ኧ_ብ_አቸዉ
ር_ኧ_ችው
ር_ኧ_ናል
ር_ኧ_ንን
ር_ኧ_ን፤
ር_ኧ_ው_ም፤
ር_ኧ_ው_አል
ር_ኧ_ው_አልበ_እ
ር_ኧ_ው_አልበ_እዚህ
ር_ኧ_ው_አልት
ር_ኧ_ው_አልአቶ
ር_ኧ_ው_አልይህ
ር_ኧተ
ር_ኧት_ኡ፥
ር_ኧች፤
ር_ኧ፥
ር_ኽ
ር_ዉ
ር_ው፤
ርሊጳ
ርሑቕ
ርሚናል
ርስሓት
ርስሕ
ርሶል
ርቅነህ
ርበ_ተ_ል
ርባይን
ርብብ
ርብዒ
ርችት
ርኅራሄ
ርአ_ም
ርአማርኛ
ርአቸው
ርእብ
ርእዩተ
ርእድ
ርከሃ
ርካታ
ርዌይ
ርዕሳነ
ርዕዮተ
ርዕድ
ርዮት
ርፉር
ር፦
ሮህ
ሮመዳን
ሮቢት
ሮቤ
ሮቦት
ሮኬት
ሮክ
ሮዝ
ሮዶልፎ
ሰ_ት
ሰሀራ
ሰለ_ህ
ሰለም
ሰለብሪቲ
ሰላማዊ
ሰላምል
ሰላምዴሞክራሲ
ሰልፌት
ሰልፍ
ሰሐራ
ሰመመን
ሰመረ
ሰሙን
ሰሚናር
ሰሚያዊ
ሰሜ
ሰምዖን
ሰራሒ
ሰራሕተ
ሰርቫንት
ሰርከስ
ሰርክ
ሰርግ
ሰርጥ
ሰብስቴሽን
ሰብኣ
ሰብዕና
ሰነደቅ
ሰናይት
ሰናፍጭ
ሰንሻይን
ሰንደቕ
ሰኘው
ሰኙ
ሰኣሊ
ሰኳር
ሰዋሰው
ሰውነት
ሰውይ
ሰዓሊ
ሰይድ
ሰዲቅ
ሰድስት
ሰዶም
ሰፈር
ሰፋሪ
ሱሉልታ
ሱረቱል
ሱረት
ሱሪ
ሱርስት
ሱስንዮስ
ሱባ
ሱናሚ
ሱዙኪ
ሱዳን_አ
ሱፍሌ
ሱፐርቪዥን
ሱፐርቫይዘር
ሲሜንት
ሲምፖዚካዊ
ሲሪንቃ
ሲሬ
ሲሲሲሲ
ሲሲቲቪ
ሲሲኢሲሲ
ሲስተር
ሲሶ
ሲተ_ል_እ
ሲኒየር
ሲንቄ
ሲንጋፖርት
ሲንግ
ሲንፖዚየ
ሲንፖዚየም
ሲኖዶስ
ሲአርቢሲ
ሲኡል
ሲውዘርለ_አንድ
ሲዑል
ሲያ_ቅ
ሲያ_ብ
ሲያ_አ_ጥ
ሲዲሲ
ሲዳ
ሲድህፑር
ሲጂሲኦሲ
ሲግናል
ሳ_ል_እ
ሳ_ድ
ሳለው
ሳሊ
ሳላት
ሳላድ
ሳልሳይ
ሳልቫኪር
ሳልቫዶር
ሳማ
ሳማካ
ሳምሶን
ሳምቡእ
ሳምት
ሳምነት
ሳምንታዊ
ሳሞራ
ሳርካ
ሳርፌ
ሳስት
ሳቢያ
ሳቲ
ሳት_እ
ሳን_እ
ሳንባ_ችን
ሳንቲያጎ
ሳንካ
ሳንኮፋ
ሳንዲኒስታ
ሳንድዊች
ሳንጃ
ሳንጣ
ሳኡዲ
ሳእኒ
ሳውላ
ሳውዘርን
ሳውዝዌስት
ሳዑድ
ሳዕሪ
ሳያ_ቅ
ሳይ_ህ
ሳይ_ን
ሳይ_ድ
ሳይ_ፍ
ሳይሊየ
ሳይሊየ_ምን
ሳይናይድ
ሳይንስ_ኣዊ
ሳይንቲፊክ
ሳይኮሎጂ
ሳዶ
ሳጂን
ሴለብሪቲ
ሴሌብሪቲ
ሴማው
ሴሜቲክ
ሴራሚክ
ሴስናር
ሴት_ኦች፤
ሴንቲግሬድ
ሴንቸሪ
ሴክትር
ሴኮ
ሴይንት
ሴፍቲኔት
ሴፍትኔት
ሴፕቴምበር
ስ_ሁ
ስ_ለ
ስ_ላት
ስ_ር_አ_ሾች
ስ_ሳ
ስ_ብ_አቸዉ
ስ_ተ_ኛና
ስ_ተ_ው፤
ስ_ተ_ው፥
ስ_ቲ
ስ_ና
ስ_አ_ለ
ስ_አ_ዉ
ስ_አል
ስ_አልኢብኮ
ስ_አልይህ
ስ_አር
ስ_አት_አቸዉ
ስ_አቸው፤
ስ_አነ
ስ_አና
ስ_አናት
ስ_አይንስ
ስ_ኡት፤
ስ_ኡን
ስ_ኣ
ስ_ኣ_ለች
ስ_ኣ_ዬ
ስ_ኣል፤
ስ_ኣም
ስ_ኣቸዉ
ስ_ኣቸውን
ስ_ኣችን
ስ_ኣው
ስ_ኤ_በት_አለ_ሁ
ስ_ኤ_ያችን
ስ_ኦች_ኡችን
ስ_ኧ_ም፤
ስ_ኧ_ው_አለ_ሁ
ስ_ኧ_ው_አልሰው
ስ_ኧ_ፈ
ስ_ኧው
ስ_ኧ፥
ስ_ኩት
ስ_ው
ስሃ
ስህብ
ስለላ
ስሉጥ
ስላ_ሽ
ስላ_ቅ
ስላ_ክ
ስልሳ
ስልፍ
ስመኘው
ስሙይ
ስማርት
ስማይ
ስሜ
ስሜት_ዎ
ስምምፅ
ስምንተኛ
ስሞን
ስረዓት
ስሩዕ
ስራት_ኧ_ትምህርት
ስርወ
ስርወ_ቃል
ስርጭት
ስቃይ
ስቓይ
ስባቺን
ስብርባር
ስብጥር
ስቪል
ስቲቨን
ስቲዲዮ
ስታ_ስ_እ
ስታ_ቅ
ስታ_ድ
ስታስቲክ
ስታስቲክስ
ስታንዳርድ
ስታዲዮም
ስታድየም
ስቴንኬለር
ስቴዲየም
ስቴድየም
ስትራተጂክ
ስትራቴጅክ
ስትሮክ
ስቶክ
ስነ_ስ
ስነ_ተ_ው
ስነ_እ
ስነ_ጥብብ
ስነሥርዓት
ስነድ
ስነጥበብ
ስነፅሁፍ
ስና_ም
ስና_ግ
ስን_ድ
ስን_ጭ
ስኩል
ስኩቲ
ስኩየር
ስኩፕስ
ስካውት
ስካይ
ስካይፕ
ስኬት_ኣማ
ስክርቢቶ
ስኮላር
ስኮላርሺፕ
ስዊዘርለ_አንድ
ስዊዝ
ስዬ
ስይት
ስደተ
ስደተኛ
ስደት
ስድር
ስድስተኛ
ስድብ
ስጌ
ስግእ
ስጦታ
ስፍሓት
ስፍሪ
ስፒከር
ስፓኒሽ
ስፔሻላይዝድ
ስፖርታዊ
ስ፦
ሶሎዳ
ሶማሊ_ለ_አንድ
ሶሪያዊ
ሶራ
ሶንጋይ
ሶፋ
ሶፍ
ሶፍያ
ሸለልትነት
ሸሪ
ሸሪክ
ሸሪዓ
ሸራተን
ሸቀጥ
ሸቃሊ
ሸንበቆ
ሸንኮር_አ
ሸንጎ
ሸንጐ
ሸከቾ
ሸክል
ሸገር
ሸፈጥ
ሹል
ሹምዬ
ሺሀ
ሺመልስ
ሺአይት
ሺእ
ሻሂ
ሻህ
ሻሌ
ሻምፒዮን
ሻምፓኝ
ሻርነራ
ሻሮን
ሻና
ሻኪሶ
ሻወር
ሻይት
ሻፊ
ሼርማን
ሼባ
ሼቻ
ሽ_ኝ_ኡ_ን
ሽ_አለ
ሽ_ኡ
ሽህ
ሽሚያ
ሽሪማዲ
ሽባባው
ሽብሽብ
ሽታ_ዬ
ሽቶ
ሽንብራ
ሽንጥ
ሽእ
ሽክ
ሽኮላ
ሽኮር
ሽጉር
ቀ_ል
ቀለሜንጦስ
ቀመንበር
ቀምበር
ቀረባ
ቀረጽ
ቀራኒዮ
ቀራንዮ
ቀራጭ
ቀርኒ
ቀስበ_ሺህ
ቀሺ
ቀበሌ_ይ
ቀንጢቻ
ቀኖና
ቀውጢ
ቀደምት
ቀጣይነት
ቀጥጥር
ቀጨኔ
ቀጭኔ
ቀፀላ
ቁመት
ቁም_ን
ቁራ
ቁራኛ
ቁርሾ
ቁንጮ
ቁጥቋጦ
ቁፍር
ቂሊንጦ
ቂጣ
ቃለ_መ_ጥ
ቃሌማ
ቃልሲ
ቃሬዛ
ቃቄ
ቃፍታ
ቄ_ግ
ቄራ
ቄሳራ
ቄሳር
ቄጤማ
ቅ_ምወንድ
ቅ_ሳ
ቅ_ባት
ቅ_ብ_አቸው_እ
ቅ_ተ_ው
ቅ_ቸው
ቅ_አለ_ሁ፤
ቅ_አልም
ቅ_አልየ_አፍሪካ
ቅ_አት፤
ቅ_አችው
ቅ_አያ
ቅ_ኡ_ም፤
ቅ_ኡና
ቅ_ኢ_ይ
ቅ_ኢነት
ቅ_ኣ_ለ
ቅ_ኣች
ቅ_ኤ_ያለሁ
ቅ_ኤት
ቅ_እት
ቅ_ኦች_ኡን
ቅ_ኧ_ኝ፤
ቅ_ኧ_ው
ቅ_ኧ_ው_አልበ_እ
ቅ_ኧ_ው፥
ቅ_ኧበ_ቅ
ቅ_ኧው
ቅ_ኧየ_ኢንስቲትዩት
ቅ_ኧየ_ክ
ቅ_ወ
ቅላዕ
ቅልል
ቅልብስ
ቅልጣፈ
ቅልጥፍ
ቅልፍ
ቅሪተ_አካል
ቅሪት
ቅር_ኤት
ቅርበት
ቅርጥ
ቅርጫ
ቅርጸት
ቅርጺ
ቅርፍ
ቅባት
ቅብኢ
ቅነሳ
ቅንዕ
ቅንጣምንጢ
ቅኝት
ቅኝይ
ቅኡ
ቅእጥእ
ቅዋም
ቅይድ
ቅድሚት
ቅጣት
ቅጹ
ቅፅል
ቅፅበት
ቅ፥
ቆላማ
ቆላድባ
ቆራግ
ቆራጽ
ቆሬ
ቆርበት
ቆንስል
ቆይታ
ቆጮ
ቋንቋ_ቸ
ቋንቋ_ቸው
ቋንቋ_ችን
ቋይ
ቋጥኝ
ቋጭ
ቍልዕነት
ቍልፊ
ቍሸት
ቐሊል
ቑፅ
ቕርታ
ቕድሚ
በ_ስ_ተ
በላይነህ
በላይነሽ
በማ_ስ_ም
በረሐ
በረት_አች
በረንዳ
በረድ
በሩር
በሪሁ
በሪራ
በሬዲዮ
በርሃሌ
በርሄ
በርሔ
በርሚል
በርቢሩ
በርእሰ
በሮማ
በሸታ
በሺ
በሽት
በቀራ
በት_እ
በትር
በትቤት
በቾ
በኔ
በኣስ
በካፋ
በዓቲ
በዛጉዌ
በየዳ
በይነ
በደል
በጀ
በጊዕ
በፃሒ
በፅሐ
በፊት
ቡልዶዘር
ቡልጋርያ
ቡራዩ
ቡርጂ
ቡሽን
ቡታ
ቡታጂራ
ቡታጅራ
ቡችላ
ቡንድ
ቡክ
ቡደን
ቡድሀ
ቢለዮን
ቢራቢሮ
ቢስክሌት_ኧኛ
ቢሽፍቱ
ቢታኒያ
ቢች
ቢነስ
ቢኒያም
ቢንላደን
ቢጣ
ቢፒ
ባ_ብ
ባሃማስ
ባህታ
ባለሞያ
ባለት
ባለድርሻ
ባሉን
ባሊስቲክ
ባላ_ሀብት
ባላንጣ_ቸው
ባላደራ
ባል_ተ_ን
ባል_ተ_እ
ባል_ተ_ክ_ህ
ባል_ተ_ው
ባል_ተ_ጽ
ባል_ት
ባል_ት_እ
ባል_ች
ባል_ደረባ
ባልንጀሮች
ባሕር_ይ
ባሕርይ
ባሕት
ባማኮ
ባምቡላ
ባምቢስ
ባረንትስ
ባሪያዬ
ባራክ
ባርባዶስ
ባርናባስ
ባርኔጣ
ባርዕ
ባርግሃውቲ
ባሰ
ባቀር_ኧ_ብ
ባቲ
ባኒ
ባንቱ
ባንኪሙ
ባንኪንግ
ባንኮክ
ባንዴራ
ባንግላዲሽ
ባእሲ
ባእድ
ባኩል
ባውሽ
ባዕሉ
ባዕልኻ
ባዕታ
ባዝራ
ባየ
ባይ_ል
ባይ_ስ
ባይት
ባይደዋ
ባይዶዋ
ባዮሎጂ_ካዊ
ባዮሎጂ_ያዊ
ባዮቹ
ባዮች
ባድመን
ቤሊዝ
ቤልጂየ
ቤልጂዬም
ቤልጅግ
ቤልግሬድ
ቤተ_ምን
ቤተል
ቤተሙከራ
ቤተክህነት
ቤተክርስቲያ
ቤተክርስቲያን_ኢቷ
ቤተክርስቲያን_ኣችን
ቤት_ዎ
ቤትባልደራስ
ቤኒኑ
ቤከር
ቤዝ
ቤይ
ቤይሩት
ቤይራ
ቤጃ
ቤጉህዴፓ
ብ_ል_አት_ቸው
ብ_ል_አች
ብ_ር_እ
ብ_በት፤
ብ_ተ_ው_አል፤
ብ_ት_አ
ብ_ት_አል፤
ብ_ት_አች
ብ_አ_ሉ
ብ_አ_ቡ
ብ_አ_ው
ብ_አለ_ን፤
ብ_አሉ
ብ_አሩ
ብ_አት_አማ
ብ_አችዉ
ብ_አኛ
ብ_ኡት፤
ብ_ኢ_አለሁ
ብ_ኢ_ዎቸ
ብ_ኢ_ዎቼ
ብ_ኢ_ያች
ብ_ኢ_ያችን
ብ_ኢ_ያን
ብ_ኢ_ይ_አቸዉ
ብ_ኢዋ
ብ_ኢው
ብ_ኢይ
ብ_ኣለ_ሁ
ብ_ኣል፤
ብ_ኦ_ል_አቸ
ብ_ኦ_ብ
ብ_ኦሽ
ብ_ኦችን
ብ_ኧ_ባት
ብ_ኧ_ውት
ብ_ኩት
ብ_ያ_ለ_ሁ
ብ_ያን
ብሂል
ብሄር_ኦችብሄር_ኧ_ሰ_ብ
ብሄርብሄር_ኧ_ሰ_ብ
ብለት
ብሉምፎንቴን
ብሉበርግ
ብሉጽ
ብሊዮን
ብሌር
ብሌየር
ብል_ኦኝ
ብልሽዊ
ብልዒ
ብልጽግና
ብሔረ
ብሔር_ኦችብሔረሰብ
ብሔር_ኦች፤
ብሔርብሔረሰብ
ብሔሰብ
ብረታብረት
ብረት_አ
ብረዋህድ
ብሩር
ብሩስ
ብሩንዲ
ብሩክ
ብሩክሊን
ብሪጅ
ብራሰልስ
ብራዚሉ
ብራይት
ብሬን
ብሬግዚት
ብርሃን፥
ብርበራ
ብርብር
ብርት_አ
ብርክ
ብርጌድ
ብሮንካይት
ብሮክ
ብሮድ
ብብት
ብት_እ
ብት_ው
ብት_ግ
ብትል
ብትክ
ብቻ_ቸ
ብቻ_ዬ
ብች
ብአዴንኢህአዴግ
ብክነት
ብዑእነት
ብዕል
ብዘኃ
ብዙነህ
ብዛት
ብዝበዛ
ብድሆ
ብድር
ብግር
ብጡል
ብጫ
ብጹዕ
ብጻይ
ብጽእ
ብ፥
ቦሊቪያ
ቦልተን
ቦሎይታ
ቦምባርዴር
ቦርጭ
ቦብ
ቦቲ
ቦታ_ወች
ቦንዳ
ቦንግ
ቦኖ
ቦኮ
ቦኮሃራም
ቨርጂኒያ
ቪላ
ቪኖ
ቪኦኤ
ቫሉታ
ቫርጋስ
ቫሳሪ
ቫይዝ
ቫዮሊን
ቬቲእንስስ_አትር
ቬነስ
ቬኒስ
ተ_ላ
ተ_ሽ
ተ_ብ_አለ
ተ_ኛ_አቸው
ተ_ኛ_ኦች_አቸው
ተ_ከ
ተ_ዋ
ተ_ው_ለት_አል
ተ_ው_በት
ተሀድስ
ተሐድስ
ተሐድሶ
ተሓባባሪ
ተመ_እ
ተመሳሳሊ
ተምሃረ
ተምቤን
ተረፈ
ተሪር
ተራድኦ
ተርማል
ተሰርሐ
ተሰት
ተሳታፊ
ተስሚዑ
ተስፈኛ
ተስፋ_አዬ
ተሸለ
ተሽከርካሪ
ተሾመ
ተቀባይነት
ተቀኝ
ተቁ
ተቅማት
ተቅማጥ
ተቐማጢ
ተቐባልነት
ተበጀ
ተባዩ
ተተ_ጥ
ተተሓሓዘ
ተንቀሳቃሽ
ተንታ
ተንኮል
ተአማኝ
ተአምኆ
ተካልኝ
ተክ
ተክህኖ
ተክለ_ሃይማኖት
ተክለ_ማርያም
ተክለ_ብርሀን
ተክለ_ው_አል
ተክለሃይማኖት
ተክለብርሃን
ተኳሃኝ
ተኳሽ
ተኳኋኝ
ተኸታሊ
ተኻራ
ተዅሲ
ተወንጫፊ
ተወዳዳሪ
ተዋሕዶ
ተዋበች
ተዋንያን
ተዋእኦ
ተዋዋይ
ተዋጊ
ተዋጋኢ
ተዋጽኦ_ቸው
ተዋፅ
ተዋፅዎ
ተዛማዲ
ተዛራቢ
ተያይ
ተደራሽነት
ተደጋጋሚ
ተዳደር
ተዳፋት
ተገኝ
ተጋቢ
ተጋዙ
ተጋይ
ተግዳራት
ተጓዥ
ተጠቁ
ተጣባቒ
ተጥ
ተፈለየ
ተፈላሊ
ተፈት
ተፈጥሮኣዊ
ቱል
ቱሩፋት
ቱሪሰት
ቱሪስት_ኦችአምባሳደር
ቱሬ
ቱርኳ
ቱቶሪያል
ቱጃር
ቱፋ
ቲሞር
ቲቤት
ቲቲ
ቲካድ
ቲኬት
ቲክሪት
ታ_ህ_ን
ታ_ስ_እ
ታ_ት
ታ_አል
ታ_ዋ
ታ_ዋ_ን
ታ_ግዞ
ታ_ጽ
ታህት_እ
ታሊባን
ታሕት_እ
ታምሩ
ታርጋ
ታርጌት
ታቢ
ታች_ኛ_ዉ
ታች_ኞ_ቹ
ታንታለም
ታንከር
ታንዚም
ታንዛኒው
ታዓማኒ
ታዛቢ
ታየ
ታይዋን
ታደለ
ታጁራ
ታጅመሃል
ታጠቅ
ታጣቂ
ታፈሰ
ታፍራ
ቴህራን
ቴሌስኮፕ
ቴሌቪዝን
ቴሌቪዠን
ቴሌኮሚኒኬሽን
ቴሌኮምኒኬሽን
ቴሌግራም
ቴሌግራፍ
ቴመር
ቴሩ
ቴርጋት
ቴሲቶሪ
ቴስኮ
ቴናማ
ቴአትሩ
ቴክኖጂ
ት_ም
ት_ስ
ት_ች
ት_ነ
ት_ነት_ን
ት_ኛ_ው
ት_አ_ለሁ
ት_አ_ብ
ት_አ_ዉ
ት_አለ_ን፤
ት_አል_ሁ
ት_አል_አቸው_አል
ት_አል_ኡበ_ሚሊየን
ት_አል_ኡ፤
ት_አል_ው
ት_አስ_ተ
ት_አታኝ
ት_አት_አ
ት_አት_ኡ_ዊ
ት_አት_ኡት
ት_አቸ
ት_አችው
ት_አነት
ት_አና
ት_አዊ_ች_ን
ት_አዊ_ው
ት_ኡ_እም
ት_ኡት_ል_አቸው
ት_ኡት_ን
ት_ኡት_አ
ት_ኡት_አቸው_ን
ት_ኣ_ው
ት_ኣ_ጥ
ት_ኣም
ት_ኣዊ
ት_ኤን
ት_እ_በ
ት_እት
ት_ኦ_ለት_አል
ት_ኦት
ት_ኦ፤
ት_ኧ_ው_ን
ት_ኧ_ውን
ት_ኧኝ
ት_ኩት
ት_ክ
ት_ው_አል
ት_ግ
ት_ጥ
ትህርት
ትህዲን
ትሉ
ትልል
ትሕነግሕወኃት
ትምህርተ
ትምህርት_አቸዉ
ትምህርትበ_ጤና
ትምህርትየ_ሳይንስ
ትምህርት፤
ትምህክት
ትምክት
ትሪሊዮን
ትሪፖሊ
ትራስ
ትራንሰፖርት
ትራንስፎረሜሽን
ትራንስፎርሜሸን
ትራንስፎርሜኝን
ትራንስፖረት
ትራንፎርሜሽን
ትራንፖርት
ትራክ
ትሬቬር
ትሬዲንግ
ትርት
ትሮፒካል
ትስብእት
ትስብዕት
ትስፍው
ትቢያ
ትተን
ትና_ንት
ትናትና
ትንቢተ
ትንተና
ትንኛ
ትንፋስ
ትኛ
ትኝእ
ትእምት
ትኦ
ትክሻ
ትውን
ትዕይንተ
ትይዩ
ትገና
ትግል
ትግራይ፤
ትግስት
ትጥቅ
ትጽቢት
ትጽእኖ
ት፥
ቶ_ል_አት_አል
ቶ_ች
ቶ_ኝ
ቶ_ው
ቶ_ው_ን
ቶላ
ቶምቦላ
ቶሰሊ
ቶዚሊ
ቶዚሊም
ቶዮታ
ቶፒክ
ቸ_አ_ድ
ቸልተኝነት
ቺልድረን
ቺካጎ
ቺፍ
ቻምበርሌይን
ቻና
ቻይና_ዊያን
ቻይን
ቻፕ
ች_በት_ን
ች_አራ
ች_ኤ
ች_ዕ
ቾንቺን
ቾፕስቲክ
ኀምሳ
ኀይል_ኧኛ
ኃለፊ
ኃላፊ_ነት_አቸዉ
ኃል
ኃሚካኤል
ኃማርያም
ኃይለ
ኃይል_ኧኛ
ኃይቅ
ኅሊና
ኅላ
ኅልውና
ኅይል
ኆነ
ኋላቀር
ኋላቅር
ኋይት
ነ_መ_ን
ነ_ተው
ነ_ግ
ነመላኩ
ነርቮች
ነሱም
ነሺዳ
ነሼ
ነባራዊ
ነብረት
ነብሰ
ነብይ
ነታጒ
ነት_አችሁ_ች_ን
ነት_አችሁ_ች_ን_ን
ነት_አችሁ_ን
ነት_ኦች_ኡ
ነት_ኦች_ኡ_ን
ነት_ዋ_ን
ነቸው
ነናይ
ነኝ፤
ነኣስ
ነኺ
ነወይ
ነውበ_አፍሪካ
ነውበ_እዚህ
ነውአጎበር
ነውእኛ
ነውከ_ተ_ም
ነውየ_ኢትዮጵያ
ነውየ_እ
ነውጠኛ
ነዖድም
ነገን
ነገው
ነጋዴ
ነጌሌ
ነግህ
ነጠብ
ነጥበ
ነጥብ_ሚሊየን
ነፍሰ_ጡር
ነፍሴ
ነፍጥ_ኧኝ
ኑፋቄ
ኒሳእ
ኒሻን
ኒእንስስ_አትርሲቲ
ኒካራጓን
ኒውሮሲስ
ኒውሮቲክ
ኒውትራል
ኒውክለር
ኒውክሌር
ኒዩክሌር
ና_ር
ና_ስ_እ
ና_እ
ና_ዋ
ና_ዎች_ን
ናሙስ
ናሚብ
ናምሩድ
ናስማስር
ናቡ
ናብሉስ
ናቪጌሽን
ናት፤
ናኖ
ናእዳ
ናክሮ
ናዕማህ
ናዚ
ናዥ
ናደው
ናጃፍ
ናፃ
ናፖሊዮ
ኔሩስ
ኔስ
ኔሽንስ
ኔቶን
ኔፓድን
ን_ሃለ_ሁ
ን_ሉ
ን_ል_አት
ን_በት፤
ን_ት_ኑ
ን_ት_ን
ን_ነ
ን_ኑ
ን_ን፤
ን_አ_ብ
ን_አ_ዉ
ን_አለ_ን፤
ን_አል_ኡ፤
ን_አቃል
ን_አተ
ን_አት፤
ን_አችሁ_ን
ን_አን
ን_አዎ
ን_አ፤
ን_ኡ_ባት
ን_ኡ_ነ
ን_ኡ_ን
ን_ኡት፤
ን_ኣ
ን_ኣ_ለ
ን_ኣ_ችን
ን_ኣ_ዉ
ን_ኣለ
ን_ኣቸው
ን_ኣችው
ን_ኣ፤
ን_ኤት_ኣ
ን_ኤት_ኣዊ
ን_ኤይ
ን_ኦች_ኡ_ን
ን_ኦች_ኡች_አችው
ን_ኦ፤
ን_ኧ_መሳፍንት
ን_ኧ_ብ_አቸዉ
ን_ኧ_ው
ን_ኧ_ው_ብ
ን_ኧ_ው፤
ን_ኧቺ
ን_ኧኛ
ን_ዎ
ን_ዖት
ን_የ
ን_ዬ
ን_ግ
ንር
ንስሃ
ንስት
ንቃተ
ንበ_ቅ
ንብይ
ንት_እ
ንኝይ
ንእቅ
ንክእ
ንድይ
ንገድ
ንጉሤ
ንጉሳዊ
ንጋቱ
ንግስነት
ንጡፍ
ንጥረን
ንጥር
ንጽ_ሕ
ንጽ_ኡ_ሃ
ንጽህና
ንጽል
ንፍሮ
ንፍታሌም
ንፍፊት
ን፦
ኖቬምበር
ኖኪያ
ኖጎቭ
ኘሬዘዳንት
ኘሬዝዳንት
ኛ_ነት_ን
ኛ_አል
ኝ_በ
ኝ_ተ_ዉ
ኝ_ተ_ው_አል፤
ኝ_ት_አለ_ች፤
ኝ_ቶ_ብ
ኝ_ቼ
ኝ_አ
ኝ_አል_ሁ
ኝ_አል_ኡሌላ
ኝ_አልበ_ተ_ል
ኝ_አልይህ
ኝ_አቸው
ኝ_አቸው_አለ
ኝ_ኡ_ባት
ኝ_ኧ_ላት
ኝ_ኧት_ዎ
ኝ_ኧን
ኞኞ
አ_ስ
አ_ብ
አ_አ
አሀዝ
አሃ
አህሉል
አህመዲ
አለ_መ_አ
አለ_ን
አለ_አ
አለማየሁን
አለምገና
አለርት
አለበም
አለባቸው
አለያ
አለ፤
አሉታዊ
አሊይ
አላ_ሽ
አላ_ቅ
አላ_ው
አላማ_ቸው
አላማ_ችን
አላማጣ
አሌ
አሌክስ
አል_መ_ህ
አል_በት_አል
አል_ብ_ዎት
አል_ተ_ለ_እ
አል_ተ_ማከለ
አል_ተ_ሳ_ስ
አል_ተ_ስ_ት
አል_ተ_ስ_እ
አል_ተ_ስት
አል_ተ_ን_ብ
አል_ተ_ው_እ
አል_ተ_ጣ_ጥ
አል_ተ_ጭ
አል_ት_አቸው
አል_አስ_ም
አል_አስ_ት_እ
አል_አስ_ክ
አል_ኡ_በት
አል_ኡ_ብ
አል_ኢትሀድ
አል_ኣ_ብ
አል_እድሜ
አል_ኧ_ሁ
አል_ኧ_ህ
አል_ኧት_አቸዉ
አል_ኧችው
አልመዳ
አልሲ
አልሽባብ
አልበርታ
አልባላህ
አልብ
አልታኒ
አልት
አልት_እ
አልትራሳውንድ
አልኘስ
አልአዛር
አልእኤአ
አልየ_ወባ
አልያ
አልያንስ
አልዱሪ
አልጄሪያ
አሎት
አሐዱክስ
አሕመድ
አመ
አመል
አመልድ
አመት_ኣችን
አመክንዮ_ኣዊ
አመክንዮአዊ
አሚ_ም
አሚካላ
አማልክት
አማረ
አማረኛ
አማራ_ጥ
አማር
አማት
አማካ
አማካሪ
አማካኝ
አማዶ
አሜሪካ_መ_ር
አሜሪካ_ውያን
አሜሪካዊ
አሜሪካ፤
አምልኮ
አምሥት
አምር
አምሮ
አምሮት
አምሳ
አምስ
አምስተ
አምስተርዳም
አምበል
አምባለጌ
አምባሰል
አምባሳር
አምባዬ
አምባገን
አምደ
አምፊ
አሥራ
አሥር_አ
አሥር_ኧኛ
አረመኔ_ያዊ
አረቄ
አረካ
አረያ
አረፋ
አሪዞ
አሪፍ
አራማያ
አራራት
አራጌ
አርተር
አርቲ
አርቲስቲክ
አርታ
አርታው
አርትራ
አርትስ
አርትዖት
አርነት
አርንጓዴ
አርኪኦሎጂ
አርክ
አርዕስተ
አርዕስት
አርዮስፋጎስ
አሮሚያ
አሮሞ
አሮሬሳ
አሮን
አሰ_ም
አሰ_ተ_ም_እ
አሰ_ተ_ሰ_እ
አሰ_ተ_ው_እ
አሰ_ው
አሰልጣኝ
አሰኘ
አሰድ
አሲዳማ
አሳ_ስ
አሳማ
አሳንስር
አሳይታ
አሴር
አስለቃሽ
አስልም
አስም
አስረጅ
አስር_አ
አስቂኝ
አስብ
አስተምሕሮ
አስተዳዳሪ
አስታ
አስታጥቄ
አስት
አስት_እ
አስትሮኒክ
አስቻይ
አስከ
አስክሬን
አስኳል
አስዋ
አስደናቂ
አስገዶም
አስጐብኚ
አስፋው
አስፓልት
አሶሣ
አሶስየትድ
አሶሼትድ
አሸንድየ
አሸጎዳ
አሻ
አሻራ_ቸው
አሽንዳ
አቀም
አቀበት
አቅ
አቅል
አቅጣጫ_ቸው
አቋም
አበር
አበቅየለሽ
አበበች
አበባ_አዳማ
አበባግንቦት
አበባ፤ጥር
አበቤ
አቡና
አቡካዶ
አቡጊዳ
አቢሊ
አቢሲኒያ
አቢዮት
አቢጃን
አባሊባኖስ
አባል_አ
አባል_አትን
አባራ
አባር
አባነጋ
አባዝት
አባዱላ
አባዶ
አባጂፋር
አቤ
አቤቱታ_ቸው
አቤቶ
አብማ
አብረሃም
አብነት፦
አብክመ
አብዓላ
አብየ
አብዩት
አብዩድ
አብያተ_ክርስቲያን
አብያተክርስቲያናት
አብያት
አብዱ
አብዱላሂ
አብዱል
አብዱልሰላም
አብዲሰላም
አብዲሳን
አብጃድ
አቦ
አቬሮስ
አቬሽን
አቬየሽን
አቮካዶ
አተ_ይ_እ
አቲ
አታ_እ
አታላይ
አቴቲ
አቴና
አት_ሥ
አት_በ
አት_ነት_አቸው
አት_አል_ን
አት_አት_ን
አት_አችሁ_ን
አት_ኣ_ን
አት_ኣ_ዎች_ን
አት_ኦች_አችን_ን
አት_ኧ_ኛ
አት_ኧ_ኛ_ኦች
አት_ኧ_ው_ን
አት_ክ
አት_ዊ
አት_ጅ
አትሌቲክ
አትራፊ
አትፓ
አቶሚክ
አቸዉ
አቸው_ል
አቻ_ቸ
አችሁ_አቸው
አኃቲ
አኃዝ
አነድ
አኒያኖስ
አና_ቅ
አናሎግ
አናቶሊያ
አን_ል
አን_ኦች_ን
አን_ዊ
አን_ጅ
አንቀጸ
አንቡላንስ
አንባር
አንተርፕራይዝ
አንትሮፖሎጂ
አንቶነሊ
አንቶኒኦ
አንቶኔሊን
አንች
አንዲ
አንዳ
አንዳርጋቸው
አንድ_ህ
አንድ_ሚ_ያ_ድ
አንድ_ሚ_ግ
አንድ_አ
አንድ_ኡ_ንድ
አንድ_ኡ_ዓለም
አንድ_ኢ_ሁ
አንድ_ኢ_ህ
አንድ_ኢ_ቅ
አንድ_ኢ_ች
አንድ_ኢ_ያ_ድ
አንድ_ኢ_ግ
አንድ_ኢ_ጥ
አንድ_ኧኛ
አንድምታ
አንድሪው
አንጋፍ
አንጎልን
አንጡራ
አንጽ
አንጾኪያ
አኖ
አኖሌን
አኝዋክ
አእምሮዬ
አከራካሪ
አካለ
አካላ
አካላዊ
አካል_አዊ_ስነልቦና_ች
አካዴሚ
አኬዲያኛ
አክራ
አኳኋ
አወል
አወዛጋቢ
አዊ_ት_ኡ
አዊ_ት_ኡ_ን
አዊ_ነት_አቸው
አዊ_ነት_አቸው_ን
አዊ_ዎች_ኡ
አዋሣ
አዋሬ
አዋጅ
አዌይ
አውራጅ
አውሮራ
አውሮፓ፤
አውሮፖ_ው_ይ
አውሰ
አውሳ
አውቶሜሽን
አውደ_ርዕይ
አውጉስጢኖስ
አዎንታዊ
አዘ
አዘቦት
አዚዝ
አዝመራ
አዝርእት
አዝናኝ
አየ
አየ_ተ_ካ_ህ
አየ_እ
አየለ
አየነው
አያ_ቅ
አያ_ይ
አያ_ግ
አያ_ጭ
አያሌው
አያልነህ
አይ_ብ
አይምሮ
አይረሴ
አይረን
አይሪሽ
አይሲቲ
አይሳኢታ
አይበገሬ
አይብ
አይቪን
አይቲዮፒያ
አይን
አይኤምኤፍ
አይከል
አይኮቴራፒ
አይዝ
አይድል
አደብ
አዱሊስ
አዱላላ
አዱኛ
አዲሳበባ
አዲሸሁ
አዲጎሹ
አዳል
አዳር
አዳስ
አድሀኖም
አድሃ
አድሃን
አድማጭ
አዶላ
አጃንዳ
አጅ
አጅባር
አገር_ኣቸዉ
አገር_ኣች
አገር_ኣችሁ
አገር_ኤን
አገር_ው
አገርህ
አገን
አጋር_ዎ
አጋርፋ
አጋሰስ
አጋታር
አጋዥ
አግሮፕሮሰሲንግ
አግዳሚ
አግድ
አግድም
አጓጊ
አጠገብ
አጣል_ኡታዲያ
አጥማጅ
አጥቂ
አጥቢ_ያ_ቸው
አጥኒ
አጥናፍ
አጥን
አጲፋንዮስ
አጽቢ
አፀደ
አፈወርቂ
አፈወርቅ
አፋርኛ
አፌርስ
አፍሪከ
አፍሪካ_ነር
አፍሪካ_ኒዝም
አፍሪካ_ዊያ
አፍዴራ
አፓርትማ
አፕሊኬሽን
አፖሎ
አፖሎጊያ
አፖርትማ
ኡ_ል
ኡ_ል_ህ
ኡ_ል_ን_አል
ኡ_ል_አት
ኡ_ል_አቸው_አል
ኡ_ል_አችሁ
ኡ_ል_ኡ
ኡ_ም_ን
ኡ_ስ_አት
ኡ_ስ_አቸው
ኡ_ሽ_ነት_ን
ኡ_ተ
ኡ_ት_ል_አችሁ
ኡ_ነት_አቸው
ኡ_ነት_ኦች_ን
ኡ_ነት_ኦች_አችን
ኡ_ኛ
ኡ_ኛ_አል
ኡ_ኡት
ኡ_ዋ
ኡ_ዋ_ን
ኡ_ው_አን
ኡላማ
ኡማ
ኡማን
ኡት_በት
ኡት_አል_አችሁ
ኡት_አቸው_ን
ኡት_ኡ_በት_ን
ኡድሒያ
ኢ_ሜይል
ኢ_ም
ኢ_ር
ኢ_ት_አን
ኢ_ነት_ኣ
ኢ_አችን
ኢ_ኤ
ኢ_ክ
ኢ_ዊ
ኢ_ዎች_አችን_ን
ኢ_ዎች_ኣ
ኢ_ያ_ች_ን
ኢ_ያ_ነት_ኡ
ኢ_ያ_ን_ኦች
ኢ_ያ_አቸው
ኢ_ያ_ዋ_ን
ኢ_ያ_ዎች_አቸው_ን
ኢህአዲግ
ኢህአዴ
ኢህአግ
ኢሉሚናቲ
ኢሉባቡር
ኢሊሊ
ኢሊኦት
ኢልግ
ኢልፋታ
ኢሚግሬሽን
ኢሜል
ኢምግሬሽን
ኢምፓየር
ኢምፖርት
ኢሠማኮ
ኢሪፓስ
ኢሬቻ
ኢርማ
ኢርዶጋን
ኢሰብዓዊ
ኢሰዴፓ
ኢሳ_ይ_አስ
ኢሳ፥
ኢስታንቡል
ኢስጦኢኮች
ኢሶህዴፓ
ኢቢኮ
ኢባዳ
ኢብራሒም
ኢተ_ን
ኢቲ
ኢቲዮ
ኢትየጵያዊ
ኢትዩጵያ
ኢትዮ_ሱዳን
ኢትዮ_አሜሪካ
ኢትዮ_ኬኒያ
ኢትዮ_ጣሊያን
ኢትዮቴሌኮም
ኢትዮጰያ_ዊያ
ኢትዮጲክስ
ኢትዮጵታ
ኢትዮጵን
ኢትዮጵዊ
ኢትዮጵየ
ኢትዮጵያ_ወ
ኢትዮጵያ_ዊት
ኢትዮጵያዊት
ኢትዮጵይ
ኢትዮፕያ
ኢኒስቲትዩት
ኢኒሼቲቩ
ኢንሰቲትዩት
ኢንስቲትዮት
ኢንስታሌሽን
ኢንስትመንት
ኢንስፔክተር
ኢንቨስተር
ኢንቬስተር
ኢንተርንሺፕ
ኢንተርፕሬይዝ
ኢንተርፕርነርሺፕ፤
ኢንቲርየር
ኢንቴርኔት
ኢንቴቤ
ኢንኩቤሽን
ኢንዱስትሪ_ያል
ኢንዱስትሪያሊስት
ኢንዲ
ኢንዲ_ህ
ኢንዲ_ም
ኢንዲ_ስ
ኢንዲያና
ኢንዶኒዥያ
ኢንዶኖዥያ
ኢንዶክትሪኔሽን
ኢንዶውመንት
ኢንጀነር
ኢንጂኔሪንግ
ኢንጅነሪንግ
ኢንጋይዎን
ኢንግለ_አንድ
ኢንግሊዝ
ኢንፍራሬድ
ኢእንስስ_አትስትመንት
ኢኮ
ኢኮቱሪዝም
ኢኮኖሚ_ስት
ኢኮኖሚክስ
ኢኮኖሚይ
ኢዜአን
ኢዝቬስቲያ
ኢየሱሳውያን
ኢያሪኮ
ኢዮጵያን
ኢዴፖ
ኢድሪስ
ኢድአልፈጥር
ኢድዊን
ኢድገት
ኢጀንሲ
ኢጋላ
ኢፊዲሪ
ኢፊድሪ
ኢፌ
ኢፌደሪ
ኢፍትሃዊ
ኢፍዴኃግ
ኢፕድ
ኣ_ህ_ኝ
ኣ_ል_አችሁ
ኣ_በት_አል
ኣ_ች
ኣ_ነት_አቸው_ን
ኣ_ነት_አን
ኣ_ነው_ን
ኣ_ን_አል
ኣ_ኝ_አል
ኣ_አል
ኣ_አቸው
ኣ_ኣ
ኣ_ኤ
ኣ_ው_አን
ኣ_ዎች_ኤ
ኣ_ያ_ን
ኣ_ያ_ዎች
ኣ_ጥ
ኣለህ
ኣለሻ
ኣላዪ
ኣላይ
ኣል_ች
ኣል_አን
ኣል_ኡት
ኣል_ኧ
ኣመሉ
ኣመሓዳሪ
ኣመራርሓ
ኣማራጺ
ኣማኒ
ኣማን
ኣርባሒ
ኣርኢ
ኣርእ
ኣስ_ት_እ
ኣሸባሪ
ኣሸናፊ
ኣቕራቢ
ኣባል
ኣተሓሕዛ
ኣተሓሳስባ
ኣት_ኣ
ኣን_በት
ኣንቅጺ
ኣንጻር
ኣዋጅ
ኣውሪ
ኣውሮፕላን
ኣውቶቡስ
ኣውፂአ
ኣዕሊ
ኣይ_ደል
ኣደዋ
ኣድላይ
ኣድልዎ
ኣድማ
ኣገላልጻ
ኣገር
ኣጋጣሚ
ኣግባብ
ኣጠቓቕማ
ኣፅኒ
ኣፍራይነት
ኤ_ል_አቸው
ኤ_ል_አቸው_ን
ኤ_ኛ
ኤ_አቸው
ኤ_አችን
ኤ_ዋ_ን
ኤ_ዎች_አቸው_ን
ኤ_ዎች_አችን
ኤ_ዎች_አችን_ን
ኤ_ያ
ኤለን
ኤሊ
ኤሊ_ይ_አስ
ኤሌና
ኤሌክተሪክ
ኤሌክትሪከ
ኤሌክትሮሜካኒካል
ኤልሴ
ኤልኒኖ
ኤሪ
ኤሪክሰን
ኤሪዱ
ኤርላይንስ
ኤርሚያስ
ኤርምያስ
ኤርተራ
ኤርትራ_ውያን
ኤርነስት
ኤርዶጋን
ኤስቪፒ
ኤሽያ
ኤባ
ኤታ
ኤቻይቪ
ኤችአር
ኤችአይቪ_እ
ኤችእይቪኤድስ
ኤችፒ
ኤንጂነር
ኤንፒኤስ
ኤኤንሲን
ኤኬ
ኤኮነ
ኤኮዋስ
ኤወኮዮስ
ኤዥያ
ኤዲስ
ኤዲፐስ
ኤድ
ኤድመንድ
ኤድና
ኤጀሬ
ኤፌዴሪ
ኤፍቢአይ
ኤፍኤም
ኤፕሪል
እሁዱ
እህቴ
እለተ
እልሽ
እልቅ
እማሆይ
እማውራ
እሜት
እሜትጎጎ
እምቢበል
እምባ
እምብዝ_አም
እምነበረድ
እሣተ
እሥ
እሥር
እሪ
እራስ_አቸዉ
እራሷ
እሬት
እሬቻ
እርመኛ
እርም
እርሰ
እርስት
እርሶ
እርሻ
እርሾ
እርብ
እርካብ
እርካታ
እርግብ
እርግዝና
እርግጠኝ
እርጎ
እሰከ_ሚ_ቅ
እሱር
እሳቤ
እስ_ክ
እስማኤል
እስታቲስቲክስ
እስቴትስ
እስኪርቢቶ
እስክ_ት_ም
እስክስታ
እስክንድርያ
እስፓንያውያን
እሸቱ
እሸቴ
እሻሾ
እቀባ
እቅም
እባብ
እባክ_ዎ
እብሪት
እብነ
እብይ
እቴጌዪቱ
እቴጌይቱ
እቴጌይት
እትጌ
እኅት
እነርስ
እነስ
እነኝ
እኒህ
እና_ል
እና_ብ
እና_ው
እና_ዝ
እናረቃን
እናርጅ
እንስላል
እንስስ_አት_ር
እንስስ_አትርጂኒያ
እንስስት
እንሶስላ
እንቁጣጣሽ
እንቢ
እንተይ
እንኳል
እንዝርት
እንዳል
እንድምታ
እንድርያስ
እንጅባራ
እንጉዳይ
እንግሊዚኛ
እንግሊዝ_አ
እንግዲያው
እንግዴ
እንጢቾ
እንጥጮ
እንፍት
እከሌ
እኩብ
እኩያ
እዋን
እውነተ
እዚኦም
እዝነ
እዝን
እየለት
እያንዲንደ
እይ_ስ
እይ_ች
እይ_አ_ስ
እይ_አ_ብ
እይ_አስ_ት
እይ_ድ
እይል
እይወት
እደ_ን
እደ_ጥ
እደሚ_ች
እደሚ_ው
እዲ_ድ
እዲ_ፍ
እዳ_ር
እድ_ት_ቅ
እድል
እጀ
እጅጉ
እግር_ዎ
እግዚአብሐር
እግዚእ
እግዚያብሔር
እግዳ
እጢ
እጣ_ፈንታ
እጥፍ
እጭይ
እጮኛ
ኦ_ል_ን_አል
ኦ_ች
ኦ_ች_ን
ኦ_ች_አቸው
ኦ_ነት_ን
ኦ_ነት_አችን
ኦ_ነት_ኡ_ን
ኦ_ኛ
ኦ_አችን
ኦሀዮ
ኦሃራ
ኦሃዮ
ኦህ
ኦህዴድን
ኦህዴድ፤
ኦልብራይት
ኦልጋ
ኦሜድላ
ኦሜጋ
ኦሪጅንስ
ኦራንጅሙንድ
ኦሬንጅ
ኦርቢስ
ኦርቶፔዲክ
ኦርደር
ኦሮምያ
ኦሳማቢንላደን
ኦሳካ
ኦስቲን
ኦብነግ
ኦት_አችሁ_ን
ኦት_አችን_ን
ኦት_ኣ_ዎች_ን
ኦት_ኣን
ኦት_ኦች_ኡ_ን
ኦቶሜሽን
ኦች_ህ_ን
ኦች_ሽ
ኦች_ሽ_ን
ኦች_ች_ን
ኦች_ን_ን
ኦች_ኣን
ኦክሲጅን
ኦክስፋም
ኦኮኖሚ
ኦይል
ኦዳ
ኦዶ
ኦጊና
ኦፊሴላዊ
ኦፕሬቲንግ
ኦፕቲክ
ኧ_ህ_ን
ኧ_ል_ን_ን
ኧ_ል_አችሁ
ኧ_ተ_ኛ_ኦች_ን
ኧ_ተ_ው_አል
ኧ_ት_አቸው
ኧ_ት_ኡ_ን
ኧ_ቶ
ኧ_ች_በት_ን
ኧ_ች_ው_ን
ኧ_ን_ል_አቸው_አል
ኧ_ኛ_ል
ኧ_ኛ_ነት_ኡ_ን
ኧ_ኛ_ኦች_አቸው
ኧ_ኛ_ዋ
ኧ_ኝ_ነት_ኡ
ኧ_ኝ_ነት_ኡ_ን
ኧ_ኝ_ኦች_ኡ_ን
ኧ_ኦች_ኡ
ኧ_ኩ
ኧ_ክ_አቸው
ኧ_ዋ_ን
ኧ_ው_ለት
ኧ_ው_ል_ን
ኧ_ው_ኝ_አል
ኧ_ዎች_ኡ
ኧ_ያ
ኧት_ሽ
ኧት_ች
ኧት_ች_ን
ኧት_ነት
ኧት_አት
ኧት_ኡ_ን_ት
ኧት_ኡ_ው_ን
ኧት_ኡት_አቸው
ኧት_ኡት_ኡ_ን
ኧት_ኦች_አቸው
ኧት_ኦች_ኡ_ን
ኧት_ኧ_ል_አቸው
ኧት_ኧ_ኝ_ነት_ን
ኧት_ኧች_ው
ኧች_ኝ
ከለር
ከለብ
ከለዳውያን
ከሊፋ
ከሚ_ት_እ
ከማሽን
ከርሰ_ምድር
ከርስክ
ከተስ
ከቶም
ከነ_ተ_ው
ከነ_እዚያ
ከነ_ጭ
ከነማ
ከነቴራ
ከንቲብ_አ
ከካ
ከዋክብ
ከድጃ
ኩ_ል_አቸው
ኩሀ
ኩረስቲን
ኩረፊያ
ኩርስክ
ኩርይ
ኩሾ
ኩባኒያ
ኩባን
ኩባንያ_ችን
ኩባውያ
ኩባያ
ኩይሳ
ኪሊማንጃሮ
ኪሎባይት
ኪሎቮልት
ኪሜ
ኪራይ
ኪርዮስ
ኪሮስ
ኪስማዮ
ኪነጥበብ
ኪንዶ
ኪንግና
ኪንግደም
ኪዮስክ
ኪዮቶ
ኪጋሊ
ኪፕላጋት
ኪፕሮቲች
ካህንት
ካለንደር
ካላንደር
ካል_ች
ካልሲየም
ካልሽየም
ካልቸር
ካሚዮኑ
ካማሺ
ካምባታ
ካምቦ
ካሡ
ካሣ
ካሩቱሪ
ካሪቢ
ካሪቢያን
ካርል
ካርሎስ
ካርት
ካሮት
ካሳንቺስ
ካሻ
ካቡል
ካቢኔይ
ካታሎግ
ካታር
ካትሪን
ካቶሊካዊት
ካቶሊክ_አውያን
ካቻምና
ካችቶሪያን
ካኒንግሃም
ካናል
ካናቢስ
ካንስ
ካንቺ
ካንኩ
ካኦሊን
ካዕባ
ካዛ
ካዝና
ካየነው
ካየን
ካዳስተር
ካፒታሊስት
ካፒታል_አቸዉ
ካፕ
ኬሚስት
ኬሚስትሪ
ኬር
ኬኒያታ
ኬኔዲ
ኬንታኪ
ኬንያታ
ኬኬ
ኬፒኤምጂ
ክ_ል_ኝ
ክ_በት
ክ_በት_ን
ክ_ት_አል
ክ_ት_አቸዉ
ክ_ት፥
ክ_አል፤
ክ_አከል
ክ_አዊ
ክ_ኡ
ክ_ኡ_በት
ክ_ኡ፤
ክ_ኢ_ይ
ክ_ኣ_ለች
ክ_ኣ_ሉ
ክ_ኣ_ሕ
ክ_ኣቸው
ክ_ኣከያ
ክ_ኧ_ው
ክ_ኪ
ክሉንተን
ክሊኒካል
ክላሲካል
ክላስተር
ክሌይ
ክሕሎት
ክሕስ
ክምችይ
ክሪኬት
ክራር
ክራውን
ክሬም
ክርሰቲያን
ክርስት
ክሮኖ
ክስም
ክቢ
ክብረ
ክብረወሰን
ክብሪት
ክብድ
ክታበት
ክትትል
ክንክን
ክንፊ
ክእን
ክከተማ
ክዊንስ
ክዋን
ክውም
ክዝን
ክድን
ክፋት
ክፍሊት
ክፍተት
ክፍፍ
ክ፤
ኮሊደር
ኮሌስኒኮቭ
ኮመርሻል
ኮሙኒስት
ኮሙኒኪሽን
ኮሙዩኒኬሸን
ኮሙዩኒኬተር
ኮሚቴ_ዉ
ኮሚዩኒኬሽን
ኮሜርሻል
ኮሜት
ኮሜዲ
ኮሜዲ_ያን
ኮሜዲያን
ኮምሽነር
ኮምኒኬሽን
ኮምፒዉተር
ኮምፓስ
ኮምፖስት
ኮሞሮስ
ኮረም
ኮረንቲ
ኮረጅ
ኮሬንቲ
ኮርማ
ኮርኒስ
ኮርኔሊ
ኮሮጆ
ኮስሞቲክ
ኮስሞቲክስ
ኮስተር
ኮብልሰቶን
ኮቦልቻ
ኮተት
ኮትዲቯር
ኮንስትራክሽ
ኮንታ
ኮንቴነር
ኮንት
ኮንትራስ
ኮንዳክተር
ኮንዶም
ኮንግሬስ
ኮንፍረስ
ኮንፕሊሜንታር
ኮከብ_ኢት
ኮኾብ
ኮይሻ
ኮዶች
ኮፈሌ
ኮፊ
ኮፍያ
ኮፕሬት
ኮፖሬሽን
ኳላላምፑር
ኸርባል
ኸርብ
ኽው
ወ_መንፈስ
ወ_ቅ
ወሃቢ
ወለዶ
ወሊሶ
ወላድ
ወልተጂ
ወልደ
ወልደ_ማርያም
ወልደ_ገብርኤል
ወልደሚካኤል
ወልደሰማያት
ወልደስላሴ
ወልዴ
ወልፊ
ወማርያም
ወምበር
ወረራ
ወረቡ
ወረብ
ወረታ
ወረፋ
ወራሲ
ወር_ሀ
ወርቅነህ
ወርጂ
ወሰብ
ወሳኒ
ወስብሐት
ወቀት
ወቅታዊ
ወንብድ
ወንደውሰን
ወንድ_ም_ኦ_ቼ
ወንድሙ
ወንድም_አች
ወንድወሰን
ወንጌል_አ
ወንጪ
ወኪል
ወወክማ
ወዛደር
ወያኔን
ወይናደጋ
ወይዛዝር
ወይዛዝርት
ወይጦ
ወደር
ወዳ_ለ
ወዳድ
ወዳጅነት
ወገራ
ወግዒ
ወግዓዊ
ወጤት
ወጤት_አማ
ወጥመድ
ወጨ
ወፃኢ
ወፍራም
ዉበት
ዉብ
ዉኃ
ዉጥ_አ_ው
ዊ_ያ
ዊንዲ
ዊንዶው
ዊንጌት
ዋሀድ
ዋህነት
ዋህዶ
ዋለልኝ
ዋሊያ
ዋሌ
ዋሕዲ
ዋሕድ
ዋስት
ዋንዛ
ዋንጋሪ
ዋኢማ_ቅ
ዋኢማ_በ_አማራ
ዋኢማ_የ_ህዝብ
ዋኢማ_የ_ተ_ለይ
ዋኢማ_የ_አድዋ
ዋኢማ_የ_አገር_ኢት
ዋኢማ_የ_ኢፌዴሪ
ዋካ
ዋይት
ዋጅራት
ዋግህምራ
ዋግኸምራ
ዋግኽምራ
ዌስትጌት
ዌብስ_አይት
ዌብስተር
ው_ል_ን_አል
ው_በት
ው_በት_አል
ው_ት
ው_ን_ኡ
ው_ኝ_አል
ው_አ
ው_አል_ን
ው_አል_ኡ
ው_አል_ኧ_ው
ው_አልድባ
ው_አቸው_ን
ው_አቸው_አል
ው_አን
ው_ዎች
ው_ያ_ን_ን_ን
ው_ያ_ን_ኡ_ን
ው_ያ_ን_ኦች
ውለት
ውሕስነት
ውርሲ
ውርእ
ውርይ
ውሰጥ
ውስተ
ውሽንፍር
ውቅስ
ውቅት
ውነ
ውክልና
ውዱብ
ውዳሴ
ውዳበ
ውድም
ውድስ
ውድይ
ውድጅይ
ውጅግራ
ውጊያ
ውግን
ውጤታማነት
ውጤት_ኣቸው
ውጥ
ውጥጥ
ውጫ
ውፍይ
ዎርክ
ዐ_ር
ዐመት
ዐምስት
ዐረፍተ
ዐባይ
ዐብያተ
ዐብይ
ዐውሎ
ዐዐዐዐ
ዐይን
ዐዲስ
ዐጥንት
ዑራኤል
ዑፍ
ዒላማ
ዓ_ል
ዓለባ
ዓላሚ
ዓላም
ዓመት_ኣቸው
ዓመጽ
ዓሚየ
ዓማት
ዓማጺ
ዓምስት
ዓምት
ዓምና
ዓምአብመድ
ዓም፤
ዓረቦን
ዓራርቦ
ዓርማ
ዓርሱ
ዓስራ
ዓቀፍ_ኣዊ
ዓቐን
ዓዕዋዳት
ዓይነ
ዓይናለም
ዓደዋ
ዓዲግራት
ዓፂ
ዕ_ወፍ
ዕሁድ
ዕሁፍ
ዕለት፥
ዕምም
ዕምት
ዕምነበረድ
ዕምጽ
ዕረፍቲ
ዕርስ
ዕስለ
ዕቁር
ዕቁባይ
ዕቁብ
ዕቃ_ዋች
ዕቅን
ዕብልል
ዕብራውያን
ዕትም
ዕንቁላል
ዕንቅፋት
ዕንቍ
ዕንዐይ
ዕውር
ዕዝዝ
ዕድሜ_ዬ
ዕድይ
ዕጡቕ
ዕጢ
ዕጪ
ዕጽ
ዕፍን
ዘ_መንበረ
ዘ_አክሱም
ዘ_ኢኮኖሚ_ስት
ዘለም
ዘለዓለም
ዘላለም_ኣዊ
ዘላልም
ዘላቒ
ዘልዓለም
ዘመነ
ዘርአ
ዘርዐ
ዘበት
ዘበናይ
ዘቢደር
ዘቢደርን
ዘት_እ
ዘነበወርቅ
ዘነድሮ
ዘውዱ
ዘዙሕ
ዘዜ
ዘይሕጋዊ
ዘይተመርዐወ
ዘይኮነ
ዘይግባእ
ዘገባ
ዙህ
ዙልሂጃ
ዙሪክ
ዙሪያ
ዙፍ
ዚንትግራፍ
ዚፕ
ዛልበጥ
ዛማጅ
ዛሬ_ይት
ዛብሎን
ዛጔ
ዜድ
ዜጋ_ኦች_አቸዉ
ዜግነት
ዝ_ር
ዝ_ች
ዝ_ነዉ
ዝ_አ_ባ
ዝ_አለ
ዝ_አለ_ሁ
ዝ_አል_ኡሉ
ዝ_አማ
ዝ_አት፤
ዝ_አችው
ዝ_አኛ_ዉ
ዝ_ኡ_ሀ
ዝ_ኡ_ም፤
ዝ_ኡሃን
ዝ_ኣችው
ዝ_ኤ_ይ
ዝ_ኤት
ዝ_ኦታ
ዝ_ኦው
ዝምድና
ዝሪያ
ዝባዝንኬ
ዝተት
ዝና_ኧኛ
ዝናር
ዝንብ
ዝንትው
ዝእት
ዝኽሪ
ዝውውር
ዝየ_ው
ዝግባእ
ዝግጁ
ዝግጁነት
ዥጎድግ
ዦንግሜይ
የ_ለ_አ
የ_ተ_ም
የ_ት
የለብ
የለኝ
የመ_ን
የመ_አስ_እ
የመ_አይ_ጭ
የመ_አይ_ፍ
የመ_እ
የመለሳይ
የመት
የሚሉ
የሚል
የሚከት
የሚይ_አስ_ክ
የሚዲያ
የማነ
የማያ_ድ
የማይ_እ
የምለ
የምታ_ቅ
የምት_ህ
የምት_ው
የራሱ
የራስ
የስነ
የሷ
የት_ኞች
የትኛው
የአ_ሽ
የጁ
የጅ
ዩሴሚቲ
ዩኒርስቲ
ዩኒቨርሲቲ_ይ
ዩኒቬርሲቲ
ዩኒእንስስ_አትርሲ
ዩኒእንስስ_አትርሲተው
ዩኒዬን
ዩንቨርሲቲ_ዉ
ዩንቨርስቲ
ዩንእንስስ_አትርስቲ
ዩንየኖች
ዩኤስን
ዩኤስአሜሪካ
ዩኤስኤስ
ዩኤስኤይድ
ዩኤንዲፒ
ዩዝ
ዪኒቨርሲቲ
ያ_ሚ_ም
ያ_ማከል
ያ_ሰ_ም
ያ_ስ_ት_እ
ያ_ስ_ጥ
ያ_በር
ያ_ነት
ያ_ን_ቅ
ያ_ን_ጽ
ያ_ካ_ሕ
ያ_ዋ_ን
ያ_ዎች_ኡ_ን
ያ_ዕቆብ
ያ_ዝ_ም
ያ_ጋር
ያ_ጌጥ
ያለ_ም_ኣ_ድ
ያለ_ፍ
ያስ_እ
ያሻማ
ያባ_ብ
ያቤሎ
ያች
ያኔ_ዉ
ያን_ግ
ያንተ
ያንዣበ_በ
ይ_ር
ይ_ቅ
ይ_ተ_ው
ይ_ት_አለ
ይ_ት_አልአሁን
ይ_ት_አው
ይ_ት_እ
ይ_ቶ_ብ
ይ_አ_አለ_ሁ
ይ_አ_የ
ይ_አ_ዩት
ይ_አልበ_እዚህ
ይ_አም
ይ_አስ_ክ
ይ_አቸው፤
ይ_ኡ_ዩ
ይ_ኡት
ይ_ኡች
ይ_ኡኝ
ይ_እት
ይ_እች
ይ_ኦችየ_ው
ይ_ኧ_የ
ይ_ኧት፤
ይ_ኧት፥
ይ_ኧች_ሁ
ይ_ኧየ
ይ_ይ
ይ_ድ
ይ_ጥ
ይሁዳ_ውያን
ይሁድ
ይህ_ቺ
ይልማ
ይርስ
ይስሃቅ
ይስሙላ
ይታያል
ይኝ_አልይህ
ይካ_ህ
ይኼን
ይኾ
ይዤ
ይፕ
ዮሀንስ
ዮሐንስ፤
ዮሻ
ዮኒት
ዮናታን
ዮኔስኮ
ዮንግ
ዮኤስአሜሪካ
ዮዲት
ዮጋንዳ
ዮፍታሄ
ደህነ
ደሆ
ደለል
ደላንታ
ደሌ
ደል_ኧ_ምሁለት
ደሓር
ደመኛ
ደማቅ
ደሜ
ደምሴ
ደምስ
ደምበ
ደምበኛ
ደምቢያ
ደሞ
ደረቕ
ደራፊ
ደርቡሾች
ደርባን
ደርፊ
ደስተኛ
ደቀመዛሙርት
ደበሌ
ደበቡ
ደባርቅ
ደብሊን
ደብረሊባኖስ
ደብረብርሀን
ደብረዘይት
ደብብሕ
ደብዳበ
ደብዳብ
ደቦ
ደንበር
ደኤታ
ደወሌ
ደወል
ደዋሌ
ደዔታ
ደድሕሪ
ደጀኔ
ዱለቻ
ዱራሜ
ዱርዬ
ዱአ
ዱግዳ
ዲማ
ዲሞግራፊ
ዲሬክተር
ዲሴምበር
ዲስፒሊን
ዲስፕልን
ዲቃላ
ዲቪዥን
ዲንሱር
ዲኘሎማ
ዲኤታ
ዲኦት
ዲከር
ዲኬቲ
ዲክሽነሪ
ዲዔታ
ዲዲቲ
ዲገሉጢጆና
ዲፒ
ዲፕሎማሲ_ይ
ዲፕሎማቲክ
ዲፕሎም
ዲፖ
ዳ_ድ
ዳለ_አስ
ዳልጋ
ዳልጌዳ
ዳሎል
ዳሬሰላም
ዳርጌ
ዳርፉር
ዳሽን
ዳባ
ዳብሮ
ዳቦርሚዳ
ዳቮስ
ዳንስ
ዳንዐ
ዳንጎቴ
ዳኖ
ዳኘው
ዳያሰፖራ
ዳይሪክትር
ዳይሬተር
ዳይሬክት
ዳይስፖራ
ዳይና
ዳገት
ዳጉሳ
ዳግላስ
ዳግማይ
ዳግሞ
ዴልታ
ዴልፖንቴ
ዴሞራክሲ
ዴቪስ
ዴንም
ዴንሳ
ዴንእንስስ_አትር
ዴንግ
ዴኢታ
ዴዴሳ
ድ_ሽ_አለ_ሁ
ድ_ባት
ድ_ተ_ው_አልበ_ተ_ጭ
ድ_ተ_ው_አልጥ
ድ_ተ_ው_አል፤
ድ_ቸው
ድ_ች
ድ_አ_ለች
ድ_አ_ዉ
ድ_አለ_ን፤
ድ_አሉ
ድ_አል_ኡ፤
ድ_አልየ_ኢትዮጵያ
ድ_አቸው_አል፤
ድ_አና
ድ_አድ
ድ_አጃ
ድ_ኡ_ዎት
ድ_ኡት፤
ድ_ኡን
ድ_ኡ፥
ድ_ኣ_ለ
ድ_ኣ_ቸው
ድ_ኣ_ዎት
ድ_ኣ_ጃ
ድ_ኣኝ
ድ_እች
ድ_ኦ_አ
ድ_ኦቼ
ድ_ኦችን
ድ_ኧ_ሙ
ድ_ኧ_ብ_አቸዉ
ድ_ኧ_ወ
ድ_ኧ_ው፤
ድ_ኧቡ
ድ_ኧት_ኧ_ኝ_ኦች_ኡች
ድ_ኧት_ኧኛ
ድ_ኧችው
ድ_ኧኝ
ድ_ጃ
ድሀነት
ድህረገፅ
ድህስስ
ድህነት
ድህንት
ድሉው
ድላ_ችን
ድልዱል
ድሓር
ድሕንነት
ድመት
ድምቅ
ድምጥማጥ
ድምጽ_አ_ውያን
ድምጽ_ውያን
ድምፅ_ኣችን
ድረ_ገፄ
ድረገፅ
ድሪባ
ድሬክተር
ድርባይ
ድርብ
ድርብይ
ድርት
ድርጊት
ድሰቃ
ድቃስ
ድብልቅ
ድብር
ድብብ
ድተው
ድኅረ
ድንሽ
ድንቂ
ድንቅ_ነ
ድንቅፍ
ድንገ
ድንጉይ
ድንጋጥ
ድንግጥ
ድንግጽ
ድአቸው
ድኤታ
ድኩላ
ድክመት
ድኻው
ድይስ
ድጋሚ
ድጓን
ዶሀ
ዶሃ
ዶሃው
ዶሚኒካን
ዶሪያ
ዶባ
ዶዶላ
ዶዶታ
ጀማ
ጀማሪ
ጀምበር
ጀርም
ጀስትሰ
ጀበና
ጀነሬተር
ጀኔቫ
ጀንበሬ
ጁሊያን
ጁላይ
ጁልያን
ጂም
ጂምናስቲክ
ጂብራልታር
ጂአይኤስ
ጂኢ
ጂኦሎጂካል
ጂኦግራፊ_ያዊ
ጂኦፊዚካል
ጂኦፊዚክስ
ጂኩፕ
ጂወርጂስ
ጂያን
ጂፒኤስ
ጂፕሲ
ጃዝን
ጃይካ
ጃፓን_ኣዊ
ጄነሬተር
ጄኔቭ
ጅ_ት_አል፤
ጅ_ት_አቸዉ
ጅ_ት_ኦህዴድ
ጅ_ቶ_ብ
ጅ_ኢት
ጅ_ኣ_ጀት
ጅ_ኧ_ሁ
ጅ_ኧ_ሁት
ጅ_ኧት
ጅ_ኧት፤
ጅ_ኧቸ
ጅ_ኧን
ጅማሮ
ጅረት
ጅፋር
ጅ፤
ጆሀንስ
ጆርናሊዝም
ጆርጂያ
ጆንሰን
ገለጻ
ገላን
ገላውዲወስ
ገመስቀል
ገመና
ገመድህን
ገሚካኤል
ገማሪያም
ገማርያም
ገርናንስ
ገበነ
ገበነኛ
ገቢር
ገብረመ_ስ
ገብረእየሱስ
ገብረእግዚአብሔር
ገብረው
ገብረዮሐንስ
ገብረፃዲቅ
ገብሬ
ገብሬል
ገነተ
ገናና
ገእግዚኣብሄር
ገኪዳን
ገዋኔ
ገዚፍ
ገዛኢ
ገደማ
ገዳሪፍ
ገጠር_አ
ገጠር_ኢት
ገፀ
ጉላል
ጉልል
ጉልባን
ጉሙዝ
ጉምር
ጉምርእ
ጉረሮ
ጉርሻ
ጉርድ
ጉርጅ
ጉርጓድ
ጉበዔ
ጉዋንዶንግ
ጉዋደኛ
ጉይይ
ጉዲና
ጉዳይ_አች
ጉድብ
ጉድጓድ
ጉግስ
ጉጬ
ጊሎ
ጊራ
ጊርጊስ
ጊቢ
ጊታር
ጊንጆ
ጊዚ_ያት
ጊዜ፥
ጊዝያዊ
ጊዮን
ጊዳዳ
ጋህአዴን
ጋለሪ_ይ
ጋመኔ
ጋማ
ጋምብል
ጋሞጋፋ
ጋሪሳ
ጋራጅ
ጋርነር
ጋርዳሴል
ጋበቻ
ጋዛን
ጋዜጠ
ጋፍት
ጌታችን
ጌታነህ
ጌትነት
ጌይ
ጌይሩ
ጌዲዮን
ጌዴዎ
ጌድኦ
ጌዶ
ጌጠ
ጌጣ_ጌጥ
ጌጣጌጥ
ግ_ሃል
ግ_ላት
ግ_ት_አለ
ግ_ት_አል፤
ግ_ናት
ግ_አለ_ን፤
ግ_አሉ
ግ_አል_ች፤
ግ_አም
ግ_አታ
ግ_አቸዉ
ግ_አቸው_አል፤
ግ_አፍሪካ
ግ_ኡ
ግ_ኡ_ም፤
ግ_ኡ_ብት
ግ_ኢ_ዉ
ግ_ኢት_አቸዉ
ግ_ኢን
ግ_ኢዋ
ግ_ኢ፤
ግ_ኣ_ብ
ግ_ኣማ
ግ_ኣጥ
ግ_እች
ግ_ኦ_ል_አቸ_ው
ግ_ኧ_ለ
ግ_ኧ_ል_አችው
ግ_ኧ_ም፤
ግ_ኧችው
ግ_ኧኛ
ግ_ከ
ግ_ዎት
ግ_ይ
ግላሰር
ግላዊ
ግሌ
ግልል
ግልጺ
ግልጽ
ግልፂ
ግሎባላይዜሽን
ግሪሳ
ግሪስ
ግራማዊ
ግራንድ
ግራዚያኒ
ግሬት
ግርማ_ዊ_ነት_ዎ
ግርታ
ግርዶሽ
ግርግዳ
ግሽበት
ግቤ
ግብረ_ሥጋ
ግብረስ
ግብረኃይል
ግብይት
ግብይይ
ግብፅ፤
ግነቦት
ግኒ
ግንዘብ
ግንዛቤ
ግንደ
ግኝት
ግእል
ግዙፍ
ግዛው
ግዜ_ይ
ግዝኣት
ግዝፍ
ግዞት
ግዥ
ግደይ
ግዴታዬን
ግድም
ግድስ
ግጔ
ግጥሚ
ግጭ
ግጽታ
ግፊት
ጎህ
ጎሆታ
ጎለልቻ
ጎልጎታ
ጎረምሳ
ጎሬ
ጎርደማ
ጎርጎሮሳውያን
ጎርጓሪ
ጎሮቤት
ጎሰኝ
ጎብለል
ጎተ
ጎታ
ጎንዮሽ
ጎንደሬ
ጎደሎ
ጎዳይ
ጎጅ
ጎግል
ጎጠኝ
ጎጥ
ጐለልቻ
ጐልማስ
ጐልፍ
ጐራ
ጐር
ጐርባቾቭ
ጐሮ
ጐድት
ጐጂ
ጒራ
ጒራዕ
ጓሓፍ
ጓንጓ
ጓደኛ_ኦችሽ
ጓደኛ_ዎ
ጓደኛ_ዬ
ጓግ
ጕድለት
ጕድኣት
ጕድጓድ
ጠለምት
ጠለብ
ጠሚዶ
ጠረፍ_አማ
ጠራቅም
ጠቂ
ጠቅት
ጠቓሚ
ጠበል
ጠበቓ
ጠበብት
ጠንካራ
ጠይም
ጠጉር
ጠጣር
ጠጥዕ
ጡረተኛ
ጢሮ
ጢሮስ
ጢንዚዛ
ጢዮ
ጣ_ጥም
ጣሂር
ጣሊያን_አ
ጣልቃ
ጣልቃ_ግ
ጣልያን_አ
ጣቢይ
ጣብያ
ጣት_ኦች_ዎ
ጣንጡ
ጣዖት
ጣፊያ
ጤና_ኧኛ
ጥ_ሃል
ጥ_ለ
ጥ_ለ_ሁ
ጥ_ራ_ጭ
ጥ_ር
ጥ_ተ_ዉ
ጥ_ተ_ው_አል፤
ጥ_ት_አ
ጥ_ት_አለ
ጥ_ቶ_ታል
ጥ_ቷ
ጥ_ቸዉ
ጥ_ች
ጥ_አ_ዉ
ጥ_አ_ጫ
ጥ_አለ_ን፤
ጥ_አል
ጥ_አል_አችሁ፤
ጥ_አል_ኧህ
ጥ_አት_አች
ጥ_አትን
ጥ_አት፤
ጥ_አ፤
ጥ_ኡ
ጥ_ኣ_ሁት
ጥ_ኣ_ወ
ጥ_ኣቸዉ
ጥ_ኣችው
ጥ_ኣና
ጥ_እት
ጥ_እች
ጥ_ኦ_በት_አል_ም_ብ
ጥ_ኦ_ብ
ጥ_ኦን
ጥ_ኦኝ
ጥ_ኦ፤
ጥ_ኧ_ቱ
ጥ_ኧ_ቱን
ጥ_ኧ_ኸ
ጥ_ኧ_ው_አል_ሁ
ጥ_ኧ_ውን
ጥ_ኧን_አ
ጥ_ኧኛ
ጥ_ኧ፥
ጥ_ይ
ጥ_ግ
ጥለት
ጥልቀት
ጥሙር
ጥምቀት
ጥሞና
ጥሩነሽ
ጥሩወርቅ
ጥርሙዝ
ጥርዓን
ጥርዝ
ጥቅምቲ
ጥቅቄ
ጥቓ
ጥቕሚ
ጥብቂ
ጥንሲ
ጥንቃቀ
ጥንቃቄ
ጥንቃቐ
ጥንት_አውያን
ጥንቸል
ጥንዚዛ
ጥዑም
ጥጥእ
ጨሌ
ጨመዳ
ጨረር_አ
ጨረት
ጨርቂ
ጨና
ጨዋች
ጨደድ
ጨዳድ
ጩቤ
ጩኽት
ጫምባላላ
ጫሞ
ጫቀታ
ጫና
ጫንቃ
ጭ_ቱ
ጭ_ት_አል፤
ጭ_አል_ሁ
ጭ_ኣታ
ጭልፊት
ጭስ
ጭቆና
ጭናክሰን
ጭንቅ
ጭይስ
ጭዳ
ጭድ
ጭጋግ
ጭፍር
ጭፍጨፋ
ጭፍጭፍ
ጮሌ
ጯሂት
ጳጳስ_አትየ_ዐብያተ
ጵጵስ
ጸሃየ
ጸሃዬ
ጸለምት
ጸረ_ሙስና
ጸረ_ኤች
ጸረ_ዲሞክራሲ
ጸረ_ድሃ
ጸረሙስና
ጸቕጢ
ጸቤት
ጸዓት
ጻውዒት
ጽ_አ_ለ
ጽ_ኡ_ሃን
ጽ_ኡ_ብ
ጽ_ኡ_ት፤
ጽ_ኡት፥
ጽ_ኡ፤
ጽ_ኣ_ው_አልሚኒስቴር
ጽ_ኣ_ው_አልበ_እዚህ
ጽ_ኣ_ው_አልይህ
ጽ_ኣ_ውበ_ቅ
ጽ_ኣ፤
ጽ_እ_ው_አልየ_ታንዛንያ
ጽምድ
ጽሩይ
ጽኃፍ
ጽናን
ጽናጽል
ጽውም
ጽዕነት
ጽግዕ
ጽጥታ
ፀሃዬ
ፀላኢ
ፀሐፊ
ፀማይ
ፀረ_ሙስ
ፀረ_ሙስና
ፀረ_ሳዳም
ፀረ_ሽ
ፀረ_ተባይ
ፀረ_ኤች
ፀረ_ኤችአይቪ_ኤድስ
ፀረ_ክ
ፀረ_ኮንትሮባንድ
ፀረ_ድ
ፀረ_ጭ
ፀረሙስና
ፀበል
ፀብ
ፀኃይ
ፀጉ
ፀጋየ
ፀፀት
ፂም
ፂዮን
ፅ_ኣ_ኣ_ለ
ፅ_ኧ_ው_አልየ_ክ
ፅ_ኧ_ው_እ
ፅ_ኧ_ው፥
ፅ_ኧኛ
ፅቡቕ
ፅንእ
ፅዕዋት
ፅ፤
ፅ፥
ፈ_ብ
ፈሊጥ
ፈልሲ
ፈረንሳዊ
ፈሪሳውያን
ፈርስት
ፈቃደኝነት
ፈተወ
ፈች
ፈንገስ
ፈኸራ
ፈውሲ
ፈይሳ
ፈደራል
ፈጣን
ፈጻሚ
ፉል
ፉርኖ
ፉትቦል
ፉካዎች
ፊሊፕስ
ፊልጵስዩስ
ፊሲካል
ፊት_ለ_ፊት
ፊንለ_አንድ
ፊንላንድ
ፊንጢጣ
ፊዚክስ
ፊዚዮሎጂ
ፋልሴቶ
ፋሲሊቲ
ፋሻ
ፋቅር
ፋበሪካ
ፋብረካ
ፋብሪካ_ችን
ፋታ
ፋኑኤል
ፋኦ
ፋካሊቲ
ፋክልቲ
ፋወንዴሽን
ፋዉንዴሽን
ፋዘር
ፋይናስ
ፋይናንሻል
ፋይዳ_ቸው
ፋጣኝ
ፌስቲቫሉ
ፌስትቫል
ፌብሯሪ
ፌዴራሊዝ
ፌዴራል_ኢ_ዝ
ፍ_በት፤
ፍ_ት_ቤት
ፍ_ት_አል፤
ፍ_አ_ብ
ፍ_አለ_ን፤
ፍ_አተ
ፍ_አው
ፍ_ኡ_ቸው
ፍ_ኡ_ፉ
ፍ_ኢ_ወች
ፍ_ኢ_ዉ
ፍ_ኢ_ው፤
ፍ_ኢ_ዎቸ
ፍ_ኢ_ይ
ፍ_ኦ_ብ
ፍ_ኦ_ብ_አቸው
ፍ_ኧ_ምበ_ደቂቋ
ፍ_ኧ_ው፤
ፍ_ኧር
ፍ_ኩት
ፍ_ዎ
ፍ_ፋ
ፍለጋ
ፍሉጥ
ፍሊት
ፍላሚንጎ
ፍሌቨኖይድ
ፍልሰታ
ፍልፍል
ፍሎራይድ
ፍሎሬንስ
ፍሪዳ
ፍራንኮ
ፍሬ_ዝ
ፍሬህይወት
ፍሬወይኒ
ፍሬድሪክ
ፍር_ሃት
ፍርገማ
ፍሰሀ
ፍሰጥ
ፍስሃ
ፍቃዱ
ፍቕረኛ
ፍተሻ
ፍትሃ
ፍትሓዊ
ፍትቤተ
ፍትው
ፍንጅ
ፍዳ
ፍፁ
ፎለውድ
ፎረንሲክ
ፎርማን
ፎርት
ፎርቹን
ፎቶግራፈር
ፎንት
ፎጣ
ፐርሰናል
ፐርሺያ
ፑሽኪን
ፒራሚድ
ፒተር
ፒዩንግያንግ
ፒዮንግ
ፒዮንግያንግ
ፒጃማ
ፒፓ
ፓላስ
ፓራጓይ
ፓርላማ_ዉ
ፓርላሜንታሪያዊ
ፓርኪንሰንስ
ፓስተር
ፓስፊክ
ፓነል
ፓንክረስት
ፓኬጁ
ፓወል
ፓውሎ
ፔፐር
ፕላቶ
ፕላዝማ
ፕረዚዳንት
ፕረግራም
ፕራክቲስ
ፕራይቬት_እ
ፕራይዝ
ፕሬዚዱንት
ፕሬዚዲየ
ፕር
ፕሮራም
ፕሮስቴት
ፕሮክተር
ፕሮዲውሰር
ፕሮግራመር
ፕሮፈሰር
ፕሮፌስ
ፕሮፍሰር
ፕሮፎርማ
ፕሮፖዛል
ፕት
ፖሃምባ
ፖለሲ
ፖለቲካ_ዊ፤
ፖለቲክ
ፖሊቴክኒክ
ፖሊዩ
ፖሪስ
ፖርቱጊዝ
ፖርታ
ፖስኮ
ፖቬል
ፖታሽ
ፖናል
ፖንዛ
ፖኘን
ፖኪስታን
፤ም
፫ኛ
፲፪
፲፬፻፵፮
፲፯
፲፰፻፸፰
፲፱፻፶፮
፲፱፻፶፷
፲፱፻፹፫
፲፱፻፺፮
፳፻፪
፴፫
(ሓፂር
(ምዝራብ
(በሓደ
(ብሰለስተመዳባ
(ናይ
(አብ
(ከ
(ካብ
(ጥውጥዋይ
(ፍሉይፍልተ
_ቅ
_ት
_ት_ኧ_ኛና
_አም
_አያ
_አይ_ል
_አይ_ች
_አይ_እ
_ኣ_ፍ
_ኧኝ
_ይ
ሀሁ
ሀሃለፊ
ሀለ
ሀለ_ትህትና
ሀለሠ
ሀለቱ
ሀለፎም
ሀላ
ሀላላ
ሀላፊ_ችች
ሀላፊ_ነት_አች
ሀላፊ_ው፥
ሀልገን
ሀመልማል
ሀመር
ሀመድ
ሀሙማን
ሀሚዳ
ሀማሪያም
ሀማርያም
ሀማሴን
ሀሜቶዲስት
ሀምር
ሀምቢሳ
ሀምቤንቱ
ሀምአዳን
ሀምዛ
ሀምዲያ
ሀሠት
ሀሣብ
ሀረረጌ
ሀረቀሎ
ሀረከቱል
ሀረገወይን
ሀሩር
ሀሩን
ሀሪስ
ሀራምቤ
ሀራሬ
ሀራትም
ሀራችን
ሀራጅ
ሀራጉ
ሀርሊንግ
ሀርሳዲ
ሀርቃ
ሀርቡ
ሀርቤ
ሀርነት
ሀርዲ
ሀርድ
ሀሮ
ሀሮልድ
ሀሮየ
ሀሮዬ
ሀሳብ_ዎ
ሀሴት
ሀስና
ሀሹ
ሀሺ
ሀሺም
ሀሺሽ
ሀቅ_ኧኛ
ሀቅ_ኧኝ
ሀበ
ሀበረሰብ
ሀበራቱ
ሀበራት
ሀበር
ሀበርማስ
ሀበት_ኦችት_እ
ሀበነ
ሀቢበ
ሀቢብ
ሀባቦ
ሀባተ
ሀብለ
ሀብሊ
ሀብል
ሀብሩ
ሀብሳ
ሀብተ
ሀብተ_ው_ኣል
ሀብተሚካኤል
ሀብተሥላሴ
ሀብተው
ሀብተጊዮርጊስ
ሀብት_ኦች_የ_ተ_ጅ
ሀብት_ኦችመ_ን
ሀብት_ኦችየ_ሁል_ኣም
ሀብትለ_አትክልት
ሀብትየ_ቅ
ሀብት፤
ሀብቶም
ሀቦብላ
ሀቱር
ሀቴም
ሀትሪክ
ሀኒባል
ሀኒንግ
ሀንስ
ሀንስበሪ
ሀንጋሪ_ያዊ
ሀኤ
ሀኪም
ሀኪም_ዎ
ሀኬት
ሀክታር
ሀዋርያ
ሀዋርድ
ሀዋሳ፤
ሀዋሳ፤መጋቢት
ሀዋሳ፤የካቲት
ሀዋሳ፤ጥር
ሀዋስ
ሀውለት
ሀውል
ሀውሎት
ሀውሳ
ሀውስ
ሀውዛ
ሀዕና
ሀዙ
ሀየሎም
ሀየተ
ሀዩ
ሀያል
ሀያሲ
ሀያት
ሀያን
ሀይ_ል
ሀይለልዑል
ሀይለማረያም
ሀይለማሪያም
ሀይለማርያ
ሀይለማርያምም
ሀይለማርያም፤
ሀይለማያም
ሀይለስላሴ
ሀይለኛ
ሀይለገብርኤል
ሀይለጊዮርስ
ሀይሉበ_ውትድር
ሀይሉአባ
ሀይል_ኧስላሴ
ሀይል_ኧኛ
ሀይመኖት
ሀይማነት
ሀይማኖተ
ሀይማኖት_ኧኛ
ሀይማኖች
ሀይሮግሊፍ
ሀይቆች
ሀይዋን
ሀይድራባድ
ሀይድሮ
ሀይድሮ_ፖወር
ሀይድሮሎጂ
ሀደሩ
ሀደራ
ሀዱሽ
ሀዲቾ
ሀዲያና
ሀዲያን
ሀዲደ
ሀዲዱ
ሀዲዱን
ሀዳር
ሀድድ
ሀድጉ
ሀገረስብከት
ሀገራዊ
ሀገሬን
ሀገር_አት_ጋር
ሀገር_አች
ሀገር_አችው
ሀገር_ኢትቷ
ሀገር_ኢትአን
ሀገር_ኢትኡ
ሀገር_ኢትዮጵያ
ሀገር_ኣዊ
ሀገር_እ
ሀገር_ዎ
ሀገርኢት
ሀገሮ
ሀገባ
ሀገቱ
ሀጉር
ሀጋር
ሀጌ
ሀግ
ሀግር
ሀጎስ
ሀጢአት
ሀጢያት
ሀጻን
ሀፍረት
ሀፍር
ሀፍርሕ
ሀፍቱ
ሁ_ምም_ክ
ሁ_ምከልይ
ሁ_ም፥
ሁለመና
ሁለተ
ሁለት_ሶስት
ሁለት_ናዊ
ሁለት_ኛ_ም
ሁለት_ኛ_ዉ
ሁለት_ኛ_ው_ንና
ሁለት_ኛዉ
ሁለት_ኛዲግሪ
ሁለት_ኛጫልቱ
ሁለት_ዮ
ሁለት_ጊዜ
ሁለትበ_ኦሞ
ሁለትና
ሁለትኧ
ሁለትዎች
ሁለት፤
ሁለንተ_ናዊ
ሁለንተን
ሁለንተዊ
ሁለንታናዊ
ሁለንት
ሁሉ_ም_በ_የ_በቅሎ
ሁሉ_ም፤
ሁሉ_ን
ሁሉ_ን_እ
ሁሉ_አገርሽ
ሁሉ_እ
ሁሉ_እንዳራቀልን
ሁሉ_የ_ተ_ል
ሁሉ_ጊዜ
ሁሉሰው
ሁሉቃ
ሁሉት
ሁሉ፤
ሁሉ፤በ_አፍሪካዊ
ሁሊዮ
ሁላ
ሁላላህ
ሁል_ኣ_በ_ሁል_ኣ_ጦር
ሁልቄ
ሁልቆ
ሁልጊም
ሁመ_ፍ
ሁመራ
ሁመር_አ
ሁመድ
ሁሙም
ሁሚቪስ
ሁማን
ሁምቤ
ሁርሶ
ሁርታዶ
ሁርጶ
ሁሴብ
ሁስሪቭ
ሁቃ
ሁባ
ሁተኛ
ሁቴታ
ሁትፌልት
ሁነ
ሁነብ
ሁነኔታ
ሁኑታ
ሁኑኝ
ሁናለች
ሁኔው
ሁን_አች
ሁን_ኤት
ሁንዳራስ
ሁንድራስ
ሁኛለሁ
ሁኜ
ሁአላ
ሁአን
ሁአይ
ሁክ
ሁዋታላ
ሁዋን
ሁዩማን
ሁዱር
ሁዳዴን
ሁዳድ
ሁዴሳ
ሁጂያን
ሁጌስ
ሁጐ
ሁ፦
ሂሊኮፕተር
ሂሊየም
ሂላሪ
ሂሩት
ሂርመጂ
ሂርና
ሂርደን
ሂሮሽ
ሂሱ
ሂሱን
ሂሳብ_በ_ተ_ፍ
ሂስትሪ
ሂስትሮይ
ሂሻም
ሂብርቻት
ሂንዱ
ሂንዱዝም
ሂንድኡ
ሂኪኮንድሪያ
ሂወ
ሂዉማን
ሂው
ሂውማኒቲስ
ሂዘር
ሂዩማሊያን
ሂዩማኒቲስ
ሂዩማን
ሂያጅ
ሂይወ
ሂይወት
ሂይወት፦
ሂዮሪኪ
ሂደዮሺ
ሂጀራይተን
ሂጃዚ
ሂጅሪያ
ሂጅራን
ሂገንስ
ሂጊንስ
ሂፊኪፑንዬ
ሂፋብ
ሂፌክቡአኜ
ሂፍኬፑኜ
ሂፕሆፕ
ሂፖ
ሃለሶ
ሃለቓ
ሃለፈ
ሃለፎም
ሃሊ
ሃሊማ
ሃሊነት
ሃላላ
ሃላቀር
ሃላኺ
ሃላይደቤ
ሃላፉ
ሃላፊ_ቶ_ቹ
ሃላፊ_ነት_አቸዉ
ሃላፊ_ዉ
ሃላፊ_ው፤
ሃላፊነት
ሃላፍ
ሃሌ
ሃሌታ
ሃልሃልታ
ሃልዮ
ሃሎል
ሃሎዊን
ሃሎው
ሃሏ
ሃሕረዋ
ሃመ_አስ
ሃመዱ
ሃሙስ
ሃሚድ
ሃማሬሳ
ሃማሴን
ሃማኖት
ሃምልተን
ሃምሣ
ሃምራዊ
ሃምቢሳ
ሃሞሶንዴ
ሃረርጌ
ሃሩር_አማ
ሃሩን
ሃሪሙ
ሃሪማን
ሃሪሰን
ሃሪዝ
ሃሪፉ
ሃሪፍ
ሃራ_ወልዲያ
ሃራም
ሃራምቤ
ሃራቸው
ሃራችን
ሃሬን
ሃርሞኒካ
ሃርሞናዝድ
ሃርሞናይዝ
ሃርቃ
ሃርበ
ሃርቡ
ሃርባ
ሃርቬይ
ሃርነት
ሃርካን
ሃርድዌር
ሃርጌሳ
ሃርጌሳው
ሃርጓፍ
ሃሮማያ
ሃሮዬ
ሃሰ
ሃሰሰ
ሃሰብ
ሃሰት_ኧኛ
ሃሰኩራ
ሃሳስ
ሃሳብ_ዎ
ሃሳዊ
ሃስብ
ሃስና
ሃስን
ሃሺ
ሃሺም
ሃቀኛ
ሃቁ
ሃበለይ
ሃበሻ
ሃቢቢየስ
ሃቢብ
ሃቤቤ
ሃብሩ
ሃብተ
ሃብተጊዮርገስ
ሃብታሙ
ሃብቴ
ሃብት_አም
ሃብት_ዊና
ሃብትየአስ_ተ_ስ_እ
ሃብና
ሃብከር
ሃብኮም
ሃብይ
ሃቫና
ሃተታ
ሃተውተው
ሃተፈ
ሃተፍተፍ
ሃታፊ
ሃትሪክ
ሃኑር
ሃኑን
ሃናቱ
ሃናፃይ
ሃንሰን
ሃንስር
ሃንቢሳ
ሃንተር
ሃንቱካ
ሃንኮክ
ሃንኮክን
ሃንደርርድ
ሃንደበ
ሃንደት
ሃንድ
ሃንጋርድ
ሃኖቨርን
ሃአረግ
ሃኪም
ሃኪንግ
ሃካይ
ሃወልት
ሃዊና
ሃዊኹ
ሃዋ
ሃዋህው
ሃዋላ
ሃዋርያ
ሃዋርድ
ሃውል
ሃውልት_ኦችየጢያ
ሃውክ
ሃውዜን
ሃዕና
ሃዜም
ሃየማኖት
ሃየረማኖ
ሃየት
ሃያ_ኛው
ሃያ_አንድ
ሃያ_ካዋ
ሃያ_ዎች_አ
ሃያል
ሃያያን
ሃይለሚካኤል
ሃይለማሪያምና
ሃይለማርየም
ሃይለማያም
ሃይለራጉኤል
ሃይለስላሴ
ሃይለእየሱስ
ሃይለጎርጊስ
ሃይሉእ
ሃይላማሪያም
ሃይላይ
ሃይሌ፥
ሃይል_ኡ፥
ሃይልማሪያም
ሃይመኖት
ሃይማት
ሃይማኖተ
ሃይማኖት_ን፤
ሃይማኖት_አች
ሃይማኖት_አውያን
ሃይማኖት_አ፤
ሃይማኖት_ጋር
ሃይማኖትየ_ቋንቋ
ሃይማኖት፤
ሃይማኖች
ሃይማኖን
ሃይሮግሊፍ
ሃይስ
ሃይስኩል
ሃይቂ
ሃይቢ
ሃይነ
ሃይን
ሃይኖት
ሃይካል
ሃይኬል
ሃይዌይ
ሃይደራባድ
ሃይደሮ
ሃይድራባድ
ሃይድሮሊክ
ሃይድሮሊክስ
ሃይድሮሎጂ
ሃይድሮቻይ
ሃይድሮቻይና
ሃይጂን
ሃይጅን
ሃይገር
ሃይፔርታይሚክ
ሃይፖታይሚሚያ
ሃይፖኮንደሪያ
ሃደት
ሃደኑ
ሃደን
ሃዲሙ
ሃዲስ
ሃዲኑ
ሃዲዛ
ሃዲዪ
ሃዲዱ
ሃዲድም
ሃዳናይ
ሃድሮን
ሃድሰን
ሃገረሰብ
ሃገሬ
ሃገር_አች
ሃገር_ኣትን
ሃገር_ኣት፥
ሃገር_ኦችህ
ሃጎስ
ሃጢተ
ሃጢያት
ሃጢያቷ
ሃጫሉ
ሃጸይ
ሃጺ
ሃፀይ
ሃፍቱ
ሃፍታ
ሃፍቶም
ሃፍፀና
ሃፕን
ሄለም
ሄለና
ሄለንስ
ሄሊክ
ሄሊኮፍተር
ሄላሞ
ሄሌስፖንት
ሄልሜት
ሄሚዌይዌይ
ሄማኮማ
ሄምፕ
ሄሪዬ
ሄራልድ
ሄራቅሊጠስ
ሄራን
ሄሬራ
ሄሬሮ
ሄርማታ
ሄርማን
ሄርበርት
ሄርቤ
ሄርከ
ሄርኮ
ሄርፕቲክ
ሄሮኒሞስ
ሄሮዳ
ሄስቲንግስ
ሄባና
ሄብሮን
ሄትሮው
ሄትወርክ
ሄነሪ
ሄነስ
ሄኒከን
ሄኒካ
ሄኔናው
ሄን
ሄንሪ
ሄንሪክ
ሄንዚይ
ሄንዝ
ሄንግዮአን
ሄንግፎንግ
ሄኖስ
ሄክ
ሄክኮንዲራሪ
ሄዘር
ሄይቲ
ሄይዝ
ሄደሃል
ሄጃ
ሄጄ
ሄገና
ሄግሊጅ
ሄግኔዘርላንድ_ስ_ፍ
ሄፓቲቲስ
ህ_ሉ
ህ_ም
ህ_ር
ህ_በት
ህ_በት_ን
ህ_ብ
ህ_ነት
ህ_ነት_አችን_ን
ህ_ነት_ኡ_ን
ህ_ና_ን
ህ_ና_ዋ
ህ_ና_ው
ህ_ን_አቸው
ህ_አን_ኡ
ህ_ኡ_ብ
ህ_ፍ
ህለፍ
ህሉው
ህሉፍ
ህሊና_ዬ
ህሊን
ህላወ
ህላው
ህሌና
ህልም_አቸዉ
ህልቁ
ህልቆ
ህልከ
ህልኽ
ህልዉና
ህልውና_ቸው
ህመ
ህመም
ህመምተኛ
ህመት
ህማ
ህማቕ
ህምራ
ህምጠ
ህምጠኛ
ህሩይ
ህሩፍ
ህራስ
ህራየር
ህርኩ
ህርፋን
ህርፍ
ህሮማቲካዊ
ህሰበሉ
ህሳቦች
ህበረሰተሰብ
ህበይ
ህቡእ
ህቡዕ
ህቢ
ህብረ_ብሔር
ህብረህዋስ
ህብረሰተሰብ
ህብረተሠብ
ህብረተሰ
ህብረተሰበ
ህብረተሰብ_ኡ_የ_ሚ_ስ
ህብረተሰብ_ኣችን
ህብረተሱ
ህብረተብ
ህብር_ተ_ስ_ብ
ህብርተሰብ
ህብተረተሰብ
ህብተሰብ
ህብት
ህብዕ
ህብዝ
ህታ
ህትም
ህንደያ
ህንድ_አዊ_ቷ
ህንድ_አዊያን
ህንድ_አውያ
ህንድድ
ህንጡይ
ህንጽ_ጽ
ህወሃትኢህአዴግ
ህወሃትየ_ኢህአዴግ
ህወል
ህወሐት_ኢህአዴግ
ህወሓት_ኢህአዴግ
ህወሓት_ኢህወዴግ
ህወሓት_ኢሕአዴግ
ህወሓትበ_እ
ህወሓትበዓል
ህወሓትኢህአዴግ
ህዉሀት
ህዋሀት
ህዋሃት
ህዋር
ህዋሳት
ህዋስ_አትን
ህውሀት
ህውሐት
ህውሽ
ህውከ
ህውከት
ህዓናት
ህዘበ
ህዘብ
ህዙ
ህዙናን
ህዝበ_ክርስቲያን
ህዝቢከይሽየጥ
ህዝብ_ና_ቅ
ህዝብ_አ
ህዝብ_አቸዉ
ህዝብ_አችን_ጋር
ህዝብ_አችንእንዳተ
ህዝብ_ኡ_ድ
ህዝብ_ኡ_ጋ
ህዝብ_ኡና
ህዝብ_ኡከ_ባለ_ሀብት_ኦችመ_ን
ህዝብ_ኦች_ኡ_ቿ
ህዝብ_ኦች_ኡችን
ህዝብ_ኦች_ኡች፤
ህዝብ_ጋ
ህዝብን
ህዝብከ_አለም
ህዝብ፤
ህየወት
ህዩመን
ህዩማን
ህያብ
ህያዉ
ህያዋን
ህይለና
ህይል
ህይቀት
ህይወት_ል
ህይወት_አቸዉ
ህይወት_አቸዉን
ህይወት_ኤን
ህይወት_ዎ
ህይወት፤
ህይዋን
ህይውት
ህይዎት_አቸዉ
ህደ
ህደር
ህደድዕ
ህዱር
ህዳ
ህዳርዋኢማ_የ_ኢትዮጵያ
ህዳሲ_ይ
ህዳሴ_በ_ሚ_እል
ህዳሴ_የ_ሚለው
ህዳሴ_ይ_አቸን
ህዳሴ_ይ_አችንበ_ሚ_እል
ህዳት
ህድሴ
ህድን
ህድድ
ህገመንግስት
ህገቦች
ህጊ
ህግ_መንግሰት
ህግ_ም
ህግ_አዊ_ነትን
ህግ_ኡ_የ_ስ
ህግ_ኦች
ህግ_ደንብ
ህግመ_ን
ህግም
ህግራቸው
ህግውጥ
ህግ፤
ህጝ
ህጸን
ህጻን_ነቱ
ህጻን_አትተ_እመም
ህፀፅ
ህፅ
ሆሄ_ያት
ሆሄያት
ሆሆታ
ሆሊዉድ
ሆሊዲይ
ሆሊዴይ
ሆላ
ሆላንዴ
ሆልምስ
ሆልዲንግ
ሆምስ
ሆራይዘን
ሆርስት
ሆርቲ
ሆርኔት
ሆርን
ሆርዶፋ
ሆሮስኮፕ
ሆሮጉድር
ሆሳህና
ሆሳም
ሆሳዕናመዳሃኒት
ሆስ
ሆስሲስ
ሆስኒ
ሆስፒ
ሆስፒል
ሆስፒታሊቲ
ሆስፒታል፤
ሆስፒቴል
ሆሺዕናህ
ሆሻናየ_መለከት
ሆሻናየ_ም
ሆቢ_ያ_ቸ_ዉ
ሆተል
ሆቴለ
ሆቴል_ኦች፤ካፊቴሪያ_ዎች፤ሬስቶራንት_ኦች፤
ሆቴልሙዓለ
ሆቴልበ_ሆስፒታል
ሆኒ
ሆንዱራስ
ሆንግ
ሆንግቲያን
ሆንግካዎ
ሆንግኮንግ
ሆንግጂ
ሆንግጂን
ሆኖናል፤ይ_ህ
ሆኝ
ሆአ
ሆአአኤ
ሆኮገን
ሆውስተን
ሆይ፤
ሆይ፥
ሆደ
ሆደነሾኒ
ሆዳዱ
ሆዴድ
ሆድ_አ
ሆጀላ
ሆጀሌ
ሆጄሌ
ሆጅ
ሆጅስ
ሇእነርሱ
ለ_መ_እ
ለ_ቅ
ለ_ች፤በር
ለ_አልጋ
ለ_ይ
ለሀገር
ለሁለት
ለሁት
ለለኽ
ለሊት_እ
ለላኣ
ለሌል
ለሌች
ለልሒፁ
ለልሕመ
ለልሙስ
ለልምዲ
ለልቕ
ለልቢዝነክኦ
ለልቦ
ለልአለ
ለልዑል
ለልጽ
ለሕሚ
ለመ_ር
ለመ_ስ
ለመ_ሽ
ለመ_ቅ
ለመ_አ_ስ
ለመ_ጅ
ለመረዱት
ለመሱትን
ለመቐለ_ሃራ_ወልዲያ
ለመክዒ
ለመገበር
ለሚ_ል
ለሚ_ም
ለሚ_ስ
ለሚ_ን
ለሚ_ያ_ሽ
ለሚ_ይ_አስ_ቅ
ለሚ_ይ_አስ_ች
ለሚ_ይ_እ
ለሚ_ጥ
ለሚ_ፍ
ለሚርበን
ለሚሴ
ለሚስስ
ለሚኑ
ለሚወ
ለሚዱ
ለሚዲ
ለሚፁ
ለማ_ስ
ለማ_ሽ
ለማ_አ_ጥ
ለማ_ጥ
ለማማፂ
ለማኒ
ለማየሁ
ለማጥ_አፈጥ
ለማጭ
ለማ፥
ለሜሳ
ለሜቻ
ለምለ
ለምሊሙ
ለምሲ
ለምበር
ለምተ
ለምአይ_ስ
ለምጨን
ለረኺቡ
ለርኒንግ
ለሰላ
ለሰስአሻሸ
ለሱሃ
ለሱም
ለሲ
ለሲቪክ
ለሲኑ
ለስራተ
ለስታ
ለስነታዊ
ለሷ
ለሸነ
ለቀናት
ለቀከ
ለቁል
ለቁም
ለቂቁ
ለቃ
ለቃለ
ለቃነጳጳሳት
ለቄሳራዊ
ለቅቄ
ለቋል
ለቒቑ
ለቒቑአከሳ
ለቓቒሙ
ለበያ
ለቢል
ለቢቢሲእንደተናገሩት
ለቢዱ
ለባል
ለባሽ
ለባዮ
ለቤ
ለብለስ
ለብሊቡ
ለተምዶ
ለተነሽ
ለታው
ለት_እ
ለትተለት
ለቶዚሊ
ለነ_ፍስ
ለነሱ
ለኒሁ
ለኔ_ተገቢዬ_ያልሆነን_ን
ለን_አል፤
ለንድን
ለንዶን
ለኖርዝ
ለኝ_አልግን
ለአብነት
ለአኳሳ
ለኢኹ
ለኤኤፍፒ
ለኦ
ለከመይ
ለኩባ
ለኪዑ
ለካስ
ለካቲት
ለክሽሚፑራ
ለኮሙዩኒኬሽን
ለኮንቴይነር
ለኺቡ
ለዊቱ
ለዊጡ
ለዋህ
ለዋች
ለውስ
ለዎጡ
ለዘ
ለዘሊሉ
ለዘብተኛ
ለዛም
ለዝኩ
ለዝክረ
ለየ_በዓል
ለየ_ብቻ_ቸ
ለየ_ት_ም
ለየ_አርበኛ
ለየ_አገር
ለየ_ዘንድሮ
ለየ_ዞን
ለየ_ዲሞክራሲ
ለይ_ቅ
ለይ_ቼ
ለይ_ኡኒቨርሲቲ
ለይ_ግ
ለይ_ፍ
ለይል
ለይሖነ
ለይባ
ለደነባ
ለዳዉድ
ለጁት
ለገሀር
ለገሠ
ለገሥ
ለገንደንቢ
ለገደንቢ
ለገጠለት
ለጋ_አ
ለጋላሽ
ለጋሲ
ለጋሲ_ዮ
ለጋስ
ለጋዜጣ
ለጋፋቱ
ለግቦት
ለጢፉ
ለጥሊጡ
ለጥይበል
ለጭሊጩ
ለፊሊፒኖ
ለፍላፊ
ለፍቤት
ለፍዐ
ለ፤ሕ
ሉሉ
ሉማ
ሉምበራ
ሉምባሲ
ሉሲን
ሉሲያ
ሉሳካ
ሉሳካዛምቢያ
ሉስሉስ
ሉስካ
ሉሺ
ሉቃ፥
ሉባትን
ሉባንጃ
ሉተማመኑ
ሉተራዊ
ሉተራዊት
ሉቲንያ
ሉቺያኖ
ሉንዳ
ሉንድበርግ
ሉኡክ
ሉኣላዊ
ሉኪምያ
ሉኪቺያ
ሉካንዳ
ሉክ
ሉክሰምበርግ
ሉክሶር
ሉዊ
ሉዊዝ
ሉዓላዊ_ነት_ኤን
ሉዓካን
ሉዕል
ሉዛን
ሉዝ
ሉዞን
ሉያ
ሉይዚ
ሉድሚላ
ሉዶልፍም
ሉዶን
ሊ_ይ_አስ
ሊሁ
ሊሂቃን
ሊሃይ
ሊለን
ሊለንም
ሊለው
ሊሊ
ሊልስተርስተር
ሊሎ
ሊመ
ሊሙሰቃ
ሊሙኢናርያ
ሊሙኮሳ
ሊሚትድ
ሊሚኑ
ሊምፎማ
ሊረ
ሊራ
ሊሲን፥
ሊሳ
ሊሳን
ሊሾ
ሊቀ_መምበር
ሊቀ_መናብርት
ሊቀ_መንበር_ኡበ_እ
ሊቀ_መንበር_ኡ፤
ሊቀ_መንበር_ዣን
ሊቀ_መንበር፥
ሊቀ_መአምራን
ሊቀ_ጳጳስ
ሊቀነ
ሊቀነ_ጳጳሳት
ሊቀነ_ጳጳስ
ሊቀካህን
ሊቀዲያቆን
ሊቀጳጳስ
ሊቀጳጳሽ
ሊቁ
ሊቃነ
ሊቃነ_ጳጳሳት
ሊቃነመናብርት
ሊቃኝ
ሊቃውንተ
ሊቃውንት_ኡ፦
ሊቅ_አ_ው_ንት
ሊቅ_ኧ_መንበር
ሊቅ፤
ሊቕ
ሊበራሉ
ሊበራል
ሊበርቲ
ሊቢያ_ውያን
ሊቢያ፤
ሊባ
ሊባና
ሊባኖሰ
ሊባኖስን
ሊባው
ሊብ
ሊብራ
ሊብራል
ሊብሬ
ሊቦከምከም
ሊቦጫጭቋት
ሊቨርፑል
ሊቪያ
ሊቭፒንግ
ሊተርጂ
ሊቲየም
ሊታገ
ሊት_አይ
ሊት_እ
ሊትማነ
ሊትማን
ሊትረሲ
ሊኃይ
ሊነሱ
ሊኒየር
ሊናስ
ሊንከን
ሊንዳ
ሊንዳቶማስ
ሊንድሴ
ሊንፋቲክ
ሊአም
ሊኢኺ
ሊእንስስ_አትራል
ሊኩይድ
ሊካ_ህ
ሊኾን
ሊዊዝ
ሊዋናርዶ
ሊዋንቲቭ
ሊውኬሚያ
ሊዎ
ሊዎን
ሊዚንግ
ሊዛ
ሊዝን
ሊየ_አስ_አ_ድ
ሊየ_አስ_አጣ
ሊየ_እ
ሊይ
ሊይ_አ
ሊይ_አስ_ክ
ሊይ_እ
ሊዮናርዶ
ሊጅ
ሊጋሲ
ሊግት
ሊግና
ሊግየ_ሶማሌ
ሊጔ
ሊጤን
ሊፋን
ሊፎርቶቮ
ሊፓሪ
ላሁድ
ላህልም
ላህማ
ላህያ
ላህይ
ላሉም
ላሊሳኛ
ላሊበላ_ን፤
ላሊበላማር
ላሊበላ፤ትግራይ
ላሊባላ
ላላ_ግ
ላል_ን
ላሕለሐ
ላሕሊሑ
ላማምራ
ላማምብራ
ላሜህ
ላሜድ
ላም_ሬ
ላምሮት
ላምሴ
ላምበቦ
ላምባ
ላምባም
ላምባዲ
ላምብን
ላምብዳ
ላምይ
ላምድ
ላምፐዱሳ
ላሞ
ላሪ
ላሪሳ
ላሬቦ
ላርሰን
ላሱት
ላሳይ
ላስቱ
ላስቲክ
ላስታጎንደር
ላሾ
ላቀች
ላቄ
ላቅ_ኧ_ዕ
ላቡሊ
ላባራቶሪ
ላባው
ላቤሪያዊያን
ላቤን
ላብራቷር
ላብቶሪ
ላብአደር
ላቦራቶሪ፤
ላቦራቶር
ላቦራቷር
ላቭሮቭ
ላቲቱ
ላቲና
ላቲዩት
ላቲፊያ
ላቴላ
ላነስ
ላንቃ_ኣችን
ላንቶኔሊ
ላንቺ
ላንዝሁ
ላንይንስ
ላንደበት_ህ፤
ላንፋ
ላንፎሮ
ላኘቴቭ
ላከቻ
ላከክ
ላኪዑ
ላዉዜን
ላዊላ
ላዊላን
ላዋ_ይህ
ላዌ፥
ላውሬ
ላውንጅ
ላውጅ
ላዕለወይ
ላዕላ
ላዕላዩ
ላዕሲ
ላዕከማርያም
ላዕካነ
ላዘን
ላዘዘለ
ላዛሪስት
ላዝን
ላየን
ላያ
ላያ_የ
ላያቅ
ላይ_መ_ህ
ላይ_ስ
ላይ_ቀር
ላይ_ቀፍ
ላይ_ብ
ላይ_ት_ም
ላይ_ች
ላይ_ኛ_ዉ
ላይ_አስ_እ
ላይ_ከ
ላይ_የ_ተ_ድ
ላይ_ያለዉ
ላይለይምባል
ላይሲን
ላይበ_ቁራዓን
ላይበ_ኢፌዴሪ
ላይቤሪያበ_አቢዬ
ላይቤሪያን
ላይቤሪያ፤ሴራሊዮን
ላይብ
ላይብረሪ
ላይብራሪ
ላይቭስ
ላይቭስኮር
ላይንስ
ላይኛ
ላይአህግ_ኡሪቱ
ላይየ_ጋምጎፋ
ላይጋይን
ላይፍቦይ
ላይ፤በ_ዓለም
ላይ፤ኢትዮጵያ
ላይ፤የ_አ_ክ
ላይ፦
ላደጉት
ላዱር
ላዲስለ_አስ
ላገሬ
ላገብ
ላጋ
ላጲስ
ላፂ
ላፄ
ላፅሪ
ላፍሪክ
ላፕላክ
ላፖ
ላፖዝ
ሌ_አል_ብ
ሌ_አል_ኡ_ብ
ሌ_አል_ኧ_ብ
ሌ_አል_ኧ_ብት
ሌ_አል_ኧ_ዉ
ሌሂ
ሌለ_ለ
ሌለ_በት፤
ሌለብ
ሌሊሳን
ሌሊሴ
ሌላ_ሰው
ሌላ_በኩል
ሌላ_ቸ
ሌላ_ቸ_ዉ
ሌላ_ቸዉ
ሌላ_ኛ_ው፤
ሌላ_ኦቸ
ሌላ_ኦች_ቁሳቁስ
ሌላ_ኦች_አም
ሌላ_ኦችን
ሌላ_ወ
ሌላ_ውና
ሌላስለ_እዚህ
ሌሌች
ሌል_አቸውየ_ጎደና
ሌሎ
ሌማት
ሌራ
ሌሱ
ሌስ
ሌስሊ
ሌስላው
ሌስሌይ
ሌቃ
ሌበር
ሌቤዴቭ
ሌብ
ሌብልም
ሌተር
ሌተና_ንት
ሌቲ
ሌት_ር
ሌት_ቀን
ሌትናል
ሌቻ
ሌኒን
ሌኒንን
ሌንሳ
ሌንደር
ሌንዲኮ
ሌንጫ
ሌንጮ
ሌክቸር
ሌዋላ
ሌዘር
ሌይአውት
ሌዳ
ሌዳዋ
ሌጀንደሪ
ሌጋሲዮን
ሌግዋላ
ሌግዋይላ
ሌግዌላ
ሌጐስ
ሌጥ_አ
ሌጦ
ሌጦየ_አበባ
ሌጦ፤
ል_ሁኽ
ል_ሁ፥
ል_ሃ
ል_ሃለ_ሁ
ል_ሃገር
ል_ለ_ሁ
ል_ለ_መ_ጥ
ል_ል_ዎት
ል_ሐል
ል_መ_ብ
ል_መ_ን
ል_መ_ግ
ል_መንገድ
ል_ም_ኢኒስትር
ል_ም_ኢኒስትሯ
ል_ምመ_ጅ
ል_ምማርቆስ
ል_ምዮሐንስ
ል_ሰው
ል_ሲሉ
ል_ሲሉም
ል_ሲል
ል_ሽ፥
ል_ቅ
ል_በ_ቤት
ል_በ_የ_ድ
ል_በ_ደቡብ
ል_በ_ድ
ል_በ_ግ
ል_በት_አ_ለ
ል_በት_አ_ለ_ች_ጠሚ
ል_በት_አ_ለች_አፈ
ል_በትየ_ሚ_ም
ል_በት፤
ል_ቢሮ
ል_ባለ
ል_ባላህና
ል_ብ_ለ
ል_ብ_ቸው
ል_ብ_ች
ል_ብ_ን_እ
ል_ብ_ን፤
ል_ብ_አቸዉ
ል_ብ_አችሁ፤
ል_ብ_እ
ል_ብን
ል_ተ_ለ_እ
ል_ተ_ም
ል_ተ_ስ
ል_ተ_ች
ል_ተ_ን
ል_ተ_ው_አል፤
ል_ተ_ውት
ል_ተ_ግ
ል_ተ_ፈት
ል_ተ_ፍ
ል_ተመድ
ል_ተማረ
ል_ተኛ
ል_ተው
ል_ቱ
ል_ታ_ል
ል_ታ_ም
ል_ታ_ሽ
ል_ታ_አምር
ል_ታ_ው
ል_ታ_ዝ
ል_ታ_ጥ
ል_ታ_ጽ
ል_ታ_ፅ
ል_ት_ህ
ል_ት_ሉኝ
ል_ት_ልክ
ል_ት_ር
ል_ት_ሰኝ
ል_ት_ሸ
ል_ት_ብ
ል_ት_ተ_ይ_አይ
ል_ት_ች
ል_ት_አ_ስ
ል_ት_አ_ድ
ል_ት_አል፤
ል_ት_አስ_ተ_ል_እ
ል_ት_አስ_ት
ል_ት_ውል
ል_ት_ይ
ል_ት_ጅ
ል_ቷ
ል_ቷን
ል_ቻ
ል_ች_ኋል
ል_ችሁ
ል_ችታንዛኒያ
ል_ች፤
ል_ነት
ል_ነት_አም
ል_ነው፤
ል_ኑት
ል_ና_ም
ል_ና_ር
ል_ና_ስ
ል_ና_ሽ
ል_ና_ው
ል_ና_ዝ
ል_ና_ፍ
ል_ን_ብ_አቸው፤
ል_ን_አስ
ል_ን_አስ_ተ_ል_እ
ል_ን_አስ_ት
ል_ን_አስ_ት_እ
ል_ን_አስ_ን
ል_ን_አስ_እ
ል_ን_አስ_ክ
ል_ን_አስ_ው
ል_ን_ወነጅ
ል_ን_ይ
ል_ን_ጋጭ_ብ
ል_ንመተከል
ል_ኝ_ም፤
ል_ኝ_አል፤
ል_ኝያኔ
▁የ
▁እ
▁አ
▁በ
▁መ
▁ነ
▁ይ
▁እን
▁ከ
▁ለ
▁ነው
▁ተ
▁ያ
▁ወ
▁ማ
ቸው
▁ስ
▁ም
▁የሚ
▁እና
ዎች
ላይ
▁ብ
▁ው
▁።
ል።
▁ሰ
▁እንደ
▁ግ
▁ላይ
▁አን
▁ሁ
ዚህ
ነት
▁የተ
ስጥ
▁አይ
ንም
▁ት
▁ደ
▁"
▁ውስጥ
ገር
▁ይህ
ለው
ችን
▁ነው።
▁ጥ
▁ል
ጊዜ
ለም
▁ቀ
በር
▁ወደ
ሆነ
▁ጊዜ
በት
▁ግን
▁እንዲ
▁ባ
▁ለመ
ንድ
ሆን
▁ስለ
▁አስ
▁በመ
ውን
▁፣
ሪያ
ቶች
ለሁ
▁ጋ
▁ዓ
▁ሲ
▁አለ
..
▁ሊ
▁ሁሉ
▁ለማ
▁ክ
▁ነገር
▁1
▁ድ
▁የመ
ለት
▁በአ
▁ነበር
▁ገ
▁ጋር
ም።
ርስ
ችላ
▁ታ
▁ዘ
▁አንድ
▁፡
▁በተ
▁በእ
▁2
▁(
▁አል
ችሁ
ተኛ
▁መን
▁የአ
ፈል
▁የእ
ደር
▁ና
ስት
ሆኑ
▁የም
▁ወይ
▁ቤ
▁እኔ
ትን
▁ይችላ
ለን
ጣም
▁እነ
▁ፍ
▁ካ
▁ቢ
ድር
▁ሳ
▁በጣም
▁ጠ
ሁን
▁ሰው
ደረ
ያን
▁ምን
▁አይደ
▁የሚያ
ድረ
አብ
▁-
▁የማ
▁ጉ
ግዚ
▁እየ
ጀመ
▁ብዙ
በረ
▁ቅ
ርሱ
▁ኢ
ራት
ግዚአብ
▁ወይም
ሔር
ስተ
▁እስ
▁ብቻ
▁ፈ
▁ሆ
ዚያ
ምን
ግዚአብሔር
▁ሕ
ቸውን
▁ህ
▁ናቸው
ገባ
ንያ
ሮች
▁ይህን
ኛው
ንግ
▁እንዳ
▁ሌ
▁በዚህ
▁በማ
▁እንደሚ
▁መል
ላል
▁ሰዎች
ረት
▁ደግ
ረጃ
▁ሥ
ሉ።
ንተ
▁ዓመ
ናል
መለ
ዋል።
▁ምክ
ገድ
▁ደግሞ
ርት
ሎች
ዋል
▁ከእ
ማሪ
ፊት
▁አይደለም
ኋላ
▁ያለ
...
▁አላ
ቅር
ዳን
▁ከተ
▁ነበር።
▁አገ
ቱን
ሰብ
ድረግ
▁በሚ
ባት
▁ያለው
ርስዎ
▁ዋ
▁አሁን
▁ሙ
▁ሚ
▁ሀ
የት
▁እኛ
▁መስ
▁ቁ
▁ቀን
▁በኋላ
ከል
መል
መስ
ይወ
▁እንዴ
ታት
መን
▁ምክንያ
ጠቀ
ዎችን
▁ን
▁ጉዳ
▁ች
▁ዝ
▁ባለ
ችል
ትም
▁አም
▁ያስ
▁3
ኔታ
ከተ
▁ማን
ያው
▁.
00
▁ዕ
▁ለእ
ኖር
▁ቦ
▁ክፍ
ጀመሪያ
ረው
▁እያ
▁ነገ
▁ሁኔታ
▁ምር
ግር
▁ቤት
ዲስ
▁ማለት
ዛሬ
ላቸው
ነው
▁እንዴት
ሉት
▁እር
ናት
▁ምንም
ገና
ላት
▁አብ
▁ከአ
▁አስተ
ቃል
ሰማ
መጣ
ኘት
▁ጨ
ሪካ
▁እንዲህ
ስታ
▁በላይ
ለሁ።
▁እግዚአብሔር
▁አካ
ህን
ሳይ
ኞች
ቀር
ረስ
ራዊ
ቱም
ሰው
▁መንገድ
▁ስለዚህ
ለያ
▁መጠ
▁ከፍ
▁ከመ
ቅም
ታል
▁ራ
▁ሞ
▁ጥሩ
ባቸው
ሉም
▁ይሆ
▁ቦታ
▁እው
ጨማሪ
ቢያ
▁ሥራ
በሩ
ለች
ግባ
▁ሆኖ
▁እሱ
▁ሁሉም
▁20
ልቅ
መር
ሰራ
▁ሌላ
▁እስከ
▁አው
▁አንተ
▁ሆነ
ወቅ
▁እነዚህ
ፈልጋ
▁ሳይ
▁ዓመት
ጀም
ዝብ
ብር
▁ይችላሉ
▁ይችላል
ት።
ህል
ነበረ
ጆች
ያስ
▁አመ
ካከል
ዎቹ
▁የበ
▁ቆ
▁ፕ
ለህ
▁ከዚህ
ባል
▁ኮ
▁ሴ
ጨረ
ጠቃ
▁መንግ
ወሰ
ናል።
ላችሁ
▁ላ
▁ሃ
ድን
ከት
ጣት
▁ድር
ቦች
ታው
▁‹
▁ኃ
ጥር
▁የሆነ
ይወት
▁እንኳ
ክት
▁በቀ
▁አድር
▁ከሆነ
▁እንዲሁ
▁ዛሬ
ተው
ገን
ገው
ዎን
▁4
ዶች
▁በፊት
▁ለአ
ይል
ግኘት
▁ማድረግ
ምህ
▁ብሎ
በል
▁ዓይ
ያቄ
▁ደረጃ
▁5
▁ልጅ
▁ዳ
▁መካከል
ላክ
ዓት
ገኛ
▁አት
▁እየተ
▁የለም
ረዳ
▁አማ
ኝ።
ጌታ
ፍት
▁እርሱ
▁መሆኑ
▁ድረስ
ረጋ
ግብ
▁ከዚያ
ዘብ
ወጣ
ፈለ
▁ያል
ትዮ
ሚያ
▁ጥያቄ
ጨረሻ
ሠራ
ክል
ጠር
ንስ
▁አዲስ
ሄድ
ናገ
ርግ
ለጠ
▁ይህንን
ታዊ
ባቢ
ግል
ምና
▁መሆን
▁አባ
▁የት
ልግ
▁መረጃ
ሱስ
▁ተመ
ኖች
ሳት
ኛውም
▁ስም
▁ዘንድ
ለኛ
▁ኤ
▁ያህል
▁ጉዳይ
▁እጅ
ትዮጵ
▁ሁለት
ግራ
▁ጣ
ርድ
ታል።
▁ቤተ
▁ጎ
▁አስፈ
re
ምር
ንን
▁አንዱ
▁እዚህ
▁እንጂ
▁አንዳ
ሎት
ስፋ
▁ናቸው።
ውም
የሱስ
▁ይሄ
ቶችን
ሪክ
ገኘ
ማት
ለን።
▁ይጠ
▁የወ
ስራ
ሰጠ
▁የማይ
▁ቃል
ላጊ
ነቱ
ዓለም
▁ምክንያት
▁በር
▁ሁለ
▁ጽ
▁እንደሆነ
ቀት
▁አሉ
ታቸው
ሜሪካ
ገለ
ሱን
▁ከፍተኛ
▁አለው
▁ዓለም
ራል
ቤት
ዎት
▁ትን
▁በየ
ረብ
ገኙ
▁C
ልም
ደን
▁ተቀ
ቀው
ጠቀም
ኩል
▁ወቅ
ሳሌ
ሳብ
▁M
▁‹‹
ነሳ
ገኝ
▁በም
ወስ
▁ማስ
ሞች
ን።
▁ሐ
ዘጋ
ችንን
▁አያ
▁ለምን
▁ገን
ዲያ
ደው
▁አገልግ
ትዮጵያ
▁ስራ
ወዳ
▁ቡ
ይት
▁የኢ
ላል።
ለያዩ
▁ፓ
▁'
▁አስፈላጊ
ናው
▁ይመስ
▁ልጆች
▁ውጤ
▁ፕሮ
▁ትምህ
ማር
▁ነገሮች
▁እናም
▁ችግር
ተር
▁ይሆናል
ኝነት
ገል
▁ር
▁አይደለም።
▁እንኳን
▁አሳ
ጽሐ
▁ጀም
ቀጥ
or
▁ይህም
▁ሙሉ
ንት
▁እርስዎ
ዋታ
ጣን
▁ስል
▁እናንተ
ቻል
▁ሽ
ኤል
▁የመጀመሪያ
▁እንዲሁም
ስተኛ
ሳሳይ
ፈልግ
ረን
▁ሊያ
የር
▁መተ
▁፤
▁የታ
ያንዳን
▁አቀ
▁ዓመታት
▁አንዳንድ
ጠና
▁ዜ
▁መግ
ከር
ደርጋ
ሁሉም
▁ሊሆን
▁አለበት
▁መሆኑን
▁ኩ
▁ፖ
▁ክፍል
▁ሂ
▁መብ
▁የምት
▁ሌሎች
ደት
▁የሚያስ
ቂያ
▁አሁ
ጠራ
ደም
▁የምን
ካም
▁ጭ
▁ወን
▁6
▁በሙ
▁ሲሆን
ለይ
ርስቲ
▁201
▁የለ
ሞክ
▁በጥ
ጠበ
▁የው
▁ዋጋ
▁በእርግ
▁ረ
▁ያሉ
▁ልዩ
››
▁ስር
▁የነ
▁ከሚ
▁በአንድ
ላው
▁መሰ
▁ወቅት
ገራ
በብ
▁አደ
ከራ
▁ቅዱ
▁በት
▁የቀ
▁ጌታ
ላሉ
ሪዎች
▁የበለጠ
▁ለም
ዲህ
▁አሁንም
ው።
ግበ
ሰጣ
▁ኢየሱስ
:1
ሥራ
ሩን
▁ጨዋታ
▁ተስፋ
ላም
▁ይሁን
ነዚህ
ከታ
▁ወር
▁ምስ
ፈልጉ
▁8
ዮች
ትና
ደረገ
▁7
▁ከተማ
▁ፋ
▁እነሱ
▁A
▁ብር
▁ጀምሮ
▁ነኝ
▁ዕድ
▁እድ
▁ዓይነት
▁በፍ
ፈው
▁መጥ
ምነት
▁ይገባ
▁አለብ
▁ቀላል
ሁኑ
▁የስ
▁10
ላቅ
▁ለዚህ
▁ተጨማሪ
on
▁ገንዘብ
in
ካታ
▁ትምህርት
▁የህ
▁እንድ
▁ብዬ
▁አልተ
ንግድ
ያንዳንዱ
ቀመ
ውቃ
▁እጅግ
ሽን
ለቲ
▁በኢ
▁በተጨማሪ
▁የእርስዎ
ጓደ
ቷል
ናንተ
ሆንም
▁አምላክ
▁ኦ
ናገር
▁መር
▁በታ
ሩት
ዛት
ታችን
▁በሌ
▁የራ
ጀመር
ቂት
ችሉ
መው
ሻለ
▁ነበረ
ላማ
ቸው።
▁ሶ
▁ዘመን
▁ዶ
▁የሰ
ሥት
▁ወንድ
▁ተግባ
er
▁ይችላል።
▁መጠን
ታወ
ዲዮ
ነጋ
▁አድ
▁ልብ
▁ትልቅ
ነሱ
ምት
▁ትክ
▁በሙሉ
ቻቸው
▁የሚል
▁መለ
ሰጥ
▁ምክንያቱም
▁ቃ
ላለ
▁መጽሐ
ቤተ
20
▁ካል
ከፍ
▁ማህ
በው
ምሮ
▁ለው
ግና
▁/
መረ
ጫወ
▁በሰ
ዮን
ሳቸው
▁እንግ
▁19
▁ቅዱስ
▁በው
ርዝ
▁በስ
ባንያ
▁የግ
መሰ
▁የእግዚአብሔር
▁ሁሉንም
▁ፊ
ቻችን
▁በእርግጥ
ብረ
ወደ
▁ለሚ
▁አጋ
▁የባ
መራ
::
▁ትንሽ
▁ጸ
ጠት
▁P
▁የሕ
ደርግ
▁አገር
▁ዲ
▁እንዲያ
▁ከማ
▁በዚያ
▁በኩል
▁ተብ
ግበሪያ
ፈር
ለች።
▁አዳ
ልፍ
ጦር
▁9
▁ኪ
ከላ
▁እውነ
ደረግ
▁ለተ
ለቲካ
▁ለማድረግ
▁ችግ
▁ታሪክ
▁ከባ
▁ያለውን
▁ቁጥር
ንቀ
▁ድን
▁አር
▁ለማግኘት
▁ዩ
▁መሠ
ላጎ
▁በራ
▁በሕ
▁እንደገና
ልን
▁ዋና
ዝቡ
ረጥ
ሆና
ኛል
መልከ
ሰባ
▁አይነት
ብዙ
▁አማራ
▁ማግኘት
ችኋ
ክር
▁ሁል
መና
▁ተመሳሳይ
ሰጡ
ሮችን
የው
▁ስለሆነ
ፋት
▁ድርጅ
ጥነት
▁ድም
▁መልካም
ገብ
▁ምንድ
ታይ
▁ሆይ
ውል
▁ዙ
▁የሚለው
▁ይዘ
▁አካባቢ
▁ሲያ
▁ቢሆን
▁ባህ
▁እነርሱ
▁ስት
▁ሄ
▁እንዳለ
▁ተፈ
መለስ
▁እኔም
▁በእው
▁ቪ
ኖሩ
ራቸው
ለመ
ጠብ
▁ስሜ
▁ግንኙ
▁ትር
▁ፊት
▁ነፃ
ገቡ
▁የተለያዩ
ፈስ
▁ቋ
▁ሰዓት
ከሰ
▁ያሳ
ct
▁ሳይሆን
▁አገልግሎት
ምንት
▁እውነት
▁መተግበሪያ
ክስ
▁ፍላጎ
▁ይገኛ
በቃ
▁ምርጫ
ጠቃሚ
▁ጥቅም
ፍራ
ቷል።
▁ብለው
▁የነበረ
ቅድ
▁አለ።
▁ፍቅር
▁ሆኖም
ድሞ
▁እንቅ
▁በነ
▁መቀ
ማይ
▁S
▁በተለይ
▁ነበሩ
▁ጓደ
ብኝ
▁መመ
ቹን
ስማ
▁ኩባንያ
ንቋ
▁ሕይወት
▁እንደተ
▁ደን
ስብ
▁ሴት
ርቲ
▁ቀናት
ተኞች
ደረጉ
▁ግብ
ጤና
ንኛውም
ችንም
▁በርካታ
▁በደ
▁አቅ
ልክ
ረጋገ
ጠሩ
ሰቡ
▁መው
ቃት
ፖርት
ንዳ
▁አብዛ
▁ቴ
▁ስብ
▁የለም።
▁...
ገደ
▁ስን
ርያ
ደርጉ
ተት
▁ኢን
▁መንግስት
ቶስ
ሻሻ
▁Me
ሣሪያ
ደግ
▁በል
መት
ብረት
▁እርግ
ኩት
▁መጽሐፍ
ይና
▁ማሳ
ቸዋል።
ጠይ
▁ውድ
▁መደ
ይን
▁በዓለም
ነገ
ናወ
▁በተጨማሪም
ተኛው
ጥሮ
▁ደስ
▁ይቻ
▁ዝግ
▁የል
▁ጠቅ
▁?
ምጃ
▁ማንም
▁ፈቃ
▁ምድር
▁በዓ
▁ሸ
ለማ
▁ከዚያም
መድ
▁እንዳይ
▁ጀ
▁ጣቢያ
▁ኃይል
ገነ
ናልባት
ለኝ
ሁለ
▁ተማሪ
▁Cor
ባይ
ጅም
መለከተ
▁ማስተ
▁ከሌ
▁ሜ
▁በግ
▁ይልቅ
▁ተቋ
ጠቃላይ
▁ገና
ጀት
ሊዮን
ች።
ላፊ
▁ተጠ
▁አፍ
ያዝ
▁ይሆናል።
st
▁ይፈልጋ
ጠፋ
▁ሪ
rect
አት
ከብ
▁የተሻለ
▁ታላቅ
▁ምናልባት
▁የእኔ
ረድ
በትን
▁ፎ
ችልም
▁እባ
▁ህዝብ
▁መጣ
▁ሲል
▁ባል
▁Correct
ርስቶስ
ንካ
ጠረ
▁ቅር
▁ምርጥ
▁የፈ
▁አሉ።
▁ፀ
▁ተመል
▁ንጉ
▁የሌ
ርስቲያን
▁ቅድ
ተን
ዋን
ሶች
ቸዋል
▁ሕዝብ
▁ኖ
▁ይቀ
ሁለት
▁አካል
▁መንገ
▁ዝርዝ
ውያን
ስን
▁አልነበረ
ታቸውን
▁መዝ
an
▁የለው
▁መሳ
le
▁ግንኙነት
▁[
▁አቀፍ
▁አበ
ላዊ
▁እራ
▁መሣሪያ
▁መልስ
ስቃ
▁ልክ
▁ሦ
▁አለመ
ስታወ
▁ገጽ
በያ
ሙያ
ያንስ
▁በመሆኑ
ኑን
▁ቋንቋ
ገት
▁መቼ
▁ሥር
ለየ
▁ተጠቃሚ
ጠኛ
▁የተወሰ
ቨር
ራሽ
ም፤
▁መም
ና።
ሉን
ሃል
▁ማየት
▁የሰው
▁ለማስ
▁ውጭ
▁ግል
▁ነው፤
▁ከባድ
▁በወ
ይታ
ነስ
▁!
▁መታ
በራዊ
▁15
▁ድጋ
ከናወ
ህና
ጠቀሙ
ታማ
▁እርምጃ
ገዛ
▁መንግሥት
ፈራ
ሰበ
▁መድረ
▁ሠ
ቀም
ሮፓ
ካት
ልቁ
▁ወጣ
ጋት
ጎች
▁ትክክ
▁12
ሬት
ላሽ
ፉት
▁ያልተ
▁ትኩ
▁እነዚህን
▁ማወቅ
▁አስደ
ነርሱ
ወድ
▁አሜሪካ
▁የጥ
▁እያንዳንዱ
▁ጥቂት
ሰድ
▁የእኛ
▁የዘ
ቆጣ
ያዘ
በቅ
▁ዙሪያ
▁ሴቶች
ar
በኛ
:2
ነግ
▁i
▁ያው
ብራ
ስቃሴ
▁ዮ
▁ቢያንስ
ትምህ
▁መሠረት
ቆም
▁ይሆን
▁አግ
ኪና
▁ቀጥ
ህም
እኔ
ሰር
ባለ
▁በቅር
ወለ
▁ተና
ካከ
▁እኮ
▁ተጫ
▁ተገ
▁ነጻ
ንደ
ሳኔ
ዳል
▁ሺ
▁የዚህ
▁ክል
ችሁን
at
ጠው
▁በአሁኑ
▁አስተያ
▁እሷ
ሞት
ሪቱ
ርክ
ምገ
▁ብለ
▁T
▁ያላቸው
▁አለው።
▁ተብሎ
▁በህ
▁200
ፎች
ልኝ
▁በማለት
▁ይታ
▁11
▁ማዕ
ንክ
▁ያን
▁ምግብ
▁የፍ
▁ይሰጣ
▁ዜና
ቴን
▁ዐ
▁እስኪ
▁የሆኑ
ጠል
▁N
ኮኖ
ሊዝ
ክምና
በልጥ
▁መፍት
▁ፕሮግራ
▁ሀገር
▁መግለ
▁እርሱም
ጋራ
ቾች
▁ስለሚ
▁ይኖ
▁ቡድን
▁እንቅስቃሴ
ኞቹ
▁በታች
ተዋል።
ሃን
ቅረብ
በላ
ዋቂ
ረም
ጡት
▁ጦር
ራል።
▁ማንኛውም
▁ልጆ
ልጣ
▁ካለ
▁እዚያ
▁አጥ
▁ባይ
▁ለውጥ
▁ነጥ
▁ሚኒ
▁ሁልጊዜ
▁ፓርቲ
ንና
▁የተፈ
▁አደጋ
▁ይፈ
ቂቃ
ችለው
ou
ሎጂ
▁ዘር
ካል
ሎችን
▁የደ
▁በመጨረሻ
ኖረው
▁ፍላጎት
▁ወዳ
▁ድጋፍ
▁ለመስ
ሁት
▁የፖ
▁18
▁ቪዲዮ
ገንዘብ
▁ውጤት
ትምህርት
ዳት
መልከቱ
▁ይላል
ነቶች
▁ያላ
▁አንዳን
▁አመት
ወጥ
▁ማለ
▁ጉዞ
▁ቢሆንም
ናቸው
▁በይ
ይማ
▁መጨረሻ
ኛል።
ብን
▁ትክክለኛ
ሳተ
▁ጫ
▁ኢትዮጵያ
▁ርዕ
ሰጠው
ያት
▁W
ዋለሁ
▁የክ
ተዋል
▁መጀመሪያ
▁አያስ
▁መብት
▁ጽሑ
ሰን
ሲቲ
የቅ
▁ብት
ቀረ
▁I
ሰሩ
▁ለምሳሌ
ምገማ
▁ሂደት
▁E
ስራኤል
▁ውሳኔ
ራን
▁እባክ
▁እምነት
▁ስሜት
ነትን
19
▁ጥቅ
en
ፈለግ
ይማኖ
▁ኳ
ጋሪ
ኒቨር
▁ይቅር
▁ተደ
ያል
ሏል።
▁ይኖር
▁በሌላ
▁በትክ
▁እንዳል
▁በረ
▁G
ኒቨርሲቲ
ቀቅ
▁ግድ
▁ደቂቃ
▁ነህ
ታዎች
▁ያስፈልጋ
▁አለባቸው
▁እንደዚህ
....
ቃሚ
ro
▁ቀር
▁ያደርጋ
ችው
▁ነን
ቋቋ
▁የንግድ
ዳር
▁ጠቃሚ
ደረገው
▁ሰላም
▁ለእኔ
▁መጠቀም
ጫወት
▁14
▁በቂ
▁ዝርዝር
ቶቹ
▁ንግ
▁ገብ
▁ሳምንት
ሞክራ
▁በሽ
▁ማስታወ
▁ግምገማ
▁ፖሊ
▁በበ
▁በመጀመሪያ
▁በመቶ
▁በቀላሉ
ኮች
ኝም
ዚሁ
▁ቀደም
▁ሚሊዮን
▁ይችላሉ።
▁እፈልጋ
▁እስካ
▁መፍ
ተና
▁ፎቶ
ንቅ
▁እንደሚያ
ገኘው
ካሄ
▁ዓላማ
ዳደር
▁አግኝ
▁በመስ
▁ተወ
▁በክ
▁መነ
ጠበቅ
▁ወረ
▁የሚከተ
▁መንፈስ
ረጋግ
▁ስላ
▁ምክር
▁መድ
ከፈ
▁የገ
ረዳት
ሰት
ዝና
▁አታ
ያዊ
ሳዊ
ሙን
መልከት
▁ቻ
ጥታ
ቡር
ዎታል
ኩ።
ያኔ
▁ምል
▁ዘመ
▁ጉዳዮች
it
ቀኑ
ክኖ
▁ምሳሌ
ማን
ቦት
ቀል
ደርስ
▁እንችላ
▁13
ላር
▁የሙ
▁አገልግሎ
▁ስህ
ጀመረ
▁አክ
ብት
▁አለበት።
▁ሁላ
▁በድ
▁መግለጫ
ፈለጉ
▁ተቃ
▁እነሆ
▁የመጨረሻ
▁B
▁መኖር
ዘን
▁ይመ
ቀመጥ
ጣሚ
▁የብ
ጮች
▁ነፍ
▁አመሰ
ፊያ
▁30
om
ሏል
000
▁የተባ
▁የሞ
ic
▁ሀገ
▁አላቸው
▁አሸ
▁የዓለም
▁መመሪያ
▁በሆነ
ችልም።
▁ልም
▁ታዲያ
መለከ
ዘር
▁ሕግ
▁የሚችል
▁አሰ
▁ብለን
ዬን
▁የካ
▁ቁጥ
ዛዝ
ማል
ልህ
▁የሚቆ
▁የግል
ወር
ዲያው
▁ዘዴ
▁ፕሬ
▁ፈቃድ
">
ጹም
ዱስት
ቀስ
ስቱ
▁ለማሳ
▁እርስ
ረተ
▁ፕሮጀ
ነፍ
ለል
ኮኖሚ
▁ተደር
▁ተጫዋ
▁ተራ
▁አዎ
ቀድ
ዚቃ
▁አባት
▁ሩ
▁R
▁ትርጉ
▁F
▁አፈ
ንም።
▁አድርጎ
ከፋ
ፈጸ
▁ራስ
▁ችሎ
▁አላው
ምላክ
ፈልገው
▁ትኩረት
▁ያንን
▁ገል
ውሮፓ
▁ገደ
▁ኑ
ክኖሎጂ
▁ውሃ
▁የተመ
▁በእግዚአብሔር
▁ድርጅት
▁አነ
▁ደር
▁ስፍራ
ላን
ቤቱ
ነበር
▁ከም
ረዱ
ዊት
oo
▁የመጀመሪያው
▁ያሉት
▁መሳሪያ
▁ተናግ
▁ያድር
ገራችን
ልጣን
al
ንቀሳ
የሁ
▁ይመልከቱ
▁መሥ
▁መስጠት
▁እም
▁_
▁ማው
ሰቦች
ቻቸውን
▁ተማሪዎች
▁አቶ
▁ሮ
▁ባለው
▁ምላሽ
▁መልኩ
▁በግል
ጠቅ
ንካራ
▁የሚሰጡ
▁አያው
ሪው
▁ለመግ
▁ወጥ
▁ጥራት
▁+
▁ደህን
ዋት
ንግስት
ጣል
▁በጭ
▁ይመስለኛ
▁ኣ
▁ጆ
▁ጤና
▁ክፍያ
▁የመስ
▁አዳዲስ
▁ለመቀ
ማማ
ም፣
ሴት
ታችሁ
ሊት
▁አማካ
ለፍ
▁በፍጥነት
▁ልን
▁ምንድን
ሳል
▁ለእርስዎ
▁ግለ
▁ይበልጥ
▁ክርስቶስ
▁በስተ
▁እውነተኛ
▁ከወ
ዳታ
▁ከአንድ
▁ይቻላል
▁16
▁ኳስ
▁c
ዕራ
▁የተለየ
▁አራት
ሩ።
▁ዕድሜ
▁አለኝ
▁በብ
ጭር
▁ናት
▁*
ዚያን
▁D
▁ወይስ
▁መሪ
▁እኛም
▁በዚህም
▁የተቀ
▁ሁለቱም
▁ይመጣ
▁ዶላር
▁ቤቱ
ጠን
▁ባለሙያ
ረዋል።
▁በተመለከተ
ከተማ
▁በትክክል
ምፒ
▁የአሜሪካ
▁ትዕ
▁እርግጠኛ
▁እሱን
▁በማንኛውም
ጋይ
ገረ
▁ሱ
▁ችግሮች
▁ይሰማ
▁በተመ
▁ነገሮችን
▁ቅድሚያ
ቁት
ረጋገጥ
▁ለዘ
▁በየቀኑ
ሜን
▁እንድት
▁ጓደኛ
▁የመጣ
▁ዩኒቨርሲቲ
በሩት
▁ስለሆነም
▁እኔን
ደገ
▁አማራጭ
▁ቆይ
▁ሦስት
▁ወጪ
▁አቅር
ዲሱ
▁እንግዲህ
▁መላ
th
በኞች
▁አስቸ
▁17
▁ውይ
▁ኃጢ
መጡ
▁ተወዳ
▁ከሰ
ነጋገር
ባዊ
▁ሆነው
ርስቲያ
▁አስተያየት
በሉ
ዳሚ
▁ለሌ
▁ፍርድ
▁ተግባር
ቡብ
▁የሚፈልጉ
▁የፖለቲካ
▁አውቃ
▁የቆ
▁መኪና
ቸውም
▁የሥራ
ሎስ
ለውን
ርባ
ላህ
▁አመሰግና
ቻለ
መጥ
ሳቸውን
▁በባ
ፈልገ
ፈት
:3
▁24
▁የሆነው
▁ጠንካራ
ላለም
▁ተሰ
▁ክርስቲያን
▁አሉት
ውስ
ኬት
ውልድ
▁በሁሉም
▁H
▁መልእ
ቦችን
ጅት
▁ስብሰባ
▁ቤቶች
▁ተጽ
▁ጥያቄዎች
ደርገው
▁ተከታ
▁ሺህ
ራሉ
ታደ
▁በእውነቱ
▁ኖሮ
ሴቶች
▁ነዉ
▁የጎ
▁ያግ
▁ጋዜ
▁ጽሑፍ
ናቂ
▁ምርት
▁ስርዓት
▁እስካሁን
▁ግራ
ከለ
▁ሰዎችን
▁የሚገባ
▁ትችላ
ስር
ጥረት
▁ክልል
▁ሠራ
▁ሌላው
▁ሰር
ጣሪ
▁በደን
▁ይባ
ዲት
ባብ
ገሪቱ
አል
መቱ
ያዙ
ከፍተኛ
es
ቁር
▁ተስማ
▁ትልቁ
ጣይ
▁ዝም
▁አንደ
▁ወላ
▁25
▁አባላት
ቁም
ዱት
ጋና
▁መቅ
▁በምድር
▁ንግድ
▁ያስተ
ብዛ
▁ጨምሮ
መም
▁ይቆ
▁L
▁የድ
▁የምና
ሩም
▁ሁላችንም
▁ያድርጉ
▁የምታ
ባሉ
ነቱን
▁መስመር
ካባቢ
▁ቡድ
▁ቶ
▁ይናገ
▁ቤተሰብ
▁አይመስ
▁ፈጣን
▁አቅም
▁የኮ
▁መሄድ
▁ብቸ
▁ዝቅ
▁ልት
ንቃ
ከው
ደረሰ
▁ለራ
▁ስልክ
▁እነሱን
ቅርብ
▁በተመሳሳይ
ለህ።
▁ሰዓ
ታን
ጥፍ
ከታተ
የም
▁ሰጥ
▁ከል
ጋሚ
ግም
ራር
▁ደስታ
▁ወዲያው
▁ክብር
▁ህይወት
▁አበባ
ቅና
ጠላ
▁መለያ
▁እፈልጋለሁ
▁የሚታ
▁አዝ
▁መቶ
ጥረ
ደጋ
▁ወገ
▁መሰረት
ርሃ
ስቡ
▁ለሁሉም
▁አይችልም
▁ሀሳብ
ሴን
▁በጉ
▁የቤተ
ሻሻል
ፖር
ቅም።
ግን
▁አብዛኛ
▁በማድረግ
▁ክፉ
▁ሻ
▁አምስት
▁እንደማ
ሳች
ስና
▁ሰብ
▁እችላ
▁መንገዶች
am
▁ሚኒስት
▁ከላይ
▁እንዲያው
▁ሲሉ
ከባ
▁ግልጽ
ላንድ
▁ይገባል
▁ያውቃ
▁በመን
ኔት
▁ገበያ
ንጉ
▁ጦርነት
ርም
▁መሆና
▁ይገባል።
▁አባል
▁ይፈልጋሉ
ለሁ፤
ሯል።
▁መዋ
▁ጥረት
▁መክ
▁መልክ
ሳን
▁ሆኗ
▁መጥፎ
ወጡ
ኪያ
▁በቅርቡ
ላቀ
▁ኃላፊ
▁ተሳ
▁ለማወቅ
▁እንደም
ፈን
▁ተነ
▁አጋጣሚ
▁የኤ
▁ነኝ።
ለጋ
▁ግንባ
▁በተለይም
▁ከጥ
▁ሰማ
ከተል
ምረ
▁መጻ
▁በመሆኑም
▁እነርሱም
▁በቃ
▁የነበረው
▁መልዕ
▁ለማየት
▁ኃይ
ራው
ሄር
▁በቅ
ac
▁ዝግጁ
ቀርብ
▁ይኸ
▁ሕዝቡ
▁ዴ
ሪት
▁ሶስት
በታል።
ንተር
▁የሀ
ቡን
▁እግዚአብሔርን
▁ክስተ
▁ለመሆን
▁የኢትዮጵያ
በረሰብ
ደርገ
▁ሕዝ
▁የእርስዎን
▁ክፍሎች
▁ምርቶች
▁ወስ
እምሮ
▁ነበሩ።
ag
ዱን
▁በእውነት
▁ራሱ
▁እያለ
ሊያ
▁የቀረ
▁ምንድነው
▁በሀ
▁ብዙውን
ex
▁<
ዱስትሪ
▁ፕሮግራም
ነበ
ትር
ጦች
መኑ
▁ትርጉም
▁የአየር
▁ዕድል
▁ዳር
ዕኖ
▁አስቸጋሪ
▁ፌ
ጠበቀ
▁መፍትሄ
▁አስደሳች
one
▁ሰራ
▁ደስተኛ
▁አደርጋ
▁እናት
ከላከ
ማሽ
▁በእርሱ
▁ወደፊት
▁አየር
▁የሚለውን
▁ሁኔታዎች
ቀጥለው
ልድ
▁ትክክል
▁ቱ
▁የትምህርት
ሬን
ሉም።
et
▁አቋ
ላሉ።
ድስት
▁ተጋ
▁ንጉሥ
▁ሚዲያ
ያቸው
▁በአጠቃላይ
▁በጎ
▁ግምገማዎች
▁ጉዳት
▁ፖለቲካ
ድረስ
▁ከእርሱ
▁ወራት
ጥም
ገሩ
▁ነዋ
▁ፈጽ
ሔራዊ
▁መኖ
በትም
▁በደንብ
▁በእኔ
▁ይመስላል
▁ሞት
ረፍ
ደል
▁ተገቢ
▁ውጤታማ
▁በተለያዩ
▁ይወስ
▁ሁለተኛ
▁እንደማይ
መለከት
▁ፍጥነት
▁የጉ
▁አልቻ
▁ብለዋል።
▁ስህተት
▁ቀድሞ
▁ፈተና
ሰማይ
ዋቸውን
▁ፋይ
201
▁ድምፅ
▁ምልክት
▁የሚፈ
▁ይዞ
▁0
ሉትን
▁ከእኔ
▁ጃ
▁ተዋ
ወቁ
▁ሁለቱ
▁ወጣት
ጨነ
▁ታውቃ
ሞከር
▁ብርሃን
ከን
ፍሪካ
▁ለመፍ
▁ትራ
▁100
▁ደጋ
▁የይ
▁ወገን
▁አመሰግናለሁ
▁ችሎታ
ሂብ
▁ማህበራዊ
ስጡ
ኒው
ቃል።
▁የአንድ
ረጅም
▁ፍጹም
▁አስታው
ሰል
▁እንድን
ሌክት
ፊቱ
ሄዱ
ዳም
▁በጭራሽ
▁የተነሳ
▁በፈ
▁ጠብ
ጠኝነት
ሞክራሲ
▁ቦታዎች
ረቱ
ዘጋጅ
▁21
ይህ
ኞችን
ራሉ።
▁ወንዶች
▁የሚገኙ
▁እንችላለን
▁ልዩነት
▁አላቸው።
ብረተ
▁ቴክኖሎጂ
ሮፕ
▁ከታ
▁ያገኛ
ጣጫ
▁አጠቃላይ
ጀል
▁ድርጊ
▁ይገኛል
▁ጥናት
ያይ
▁ደብ
▁ምክንያቶች
▁በዘ
የሩ
ሙት
ጊዜው
ከረ
▁እስራ
▁ወዲህ
▁የውጭ
ዳንት
id
ሖዋ
▁የዋ
▁የሚሆኑ
▁ሰም
ናይት
መነ
▁እሱም
▁ለመጀመሪያ
ረታዊ
▁ለል
▁ዱ
▁መንግሥ
▁በገ
ብቻ
ሁ።
ወሰነ
▁ጥር
▁የሚሰጡዋቸውን
▁ባለፈው
ኛውንም
▁ዛ
ላችሁ።
▁ሰነ
▁በሁለ
ይማኖት
ጓዝ
▁እንዲሆን
▁በራሱ
በረታ
▁እግር
▁ገቢ
ገም
▁ይጀም
▁ተጠቃሚዎች
ለው።
ማቸው
▁በቀጥታ
ናን
▁ጳ
ወገድ
▁የምር
ጠየ
▁ይጠይ
ዶቹ
▁የሚሆን
▁ሕይወ
▁ያግኙ
▁ብል
▁አንቀ
▁እድል
▁አልፎ
▁አስተዋ
ደሰ
▁ካር
▁ታላ
▁ከሆኑ
ታም
▁እርዳታ
▁ባሕ
▁አዋ
ላካ
▁ይቀጥ
ዘጋጀ
ቡት
▁አድራ
▁ልማት
ጋዊ
▁››
ረንሳይ
ደረጋ
ደራ
▁ሁሌ
▁የድር
▁የለውም
▁ፍሬ
ቸዉ
▁ደህና
▁የሃ
ሳችን
▁ትውልድ
ርመን
ንግሊዝ
▁የሚችሉ
▁መቆ
ጭት
▁በብዙ
▁22
▁የስራ
▁ነጥብ
▁ከሌሎች
ከላከል
▁ቃላት
▁መሬት
▁ኮሚ
▁የቅ
▁በእኛ
▁የቤት
▁ደረ
ል፤
ለኛው
ቸዋ
▁በምን
▁ጉዳዩ
▁መጋ
ad
ፊዎች
ናገሩ
ሽከር
ወቅቱ
ውና
▁በአን
▁ኬ
▁ከእነዚህ
▁ምድ
▁የኃ
ወቀ
▁ናት።
▁ታዋቂ
▁አይደል
መናዊ
▁ይረዳ
▁የሚያሳ
▁ሃሳብ
▁ገባ
▁23
▁ንብረት
▁በሚያ
ሆነው
▁ማኅ
▁ከስ
▁ይታወ
ቀደ
▁በዝ
▁የኦ
▁ይለ
በራ
▁ጨዋታዎች
▁ለስ
▁ቆን
ክቶ
ሎቹ
▁አገኘ
ቢት
ሽት
▁ይዘት
ሐንስ
ኩም
ay
▁አለን
ፍን
▁ራሱን
▁ለምንድ
ላችኋ
▁ይቻላል።
▁መገ
▁በዋ
ዌር
▁ሥርዓት
▁ያለበት
▁የተወሰነ
ከናወን
ሞላ
የን
▁በአሜሪካ
▁አላህ
ቻለሁ
▁የሽ
ኝም።
▁ይሄን
▁ማስታወቂያ
▁ይላል።
▁በመጠቀም
ሌት
▁አይሆንም
▁ከእናንተ
▁የወደ
ሾች
ንግዲህ
▁አመለ
ግባር
▁ሙዚቃ
መለሱ
▁ትምህር
ሙር
▁አቅጣጫ
▁ተሸ
▁እህ
ext
ሠሩ
ናይትድ
ነሰ
በስ
▁>
ቴት
ገናኛ
▁ስጦ
▁ተከ
▁p
as
ግዳ
▁አልነበረም።
እን
▁አይደሉም
ሐይ
▁እችላለሁ
ኒት
▁በሚል
▁ትእ
▁ለእኛ
ጊያ
ጠባ
ፈለገ
▁ይሰጣል
▁ከነ
▁ሙከራ
ጨት
▁መውሰድ
▁የተለመ
ስቶ
ቋቋም
▁አለም
ቀን
▁በኢትዮጵያ
▁የሚቆጠሩ
ያጭ
▁50
▁መከራ
▁ያላቸውን
▁ይቅርታ
▁ለህ
በለ
▁ስምምነት
▁አላውቅም
▁ፅ
▁የተሻ
▁አገሮች
▁በሰው
▁ህይወ
ዎቹን
ክሲ
▁የገንዘብ
▁ውጪ
ጁን
▁ክርስቲያ
▁የእግዚአብሔርን
▁ቢያ
▁ምዕራ
▁ክብ
▁ተን
▁ቁር
▁መፈ
ed
▁የተወሰኑ
▁በስተቀር
አይ
▁አብሮ
▁ሚስት
▁ማንኛውንም
▁ምንጭ
ሯል
▁አስተዳደር
ክተር
▁ጅ
▁ውይይት
▁ተግባራዊ
ካሪ
ስቲ
ድቅ
ያለሁ
▁ይሻ
▁እኩል
▁ቆንጆ
ዘው
▁ዛሬም
▁በእነዚህ
ቫይ
ልስ
ታችንን
▁አንቺ
▁እኛን
▁ከው
▁መጠበቅ
ዳቤ
▁ምልክ
▁የነበሩ
▁አፍሪካ
▁ባለቤት
▁ብላ
▁ማግ
▁አይገባ
ሳካ
▁አነስተኛ
ስቴ
ቻይና
▁ቅን
▁የቴ
▁መቼም
▁ተሞክ
▁እንስ
▁ጥሪ
ሁድ
▁s
▁ከሁሉም
▁ፒ
▁)
ከላከያ
ችሉም
▁iP
▁ተወዳጅ
ባችሁ
ለዋ
▁አና
▁ብዛት
▁ምርመራ
ሁፍ
▁ለአንድ
ላላ
▁ለማን
▁ከእኛ
ዝም
▁ለወ
ነሣ
▁የዕ
ክርስቲያን
ሳሰብ
▁ነውና
ዳና
▁ይሆና
ከማ
,000
▁ሉ
▁መሸ
ነኛ
▁ጉባ
ሁሉ
▁ዳዊት
ታረ
▁ይጠብ
ህር
▁ሀብ
▁ታሪ
▁በዓል
▁ዜጎች
▁አራ
▁እንደሌ
▁ለማስተ
ዳቸው
▁አይችልም።
▁ሳምን
▁አደረገ
▁ሽል
▁ዞ
▁እስቲ
ፋል
▁ሄደ
▁አገል
▁ተስማሚ
ፉን
▁ፈጽሞ
▁ኩባንያዎች
▁ስታ
ዳጅ
▁የለውም።
▁ሰባት
ing
ዘገ
▁የፕ
ናገረ
ጠረው
ማራ
▁ለዚህም
▁ደህንነት
▁በእርስዎ
▁መድረክ
▁የኔ
▁እንደምት
ካሄድ
▁O
ገመ
▁ማር
ንባ
ርቶ
▁ጥበብ
▁ሰፊ
▁#
ቷን
▁እንደሚችል
ንጫ
▁እወዳ
▁ማጥ
▁m
▁የመስመር
▁ተሞክሮ
▁መናገር
▁አለብዎት
ዴት
▁በሽታ
ሲያ
▁ዕው
ፈልግም
▁f
▁ጉድ
▁ግብር
▁ወሰ
ረኛ
ቆጣጠር
ወስድ
▁የማያ
▁ሰይ
ቀድሞ
▁ተቀባይ
ስቡክ
▁ከበ
▁የፀ
▁መጽ
ያቂ
መለከቱ
ንቃቄ
▁ዕቃ
▁ለመስጠት
▁ወዲያውኑ
▁ይፋ
ቻችሁ
ምጣት
ሳችሁ
ነው።
▁የእስራኤል
▁በከፍተኛ
ሰለ
▁ተጽዕኖ
ክብ
▁ቁልፍ
ሉ፤
200
ጡ።
▁ለዘላለም
▁እይታ
▁ግዴ
ለምን
ዳል።
▁ፍት
▁አይደለሁ
የሩሳሌ
ፀም
ዩት
▁26
▁መስራት
el
ይም
ጠኝ
▁ቲ
▁ወያኔ
ስም
▁ከእነርሱ
10
ገናኘት
is
▁ይተ
▁የሆነውን
ለቅ
▁ማቅረብ
▁የጤና
▁አስደናቂ
ነገር
አንድ
▁አረ
▁ካልሆነ
ጾች
ንነት
▁ስንት
ሳኝ
▁ተቋማት
ሞን
▁የመን
ቋል።
▁ማረ
▁ደቂቃዎች
ንቲ
▁ደም
▁ቀጠ
ሸት
▁በሕይወት
▁በወቅቱ
በት።
ጓል
▁ማታ
ራዊት
ስትና
▁ዋናው
ሳል።
▁መነሻ
ሮን
▁መንፈ
▁መልእክት
▁የዩ
▁ጠይ
ንግሥት
▁ፕሮጀክት
▁ከግ
▁ሊቀ
ያያዘ
▁የቁ
▁ለጥ
▁ድርጅቶች
▁ሊያስ
▁የቅርብ
▁በሃ
▁ጠየ
ሳው
▁ሀሳ
▁መፍትሔ
▁ሪፖርት
▁አድርገ
▁ዝቅተኛ
▁ብዙም
▁ያም
ሸነፍ
▁ባለፉት
▁ማሰብ
▁ሚና
ረፍት
ባለው
ነበሩ
▁እንዲያውም
▁አካላት
▁ያቀር
ናገረው
▁ክፍለ
▁አንተም
▁መምረጥ
ባቸውን
ግዚአብሄር
ቃወ
ተናል
ለቀ
ሥር
▁ይው
:4
ኒያ
ለብ
ዘጋጀት
ጫን
ላለፍ
ቆች
).
▁ይገኛል።
▁ይበ
▁አገልግሎቶች
▁ሶፍት
▁ዉ
▁ጥበቃ
ምም
▁እግ
▁ረገድ
▁ነበር፤
▁U
▁40
▁እንደሚቻል
▁በቁ
▁አጠ
▁የሚመ
▁አዎን
ለበት
ስፒ
ክቱ
ጡን
ጠናቀ
▁የሚያው
▁በሌሎች
▁አለብን
▁አይቀር
▁ሁሉን
▁ለማለት
ደድ
▁ኪዳን
▁አጠቃ
▁ህግ
▁ባለቤ
ደስ
ውሎስ
ስክ
▁እናውቃ
hone
▁ባን
ሰቦ
▁ምስጋና
▁ይመስላል።
ባባ
▁አለኝ።
▁ይመስለኛል።
▁ከዚህም
ዶችን
▁ብሔራዊ
▁በመጨረሻም
▁በራስ
▁ደብዳቤ
▁ጎን
ደብ
▁ጀመረ
▁በጥሩ
▁የግብ
ጎብ
▁አህ
ሠረተ
▁ባህሪ
▁አንዴ
▁ድምጽ
▁ካሉ
▁ለሕ
▁ሰማይ
▁አዲሱ
ሏቸው
▁እድሜ
ሃለሁ
▁ኋላ
ገንባት
ርቅ
ለሽ
▁ጊዜው
ጣዩ
ቻችንን
ዛሬው
▁አድርገው
▁ከእንግዲህ
▁ጀመር
አዴ
▁የህዝብ
▁ነጋ
▁በማስ
እኛ
ቶቻችን
▁V
nd
ጠይቅ
ሳስ
▁አውቃለሁ
▁ታው
▁እመ
ምራ
▁አደርጋለሁ
▁ሂደ
▁በሳ
▁ብዙዎች
▁d
▁ስቴት
ፃናት
▁መልሶ
ጫው
▁ርዕስ
▁ስርዓ
▁ፊልም
▁የፌ
አን
ምሩ
ናፊ
▁መሥራት
▁ከዛ
ለዋል።
▁ብለህ
▁ከተሞች
ወሓ
▁ኢንዱስትሪ
ጠየቅ
▁በእጅ
ዘዝ
▁ቀረ
▁በቤት
ገባት
21
ረዋል
ወሰን
▁የተሰ
ሊክ
▁አንድም
▁አስባ
ጉር
▁አሳል
▁ጥቃት
▁ማስረጃ
ዕል
▁በሚቀጥለው
ልበት
ያል።
▁ያሉትን
ሃል።
ቼን
▁ህዝቡ
▁መጠየቅ
▁የግድ
በታ
▁ሁለተኛው
ጉት
▁ህዝ
▁መደበኛ
ኩት።
ካከት
ዛቤ
▁ተጨ
▁እነሱም
▁ነን።
▁ጠላ
▁በቀን
ንተርኔት
▁(1
▁ክት
ዥን
ውው
▁በግልጽ
▁በቤተ
▁ሁሌም
ጥን
ኖራቸው
▁ልምድ
መሰግና
አዊ
▁ብን
ወረ
ዛብ
ርሻ
ነታቸው
▁ወጣቶች
አንተ
▁በዩ
ስጣ
ለዋል
▁ፕሬዚ
▁ወሳኝ
▁ረጅም
▁ሆን
▁28
▁ሰዓታት
ስሊ
ወራ
▁ቀለም
▁ጨረ
▁አይችሉም
▁የሚጠ
▁ለመጠቀም
▁ክፍት
▁ውሂብ
ናዳ
ፈረ
ሁዳ
▁ጊዜም
▁የሚባል
▁እንደሆኑ
▁የሚመጣ
▁በሁለት
ንዳንድ
▁ፍለጋ
ሱት
▁ሰጠ
ናዊ
▁ጌ
ራቢ
op
▁$
▁ይሰራ
▁ሊሆኑ
▁ተከት
▁እንደምን
ጆቹ
▁መዳ
ጀምር
▁የሚችለው
▁ለመው
▁ፖሊሲ
ገራሚ
▁አውሮፕ
▁ዘመናዊ
ክቶች
gle
ገልግ
▁ጥና
▁መምህ
▁የእርሱ
▁ያስፈልጋል።
ዳሪ
ከሰት
▁ያደርገ
▁የፓ
ንሰ
▁እናደርጋ
▁ማህበረሰብ
▁የምግብ
ርሽ
ብል
▁አንዲት
▁ወታደ
ሌቪ
ፈጸም
▁በካ
ዎቻችን
▁እያሉ
▁የጋራ
▁ለእናንተ
ስቶች
ጽሐፍ
▁አብረው
▁እውቀት
▁አጭር
▁ጻ
▁ይሠራ
▁አይመስለኝ
▁የጨ
▁ካልተ
▁ስጦታ
▁ሬ
ቀበል
▁አየ
▁ቁጥጥር
ረግ
ሌክትሪክ
▁ከኢ
▁ከአንተ
ዕቆ
▁ከእግዚአብሔር
li
▁እባክዎን
ራይ
▁የወጣ
▁ተቀባይነት
▁በላ
▁ያለን
ድሜ
ኝን
ገባው
ፋን
▁ምና
oogle
ለጥ
ተህ
▁ስኬ
▁አስገራሚ
▁t
ኒክ
▁ፊል
ዋዕ
▁እድገት
ኑም
ስተዋ
ገለግ
▁እሳት
▁ሞዴ
ከም
▁ሥጋ
▁ወገኖች
ከበር
▁ደግሞም
▁ሲባል
ስበው
▁በኮ
▁ልጄ
▁የሶ
▁ስላል
ማረ
▁ምሽት
ጨመር
▁የአውሮፓ
▁ፈር
▁ጠቅላይ
ለያየ
▁መማር
▁በተቻለ
▁የራስ
▁የዳ
▁ስድስት
ሞችን
▁ለብዙ
▁ባሪያ
▁እንደነበር
▁ዝግጅት
▁ከፈለጉ
▁የላቸው
▁ደረጃዎች
▁ይወ
▁ሆቴ
▁ስለዚህም
▁በእርግጠኝነት
ኖረ
ጀመሩ
▁በየት
▁ቸ
▁ሐሳብ
ገናኝ
▁2020
ሰስ
ደረጃ
▁እርግጥ
▁መሣሪያዎች
▁ኢኮኖሚ
ቆይ
ብሪካ
▁በኃ
▁ይኖርብ
▁ይወዳ
▁ማመን
ልና
▁ቢሮ
ol
▁አሳይ
▁የአምላክ
ቃሽ
ካባቢው
▁መጀመር
▁ታማ
▁አብዛኞቹ
▁27
እግዚአብሔር
▁ውኃ
ስተር
▁መገለ
▁ወድ
▁ሚኒስትር
▁ማክ
▁ዳርቻ
▁በዕ
▁አገና
▁መዛ
▁ቢኖር
▁ድል
▁ደንበኞች
ግሩ
▁የውሃ
▁እንግሊዝ
ስለ
▁በይፋ
▁አስተሳሰብ
▁ተገኝ
▁የሚወ
ዎችም
ናሽ
ኤስ
ሄዳ
▁ለመሆኑ
ጀራ
▁በዚያን
በታል
▁ሆይ፥
▁እየሰራ
ow
▁ለሰ
50
▁iPhone
▁ይነ
▁የዓ
የአ
▁የሚገኝ
▁የእኛን
ion
▁ማንበብ
▁ንድ
የሩሳሌም
▁ስሙ
ch
ባር
▁ጳውሎስ
የተ
▁አመለካከት
▁በአብዛ
▁አንዱን
▁ኑሮ
▁መጫወት
እና
▁ጥቁር
▁ሰላ
▁አመታት
▁ኃጢአት
ነበረው
▁ናችሁ
▁እንደሆን
ማዊ
▁ያውቃሉ
▁ለእግዚአብሔር
ዚያም
መኝ
ውሞ
▁መመለስ
▁ይሸ
ቪዲዮ
▁ትላ
▁መድሃ
▁ጭምር
ዛው
▁የጌታ
▁የሚያስችል
ሦስት
▁ሙሴ
ላችን
▁ስለተ
▁እግዚአብሔርም
▁አሻ
▁ግንባታ
▁መረ
▁ግዜ
▁ስለመ
ጓል።
▁ያደርጋል
በሳ
ባረ
ከረም
ዝገባ
▁በቅርብ
▁ለኢ
▁ሥነ
▁ተጫዋቾች
▁ተቀም
ህ።
ስተኛው
▁ወንጌ
▁እንደሚችሉ
▁ከየት
▁የፋ
▁አለባቸው።
▁ምት
▁አገራት
▁ታስ
▁የኃይል
ማሩ
▁አለች
▁ቀጣይ
▁ዳግም
ተኮ
▁መፍጠር
▁የቀድሞ
ገለጸ
▁የደን
ሻል
ምረት
▁ላለ
▁ይጨ
▁የራሱ
▁አስተዳ
ፍል
▁አምና
▁ወለ
▁ተሰጥ
ዕቆብ
▁የተሳ
▁ተቋም
vi
▁ጄ
ማሪዎች
▁እስራኤል
ለም።
▁ዘርፍ
መስል
ገናኙ
▁ገለ
ኖራ
▁ዋስትና
▁ዝና
ደኛ
▁እቅድ
ሰሙ
ስል
▁ሊኖር
ንታ
▁w
▁ምቹ
▁ያረጋግ
▁ስደ
▁ተሳት
▁ካለው
ጠነ
ስትራ
▁የተወለ
ታሉ
ክሮ
መቻ
ገነባ
▁b
▁በዳ
▁ባህል
▁ንጉሡ
ባይል
ላለሁ
ናይ
▁ውድድር
▁የሚያደርጉ
▁ሞተ
▁ትግል
▁ልብስ
ቤን
ረገ
▁Y
ሳቢ
ዋለሁ።
▁አብዛኛዎቹ
▁ጠፍ
▁አንዳንዶቹ
▁መጻሕ
▁ጥላ
▁ለማንኛውም
▁ለመጀመር
ዛን
▁ያመጣ
▁ይመስለኛል
▁ስቴትስ
ክተ
▁ንግግር
ፍና
▁ጸሎት
ጣሉ
▁ብቃት
መረብ
▁ሶፍትዌር
ልቃ
▁የምርት
▁ይሁንና
▁ማጣ
▁ኤል
▁ነው፣
▁በኢየሱስ
▁ቻይና
▁ያልሆነ
መዝ
▁ከሁለት
▁ግልፅ
▁ችግሩ
▁ያገኘ
▁አውታረ
▁ጉባኤ
▁አልቻል
▁ባንክ
▁አስተያየ
ወሓት
▁ሎ
ዋሚ
▁በድን
▁ዕለት
ዳው
ይነ
ሱም
ቀርቡ
ለወጥ
ሕዛብ
▁ሆና
▁ያኔ
▁ይላሉ
ግሬ
▁አካባቢዎች
ምፕ
▁ሌሊት
▁ይሞክ
▁ማስታወሻ
ሟላ
▁ተናግረዋል።
ረሳ
-1
...]
ia
▁ታይ
▁·
ብህ
▁ለምንድን
▁ባህሪያ
▁ህብረት
ናንት
▁ስልጣን
▁አወ
▁እናመሰግና
ድና
እንደ
ከባቢ
▁ባሉ
ዘም
ብቅ
ዎታ
▁መልዕክት
▁እንዳት
▁ሰለ
▁ለረጅም
▁በቀር
▁[...]
30
un
ሷል
ኩኝ
▁ተል
በትም።
▁አንብ
ላማዊ
▁ኃላፊነት
▁ካርድ
▁የሰማ
ሃት
ሳቁ
▁ጠዋት
ርማ
ሌቪዥን
il
▁የኢን
▁ነዉ።
ሊን
ካተ
ራችን
▁አድራሻ
ካይ
▁በእያንዳንዱ
▁ያስፈልግ
▁የመንግስት
ሜል
ንፃ
▁የፍቅር
▁እንዳለው
▁ምኞ
▁አሰራ
መልከቻ
▁ማዕከል
ማማኝ
▁አይኖር
▁መረጃዎች
ረምት
ንቀሳቃሽ
ቀሳ
ድሩ
▁በጨ
ራጭ
ችም
▁አሉት።
▁ፈጣሪ
▁ምርምር
▁ቀይ
▁ሆኗል
:-
ቀበ
▁የቡ
▁ያውቃል
ማግ
▁ልጃ
ከታተል
▁29
▁ግንዛቤ
ሳሰ
ገኙት
▁በኤ
▁ልጁ
▁መሆናቸውን
▁ካላ
▁አሸናፊ
▁የሕይወት
ስታን
ቻለሁ።
▁....
ንዶች
▁በዚሁ
▁አስቀድሞ
ፓን
ቃቸው
▁ይላሉ።
▁ያጋ
ቀኝ
ኘው
▁መፅ
▁ነገሩ
▁ተፈጥሮ
▁ዮሐንስ
▁አማካኝነት
▁ወይንም
ስማማ
▁ይመጣል
ድም
▁K
▁ሥራዎች
▁የቱ
▁ስለማ
▁የሚከተሉትን
ለቱ
ከሩ
ክራ
ሰጣቸው
ጉን
ረጋገጫ
ገነዘ
▁ሳምንታት
ምስት
መለክ
▁አቋም
▁መንግስ
▁አማራጮች
ባችን
▁ተዘ
▁ለሌሎች
▁ውጤቶች
በተ
▁የጦር
▁ኢዮ
▁ሹ
ደባ
አቸው
ጠቀማ
▁ተጠቅ
▁ስሪት
▁አለብኝ
▁ዕቅድ
▁ድንቅ
ላቸውን
ጫኑ
ost
▁ልታ
ተናል።
▁ጊዜያት
▁h
▁ገበ
ዳሜ
▁ማርያ
ፊው
▁ድርሻ
▁አዘ
▁ወንጀል
▁Google
ዘጋጁ
▁የተመሠረተ
▁እቃ
ከተለው
ካሄደ
▁በዚያም
▁ኮምፒ
▁በተፈ
▁ሆስፒ
▁ቀድሞው
ቻለው
▁ሥልጣን
▁የሚሆነው
▁ተራራ
▁መሪዎች
ኸው
▁አታው
ቆየት
ጀርመን
▁ማድረ
ደረጉት
▁አውሮፓ
ትል
▁ይሰ
▁com
▁ነዎት
ፊክ
ዋወ
▁ምስክር
▁ከራ
▁በእናንተ
▁ወሬ
▁ክስተት
ላቸው።
ሰራው
▁ምልክቶች
▁ተደርጎ
▁ጂ
ገግ
ጠሪያ
ዋታው
ምኑ
ግራይ
ሸን
በርካታ
▁ማነው
▁የማን
▁ብቸኛው
▁አይደሉም።
▁የሚተ
▁199
▁መግባት
ሮቹ
▁ርዕሰ
▁ይሖዋ
▁በውስጡ
▁ተከታታይ
ዎትም
▁ይኼ
▁መግዛት
▁ሆነ።
ባቸዋል።
▁የአባ
▁ይደረጋ
ደሩ
ንበት
▁ማረጋገጥ
ኖችን
▁ትዝ
ጻፍ
▁ተቆ
▁ነፃነት
▁መራ
▁አጣ
ቀርባ
▁አእምሮ
▁የሥ
▁ያስፈልጋል
um
▁ፖሊስ
▁መስፈር
ጓጓ
ላስ
▁ቅድመ
▁ተጠያቂ
▁አይፈ
▁ያገኛሉ
▁ቁም
pp
ህበራዊ
▁ተጫዋች
▁ወላጆች
▁ሊፈ
ርነት
▁ሳለ
▁አቤቱ
ዳሉ
▁ከሕ
▁አልነበረም
▁በመላው
▁ተቀብ
▁ያደረገ
▁ልማ
▁በዙ
▁ሀብት
▁አድርጌ
▁እንደመ
▁በመግ
▁ሳያ
ሎን
ጅነት
ቃሉ
ችሁት
ንሰር
▁ይፈልጋል
ቀፍ
▁እየጨ
▁የከተማ
▁በድር
▁የጸ
▁እውነታ
▁የመጨረሻው
▁ኃጢአ
ልኮ
ወያ
ጠናቀቅ
ሳችንን
▁በጋራ
▁ነፍስ
ርዱ
▁የሐ
▁ለማረጋገጥ
ሄደ
▁ከህ
▁ከፈ
▁በመሆን
▁ይምረ
ገዱ
▁ፈል
▁ብቸኛ
▁ለመር
መንት
ርን
▁ግዴታ
us
▁በትን
ኩበት
ላሳ
▁ለይ
ቢያው
ቁን
▁ጦ
ነታችን
▁ማንነት
▁ቅሬ
▁አንተን
▁የጠ
ስታወስ
ደርሱ
▁ፋይል
ኩን
ግባብ
ያዎች
▁በተሻለ
▁ትእዛዝ
▁ቡድኖች
ረፈ
ጥሩ
▁ከእነሱ
ub
ወግ
ረሱ
ጋው
ንስፖርት
▁ግብይት
ጴጥሮ
▁ምግ
▁የትኛው
▁እርሷ
ve
▁ባለስ
▁በሕይወ
▁ህመም
ሪስ
▁አጠቃቀም
▁a
ous
▁ለሙ
▁ለመፍጠር
▁አጀ
ሻው
ወጣው
ሙና
▁አመጣ
ናፍ
▁መስክ
▁ከቀ
▁በጽ
▁ይገል
▁አይደለሁም
ንግሊዝኛ
ቁ።
ተም
ማመን
▁ለመስራት
▁በአውሮፓ
ድሮ
▁ዳን
▁ሜዳ
ነገሩ
ዋም
ሊስ
▁,
መሩ
▁ማለትም
▁እንፈልጋ
▁ቀጥሎ
▁እነዚያ
ብቡ
መኛ
ቨስት
ገዙ
ጠብቅ
▁አብረን
▁ከእርስዎ
▁ሐዋ
▁በሚገባ
▁ስማ
▁የጽ
ደጋጋሚ
▁ድርጊት
ጸል
▁አለብን።
▁የተመሰ
▁እንደሚሆን
ክን
▁ያስፈልገ
▁ከቤተ
ያሉ
▁ዘገባ
ያለሁ።
▁ሚኒስቴ
▁ማረፊያ
ችኋል
▁ተከትሎ
ኳይ
▁መሳሪያዎች
ርፍ
▁ለመም
▁ጥቅሞች
▁ሠራተኞች
▁ጤናማ
▁ስራዎች
▁ባለሙያዎች
▁ህል
ቢይ
▁አይታ
ሆኑም
ዮችን
ጻፈ
▁ተገል
▁ለመጠበቅ
ቋረጥ
ኮት
▁አባቴ
▁እንዳሉ
▁መከላከያ
▁ይን
▁አስተማማኝ
▁In
ጣው
▁ግለሰብ
ሴፍ
▁ሆኗል።
▁ግምት
▁Next
▁ዓመቱ
▁በተያያዘ
▁የማስ
ረሻ
▁ብሎግ
ችሉት
▁የኢኮኖሚ
▁ማዳ
▁ከት
▁የቤተሰብ
ሟላት
▁የተሰጠ
ቱት
ገልግሎት
▁ቤተክርስቲያን
▁መስማት
▁ኢትዮጵ
መለሰ
እነ
▁በሞ
▁ተር
▁የለብ
▁ፕሬዝ
▁ኅ
ህነት
▁በሥራ
▁ፈለ
ከበ
▁መረዳት
ርሷ
▁ሃሳ
▁ገልጸ
ደበ
▁የተለመደ
▁X
▁እራስ
▁አንጻ
ሳሽ
▁በተደጋጋሚ
ይቱ
▁ቡና
▁በፖ
▁እንዳለበት
▁ንድፍ
ያውያን
ሟል
ፋስ
▁ትናንት
▁ለመረዳት
▁ዘመቻ
▁ባት
አሁን
▁የደረ
ሯቸው
▁ይወጣ
▁ማራ
ዉን
▁31
▁ያካት
ውነት
▁ቅጽ
▁ተነሳ
▁እንጅ
▁መቀበል
ጠብቃ
▁መንፈሳዊ
ent
▁ባሕር
▁ቁሳቁ
▁አመል
ቶቻቸው
▁ነጥቦች
እናንተ
ካን
ዳዩ
▁ጥንካ
▁ስኬት
▁እንችላለን።
▁መንግስታት
▁የአፍሪካ
ቃይ
▁በጀት
▁በፍቅር
▁መኖሪያ
▁ውብ
▁ሽልማት
▁ይጠቀሙ
▁ትችላለህ
ጥል
ቅን
እርሱ
▁ቀና
ጀመረው
▁And
▁ጓደኞች
ዥም
ላቂ
ነቃ
▁የሁለ
▁የሰጠ
▁እንግዳ
▁1.
▁በፊ
ሸጥ
ኖስ
▁አለማ
▁መግቢያ
▁ምህ
▁ክለ
▁አይቻል
▁ፋብሪካ
▁በመካከ
በአ
ላፊነት
▁ፓርቲዎች
▁የሚፈልጉትን
ቀና
ጣል።
▁አለቃ
ri
▁ኮን
▁በአዲስ
▁የሚሉ
▁ምናልባትም
ርጋ
ዋዕት
▁ከጥቂት
▁የእግር
▁በሶ
ot
▁ነጋዴ
roid
▁የገባ
▁የን
▁ነዋሪዎች
▁እንዳያ
ብረተሰቡ
ore
▁ተፅ
▁ባቡር
▁ለመሄድ
:5
ጻጸ
▁ጠባ
▁ጠላት
በዛ
▁ታሪካ
▁በህይወት
ቻሉ
▁በምር
ጠመ
ቸዋለሁ
▁ግዛት
ርሃት
ቲክ
▁ፍቅ
▁ያንብቡ
▁ይኸው
ከፊ
ነውን
ራቴ
ዝቃ
▁ዘግ
ነን
▁ሙስሊ
▁የላቀ
▁ማረጋገጫ
▁ለቤተ
ጋል
▁ለት
▁ዛፍ
▁በእሱ
ከበረ
▁መቁ
▁ይሁኑ
ሲብ
▁ሰባ
ዞች
▁በተቃ
▁የዛሬ
▁Pre
▁ስኬታማ
ሌን
▁ሰራተኞች
▁እንደሚያስ
▁ለመድረስ
▁ታውቃለህ
▁እሺ
ፈልግም።
ፈሩ
▁ጥቂ
▁በአብዛኛው
ኪም
▁በን
▁ብለዋል
▁ያስታው
▁የሚሆኑት
ፍር
▁አቅራቢ
▁አምራ
▁እንቅልፍ
▁የባህር
ፃን
▁አምላካ
▁የሕዝብ
ፈልገውን
ዝን
ዱ።
▁የበላይ
▁የያዘ
▁፲
▁ሥርዓ
▁ዘይ
▁የጋ
ኔን
▁የላ
▁ገንዘ
ሮት
ራችሁ
▁ዘይት
ቀዋል።
▁በርግ
ጋዮች
ስተው
ስታው
▁ከሚያ
▁ይግ
▁ትዕዛዝ
▁ቆይታ
▁ደመ
▁ጥን
ዳይ
▁ሞክ
▁ማሳያ
▁በከተማ
ነቴ
ዘረ
ላትን
▁ላይም
▁ጎዳና
▁ቅጣት
▁ይመለ
ማው
ቫይረስ
ሪያው
ነካ
▁Re
ምንቱ
▁2017
▁የባቡር
ለት።
▁ይበል
▁የሌለው
▁ይምረጡ
ራሲ
አዴግ
▁ንጹ
▁መውጣት
▁አውቶ
▁ስለም
▁መገለጫ
▁፥
ጎዳ
▁መፈለግ
▁አመራ
▁አምባ
▁ጉብኝ
▁ማብ
ማግሌ
▁ጣቢያዎች
▁ይሆናሉ
ጋቢ
▁ለሰው
▁ደንበ
▁ግለሰቦች
ቅዱ
▁ነጭ
▁በነፃ
▁ስልጠና
▁አንቀጽ
ለ።
ማል።
▁የፊ
▁ይዘው
▁ወንድሞ
▁በምት
▁ግንቦት
ፍረት
▁ባለመ
▁በሐ
▁ይወስዳል
▁አልባ
▁የተጠቀ
▁እያንዳን
ገዝ
ገናኘ
▁አየሁ
ዓዊ
▁ቅርብ
▁ተሰማ
ቋል
ላችሁም
▁ቃለ
▁ያየ
▁ያለፈ
▁ቤተሰቦች
▁ሳይንስ
▁የተጠበቀ
ጨምር
▁ከክ
▁አልችልም
መልስ
▁አብዛኛውን
ሰቢያ
▁አይቻልም።
ናጋ
ሊያን
ሶችን
ሰረ
▁በኦ
▁የሚያደርግ
▁እናመሰግናለን
ኤም
ስራቅ
ያም
ዎቻቸው
▁በመቀ
▁ማመልከቻ
▁2018
▁በመስመር
▁መልአ
▁ማያ
▁ጎል
ኩባንያ
▁ስህተ
▁እርሱን
ኖቹ
▁አዛ
ግባባት
▁አድርግ
ዝግ
▁ጤ
ቧል።
ቲት
▁የሳ
▁Android
ሮው
▁ዶክተር
▁መጻሕፍት
▁የተቀመ
ወሰኑ
▁ደረሰ
ግባቡ
▁ድረ
▁የአሁኑ
▁በማን
▁2016
▁አመራር
▁ተያይ
▁እባክዎ
▁ተካ
▁በሺ
▁ምዕራፍ
▁ብሏል።
ባጭ
▁መለስ
▁ተሳትፎ
ዋቸው
▁የሚኖሩ
ፎችን
▁አብዛኛው
ቸት
▁አይቻ
▁እወዳለሁ
ከሰተ
▁አቃ
መለከተው
ጪው
ነበብ
ካዊ
ቀጥል
▁J
▁32
▁መተግበሪያዎች
ሥራት
▁2019
ሻገር
▁በግብ
ረጠ
▁በቦ
▁ከን
▁ለመርዳት
▁ጥቃ
▁ለመከላከል
▁እናደርጋለን
▁መለወጥ
ሂድ
ታወቀ
▁ስጋት
▁ፕሬዚዳንት
ነብ
ነፃ
--
ርሳ
▁የሩ
▁ለወደ
▁አንዳንዴ
ገስ
▁የጣ
▁ከሰው
▁ሀገራት
▁ምዝገባ
እስ
▁የዲ
ይዛ
▁ብሩ
▁እየጨመረ
▁አውጥ
▁ተግባራት
ወሰድ
▁የተመረ
ማስ
▁ግማሽ
▁ነበረ።
ቶቹን
ለስ
የሚ
ንቀት
▁ህገ
▁ነውና።
▁የሚገር
▁ሊኖረው
▁የአካል
▁ይለኛ
ወል
▁ለመናገር
▁ለኔ
▁ዓይነቱ
ጢር
▁ደሞ
▁ህክምና
ካቤ
ላዊነት
▁አንባቢ
ክም
ሷል።
▁እል
▁ሆኑ
▁መድኃ
▁ይሄንን
ግሪ
▁ቀርቶ
▁አፈፃ
ነተኛ
▁ዓይነቶች
▁ዳግ
ሑፍ
▁ሪፖር
▁በዛ
▁ለማቅረብ
▁ሚኒስቴር
ጻናት
▁</
▁ለፍ
▁መያዝ
▁እስር
▁እናንተም
▁ሳል
▁እየሆነ
eb
ናቱ
የመ
▁መዘ
▁ይልቁ
▁በአንተ
▁ይጀምራል
ሮሞ
ሳተፍ
▁ወረቀት
▁ያቀርባል
ምድ
▁ቀድሞውኑ
ጢአት
▁የጊዜ
ፁም
▁ገጾች
▁የእኔን
OS
▁60
▁ምሥ
▁ጆሮ
▁እንክብ
▁እንደዚያ
ers
ብብር
ዓመቱ
▁አደገኛ
▁እንዳልሆነ
▁ሕገ
▁ኮሚቴ
▁መላእ
ጭሩ
▁በጌታ
▁በድጋሚ
▁አማካይ
ራቸውን
ጎብኘት
vious
ራኒ
ተኩ
ባበር
ርያት
▁ከጊዜ
▁ወንጌል
ጀርባ
▁ጥንካሬ
▁ቀለ
▁የቦ
▁ባህር
▁የሚቀ
▁አስቀድ
▁እናውቃለን
▁ከዋ
▁ከቤት
▁በዛሬው
ንዱ
ብረተሰብ
▁ጊ
▁Previous
▁ይሉ
ስተዳ
ህንነት
ርስት
▁ተው
▁የትም
▁ቋንቋዎች
▁ስትራቴ
▁ጽሁፍ
ስቸ
ሰማው
ዊተር
ሆናቸው
▁ማሻሻ
▁ይኖራል
ጂታል
▁ጴጥሮ
▁ተሽከር
▁አንጻር
▁የምድር
ጣኝ
▁መሠረታዊ
▁ይስ
ዎታል።
▁ለካ
▁ይል
▁የእሱ
▁መዳረሻ
▁ምስል
▁ጋዜጣ
ንሲ
▁ደቡብ
ፍሬ
▁ገብቶ
ur
ና፤
ረጋጋ
ጥፋት
▁ወዘ
ገልገል
ቲን
ኤልም
ነር
ኛውን
▁በፌ
▁ይገኛሉ።
▁ያደርገዋል
▁ከጎ
▁ለመኖር
▁አውሮፕላን
ደነ
▁አጀንዳ
▁ብሄ
▁ጓ
▁መሰረታዊ
ናቀ
▁የሚከተሉት
▁ልና
▁ዜጋ
▁ዲዛ
▁የመረጃ
▁ይገኛሉ
▁መድረስ
▁ጫማ
▁በሩ
▁ለማው
ኳን
▁ለመክ
▁ደርሶ
ቡ።
ድርግ
▁ዳይ
▁ከብ
▁ፍቃ
ጠንቀ
ስፋት
▁በማይ
ዎስ
ገጥ
ውተር
▁ክስተቶች
▁የነበረውን
ፕሮ
▁ደቀ
▁ስትራቴጂ
▁ከቶ
▁ተነስ
ሽኑ
▁ሕክምና
▁ለብ
▁ብቻውን
▁ሣ
▁ያሰ
▁የቀረበ
▁እንድታ
▁አይመስለኝም።
▁አምላ
▁ጡ
▁ቦርድ
▁ራሳቸውን
በዝ
ዕምሮ
▁በፓ
ባቢያ
▁አዲ
▁ሰነድ
▁አላማ
▁ፈጠራ
▁በነጻ
▁በተግባር
▁አንድነት
ርላማ
▁ሲመጣ
▁አልፈ
▁ዴሞክራሲ
▁ደጋግ
▁ፈቃደኛ
▁በመስጠት
▁እናቴ
▁ጥልቅ
he
▁መረብ
▁ማርያም
▁ቤተሰቦ
▁ገደማ
ጠይቃ
▁ይመስል
▁ከመስ
▁የባለ
▁ክር
▁ጥፋት
ገለግል
▁ቀጣዩ
▁ወደዚህ
ያውቁ
▁ቶሎ
ነታ
▁ከብዙ
▁ያለብ
▁ስና
▁በመተ
▁የራሱን
ረበ
▁ፈገግ
ቆት
▁ለማሻሻል
▁የኑ
▁ከሁሉ
▁የትራ
ገበ
ጣራ
▁የከፋ
▁ያደረገው
▁በስራ
ከተሉ
▁የለበትም
ሁም
ሜይል
▁ሕዝቦች
▁ክብደት
▁ወንድም
▁መቃ
▁ይታያል
▁መመልከት
▁ማሰ
ቅል
▁ለአንተ
ለጽ
ማጭ
▁አዋጅ
▁ወቅታዊ
ጠለ
ክልሉ
▁የጉዞ
▁ተጓ
▁ንጥረ
▁የምርጫ
ሜራ
▁80
▁ይባላል።
▁ብታ
▁ሃይማኖ
ቅረ
▁ደካ
▁ተመራ
▁አሠራ
ችሁም
▁አንደኛው
▁ለቀ
ባሪ
▁ሰውን
ጠጣ
▁ታማኝ
▁አንዳንዶች
▁የሲ
▁ለመፍታት
ላጭ
ሌጅ
ፃፍ
▁አደረ
▁ሆስፒታል
▁የኛ
ሊና
▁መጥቶ
▁መብቶች
ካሚ
▁ይሞ
ሪቱን
ምሌ
ሀል
ሜት
ክልት
ብስ
▁የአው
▁ለማንበብ
▁ኡ
▁የሕግ
18
ሪዝም
▁ሾ
▁አንፃ
▁2013
▁ወዘተ
ዳሴ
ጿል።
ሳተፉ
15
os
▁ከእሱ
ዴራል
▁ይህንንም
ታች
▁ውበት
▁መሞከር
▁አለዎት
▁ለመግዛት
▁ኤም
▁ርቀት
ጽና
▁የሚሰጥ
▁አላውቅም።
ዮቹ
▁ራስህን
▁እግዚአብሄር
▁ለመቀነስ
▁ስጋ
ያውቅ
▁ብሏል
▁ገጽታ
ዘጋጃ
▁ለበ
▁አጠገብ
▁ተመልሶ
ንግሥ
▁ለመመለስ
ባበ
▁ለመግባት
▁የሚገኘው
ሻሽ
አል።
ካሄደው
▁የዜ
▁የቪዲዮ
ኩትን
ልጣናት
▁ትሆና
▁የተዋ
▁ፈረንሳይ
ነገረ
▁ድንጋይ
▁ተአ
ወደው
▁እርምጃዎች
▁ያነሰ
▁የወን
▁አለመሆኑ
▁የጭ
ደሰት
ታኝ
▁የመጡ
▁በደስታ
▁ኮር
▁ኩባንያው
ፈጽ
▁ሃይማኖት
ወሩ
ጅቱ
▁ትርፍ
▁ምክሮች
▁ኾ
▁የሰብ
▁ጥገና
ጣቱ
▁ምሁ
▁አንድን
ፔን
ሠራው
▁በውጭ
of
ዳችን
▁ለውጦች
▁እንግሊዝኛ
▁33
▁አዘጋጅ
▁እንደዚሁ
▁ሰን
▁ሃይ
▁አባባል
መታት
▁ሊታ
▁ዘዴዎች
ሪን
ባቱ
▁በኋላም
▁ተቃውሞ
▁መስሎ
▁በየዓመቱ
ፋቸው
▁ባዶ
ሮና
▁ሳት
▁ማብራ
▁መስከረም
▁በጋ
▁ሆቴል
:6
▁በአንዳንድ
▁ሳን
▁እንጀራ
▁ፈጥ
▁በአግባቡ
▁ከመጀመሪያ
▁የሸ
▁የሚደረግ
▁በሰላም
ከፈል
▁የሠ
ተኝነት
▁ጨለማ
▁የተባበሩት
▁አስቀም
▁የፈጠራ
▁ሆኜ
ዳጊ
▁ያሳያል
▁ቀኝ
ፋጭ
ኮኖሚያ
ፕሬ
▁ታች
▁ብድር
▁አሮ
▁በየትኛውም
▁ክስ
▁በሥ
ራም
▁በቀጣይ
▁ትክክለኛውን
ram
ኩም።
▁አብይ
▁ታላላቅ
▁ነግ
ፕል
▁ለመቀበል
ጠኞች
▁ዲያ
▁ከዓ
▁ከፊ
▁በደቡብ
▁ይሠራል
▁ለእያንዳንዱ
ሳይያስ
ጨነቅ
▁th
▁መክፈል
ሮም
ኳር
▁በሰማይ
▁ጥንቃቄ
▁ጩ
▁ድንጋ
▁የመኪና
▁ውል
▁ተሳታ
▁ማህበር
▁ስምንት
▁በእስራኤል
▁ተለይ
▁የተደረገ
ዩን
▁በጸ
▁ውር
2)
ችሁ።
▁እውን
ind
▁የሚወስ
▁ተለዋ
▁ወደሚ
▁የነበሩት
ኑት
thi
ላችኋለሁ
ቆመ
▁የመጀመሪያውን
ጠቀሙበት
▁የተፈጥሮ
▁ሽማግሌ
▁ወንድሞች
▁ያስፈልግዎታል
ታለሁ
በእ
▁ኛ
ዩም
▁=
▁ማይ
መስገን
ካክ
▁ግብረ
▁እንክብካቤ
:9
ይዝ
▁አግባብ
▁ገልጸዋል።
ሽም
ቧን
ወዝ
▁ድብ
ወለድ
ኾን
..."
▁ጥርጥር
▁36
▁ለሚያ
▁ልጥፍ
▁የሰራ
▁ደራሲ
ምንም
em
▁የሚሉት
▁ተባለ
ሟል።
▁ሙቀት
ፍያ
▁ግዙ
▁ስፖርት
▁ያድ
ew
▁ተዘጋጅ
▁አስባለሁ
ሳቱ
▁መስፈርቶች
▁ቀስ
▁ስብስብ
▁የለኝም
▁አያውቅም
▁አይቻልም
▁ባህሪያት
▁የተጋ
▁2021
▁ስለነበር
▁የቁማር
▁ጀርመን
▁ምሕ
▁ህጋዊ
▁መቀጠል
▁እባክህ
:8
▁ግጥ
▁ፍር
▁ከአሁን
▁የሚመስ
ፋል።
and
እኖ
▁መጡ
ርሶ
▁በአለም
▁ማስቀመጥ
▁በእነርሱ
ፏል
ሂዱ
ጠበቁ
▁ያዘ
▁የፕሮ
ደርጉት
ጧል
▁ሙያ
▁ያወጣ
▁በሉ
▁በትምህርት
ነም
▁35
መዘ
▁ቅሬታ
▁ቀዳሚ
ዖን
▁አካሄድ
ገላ
▁የች
▁ኀ
ራረብ
▁ደንብ
▁2.
▁ይታወቃል።
ከኝ
ኞቻችን
▁ዘላቂ
ጣቸው
▁መሆ
ዋለን
ጧል።
ብሩ
▁አይቀርም።
ፈጠር
▁ከዘ
ሬው
▁ተይ
▁ወዴት
▁ተቃዋሚ
▁ፋይሎች
ባን
ዎት።
መርመር
▁እየታ
▁ሚሊ
▁ዕቃዎች
▁^
ፈለገው
▁አደረጉ
▁ቅርጸ
▁መልካ
▁አውቃለሁ።
▁ጸሐ
▁ለሁለ
▁ብርቱ
▁ፎቶዎች
▁መቀነስ
ቂኝ
▁መምጣት
▁ያልሆኑ
ጓዴ
ኖሪያ
ሃዊ
▁በጣ
▁የአን
▁ይለያ
▁ለክ
▁ህልም
▁ይጠበቅ
▁ብቅ
▁ሂሳብ
▁የሕክምና
ook
ሙም
ረው።
ሰብሰብ
▁የሁሉም
:7
▁ሞዴል
▁ይደግ
▁እንስሳት
▁መሐ
▁ዎቹ
▁ሰልፍ
▁የምስ
▁መብላት
ችት
ላቸዋል።
ረጡ
▁በቴ
▁የአለም
▁ካህ
ደሪያ
▁ቅዳሜ
ስብስብ
▁ሀገሮች
▁የኤሌክትሪክ
▁ቢሊዮን
▁መካከ
▁ኤስ
▁እሁድ
▁ጠቅላላ
▁ከመጠን
▁መለሰ
▁ለእርሱ
▁በፍጹም
ረታ
ታወቀው
▁የመግ
▁ግጭት
መዋል።
▁ያደርጋል።
▁የቢ
▁ማውረድ
▁ትፈልጋ
▁እጥረት
▁አዝና
ጓዙ
ጠም
ለድ
ሁት።
ረንጓዴ
▁ለሁለት
▁የሚሆነ
▁የሚሰራ
▁መላው
ቀሱ
▁ዋንጫ
▁መከተል
ጋራት
▁ማሽን
▁የቻይና
ut
▁በአው
ኮኖሚያዊ
ቃን
ያችን
▁ከደ
▁የሚገባው
▁ጉዳዩን
ልም።
▁ራስን
▁አዋቂ
▁ውስጥም
ይናንስ
▁አንደኛ
▁አገልጋይ
ከላዊ
12
▁ጮ
ለቲከ
▁ያለም
▁ቁጭ
ጻሚ
ውቀው
ሞቱ
▁የተቃ
▁ነች
▁አዝማ
▁ጥፋ
▁ወንጀ
▁ይወድ
▁በራሳቸው
▁አንፃር
ሃድ
ሣኤ
text
ቀዝ
ሳሉ
▁ሰይጣን
▁አቅርቦት
▁ቍ
▁ይጫኑ
▁ጋብቻ
:11
ጻሜ
▁አዳም
ችኋል።
▁ኢንቨስት
▁ወርቅ
▁ይፈልጋል።
▁ስለእ
▁አሰራር
ቀሰ
ለወ
▁ክርስቲያኖች
▁የሚኖር
▁ቀጠሮ
▁ቫ
▁ዝናብ
ኦል
ወሰደ
ጥጥር
▁ይነግ
▁እብ
▁አይደለም፤
▁እንደነበረ
▁የህይወት
ኝ፤
▁ገደብ
▁ጣፋጭ
▁የተሰራ
ጠፉ
ህአዴግ
ጋጥ
▁ሰል
▁መዛሙር
▁ይሞክሩ
ድብ
▁ዓይን
ab
ዷል
▁እውቅና
▁እንዲሆኑ
ድያ
▁እሷን
▁ደህንነቱ
ራስ
▁በዲ
ናችን
▁መቻል
ወለደ
▁ቴክ
ችሉም።
▁ቅዱሳን
▁መድሃኒት
ትንና
▁ይህንኑ
▁በመንፈስ
ናግ
ቀጥሉት
▁ተጠና
▁በሂ
▁ፍራ
▁ነጠላ
▁የሴቶች
▁እንዲኖር
▁ውስብስብ
▁በየአ
▁ምነው
▁የመተ
▁ከነዚህ
ቴዎስ
▁በጥንቃቄ
▁ይፈልጉ
▁ለማሳየት
ዎታለን
▁በቅድ
▁ሌሎችን
40
▁ኢየሱስም
ላቀል
ልጠና
ቧል
ዴን
▁90
▁ሃገር
▁ወጥቶ
▁የእን
ኮል
▁በኔ
ረጋገጠ
▁መዝሙር
▁ንብረ
▁2015
ርጥ
ቤል
▁ጸሎ
▁ከታች
ስበ
▁አልገባ
▁የሙዚቃ
ደደ
▁በመል
▁በሰማ
ናውያን
▁የድም
▁የአይ
▁እንዲህም
▁ብዙዎቹ
▁ኒ
▁የሆ
▁ሥራው
▁የመንግሥት
▁ብረት
▁ለእነሱ
▁አፈፃፀም
ላልቅ
ነታቸውን
ቀውን
ግነት
ነህ
art
ቀረበ
▁አደረግ
▁ነሽ
▁አስተዋጽ
▁n
▁ግዛ
:15
▁ለሌላ
▁ችግሩን
▁ዊ
▁ሂድ
▁ወንዝ
ኳቸው
ጨረታ
▁ማሽ
ካሪዎች
▁ትናን
ልክት
▁ይጨም
▁ወሰን
▁ያደረ
▁አላገኘ
ችኋለሁ
▁ለጊዜው
▁ሳሙ
በቃል።
▁በሺዎች
▁በረከት
ተሽ
ንጉሡ
▁ኮድ
▁ዓለምን
▁በአንድነት
መዱ
▁ማእ
▁እንቅስቃሴዎች
ነግር
▁የደም
ሙ።
ካችሁ
▁በእርስ
▁ተክ
ራራ
▁ጣልቃ
ደበኛ
▁ስለሌ
▁ሰውዬ
ከሉ
▁ሲሆኑ
▁ስላለ
▁2012
▁ኃይለኛ
:10
▁ቀጥተኛ
▁ፕሬዝዳንት
▁አወጣ
▁100%
▁ብላችሁ
▁የማይታ
ችበት
መለከታ
ረኞች
ቱንም
ርዝር
ደገፍ
▁የታወቀ
ዘኛ
▁አለን።
ወትር
▁የአገር
▁እውነቱን
ዕለት
▁ለፊት
▁እገዛ
ቂያዎች
ድል
▁የእው
ዋሪ
ነፈ
ፈርት
▁የኢየሱስ
ራዎች
ገራቸው
ስኮ
ቆማ
▁ብርሃ
ወሃት
ጥራ
▁ቀውስ
▁አስተማሪ
ተጨማሪ
▁ሀሳቦች
ምራት
▁ባለሥ
▁የሚባለው
▁የሚያደርገው
▁ጠባቂ
▁አናው
ir
▁ወረርሽ
▁in
ተኞችን
▁እሷም
▁ሚስ
ከተሉት
▁ጾ
▁በፀ
▁መጓዝ
ናቸውም
ና፥
▁ማቆም
▁ተፈጥ
▁ለሀ
▁ሌላውን
▁በተለየ
ደቅ
▁ያገለግ
▁አዎንታዊ
▁አገናኝ
▁የተባለው
ሰዋል።
ቡል
ካሽ
▁አድርጉ
ስፈ
ባቸውም
▁ተሰብ
ከናው
▁ኛው
▁መረጃዎችን
▁ደካማ
▁ይሻላል
▁መኮ
▁ለታ
ation
ገፋ
▁ለመገንባት
ይቅ
▁ገፅ
▁ዩናይትድ
በለዚያ
▁አካላዊ
▁ለማስወገድ
11
ከመ
▁ተጣ
▁ፕሮግራሞች
▁ኒው
stag
ቢው
▁ወደኋላ
▁ለተወሰነ
ንተን
▁እንፈልጋለን
▁የመጣው
ለር
▁እጥፍ
ነበረበት
ንቀሳቀስ
▁አይደለ
▁የባንክ
▁የደረሰ
ፃሚ
▁እስከሚ
ርጅ
ዎትን
▁ያለው።
ከሰቱ
▁በዋና
▁ሰውነት
ደሰቱ
▁በመው
▁የሚያስተ
▁ሠር
-2
▁ከሰማይ
ቃወም
ይህን
▁እስክ
ድግ
ችው።
▁You
▁ሰጪ
▁ጫና
ጓጓዣ
▁ተናገረ
በመ
ኧረ
ባል።
stagram
oc
▁እንደሚገባ
▁ገዢ
▁ተንቀሳቃሽ
ጢአ
▁&
ህንም
▁መና
:12
ቡም
ኝት
▁ማውጣት
▁በአካባቢው
ቶን
ዮሐንስ
▁አልጋ
▁ማዘጋጀት
▁አድርገን
▁እንዲያገኙ
ስትራሊያ
▁በጊዜ
▁ጀርባ
▁ማብራሪያ
ቤቴ
▁አስር
▁ይጫወ
▁ሆነን
▁መንስ
▁ዳይሬ
▁በእግር
▁ያመለክ
▁አያውቅም።
ንዶ
▁ቀኑን
▁ከመቼ
ብጥ
▁ይህች
▁የተገኘ
ጠናቀቀ
▁የገና
▁ይሰጠ
▁የአዲስ
ጎበ
ቀመጫ
▁በየጊዜው
▁አውራ
▁ጓደኞ
▁ያቀ
▁ትግ
▁ሦስተኛ
▁አድርጓል
▁በጠ
▁ከግምት
ፏል።
▁ፍላጎቶች
▁አደራ
▁ከግብ
▁በምንም
▁ተመልክ
ዳችሁ
▁መስመ
▁ታላቁ
▁ዙር
▁ስምም
▁ለአብ
▁አሰልጣ
▁የለበትም።
▁ልጥ
ዎችና
▁አብዮ
▁ሚኒስትሩ
▁ኢትዮጵያዊ
ኝታ
ጠይቁ
ለመደው
▁አረጋግ
▁ማጣት
▁አባቱ
▁አንስቶ
▁ዝርያ
▁በበኩ
ዝቃዛ
▁ሌሎቹ
▁ከጓደ
▁በመባል
ድኑ
▁በሲ
▁የሚገል
▁በእጅጉ
▁ይባላል
▁አመስ
thiop
▁ወዳጅ
▁ወራ
▁የላቸውም
▁ተም
▁ሚስጥ
ልኩ
ሷን
ንፈ
ፎር
▁ተወስ
▁የሙቀት
▁እፈልጋለሁ።
▁ለዓ
▁የደህንነት
ome
ነቶችን
ያዣ
▁ሐሳ
▁በቆ
▁ለማሳደግ
▁ለገ
▁ይደ
ነትና
▁ካሳ
▁የሚሰማ
ቪድ
ታወቁ
▁ያነሳ
▁ፍርሃት
▁ማቆ
▁ቋሚ
▁ጠር
ter
▁ፕሮጀክቶች
▁ነውን
▁ይከፍ
ክክ
ፎቶ
ጆቼ
▁የተሞላ
ul
▁›
ቋሚ
ናቸውን
▁የብዙ
▁የመል
▁መቀየር
▁ዲዛይን
በቃል
▁የአት
▁የግን
ዕም
▁የሠራ
▁የወደፊት
▁መኪ
▁በጥቂት
▁ያስችላ
ላቸውም
▁የሚሰ
▁ስነ
▁ከሆን
▁ከሙ
ፈነ
▁ከውጭ
▁ለማሳካት
▁የበረ
▁ጀግና
▁ግዙፍ
▁ማለፍ
▁ፀሐይ
▁የስፖርት
▁ለራስ
▁ሞተር
ሃብ
▁ሃይል
▁የተሰጠው
ሕር
▁በተወሰነ
▁መጸ
▁ሽያጭ
▁ጥናቶች
▁የእነዚህ
▁ይናገራል።
▁ለመተ
▁የተሟላ
ፈታ
▁ለደ
▁ከፋ
ዋወቅ
▁እንስሳ
ላውያን
▁አክብ
▁መጨመር
▁ይይዛ
▁በተፈጥሮ
▁ቪዲዮዎች
▁ማውራት
▁የህክምና
ዱም
▁ቆሻሻ
▁ታሪካዊ
ይድ
▁Pl
ube
ላለን
▁ትል
▁በእን
ረካ
▁አስተያየቶች
▁ወዳጄ
▁ጉርሻ
▁ሰአት
ss
▁ስሞች
▁ለነገሩ
▁ስለማይ
ወጣት
▁ኢሳይያስ
ረከ
ኑር
▁ካሜራ
▁ኢኮኖሚያዊ
▁ሃገ
▁ዲግሪ
ጋገብ
መስረት
▁ማስገባት
▁የምንችለው
▁ዘይቤ
▁ግፊት
ስቸኳይ
▁አልቻለም።
▁ይደር
▁Post
▁የሚሸ
▁የሂ
ለማችን
ናገሩት
▁ያምና
▁ሰላማዊ
ገፍ
▁ማለቴ
▁የወያኔ
▁መላክ
▁ይቀጥላል
ስተካከል
ላጅ
▁ይሰጣል።
▁እኔና
ሎም
ጠቁ
▁የዚህን
▁በመንገድ
ጠየቁ
▁መጻፍ
▁ርዝ
▁ወል
▁መዝና
▁ትው
▁በቃል
▁ጠየቀ
▁ጸጋ
▁እንመልከት
በሻ
▁በርስ
▁ክልሎች
ስክሌት
▁አብርሃ
▁ዘጠኝ
▁አዝማሚያ
▁የሚያሳይ
▁አልፈልግም
ለምዶ
▁ሰጥቶ
▁ተጠር
ደቱ
▁የግብር
ረደ
▁በአጭሩ
▁ክርክር
ሯዊ
▁70
▁አስተናጋ
▁ልውው
ኸኝ
▁g
ዷል።
ቦና
ሳለሁ
▁በኩ
▁ነዋሪ
▁ሥራውን
▁እንጂ።
ረዳው
▁ዘው
▁ምድርን
▁በእሳት
▁ሁለቱንም
ችውን
▁በሚያስ
▁እንደሚሰራ
ጣሬ
በረሰቡ
▁ጭንቅ
▁ፌስቡክ
▁ለወደፊቱ
ፋሪ
▁የማት
▁አስመል
▁ብቁ
▁መርሃ
▁ፕላ
:13
ወዳደር
▁ሆይ፣
▁አንዳች
▁አሕዛብ
▁አልነበሩ
▁የመሬት
14
ብሊክ
ሌክትሮ
ኩስ
▁ረድ
ሳራ
▁ጉብኝት
▁ማስወገድ
ልባ
▁ለአን
ሎግ
ሬሽን
▁ሕንፃ
▁የአስተ
ክርስቲያ
▁ምርቶችን
▁በጉጉት
ባቸው።
▁ውስጣ
▁የሚሰጠው
▁የአገልግሎት
▁ውሻ
▁አሉታዊ
▁ጠጅ
ሰና
▁ናቸው፤
▁የአካባቢ
▁የሙያ
▁በትክክ
▁የሰላም
ሶስት
▁ሕያው
▁ለማምጣት
▁ላለመ
▁በደል
ነዚያ
▁እየቀ
▁በርግጥ
▁ባለበት
ርስትና
▁የወይን
ም፥
ጫወቻ
▁2014
ቀዋል
ይይት
▁ለየት
ውንት
▁የተወ
▁ማስጠንቀ
▁የሚችሉት
▁የተዘጋጀ
▁ይም
ጠጥ
▁ለባ
▁የማህ
▁ያዕቆብ
▁ኢያ
▁በመሠ
▁ዝግጅ
ሱ።
▁የተሸ
▁ይግባ
▁መቆየት
▁ስደተኞች
▁በሁለቱም
▁ክን
▁ይናገራሉ።
ዘዘ
▁ፈራ
▁ተደርጓል
▁መልአክ
ሐሴ
ሳሉ።
▁ሲያስ
ዘገበ
▁አስተዋጽኦ
ወሰዱ
▁መሆናቸው
▁በሆኑ
ተወ
▁ሽልማ
ማውያን
▁ዮሴፍ
▁ወንድሜ
▁ቤቱን
▁የህግ
▁በዚያው
▁ለመውሰድ
▁የተሻለው
▁በአማ
▁በስፋት
:14
▁ተቆጣ
ዋጭ
ፕሎ
▁የሱ
ገባቸው
▁ንቁ
▁መተግበሪያው
ገለፀ
▁ለግ
▁እርሻ
▁እርስዎን
ገኝም
▁ግሩም
▁ዳንኤል
ሸራ
ነጋግ
▁ተብለው
▁በአገሪቱ
▁አይችሉም።
▁፳
ካዮች
ጃፓን
ፋሉ
ፍጠር
ምበር
▁እራሱን
im
▁ጐ
▁ጩኸ
ጓድ
▁እንድና
ላቱ
▁ከሞ
▁ልጆቹ
▁የሆኑት
▁ይሰራል
▁በነገራችን
ክፈ
ኖሩት
ጎት
ለታ
ልቀት
▁ክህ
▁ድግ
▁ያደረግ
ሻለሁ
▁በዓመት
▁ለምንድነው
ረክ
ak
ጮችን
▁ጀመረ።
▁ጋዜጠኛ
ፈጠረ
ረኝ
▁198
▁ኔ
▁ነቢያ
▁ከመቼውም
ቆዩ
ፋር
ዛማ
▁ፍጻሜ
▁ለእነርሱ
▁ይጥ
▁ብራ
ያዕቆብ
▁ልቤ
▁ተደራሽ
ነቅ
▁የአም
▁አድርጓል።
ጽፍ
▁ነች።
▁መቅደስ
▁እሳቸው
▁መጽሔ
▁ማሳየት
▁ይወቁ
ሚኒ
▁የሚሰሩ
▁በክርስቶስ
ፍታ
▁ድርድር
▁ጴጥሮስ
▁ወኪ
▁በአጭር
:18
▁ከሁለ
ows
▁34
▁ይጠቅ
ያሉ።
▁እዛ
▁iOS
▁ትዳር
▁ይላ
▁አጋር
▁የሴት
▁ሁኔታው
ፐር
▁በቻይና
ዋር
በራት
▁ሰኔ
▁ቆር
▁ደንበኛ
▁እንደሚከተለው
60
ክሩ
▁ተኳ
▁አጥብ
ላችንም
ቨርስቲ
▁ዋነኛ
▁በአፍሪካ
ሚን
▁ታውቃላችሁ
▁ይቀበ
▁የለኝም።
ለዩ
ብርሃን
▁ፕሮፌ
▁ሄዶ
▁መሥዋዕት
▁ባህላዊ
▁የተለያየ
▁የጨዋታ
▁አለመሆኑን
▁እረፍት
ሀት
ቆሙ
▁ብሔር
▁የተሳሳተ
የውን
▁ዩኒ
▁አይሆንም።
ጠራው
ጎችን
ፈልጉት
▁ዕውቀት
▁በድንገት
እይ
:16
ቢዎች
▁ተመልከቱ
ሃለሁ።
▁የድን
▁በአየር
▁የክርስቶስ
ከታታይ
▁የራሳቸውን
ቀመጡ
▁ነጻነት
▁ወደዚያ
▁ከምን
መጠ
▁ላለፉት
ደዱ
ምስ
▁መጠጥ
▁ማሸነፍ
▁እያንዳንዱን
ኗል
▁ትብብር
▁በሆ
▁የልብ
▁ይፈጥ
ተኮር
▁ማግኛ
▁ውሸት
▁ይበሉ
▁መሃል
▁ነበረች።
ረዝ
ጎን
▁የአላህ
▁ፖለቲከ
▁ኢየሱስን
▁ያለምንም
ጠብቁ
▁በአገር
▁እናስ
ውንም
▁ህዝቦች
ታሉ።
▁እቅ
▁ለመለ
▁ከማንኛውም
▁ያደር
▁እነሆ፥
▁ወታደራዊ
▁የእነሱ
▁ለቅ
▁በመር
▁በተለምዶ
▁ሆይ፤
▁እንደሌለ
ናውን
▁ጥበ
▁ባሻገር
▁አሳልፎ
ይነመረብ
▁ምግቦች
ሰብኩ
▁በች
▁የተፈጠረ
▁500
▁37
▁ያጣ
▁መልእክ
3)
ሰጡት
ዋይ
▁ጠቀ
ቀትን
▁መንደር
▁እላችኋለሁ
▁ሰሜን
ቱ።
▁መሬ
▁መጨ
▁ለስላሳ
ርዳታ
▁ሩቅ
▁ዳዊ
ቸዋለሁ።
▁መንስኤ
▁መገናኘት
▁ማል
ወይም
▁ያደርጉ
ለቆ
ቶቼ
▁ቁጥሮች
▁ይልቁንም
ንደዚህ
▁ያልተለመ
od
te
▁የመር
▁የተሰማ
ታየው
ጆቻቸው
▁በሳምንት
▁የሳይ
ዘርላንድ
▁የየ
▁አለህ
▁የልማት
ስተካከ
▁ዉስጥ
▁ለመማር
▁በዩናይትድ
▁3.
▁ከገ
▁ሁን
▁አቅርቦ
▁ከሀ
▁የተነሣ
▁ኮሌጅ
▁ኮሪያ
ናትን
indows
▁Instagram
▁ራሴን
መልከት።
▁ይከፈ
▁ይፍ
ከናወኑ
▁ምእ
▁እሳ
▁ለሙሉ
ቺን
▁የዘር
ልበ
ኋቸው
▁ሰሞ
ተገ
ብሮች
▁ትእዛ
▁ትግበ
ig
ክልል
▁ከሃ
▁ለዚያ
▁የሉም
▁ማጥፋት
ለታል።
▁መንገዱ
ላለሁ።
▁ተገን
▁ዝርዝሮች
▁አልበ
▁የውሂብ
199
ራኒው
ስተዋል
▁የተባለ
ማችን
ከብር
ባቸዋል
ታር
▁ምላ
ናገድ
ኅበራዊ
▁ተመር
▁የላቸውም።
:17
▁በሜ
ባቴ
ግግር
▁ያደ
ቾት
ቋቋመ
▁እላለሁ
ካር
:19
ተመ
ጠሩት
▁ኢዮብ
ራቱ
▁መጥተው
▁እያደረገ
ምረው
ታውን
▁ተተ
ሰኝ
ጠሉ
▁ትዕዛ
▁ይወሰ
ንሳዊ
▁ጨዋታው
ዮኖች
▁እገ
▁ይዛ
▁ነበረው
:,
▁ለን
▁ግጥም
▁የሚታይ
ሞቹ
▁ፖለቲካዊ
ረጋጋት
▁መደብር
▁ተነሥ
ረር
▁ያስከት
▁ለመፈ
▁መጣ።
▁ጭንቀት
ጀንሲ
▁ለመመልከት
▁ፔ
▁ቀሪ
▁ለሆኑ
▁ወንበር
▁የዶ
▁አባቶች
▁የመጽሐፍ
▁ሌላኛው
▁እስኪያ
▁Ethiop
ባው
ኗኗ
ማችሁ
▁ማሻሻያ
▁እራሱ
ስታውስ
በጥ
▁እዚያው
ጠቢያ
▁አድርጋ
▁ይደረጋል
▁ነገሥ
▁ችላ
ርትራ
▁ዕጣ
▁መንግሥታት
▁ኮከብ
ap
▁ቡድኑ
▁ዑ
▁አይቀ
▁ቫይረስ
▁እውነትን
▁የስልክ
ቢዩ
ኤላውያን
▁ምንጮች
ኾኑ
▁በሁ
▁ተጨባጭ
ሽነት
▁የዋጋ
ቻችሁን
▁አጠና
▁የሽያጭ
▁ዳግመኛ
ለውም
▁አገሪቱ
▁አጋማሽ
ገረኝ
▁ሕጋዊ
▁ዘፍ
▁ተገደ
ack
▁ባልተ
▁በእርግጥም
ብሎስ
▁የኪ
▁የገበያ
▁CO
▁ውስ
የእ
▁ዱቄ
▁ሽፋን
▁መልዕክ
ቆጣጠሪያ
▁ይመር
▁ትናንሽ
▁ብሄራዊ
▁የሚቻል
▁ይሄዳል
▁አይደለች
▁ሌሊ
▁መካ
▁ተብሏል።
ሙስ
▁መልሱ
▁ልጆችን
ያሜ
▁ሳሙኤል
▁በአንዱ
ርዳ
ጥቅ
ከማቻ
▁ገዝ
ኒካዊ
ዘመን
▁ገዥ
▁ለመታ
▁ልጁን
▁የጠፋ
▁ባሉት
▁ይከሰ
ጭበር
▁ካናዳ
▁ሌሎችም
▁ምስራቅ
ቃሉ።
▁አስቂኝ
ቃስ
ቁም።
ደራል
▁ሊግ
▁ስትል
ገሬ
▁ያወ
▁መገመት
▁ላል
ሪፍ
▁መስጠ
▁መደረግ
▁ከሆኑት
▁ከቅርብ
▁ሰውየው
▁ይኖራል።
ረሰ
ታኔ
▁እጃ
▁ዘወትር
ስተኞች
▁በሚለው
ፕሪ
ክሮች
መች
ተነ
ድስ
ኖረን
▁ሰላምታ
ለች፤
በዚህ
ግራም
▁ዓመታዊ
▁አገልግሎቶችን
ተረ
ከሰተው
▁ለእሱ
▁ሱዳን
▁የሚገቡ
▁መካከለኛ
▁የሚመጣው
▁ለመያዝ
▁አፈጻጸ
▁እያደገ
▁ይሰጣሉ
ዕይ
▁አሏ
▁የና
ከናወነ
▁ይሆናሉ።
ጎድ
▁በጦር
▁እሰጣ
▁ናሙና
▁አሠራር
▁ካንሰር
▁መስፈርት
▁ማስተዋል
▁የወንድ
▁አስመልክቶ
22
▁የተከ
▁ስለሚያ
▁ፎቶግራ
ጠቀሰው
▁ስለምን
▁ድንበር
▁ሊረዳ
ጣቢያ
▁ደጋፊ
▁በታላቅ
▁የደቡብ
▁ያካትታል
16
ስያ
ኛለሁ
▁ለዓለም
▁Windows
መጣው
▁እለት
▁ከሞት
▁ነበርኩ
▁እንደምና
ገሉ
▁በአም
▁ያረጋግጡ
ne
▁ውሎ
▁አዲሱን
ver
▁ለመን
▁አይቶ
▁ሰኞ
▁ጠበቃ
▁ፈጣ
▁ውይይ
▁ሳይቀር
▁ኮምፒውተር
ፍሩ
▁ከዓለም
▁መላእክት
ማመጥ
▁ተረድ
ንባታ
▁ከመን
▁2008
▁አይገባም።
▁ጠቀሜ
▁ጎረ
▁የግብይት
▁ይጠበቃል።
▁ይጠቀማ
ቡስ
▁መዝገብ
▁በመጀመሪያው
ጅምላ
▁ጥያቄዎችን
▁ይገልጻ
▁45
▁ታሪኮች
ጎል
ቋንቋ
ነኛው
▁በብዛት
መጣጣኝ
▁እሴት
▁ካሉት
▁ይሄው
▁ተበ
▁እሄዳ
17
ውሉ
ጨነቁ
▁ሰዎችም
▁አረንጓዴ
25
▁የሞባይል
ከፈተ
▁ለማንም
▁ቁማር
▁መገንባት
-19
▁ያውቃል።
በን
▁ይዟ
▁ሚዛን
▁ትምህርቶች
ሥራቅ
ራሪ
ንግል
▁ያለባቸው
ዱስ
▁38
▁ማፍ
▁በአይ
▁ተሰጥቶ
ኑ።
ግበር
▁የሚመራ
▁አንዷ
▁ሊወስድ
▁ቅናሽ
▁በአካል
ልፉ
ጡንቻ
▁ውስን
ኪን
ደዋል
▁ቅጥ
▁ሠራዊት
▁አምላኬ
ዛኝ
ce
▁ለመል
▁በኢን
▁አርቲ
▁ያስቀም
▁እያሳ
▁አኳ
▁ትንቢት
▁ዌ
ቀጥታ
▁ውህ
ወያየት
▁ማሻሻል
▁እናምና
▁የሀገር
▁ቢሆኑ
▁ይካሄ
ፈልጋቸው
▁ቂ
▁ስዕ
▁በተለያየ
▁መጫን
▁ይገለ
▁እናውቃለን።
መጣም
ሞክር
▁y
▁ቆሞ
▁ምኞት
▁አላት።
▁ከመጀመሪያው
▁ቆዳ
▁ጠረ
▁የአእምሮ
አለሁ
▁የዱ
ቃቂ
▁የቀድሞው
ራቅ
ራትን
▁በሰሜን
▁ተቀማጭ
ጣፍ
▁ኢየሩሳሌም
ናችሁ
እነዚህ
▁ዘፈን
▁አምናለሁ።
ረቅ
▁ለደን
ሰራም
ክሬን
▁ያለመ
▁ዮርክ
ስቲክ
ኾነ
▁የቻ
▁መታወ
▁ተከተል
▁የተጠቃሚ
▁ያለብን
ረትን
ራቢያ
▁አሥር
▁ቆይቷል
▁የምፈልገው
▁በቀዳሚ
▁ራሴ
▁በጠቅ
▁ፍቃድ
▁አመራሮች
▁ፍጡ
▁ካለዎት
ልት
▁ለማከናወን
ቀው።
ንግተን
▁መድሃኒ
▁ከምድር
▁በሰዎች
▁የውስጥ
ሰዋል
▁መምህር
:20
ህሳስ
▁Home
▁ሀብታም
ዳሉ።
▁ቀድ
▁አቡ
▁መረጃን
▁ከሌላው
▁አግኝቷል
ስተን
ቶችም
▁ቱርክ
▁ምስሎች
ይዙ
ለን፤
ከባከብ
ካች
▁ፀጉር
▁በቡ
▁የመነ
▁ነበረች
▁የተሻሉ
▁ጥቅምት
ጄሪያ
▁በይነ
▁ዕድገት
▁ዘንድሮ
▁ነገረ
▁ባልደረ
ቀቱ
ተፍ
ወደድ
▁እየተደረገ
ዎቹም
ዘረዘ
▁ንገ
ጠዋል።
▁ያስፈል
▁ቪዲዮዎችን
ዞን
▁ርካሽ
▁የሚከተለውን
▁የማድረግ
▁በመንግስት
▁ወታደሮች
▁ባላ
▁ብልህ
▁እናያ
▁ድልድ
ስራኤልም
▁በዝርዝር
),
▁የሰውነት
▁የተደረገው
ሰበሰቡ
▁ሕዝቡን
▁እማ
▁ከልብ
▁በእነሱ
▁ጓደኛዬ
▁፦
▁ግር
▁አሰጣ
-3
▁ትራንስፖርት
ሁትን
ላላው
ላጆች
▁ሳም
ካው
▁ወስዶ
▁ይስጥ
▁ሁለቱን
▁መሰል
▁መለኪያ
▁መለየት
ሪታ
ቂቅ
ጫወቱ
ጻፈው
▁ሜትር
▁ውድድ
▁ስላለው
▁አንችልም
▁አገልጋዮች
የቱ
ቀሳቀስ
ቆጠር
▁ያደረጉ
▁መቆጣጠር
▁መተማመን
▁ግድግዳ
▁ተመለሰ
▁ድንገት
br
▁ኹ
▁ከባለ
▁ተመልከት
▁ለጉ
▁የሴ
▁ጭማሪ
▁ከሌለ
▁ቅዱስን
▁መገንዘብ
▁የሚፈልግ
▁በሕግ
▁ተመልሰው
ዮሽ
▁ጠቁ
▁በበለጠ
▁ተዕለት
▁መብራት
▁ለመገናኘት
▁ማስጠንቀቂያ
▁ያጠፋ
▁ግጭ
▁የሁለት
▁ሊያደርግ
▁ተጫራ
▁ይመጣል።
መሳ
ቧንቧ
ያያዙ
ግራቸው
▁የመሰ
ጠቀስ
ሲኖ
▁ህጎች
▁ያሳያል።
ለያይ
▁ፈንታ
▁ማስተላለፍ
▁የሮ
▁የሚፈልጉት
▁አንችልም።
▁ጥያቄው
▁የማይቻል
▁ዝማ
▁ፍጥረት
ዘት
ታትን
▁ቃሉ
▁የሚለ
▁ሶስተኛ
ሀብ
ጆታ
በትና
▁ስለሆኑ
▁ቀዝቃዛ
ድዮ
ከዚህ
▁ቀዳ
ላችሁ፤
▁ፊልሞች
በዋል።
▁የእጅ
▁ክፍያዎች
▁በኢንተርኔት
▁ቁጣ
▁ሲታይ
▁ቢኖሩ
24
ጠዋል
▁ቀል
ጦት
ክበር
▁አለበለዚያ
▁ሰፈር
ቶቻቸውን
▁እንዳለባቸው
▁ያስደ
▁መዋቅር
▁ጥንታዊ
ገርም
▁ይችል
▁2011
ሪያዎች
▁በአዲሱ
ዕኮ
▁ከሳ
▁ራሳቸው
ኮችን
ላችሁን
ዎቻቸውን
▁ጉዳዮችን
ለፈ
ናል፤
▁አሞ
▁ብጁ
ኖርበት
▁ስልጣ
▁አድና
▁ከንቱ
▁ሰሞኑን
▁ይረዳል
▁ይኖሩ
ዞር
ጉም
▁ጫፍ
▁በወር
▁መርዳት
▁ኢትዮጵያውያን
▁ለልጆች
▁በሚቀጥሉት
▁ወዲያ
▁ተያይዞ
▁በውስጣ
ኮር
▁መወሰን
▁እንዲቀ
▁ግብፅ
▁ሕዝቡም
▁አድናቂ
▁ብሔ
▁ድርጅቱ
ፕሎማ
▁ላለው
ጠቀምበት
▁ውጤቶችን
▁በትክክለኛው
ሶን
ጸመ
▁ለማዳን
መላ
ንዲ
▁እያደረጉ
ካፈል
▁ዋጋዎች
▁የቴክኖሎጂ
ገናል።
ጦችን
▁መተው
▁መከላከል
መደ
ሙላት
ኙነት
▁ይነሳ
▁መታየት
▁ግንባር
▁ፉ
ባባይ
▁ጉልበት
▁ይሰማኛል
ልቶ
ትመት
▁ማም
▁ተከፍ
▁ታገኛ
▁የተገነባ
▁አቀራረብ
ሹን
▁ላሉት
▁ወገኖ
ቀዱ
▁ለመሥራት
▁ይኖርበታል።
▁አፋ
▁ክለብ
▁ክቡር
▁በሁለቱ
▁የመሳሰ
▁አውሮፕላ
▁እንዳላቸው
▁ይሰጥ
▁ለመቅ
ወርድ
ጫዎች
▁አቁ
▁መቋቋም
▁ባለቤቴ
▁መመሪያዎች
ያቸውን
▁መርከ
▁አስባለሁ።
▁በሱ
▁ቅርንጫ
▁ተወዳዳሪ
ህ፣
ረቡ
▁re
ጣጣ
▁እኩ
ዋለን።
▁አስብ
▁በግልፅ
▁የሩሲያ
ate
▁በዋናነት
ፎን
▁ሰሌ
▁መቆጣጠሪያ
▁ኪሎ
▁ለራሱ
▁ጥላቻ
▁ተስማም
ርምያስ
▁ትንታኔ
ኪዎች
▁ሃያ
▁ኩራት
▁አልቻለም
▁ምቾት
▁የሚመጡ
ስሐ
▁ጠፋ
▁for
▁ከሌላ
▁ፍልስ
▁ሰራተኛ
▁ተፅዕኖ
▁እናገኛ
▁ብክ
▁አድማ
▁ተመለሱ
ክሲኮ
ጥረው
▁ስዕል
▁አይቀርም
▁መስተ
▁ያገኙ
ሁ፤
መዋል
▁የስነ
▁ውጤቱ
ጫዋ
▁መገናኛ
▁በእምነት
▁ነጋዴዎች
▁ይጠይቃል
▁የኢንዱስትሪ
▁ነህ።
▁ፓርክ
▁Play
▁ይናገራል
▁ኪሳራ
▁ትክክለኛው
▁ቃሉን
▁ስርጭት
▁ክትባት
▁የፍርድ
▁ምክንያቱ
▁እስከዛሬ
▁የሚያውቅ
PS
▁ሒ
ጀምሩ
ገለጹ
ረናል።
▁ያስፈልገናል
▁ሊቃ
▁እሆና
ዓን
▁ኮሚሽን
▁የተገደ
▁ማስተማር
▁በዙሪያ
▁አልሆነ
▁ይሂዱ
▁አምራች
▁ዲጂታል
▁ጥርጣሬ
▁አጋጣሚዎች
▁ታያ
▁የጎን
▁ታውቋል።
▁አደባባይ
co
▁ተረት
▁የፊት
▁የጀርመን
▁00
▁ያውቁ
▁አገዛዝ
▁የመኖሪያ
▁የተለመዱ
▁ጎብኝ
▁ተለዋዋጭ
ሳችሁን
▁የተቆ
▁ግድብ
▁የተስፋ
▁የፈረንሳይ
ጎም
ቀሩ
▁ያቀረ
ታል፤
▁ለማዳ
▁የአንተ
▁|
▁የምለው
▁አመልክ
የኝ
▁አውቀ
▁ለጥቂት
▁መገኘት
▁ያስገቡ
▁አምናለሁ
አላህ
▁ለእነዚህ
▁ለመስማት
▁ቴሌቪዥን
▁እራስዎን
▁v
▁ተከታዮች
ልታ
ድድር
▁ይጠይቃል።
▁Ethiopia
▁ሲታ
▁ችግሮችን
▁የአትክልት
ርብ
▁ውሸ
ቀርበው
▁እህት
▁የታሪክ
ልኝ።
ደባባይ
▁በተቃራኒው
▁ምሽ
ንስሳት
ሁላችንም
▁ተደረገ
▁ዐይ
▁ለመገ
▁ኃይሎች
▁የተመሰረተ
ታቸውም
▁በቅድሚያ
▁በማህበራዊ
▁አያስፈልግ
▁ስያሜ
▁ምድብ
▁የፀሐይ
የረ
ወና
ዋው
▁የቆየ
▁ልውውጥ
▁ርዝመት
▁በመሄድ
▁አስፈላጊነት
ማሪያ
▁ሀይ
▁ለነ
▁የሚሠራ
ፋው
▁እንቁ
▁ኤጀንሲ
▁መጨረሻው
▁አለ፤
▁አማልክት
ነሳት
▁ብየ
▁ያጠ
ኢትዮጵያ
▁መቀመጫ
ዌይ
▁ተች
▁ደስተኞች
▁የልጅ
▁ግም
ለህም
▁ጆን
▁ያለብዎት
ራብ
ሶቹ
ዝገብ
▁ድሮ
▁ሠራተኛ
▁በቢ
ማም
ቦን
▁ኪንግ
▁ሕፃናት
▁እሞክራ
ፃፈ
▁ነብ
▁መነጋገር
▁አስተዋፅ
▁አላት
▁አርባ
▁ቁሳቁሶች
ያንም
▁ግቦች
ፈቀደ
▁በመላ
ን፣
▁ቬ
▁እሰ
▁ይመል
▁ለመምረጥ
ውቅ
ፉ።
ረቶች
▁ዕዳ
▁በዘር
▁አያያዝ
ቪል
▁ካስ
ጋጠ
▁የተላ
▁የነፃ
▁በገንዘብ
ine
ክንያ
▁በወን
▁እንደምታ
ካተት
▁ግዢ
▁በማሳ
▁በከፊ
▁ጽድቅ
ber
ጊዜም
▁ታዛ
ያኑ
ዕራብ
▁ላይሆን
▁እያስ
▁ቤተሰቡ
▁ፋይሎችን
▁የመከላከያ
▁እባካችሁ
ዘዙ
ሠሩት
ከትል
▁ፈሪ
▁በአል
▁አዝናኝ
▁የቀጥታ
▁በሰፊው
▁ለመቆጣጠር
▁የበላይነት
▁48
▁ረዥም
▁ገመድ
▁አሳሳቢ
▁ተሽከርካሪ
▁39
▁ኢንተርኔት
ህረ
▁ዘፈ
▁ይዘን
▁ደሴት
ስታወቂያ
▁የዘላለም
▁ከጨ
▁ሊባል
▁የምናው
▁ይለኛል
▁እንደውም
▁ግንኙነቶች
ደለ
ጥሞ
ሰበው
ቂዎች
▁የረ
▁የተጻፈ
ዋጋ
▁ሳንቲ
▁l
ጠባበ
▁መቆም
ቃጠል
▁የቤ
▁አማር
▁ዚ
በራቸው
▁Q
ብላት
▁የኬ
▁የሞት
▁መሻሻል
▁ምስጢር
▁እየሞ
▁የመጀመሪያዎቹ
▁ካም
ያችሁ
▁አስራ
▁ይጠቀ
▁ውስጣዊ
▁እነዚያን
ላቁ
▁ሄደ።
▁ተቃራኒ
▁ለመጠየቅ
▁የሊ
▁ከአን
▁አሳዛኝ
▁እርሳቸው
ብሔር
▁ቀበ
▁በማግ
▁ማስተካከል
▁ፌዴ
▁ጣቢያው
ውም።
ግብር
▁የአገሪቱ
▁አሮጌ
▁ሚዛ
▁በሬ
Tube
▁መስቀል
ሆች
ነፃፀ
▁ትላልቅ
▁እንዲፈ
▁ለማሸነፍ
▁ተወካዮች
ገተኛ
ባባሪ
▁ሥፍራ
▁ዋጋው
▁ይጠበቃል
ዛል
▁ፈታኝ
▁ኢንተር
ቃችሁ
▁ለመሞከር
ዓቱ
▁ሂደቱ
▁በገዛ
▁የልጆች
▁አያውቁም
▁ቤቴ
▁የቀን
▁መድረሻ
▁የእናንተ
▁ጨረቃ
▁ያስባሉ
▁ፈልጌ
▁ዲሞክራሲ
▁አልቻልኩም
▁ተልዕኮ
▁ከሚያስ
▁ለመጎብኘት
▁ለማሟላት
ኩኝ።
▁እድገ
▁መሞ
▁ይከብ
ለትን
ጴዛ
ቀጣ
▁ይታያል።
ሽው
መዝገብ
▁መጋቢት
▁በመጽሐፍ
▁ይመራ
▁ይስጡ
▁እውነቱ
▁የረጅም
▁የበይነመረብ
ሀፍ
▁እራት
▁የካቲት
▁ተዘግ
▁መስሪያ
ከነ
▁ኧረ
▁ለህዝብ
ሰኞ
ባቢያዊ
ፖለቲካ
▁አስኪያ
ጠናከር
▁መልሰው
▁በአምላክ
▁ደጋፊዎች
ra
ሰዱ
ሉበት
▁ማምጣት
ወዱ
ላቸዋል
▁ለመለወጥ
▁በፖለቲካ
ጋጭ
▁የክፍያ
ልማ
▁ኤክስ
▁ለመጫወት
▁ከተለያዩ
▁ያደርጋሉ
▁ለማጥፋት
▁አይመስለኝም
ኳስ
▁ልማድ
▁ተኝ
ና፣
▁በቤ
▁እንመ
▁ሲናገር
▁እንቆ
▁ከእሷ
▁መስኮት
▁ጀመር።
▁ጀልባ
ሰውን
▁የሚበ
▁በግምት
▁ግን፣
▁አዝራር
▁አደረገ።
ፋዊ
▁በርሳቸው
▁2010
▁ቄ
ተኛት
ከውን
▁ወለድ
ቦቹ
ረናል
▁ታግ
▁ንቅ
▁2009
▁ዓይኖች
▁ተሰም
▁ተኳሃ
▁ያለማ
▁ይገናኛ
▁ግፍ
ስለዚህ
▁ተደጋ
▁ገለል
▁አልሰማ
▁አያስፈልግም
ራለን
▁የሌላ
▁የሙከራ
▁የመሆን
▁ዱቄት
▁ተሳታፊ
▁ጊዜውን
ቅያ
▁ማንሳት
ገቢያ
▁የሆን
▁ሬዲዮ
▁ታደርጋ
▁መግባባት
ርቱ
ስታዊ
▁ከኤ
▁ውጊያ
▁ፍትህ
▁አፕል
▁ክረምት
▁ባር
▁ሸማ
▁አፍቃ
▁ስለሆን
▁በመጣ
▁የፍት
▁ደመወዝ
▁አይገባም
ካተተ
▁እናቀርባ
ሃፍ
ቀሻ
ደሱ
▁ወጪዎች
▁ቀኑ
▁ፍጥረ
▁በፍርድ
▁ነዳጅ
▁Wi
▁በመደበኛ
▁ፀሐ
▁አፈር
▁እግዚ
ሽታ
▁ሰዉ
▁በደረ
▁ይገር
▁ከኔ
▁ተከራ
▁በአላህ
▁በቁጥጥር
▁ጥሬ
▁ምግባር
▁ባህሪዎች
ሳም
ዳኝ
▁መጠጣት
▁በአካ
▁ኢንዱስት
ነትም
▁ወረዳ
▁ማንንም
ፎካ
▁ሰፋ
▁እያልኩ
▁ለመግለጽ
▁←
ኞቹን
ኩባንያው
▁ማክበር
ወስዱ
▁ቀርቦ
▁ያተኮ
▁የማስተ
▁ይኖራሉ
▁ሃላፊነት
▁አደርጋለሁ።
▁ጎብ
▁መርህ
▁ማሞ
▁በቦታው
▁ወግ
▁የገዛ
▁ፈረን
ዳግም
▁አማካሪ
ባበል
▁አሪፍ
▁የተራ
▁ይኸውም
▁ማከናወን
▁በሁለተኛው
▁በተከታታይ
ክሌ
ስማሙ
▁ህፃናት
ሆንበት
▁የሚባ
▁ገበሬ
▁ማስታወስ
▁ድራ
▁መድኃኒ
▁እስከመ
▁ሁልጊዜም
▁በረራ
ዑስ
የስ
ኗል።
▁ከጠ
▁ሚስቱ
▁የኑሮ
▁ያለንን
4)
▁]
ሰጥም
▁ውጣ
ረጋግጥ
▁ኤርምያስ
መቻቸት
▁ንገረኝ
▁አፈጻጸም
▁ጎራ
ኗን
▁ቅርጸት
▁ማንን
▁ወረርሽኝ
▁ተናግሯል።
ችም።
▁ተግዳ
▁ነሐሴ
▁መዝናኛ
ሰሳ
▁ጽሁ
▁በሕዝብ
▁እየሠራ
70
▁በልጅ
▁መፍታት
▁የፌዴራል
▁በእንግሊዝኛ
ከፈት
ታደር
▁ምሕረት
▁የሚያምር
ID
ዕና
መናን
▁ነው፥
▁መንገዱን
▁የሚጠቀሙ
▁ትችላለህ።
ጥብ
▁በአስተ
▁በግብፅ
▁ጌታዬ
og
ባሉ።
▁በሞት
▁ሲሆን፣
ለወጠ
ሰጠን
▁በጨረ
▁ይታወቃል
ለለ
መቅ
ዙን
▁ኤን
▁ስህተቶች
ተኞቹ
▁ጳጳ
እነርሱ
ዳቸውን
▁አምላካችን
▁ያሳድ
▁በመሆናቸው
▁ግቢ
▁እምቢ
▁የሚረዱ
▁የተያያዘ
ውር
ታለች።
▁የነገ
▁አልችልም።
ሰጠኝ
▁ወጣቱ
▁ይመረ
▁ጠንክ
▁አስፈፃሚ
ስፈላጊ
▁ከጉ
▁የመታ
▁አልተገኘ
▁Z
▁ይማ
▁ተመላሽ
▁ካህናት
80
▁ባልና
▁አስታ
▁ዘግይ
▁በመጨረሻው
መተ
▁አሁኑ
▁በታሪክ
▁ያስችል
▁ድንጋጌ
▁መዛሙርቱ
13
መሙ
▁/>
▁እያየ
▁ታየ
▁እሚ
ቫይረሱ
▁ጀመ
▁ተሰር
▁እጠብቃ
ወቂያ
▁ወይን
▁በስልክ
ሮጥ
▁ዩሮ
▁ህጻናት
out
ፈጸመ
▁ረቂቅ
ሽያጭ
ወስዳ
▁ይከተ
▁ህወሓት
▁የቴክ
▁ምርጫው
▁ሰነዶች
ኤን
አዎ
ቀበሉ
▁ተከላ
▁የተከለ
▁ጌታችን
▁በኢየሩሳሌም
▁ተመዝ
▁ሲፈ
ስታንቡል
▁እነማን
ord
▁ታዳጊ
▁አስተናጋጅ
ዳማ
▁YouTube
▁አገባ
▁ገልፀ
▁የሌላቸው
▁የተጀመረው
ሣይ
መናት
ብሰባ
▁ዳኛ
▁ረዳት
▁ስልት
▁ስፖር
▁ደርሷል
ንጋ
▁42
ከፋፈል
▁መጽሔት
▁ዞን
እንዴት
▁ትግበራ
▁ዋነኛው
በላሸ
▁ጩኸት
ዊው
▁ነፋ
▁ያነ
▁ተመለስ
▁ራሳችንን
ዜማ
▁ክሪ
▁the
▁ያመጣል
▁መከታተል
▁ማስተካከ
:22
hat
▁ስንል
▁ሙስሊም
▁ለመፈለግ
ኗኗር
▁ስድ
▁ይጋ
▁ልምምድ
ዚል
▁ሀይል
▁በፌስቡክ
▁ተደርጓል።
ነሳው
▁መት
▁አሃ
▁አይን
▁ግብዣ
▁አለቆች
▁★
▁ረዳ
▁App
▁ፓርላማ
ነጋገሩ
▁አጠፋ
▁ይጠብቁ
ጆሮ
ለውጥ
▁ዘና
▁እናቱ
▁ክፍተት
▁ሲደርስ
▁አይተው
▁ማዕከላዊ
▁የማይችል
ትሮ
▁ቼ
ማቸውን
ያውቁት
▁..."
ላቀሉ
▁ከፊት
▁ተናገር
ዕለ
▁ነቢይ
▁ምክንያታዊ
▁የተወለደው
ቀኛ
▁የሚደረገው
ቀይ
ድማ
▁e
▁መፅሐ
▁በሆነው
▁እንዳሉት
▁ለኢትዮጵያ
▁ጨዋታዎችን
ከባቢው
▁ምንዛሬ
▁አማርኛ
▁የትዳር
ነኝ
ግሞ
▁ስራው
ተሮች
▁ጅምር
▁እንደዛ
ly
ፉም
▁ተጀም
▁አይተ
ዕድ
▁ካርታ
▁በሀገር
▁ማስታወቂያዎች
▁ከመቶ
▁የምታው
▁በበርካታ
▁ተነስቶ
▁ስለነበረ
▁በጨለማ
▁የሚቻለው
▁በማሰብ
▁ላከ
▁እጁን
▁የምርምር
ቲቱ
ፋይ
▁ሌላም
▁አስፈሪ
▁ነገሥታት
ልዩ
▁ቢል
መንግስት
▁ሰማያዊ
▁የፓርቲ
▁የሚኖረው
▁ደንቦች
▁ዶሮ
▁ማግኘ
▁ትንሣኤ
▁ቆይቷል።
▁በጀርመን
ወን
ጋባ
ለሰብ
▁ሰሌዳ
▁ሁላችን
▁አገኘሁ
▁የጨረታ
▁ተሻ
ርሳቸው
▁አሥራ
▁ያንተ
▁ይገናኛሉ
ገጽ
▁በሊ
ዳሪዎች
▁ሊከሰት
▁ምዕራብ
▁ያመ
▁ለድር
ፁህ
▁ከኃ
▁ሞኝ
▁ያዝ
▁ለብቻ
▁አላስ
▁ጥቂቶች
ዎቼ
▁ተሞ
ment
▁እየፈለጉ
▁44
ታችንም
▁አነሳ
▁አገላለ
▁ሲነ
▁ካገኘ
ቀ።
ጓቸው
▁ያዩ
▁የማል
▁ለመውጣት
▁የኩ
ብኝ።
▁Mac
▁ባለስልጣናት
ጻፉ
▁•
ክሽን
▁ሊመጣ
▁እየሰሩ
▁ውድቀት
▁የእሳት
▁በውስ
▁ከሥራ
▁አድርገዋል
ያያ
ፋቱ
▁በመታ
▁ጸሐፊ
▁አነጋገር
▁የሚገርመው
ቶቻችንን
▁ባይሆን
▁የሚታወቅ
▁ፓስ
ዴሞክራሲ
▁ህጻ
በረታታ
ምሳ
▁ለጋ
▁የሜ
▁በርሱ
▁የሚሄድ
▁የመንገድ
▁እንደሚሉት
:21
ጋጣሚ
ኢየሱስ
▁አሉን
▁አደጋዎች
ደይ
ደርግም
▁ከምር
▁ጨረታ
ይወቴ
▁ለዛ
▁ከድ
▁ሊውል
ቅድመ
ሮፕላን
▁ነፋስ
▁አሻንጉ
ቆር
▁ሕፃ
▁ዳቦ
▁እናድርግ
▁ብና
▁መታወቂያ
ገልገ
▁ፀረ
▁የመሰለ
▁የአማራ
ሄደው
ጥበብ
▁ዓሣ
▁ሰራዊት
▁በከፊል
▁አምልኮ
▁ሩሲያ
▁ሳጥን
▁የሰውን
ቅምት
▁ቅጂ
▁ጭነት
▁በይነገ
ዋውያን
▁ይጎብ
▁ለማዘጋጀት
▁በእጃ
▁በፊቱ
▁የቡድን
▁ኢትዮጵያን
▁የማግኘት
▁አይደለምን
▁የሻ
▁ሕፃን
▁በመጥ
▁ይኖራ
▁ተፈጥሯዊ
ቆስ
▁300
▁ረዘም
▁አብዮት
▁ክሊ
ላለን።
ገነዘብ
▁የራሳቸው
ግድ
▁ፆ
▁ማዋ
▁ዮና
▁ዘመኑ
▁ጊዜ፣
▁እንዳን
▁ይሆናል፤
are
ምነው
▁ምዕ
▁ሔ
▁አይነቶች
▁ሕል
▁ኪዳ
▁ጥብቅ
▁መቀመጥ
▁ነቅ
▁000
▁በባህር
▁የለም፤
▁አይፈልጉ
▁አስተዳዳሪ
▁ጁ
▁1,
▁መች
▁አተ
▁የሞተ
▁የተዛ
▁ማከማቻ
ካቾች
▁ቶን
▁የግንባታ
ቴም
ውጣ
▁እጩ
▁ለማጣ
▁ሊኖሩ
▁አይቼ
▁ገጽታዎች
▁እንዲያደርጉ
▁ይመለከ
▁ያለሁ
በሰ
ምና።
▁ተነግ
▁ምንጊዜም
ኮራ
ካኤል
ይጣን
▁ወሲብ
▁ተነሳሽነት
▁ቸር
▁ገጹ
ናቅ
ገለጽ
▁ይጎብኙ
▁ነበረው።
▁አምላክን
ዲን
▁ለሰዎች
መላለ
ንቅልፍ
▁ተመስ
▁መድኃኒት
▁ባለቤቶች
▁የሃይማኖት
ላሴ
▁መኖሩ
▁የለንም
▁አቀማመጥ
▁በመካከላቸው
ባክ
ኮን
ታችሁን
▁ቢሆኑም
▁ክለቦች
▁በፈረንሳይ
if
ዶም
ለትም
▁ህንድ
▁አማካይነት
ጠበቀው
▁ጊዜን
▁ጠቀሜታ
▁አምባገነ
5)
ቀመጠ
ለናል።
▁ቀልድ
▁በከን
▁ነበራ
▁ከማን
▁ዩኒቨርስቲ
ክሉ
▁ነገሩን
▁ደሴቶች
ለጡ
▁በመሰ
ከናወነው
▁መሸጥ
▁ቀለል
▁ይቀን
ታለች
▁ያህ
▁እራሴን
ኮዝ
▁ሥራዎችን
ራዊቱ
▁ይመጣሉ
▁እችላለሁ።
▁እንደነበሩ
ሉት።
ጠይቀው
▁ማህበረ
▁በጥብቅ
▁አላየሁ
▁ሦስተኛው
▁ይወር
▁ቁል
▁ዘረ
▁ስሙን
▁ንባብ
▁መኖሩን
▁አዳራሽ
▁በአገራችን
▁Ch
▁ቦታው
ጣሉ።
ፐብሊክ
▁የተነ
▁አስታወቀ
ሩትን
▁ማሸ
▁ቢባል
▁መጸለይ
▁ለማስተካከል
ቦታው
ነበበ
▁ፓው
▁ካሲኖ
▁ስራውን
▁በሦስት
▁አሰጣጥ
▁ባንኮች
ፀመ
ደንቅ
▁የሚያደርጉት
▁ዒ
:24
▁በግን
▁አልታ
▁ያብራ
▁እንዲያስ
▁ክም
▁ክሬ
▁ሽብር
እነሆ
▁ምሳ
▁ቪዛ
▁ጨር
▁የሥነ
▁እንመለከታ
▁ፍሰት
▁ተገልጿል።
▁ፍጆታ
መለከታቸው
▁እሄዳለሁ
▁ለመዋ
▁ማለቱ
▁ሲሄድ
ፈለገውን
▁ለሕዝብ
▁እንደሆንኩ
▁43
▁እጆች
▁የተደ
▁ሁነታ
ራሱ
ንጻ
▁በፍፁም
▁ከዚያን
▁ጠላቶች
ርኩ
ንደቅ
▁ሐምሌ
▁ያክል
▁እያንዳንዳቸው
ወድቅ
▁እዚያም
▁ለመቀጠል
▁መስመሮች
ማሉ።
▁4.
▁ሐኪም
▁ጥቅል
ምባ
▁ዓላማዎች
▁እየተካሄደ
ለኝ።
▁በሦ
ebook
ደርጋቸው
ያተ
ባቶች
ክብት
▁ሽን
▁ገድ
▁ውሰድ
▁ዓይኖ
▁እንጠብቃ
▁እውነታው
ቀቶች
ኞቻቸው
▁ወላጅ
▁ወተት
ደርገውን
▁Tag
▁በመም
▁አይነቱ
▁አይኖርም።
ይስ
ፈለጋ
▁በኃላ
▁ተረጋግ
▁ለመክፈት
ስተም
▁ፍቺ
▁እንዳስ
▁ከምንም
▁ብስክሌት
▁ደመና
▁ግርማ
▁ተናጋሪ
▁አዕምሮ
qu
ለታል
ሌቶች
▁ሰውም
▁በቀስ
▁የፍለጋ
▁ጤንነት
መታ
ማሉ
▁ወሰደ
ews
ነፃፀር
▁ክትትል
▁የሰጠው
ቿን
ነዋል
ነዋል።
ጠቅላይ
▁ጥቅስ
ንቀሳቀሱ
▁ማጣሪያ
▁የሚጠበቅ
ምብ
ቢሲ
ለህ፤
▁ምስጢ
▁ባትሪ
▁ድርጣቢያ
ቡና
ፈቻ
▁ከሱ
▁የጀመረው
▁አህመድ
▁ይደሰቱ
ባኤ
ሁንም
▁ሊያሳ
▁ንጉሡም
▁የግላዊነት
▁የነዳጅ
▁የወሲብ
▁የይለፍ
▁ይወጣል
ዋላ
ጋንዳ
▁ፕሪ
ሳምንቱ
▁እንዳላ
ፈዋል።
▁መጠይቅ
ዝነስ
▁በልዩ
▁በጉዳዩ
ወለዱ
▁አይሁድ
ወንድ
ጀምረው
▁ማክሰኞ
▁ድንኳን
▁ለመሸ
▁ሳይንሳዊ
▁ለእስራኤል
▁የተናገረው
ቀውም
ዛቸው
▁አስቆ
▁ደርግ
▁ትራምፕ
▁ዘመናት
▁አይኖርም
ካቸው
▁ሙሽ
▁አርሶ
▁ዓይነቱን
▁ቅደም
▁በግሌ
▁መመገብ
▁የፋይናንስ
▁የገቢ
▁እወዳለሁ።
ከባድ
▁ተባ
▁ማዳመጥ
ጠፍ
ኒልክ
ገልጽ
▁ሱቅ
ጠባበቅ
▁ለመጨረሻ
ኒን
ጸልይ
▁ምክትል
▁ገልጿል።
▁ማለዳ
▁ሰለባ
▁ያለኝ
▁በሌሊት
▁አስቀድመው
ቶቻችሁ
▁ሞትን
▁ተገድ
▁ተጋላጭ
▁አሏቸው
▁በይነገጽ
▁በባለ
▁በተራ
▁ማቆሚያ
▁ሥልጠና
▁ከሩ
▁በረከ
▁ንጹሕ
▁ከሰዓት
▁የልደት
▁ይሁን።
▁ዘፍጥረት
▁የትራንስፖርት
ፈጥ
ሻል።
ብዛም
ip
ድጉ
ont
▁on
▁ብሩህ
▁እንደመጣ
▁እናደርጋለን።
▁የተረ
▁መቅረብ
ረፍተ
ካሄዱ
▁የር
▁የቆዳ
▁በየአመቱ
▁አይደለንም
እም
ያዙት
▁መያዣ
▁በፕሮ
▁ታድያ
▁የበዓ
ኤፍ
ዕለቱ
▁of
▁ዘለ
▁ያበ
▁ተገናኝ
ምገም
▁ጉባዔ
▁እየመጣ
▁የጌታን
ዑል
▁ተስፋዬ
▁ጋራ
▁በዚህች
▁ትፈልጋለህ
▁የእንግሊዝኛ
ምታ
ቀቁ
▁ሰብዓዊ
▁አማኞች
."
▁ለበርካታ
▁መምህራን
ht
▁ያሉት።
▁በጊዜው
▁የሚታየው
▁ገር
▁አልኩ
▁ነገርን
▁የሰዎች
▁እናንተን
▁መግባ
▁ንዑስ
ዖት
▁አለብዎት።
ጫዊ
ከፍል
ክሌር
▁ያለነው
ቀበላ
▁ብስ
▁ካፒ
▁በግራ
▁መነሳት
▁አላህን
▁እነዚህም
▁ያልተለመደ
▁ዘርፎች
▁የሰማይ
▁የወንጀል
pt
ዉም
▁ዲስ
ገለጸው
▁አሸን
▁የተሠራ
መርጡ
▁ላንተ
▁ተጠንቀ
ከስ
▁:
ጽሐፉ
ቅቅ
▁ጀመሩ።
▁መመዝገብ
acebook
▁ቧንቧ
▁የሌለ
▁በእውነተኛ
▁የመላ
▁ናችሁ።
▁የመንፈስ
▁የትግራይ
▁መዳን
▁አኳያ
▁ሊቀመን
▁በቀጣዩ
▁ይወዳሉ
▁ተጠቃሚው
ለናል
▁አሌ
▁ሥልጣ
▁አራተኛ
▁አንበሳ
▁ሊኖራቸው
▁የተያያዙ
ደረስ
ገኘውን
▁መዝሙ
▁የመድ
▁አብረ
▁ከኛ
▁አስተው
▁እስራኤላውያን
▁ከጌታ
▁አለች።
▁አላህም
▁እንወዳ
መርጣ
▁ራዕይ
▁ያደረጉት
▁አያውቁም።
ጭን
ፈሳዊ
▁ከሐ
▁Am
▁ባለፈ
▁ትኩስ
▁የፕሬ
ርያው
ቆጠሩ
ገኛል
▁ሴራ
ላችኋል
▁ለይቶ
▁መድረኮች
▁ስርዓቶች
ሰራጨት
▁በማቅረብ
8)
ጠጡ
ኛዎቹ
▁እራሳቸውን
ቲቪ
ዘዋ
ጠቅም
▁አናት
▁ሴቶችን
▁ያደርገዋል።
ምፒክ
▁ገዛ
▁ሃላፊ
▁ለመለየት
▁የማውቀው
ድዋ
▁(2
▁ጎበዝ
ነበራቸው
▁በክልሉ
▁ተፅእኖ
▁መመርመር
▁ባሪያዎች
▁ይለኛል።
ቤቶች
▁ነበርና
▁ይሄዳሉ
ሃም
ሊያም
▁የተጣ
▁በመሠረቱ
▁የተፈጠረው
ቂቱ
ላለፈ
▁ያላት
▁እርካታ
▁ኢህአዴግ
▁የፌስቡክ
uc
ደመ
ፈጸሙ
▁የሉ
▁ይወዳል
▁ለማገልገል
ለጠፍ
▁ኤች
▁ይብ
▁የመኖር
▁መሆኑንም
▁ለማስቀመጥ
▁በዚ
▁ለማገዝ
▁ይቀጥሉ
▁ሁኔታውን
ጋብ
▁ከር
▁የቃ
▁ጠራ
▁ምትኬ
▁ቱሪዝም
▁በኪ
▁ወደድ
▁ይጠይቁ
▁የምችለው
ጥበት
▁ከኮ
▁ወፍ
▁አርት
▁ገዳይ
▁ትላንት
ሟሉ
ገጃ
ማዎች
▁ትውስታ
▁ጢ
▁እጠይቃ
በጣም
▁እጄ
ሆናችሁ
▁ሳያስ
▁አልተቻ
▁በሚሊዮን
ይሄ
▁ሌባ
▁ከወጣ
▁ጣዕም
▁ተመጣጣኝ
7)
ነቴን
▁ፍል
▁መቃብር
▁አብርሃም
▁የቴሌቪዥን
ታለሁ።
▁አከባቢ
ፈቅ
har
▁ባንድ
▁የአገ
ባቸውም።
▁ይከተሉ
▁የሚሆነውን
▁ለድ
▁ሰሎ
▁ትዕግ
▁ሞባይል
▁ይበልጣል
▁ጋዜጠኞች
6)
ሳያ
ቀች
▁አሉኝ
▁የምስክር
▁k
▁መጠቀ
▁ለመክፈል
▁እንደማያ
ቋርጥ
▁በቀኝ
▁ከአሜሪካ
▁የሆኑትን
ረቃ
ድገት
▁ሄጄ
▁እንባ
▁ፕሮፌሰር
ሮቹን
▁ሰበብ
▁አገራችን
▁መባ
▁ለመጥ
▁ይመሰ
▁በንግድ
አር
ክላ
▁የአር
</
nt
እሱ
▁ለንግድ
▁ኢሜይል
▁ያደርግ
▁የነበሩትን
▁በመጠ
▁በማያ
▁የማዕ
▁ይቀመጣ
▁ጥግ
አለሁ።
▁ህንፃ
▁አንገ
▁ዜናዎች
▁ፈገግታ
▁ይኖረዋል
▁>>
ጠራጠር
▁Pro
▁በትንሽ
▁እንደሚያሳ
▁→
▁ጥራ
▁ሊተ
▁በውሃ
▁አይሰማ
▁ነበርኩ።
▁አይደለሁም።
ሰላ
ገነቡ
▁በሴ
▁ተጀመረ
▁ጓደኞቼ
▁ይፈልጋሉ።
በዋል
▁ተዓ
▁ፋይዳ
▁የእምነት
ጠራል
ክተሮች
ናቴ
▁99
▁ይኖራሉ።
▁ዩኒቨርሲቲዎች
ገቡት
▁ትቶ
▁ስቃይ
▁ሊደረግ
▁ሳይቆይ
ቆሮ
መረጥ
▁ማምረት
▁የደንበኛ
▁ይቀጥላል።
ጎዱ
ዷቸው
▁አምጥ
▁ጥሩው
▁ፍፁም
▁እንዲታ
ሁም።
▁ታዳሚ
▁ጊዜያዊ
▁ሩጫ
ጠብቀው
▁ታክሲ
▁ይደግፋል
▁Apple
▁እያደረግ
▁ለኛ
▁ከረ
▁(1)
▁እንዲችሉ
ሉኝ
▁ንጉስ
▁ካህና
▁ጊዜ፥
▁2007
▁በዱ
▁ስልኮች
▁ለምር
▁መጣጥ
▁የድሮ
▁አስረድ
▁ስብሰባዎች
ከበሩ
▁አመሰግናለሁ።
አስ
▁ጻድቅ
▁ፈቃደ
ከባከ
▁ማድ
▁ይዤ
▁በምርጫ
ጨው
▁አቀፉ
▁የብረት
▁የቀረበው
ነቷ
▁ሊሰጥ
▁እንሰራ
▁ጽሑፎች
ድረክ
▁ጀግ
ጀመርያ
▁ላይ።
▁ከወንድ
▁ገለልተኛ
ላለፊያ
▁ሞገስ
ነታችንን
▁መሳተፍ
▁የተማሪ
▁አጽ
▁በዓላት
▁መንግሥቱ
▁ላሉ
ደዋል።
▁ቅርፅ
▁ፊደል
▁ከፍተኛው
በህ
▁ኢሳ
▁ሸለቆ
▁ከምት
▁ምሁራን
▁ሙስሊሞች
▁በሚገኘው
▁ሁኔታዎችን
ደች
▁ሆድ
▁የተያዘ
ww
ዘሮ
▁የሚከተለው
ሽ።
ተዋ
▁ተግ
መልካም
▁ምናባዊ
▁ፍቅርን
▁ፍትሃዊ
▁የሚደርስ
ቀሉ
በዙ
▁ንጹህ
▁ከዛም
▁ገነት
▁ፍጡር
▁ነቢያት
▁አጠቃቀ
▁እንሂድ
▁በመቶዎች
▁አይሰራም
ሞክሩ
ወዱት
ዳንቱ
▁ዓም
ress
▁የእነ
ፍቶ
:23
ካተቱ
▁ጣሊያን
▁መበ
▁ቅርጽ
▁አይመስልም።
ገኙም
▁መርከብ
ሰቃ
ኬቶች
▁41
▁እወድ
▁ከዛሬ
▁ለሕዝቡ
▁ወጥተው
▁ያምናሉ
▁ለማውረድ
▁የባለሙያ
▁ኢንቨስትመንት
▁ራእይ
▁ማሳደግ
ገባኝ
▁አላችሁ
▁አልፈልግም።
ዓዛ
▁አልቀረ
▁የመገናኛ
ርጂ
▁ለፈ
▁የፒ
▁ፈሳሽ
▁ትዊተር
▁ድንግል
▁መንግስቱ
▁በህግ
▁እገም
▁በትንሹ
▁የሚበልጥ
▁ዴሞክራሲያዊ
መመ
ማርኛ
▁ገዳ
▁ልጆቼ
▁ጽፏል
▁በሕይወቴ
:25
▁ስሜታዊ
▁በሀገሪቱ
▁አሰልጣኝ
▁የዩናይትድ
ጤን
ast
▁ብዙሃን
▁አውርድ
▁የተረጋጋ
▁ታም
▁ዞር
ከናውን
▁ሆነህ
▁ልደት
▁የማይችሉ
▁ከልጅ
▁በነበረው
▁ከኢትዮጵያ
▁እምብዛም
23
ይንት
▁የቪ
ለሙ
ሮሚያ
▁ከፀ
▁ለመጠ
▁ማራኪ
▁ማሟላት
▁ያላችሁ
ሳሳ
ቹህ
ገደል
▁ለመቆየት
▁ልዩነቶች
▁እንዲሰማ
▁ፎቶዎችን
ሀን
▁ደረቅ
▁የሚወዱ
▁ለመሳተፍ
ኳት
▁St
ጠቃለያ
▁ሲኖር
▁ስርዓቱ
▁አስከፊ
▁@
▁አስቤ
▁የመው
▁ሀብቶች
▁አልቻሉም
ስትን
ከሪያ
▁ሃብት
መለከቱት
▁ለሌላው
▁አልነበር
▁መናፍ
▁ዝውው
▁ይኖርብናል
▁ያለህ
▁የእርሱን
▁እንዳይሆን
ard
ቋቸው
▁አምራቾች
▁ከቁ
▁ይችሉ
▁ከማንም
ንጀ
▁ፅሁፍ
ናገረውን
▁~
▁እዚሁ
ኚህ
አያ
▁ማጨ
▁አረብ
▁ሪፐብሊክ
ፆች
ቬስት
▁ያስቡ
▁መውደድ
▁በሴቶች
▁የይሖዋ
▁ይከሰታል
▁የተረጋገጠ
▁የሚያስፈልግ
ik
ዋሳ
ሾችን
▁መስራ
▁በዝግ
▁የጀመር
▁በመልካም
ry
▁ትስ
▁ዕቅ
▁እህል
▁ፈተናዎች
እኮ
ካኝ
ቀደው
ናገራ
ሪታንያ
ፍም
7">
▁ጠብቆ
▁ያገኛል
▁ሙዚ
▁ተቀበ
▁መኮንን
▁ተቀምጦ
▁የሚናገር
ብሎ
ንጣ
አዲስ
▁መደም
▁መደብ
▁ከመጣ
▁ልጆቻቸው
▁የተቀመጠ
SA
▁ተዛማ
▁የወረ
▁በእንደዚህ
▁የእንግሊዝ
▁ኤር
▁ይገዛ
▁ትራፊክ
▁እንዳለብኝ
▁በሸ
▁ናይ
▁አጨ
▁ነኝ፤
▁ክፍሉ
▁ከአምስት
▁ወድጄ
▁ነበር፣
▁የተጣራ
▁እነርሱን
▁አይታይ
▁ካለፈው
ንጎ
ሁበት
ነጋገ
▁ተለ
▁ያካ
ec
ወት
▁በፋ
▁ስፋት
▁ፍራን
▁ተጽእኖ
▁ከሆንክ
ቆየ
መህ
በቱ
እዚህ
▁ሕልም
▁ተሸክ
▁የትን
▁የካር
▁ማድረስ
▁አስታውቋል።
▁ያስች
▁ምርጫዎች
ታውቅ
ከታተሉ
▁ለማጥ
▁የስር
▁መሞት
▁ጉልህ
▁ማበረታ
▁ኤልያስ
▁የወርቅ
▁ግዛቶች
▁አድርገዋል።
▁ተመን
▁ከነሱ
▁በመመር
በበ
▁በምድረ
▁አገልጋ
▁በተገ
▁በእጁ
▁አርብ
▁ማናቸውም
ፋሉ።
▁ግድያ
▁ጠንቅ
▁የፈጠረ
▁በየሳምንቱ
▁ተጋብ
▁ወለል
▁የሚገ
▁ማሳለፍ
▁ከግብፅ
▁ይውላል
ሰናል
ሰባችን
▁ቀዳዳ
▁ከተማዋ
▁ገብተው
ራመድ
ጧቸው
▁በአቅ
▁ከፍታ
▁ዘመና
▁ሰላምን
▁ለማጠናቀቅ
ፈዋል
2012
▁የበለ
▁ሂደቱን
ያየ
▁በሠ
▁እመጣ
▁ማጥናት
▁የሁለተኛ
▁የሚያስፈልገው
▁ፈት
▁ፊደ
▁እትም
ሏት
ንቁ
▁ለራሴ
▁ስራዎችን
▁ዝርያዎች
ንቶ
ቢያን
▁ክንድ
▁ለመቀየር
ኛል፤
ጨርስ
▁አደን
▁ከገባ
▁የአማ
ኣን
icle
▁እንመልከት።
ፍሉ
▁ሰጭ
▁እረ
▁ድክ
▁ጋዝ
▁ጣል
▁ሞዴሎች
▁ህብረተሰቡ
የል
▁አህያ
▁የብድር
▁የደንበ
ሻውን
▁ነገድ
▁ጽንሰ
▁ለመጫን
▁እናቶች
▁በሀገራችን
▁ይታወሳል።
ቀነ
በያው
▁ትልልቅ
▁የሚያስፈልጉ
ዋና
ራለሁ
▁ለሥራ
▁መሰና
▁ሙሴም
▁ከአብ
▁በነዚህ
▁አቀረበ
▁የለውጥ
Fi
ተራ
▁መመዘኛ
▁ለማውጣት
መሰግ
ኩረት
▁ግማ
አምላክ
▁የሚዘ
▁ያለች
ob
ቃጠ
▁እጣ
▁ነበርን
▁እንደነዚህ
▁ህልውና
▁ጉዳቶች
▁የኋላ
▁ሙሉውን
▁ምህረት
እስከ
ያዝያ
▁ያዙ
▁ፈልጎ
▁የሰብአዊ
▁ተከተ
▁ክፋት
▁ተዋናይ
▁አስፈላጊው
ለኞች
ትሪክ
▁ብፁ
▁ከወደ
▁ያሳው
ዩ።
:26
▁ነቢዩ
▁ንፁህ
▁ህዝባዊ
▁መጽሐፉ
▁ጥቅሶች
▁አመጋገብ
▁አለፈ
▁ዘመድ
▁ሰዓቶች
▁በደረጃ
ናና
▁ይሰበ
▁ከሦስት
▁በነበረበት
▁በማህ
▁ይደው
▁ማድረጉ
▁የሚዲያ
ዝቤ
ዬም
▁ያሸ
▁ለባለ
▁ልጆቹን
▁ሰማያት
▁ተቀመጠ
▁የሚያን
▁እንዲኖረው
ንጉሥ
ንግሊ
▁ተጫው
▁የከፍተኛ
ለላ
ቹም
ትነት
▁ከካ
▁የለሽ
▁ለመሸጥ
▁አንቺን
▁አክብሮት
ዝግብ
ገደብ
▁ናፍ
ችልበት
▁የአል
▁አደረጃ
▁በመመርኮዝ
▁አልቻሉም።
▁ትውል
▁አሜሪካዊ
ቴል
ንድር
▁ማዶ
▁ያዳም
▁ቦርሳ
▁ውሾች
▁የቅን
▁ካላቸው
▁መንቀሳቀስ
▁እንዲኖራቸው
በልጡ
▁ይኽ
▁መፍራት
▁አሁኑኑ
▁ይደረጋል።
▁ዳይሬክተር
▁ያስረዳ
▁አቅራቢዎች
ቂያው
ራሳቸው
▁መንገደ
ልሽ
ዓብ
ደራጀ
▁ሄድ
▁ንግግ
▁ከእስራኤል
ዬው
▁ዕለ
▁ብሎኛል
▁የፈለጉ
▁ያውቃሉ።
ናቃ
ደሮች
▁ይገመ
▁አቤቱ፥
▁ለዓመታት
ጂን
ባት።
▁መቻ
ላለማዊ
ስቲክስ
▁ለሁለተኛ
▁ቀጣይነት
ሉይ
▁ኤፍ
▁ኦፊ
▁ዘጸ
▁ቪድዮ
▁ኦሮሞ
▁ቤታቸው
▁ክምችት
ሺህ
▁196
▁ይጠቁ
▁መምሪያ
▁የድምጽ
ሯን
ኙን
ደፈ
▁x
▁ለረ
▁መጓጓዣ
▁የሚረዳ
▁አሳው
▁የሰብዓዊ
▁Facebook
ጸው
መገብ
▁በቶ
▁ስለጀመሩ
▁አናውቅም
▁ኤሌክትሪክ
▁እንደሚፈልጉ
ሰህ
▁ሼ
▁ቁሳቁስ
▁የትኞቹ
▁ለመደገፍ
▁ተገኘ
▁ይጨምራል
ዲድ
ስቱም
▁MP
▁ማማ
▁ተማ
ነገረው
▁ፍልስፍና
▁ተወል
▁መልዕክቶች
▁is
▁ወረደ
ቶሊክ
▁49
▁ባየ
▁በአእምሮ
▁ለመከታተል
▁ተሽከርካሪዎች
▁The
▁መሀል
▁በጸሎት
ላለች።
▁ለመጓዝ
▁ማስተካከያ
▁ቢያስ
ብዎ
ጸና
▁በየወሩ
▁ተገለጸ
▁ከሥ
▁መምጣ
▁ጃፓን
▁የሚወድ
▁ይኑር
▁በተሳካ
▁ያስችልዎታል
ሊድ
ደጉ
▁ግብጽ
▁እያልን
▁በእንዲህ
▁ተገቢውን
▁በይነመረብ
ጋች
100
▁ማቴ
▁ኮርፖ
▁ሆነዋል።
▁ያስከትላል
▁አሠ
▁እንሰጣ
▁የሀገሪቱ
▁ሽማግሌዎች
ሮስ
▁5.
ላቸውም።
▁ባላቸው
▁ዘዳግም
▁ወደፊትም
▁ይጠቀማሉ
▁ጠቢ
▁አድራጊ
▁ከፈለግ
▁ሁላችሁም
ህተት
ጾችን
▁ተረ
▁ታሪኩ
▁ጊዜ።
▁ለተጨማሪ
ርቶዶ
ሽታው
▁ጠፍቶ
▁ያስፈልገዋል
ጋን
ለማት
ንንት
▁ቅጥር
▁አቤት
▁የሚስብ
▁ቺ
በርግ
▁ስዊ
▁እጁ
▁ሊታይ
▁አያይ
▁ማኅበር
ደሉ
▁ሃገራት
ወጫ
▁""
▁ለች
▁ትንቢ
▁2006
▁አስከ
▁የመለ
▁የሂሳብ
▁ከነበረው
ኝና
ዋለህ
ደለው
▁ቆየ
▁የተጠ
▁አንድዬ
▁ያለፈው
▁አውቶቡስ
▁ድንገተኛ
ጌጥ
▁ኣይ
▁ማከል
▁ራስህ
▁በክረምት
▁ሊቀመንበር
▁ከእነርሱም
በባ
ቾችን
▁ሲገባ
▁በመሆ
▁የሚገኙት
▁እጆ
▁ይግዙ
ነጋገራ
▁እንደኔ
▁ተካሂ
▁በየዕለቱ
▁የቴክኒክ
▁እንፈልጋለን።
በክ
▁ማጋራት
▁ጥምረት
▁ምሳሌዎች
▁የሳይንስ
▁ትግሬ
▁ተራሮች
▁ዕድሜያቸው
▁የማህበራዊ
ታደል
▁ባለማ
▁ኮንግ
▁አመስጋ
▁የጽሑፍ
▁ድርጊቶች
▁በሮች
▁ሕይወትን
▁በመቀጠል
ገንዘ
ሰነ
ቀዝቀ
ሳውያን
ገኝም።
▁ነጥቦችን
ሪቃ
▁አረጋ
▁መረጃው
▁ከአላህ
▁አዶ
ቀመጠው
▁ይቀር
ሽንግተን
▁ድልድይ
▁እርምጃዎችን
ጎበኙ
▁ሃብ
▁የዝ
▁በማስተ
▁ብዙዎቻችን
▁ክርስቶስን
-4
ቀለ
▁197
▁በራሴ
▁ያውቅ
ችኋለሁ።
▁ተጫራቾች
▁የምንዛሬ
ህም።
▁አንብብ
▁በኒው
▁ትንተ
▁የበጋ
▁የሚጠጉ
▁የአምላክን
ዮሐ
▁ኖር
▁ሰዎቹ
▁በሚመለከት
▁ተመራማሪዎች
ዝናኛ
ሰባሰብ
▁ይረዱ
▁አድናቆት
ጃን
▁ህዳር
▁ፈለግ
ርና
▁መቁረጥ
▁ተጎ
▁ቆመው
▁ጨርሶ
▁እንደው
ሌላ
ነቡ
▁፩
▁የጥራት
▁ለማቆየት
▁የሌለበት
▁ሊያስከትል
▁ጉግል
▁ሂደቶች
▁ላላቸው
▁በምና
▁ዓመቱን
▁አስቸኳይ
▁ኪንግደም
ቀብ
ቁኝ
ፍሮ
▁ደኅ
▁ቤቶችን
▁በሽታዎች
▁ባለስልጣን
up
▁ሐኪ
▁መሀ
ለምሳሌ
▁ውሎች
▁ይለው
▁መጨነቅ
▁ሳይንቲ
▁በከንቱ
▁እሆናለሁ
▁የተገኘው
ሰሰ
▁ልቦና
▁ከአባ
▁የአብ
▁ያገለ
▁ድካም
▁የአካባቢው
▁ሙስና
▁ማዳን
▁ውድቅ
▁የልጅነት
▁ሳቅ
ቸዋለን
ፋኑ
ገለግሉ
▁ምድረ
▁ክወና
▁ይገድ
▁ለመላክ
▁ሚካኤል
▁ባይሆንም
▁መገኘ
▁ቀንም
እንግዲህ
▁2000
▁ተለይቶ
▁የጠበቀ
▁የሚያደር
App
ዎችዎ
▁ገላ
▁ያመኑ
▁በሁለተኛ
▁የትኛውም
ይፍ
ውንና
▁ባስ
▁ፈላጊ
▁ፓውንድ
▁ከጓደኞች
▁ፈፅ
ነኝነት
▁በእስር
▁ይጀምራል።
ነውም
▁ሕመም
▁ጌታን
▁እንደዚሁም
ትስ
ራንስ
ቀዝቀዣ
▁ርስት
▁ኢሜል
▁የክልል
▁ገበያው
▁የግንኙነት
ዦች
ጣጠ
ጫት
ፋችሁ
▁የማይወ
ሎቹን
ሰተኛ
▁መመለ
▁አላየ
▁እንቆቅል
▁ገበያዎች
▁ፕሮግራሙ
ቸር
▁ትኩረ
▁የተዘ
▁የሚያሰ
ዋስ
▁Read
▁በሂደት
▁በሚገኙ
▁ይመልከቱ።
▁ዮሐ
▁ጥም
▁ሄደው
▁ሰከን
▁የሚመረ
▁ይጀምሩ
ደረሱ
▁ማጽ
▁የሬ
▁ያረ
▁ጅማ
ሳለሁ።
▁የፖሊስ
▁ሐዋርያው
▁የተዘረዘ
▁ሥራን
▁በምድ
▁በስም
▁ይከ
▁ጥሎ
▁ምትክ
▁ከስራ
▁ጥናቱ
▁ላክ
▁ጨም
ጣሪዎች
ግሮ
▁አሉኝ።
▁News
▁ለሚፈልጉ
▁በስተጀርባ
▁በአደባባይ
ጠረዥ
▁ጽኑ
▁ተዋጊ
▁ጉልበ
▁ፋሽን
▁እንሆና
▁የዛሬው
▁በጥልቀት
ፍስ
▁መቸ
▁መውጫ
▁የስደ
▁ይክፈ
▁አብያተ
▁አስፈጻሚ
ቱና
ከፋፈ
▁ይዋ
▁ውጫዊ
▁ጉድጓድ
▁ማመልከት
▁ፕሮጀክቱ
ቷቸው
▁በጀ
coin
▁በመጋ
▁በፈቃ
▁ኢትዮ
▁እንሄዳ
5%
▁ስማርት
▁የኦሮሞ
▁ይነገራ
▁ይኖርብናል።
▁ንግዶች
▁ወታደር
ሲስ
ፀን
ፕሪል
▁ለሃ
▁መንጋ
▁የዚያ
▁ጭብጥ
▁የድምፅ
▁እንዳልተ
▁ይናገራሉ
ለፉ
▁ተቋማ
▁ተኩል
▁አይመ
▁ነበረበት
ስቦ
ጓሜ
ላለፉ
▁ዳዊትም
▁ወይዘሮ
▁በዐ
▁እዛው
▁የታዘዘ
ፈራው
ገኝበት
ፎካካሪ
▁አደር
wit
ኒክስ
▁ክብረ
▁ልምዶች
▁በደህና
▁አንብቤ
ED
ለቡ
ሲካ
▁አፍቃሪ
የሙ
ትንሽ
▁በድም
▁ኪራይ
▁ዝማኔ
▁እቃዎች
ቶችና
▁ከሶስት
▁የህንድ
▁አቀባበል
ፈጠሩ
▁ዘል
እውነት
▁ተለው
▁የሚሄዱ
▁ይህችን
▁ዋል
ጠናቀቁ
ማማት
ፍራት
▁በወጣ
▁ጠርቶ
▁በሶስት
▁አማራጮችን
ነ።
ዳግ
▁ባቡ
▁ፈን
▁የሚነ
▁ያስታውሱ
ወረደ
▁መዋቅ
▁ይፈጸ
▁What
▁ሰንደቅ
▁ጃን
▁ከሰዎች
ሲባዊ
ጽግና
▁ሕጉ
እርሱም
▁ለሴቶች
▁ቀለሞች
▁ቀጥሏል
▁አስኪያጅ
▁የምትችለው
ጭቆ
VID
▁አሰል
▁አለው፤
▁ጠረጴዛ
▁እንደሆነም
ፖርቱ
▁አጉ
ቀርቡት
ባበሩት
▁ልወጣ
▁መብራ
▁ኢያሱ
▁ልጥፎች
▁ሐዋርያት
ጠቡ
ባችንን
▁ነፍሴ
▁ይከናወ
ረተው
ፈጽም
▁ካን
▁በረዶ
▁የዕድሜ
all
▁አሳማ
▁አሳብ
▁የለንም።
▁ትችላላችሁ
▁ያለማቋረጥ
ራረ
:30
▁የመቀ
▁ጠየቅ
▁ከእርሱም
▁dr
▁ወጣ።
▁መግለጽ
▁መጥቀስ
▁የሚያስደ
▁ህብረተሰብ
▁የዩኒቨርሲቲ
▁ያስፈልጋቸዋል
▁ይድ
▁ይጣ
▁ሙያዊ
▁ሲወጣ
▁በአት
▁የበኩ
▁እየሄደ
,"
▁ማቅረ
▁አንጀ
▁ገደቦች
▁ጨዋታውን
▁በግድ
▁ትገኛ
▁ያነጋ
▁እንደመሆኑ
▁ተሟ
▁ላለማ
▁ትኖራ
▁ለራሳቸው
▁እንግዶች
▁የሚመስል
ለቁ
ሽና
ከፍሉ
▁ባልን
መለክተው
ጌል
ant
▁ሙሴን
▁የተመረጡ
ኒስ
ከሙ
▁ማቅ
▁የተሞ
▁ድብልቅ
▁በመፍጠር
▁ውጤታማነት
rc
▁አሲ
▁ውጥረት
▁መጽሐፍት
▁እየተሰራ
መቶች
▁ምኒልክ
▁በሌላው
▁ከማድረግ
▁ይካሄዳል
▁አሜሪካውያን
ity
ቸዉን
▁የቃል
▁የሚጠይቅ
▁የሁ
▁አብራ
▁አብዝ
▁የባህል
▁መቁጠሪያ
▁ቻይ
▁ቀጥታ
▁ክርስትና
ደኝ
ማረው
▁ሞኝነት
▁ስርአት
ov
ህ፤
ቼም
▁አካዳሚ
▁እስማማ
▁የውድድር
▁ሲሉም
▁የኢሜል
▁አቅራቢያ
▁ለማስታወስ
▁አያስፈልገው
ሪቷ
ኬድ
ዶቹን
▁በብር
▁የትራፊክ
ቤታችን
ቻችንም
▁እንደቀ
▁ልጆቻቸውን
ort
ጠቀመ
▁በንግ
▁የስኳር
▁የብር
▁ማህበሩ
▁ተሳታፊዎች
▁ባለሥልጣናት
▁የእስራኤልም
ጋፍ
ምረቻ
▁ቀረበ
▁አሰብ
▁እብድ
በሪያ
ሬያለሁ
▁ዑደት
▁ፋንታ
▁በካናዳ
▁ተመስገን
ላትም
▁የዐ
▁አምባሳ
▁አትፍራ
▁የኢትዮጵ
▁በለ
▁ተዳ
▁ለስራ
▁በትዕ
▁ወኪል
▁ፈለገ
▁ዜግነት
▁የፈለግ
ዋቱ
ዋርያት
▁ተቀይ
▁መምራት
▁አግኝቼ
▁forum
▁እርስዎም
በይ
ብብ
ኒስት
ጠየቀ
▁ይቆያል
▁ዲያብሎስ
▁የሚታወቀው
ff
ገልግሎ
▁ቆጠራ
▁በባህ
▁ተኳሃኝ
▁እንበል
▁አይቻለሁ
▁እየተባለ
እው
ድሎ
▁ከሌሎቹ
▁የዕለት
▁ለመብላት
▁ፖለቲከኞች
ላቻ
▁ከአራት
▁ያስወግ
▁መታሰቢያ
▁መግለጫዎች
▁ያደረገውን
ሞታ
ላቶች
2013
▁ያጠና
▁ሃሳቦች
▁እንቀጥ
▁በመውሰድ
:)
ፓር
ያዋን
▁ትም
▁አጥር
▁ሰብአዊ
UM
ሙሉ
ች፤
ኋችሁ
አችን
▁ልጇ
▁በሻ
ወዳቸው
▁የአመ
▁ገንዳ
▁ፅንሰ
▁ሰብሳቢ
▁ተወለደ
▁ገም
▁መርሆ
▁ሰይጣ
▁ተደራ
▁መለያዎች
ቢስ
▁ሥዕ
▁መኝታ
▁የተን
▁የተገ
▁ድምፁ
ጋቸው
▁ታክ
▁ቤትም
▁ጀብ
▁የሚታዩ
▁ያተኮረ
▁ላን
ዘጋጀው
▁ማዕከ
ዮስ
ፕላ
ቁረጥ
▁በቱ
▁በስሜ
▁የኢንተርኔት
ችኝ
ልን።
▁ከመግ
▁ተልእኮ
▁ታህሳስ
▁የግብፅ
▁ይጠቀማል
▁የደንበኞች
▁ቀኖች
▁ፍትሕ
▁አስደን
▁ማገልገል
▁በእንግሊዝ
▁በውኃ
▁የሚችለውን
ረህ
ድሬ
ang
በጀት
መለክት
▁ከኋላ
▁ማእከል
▁ለመጨመር
▁የትኛውን
▁ዬ
▁ዓሳ
▁ሰበር
▁ለማቆም
▁ዲፕሎማ
▁ያመለክታል።
ልዎ
ብናል።
▁ማደግ
▁ትንበያ
▁ስጦታዎች
▁በኃይል
▁እንዲሰ
▁የሚያውቁ
▁የተቃውሞ
ባህ
ዘዋል።
▁ጠብቅ
▁በራሳችን
▁ተማሪዎችን
ቻቸውም
▁አርማ
▁ከራሱ
▁በምግብ
▁ሙከራዎች
▁አልነበሩም
▁እሰጥ
ሽከርከር
▁ተግዳሮ
ለሁ፥
እኔም
▁በጥቂቱ
▁አይፈቀድ
▁የሚጀምረው
ላኩ
ans
ቅተኛ
▁ጠበ
▁የጸሎት
▁አሜሪካን
▁ማኅበረሰብ
ዋለ
ክረው
▁በጎች
▁የቅር
▁ጡንቻ
▁መጥፋት
▁ትንተና
▁ካርዶች
▁የተደረጉ
▁ምስክርነት
መሰል
በት፣
ያያዥ
unes
▁ስለመሆኑ
▁ውድድሮች
▁እንድትሆን
ባማ
ደቀ
ጀክቱ
▁በኛ
▁የቲ
▁400
▁ባለን
▁ሳይኖር
▁አቤቱታ
ቅድም
▁US
▁ያፈ
▁ለንደን
▁ሲሆን፤
▁ድህነት
▁የሚናገሩ
▁{
ess
▁**
▁ግባ
▁ጭፍ
▁በመገ
▁ምናምን
▁በመኪና
▁በገበያ
▁ትስስር
▁ተገኝቷል
ዛል።
ገለጥ
▁ህዝብን
ለችው
ነስተኛ
▁150
▁እሞክራለሁ
▁እንዳለብን
▁በኬ
▁የዛ
▁በጥር
▁የሚያስከት
▁ቆም
▁ሳቢያ
▁በተና
▁በደም
▁አዘዘ
▁የኮምፒ
▁ይኖርባቸዋል።
▁ab
▁ሲቀ
▁ውጤቱን
▁ተደጋጋሚ
▁አመለካከ
ቀረት
▁[.
ቀበለው
▁ለዛሬ
▁መገልገ
▁ከሆነ፣
▁ከከተማ
▁ለመወሰን
▁ህፃን
▁የመረ
ሽከርካሪ
▁ሐሳቦች
itcoin
ባለን
ኖረኝ
▁ለቆ
▁የጀ
▁ጦማር
▁ሚሊየን
▁ማኅበራዊ
▁በዋነኝነት
የማ
ጫነ
ሙርት
▁ማተ
▁በወንድ
▁ኅብረት
▁የቀለም
ue
ካፈ
▁ቀዶ
▁የቀረቡ
▁ያድርጉ።
ሲን
▁መስኮ
▁እላለሁ።
ላለች
ዩተር
▁ቃላትን
▁በቁጥር
▁ተባባሪ
▁ተከታይ
▁ችሏል።
▁በሰውነት
▁ይሄዳል።
ሚዎች
ድረሱ
▁Ex
▁ባያ
▁ቤተሰ
▁በአንጻ
▁የተወለደ
▁በማለ
▁ተማር
▁ዒላማ
▁ይሁዳ
▁መሰረዝ
▁ሰምተው
▁አትክል
▁ለተለያዩ
▁የሚሰራው
▁የፌደራል
▁የተቻ
▁በባሕር
▁የሚያምኑ
▁ይሰማኛል።
▁ልቡ
▁ታጣ
▁ቻር
▁አጫ
▁አመቺ
▁መጽሐፉን
▁አስታውስ
▁ጓደኝነት
ዩብ
ርጋቸው
ግራችሁ
▁ሊገኝ
▁መውደ
ጠባበቂያ
▁መንገዶችን
▁ችሎት
▁በሩሲያ
▁አንቀፅ
▁የወደፊቱ
198
ስተካክ
▁ሊደርስ
▁ብቻዬን
አባ
▁ሕዝቅ
▁ንስሐ
ቸዋለን።
▁ብትሆን
▁የሚወጣ
▁የውይይት
ተሃል
▁ጠፍቷል
▁ፕሮጀክ
▁በአማካይ
▁የመግቢያ
ox
ፌን
ንባሌ
ያትር
▁አቻ
ሮንቶስ
▁and
▁2004
▁መስኮች
▁ሚስጥር
▁ለመቋቋም
▁መረጋጋት
▁ሲያደርጉ
▁ትዕይንት
▁ዘላለማዊ
ቡዕ
oft
▁ግንብ
▁በቤተሰብ
▁እንጀምር
▁ለዘለ
▁ሸክም
▁አባባ
▁ሚዛናዊ
▁የጃፓን
▁እንደሌለው
ክተሩ
ወድም
▁Com
▁ጆርጅ
▁መለዋወ
▁በእኩል
▁ዕድሜው
▁እየሰራን
▁እናቀርባለን
ጡ፤
መራው
ብዎት
▁ሳላ
▁ኢሜ
ረንሣይ
▁ይታመ
▁በህዝብ
▁ነገሥት
▁አሉን።
▁ይሻላል።
▁በማስገባት
▁እውነታዎች
ወች
ደግፍ
▁ተጭ
ክሲዮን
▁መላውን
▁ትግራይ
▁ውሳኔዎች
▁በመንግሥት
▁እጠብቃለሁ
ዴታ
ዋቂዎች
ያውቀው
▁አንበ
▁ሀገሪቱ
▁የመተግበሪያ
▁ስሪ
▁ታቦት
▁ታናሽ
▁ልጃገረ
▁ባሕርይ
ail
▁ሱስ
▁ወደብ
▁ይሰጡ
▁እንደታ
▁የሚከፈል
ዮና
▁ተክል
▁ያካተተ
▁በየትኛው
ኩህ
ጊት
ካትት
▁ላስ
▁ቆመ
▁ቢኖሩም
▁አሊያም
▁አይሁዳ
▁ጕ
▁፴
ቅርታ
ወሀት
▁ዝነኛ
▁እራሳችንን
▁ዥ
Tunes
▁ከቤተሰብ
ውልት
▁ዓይነ
▁እንዲሠራ
ላት።
▁ጥርስ
▁ትህ
▁ሦስቱ
▁በአፍ
▁ትንሹ
▁የባሰ
▁መክፈት
▁የለብዎትም
▁ፀጋ
መለክቱ
▁ልጅም
▁ሆቴሎች
▁ቦታዎችን
▁እናምናለን
ሊፎር
▁Ad
▁እሴቶች
▁ሲነፃፀር
▁አካባቢያዊ
ታዲያ
▁መቅረ
▁አውጪ
▁more
▁የጭነት
str
እነሱ
▁ይኑ
▁አረቢያ
witter
በማ
ear
ራዊነት
▁art
▁ንቅና
▁ለፍርድ
▁ሳንቲም
ፖሊስ
▁ሁሉ፣
▁ብሎም
▁ማብሰል
▁ወንድሞቼ
▁ትክክለኛነት
EO
ሊቲ
▁ሰበ
▁ሀገራዊ
▁አግኝተዋል
▁ዜማ
▁መጫወቻ
▁እንግሊ
▁ኢንቬስት
▁ገንዘቡን
AD
ልል
▁ዝመና
▁ሆነዋል
▁አምላክህ
▁አገላለጽ
▁የእስራኤልን
▁የእያንዳንዱ
ማርያም
▁መኪናው
▁Whats
PN
ሟቸው
▁ተላ
▁ተቆጥ
▁እድሉ
▁ድምፃ
▁ውርርድ
▁መጎብኘት
▁የህወሓት
28
ሄድም
ዋንም
ዲያስ
▁ሳሉ
▁እንተ
▁የቅዱስ
▁መሰብሰብ
▁ማጠቃለያ
▁ተችሏል።
▁PS
▁ያቃ
እንዲህ
▁ተጠራ
▁ተያያዥ
▁ካልሆኑ
ለፊያ
▁እሰራ
▁የኖር
▁ያገባ
▁ድራማ
ቀጥሉ
ናገኝ
▁አገኙ
▁ህዝቡን
▁ንቅናቄ
▁የሌሎች
▁ሊያገለግል
ሰኛ
▁ቅና
▁ኬሚ
▁ሰይፍ
▁ይፍጠሩ
▁አደረገው
▁ጀመርኩ።
▁በሚሆንበት
በኛው
ዳዲስ
▁ስቴ
▁ትዝታ
▁አቡነ
▁መፅሐፍ
ሬሽኑ
▁አልቆ
▁ፎቶግራፍ
ክህ
ው፣
ፎቹ
ጨረስ
▁ይማሩ
▁ፕሬስ
▁ተፈጠረ
▁°
ዳዊት
ጆችን
ዘገበው
▁የዱር
▁አላደረገ
ሰው።
▁ሊረዱ
▁ታካሚ
▁ከውስጥ
▁የሚሉትን
iz
ውድ
▁ከድር
▁በሚያሳ
▁የሚያግ
▁ይህንም
▁ባለቤትነት
ድቃን
▁("
▁የጥበብ
▁የሚያሳዝ
▁ማስተዳደር
1)
ጮህ
ዊነት
▁እዬ
ለትም።
▁ሁሉ፥
▁አስቀ
▁ጠያቂ
▁ተዛማጅ
▁እንደሚመጣ
iv
▁በፊትህ
▁የሰሜን
▁እንመክራ
▁እናገኛለን
ስፋፋ
▁ይጎ
▁በምስ
▁በዓይ
▁ወፎች
▁የማጣ
▁ለረዥም
▁ነበረ፤
▁አገናኞች
ዜር
▁ሞቅ
▁ፈረ
ከዚያም
▁ቀላሉ
▁በጉዞ
▁በጤና
▁ታይቶ
▁ኮንት
▁የመፍት
▁ኦህ
▁ከይ
▁ድሃ
▁በማው
▁በሩን
▁በገበያው
▁የአሜሪካን
ደፍ
ሽከረ
▁በተቀ
▁የሚባሉ
▁የክልሉ
▁ጌታቸው
ግራፊ
▁46
▁ዳሩ
ንሰለት
▁ለቤት
▁በቤቱ
▁ተናገሩ
▁ያለበትን
▁የኤሌክትሮ
▁ዩኒቨርሲቲው
ተሻ
ባትን
▁Sh
ራችንን
▁በተጨ
▁ዙፋን
▁ይቻል
▁መሥሪያ
ስቱን
▁ቱሪ
▁ያብ
▁መጡ።
▁መተኛት
▁በባቡር
▁በዕድሜ
▁ለመሰብሰብ
ራሹ
▁ምሰ
▁ስጥ
▁ቁስ
▁ቤን
▁አጎ
▁ሉቃስ
▁ቁራጭ
▁ተጨዋ
▁ነው፡
▁አበበ
▁በሕዝቡ
▁የሚሠሩ
ደቡ
እክት
▁ሚያ
▁በላዩ
▁አዋጁ
▁ለተጠቃሚ
▁ቁጥራቸው
33
▁ዞሮ
▁ትርጓሜ
▁ገንዘብን
ለንተና
▁በበረ
▁አጥን
▁ሽግግር
▁አድራጎት
▁እንዳደረገ
▁የሚፈልገው
ሙትን
▁መጠኑ
▁ሞክር
▁መጻሕፍ
▁ተመለከተ
▁የራስዎን
ርግጥ
ታወቅ
የሰው
መሳሰል
▁አዘገ
▁በአራት
▁ዘመን፡
▁በትዊተር
ain
ቀጥቀጥ
▁ባይኖር
▁፪
▁ታን
ገኝነት
▁በቁም
▁ሶፍትዌ
▁ይታያሉ
▁እናያለን
▁ለጎን
▁ቆይቶ
▁ኦፕሬ
▁ነበረኝ
▁እንዲሰጥ
▁ትችላላችሁ።
ነፉ
:28
ors
ጫወተ
ስተላል
▁1)
ልናል።
ሚያዎች
▁ሕጎች
▁ቅርስ
▁ብሄር
▁አላል
▁አውራጃ
▁ይገባዋል።
▁ይር
ታወቅም
▁ምርኮ
▁ስምዎ
▁ጉጉት
▁በፊትም
▁እንጨት
▁ሀገራችን
ላዎች
▁ወዮ
▁የዜና
▁ያጋጠ
▁የፊልም
ከራል
ዝቡን
ፊያው
▁የተሳካ
▁የታሰበ
▁የደስታ
27
ሪንግ
ከፈለ
▁ቲቪ
▁እወደ
ሊፎርኒያ
▁ዝንባሌ
▁ባለስልጣ
▁አስታውቀዋል።
ለዉ
መራር
▁ከተቀ
▁መለወጫ
▁ያጠቃል
ሽቱ
ጻጸር
▁እንጨ
▁የወሰ
▁መኪኖች
▁የአስተዳደር
AR
ማቅ
ጉ።
ሽኖች
ፋሪዎች
▁ተሰና
▁አይወ
▁የዝግ
▁ይጠናቀ
▁አድርገህ
▁አስተዋፅኦ
ካድ
▁ቅፅ
▁ይረ
ስፋፋት
▁አስፈላጊውን
ሞና
ርጊ
ከማቸት
▁ታስቦ
▁ፍንዳ
▁እንደማት
ጦታ
500
▁ቢራ
▁ነክ
▁ትተው
▁ገባ።
▁ያለኝን
▁ለማድረስ
▁በመስራት
▁እርስዋም
▁ዝግጅቶች
▁የተቋቋመ
▁በሮ
▁በመክ
▁የሚች
▁ተፈጻሚ
▁የተወደ
▁ጥቃቅን
▁የሚያስፈል
▁ተፈታ
▁ኦነግ
▁የሚቆይ
▁ግለሰቡ
▁ቢስ
▁ጨዋ
ቨስትመንት
▁ለማክበር
▁iTunes
ያዩ
▁;
ልኮል
▁ሀያ
...?
ጭበርበር
▁ስትሆን
▁ተናግሮ
▁እንጠይቃ
▁የሆነበት
▁አይመስልም
▁ያደርጋሉ።
▁article
▁አቤ
▁ጽዋ
▁መነሳ
▁የሞቱ
▁2005
▁ከመሆን
▁መጥቷል።
ሳቅ
ሳለን
▁ሕንድ
▁መሰለኝ
▁የዚያን
▁ከአምላክ
▁ተናግረዋል
ሊዮኖች
▁መስዋዕት
ለክ
ሸጋ
ዲሁ
ከብሩ
▁ገልፀዋል።
ት፤
ነጻ
ጠራቀ
ባለን።
▁በወረ
▁መዋል
▁ጥቆማ
▁ራሳችን
▁ይግባኝ
▁የጎንዮሽ
▁ጥያቄውን
▁ሰጥተዋል።
▁የማህበረሰብ
ሱትን
▁ልበ
▁ልመና
▁አድን
▁ተገለጠ
▁ዘላለም
▁የተቀመጡ
▁የምናደርገው
ቅዶ
በቁ
ቃለሁ
ደንት
▁ይመዝ
▁ተደርገ
▁በማኅበራዊ
ቅሉ
▁ፎቅ
ጆቻችን
▁ከተፈ
▁ኃይልን
ካኔ
ኬሽን
▁ምናሌ
▁COVID
▁ጠቁመዋል።
ኪው
▁የበጎ
▁እንደአ
▁የይዘት
▁በመደበኛነት
የው።
▁ፓር
ቅያኖስ
▁ወዳድ
▁ደርሷል።
▁እንደምንችል
ከቱ
▁አድም
ዎቻችንን
▁በክብር
▁ስኳር
▁ለዚያም
1.
ago
ስጥኤ
ኖረውም
እነዚያ
▁ስለአ
▁ውስጡ
▁ገንቢ
ርስትያን
▁በተስፋ
end
ist
ሜሽን
▁ትች
▁የኖ
▁መደገፍ
▁ምሥራቅ
▁ትልቁን
2.
▁2)
▁ስፍራዎች
▁የፈጠረው
ፋፋ
ባትም
ድርሻ
▁ልጄን
▁መጣል
▁በቋሚ
▁የገቡ
▁ሰውዬው
▁በማድረ
አቀፍ
▁ፀጉ
▁መጠየ
▁ሆናችሁ
▁ዘንድ፥
▁ቀጥሏል።
▁የክረምት
ጨረሻው
▁ዛፎች
▁ጠባብ
▁በዓመቱ
▁አባቱን
▁አልቻልኩም።
ቴና
▁am
▁ቦይ
▁ልጅዎ
▁iPad
▁ሊያገኙ
▁ሐዋርያ
▁አቀፋዊ
▁ጥልቀት
ካካ
ere
ፓርት
▁በአስ
▁በክፉ
▁ተናገ
▁አስማ
▁ከመው
▁ያሳዝ
▁ይገደ
▁ይፈር
▁ደስታን
▁ምስሎችን
▁ይኖርበታል
ማች
ጥሎ
▁ሚን
▁ብቃ
▁አስገ
▁ማሽኖች
▁እመክራ
▁እንቅፋት
▁ወንዶችና
▁የሚስማማ
▁ደጅ
▁ኃያል
▁ፍራፍሬ
▁ማህበራት
▁የለብንም
▁የተመዘገበ
▁እንደማይችል
▁WhatsApp
▁አያስፈልግዎትም
AC
ረመ
ሃል፤
አልና
ዊያን
ገገም
▁መሄ
▁ሻይ
ጠራል።
▁የላይ
▁በቪዲዮ
▁ከረጅም
▁በተገቢው
▁የማስታወቂያ
▁የቻለ
▁እንደማንኛውም
የሰ
ዳጃ
ሳሰበ
▁አስርት
▁የግብርና
▁እንደሚለው
ቀቀ
ታሪ
ያዘው
▁2,
▁ፍን
▁በሳይ
▁ከልክ
▁ባህርይ
▁የቅድመ
▁በአስቸኳይ
ዋሽ
▁55
▁st
▁መሃ
ገነዘቡ
ስተዋል።
▁በመጪው
▁የማያውቁ
▁አስደንጋጭ
ዥያ
ድካ
▁8.
▁ጸጥ
▁ተነሣ
▁ዘወር
▁የእግዚአብሔርም
▁ሊበ
▁እዘ
▁ለመዋጋት
▁ሃይማኖታዊ
ሀይ
ፀሙ
ፈሻ
ማሊያ
▁ሄዱ።
▁ይታይ
▁አመስግ
▁እየታየ
▁ከግማሽ
▁ይሰራሉ
ዘዋል
▁አሰቃቂ
▁ወዳጆች
▁በርሳችሁ
▁መሣሪያዎችን
ሾቹ
ከአ
▁መኾ
▁ጫካ
▁የፕላ
▁የሚጠቅ
▁ለሁለቱም
▁የለባቸውም
ሞኑ
ቆን
ፈቅድ
▁ማደ
መዘገቡ
▁ሰምቶ
▁ቁርጠኝነት
ርጦ
ፃሜ
▁ዎ
ሃድሶ
ልማት
ሸንፍ
▁ህፃ
▁ከኦ
▁ስብስ
▁ህወሃት
▁ተመራጭ
ሞተ
▁ለኤ
▁እችል
▁ተወላጅ
▁እንገኛ
▁ይውሰዱ
▁ይደረግ
▁ይሁ
ችላቸው
▁መልሱን
▁አገራዊ
▁የያዕቆብ
▁ይኖረዋል።
ለቀቀ
ትም።
ቶቹም
▁No
▁ተባብ
▁የእና
▁የተደገ
▁ፍጥረታት
ብኛል
ከፈቱ
▁ማወ
▁ጄኔ
▁ሊሰማ
▁ጥገኛ
▁ዘጸአት
▁የተለዩ
▁ሰከንዶች
▁የሚያገለግል
ን፤
ክልና
▁ባንተ
▁ወሲባዊ
ክክር
ሹራንስ
ቋቋመው
ንድስና
ጠቃቀም
▁ብለሽ
▁አወቃ
▁ከዚሁ
▁የፎቶ
▁አልሰጠ
▁ቅርንጫፍ
▁አትችልም
▁ይወስዳል።
ኛለሁ።
▁ለማመን
▁መላኪያ
▁ደንበኞችን
የህ
ገሰ
▁በሪ
▁ባሳ
▁ጡት
▁ክፍተ
▁የኖረ
haric
▁የቱሪዝም
90
ካራ
ሴላዊ
▁ያቆ
▁(2)
▁ከስድስት
ሳኤ
ፅዋት
▁ባሏ
▁አጋዥ
▁እረኛ
▁ካላችሁ
▁ዕረፍት
▁የቋንቋ
▁አይጨነቁ
our
▁የጃ
▁በኢኮኖሚ
ሎሪ
ባበስ
▁ሄዱ
ወስደው
▁በተወሰኑ
▁መንግስታዊ
ዊን
ጀው
ጣችሁ
▁="
▁የሪ
▁ሠላም
▁የበዛ
▁መፈጸም
▁ትርጉሙ
▁ያውም
▁ያገኛሉ።
እሺ
▁ሁኑ
▁አይነ
▁ከራስ
▁አስወግ
▁የነበር
▁የአስቸኳይ
ውቀት
▁ያዳ
▁ትወዳ
▁ጊዜና
▁በላቸው።
▁እስረኞች
35
▁ተፋ
▁ጾም
▁አንዲ
▁በውስጥ
▁አቀርባ
▁about
▁አለብኝ።
▁የእንስሳት
▁ይኖርብዎታል
▁ሲቲ
▁ከሶ
▁ትርዒ
▁ይወክ
▁ማዘጋጃ
▁የተገኙ
▁ይቀበላል
▁የሚያውቀው
ስተምር
ደራጀት
▁በሰባ
▁በምሳሌ
▁ሮሜ
▁አሏቸው።
▁አባታችን
▁ክርስቲያናት
ሃነም
ኮታዊ
▁አዘገጃ
▁የተቀረ
▁ማሳሰቢያ
▁የተወሰደ
▁የእውነት
▁የሚያሳየው
▁አራቱ
▁ዓለማ
▁ያሰብ
▁ያሳየ
▁ጋርም
▁ሸማቾች
▁መዛሙርት
▁አስተዋይ
▁ቤተክርስቲያ
▁እንጠብቃለን
ርካ
ros
ዝናብ
▁በትር
▁አስጨ
▁የወጡ
▁ያያሉ
▁ፈረስ
▁ለጥያቄ
▁እንደደረሰ
▁ከትምህርት
አል፤
▁ዋሻ
ኳቸው።
▁ክበብ
▁ለሽያጭ
▁ሪፖርተር
ሳሳተ
ኪንግ
ዝቦች
▁ቅጣ
ጠቀሱት
▁አሳሽ
▁የሚን
▁የማኅ
▁የተቀበ
▁አርቲስት
ሁ፥
ረጉ
▁ጎጆ
▁ቀመር
▁አባይ
▁ያስቸ
▁ከች
▁የሚቆጠር
▁የሚመለከት
▁የምናውቀው
ሳሪያ
ነፍስ
2009
▁ለግል
▁አሻራ
▁ርዕሶች
▁በሕንድ
▁ራሳችሁን
▁እስከዚያ
ከፍት
ፈርዖን
▁አሉ፤
▁ያመነ
▁ደፋር
▁እንደሚገኝ
ደህ
አዴን
▁ተጉ
▁በማዕ
ሰም
NUM
src
▁መሻ
▁አሽ
▁ክርክ
▁በመያዝ
▁አታውቅም
▁የምወደው
▁የተገናኘ
▁የሚቀጥለው
ፍራም
▁የተያዙ
▁የሚገኘውን
ዘመ
ያየት
ስልምና
▁ሰጡ
▁ለአባ
▁አትፍ
▁አወዳ
▁አለብህ
▁አሰብኩ
▁በጨዋታው
▁የኑክሌር
▁የተከሰተው
▁ለገበያ
▁አላስብ
▁የወጣው
▁ያስተም
▁እንዳይወ
ነሱት
ግዚቢ
▁ናት፤
▁በጥቅምት
‹‹
▁ለሁ
▁ወንድሙ
ዴፓ
▁መደምደ
▁መጠሪያ
▁ተቀብሎ
▁እንጠቀማ
▁የተባለውን
▁€
4">
በሩን
▁ፓነ
▁ለመጻፍ
▁ጉዞዎች
BC
ክሪ
ይር
ies
ሖዋን
▁ሳይወ
▁ኢንጂ
▁ጨርቅ
▁ለወንድ
▁የሚደርሱ
▁የሚሆነው።
!!
ል፣
ጤት
ሮይድ
ብራራ
▁ለጓደ
▁መክፈቻ
▁የራሴን
▁ፓስፖርት
ዮሴፍ
▁ከዕ
▁በመከራ
▁እኔንም
▁የማያስ
▁የትግል
▁ጉድለት
▁ለመደሰት
▁ግላዊነት
▁በመተባበር
▁እንደሚታየው
▁ሳስብ
▁የጋዜ
▁የመጠባበቂያ
ረባ
ዝር
age
ናውቅ
▁በአብ
▁እገባ
▁ለሚለው
▁ቅድስት
▁ባሉበት
ide
ገደሉ
▁በአር
▁ተፈጽ
▁አሳድ
▁የጥናት
ሜንት
ርዳኖስ
▁ሰሞን
▁እሳቤ
▁ሚያዝያ
▁ከተባለ
▁ከእንቅ
▁በሌለበት
▁አመስጋኝ
ፓስ
ays
▁ሰሚ
▁በመለ
▁የውኃ
▁መረቦች
▁ድፍረት
▁ሚዲያዎች
ስላም
ኩትም
▁ሳጥ
▁ሲናገሩ
▁ያረጋግጣል
ነዳ
ውሎ
:27
ፍረስ
▁ለምት
▁በድረ
▁ለማሰብ
▁ተአምራት
▁የሚደረጉ
▁ይነገራል።
;.
ዲና
ጣኔ
ኚዎች
▁ክፈ
ኪስታን
▁መራመድ
▁ከሚለው
▁ይደርሳል
▁አግኝተናል
ቀዘ
ኃኒት
▁የዳዊት
▁ይስጥልኝ
ሪነት
▁ከደን
▁ለማስገባት
የእግዚአብሔር
IN
ይንኛ
▁2:
▁ጎጂ
ሁሉንም
▁Mic
▁በቀለ
▁መልበስ
▁የሚነግ
▁ሰጥቷል።
ፓኒ
ዘነጋ
▁ይሳ
ልቃይት
▁በኮምፒ
▁የለብንም።
የውም
▁ረቡዕ
▁በለው
▁ባንዲ
▁ደሞዝ
▁ባለቤቱ
▁የሐሰት
▁የሚያምን
ጩን
▁በርካ
▁ይፈራ
▁ቴክኒካዊ
አም
ፅር
ከለክ
▁."
▁እኔስ
▁ይሄም
▁አውጥቶ
ሊሲ
ላይን
ስትሪ
▁ያር
▁ትመስ
▁የስም
▁እስትን
▁ይደውሉ
▁ከዋክብት
▁ገጠ
▁ዐቢይ
▁የማታ
▁የኮሮና
ee
▁0.
▁ልቦ
▁እዳ
▁ከርሱ
▁ፓሪስ
▁ሁኔታን
▁ዕድሎች
▁አልነበሩም።
ዬት
ስተካከለ
▁ምድቦች
▁የይሁዳ
▁በሚከተሉት
ዛሪ
▁ቆጣ
ናሽናል
▁አልቀ
▁ከሚገኙ
▁እንዲገቡ
az
ሞትም
▁ሕዝባዊ
▁ባልሆነ
▁አባቶቻችን
me
▁ሟ
ያትና
ኖሩበት
▁ልበል
▁ፈጠረ
ብራውያን
▁መጣጥፍ
▁ለማምረት
▁አቆጣጠር
ie
ናሉ
ሰማት
▁ከቻል
▁መስፍን
▁የእሱን
▁አለባችሁ
▁አካባቢው
▁አጫው
▁የክት
▁ፊርማ
▁ቤታችን
▁ይቀራል
AS
▁ይኖራቸዋል
▁Bitcoin
ቲቭ
ጋታ
ገረድ
▁ቴሌ
▁በበጋ
▁ታክስ
▁ይሸፍ
▁አጋሮች
ጽፉ
መርጥ
▁ደጃ
▁ሲሄዱ
▁አላወ
▁ድምር
▁የሚገርም
▁የብርሃን
32
በላው
▁ሳኦ
▁ተጽፎ
▁አድሮ
▁ከተመ
▁መሙላት
ረምቱ
▁ይጮ
▁ጋሻ
ሎምፒክ
▁መርሐ
▁አሰበ
▁የአቶ
ባታ
ኖም
ቀረቡ
▁አሊ
▁የጂ
▁ይራ
▁ጨው
▁ያለፉ
▁ማይክሮ
▁ቦታውን
▁እመቤት
▁ከእስር
▁ፖሊሶች
▁እውነትም
▁47
▁ህመ
▁ተስ
▁ለልጅ
ናይጄሪያ
▁የሁለቱ
ክሎ
▁የያዙ
▁አላየሁም
▁የትውልድ
▁የነፃነት
▁የወንዶች
ካፍ
▁ግቡ
▁ለውጡ
▁ትናገራ
▁የበጀት
▁አስተላል
▁አትችልም።
ህፈት
2008
ባቢሎን
▁One
▁ስሜቶች
▁በየቦታው
TC
ሜትር
ብራት
ላችንን
▁ሆነች
▁መረጃውን
▁በጦርነት
▁የኩባንያ
▁መድሃኒቶች
ሰፋ
ፍራው
▁to
ለንደን
▁ሊገድ
▁ዐዋቂ
ዲያብሎስ
▁በሳምንቱ
▁ነበረብኝ
▁ይመለሳል
▁እንዲያደርግ
ong
መረጡ
▁ፈቀቅ
▁መግደል
▁በሕይወታችን
ማቴ
▁ስደት
▁የአፍ
▁በደረሰ
▁ተነሥቶ
▁ዝውውር
▁የተከለከለ
ምድር
ቶኛል
ጊያው
▁ነባር
ገራችንን
▁በአንደ
ዉ።
ጠናው
ንዶውስ
▁በዙሪያው
▁እንዲሁ።
▁ከነበሩት
ድረው
▁ሙታን
▁በልቤ
▁ማሳወቅ
▁ቀጠለ።
ቅስ
ቫል
ለቀቁ
ሰዎች
ፈርስ
▁ሊሠራ
▁ልጅን
▁የንግ
▁አይደለህም
ust
ብረቱ
▁ከቦ
ደርሰው
▁ስደተኛ
▁ህይወትን
▁መርከቦች
ቢኔ
ዴድ
ርምጃ
▁ያህሉ
▁እስክት
45
ሯት
ኝ፣
▁ተይዞ
▁የውጪ
▁ይቆጥ
▁ገለጻ
ርቶዶክስ
▁ለሦስት
▁ሲጀመር
▁ወይንስ
▁ኦፊሴላዊ
ፍለ
ቀጠል
2011
▁በመቅ
▁በገባ
▁ካህን
▁1000
▁ማቆየት
▁ሰላምና
▁እናገራ
▁ውህደት
▁ለማጋራት
ጠጋ
:29
▁ለኮ
▁መጠለያ
▁መጠኖች
▁ስዕሎች
▁የታመነ
▁መልክተኛ
▁በስብሰባ
▁የመጣሁት
▁የተንቀሳቃሽ
ከሻ
▁ሂዱ
▁አያም
▁የምክር
▁የሽብር
▁በመነሳት
▁በተደረገው
▁ያስችላቸዋል
ib
ቀህ
ልኛል
ሕፈት
ፍቅር
▁ለሶ
▁ነባ
▁ዳኒ
▁ከሰማ
▁መስታወ
▁የመማር
▁ሀሳቦችን
▁እየሞከር
▁እንደነበረው
ዲየም
▁የከ
▁ለማካሄድ
▁በከተማዋ
▁እንዲወጡ
▁የእረፍት
ዳዊ
ድራ
ቧቸው
▁ጥረ
▁ሐሙስ
▁ያጋጥ
▁ድራይ
▁በላቸው
▁እነግር
▁የሚሰጠ
▁በምድርም
▁ወንድማማ
▁የመሣሪያ
▁የተቀደሰ
ah
ለህን
▁ሞል
▁ለጌታ
▁የአካ
▁ምስክሮች
ጣፊ
▁7.
▁ሲመ
▁በፅ
▁ታጥ
ጎልበት
▁በአጋጣሚ
ሰረዝ
ጋለጥ
▁ኤልሳ
▁የተበ
▁በመፈለግ
▁መፍትሄዎች
መንጃ
▁ሳታ
▁አውሎ
▁ብርጭቆ
▁የጋብቻ
▁ለመፈጸም
ዘፍ
▁በዜ
መጣም።
▁ክፉኛ
▁ውለታ
▁ይመክ
▁የተቀና
▁በእርሱም
▁የሚገልጽ
▁ማስተናገድ
▁£
▁Al
▁ከዩ
▁ያገ
▁ቁሳዊ
▁ዕለታዊ
▁የሕይወ
▁ማነጋገር
▁በነፃነት
ችና
ite
ዋል፤
▁የሎ
▁ደክ
▁ጃክ
▁ነኝና
▁አስመ
▁እስካል
▁ከተማው
▁ዘፈኖች
▁የማኅበራዊ
▁ብዝ
▁አጋጥሞ
▁እንረዳ
▁ከሕዝቡ
▁የሚመነ
▁ሲያደርግ
▁በተቃራኒ
▁ይፈጥራል
▁እንነጋገራ
▁እንደሆንክ
▁እንደማስበው
ሚር
6">
ዘገቡ
▁ጣት
ላትም።
▁ምርቱ
▁ሞተ።
▁በስር
▁ተገንዝ
▁የመላኪያ
ካቲት
▁ሾፌ
▁ሻምፒ
▁ነግሮ
▁እናው
▁ለናንተ
▁ሁለንተና
▁ነበራቸው።
▁አንዳቸውም
ግየት
▁አይበ
▁ጎልቶ
▁አግኝቶ
▁ከአስር
▁ከአውሮፓ
▁ኢንዱስትሪዎች
ርባን
▁6.
▁ጀር
ናፊዎች
▁ይዘጋ
▁ጠይቅ
▁ተመዝግ
▁እርሷም
▁የመሳሰሉ
▁ፋይናንስ
ርተው
▁65
▁ምልልስ
▁ከሁለቱ
▁ያውርዱ
▁እውነተኛው
ከተለ
▁ሰዶ
▁ሲደ
▁እሴ
▁ቀንና
▁ከንቲ
▁ግኝት
ud
▁ከለ
ከፈለው
▁ለመደ
▁አጠራ
▁ወሮች
▁የገቢያ
▁ፈርዖን
▁ለአምላክ
▁ማመቻቸት
▁ታማኝነት
▁ከመንግስት
▁በቅን
▁ንገሩ
▁ይፋዊ
▁ብክለት
▁ተወካይ
▁ተፈላጊ
▁ተመራማሪ
ፈፀም
▁አመን
▁ጭራሽ
▁መላእክ
▁ቀርበው
▁ታሪክን
▁ውይይቶች
▁ተፈጥሮአዊ
AN
ረጅ
ዑዲ
▁ለማይ
▁ተፈት
▁ነፍሰ
▁እኖራ
▁ልጃገረድ
▁እንዲመጣ
ተኝ
የእኔ
▁ማጉ
▁ከሲ
▁አያሳ
▁ለቤተሰብ
▁ያምናሉ።
▁ከየትኛውም
ርኖ
▁ይገ
▁ግዥ
ለዋወጥ
ውያንን
▁ቢኖርም
▁እህቶች
▁ስምምነቶች
▁የምንፈልገው
▁75
▁ታት
ብራዚል
ወቅም።
▁ቁርጥ
▁አውሬ
▁ድህረ
▁ከጀመረ
▁ተናገረ።
▁ያነጋግሩ
▁ያካትታሉ
▁ያገለግላል
ልጄ
ት፣
ጠ።
▁ሲኦል
▁ተደብ
▁አብሬ
▁የጨረ
▁ተአምር
▁ያዘጋጁ
▁ገንዘቡ
▁አለመኖር
▁ባህሪያትን
▁አግባብነት
ነድ
oud
▁ከቅ
▁ዘፋ
ከባበር
▁ወደቀ
▁ሜክሲኮ
▁የሚጠራ
▁የአኗኗር
▁እስማማለሁ
ታውቁ
▁ትዳ
▁ሕዝቤ
▁መሰጠ
▁ጀመርኩ
▁ተቃዋሚዎች
▁ትምህርቱን
▁እስክንድር
ክቴ
▁እሽ
rote
▁ሳለሁ
▁ደረስ
ላችኋል።
▁ከመሆኑ
ሊዝም
▁ገጸ
ታችሁም
▁ተደም
▁የጻፍ
▁መቅደሱ
▁አውስትራሊያ
▁መከ
▁ስርጭ
▁ቀልጣ
▁ብሔረ
▁ይቆጣ
▁ይገኙ
▁አስበው
▁የጅምላ
▁ሰንሰለት
▁ይመስልሃል
መጃ
ሃለሁ፤
▁ዝምታ
▁የህል
▁አሰልቺ
▁ለመምራት
ልሙ
መልሱ
▁ከየ
▁ኮከ
▁ፍጥ
▁የመም
▁ያሻሽ
▁የተማር
▁እንዲሰራ
ራፍ
ኞቼ
ጅን
▁ሸሽ
▁ምረጥ
▁አመጣጥ
▁ከአገር
ንድሮ
▁በበዓ
▁አበረታ
▁ደጋግሞ
▁በእነዚያ
▁የድንጋይ
▁ይመከራል
▁አውሮፕላኖች
29
ግቡ
ሄራዊ
ጸባረ
ዎትም።
▁50%
▁መረዳ
▁ትርፋ
▁ከሞተ
▁ምልከታ
▁ከወዲሁ
▁የተማረ
▁የተደበ
▁የምንለው
▁የምንኖረው
ቂው
ወልድ
ፊቱን
▁ጌጣ
▁ህሊና
▁ቁጠባ
▁አክሊ
▁የሰጡ
▁ጠቋሚ
▁Word
▁ማካሄድ
▁የበረዶ
▁የካናዳ
▁ተፎካካሪ
▁ክፍሎችን
▁የሚቀርብ
▁ይጠብቃል
▁የተለመደው
▁ለማስተዳደር
ማኒ
ሁኔታ
▁እጽ
▁ስድብ
▁አወቅ
ቷቸዋል።
ሐት
▁j
ስትሮ
▁ቅስ
▁ከቆ
▁መፃፍ
▁ባለሞ
▁ብዙኃ
▁አውቆ
▁አይጥ
▁ይዟል
▁ሊያደርጉ
▁በቴሌቪዥን
በዘ
ass
▁ባዮ
▁እደ
▁በተሰ
▁እንበ
▁ያሰማ
▁ምስኪን
▁የሚውል
▁የእርሻ
▁መኖራቸውን
ፈኑ
ተናው
ቲክስ
▁ዘሌ
▁ዲሲ
▁ቦርዱ
▁ትኬት
▁ትግሉ
▁የነጻ
▁እመርጣ
▁ዩክሬን
▁የሚወስድ
▁ማሕ
ሮቻቸው
▁ምግባ
▁ኬንያ
▁ስምህን
▁ማስተናገ
▁ጭንቅላት
▁ነበረበት።
ብሽ
ጋሩ
ጠኛው
▁ስምህ
▁በአራ
▁ብልጭ
▁ከበደ
▁መኪናዎች
▁የማያውቅ
ሳለኝ
ገለፀው
▁መሆኗን
▁እንዳታ
▁የገባው
▁ግኝ
▁ጠል
▁ጌታም
▁ጥቃቶች
▁የሚናገረው
ሥራች
▁ማባ
▁አስቡ
▁ወደተ
▁ጥፋተኛ
▁አለመታደል
▁ከፍተኛውን
▁አውታረመረብ
26
ሀሳብ
▁ሊሰራ
▁ሌሊቱን
▁ወስደው
▁በግንቦት
▁ራቅ
▁ቅኝ
▁ቢሊ
▁ተሠ
ከተማይ
▁10.
▁ሞከር
▁በዘርፉ
▁ቆሮንቶስ
▁አራተኛው
▁በጠቅላላው
▁ተግባራትን
ive
▁አዙ
▁ጎሳ
NUMX
▁ውሏል
▁ሚስቱን
▁እንመለከታለን
ሚዝ
ሸገ
ደጃ
ጥላ
ቅርቡ
▁ወጭ
▁ቁርስ
▁ትችት
▁አዳኝ
▁ስርዓተ
▁የተባሉ
▁ይለወጣ
▁አንዳቸው
▁ያልተነበበ
▁የኢትዮጵያን
▁እናመሰግናለን።
▁፫
ጦርነት
▁ago
▁ቁጥሩ
▁የሙሉ
▁ይቀይ
▁በሰይፍ
▁በጥያቄ
▁እንዲኖሩ
▁ከሜ
▁ማተኮር
ጠቀሙባቸው
▁ስብሰባው
▁አልቀረም።
ቲንግ
ፈራም
ተርጎም
▁አይዞ
ዱስትሪው
▁ሕብረት
▁ሕዝብን
▁ወላጆቹ
▁በመግባት
▁በማግኘት
ለፅ
ከረው
ይቱን
▁ሞገ
▁ጠን
▁ርእስ
▁ተረዳ
▁ከማይ
▁የማሳ
▁ይደረ
▁ሚስተር
▁ድግግሞ
▁ጦርነቱ
▁ለዘመናት
▁1:
ደኝነት
▁ተሻሽ
▁ተቋሙ
▁የተጨ
▁ሰሎሞን
▁በይሁዳ
▁ውስጥ።
▁ይጠራል
▁ፈረንሳይኛ
▁እንደሚታወቀው
ጨር
ink
▁Bl
▁እፎ
▁ሺዎች
▁ማሳካት
▁አደረጉ።
▁አይደለችም
▁በአብዛኛዎቹ
ኤች
▁ቅኔ
▁እሸ
▁ልንገር
▁በነበረ
▁እንዲል
▁መሰለኝ።
▁የምናየው
▁ለማስተማር
▁በመስከረም
-5
▁የሄ
▁የኒው
▁ስለዚያ
▁Twitter
ሊላ
ቾቹ
est
በርት
▁የፅ
▁ማጣቀሻ
▁ተቀበል
▁ያደረጋ
▁ትእዛዛት
▁አለችው።
▁እኩልነት
▁ለመመርመር
ኔል
ጋር
ደትን
ፍትዌር
▁ቀልጣፋ
▁በተረፈ
▁እያለሁ
▁የድጋፍ
▁የምርመራ
▁የስልጣን
▁የሶስተኛ
▁ልጃገረዶች
አላ
ዮት
ቃብር
▁ፒሲ
▁ሥዕል
▁ወልድ
ናቸውንም
▁ለራስህ
▁ከመካከ
ረቀ
በው።
ናልድ
▁ክላ
▁ኮሌ
ጠየቀው
▁አዋቂዎች
▁መልእክተኛ
▁ምንድናቸው
ሌው
▁ሸቀ
▁ይበቃ
▁ይፈት
▁ህይወቱ
▁ለአብዛ
▁በሽታው
▁ካደረጉ
▁የእድገት
▁የሚያስችሉ
ለጫ
ያዛ
ፔዲያ
▁ልዑል
▁በመዝ
▁አለና
▁አለብህ።
▁የተናገሩ
▁የደረሰው
▁ቴክኖሎጂዎች
ER
ሪና
ለወጡ
▁ሲመጡ
▁ከምና
▁ጀመሩ
▁በጥቅሉ
▁አሳፋሪ
▁ኩኪዎች
▁የአባት
▁ይይዛል
▁ነበርን።
▁በመመስረት
ድሶ
▁አሥ
▁አቢ
▁የሚደ
▁የቡና
▁ማበረታቻ
ለተ
ነበቡ
▁ታጋ
ከራከር
▁መሠዊ
▁More
▁አስገባ
▁የሚያመጣ
▁አቅርበዋል።
▁እናምናለን።
ደውን
ገደድ
ሕይወት
▁ዓላማው
▁ጀግኖች
▁ለመግደል
▁ከመስመር
▁ይመዝገቡ
ሬድ
ቃው
▁ደሴ
▁በቀላል
▁በኋላ፣
▁ይችላል፤
AT
Cl
ሰንግ
ፓርቲ
▁ሊሰ
▁መጥቷል
▁በመጫን
ስትራክሽን
ሃይ
ጋቡ
ጦስ
▁ሓ
ንታዊ
ፋለን
▁ፍላ
▁ማካተት
▁ለመልቀቅ
▁የሚኖሩት
▁ህይወታቸውን
ድድሩ
▁ሞላ
▁ተቸ
መናችን
ሮቻችን
ነታችሁ
▁ማውጫ
▁አስከት
▁እንዲወጣ
▁ይመስላሉ
▁የተወሰኑትን
ራፊ
ነቷን
ናገኘው
▁ፈፅሞ
▁በዚያች
▁የፍትህ
▁ስለሚያስ
▁አላስፈላጊ
ዚኖ
▁ለሐ
▁ቴክኒ
▁አለሁ
▁ይሆኑ
▁ሚስቶች
▁በሁዋላ
▁እነግራ
▁በውስጣቸው
▁እንመክራለን
ላጎት
▁ያዋ
▁የገጠ
▁ለአሜሪካ
▁እንሞክራ
▁አይታወቅም።
ሰላም
በርክ
ያስፖ
ትምህር
ክንያት
▁ሲሰራ
▁ሁለገብ
▁ታሪኩን
▁ደሳለኝ
▁መወያየት
▁አሻንጉሊ
▁የምዝገባ
ራሴ
ቃቤ
ቴክ
በሳጭ
▁መጫ
▁እይ
▁ጻፍ
ገኙም።
▁ተቋቋ
▁ያነበብ
▁ብዙዎችን
▁ዳርቻዎች
ገኙበት
▁ለበጎ
▁የመዋ
▁ፊቱን
▁ከማለት
▁የሠራዊት
ታገ
ዟል
ian
ርሽር
▁ንፅ
▁ሲጋራ
▁ይበላ
▁ኃጢአትን
▁ህጉ
▁ለኃ
▁ሀበሻ
▁ሞልቶ
▁ከክፉ
▁ሁኔታም
▁አስገብ
▁አልተገኘም
▁ስጡ
▁ጻፈ
ቸውም።
▁ተደስ
▁ድረገ
▁ማቋቋም
▁በአንፃ
▁ኤርትራ
▁ለውጦችን
▁ይጨምራል።
▁አሕ
▁እት
ብኛል።
▁ወንበ
▁አፅ
▁ጮኸ
▁በሥጋ
▁ኃይለ
▁ለመሳብ
▁ጓደኞቹ
▁ማሳወቂያ
▁በትግራይ
▁የሚያሳዩ
ሃለን
ማንም
▁ሞቶ
▁ባለት
▁የደመ
▁ይፈቅ
▁ቁርጠኛ
▁ከሙታን
▁ከጥንት
▁የተሰጡ
▁ለማሳለፍ
▁ሥራቸውን
▁በቋሚነት
ax
ጹን
ዮርጊ
▁ኪስ
▁ስሌት
▁ታስባ
▁ዓመቷ
▁አታድር
▁እያስተ
▁ዜጎችን
▁የሚጠብቅ
ብን።
ውንዴ
ዲዎች
ፈጥር
▁ሽያ
▁አቦ
▁ስሜን
▁አንጋ
▁ዋዜማ
▁ልጆችም
▁የመዝናኛ
3">
ርሃም
▁እገዳ
ሲል
መልጥ
▁ከጭ
ጣቸው።
▁ምድጃ
▁አትበ
▁አነጋ
▁እመለ
▁የሚው
▁ያልታ
▁ስለምት
▁በበኩሌ
▁ወፍራም
▁የመያዝ
▁የድርጅት
▁የስደተኞች
▁የሚያሳዝነው
IS
ነዉ
▁ቈ
ልምና
▁ሮም
▁የኅ
ቸዋል፤
▁አምል
▁አስች
▁እመኑ
▁እናቱን
▁ተናግሯል
▁አትክልት
▁እንሰራለን
ቶት
▁የፈጸ
▁ጀምር
▁ያስከፍ
▁ሪፖርቶች
▁አንዳችም
▁ይረዳል።
ፋሽ
ቆጠብ
▁በችግር
▁እያለች
▁ያስገባ
▁ለማጣራት
▁መኖራቸው
▁ማስተዋወ
▁Amharic
▁ለማስተዋወቅ
▁አልነበረውም።
ልይ
▁ስሕ
▁መፈጠር
▁ሰንጠረዥ
▁ከክርስቶስ
ለሉ
ሯችን
ተው።
▁ይከበ
▁መልሶች
▁አልነበራቸው
48
በሬ
ኬን
▁ቸል
▁መተን
▁ቀንድ
▁በልብ
▁መልቀቅ
▁ገብቷል
▁ቅንብሮች
▁አይደለችም።
ልቦና
ወሰነው
▁ኃይሉ
▁ነበርና።
▁እርጥበት
▁የተፈጠሩ
ሰበሰበ
▁ለቀው
▁በቃሉ
▁ነውር
▁እስያ
▁መዋዕል
▁በወያኔ
▁በዕለት
▁በጽሑፍ
▁እንዲገባ
ሾም
የዋ
ታሪክ
▁ላም
▁ከሴት
▁ጭንቀ
▁በህይወ
▁ተካሄደ
▁መጀመርያ
▁መንቀጥቀጥ
|"
ቋቋሙ
ቸዉ።
▁በጅ
▁መዝገበ
▁ተከሰተ
▁ንቅሳት
▁በመከተል
▁እርግዝና
▁ይገባዋል
▁በሚያሳዝን
ice
ሰብን
ትም፤
▁ቃሌን
▁አሰፋ
▁መሆኔን
▁በከተማው
▁አይገኝም
▁እንቁላል
▁የማደርገው
ሸጡ
አለ
▁ማዘ
▁ንጽ
▁ሲነሳ
▁ካንተ
▁ልብሶች
▁ባለሀብ
▁ውዝግብ
▁የፀጉር
▁በማንበብ
መንግ
▁ሩብ
▁የጻ
▁ትበላ
▁መታገል
▁በእዚህ
▁ሲነጻጸር
▁በተካሄደው
▁ቮ
ደው።
▁በዶ
▁ከጋ
▁የጾ
▁እጠራ
▁አደረጋ
▁እንዲተ
▁ከመሬት
▁ካልቻሉ
▁የሉም።
▁በረራዎች
▁መልዕክቶችን
ዶስ
ርያም
ኸውን
▁ተኛ
▁ተኩ
አቸው።
▁ሆንሁ
▁ስማቸው
▁ከአንዱ
▁ፍቅረኛ
▁ለመቅረፍ
▁አልገባኝም
▁አዘገጃጀት
ጧት
▁ቀደ
▁አቅሙ
▁የእናት
▁የተከሰተ
▁አውታረመረ
▁ሲዘ
▁ኩኪ
▁ማሪያ
▁በህገ
▁ሲስተም
▁የማንነት
▁በመንፈሳዊ
▁መተግበሪያውን
▁53
▁የሚሻ
▁የችግ
▁እያየን
▁ለመመዝገብ
▁ለመወያየት
▁መንከባከብ
▁ማስተናገጃ
ቴር
▁ሊነግ
▁ሐረግ
▁ማርቲ
▁ምሰሶ
▁ያጋሩ
▁ያነጋግ
▁የመንግሥ
▁የእነርሱ
▁እንደሚኖር
ES
ፈኛ
ell
ንም፤
ጥለው
ረጋገጡ
ሻለሁ።
▁ተላል
▁ጋር።
▁ማዕቀፍ
▁ይድረስ
▁እንዲሰጡ
▁ወንድሞቹ
▁ለመነጋገር
▁ለትምህርት
▁አንዳርጋቸው
▁መተግበሪያዎችን
▁የቤተክርስቲያን
ጥሬ
▁አማኝ
▁አሳየ
▁አከራ
▁ይነሣ
▁ትርፋማ
▁ሊቃውንት
▁በአምስት
▁ይጫወታል
▁የሚያደርጉትን
ቆል
ያለሽ
▁አያስፈልግም።
▁አፕ
▁አስቦ
ንቅስቃሴ
aw
ፃፉ
-20
ወርቅ
▁በጌ
▁ኦር
▁ሆነ፤
▁ወሰነ
▁የወር
▁ይቆዩ
▁መደሰት
▁አስተሳ
▁የመርከብ
ጠህ
▁ለኦ
▁በቅዱ
▁አክሲ
▁እፈራ
▁ወርቃ
▁ተቀላቅ
▁የመጨረሻውን
ቆና
ነሽ
▁r
▁ሲተ
▁ኮም
▁ለሞት
▁መገባ
▁ሻንጣ
▁ብሆን
▁ካለህ
▁ወርሃዊ
▁እንዲያገኝ
▁አስረድተዋል።
:32
ጫዋች
▁ቢሉ
▁ፓት
ሕአዴግ
▁ሐይቅ
▁ሰማሁ
▁ተርፎ
▁አጋጥ
▁ጠባይ
▁ምሥክሮች
▁ተመልካች
▁መሳሪያዎችን
▁የሚፈልገውን
▁ሆኑ።
▁በጋዜ
▁አግብ
▁ዐይን
▁ማደሪያ
▁ሳይሆኑ
▁በእጥፍ
▁አንተና
▁የጥፋት
▁የተወሳሰበ
ማሌ
ሪም
ሁዶች
▁ሽታ
▁ተሰጠ
▁ታደሰ
▁ካውን
▁የማው
▁ፖስት
▁በትዳር
%)
ሳድ
ዶን
▁ባዩ
▁ለመከተል
▁እየሞከሩ
▁የሰዎችን
▁የተከበረ
▁አይፈልግም።
▁አመልክተዋል።
ወይ
▁በማጣ
▁የቆዩ
▁ፍርሃ
▁አጥንት
▁ክፍፍል
▁የተፃፈ
▁የሽግግር
ሰባዊ
rive
▁ደነገ
▁አስተዳደ
▁እንዲሰሩ
▁ያለፈውን
▁ደንበኛው
ሳር
ተሙ
ኑሮ
አቸውን
▁ሥርዓቱ
▁በጥበብ
▁ንግሥት
▁አደጋው
▁አድርጓ
▁እራስዎ
▁በሰማያት
▁የሌሎችን
ያትን
▁ይባርክ
▁ይሰጣሉ።
ረዳን
ተኛውም
▁ለአም
▁ይጠራ
▁ነበር፥
▁ከቀድሞ
▁ይጠብቅ
ጣለን
▁የራቀ
▁2003
▁fone
▁እወስዳ
▁ያዳምጡ
▁ቆይተዋል።
▁በመመልከት
▁እጠይቃለሁ
▁እያንዳንዳችን
9)
ተሪ
ከክ
▁ቅል
▁ልቤን
▁ምንኛ
▁በዓሉ
▁ዕይታ
▁ስለሌለ
▁ስብዕና
▁ካደረግ
▁ዝርዝሮችን
sh
ግባት
መሰክር
▁የራሴ
▁ሰለሞን
▁ተቀመጡ
▁ይገነዘ
▁ፈልገው
▁የተወሰኑት
▁ለማስተላለፍ
▁የእግዚአብሄር
▁ማስታወቂያዎችን
መልካ
ነቱም
▁ጭም
አሜሪካ
ገኛቸው
▁አትን
▁ገደል
▁ምርጡን
▁እነሆም፥
▁ማስተዋወቅ
▁አይፈልጉም
▁የተጠቀሰው
መጥን
ያንን
ደጋው
▁06
▁ለሞ
ንጋፖር
ጀመርያው
▁ማመስገን
▁ሳምሰንግ
ትረ
ንቱ
ጀር
▁ከፌ
▁ለማም
▁ድግስ
▁ተከፈተ
ዘነ
አችሁ
▁በፓሪስ
▁አመላካ
▁አሸነፈ
▁የንጉሡ
▁ግጭቶች
▁አይጠበቅ
▁እስከዚህ
▁የአመጋገብ
ታዩ
ዕር
▁ምንዛሪ
▁አትፍሩ
▁ያየሁት
▁የተጻፈው
▁ተሳፋሪዎች
▁እንሄዳለን
ከሌ
መጡት
ሆናችን
▁መስቀ
▁አርአያ
▁እዚህም
▁የባሕር
▁የዩኤስ
▁ጊዜዎች
▁መልካሙን
▁የሚሰጡት
▁እየተከናወነ
ገሙ
ፕስ
ገዛው
▁ወለደ
▁ማሞቂያ
▁ይደርስ
▁ቆይተዋል
▁ተመለሱ።
▁አስቀድሜ
▁የፓርላማ
▁●
ቶቼን
▁ተጠም
▁አውር
▁በመረጃ
▁የቱርክ
▁እየቀነሰ
▁አናውቅም።
▁ይገልጻል።
▁ሳይንቲስቶች
መካ
ሳትን
▁መወ
▁የወለ
▁ያለብኝ
▁በመጠበቅ
▁የምኖረው
▁የእነሱን
▁እንወዳለን
▁ያስፈልገናል።
ኮስ
ንም፣
▁ሂሳ
▁ቀሚ
ቀበሉት
ችሁትን
▁ተከሳ
▁መደምደሚያ
▁መመሪያዎችን
ገኑ
ንቀጽ
▁ስላሉ
▁የታየ
▁ደብረ
▁ድምጻ
▁እነሆም
▁ያሉበት
▁ሁለተኛውን
▁ለደንበኞች
ጋስ
ock
በት፤
▁ለዚሁ
▁በአማራ
▁እንከን
▁የጀመረ
rosoft
▁ሊከናወን
▁ወዳጅነት
▁በአውስትራሊያ
በቀ
ዘዘው
▁ገቡ
ሠራበት
▁ነገም
▁ፈረሰ
▁መስተጋ
▁ደረጃን
▁ፈጣሪዎች
▁አግኝቻለሁ
▁እግዚአብሔር።
▁ምኑ
ባታል።
▁ቁመት
▁ድራይቭ
▁ፍንዳታ
▁ንብረቶች
▁እገምታለሁ
ልናል
ቲዩብ
ፕሬዚ
▁ቢመስ
▁አይቆ
▁የእርስ
▁እመጣለሁ
▁ምልክቶችን
se
ለፋ
ባሲ
ጅቶ
ሪዎቹ
ከማቹ
▁ሰጠው
▁ስላላ
▁ልጃቸው
▁የትርፍ
▁የክብር
▁ስለሚችል
▁አታውቁም
ትረፍ
▁ብድ
▁ያጥ
ሎምቢያ
▁አንተስ
▁አይጠፋ
ራዘም
ይዘው
▁or
▁ይያዙ
▁ማቴዎስ
▁የህብረተሰብ
▁የሚያስፈልገውን
ግሉ
ጨበ
ራጮች
አንቺ
▁ሉዓ
▁የኋ
ቤታቸው
ታውቁት
▁ሰው፣
▁ባንኩ
▁በቀድሞ
▁በብቃት
▁በጃፓን
▁ባለብዙ
▁አብነት
▁የአብር
▁መርሃግብር
;,
ጠልም
▁ለሆነ
▁አምኖ
▁ይጠየ
▁ለአገር
▁መደረጉ
▁በማየት
▁ተወያይ
▁አይርሱ
▁የማወቅ
▁ይዟል።
▁አመሰግን
▁አወቃቀር
ውደ
እንዲ
▁ብሉ
▁ይቸ
▁VPN
▁ስምን
▁ዘንግ
▁ዲስክ
▁ፈንድ
▁ለማለፍ
▁ለአዲስ
▁በዘመናዊ
▁ከሚገኙት
▁ይጀምራሉ
ጠፈ
▁ኢንች
▁ይኼን
▁ለመላው
▁አንገት
▁እንዲሉ
▁ከመሆኑም
▁መሣ
▁የቫ
▁እኛው
▁ለሚገኙ
▁ሲደረግ
▁ሲጀምር
▁የሚፈል
▁የበዓል
▁የራስህን
▁ይሠራል።
▁ፈቃደኞች
ይይ
▁መዋጮ
▁ጎልማ
▁ጣቢያዎ
▁በአሕዛብ
▁ለመመስረት
ወያይ
ውሰድ
▁አሜን
▁አሳቢ
▁ልጆቻችን
▁በትኩረት
▁አደረጃጀት
ጀክት
ዎታለሁ
ገለጹት
▁ሃርድ
▁እቤት
▁ወረራ
▁በስፔን
▁በቡድን
▁ያግኙን
▁የቅንጦት
▁የብሔራዊ
▁የድርጅቱ
ልጅ
ሰማኝ
▁መፃ
▁ዱካ
▁ሕግን
▁መዘር
▁በወጣት
▁ውፍረት
▁ሕንፃዎች
መፅ
ዞችን
▁51
▁ሲኖ
▁ብዛ
▁አቃፊ
▁በመካከለኛው
ሀል።
ሪያን
ሻሻሉ
2010
ተገበር
▁ይግቡ
▁እንዳየ
▁የበረራ
▁አንደበት
▁የተገነባው
▁የሚከናወነው
ኒቱ
ጓዛ
ሪያል
ጣዮቹ
ጸልዩ
▁IP
▁ንጥ
ቤትነት
▁ሲገቡ
▁ቀጠለ
▁ብቻ።
▁ካዚኖ
▁ቀለበት
▁ካፒታል
▁ለማንሳት
▁በመግለጽ
▁እንደሚሰጥ
ሩ፤
ቃድ
ልግና
▁ልኡ
▁ተዛ
▁ለነሱ
▁ተመዝጋቢ
▁የሚሠራው
▁እንደምችል
▁ከእግዚአብሄር
▁ቶማስ
▁መንዳት
▁አሸባሪ
▁ይቀላቀሉ
")
ብኝም
▁1/
▁56
▁ክፋ
▁ለመዝ
▁አልማ
▁ነገርም
▁አደሮች
▁የሚከፍ
▁በመስቀል
▁ዘዴዎችን
ሐመድ
▁ኢህ
ዘንጋት
ያችንን
▁መቅደ
▁በአባ
▁ድመት
▁ተከታት
▁ምክሮችን
▁እርግማን
▁እንመለስ
ሔድ
ነጣ
ታውም
▁የጆ
▁ቀበሌ
▁ቅኝት
▁ብልጥ
▁በራስዎ
▁ብርሃኑ
▁ተቋቋመ
▁እወደዋለሁ
ዊስ
▁ሸዋ
▁ጭብ
ቀውም።
▁ሁከት
▁ዱባይ
▁ለውጥን
▁ሊያመጣ
▁አስመስ
▁እርስዋ
▁እጃቸውን
ዋእ
ባኖስ
ግበው
▁ከሆ
▁ይዳ
ወድም።
▁ሰምቼ
▁አዝ፦
▁የተቋ
Press
▁ምርታማ
▁እየተቀ
▁የታወቁ
▁ጸሎቶች
ሸሽ
በቡ
ከፈሉ
ዖንም
▁ርእ
▁ረሃብ
▁የሆነች
▁ለአምስት
▁ልጆቻችሁ
▁ያድርጉት
ug
▁ቫይ
▁ፅሁ
▁ስሪቶች
▁አብራር
▁የመጠጥ
▁የተፈጸ
▁ይመራል
▁ሊል
▁ሲጨ
▁አጸ
▁ገብነት
ቶሪ
ኮም
ወርዱ
▁52
▁Ar
▁ካየ
▁ውክ
▁የጌ
አሁንም
▁ለወጣ
▁በረሃ
▁ተባለ።
▁ወራቶች
▁ዕውቅና
▁ደጋግሜ
▁ተመለሰ።
ሚየር
▁ለጀ
▁ሊን
▁195
▁ይህቺ
▁ፕሮቶ
▁ስልቶች
▁ወደታች
▁የውሸት
▁ናይጄሪያ
▁እንዲያውቁ
▁አድርጎታል።
ገቱ
ፖሊ
ጃቸው
ምንም።
ዋለች።
▁ሹመት
▁የግለ
ታቸውንም
▁ሳስበው
▁ጥሩውን
▁በብሔራዊ
▁የሚያስቡ
ሮጳ
ቋር
▁ቢጫ
መጣጠነ
ቶኛል።
▁መስህ
▁የያዝ
▁ሚንስት
▁ከቻይና
▁የተሰጠውን
ok
ፆታ
ክፍል
▁ከቡ
▁ኾነው
▁መሆንን
▁አልያም
▁እድለኛ
▁ባልደረባ
▁የተነገረ
▁የጎደለው
▁ተሰብስበው
▁ከእነዚህም
▁የሚገባውን
ሂም
ተኑ
▁Sp
▁ተከስ
▁ሁላችሁ
▁አልወደ
▁ፋውንዴ
▁ተከላካይ
▁ነበራቸው
▁አስቀምጥ
▁እነዚያም
▁ፊልሞችን
99
ኋት
ኳኳ
ለህ፥
▁ነበሩ፤
▁በተጨባጭ
▁ይቀንሳል
ባራ
▁ትርኢ
▁አለ፦
▁የሀገ
▁መከበር
▁የታተመ
▁wrote
ill
▁ለየ
ንቀጠቀ
▁1">
▁ዜናዊ
▁ፕሮጄ
▁በአሥራ
▁በኢሜል
▁አስተም
▁የመጡት
▁ባለድርሻ
▁ተወላጆች
▁አቅጣጫዎች
▁እናያለን።
ጣና
ክንዮ
ዛመድ
▁ለሱ
ጳውሎስ
▁ቆጣቢ
▁ተጎድ
▁ከሩቅ
▁ከእው
▁ውረድ
▁ፀሎት
ጠቅላላው
▁በመሆኔ
▁ተለያይ
▁ወዲህም
▁ወጥመድ
▁ዝምድና
▁የሚቀርቡ
▁ኢንተርናሽናል
ሰቦችን
▁መደር
▁በሕገ
▁አልኩት
▁አስገድ
▁ያለችው
▁ሕይወቱን
▁በአካባቢ
▁የሚያቀርብ
▁ለጠ
▁ርቆ
▁በና
▁የዴ
▁ለነገ
▁ሰራሽ
▁ተቀባ
▁የጠራ
▁ድርብ
▁ፈልግ
▁ሀትሪክ
▁በጅምላ
▁ዘግይቶ
▁ያከናው
▁አታድርግ
▁ለአንዳንድ
▁እያደረግን
▁የፈለጉትን
መኔ
ማርክ
▁ስፔ
▁ኖኅ
▁ጽፌ
ራቸውም
ኖቻቸው
▁600
▁ስጠኝ
▁ትሄዳ
▁ውስጤ
▁ጤነኛ
▁ይጠፋል
▁በርግጥም
ብይ
▁በያ
▁ጎማ
ታላችሁ
▁Net
▁ልዕል
▁በማግኘ
▁ከእርሷ
▁የአገራችን
ኩና
▁አስጠ
▁ክለቡ
▁ይወደ
▁ለራስዎ
▁በትዕግ
▁ጎንደር
▁ይመለከታ
▁እስራኤልን
▁የሚመለከቱ
36
ሣት
ሳዩ
ኮሜ
▁ሚል
ከልከል
▁ላይ፣
▁ሴንት
▁ገዳም
▁ከኢየሱስ
▁ያስቀምጡ
▁ለሁላችንም
▁መብቱ
▁ግላዊ
ጠራቀሚያ
▁ሰጥተው
▁ቅጽበት
▁የነበራ
▁ያበረታ
▁ትዕዛዞች
▁እስልምና
ገዳ
ንደር
ፍሬም
▁ከሽ
▁Pay
▁የሚጋ
▁የሳን
▁በልጆች
▁አሽከር
▁የተሠሩ
▁ተደርገው
▁እየደረሰ
▁ለማመልከት
▁Microsoft
በየ
ጅና
ጡም
▁ብሶ
▁ታምና
▁እህቴ
▁አሳልፌ
▁የተሰሩ
▁ብልጽግና
▁የጠቅላይ
▁ተግዳሮቶች
▁እንቆቅልሽ
ብላ
ፈሩት
▁ፆታ
ሥርዓት
▁መሐመድ
▁በንቃት
▁አደርገ
▁የሚበላ
▁ለራሳችን
▁የሚያያዝ
▁የፈለገውን
መሠ
ዚች
▁✔
መስሉ
መጨረሻ
▁ሰርጥ
▁የንጉ
▁ምድርም
▁አይቀሬ
▁የተቆራ
▁የሚያስብ
▁መሆናችንን
▁ይገባናል።
ሚል
ነቀ
ደነቅ
▁በጫ
▁ልብህ
▁ያለሁት
▁ይኸውል
▁መገባደጃ
▁ተለይተው
ኩር
ጉዝ
ሽበት
ፍንት
ፈለጉት
▁ተገዢ
▁ከማስ
▁ይባል
ስተዳድር
▁በእርሷ
▁የቀረው
▁መደብሮች
▁በሞባይል
▁የተባረከ
ዘረጋ
ፌሶን
▁ማና
▁20%
▁ሞቃት
▁ርምጃ
▁ቀጭን
▁በልቡ
▁ለሀገር
▁በክፍል
▁ጥቂቶቹ
▁መስታወት
▁ባደረገው
▁ተመለከት
▁መንግስትን
▁በሦስተኛው
▁አያስፈልገ
▁የተጠቀሱት
▁የአክሲዮን
:31
Bet
▁ኬክ
▁በሙሴ
▁እወቅ
▁ወቅቶች
▁የመነጨ
▁መሰላችሁ
▁በምዕራብ
▁በተባበሩት
▁ይመለከታል
▁የሚያረጋግጥ
▁WordPress
ዶር
▁ዜጎ
▁አደርግ
▁ለማሳወቅ
▁ማህበረሰቡ
ሁህ
▁መጪ
▁ንክ
ችኋል፤
▁ገለጸ
▁መስሎኝ
▁ቢዝነስ
▁ተመልከት።
TS
ሾመ
ግት
ዛመዱ
ቀኝነት
▁አናሳ
▁ማለቂያ
▁በአሁን
▁ውሳኔው
▁የሬዲዮ
▁ለሥ
▁ለጎ
▁አምጡ
▁አብቅ
▁ጨካኝ
▁ውርደት
▁ያልኩት
▁ይላል፦
▁ግጥሞች
▁መተግበር
▁ድግግሞሽ
▁እንደሆንን
▁እንደማለት
eg
ያማ
ዳድ
▁66
▁አብን
▁ማተሚያ
▁ስልኩን
▁በራስህ
▁ለመተግበር
▁መንግስትም
▁የዴሞክራሲ
ሟን
ሽኝ
ንብ
ary
ren
ገልጋ
▁የጫ
ሏቸውን
▁በቁር
▁ንጥል
▁አበቃ
▁አጋራ
▁ከግን
▁የቻል
▁ገላጭ
▁የማይቀር
▁እንዲጠቀሙ
ድጓ
▁ሚሜ
ስተናግ
ገናኘው
▁ዥረት
▁አታውቁ
▁የመካከ
▁ምግቦችን
▁ሊጠቀሙበት
▁የሚገባቸው
▁እንነጋገራለን
በደ
ጠው።
▁ሳው
▁ጽድ
ሰናል።
▁አገሬ
▁ካምፕ
Cloud
▁ችለዋል።
▁ይታያሉ።
ቀላ
ቋም
ፈና
▁ማሟ
ገራችሁ
▁መጪው
▁ዓረፍተ
▁አይሰጥም
▁አንባቢዎች
አው
ድጓድ
▁ነበል
▁የእድሜ
▁አላቸው፤
▁የተናገር
▁ተጠያቂነት
sp
ረዱት
ባትሪ
ገደበ
ፈርድ
▁በኖ
▁ይሻል
ስታውሰው
▁እያየሁ
▁የነገር
▁የጥገና
▁ስብስቦች
▁ዘረኝነት
▁የራሳችን
▁የተፈጸመ
▁የለባቸውም።
ባሉት
ጋል።
▁<<
▁ጢሞ
መሰግን
▁የቆመ
▁ደግሜ
▁መሠረተ
▁ብርታት
▁ይከላከ
▁ቅርጸቶች
▁በመንግሥ
▁በዝቅተኛ
▁ተጠናቀቀ
▁እንደሚል
▁ፖለቲከኛ
▁የሚወስደው
▁የማያቋርጥ
▁የአንድነት
ick
ረቤት
ባረር
ንግዳ
▁ቆሜ
▁ተሽ
▁ተቋቁ
▁ዓመቴ
▁ለአዲሱ
▁መጠጊያ
▁እየሱስ
▁የተዘጋጁ
▁እንሰጣለን
ልብ
ሪስት
ቅዱስ
ገባን
▁ለመመ
▁ሱቆች
▁በመደ
▁ፈውስ
▁ለማዳበር
▁አስገዳጅ
▁የመጠቀም
▁ይለናል።
▁ሁለንተናዊ
▁የማይፈልጉ
ይሉ
ዋንዳ
▁ኦሊ
ሚኒስት
▁አልፈው
▁ከፀሐይ
▁አልሆነም።
ድድ
ጽር
1">
ላለስ
ብራይ
▁ቤዛ
▁አመቱ
▁ከቻሉ
▁ወቅቱ
▁ይሄኔ
▁ይፈጽ
▁መፍቀድ
▁ባወጣው
▁ከሀገር
▁ፌዴሬሽን
▁እንደሆነች
▁የተመዘገቡ
ኦት
▁ሞቱ
ይህንን
▁250
▁ለሴት
▁አምሳ
▁አሁንስ
▁ለማቋቋም
▁የከተማዋ
▁እመክራለሁ
tt
ጋኒ
ለኝም
ባልን
▁3:
▁ሻጭ
▁ያማ
▁ሲኾን
▁ገብር
▁መወጣት
▁ጭንቅላ
▁ኮርፖሬሽን
▁አይደለንም።
ራስዎ
ሱበት
ፈጸመው
▁ናትና
▁ያሸን
▁ያየሁ
▁ይንገ
▁ማስገቢያ
▁የጦ
▁አርታ
▁አያት
▁ፈጥሮ
▁መቆጠብ
▁ትላለህ
▁ድምፁን
▁የሚያቀርቡ
ላሊት
ቀደም
ጽሑፍ
ዋለህ።
▁አገሩ
▁መፅሀፍ
▁የያዘው
▁ጋዜጣዊ
▁የአሁኑን
▁ኢስታንቡል
▁እንሆናለን
▁በዩኒቨርሲቲ
▁ቨር
አልና።
ዝናናት
▁አሰና
▁የፀረ
▁ያቀርባሉ
▁እንደሚፈልግ
ፍኖ
ነበው
ጣለሁ
▁ሽቦ
▁የኒ
▁ሲሰጥ
▁አርም
▁አፍር
▁ቅናሾች
▁ተብሏል
▁ታዋቂው
▁ኤምባሲ
▁የሚቀር
▁በሚሊዮኖች
ሪጅ
ገቤ
▁መጀመ
▁ግጥሚያ
▁ኮምፒተር
2">
ከንድ
ገቡም
▁ስእ
▁ፍፃሜ
▁ድብደባ
▁ግቦችን
▁በስልጣን
▁የኃጢአት
▁የእውቀት
▁መስተጋብር
▁አይታወቅም
▁እንግዲያው
BD
ሸሸ
ዋኔ
ያለ
ከብድ
ፋፋት
▁ፎር
2015
▁እሰማ
▁ይሰብ
▁post
▁መወለድ
▁ፓርቲው
▁መፍትሄው
▁አሳይቷል
▁ይጠናቀቃል
ርቭ
ግረ
ጮቹ
ህበት
▁አቆ
▁ዘም
▁ጉን
▁በቶሎ
▁አምድ
▁ጡረታ
▁ማጫወቻ
▁ወቅትም
▁ፊደላት
▁በተደረገ
▁የሥልጣን
▁የተጀመረ
▁አምባሳደር
PA
ጎና
ልጣኑ
ጠቀመው
▁ባጭሩ
▁ማዋቀር
▁ባንዲራ
▁ሽልማቶች
▁ተቀምጠው
▁የላይኛው
ለጠነ
...!
ባሪዎች
▁መካከልም
▁መግለጫው
▁መጣጥፎች
▁ከቤተሰቦ
▁ማስረጃዎች
▁ባለሥልጣን
▁የኩባንያው
CO
ሠራር
ጉዳዩ
ጠፋው
ጡበት
▁እውቀ
▁ጸልዩ
▁ተሸካሚ
▁ድምዳሜ
▁እንደምትችል
▁እንደተለመደው
በሱ
ብም
ተርፍ
ቱንና
▁ሠላሳ
▁አጽና
▁እጄን
▁ማብቂያ
▁ጎረቤት
▁ስላልሆነ
▁ይሰራል።
▁ፕሬዚዳን
▁የሀገራችን
▁የመጀመርያ
▁ያልተለመዱ
▁ግብረመልስ
▁አያስፈልገውም
ዮርጊስ
▁ብርቅ
▁ያተኩ
▁ቸርነት
▁እግሮች
▁የተገናኙ
ስባ
▁ከጣ
▁ዎች
▁አካሂ
▁ጥሰት
▁መተካት
▁ማዕበል
▁እየሰጠ
▁ይዘቶች
▁ይገናኙ
▁ጽሕፈት
▁ውቅያኖስ
▁ዓመታትን
ps
ሞራ
ክሳይ
ጂዎች
▁መራራ
▁ማጨስ
▁ሲሳይ
▁ጠብቁ
▁እንሰጥ
▁ለተወሰኑ
▁ተደረገ።
▁ውክፔዲያ
▁እንደሚያደርግ
ET
ጓሚ
▁o
ሚያው
ወጣም
▁ቤተክ
▁ኤግዚቢ
▁ከሆነው
▁መለኮታዊ
▁የአመራር
▁እንዲቀጥል
ሙኒ
ung
ሰሩት
ቀረው
በረው
ግራሙ
▁ሊጉ
▁ልቅ
▁ሺሕ
▁ቱቦ
▁ማስታ
▁የግራ
▁ጡባዊ
▁መሪነት
▁መግለፅ
▁እስራት
▁ይገርመ
▁ደረሰ።
▁ተጠናክሮ
▁አይጠቀሙ
▁የሌላውን
▁የሳምንቱ
▁ይመስገን
▁የተካሄደው
▁የሚያመለክተው
ቆቹ
አቱ
ገለፅ
▁54
▁ምጽ
▁ኖረ
እርስዎ
▁ሰርቶ
▁ብሄረ
▁አሳታ
▁በርካቶች
▁አመላካች
▁ይመርጣሉ
▁ለማጠናከር
▁ዘሌዋውያን
▁የነበረው።
af
ቫን
ዢው
ጓጉ
ህንፃ
ኳት።
ፈጽሙ
▁ተወግ
▁ኮረብ
▁ከተገኘ
▁ከንቲባ
▁የስሜት
▁እንላለን
▁የጣሊያን
▁እንገኛለን።
በድ
ህናት
ሙያው
ክለው
▁ውሀ
▁የቶ
▁ባነሰ
▁አልፋ
▁ዘርፉ
▁የአስ
▁ቅዳሜና
▁የሚጠብ
▁ሕይወቴን
▁በተሳሳተ
▁በእርሳቸው
▁ተነግሯል።
▁አሻንጉሊት
ያሚ
ጋግ
ጥና
ure
ቃችን
▁120
▁የመመ
▁ለሶስት
▁ሪፖርቱ
▁በረጅም
▁የሰጡት
▁መታጠቢያ
▁በመንገዱ
▁እይታዎች
▁የምስጋና
▁የመጀመሪያዋ
ብቶ
▁ያቺ
ሰጣችሁ
▁በምዕራ
ቁሙ
በላሹ
በታለሁ
ወደውን
▁መርፌ
▁ኮርስ
▁ታስታው
▁ያቅርቡ
ፖች
-10
▁ደጀ
ግራችን
▁ለቅሶ
▁ምደባ
▁በበጎ
▁አያቴ
መንግሥት
▁በከባድ
▁እንዳለን
▁የኢንቨስትመንት
ሉ፥
ሮሮ
ነባ
ፕረስ
▁ቅጠ
▁ትቼ
ከታተያ
▁በነፍ
▁እንጂ፣
▁ከልጆች
▁ያስፈራ
▁የምትለው
▁ያገኘሁት
▁መፍትሄዎችን
ላሚ
ጠች
ሊንግ
ባውያን
▁ክህሎ
▁ሃይሎች
▁ቅስቀሳ
▁አይባል
▁ኮምፒው
▁መለያየት
▁የእንጨት
▁እንቅስቃሴዎችን
ሬም
ቃቱ
ደራጁ
ፓኒሽ
▁በኣ
▁በጆ
▁በመመ
▁ከአው
▁በብሎግ
▁ተሳፋሪ
ህኒ
ህፍት
ይይቱ
ሄድበት
▁Mar
▁ሁለቴ
▁ኮሮና
▁ጥይት
▁በመሣሪያ
▁ተቆጣጣሪ
▁የጦርነት
▁በበኩላቸው
▁አገልግሎቱን
ጥሉ
▁ኸ
ለምና
ሥረት
▁እኅ
እነርሱም
▁ሰጣቸው
▁ትላለች።
▁እንድንሆን
▁የሚያውቁት
▁የወደፊቱን
▁እንደሚያስፈልግ
ቀየር
ጉዳት
ፈሪያ
▁በቻ
▁ወርዶ
▁የጡት
▁ያስቆ
▁ተጠቅሞ
▁ዳዊትን
▁አባላትን
▁የኢሜይል
ቦር
ኮላ
▁ለሳ
ረዳቸው
ዎቻችሁ
▁መለሱ
▁ሊፈጠር
ዘርላንድስ
▁የመጓጓዣ
▁የተፈቀደ
▁ይጫወታሉ
▁መድኃኒቶች
▁አውታረመረቦች
ቢያት
ኛለህ
▁ሕሊና
▁ሲወጡ
▁ያከብ
▁መቃወም
▁ማቀዝቀዣ
▁የሚያጋጥ
▁የአይሁድ
የቴ
:33
ሰቡት
ገልጻ
ጓጓዝ
▁መደራ
▁አንሥ
▁ዳኞች
▁ጥለው
▁ትዕይን
▁እንዳሳ
▁የጥንት
▁ጥበበኛ
ሴሎ
ቪስ
ለንን
ሉቃስ
ተውም
ገልጹ
▁ገመ
▁ለተፈ
▁ቀጥል
▁አቁም
▁ዘመነ
▁ቀሪውን
▁እንኖራ
▁የሚነካ
▁የብሎግ
ጠቀምባቸው
▁ግዴታዎች
▁ለመቀላቀል
▁እንዲደረግ
▁ያጠቃልላል
ሐዊ
ደግፉ
▁እለ
ራለች።
▁መቀሌ
▁ግብፃ
ትምህርቱ
▁በመሬት
▁መሣሪያው
▁መርሆዎች
▁ስለነበሩ
▁የሚካሄድ
▁የተሻሻለ
ችኝ።
▁ህወ
▁ተቈ
▁ታድ
▁እዝ
ላካችን
ዋለሁ፤
▁ሳኦል
▁ተሰባ
▁ገብረ
▁ለአራት
▁ለደንበ
▁ሊሰጠው
▁ስለእሱ
▁በመሰረቱ
▁ቱሪስቶች
▁የስብሰባ
▁አምባገነን
ሔም
ዛዥ
ቡባዊ
▁ስቱ
ሎቻቸው
ኮሜርስ
▁ለጤና
▁በነጋ
▁የቅዱ
▁ጠየቁ
▁መጠቀሙ
▁ምርቱን
▁የለህም
▁የተደረ
ረና
ሹም
ዙት
---
ቃለል
ካከላ
▁ሀቅ
▁ነግሬ
▁ካድሬ
▁ግሪክ
▁ተቀመጥ
▁በጨረታው
):
ዘኑ
ጋሜ
▁ፈላ
▁ለግብ
▁መሙያ
▁አይጠ
▁እሠራ
▁ቁርጥራ
▁ተከናው
▁ይገልፃ
▁ማዕከላት
▁በሕይወቱ
▁በቅርበት
▁አስተካክ
▁የተከፈለ
pl
ጸን
▁IS
▁ዕብ
▁ሩሌት
▁የጎሳ
▁ነውና፤
▁ሀላፊነት
▁ከተጠናቀቀ
▁ደብዳቤዎች
ኳችሁ
▁ch
ፈረንስ
▁መርጦ
▁አውደ
▁መሰረተ
▁ማኅበረ
▁ቀድመው
▁እድሎች
▁ከነበረ
▁ሊኖርዎት
▁ታሪኮችን
ተቱ
ዳሪው
▁ሞቃ
▁በማኅ
▁በፎቶ
▁ያቀፈ
▁ሆስፒታ
▁ማስያዝ
▁ማግባት
▁በጥይት
▁የስፔን
▁አምስተኛ
▁እየጠበቁ
▁ወረቀቶች
▁ማሻሻያዎች
ለመደ
ሜናዊ
▁ኔት
ናገርም
▁መመር
▁ገጣሚ
▁የተደራጀ
▁የክርስትና
▁ታውቃላችሁ።
ሞቅ
ጹህ
ፈህ
ቀናል
▁ለፊ
መጣበት
▁ሐዲድ
▁ሊረዳህ
▁መጽሃፍ
▁በአስር
▁ኤሌክትሮ
▁ያመለክታል
-6
ዳፊ
ለት፤
ዊድን
▁ደው
▁ህጻን
▁ድርቅ
▁የሚያሰኝ
▁u
ነው፤
ካሪው
ሰብአዊ
ንድሮው
▁እያወ
▁የአሸ
▁የገደ
▁ይዞታ
▁እየሆኑ
▁የጡንቻ
▁ይስማማ
▁ተደራሽነት
▁የሚችሉበት
▁የማይታወቅ
መቀ
▁"+
▁ለዕ
▁ካሬ
▁ድህ
▁በሰሙ
▁በነገ
▁ነህ፤
▁የድረ
▁ያለዉ
▁ታያለህ
▁እድሉን
▁የግሪክ
▁የፈለገ
▁ያስባል
▁የካንሰር
▁ለማነጋገር
ME
▁ቦር
▁መጠና
▁ተጻፈ
▁እያን
▁ዕርዳታ
▁ይለናል
▁ጥገኝነት
▁የሚችልበት
▁ለፀ
▁ወዳጃ
▁ማመንጫ
▁ባቡሮች
▁ታዲያስ
▁መረጃዎን
▁መዘንጋት
▁መጠንቀቅ
▁ታገ
ብራራት
▁ጉዞው
▁ሰጪዎች
▁ጥረቶች
▁በህይወቴ
▁የመልካም
▁የተደገፈ
ሽ፣
ኢን
ሶፍት
ቃወሙ
ይቱም
▁3,
ለችም።
ቦቻቸው
ታውቀው
▁ተሞል
▁እረዳ
▁የሚያወ
▁የችግሩ
▁የዳሰሳ
▁ያገኘው
▁ድረስ።
▁የሶፍትዌር
31
ሊፒ
ንቆ
▁፬
ሰልጣ
▁እንቢ
▁ማበጀት
▁ተለዋጭ
▁የተሰኘ
▁የአጭር
▁ወገኖቻችን
ሻቸው
ከተሞች
▁መጣሁ
▁ምሁር
▁ተንኮል
▁ተጋድሎ
▁ያልፋል
▁በድፍረት
ቲም
ወስን
▁ተከል
▁አታስ
▁ከመም
▁የምድ
▁በውስጤ
▁ጎብኝዎች
▁ትገኛለች።
▁እድሜያቸው
ህዶ
ቃለን
ፍረው
▁78
▁ሥም
▁ራእ
▁ርስ
▁ተፈር
▁አዎ፣
▁መርሳት
▁መታጠብ
▁የሚያመ
▁የተጠራ
▁ጫማዎች
▁ማጠናቀቅ
▁ይለዋል።
▁ጎዳናዎች
▁የመከላከል
ጸጸ
▁ታውቁ
▁ይስሐ
▁ገብቼ
▁ፀሐፊ
▁አልበም
▁ግንባታው
▁አይደለም፣
▁ያገለግላሉ
))
ሮሜ
ቪያ
አድ
196
▁ለቡ
ስተናገ
▁መገን
▁ማርች
▁ምርጡ
▁እልፍ
▁ለብቻው
▁ልባችን
▁የሚነሱ
▁የደርግ
▁አስፈለገ
▁እያሰብኩ
Re
በሌ
ተሩ
ተኩር
ከፋፍ
▁ዕል
▁የጄ
ደርግል
▁ሀላፊ
▁የእሷ
▁ማድረጋ
▁ሥራቸው
▁እንሁን
▁የታቀደ
▁ያሳለፍ
▁እንጠቀማለን
ቋረ
ዳዋ
▁በጾ
▁እኒ
▁እዉ
▁ጣጣ
ቀናበር
▁www
▁ለማር
▁ተመድ
▁የፈለ
▁ያነሱ
▁ስላልተ
▁የማላው
▁መቀላቀል
▁ማስከበር
▁የሚገኙትን
ሄድን
ለቀቅ
ማቲክ
ሚኒየም
ቀረበው
▁መዓዛ
▁ምረቃ
▁በወቅ
▁እየፈ
▁ወላጆ
▁ወድቆ
ቸዋለሁ፤
▁በአባቱ
▁አለመቻ
▁ወገኖቼ
▁የጣቢያ
▁የሚያደርገውን
ጩት
ለቅስ
ሩበት
ዳንኤል
ፋቸውን
▁በእም
▁የሚጨ
▁ገበታ
▁አመልካቾች
37
ial
▁ቍጣ
▁ፍተሻ
▁መወሰድ
▁ሰጥቷል
▁በእድሜ
▁በእጅህ
▁ከአባቱ
▁ጭምብል
▁ለብዙዎች
▁በመጫወት
▁የተወለዱ
▁የሚችሉትን
▁የራሳችንን
Pl
|4
ህንና
ላይታ
ሳሳት
ቆችን
ኖራት
ድረኩ
ፍትህ
▁ሲሰ
ኖቻችን
▁ማስወ
ments
▁በማይታ
▁አጥነት
▁እያገኘ
▁እግዜር
▁ይናገር
▁እንዲሄድ
IC
ጠሮ
ond
ፋችን
ጠራቸው
▁10%
▁ተኝቶ
▁የወጣት
▁የድርጅ
▁መስማማት
▁በተናጠል
▁ወንድሙን
▁ፋውንዴሽን
ላቹ
ልጥ
ብሊ
ቻች
ፍረ
ኖሩን
ጫለሁ
▁የርቀት
▁ከሁለቱም
▁ለማስተናገድ
ኤአ
▁ባቢ
▁ይቺ
▁እየዘ
▁የታች
▁የወይ
▁የመንጃ
▁የምስል
▁ለወንዶች
▁ማድረጉን
▁አይፈልግም
38
av
ሰቤ
ቻው
ብርና
ወዳት
ፋለሁ
▁አዘጋ
▁ከነገ
▁የተተ
▁በነበር
▁ተሃድሶ
▁ከህዝብ
▁ከጨለማ
▁ድርጊቱ
▁ታይቷል።
▁አስተምህ
▁ያለነው።
▁መለኪያዎች
▁ይፈጥራል።
ቀምጥ
▁እተ
▁መሥዋዕ
▁ማህደረ
▁ማቋረጥ
▁ተገለፀ
▁ከመጀመሩ
▁እየተጠቀሙ
▁ውሳኔዎችን
▁የምትፈልገውን
ሣሥ
ቷም
ጫል
▁ለዲ
▁በኅ
▁ትሪ
2014
▁እንል
በታለሁ።
▁መንገር
▁በነበሩ
▁በውስጧ
▁አሳማኝ
▁ቪዲዮውን
▁የተቀናጀ
▁ደንበኞቻችን
ሕዶ
ዝራ
ዷን
ቶቡስ
አለም
▁64
ኣብሔር
ዘዋዋሪ
▁መውጣ
▁በአላ
▁እኩለ
ፎርሜሽን
▁ሕይወቴ
▁ሲደርሱ
▁ስብከት
▁አውቶቡ
▁ከሴቶች
▁ከደረሰ
▁ክሬዲት
▁የሌሊት
▁ይናገሩ
▁ትሆናለህ
▁አባልነት
▁የእውቂያ
▁ደረጃውን
▁iCloud
▁ወድጄዋለሁ
ቆቃ
ሠራም
ታለን
ጨዋታ
▁de
▁ተገር
▁ኦባማ
▁ምሥጢር
▁ተምሳሌ
▁አይፎን
▁ወደላይ
▁የበለፀ
▁ለማዳመጥ
▁ሕዝቅኤል
▁ትላላችሁ
▁አይደለህ
▁እንዳለብዎ
ቧራ
ኖክ
▁ኃያ
▁በግንባ
▁የሚከሰት
▁የተበላሸ
▁አካባቢውን
▁ማህበረሰቦች
//
ሸፍ
ari
ለችም
ክበት
▁ልምም
▁ራሷን
▁ገለፃ
▁በህንድ
▁ነግረው
▁የጀርባ
▁በፍርሃት
▁ከፖለቲካ
▁የሚያበቃ
▁የአልኮል
▁ፋብሪካዎች
ams
ንቅለ
▁ለዩ
▁ልባ
▁ፊቱ
ጀመሩት
▁ህንጻ
▁ለእሷ
▁በጆሮ
▁ቤትን
▁እንጃ
▁የኾነ
▁ፊልሙ
▁ለማከም
▁በማደግ
▁የግብጽ
▁አትሌቶች
▁በተጠቀሰው
▁አገልግሎቱ
ase
ሰቶች
አባት
ውያኑ
ዝባዊ
ድሮስ
▁ልኬ
▁በፊቴ
▁ልባቸው
▁ምግብን
▁ብዙኃን
▁አለው፦
▁ይቀርባ
▁ታዳሚዎች
▁አገራቸው
▁እቃዎችን
▁የአዕምሮ
▁የከተማው
▁እርግጠኞች
▁ከተለመደው
▁ማስታወሻዎች
ዎቼን
ላቸው፤
ናቸው።
▁SEO
▁ሊገኙ
▁በሁሉ
▁እርቅ
▁ግድቡ
▁ለእኔም
▁ችግርን
▁ይይዛሉ
▁ጥሪዎች
ሪኩ
ነቁ
እጅ
▁፭
▁ሊገባ
▁ብስክ
▁ትመጣ
▁አዛዥ
▁ተገኝቶ
▁የተረዳ
▁ለመምጣት
▁እንደገባ
▁ህይወታቸው
▁መጀመሪያው
ላከ
ዩኝ
ጻን
ፅዳት
▁3)
▁ጭራ
▁ሲሰማ
▁በአህ
▁ተሰኪ
▁ኢንስ
▁ዘሮች
▁ያመል
▁ይወዱ
▁ቤተመቅ
▁የመረጥ
▁የሚጠራው
▁አሸናፊዎች
ሬስ
ቸገር
▁ሊወ
▁ቢታ
ግራል።
▁መጣችሁ
▁የደረጃ
▁ማለታቸው
▁ማስጀመር
▁የተቃዋሚ
▁ሰምቻለሁ።
▁በተለመደው
▁አድርጋችሁ
▁ኢንሹራንስ
▁እንቀጥላለን
ዐት
ጃም
ገዘ
▁ጽጌ
orex
ሪያቸው
▁ዕድሉ
▁የእስ
▁የመነሻ
▁አላምንም
▁የሚመራው
▁ሪፖርተር፡
▁አምላካችሁ
▁አስተዳደሩ
▁እንዲፈጠር
▁የሚመለከተው
ረዳኝ
▁ጫጫ
▁በግር
▁መፅሃፍ
▁በቅዱስ
▁ባለመቻ
▁የምስራ
▁የፀጥታ
▁በአዕምሮ
▁የመቋቋም
▁በሚከተለው
ገጠ
ሻንጉ
ዮቹን
▁ታሳቢ
▁እኛስ
▁ዘርግ
▁የአፈ
▁በሰዓት
▁ተነገረ
▁አየሁ።
▁ይነግሩ
▁በስድስት
▁አያደርጉ
▁በአቅራቢያ
መጣት
ማቾች
አባቴ
▁59
▁ሐቀኛ
▁ከጨረ
▁የተካ
▁ዕቅዶች
▁አንዳንዱ
▁ይጠቅማል
ሃሃ
ቪዬ
▁ተዉ
▁ቅነሳ
▁በአመ
▁በውኑ
▁በውጤ
▁ሰንበት
▁እየተን
▁የሚገድ
▁ወንጌልን
▁አልቻልንም።
▁ለዜ
▁ልኮ
▁80%
▁በበቂ
ዎታለን።
▁መጥራት
▁ያለፉት
▁ሲመለከቱ
▁በግለሰብ
▁ነበረኝ።
▁እሰጣለሁ
ሉና
ስስ
ቸን
ደግሞ
▁ትታ
▁(3)
▁መሮጥ
▁ሠራዊ
▁ሶስቱ
▁ቦታን
▁አሲድ
▁የሥጋ
▁ጎረቤ
▁ጠቢብ
▁በይሖዋ
▁በፖሊስ
▁ያዘጋጃ
▁ጥንዶች
▁አላቸው፦
▁ከተጀመረ
▁የመፍትሄ
▁ፖሊሲዎች
▁እንደሚመስል
▁የምንፈልገውን
ኹ።
ረሳው
ፉበት
▁ዕፅ
▁ሀዘን
▁በቀል
▁ኢሳት
▁መምጣቱ
▁ማርቲን
▁በደርግ
▁ብሏል፦
▁አፍንጫ
▁አዝናለሁ
▁ይቀበላሉ
▁አድናቂዎች
▁አልተቻለም።
▁ወደነበረበት
ጣጥ
ሠረቱ
ስክቶ
▁ስፖ
▁ሁሉ።
▁ሄደህ
▁ቀሪው
▁ይውላሉ
▁ሥርዓቶች
▁በመጠየቅ
▁ተፈታታኝ
▁ደጋግመው
▁የሚመስለው
ሏን
ርቻ
▁ፑ
ቸገሩ
ዋሳት
ዟል።
▁በመድ
ንግሊዘኛ
▁መሆኑም
▁የማየት
▁የማይገባ
ግስ
▁ለሽ
▁ከመሰ
▁ከእን
▁ማኅበሩ
▁በእስያ
▁አራዊት
▁እንጀም
▁ችሎታዎች
▁የሚጠይቁ
▁ይልቁንስ
▁አልተቻለም
▁አያደርግም
▁የሚያስፈልገን
ህ፥
ለካ
ቪን
ዛቱ
ght
ላጆቹ
ነናል
ገለፁ
▁ሸክ
ንቀሳቀ
▁ሰነፍ
▁አህጉ
▁እመል
▁ፍንጭ
▁አጥብቆ
▁ከመግባ
▁ለማስረዳት
▁መጻሕፍትን
▁የዓለማችን
ቅላ
▁ሀብታ
▁ህያው
▁አክስ
▁ምድራዊ
▁ናቸውና
▁ከናንተ
▁ወያኔን
▁በጠቅላላ
▁አድርግ።
▁የአንድን
▁ይወጣል።
▁እውቂያዎች
ld
ሉ፣
▁በኋ
ማችንን
▁ማተም
▁በሴት
▁ከሞላ
▁ከአዲስ
▁ዓመትም
▁ሳምንታዊ
▁የተቀመጠው
በረከ
▁77
▁ቢት
▁ወተ
ጥረዋል
▁ህገመ
▁ምጣኔ
▁ይዘህ
▁ለማከል
▁በማለዳ
▁አባትህ
▁እጠቀማ
▁መለዋወጫ
▁ሚስጥራዊ
▁በእጃቸው
▁የማዕድን
▁ምርመራዎች
▁የሚያስፈራ
▁ኢንዱስትሪው
:00
እባክ
ካል።
atch
ተኛውን
▁መዝገ
▁ስውር
▁በሰኔ
▁ታወቀ
▁ባርነት
▁ተፈጸመ
▁ነገር።
▁እየሰማ
▁የጽድቅ
▁ደንቦችን
▁አልነበረውም
▁የተናገረውን
በኝ
ash
▁58
▁መሲ
▁አዉ
▁ግና
▁ይሳተ
▁ራሳችሁ
▁ስንቱን
▁የሞተር
▁የሶስት
▁የሚወጣው
▁የዝግጅት
▁ያስተላል
▁ይከታተሉ
ቦል
ime
▁Ab
2020
▁ተርሚ
▁ትሰጣ
▁የመክፈ
▁ለመፈፀም
▁መዘግየት
▁መገልገያ
▁በነጻነት
▁አልፈለገ
▁አስቀያሚ
▁ጥቅሞችን
▁አለመግባባት
▁አስተያየቶችን
ለቶች
ባርቅ
ይሖዋ
▁በፒ
▁ከሠ
ትናንት
ነተኛው
▁USB
▁ሥቃይ
▁አረፈ
▁መጠነኛ
▁ተጠናቅ
▁ጥምቀት
▁ባልንጀራ
▁እመኛለሁ
ላንት
▁ሕንጻ
▁ተጠቃ
▁ጀብዱ
▁ማጽዳት
▁ክህሎት
▁የወቅቱ
▁ጥበብን
▁ለመወጣት
▁በመጋቢት
▁ተሰበሰቡ
▁ደረጃዎችን
▁መስፈርቶችን
ረጎች
▁ስለሱ
▁በማጥ
ሰጣቸውን
▁ምንነት
▁ስልክዎ
▁ተቀበለ
▁ተብሎም
▁አዛውን
▁የህዳሴ
▁ኃላፊዎች
▁አለባበስ
▁እንቀበላ
▁የተገለጸ
▁ይፈቅዳል
▁መንግሥትም
▁አግኝቷል።
▁የተጠቀሱትን
St
▁ዔ
ሻሻለ
▁በዚች
▁ድንኳ
▁ጥንድ
▁በሰጠው
▁በጨረታ
▁የከበረ
▁ይቀጥላሉ
▁ይወዳል።
▁በፈቃደኝነት
▁አዝማሚያዎች
ሮዎች
በለጠ
ጸለይ
▁SD
▁ውዴ
መስለኝ
▁ለመላ
▁መናገ
ነጋገርን
▁መስዋእ
▁ትራንስ
▁ካለበት
▁የእይታ
▁የዋለው
▁ወጪዎችን
▁ሊያደርገው
ጠኑ
ሜትሮ
ጣሪው
ፀባር
ፎርድ
▁ድሀ
▁ጠጋ
2016
▁መኮን
▁አሸዋ
▁ከፈተ
▁አልረሳ
▁መመስረት
▁ባደረጉት
▁እኖራለሁ
▁በተዘዋዋሪ
▁ያቀርባል።
ራሚ
ቃዊ
ኩ፤
ዝቅ
ለኛል
ማለሁ
▁ዘን
ትረፈረ
ናችንን
ጠይቅም
▁ቁልቁ
▁በአሳ
▁እንታ
▁እያዩ
▁ጭፍጨ
▁መፈክር
▁በጥራት
▁ይዘትን
▁ባለመሆኑ
▁ተስፋዎች
▁የመስጠት
▁የአሠራር
▁ምክንያትም
▁ሽልማቶችን
▁እንዲደርስ
▁ይመለሳል።
▁ይበልጣል።
▁ግንኙነትን
ሮጌ
::"
lol
መጽሐ
ወግዳ
ዲያን
▁ኤሊ
በናል።
ታደራዊ
▁LED
▁ማዋል
▁በአሸ
▁መሰጠት
▁ኤፕሪል
▁ደረሰኝ
▁ስማቸውን
▁አልፏል።
▁ያስፈልግዎታል።
ለች፥
ዘገይ
xBet
▁አውቅ
▁ደንግ
▁መታወቅ
▁መውደቅ
▁ዋጋውን
▁ተናገሩ።
▁ተዘጋጅቶ
▁አትጨነቅ
▁ይረዳናል
▁እችላለሁን
▁የመድኃኒት
▁ተመልክቷል።
▁ከእያንዳንዱ
▁የተመሰረተው
ሲው
ብዳቤ
▁እቆ
▁የዞ
▁መስጫ
▁ነገን
▁የጆሮ
▁መኾኑን
▁እስረኛ
▁ከተቻለ
▁ለአብነት
▁የአምስት
▁በእርግዝና
▁እንደሚገኙ
ሰሱ
ማሪው
የትን
ፃፈው
▁ኾኖ
▁ለማብ
▁ጎኖች
በእርግጥ
▁መድረኩ
▁ቀጥሎም
▁እጅህን
▁ይከታተ
▁ጳጳሳት
▁ለቤተሰቦ
▁ነገርግን
▁አልደረሰ
▁አድርጉ።
▁እንደማል
▁አዩ
ነግርህ
▁መወሰ
▁ቀጠል
▁እጠላ
▁የጠየ
▁በማመን
▁ቫይረሱ
▁አልተሳ
▁የተጠና
▁በማግስቱ
▁ወንጀሎች
ስጥኤማውያን
ሪድ
ርሞ
ደቱን
ጋብዝ
ጋጥም
▁ትይ
ስክቶፕ
▁መሆኗ
▁ሰላማ
▁ህይወቴ
▁ለምንስ
▁ሊወሰድ
▁ማዳበር
▁ከምሽቱ
▁ግብርና
▁እንዳገኘ
▁ዕድሎችን
ሬቱ
:34
per
ሆንኩ
ቀቱን
ትናም
ንያም
ጽናና
2007
▁ከአይ
▁ምንድር
▁ተመልሼ
▁አክራሪ
▁የግብረ
▁ለመፈተሽ
▁መዝናናት
▁ታካሚዎች
▁የሚያስደስት
▁እንደተጠቀሰው
ዓም
ጥስ
ንድን
ዕክት
ይህም
▁ለቢ
▁ማንኛ
▁በወደ
▁አውቄ
▁ከመጥ
▁ዘጋቢ
▁የኤች
▁ፈቃዱ
▁መጽሐፈ
▁የፋይል
▁ይመለሱ
▁ለማጥናት
▁ብቸኝነት
▁ከዓመታት
▁በአካባቢያ
ለፈው
▁መፋ
▁ሜካ
ቃለሁ።
▁በስሙ
▁በቅጡ
▁ቤትዎ
▁ብርድ
▁እጦት
▁ፈራጅ
▁አዘጋጀ
▁ለአንባቢ
▁በበሽታው
▁እርሱንም
▁እየሞከርኩ
ፍጥ
ፓድ
ጌታዬ
ጠውን
▁An
ስትሪያ
ጤንነት
▁የሚዋ
▁ይደሰ
▁መመለሻ
▁መሠዊያ
▁ማስፈራ
▁ነፍሴን
▁ወኪሎች
▁የመናገር
▁ድንጋዮች
▁አላምንም።
▁እናገኛለን።
ጠሎ
ቸግር
ክሪፕ
▁ሮዝ
ight
▁ቀረጥ
▁በልጁ
▁በውል
▁ተሰራ
▁ይቀየ
▁ማጫወት
▁ጠንከር
▁ሀትሪክ፡
▁መምጣቱን
▁እንዴትስ
▁እየጠበቅ
▁በመቀጠልም
▁እንላለን።
▁የተናገሩት
▁ኢንቨስትመን
ሌክ
ጣ።
ሮችም
እኔን
▁ከሸ
▁ስንኳ
▁አፓር
▁ዓርብ
▁ሥርዓተ
▁በእርሻ
▁ያቀረብ
▁ደግሞስ
▁ትችላለች
▁አልኩት።
▁ከሚገኘው
▁ወጣቶችን
▁እመርጣለሁ
▁ጣቢያዎችን
IT
ብያ
ዳሽ
ዝቃዜ
▁9.
▁ጥቁ
▁ሄደን
▁ለመሰ
▁በህል
▁የጠፉ
▁ያካሂ
ብራይስጥ
▁ሊኖረን
▁መለጠፍ
▁በማንም
▁በንጉሡ
▁እርጉዝ
▁ብሎኛል።
▁የካርቦን
▁ገንቢዎች
▁የሁላችንም
▁የእነዚህን
ሁና
ዕሰ
ory
ሃቸው
ንድነው
▁አትስ
▁ደማቅ
▁ህገወጥ
▁ሕጻናት
▁መቁጠር
▁መውለድ
▁አትበል
▁ከዓመት
▁ክሪስቶ
▁የሚነሳ
▁ማቅረቢያ
▁የነበራቸው
▁ይሰጥዎታል
mm
ያህ
ቀረብ
ቦቹን
▁ረክ
▁ቡክ
▁ገጥ
▁መያዙ
▁ማርቆስ
▁ማዕቀብ
▁ታይቷል
▁የፕሬስ
▁መብራቶች
▁መንግሥታዊ
▁ማጠራቀሚያ
▁የምናገረው
▁የሚያመለክት
▁68
▁ለቁ
▁ከላ
▁የቢሮ
▁የተለ
▁የፍራ
▁በዘመኑ
▁ተዘርዝ
▁ዕርምጃ
▁የጸጥታ
▁ቡድናችን
▁የሚመስሉ
▁ለዘለዓለም
▁እንዲመለሱ
▁ኮንፈረንስ
▁የሚካሄደው
ሌይ
ናቀሉ
ሰማራት
▁ትዝብ
▁ከወን
▁ዝማሬ
▁ለአለም
▁መርዛማ
▁ብንሆን
▁አገርን
▁ከእናቱ
▁የሚፈጽ
▁በተባለው
▁አልተሰጠ
▁የተፈጠረውን
ሩና
ale
ርሞን
▁ፈቅ
▁ዮናስ
▁የዓለምን
▁የድንበር
▁አልቻልንም
ቆመው
ነርጂ
▁ጋብ
ለማመድ
▁ገቡ።
ስበዋል።
▁2022
▁ብፁዓን
▁ንግስት
▁አይሰጥ
▁እየመራ
▁የሙስሊ
▁የባትሪ
▁የዓይን
▁ይሞክራ
▁ገዢዎች
▁ስለሆንኩ
▁ቁምፊዎች
▁እንዲቆዩ
▁ለማስቀረት
▁በሕይወትህ
▁የተመሰረቱ
ነዱ
197
ሳውዲ
ኖቹን
▁Th
▁ሸሹ
▁ወሎ
▁የዊ
ዶቻችን
▁ሊያጋጥ
▁ነፍሱን
▁ወንድና
▁የወረቀት
▁ሁለታችንም
ወቀው
▁LG
▁ሀገሬ
▁ማይል
▁አውድ
▁መሸከም
▁አኗኗር
▁አካውንት
▁አወዳድሮ
▁የቤተሰቡ
▁አልተደረገ
▁የብሪታንያ
ረሙ
▁57
ጆቻችሁ
▁ነህና
▁ማፍራት
▁በቋንቋ
▁ውክልና
▁አክለውም
▁ከተደረገ
▁ሁላችንንም
ው፤
ics
ሌቪዥ
ሦስተኛ
▁ልኡክ
▁ብልሹ
▁አንስ
▁ወሰዱ
▁ተዓምር
▁እፎይታ
▁የውሳኔ
▁ጋዜጦች
▁መዘጋጀት
▁እንደሚሆኑ
▁ሕይወታቸውን
▁ግንኙነቶችን
ሁኝ
ሟሟ
ሳሰሉ
ጓደኛ
▁ዱላ
ከራከሩ
▁ለግን
▁በእሷ
▁ዕድገ
▁የቀደ
▁ድሆች
▁ጣቶች
▁በጨዋታ
▁ተጓዳኝ
▁ለማስቆም
▁ይከናወናል
▁ባለሙያዎችን
▁አይፈልጉም።
▁እንደሌላቸው
▁የሚያስፈልጋ
ke
ክሬ
ith
▁ቴዎ
▁ያክ
ated
ገባኛል
▁ሰጥቼ
▁እጸል
▁ከቀኑ
▁ግብይ
▁ማዕረግ
▁ለአፍሪካ
▁የፋብሪካ
▁ይወሰዳል
▁አላስብም።
▁ያስከትላል።
ጦሽ
ጲላ
ጽበት
ችለውን
▁ስራን
▁ባገኘ
▁ትንን
▁ማምረቻ
▁ተቀበሉ
▁አፍሪቃ
▁የተማሩ
▁ያንተን
▁በምርጫው
▁በጣቢያው
▁ተጫዋቾችን
▁እንደሚኖሩ
▁ያደርጉታል
▁ያስፈልገዋል።
PR
ሳቡ
ጣፋ
▁ኋ
ራል፤
ዊያው
▁(←
▁የጅ
▁ማዕድ
▁እንደየ
▁የዲጂታል
▁ማናቸውንም
ቢን
ኖት
ኳል
ork
ብናል
ቻልን
ኪናው
ያየር
ሊፒንስ
▁የኮን
▁በሚገኝ
▁በግማሽ
▁እነሆ፣
▁የሚገዛ
▁የቀሩት
▁ይነሳል
▁ይንገሩ
▁የአከባቢ
▁መልእክቶች
▁አታውቅም።
ያፊ
ሰማቸው
ነሳሳት
▁ሴትዮ
▁አይስ
▁ስሕተት
▁ስሜትን
▁በጥሞና
▁ተሰጥኦ
▁አይሁን
▁እያሰቡ
▁ኮከቦች
▁ይመጣሉ።
ሺያ
ቦራ
ዋጣ
ግዝ
▁በምታ
ሏቸዋል።
▁አያድር
▁ከሌለው
▁ከወያኔ
▁የአደጋ
▁እንዲቆይ
▁ወዲያውም
▁ሃይማኖቶች
▁ለመገምገም
▁የተቋቋመው
39
ፈቱ
▁ሇ
ልህ።
ዋወጥ
▁በጄ
▁ቻት
rypt
ምራለን
▁መጽና
ሬያለሁ።
▁ስምዖን
▁ሳይሆን፣
▁ቅሬታዎች
▁ተመሠረተ
▁አንዳችን
▁ጣቢያዎን
▁በቴክኖሎጂ
▁እንዲሳተፉ
SS
ትን፣
▁ፐር
able
በረበት
▁ባለአ
▁ነን፤
▁ካቢኔ
▁የዘረ
▁ቀጣዩን
▁ተሰምቶ
▁ውድድሩ
▁ለመሙላት
▁ቤተሰቦቼ
▁እየሞከረ
▁ያስተካክ
▁ይለያያል
▁አይተናል።
መዳን
በቂያ
ቃለች።
በተለይ
▁ያሳስ
▁ይተኛ
▁በነበሩት
▁እባክህን
▁ድርጣቢያዎች
__
ህራ
ነነ
ሶቹን
ከትሉ
ገግታ
ሰባቸው
▁ቅጠል
▁የሆድ
▁ያክሉ
▁ግራም
▁ለአንዱ
▁ማሰሪያ
▁አስከባ
▁ኮሚቴው
▁የሚሰማው
▁የተጋለጡ
▁ያቀረበው
3.
In
ች፣
ደና
ዝናና
▁ባሌ
▁እጀ
▁በዛው
▁ይገኝ
▁በበኩሉ
▁በዱባይ
▁ይስተዋ
▁ሶስተኛው
▁ባጠቃላይ
▁ተጠቅመው
▁አዛውንት
▁የካቶሊክ
▁ይከፈታል
▁እንደሚሄድ
▁ፈሪሳውያን
ቀዳ
ርቻሮ
ትርፍ
ግርኛ
▁ወዶ
ክብሮት
▁ሊሰጡ
▁ሜትሮ
▁ቅድም
▁አዘው
▁ይዘቱ
▁መወገድ
▁ብራዚል
▁ህይወቱን
▁ሰነዶችን
▁ስምምነቱ
▁የህወሃት
▁የትብብር
▁ደኅንነት
▁ገብቷል።
▁እንዲኖረን
ላይት
ባበሩ
▁ዋው
▁ሲልም
▁በነሱ
▁ይምጡ
▁መታዘዝ
▁በመቶው
▁ተጫዋቹ
▁ይላል፤
▁ጽሁፎች
▁ፕላኔት
▁በድንጋይ
▁የሚያስጨ
▁ይጠራል።
▁በማናቸውም
ዛዙ
ank
ተረጎ
ፈለጌ
▁ማነ
▁ሥላሴ
▁ቀረ።
▁ካለፈ
▁ገፅታ
▁ለመተው
▁አጫጭር
▁ክብርና
▁ለሶስተኛ
▁ብቻቸውን
▁የመምረጥ
ላሁ
ተዉ
ላክሲ
▁ሐይ
▁ሲን
▁ጾታ
ኖራችሁ
ከባከቡ
▁ተመኘ
▁አቋር
▁እምቅ
▁ከመል
▁ከፍቶ
▁አምስቱ
▁መስፋፋት
▁በምስራቅ
▁ይቀርባል
ሮታ
ዱል
ላል፤
ንደኛ
ክሎች
መሰረት
ቃቸውን
ተገበሩ
ንላይን
ውቃቸው
▁30%
▁ሠርግ
▁አመጡ
▁ሞቃታማ
▁ቁርአን
▁እቅዶች
▁እጅጉን
▁ከእርስ
▁ጠንክሮ
▁በሰላማዊ
▁አሳልፈው
ቅሱ
fli
▁ሄይ
ዘዋወር
▁800
▁ሙሽራ
▁ሰዓቱ
▁ባለሁ
▁ተቃው
▁ተቆር
▁የባል
▁ሊለወጥ
▁በዳዊት
▁ቡድኑን
▁የመከራ
▁የዓመቱ
▁በታህሳስ
▁የቱሪስት
▁የአባቱን
▁ተከታዮችን
▁የኢየሱስን
▁ተመሳሳይነት
▁በመጀመሪያዎቹ
3|
ll
የነ
ለውጡ
በሳጨ
ገባም
▁ታይም
▁አቆመ
▁መስራች
▁እጩዎች
▁የጉግል
▁የሚወሰን
▁ጎብኚዎች
▁አያስፈልጋ
▁እስራኤልም
ንተው
▁ጅብ
ስፒታል
▁ሊወጣ
▁በእጄ
▁በርከት
▁በእኔና
▁አልወጣ
▁የራስን
▁የጥርስ
▁ፍራንክ
▁መናፍስት
▁መንገድን
▁የዋስትና
▁ዲሞክራሲያዊ
ሷቸው
▁ለአደጋ
▁የፈተና
▁ለከፍተኛ
ስራኤላውያን
▁አርቲስቶች
▁የአብርሃም
▁እሞክራለሁ።
Luc
ፕራይ
▁II
▁ሃቅ
▁ረጋ
▁ያጡ
ሠሩትን
ሰበስብ
▁በገና
▁የሚሹ
▁ይማር
▁አልኩ።
▁ይገለጻ
▁ደራሲው
▁ተነስተው
▁እንደወደ
▁ያልታወቀ
▁ለሚቀጥለው
▁የሚሰጠውን
▁ይረዳዎታል
oy
ሊቱ
ልጋ
ኖቼ
ደቁ
ልኝም
ማል፤
ረከብ
ያያዝ
ጀልባ
▁ቆራ
▁ካና
▁አይሻ
▁እንዘ
▁ከማህ
▁የባህ
▁ወርቃማ
▁ትዕግስት
▁በሚያስደንቅ
▁አድርገናል።
▁እንደሚያደርጉ
ዎቿ
▁አሀ
ገልጋይ
▁ሲሰሩ
▁ብፁዕ
▁የመዝ
▁ይዛመ
▁ጠንቃ
▁በመጠኑ
▁የተሞሉ
▁ገሃነም
▁አጋንንት
▁የተካሄደ
▁ይሰማል።
▁እስከአሁን
▁የኢህአዴግ
▁አውቀዋለሁ።
ሩኝ
ወያዩ
የሚያ
ዳመጥ
▁ማሪ
▁በከ
መናችሁ
▁በዋጋ
▁ቢቀር
▁የዘገ
▁ጠርዝ
▁ለምግብ
▁ለአሁኑ
▁ቻይንኛ
▁አገኘ።
▁ዐይነት
▁የሱዳን
▁የቦርድ
▁ጥያቄ፡
የመጀመሪያ
▁አምላክም
▁የትዊተር
▁የግድግዳ
▁ይሸፍናል
▁የአጠቃቀም
ጥፉ
ደለም
▁ሉቃ
▁ቴዲ
▁194
▁ሃምሳ
▁እወቁ
▁በሙዚቃ
▁እልቂት
▁እኛንም
▁ክልላዊ
▁ይቆጠራል
ያንዳንዳችን
▁ፕሮግራሞችን
▁አልነበራቸውም።
-8
:35
▁ኮሎ
ምክንያ
ክክለኛ
▁መጠይ
▁ሰው።
▁እርሾ
▁በምትኩ
▁የጥላቻ
▁ለገንዘብ
▁በመምረጥ
▁ተጀምሯል
▁አመክንዮ
▁ስህተቶችን
▁ባለሀብቶች
▁እንደሚያገኙ
ሳለህ
ስተውል
▁ሲገኝ
▁የሚቻ
▁የኪነ
▁ይጀመ
ካከላችን
▁ስመለከት
▁ተጠንቀቁ
▁ከመጠቀም
▁ወንጀለኛ
▁ማጭበርበር
▁እስትንፋስ
▁እንደቀጠለ
▁እስከመጨረሻው
ሊዮ
ፕቶ
ብደት
ሳለች።
▁ቃሎች
▁ተኮር
▁አባቷ
▁ከሕግ
▁የመደ
▁የኤል
▁ያበቃ
▁ድጋሚ
▁ፈጥኖ
▁ሲመለስ
▁በሚሆኑ
▁አህጉር
▁የቡድኑ
▁የዘመኑ
▁ሌሎችንም
▁ከወንዶች
▁የተነደፈ
▁ሕይወታችን
▁አስታውሳለሁ
CD
ምቤ
▁👉
ሕዝብ
ጢያት
ጥርም
▁ፈው
▁መዘጋ
▁አረፋ
▁እግሩ
▁የአላ
▁አለብዎ
▁አምነው
▁ካህናቱ
▁XNUMX
▁ስለሆነ።
▁በቅንነት
▁አገሪቱን
▁የመሳሪያ
▁የሚባሉት
▁የደመወዝ
ጎራ
ለን፣
ሳውቅ
ጋገር
ጠለጠ
▁ፈታ
ሸራተት
▁ማሰስ
▁ስፔን
▁ቫይረ
▁ትከሻ
▁አልደ
▁የሚቃ
▁የስብ
▁ደወል
▁ለልጆቹ
▁የተከሰ
▁ቤተሰቡን
▁ነበልባል
▁ወያኔዎች
▁የሚበልጡ
▁ቅርንጫፎች
▁እወስዳለሁ
▁ይገልጻሉ።
▁አስተማሪዎች
ለአ
ኩሽ
ድን።
▁Un
▁መፀ
▁ጉራ
ርስትያ
▁እየጎ
▁ክፈት
▁ወልደ
ስተዋወቅ
▁ልብሱን
▁በፓርቲ
▁ዘገባው
▁የወሰደ
▁ግብዓት
▁ቀርቧል።
▁በድርጅቱ
▁ብርቱካን
▁ከመስጠት
▁የተወለድ
▁አሳይቷል።
▁እንደምንም
ዘና
ከብራ
ዳራዊ
▁እላ
ዷቸውን
▁ቢመጣ
▁ለአላህ
▁መፈተሽ
▁እንሰማ
▁እየመጡ
▁የሚወጡ
▁የሚጓዙ
▁ምርጫውን
▁የንብረት
▁ያብራራል
ናር
ጫሉ
ሎሪዳ
ሰሩም
ኮሌት
▁ማላ
▁በቸ
▁አኃ
▁ጁን
▁ጭማ
ስታወት
ኋቸው።
▁ሔዋን
▁በምላ
▁በእር
▁ልትሆን
▁ሐሰተኛ
▁መምታት
▁ሥዕሎች
▁መከፋፈል
▁በመጥቀስ
▁በተጠቃሚ
▁በእውቀት
▁የሚወስዱ
▁ይወድቃሉ
▁አድርገናል
▁ጠቅሰዋል።
ال
ሪቲ
ገኘት
ሰበሰብ
▁የሄድ
▁ፈልገ
አስታውስ
▁በርቀት
▁የተግባር
▁ታደርጋለህ
▁የይገባኛል
▁በኢንዱስትሪው
ky
ጃል
ile
ክልኝ
ፋሎት
▁95
▁ታወ
ዳደሪያ
▁አደሩ
▁የሚሞ
▁ዳኛው
▁ያደገው
▁ጉባኤው
Google
▁አግኝተው
▁እግርኳስ
▁ቴክኖሎጂን
▁ከመንግሥት
▁አስተዳዳሪዎች
ስታል
ታይን
ጴዛው
flix
▁መቸም
▁ቅዱሳ
▁አላሳ
▁ሊያገኝ
▁ሲሆን፥
▁አነበብ
▁የታየው
▁ይፈትሹ
▁የግለሰብ
▁በአከባቢው
▁በፈረንሣይ
▁ያስፈልገኛል
ርፖ
▁ሳህ
መሰረተ
መንግሥ
ባቸውና
ናውቀው
▁ለህዝቡ
▁በጠዋት
▁ከተመረ
▁አለመሆን
▁እንዲታይ
▁እንነጋገር
-"
TM
ሠል
ዋጅ
ዛዜ
ደላ
ቆምም
ባረክ
ከለው
ይድሮ
▁ትቀ
▁ኮፒ
▁ወጡ
▁ዌብ
ሯቸውን
ሰራም።
ጋሪዎች
▁ሰጠ።
▁በተቻ
▁ጠንቋ
▁ጥምር
▁ከሰሜን
▁ደረጃም
▁ጦርነቶች
▁በስብሰባው
▁አቅርቦቶች
ላኬ
ፍፍ
300
ትም፣
▁ጋሽ
መላለስ
▁ታጋይ
▁የልዩ
▁ማልቀስ
▁በጽድቅ
ላችኋለሁ።
▁በአማርኛ
▁ተዘጋጅቷል
▁በተንቀሳቃሽ
ኝህ
ጓዘ
ታዘዝ
ጡረታ
ፋጠን
▁ፈጠር
▁ማዕዘን
▁ስቱዲዮ
▁ነፍሳት
▁አስቆጥ
▁ኮርሶች
▁የልብስ
▁የሚጣል
▁ደግሞ፣
▁ኦርቶዶክስ
▁ይሰማቸዋል
ኅሣሥ
ዎች።
▁ዲቪ
ታዊነት
▁በፕላ
▁ኮሚሽ
▁ለነርሱ
▁በሰጡት
▁ከባህር
▁ጓደኛዎ
▁ትምህርቱ
▁ጀምሯል።
▁ተገኝተዋል
34
አፓ
ፈሱ
ክፈል
▁ጂኦ
ማኝነት
ቀረቡት
ከበረው
▁ማነስ
▁እያል
ደረገውን
▁አለቀሰ
▁የፕሬዚ
▁ያህል፣
▁ጭፍጨፋ
▁የሚወዱትን
▁የተመጣጠነ
▁ይታመናል።
ልፎ
ዕዝ
ረቱን
ጀንቲ
መንፈስ
▁ሰነዱ
▁አወቀ
▁አጥቂ
▁እባብ
▁አድጓል
▁በሃይማኖት
▁ያልተገደበ
▁በእግዚአብሔርም
በጠ
ነሻ
ንኩ
ንፍ
ባኤው
ገሪያ
▁85
▁ሲም
▁ሳና
ኳቸውን
▁መልሼ
▁በትራ
▁ተነሱ
▁ጳጳስ
▁ለንጉሡ
▁ወዳጆቼ
▁ጠንቃቃ
▁ከተማዋን
▁የሚንቀሳቀሱ
ሑድ
ዛም
▁ኦዲ
መረምር
ቀመጡት
▁መሥራ
▁ዋጋን
▁የመዳ
▁ያመለ
▁ጉዳቱ
▁ልዩነቱ
▁አመታዊ
▁የሚያዩ
▁የሚታወቁ
▁የአንተን
▁እንዲመለስ
▁እንመለከታለን።
TO
io
ካሂ
ምህር
ቶችዎ
ከባለ
▁ላማ
▁ብሮ
ሰብዓዊ
ሳለን።
▁ለልጁ
▁ልጅቷ
▁በሉ።
▁አቀና
▁አይሰ
▁አድኖ
