{
  "version": "1.0",
  "truncation": null,
  "padding": null,
  "added_tokens": [
    {
      "id": 0,
      "content": "<pad>",
      "single_word": false,
      "lstrip": false,
      "rstrip": false,
      "normalized": false,
      "special": true
    },
    {
      "id": 1,
      "content": "<unk>",
      "single_word": false,
      "lstrip": false,
      "rstrip": false,
      "normalized": false,
      "special": true
    },
    {
      "id": 2,
      "content": "<s>",
      "single_word": false,
      "lstrip": false,
      "rstrip": false,
      "normalized": false,
      "special": true
    },
    {
      "id": 3,
      "content": "</s>",
      "single_word": false,
      "lstrip": false,
      "rstrip": false,
      "normalized": false,
      "special": true
    }
  ],
  "normalizer": {
    "type": "Sequence",
    "normalizers": [
      {
        "type": "NFC"
      },
      {
        "type": "Strip",
        "strip_left": true,
        "strip_right": true
      }
    ]
  },
  "pre_tokenizer": {
    "type": "Metaspace",
    "replacement": "▁",
    "prepend_scheme": "always",
    "split": true
  },
  "post_processor": null,
  "decoder": {
    "type": "WordPiece",
    "prefix": "##",
    "cleanup": true
  },
  "model": {
    "type": "WordPiece",
    "unk_token": "<unk>",
    "continuing_subword_prefix": "##",
    "max_input_chars_per_word": 100,
    "vocab": {
      "<pad>": 0,
      "<unk>": 1,
      "<s>": 2,
      "</s>": 3,
      "!": 4,
      "\"": 5,
      "#": 6,
      "$": 7,
      "%": 8,
      "&": 9,
      "'": 10,
      "(": 11,
      ")": 12,
      "*": 13,
      "+": 14,
      ",": 15,
      "-": 16,
      ".": 17,
      "/": 18,
      "0": 19,
      "1": 20,
      "2": 21,
      "3": 22,
      "4": 23,
      "5": 24,
      "6": 25,
      "7": 26,
      "8": 27,
      "9": 28,
      ":": 29,
      ";": 30,
      "<": 31,
      "=": 32,
      ">": 33,
      "?": 34,
      "@": 35,
      "A": 36,
      "B": 37,
      "C": 38,
      "D": 39,
      "E": 40,
      "F": 41,
      "G": 42,
      "H": 43,
      "I": 44,
      "J": 45,
      "K": 46,
      "L": 47,
      "M": 48,
      "N": 49,
      "O": 50,
      "P": 51,
      "Q": 52,
      "R": 53,
      "S": 54,
      "T": 55,
      "U": 56,
      "V": 57,
      "W": 58,
      "X": 59,
      "Y": 60,
      "Z": 61,
      "[": 62,
      "\\": 63,
      "]": 64,
      "^": 65,
      "_": 66,
      "a": 67,
      "b": 68,
      "c": 69,
      "d": 70,
      "e": 71,
      "f": 72,
      "g": 73,
      "h": 74,
      "i": 75,
      "j": 76,
      "k": 77,
      "l": 78,
      "m": 79,
      "n": 80,
      "o": 81,
      "p": 82,
      "q": 83,
      "r": 84,
      "s": 85,
      "t": 86,
      "u": 87,
      "v": 88,
      "w": 89,
      "x": 90,
      "y": 91,
      "z": 92,
      "{": 93,
      "|": 94,
      "}": 95,
      "~": 96,
      "¡": 97,
      "¢": 98,
      "£": 99,
      "¤": 100,
      "¥": 101,
      "¦": 102,
      "§": 103,
      "©": 104,
      "¬": 105,
      "®": 106,
      "°": 107,
      "±": 108,
      "¶": 109,
      "·": 110,
      "¿": 111,
      "À": 112,
      "Á": 113,
      "Â": 114,
      "Ã": 115,
      "Ä": 116,
      "Å": 117,
      "Æ": 118,
      "Ç": 119,
      "È": 120,
      "É": 121,
      "Ê": 122,
      "Ë": 123,
      "Î": 124,
      "Ð": 125,
      "Ñ": 126,
      "Ó": 127,
      "Ô": 128,
      "Õ": 129,
      "Ö": 130,
      "×": 131,
      "Ø": 132,
      "Ù": 133,
      "Ú": 134,
      "Û": 135,
      "Ü": 136,
      "Ý": 137,
      "Þ": 138,
      "ß": 139,
      "à": 140,
      "á": 141,
      "â": 142,
      "ã": 143,
      "ä": 144,
      "å": 145,
      "æ": 146,
      "ç": 147,
      "è": 148,
      "é": 149,
      "ê": 150,
      "ë": 151,
      "ì": 152,
      "í": 153,
      "î": 154,
      "ï": 155,
      "ð": 156,
      "ñ": 157,
      "ò": 158,
      "ó": 159,
      "ô": 160,
      "õ": 161,
      "ö": 162,
      "÷": 163,
      "ø": 164,
      "ù": 165,
      "ú": 166,
      "û": 167,
      "ü": 168,
      "ý": 169,
      "þ": 170,
      "ÿ": 171,
      "Ā": 172,
      "ā": 173,
      "ć": 174,
      "ĉ": 175,
      "Č": 176,
      "č": 177,
      "ē": 178,
      "ę": 179,
      "ě": 180,
      "Ğ": 181,
      "ğ": 182,
      "Ġ": 183,
      "ġ": 184,
      "ħ": 185,
      "ī": 186,
      "İ": 187,
      "ı": 188,
      "ł": 189,
      "ń": 190,
      "ň": 191,
      "ō": 192,
      "Œ": 193,
      "œ": 194,
      "ř": 195,
      "Ş": 196,
      "ş": 197,
      "Š": 198,
      "š": 199,
      "ť": 200,
      "ū": 201,
      "ŭ": 202,
      "Ÿ": 203,
      "Ż": 204,
      "Ž": 205,
      "ž": 206,
      "ƅ": 207,
      "Ɛ": 208,
      "ƒ": 209,
      "ư": 210,
      "ǎ": 211,
      "Ǐ": 212,
      "ǒ": 213,
      "ǔ": 214,
      "ǘ": 215,
      "Ǜ": 216,
      "ǝ": 217,
      "ș": 218,
      "ɔ": 219,
      "ə": 220,
      "ɛ": 221,
      "ɹ": 222,
      "ɻ": 223,
      "ɽ": 224,
      "ɾ": 225,
      "ʀ": 226,
      "ʁ": 227,
      "ʌ": 228,
      "ʔ": 229,
      "ʕ": 230,
      "ʺ": 231,
      "ʻ": 232,
      "ʼ": 233,
      "ʽ": 234,
      "ʾ": 235,
      "ʿ": 236,
      "˂": 237,
      "˃": 238,
      "˅": 239,
      "ˆ": 240,
      "ˈ": 241,
      "́": 242,
      "̂": 243,
      "̃": 244,
      "̄": 245,
      "̇": 246,
      "̈": 247,
      "̊": 248,
      "̋": 249,
      "̎": 250,
      "̔": 251,
      "̕": 252,
      "̣": 253,
      "̧": 254,
      "̷": 255,
      "Α": 256,
      "Δ": 257,
      "Ε": 258,
      "Η": 259,
      "Ι": 260,
      "Κ": 261,
      "Μ": 262,
      "Π": 263,
      "Τ": 264,
      "Υ": 265,
      "Φ": 266,
      "Ω": 267,
      "ά": 268,
      "έ": 269,
      "ή": 270,
      "ί": 271,
      "α": 272,
      "β": 273,
      "γ": 274,
      "δ": 275,
      "ε": 276,
      "ζ": 277,
      "η": 278,
      "θ": 279,
      "ι": 280,
      "κ": 281,
      "λ": 282,
      "μ": 283,
      "ν": 284,
      "ξ": 285,
      "ο": 286,
      "π": 287,
      "ρ": 288,
      "ς": 289,
      "σ": 290,
      "τ": 291,
      "υ": 292,
      "φ": 293,
      "χ": 294,
      "ψ": 295,
      "ω": 296,
      "ό": 297,
      "ύ": 298,
      "ώ": 299,
      "Ѕ": 300,
      "А": 301,
      "Б": 302,
      "В": 303,
      "Г": 304,
      "Д": 305,
      "Е": 306,
      "З": 307,
      "И": 308,
      "К": 309,
      "Л": 310,
      "М": 311,
      "Н": 312,
      "О": 313,
      "П": 314,
      "Р": 315,
      "С": 316,
      "Т": 317,
      "У": 318,
      "Ф": 319,
      "Х": 320,
      "Ш": 321,
      "а": 322,
      "б": 323,
      "в": 324,
      "г": 325,
      "д": 326,
      "е": 327,
      "з": 328,
      "и": 329,
      "й": 330,
      "к": 331,
      "л": 332,
      "м": 333,
      "н": 334,
      "о": 335,
      "п": 336,
      "р": 337,
      "с": 338,
      "т": 339,
      "у": 340,
      "ф": 341,
      "х": 342,
      "ц": 343,
      "ч": 344,
      "ш": 345,
      "щ": 346,
      "ъ": 347,
      "ы": 348,
      "ь": 349,
      "э": 350,
      "ю": 351,
      "я": 352,
      "ё": 353,
      "ѕ": 354,
      "і": 355,
      "ј": 356,
      "ѣ": 357,
      "҆": 358,
      "҉": 359,
      "ү": 360,
      "Ԍ": 361,
      "ԝ": 362,
      "Փ": 363,
      "ա": 364,
      "բ": 365,
      "ե": 366,
      "է": 367,
      "ը": 368,
      "լ": 369,
      "խ": 370,
      "ո": 371,
      "պ": 372,
      "ռ": 373,
      "֑": 374,
      "֗": 375,
      "֣": 376,
      "ְ": 377,
      "ֱ": 378,
      "ֲ": 379,
      "ֳ": 380,
      "ִ": 381,
      "ֵ": 382,
      "ֶ": 383,
      "ַ": 384,
      "ָ": 385,
      "ֹ": 386,
      "ֻ": 387,
      "ּ": 388,
      "ׁ": 389,
      "ׂ": 390,
      "א": 391,
      "ב": 392,
      "ג": 393,
      "ד": 394,
      "ה": 395,
      "ו": 396,
      "ז": 397,
      "ח": 398,
      "ט": 399,
      "י": 400,
      "כ": 401,
      "ל": 402,
      "ם": 403,
      "מ": 404,
      "ן": 405,
      "נ": 406,
      "ס": 407,
      "ע": 408,
      "ף": 409,
      "פ": 410,
      "צ": 411,
      "ק": 412,
      "ר": 413,
      "ש": 414,
      "ת": 415,
      "،": 416,
      "؟": 417,
      "ء": 418,
      "آ": 419,
      "أ": 420,
      "ؤ": 421,
      "إ": 422,
      "ئ": 423,
      "ا": 424,
      "ب": 425,
      "ة": 426,
      "ت": 427,
      "ج": 428,
      "ح": 429,
      "خ": 430,
      "د": 431,
      "ذ": 432,
      "ر": 433,
      "ز": 434,
      "س": 435,
      "ش": 436,
      "ص": 437,
      "ض": 438,
      "ط": 439,
      "ظ": 440,
      "ع": 441,
      "غ": 442,
      "ف": 443,
      "ق": 444,
      "ك": 445,
      "ل": 446,
      "م": 447,
      "ن": 448,
      "ه": 449,
      "و": 450,
      "ى": 451,
      "ي": 452,
      "ً": 453,
      "ٌ": 454,
      "ٍ": 455,
      "َ": 456,
      "ُ": 457,
      "ِ": 458,
      "ّ": 459,
      "ْ": 460,
      "٤": 461,
      "ٰ": 462,
      "پ": 463,
      "ڑ": 464,
      "ک": 465,
      "گ": 466,
      "ۆ": 467,
      "ی": 468,
      "ے": 469,
      "۞": 470,
      "۩": 471,
      "ܐ": 472,
      "ܒ": 473,
      "ܘ": 474,
      "ܛ": 475,
      "ܣ": 476,
      "ܦ": 477,
      "ܪ": 478,
      "ܬ": 479,
      "ߴ": 480,
      "߹": 481,
      "ं": 482,
      "ः": 483,
      "अ": 484,
      "आ": 485,
      "क": 486,
      "ख": 487,
      "ग": 488,
      "च": 489,
      "ज": 490,
      "ड": 491,
      "ण": 492,
      "त": 493,
      "द": 494,
      "न": 495,
      "प": 496,
      "फ": 497,
      "ब": 498,
      "भ": 499,
      "म": 500,
      "य": 501,
      "र": 502,
      "ल": 503,
      "ळ": 504,
      "व": 505,
      "श": 506,
      "स": 507,
      "ह": 508,
      "़": 509,
      "ा": 510,
      "ि": 511,
      "ी": 512,
      "ु": 513,
      "े": 514,
      "ै": 515,
      "ो": 516,
      "ौ": 517,
      "्": 518,
      "ం": 519,
      "క": 520,
      "చ": 521,
      "డ": 522,
      "త": 523,
      "న": 524,
      "ప": 525,
      "మ": 526,
      "య": 527,
      "ర": 528,
      "ల": 529,
      "స": 530,
      "ి": 531,
      "ీ": 532,
      "ు": 533,
      "ై": 534,
      "్": 535,
      "ಕ": 536,
      "ಡ": 537,
      "ನ": 538,
      "್": 539,
      "ം": 540,
      "മ": 541,
      "യ": 542,
      "ല": 543,
      "ള": 544,
      "ാ": 545,
      "ก": 546,
      "ง": 547,
      "ต": 548,
      "บ": 549,
      "พ": 550,
      "ฟ": 551,
      "ม": 552,
      "ย": 553,
      "ร": 554,
      "ล": 555,
      "ส": 556,
      "ห": 557,
      "อ": 558,
      "ั": 559,
      "า": 560,
      "ิ": 561,
      "ี": 562,
      "เ": 563,
      "โ": 564,
      "่": 565,
      "๑": 566,
      "စ": 567,
      "ဆ": 568,
      "ဒ": 569,
      "ပ": 570,
      "ာ": 571,
      "ိ": 572,
      "ီ": 573,
      "ု": 574,
      "း": 575,
      "်": 576,
      "၊": 577,
      "ვ": 578,
      "თ": 579,
      "ი": 580,
      "ნ": 581,
      "ს": 582,
      "ღ": 583,
      "წ": 584,
      "ሀ": 585,
      "ሁ": 586,
      "ሂ": 587,
      "ሃ": 588,
      "ሄ": 589,
      "ህ": 590,
      "ሆ": 591,
      "ሇ": 592,
      "ለ": 593,
      "ሉ": 594,
      "ሊ": 595,
      "ላ": 596,
      "ሌ": 597,
      "ል": 598,
      "ሎ": 599,
      "ሏ": 600,
      "ሐ": 601,
      "ሑ": 602,
      "ሒ": 603,
      "ሓ": 604,
      "ሔ": 605,
      "ሕ": 606,
      "ሖ": 607,
      "ሗ": 608,
      "መ": 609,
      "ሙ": 610,
      "ሚ": 611,
      "ማ": 612,
      "ሜ": 613,
      "ም": 614,
      "ሞ": 615,
      "ሟ": 616,
      "ሠ": 617,
      "ሡ": 618,
      "ሢ": 619,
      "ሣ": 620,
      "ሤ": 621,
      "ሥ": 622,
      "ሦ": 623,
      "ሧ": 624,
      "ረ": 625,
      "ሩ": 626,
      "ሪ": 627,
      "ራ": 628,
      "ሬ": 629,
      "ር": 630,
      "ሮ": 631,
      "ሯ": 632,
      "ሰ": 633,
      "ሱ": 634,
      "ሲ": 635,
      "ሳ": 636,
      "ሴ": 637,
      "ስ": 638,
      "ሶ": 639,
      "ሷ": 640,
      "ሸ": 641,
      "ሹ": 642,
      "ሺ": 643,
      "ሻ": 644,
      "ሼ": 645,
      "ሽ": 646,
      "ሾ": 647,
      "ሿ": 648,
      "ቀ": 649,
      "ቁ": 650,
      "ቂ": 651,
      "ቃ": 652,
      "ቄ": 653,
      "ቅ": 654,
      "ቆ": 655,
      "ቇ": 656,
      "ቈ": 657,
      "ቊ": 658,
      "ቋ": 659,
      "ቌ": 660,
      "ቍ": 661,
      "ቐ": 662,
      "ቑ": 663,
      "ቒ": 664,
      "ቓ": 665,
      "ቔ": 666,
      "ቕ": 667,
      "ቖ": 668,
      "ቘ": 669,
      "ቚ": 670,
      "ቛ": 671,
      "ቜ": 672,
      "ቝ": 673,
      "በ": 674,
      "ቡ": 675,
      "ቢ": 676,
      "ባ": 677,
      "ቤ": 678,
      "ብ": 679,
      "ቦ": 680,
      "ቧ": 681,
      "ቨ": 682,
      "ቩ": 683,
      "ቪ": 684,
      "ቫ": 685,
      "ቬ": 686,
      "ቭ": 687,
      "ቮ": 688,
      "ቯ": 689,
      "ተ": 690,
      "ቱ": 691,
      "ቲ": 692,
      "ታ": 693,
      "ቴ": 694,
      "ት": 695,
      "ቶ": 696,
      "ቷ": 697,
      "ቸ": 698,
      "ቹ": 699,
      "ቺ": 700,
      "ቻ": 701,
      "ቼ": 702,
      "ች": 703,
      "ቾ": 704,
      "ቿ": 705,
      "ኀ": 706,
      "ኁ": 707,
      "ኂ": 708,
      "ኃ": 709,
      "ኄ": 710,
      "ኅ": 711,
      "ኆ": 712,
      "ኇ": 713,
      "ኈ": 714,
      "ኊ": 715,
      "ኋ": 716,
      "ኌ": 717,
      "ኍ": 718,
      "ነ": 719,
      "ኑ": 720,
      "ኒ": 721,
      "ና": 722,
      "ኔ": 723,
      "ን": 724,
      "ኖ": 725,
      "ኗ": 726,
      "ኘ": 727,
      "ኙ": 728,
      "ኚ": 729,
      "ኛ": 730,
      "ኜ": 731,
      "ኝ": 732,
      "ኞ": 733,
      "ኟ": 734,
      "አ": 735,
      "ኡ": 736,
      "ኢ": 737,
      "ኣ": 738,
      "ኤ": 739,
      "እ": 740,
      "ኦ": 741,
      "ኧ": 742,
      "ከ": 743,
      "ኩ": 744,
      "ኪ": 745,
      "ካ": 746,
      "ኬ": 747,
      "ክ": 748,
      "ኮ": 749,
      "ኯ": 750,
      "ኰ": 751,
      "ኲ": 752,
      "ኳ": 753,
      "ኴ": 754,
      "ኵ": 755,
      "ኸ": 756,
      "ኹ": 757,
      "ኺ": 758,
      "ኻ": 759,
      "ኼ": 760,
      "ኽ": 761,
      "ኾ": 762,
      "ዀ": 763,
      "ዂ": 764,
      "ዃ": 765,
      "ዄ": 766,
      "ዅ": 767,
      "ወ": 768,
      "ዉ": 769,
      "ዊ": 770,
      "ዋ": 771,
      "ዌ": 772,
      "ው": 773,
      "ዎ": 774,
      "ዏ": 775,
      "ዐ": 776,
      "ዑ": 777,
      "ዒ": 778,
      "ዓ": 779,
      "ዔ": 780,
      "ዕ": 781,
      "ዖ": 782,
      "ዘ": 783,
      "ዙ": 784,
      "ዚ": 785,
      "ዛ": 786,
      "ዜ": 787,
      "ዝ": 788,
      "ዞ": 789,
      "ዟ": 790,
      "ዠ": 791,
      "ዡ": 792,
      "ዢ": 793,
      "ዣ": 794,
      "ዤ": 795,
      "ዥ": 796,
      "ዦ": 797,
      "ዧ": 798,
      "የ": 799,
      "ዩ": 800,
      "ዪ": 801,
      "ያ": 802,
      "ዬ": 803,
      "ይ": 804,
      "ዮ": 805,
      "ዯ": 806,
      "ደ": 807,
      "ዱ": 808,
      "ዲ": 809,
      "ዳ": 810,
      "ዴ": 811,
      "ድ": 812,
      "ዶ": 813,
      "ዷ": 814,
      "ዸ": 815,
      "ዹ": 816,
      "ዺ": 817,
      "ዻ": 818,
      "ዼ": 819,
      "ዽ": 820,
      "ዾ": 821,
      "ዿ": 822,
      "ጀ": 823,
      "ጁ": 824,
      "ጂ": 825,
      "ጃ": 826,
      "ጄ": 827,
      "ጅ": 828,
      "ጆ": 829,
      "ጇ": 830,
      "ገ": 831,
      "ጉ": 832,
      "ጊ": 833,
      "ጋ": 834,
      "ጌ": 835,
      "ግ": 836,
      "ጎ": 837,
      "ጏ": 838,
      "ጐ": 839,
      "ጒ": 840,
      "ጓ": 841,
      "ጔ": 842,
      "ጕ": 843,
      "ጘ": 844,
      "ጙ": 845,
      "ጚ": 846,
      "ጛ": 847,
      "ጜ": 848,
      "ጝ": 849,
      "ጞ": 850,
      "ጟ": 851,
      "ጠ": 852,
      "ጡ": 853,
      "ጢ": 854,
      "ጣ": 855,
      "ጤ": 856,
      "ጥ": 857,
      "ጦ": 858,
      "ጧ": 859,
      "ጨ": 860,
      "ጩ": 861,
      "ጪ": 862,
      "ጫ": 863,
      "ጬ": 864,
      "ጭ": 865,
      "ጮ": 866,
      "ጯ": 867,
      "ጰ": 868,
      "ጱ": 869,
      "ጲ": 870,
      "ጳ": 871,
      "ጴ": 872,
      "ጵ": 873,
      "ጶ": 874,
      "ጷ": 875,
      "ጸ": 876,
      "ጹ": 877,
      "ጺ": 878,
      "ጻ": 879,
      "ጼ": 880,
      "ጽ": 881,
      "ጾ": 882,
      "ጿ": 883,
      "ፀ": 884,
      "ፁ": 885,
      "ፂ": 886,
      "ፃ": 887,
      "ፄ": 888,
      "ፅ": 889,
      "ፆ": 890,
      "ፇ": 891,
      "ፈ": 892,
      "ፉ": 893,
      "ፊ": 894,
      "ፋ": 895,
      "ፌ": 896,
      "ፍ": 897,
      "ፎ": 898,
      "ፏ": 899,
      "ፐ": 900,
      "ፑ": 901,
      "ፒ": 902,
      "ፓ": 903,
      "ፔ": 904,
      "ፕ": 905,
      "ፖ": 906,
      "ፗ": 907,
      "ፘ": 908,
      "ፙ": 909,
      "ፚ": 910,
      "፞": 911,
      "፟": 912,
      "፠": 913,
      "፡": 914,
      "።": 915,
      "፣": 916,
      "፤": 917,
      "፥": 918,
      "፦": 919,
      "፧": 920,
      "፨": 921,
      "፩": 922,
      "፪": 923,
      "፫": 924,
      "፬": 925,
      "፭": 926,
      "፮": 927,
      "፯": 928,
      "፰": 929,
      "፱": 930,
      "፲": 931,
      "፳": 932,
      "፴": 933,
      "፵": 934,
      "፶": 935,
      "፷": 936,
      "፸": 937,
      "፹": 938,
      "፺": 939,
      "፻": 940,
      "፼": 941,
      "ᎁ": 942,
      "ᎄ": 943,
      "ᎅ": 944,
      "ᎉ": 945,
      "ᎋ": 946,
      "ᎌ": 947,
      "ᎏ": 948,
      "᎐": 949,
      "᎒": 950,
      "᎓": 951,
      "᎖": 952,
      "᎘": 953,
      "᐀": 954,
      "ដ": 955,
      "ត": 956,
      "ប": 957,
      "អ": 958,
      "ា": 959,
      "ិ": 960,
      "៊": 961,
      "្": 962,
      "ᤰ": 963,
      "ᥙ": 964,
      "᧐": 965,
      "ḥ": 966,
      "ḧ": 967,
      "ḱ": 968,
      "ṇ": 969,
      "ầ": 970,
      "ễ": 971,
      "ọ": 972,
      "ớ": 973,
      "ἑ": 974,
      "ἕ": 975,
      "Ἐ": 976,
      "ὰ": 977,
      "ῴ": 978,
      "ῶ": 979,
      "‐": 980,
      "―": 981,
      "‖": 982,
      "‛": 983,
      "‟": 984,
      "†": 985,
      "‡": 986,
      "•": 987,
      " ": 988,
      "‰": 989,
      "′": 990,
      "‹": 991,
      "›": 992,
      "※": 993,
      "⁄": 994,
      "₩": 995,
      "€": 996,
      "₸": 997,
      "₹": 998,
      "₿": 999,
      "⃣": 1000,
      "℗": 1001,
      "←": 1002,
      "↑": 1003,
      "→": 1004,
      "↓": 1005,
      "↔": 1006,
      "↩": 1007,
      "↪": 1008,
      "⇐": 1009,
      "⇒": 1010,
      "⇢": 1011,
      "⇨": 1012,
      "−": 1013,
      "∕": 1014,
      "∙": 1015,
      "√": 1016,
      "∞": 1017,
      "∶": 1018,
      "∷": 1019,
      "≅": 1020,
      "≈": 1021,
      "≔": 1022,
      "≠": 1023,
      "≡": 1024,
      "≤": 1025,
      "≥": 1026,
      "≦": 1027,
      "⊖": 1028,
      "⋅": 1029,
      "⋆": 1030,
      "⋮": 1031,
      "─": 1032,
      "│": 1033,
      "═": 1034,
      "╔": 1035,
      "▁": 1036,
      "■": 1037,
      "□": 1038,
      "▢": 1039,
      "▪": 1040,
      "▫": 1041,
      "▲": 1042,
      "▶": 1043,
      "▷": 1044,
      "▸": 1045,
      "►": 1046,
      "▼": 1047,
      "▽": 1048,
      "◄": 1049,
      "◅": 1050,
      "◆": 1051,
      "◇": 1052,
      "◈": 1053,
      "◉": 1054,
      "◊": 1055,
      "○": 1056,
      "◌": 1057,
      "◎": 1058,
      "●": 1059,
      "◦": 1060,
      "◼": 1061,
      "☀": 1062,
      "☂": 1063,
      "★": 1064,
      "☆": 1065,
      "☈": 1066,
      "☕": 1067,
      "☘": 1068,
      "☛": 1069,
      "☝": 1070,
      "☞": 1071,
      "☠": 1072,
      "☯": 1073,
      "☹": 1074,
      "☺": 1075,
      "☻": 1076,
      "♀": 1077,
      "♂": 1078,
      "♈": 1079,
      "♊": 1080,
      "♋": 1081,
      "♌": 1082,
      "♎": 1083,
      "♏": 1084,
      "♐": 1085,
      "♔": 1086,
      "♚": 1087,
      "♛": 1088,
      "♡": 1089,
      "♣": 1090,
      "♥": 1091,
      "♦": 1092,
      "♨": 1093,
      "♩": 1094,
      "♪": 1095,
      "♫": 1096,
      "♬": 1097,
      "♭": 1098,
      "♻": 1099,
      "⚀": 1100,
      "⚂": 1101,
      "⚜": 1102,
      "⚠": 1103,
      "⚪": 1104,
      "⚽": 1105,
      "⛔": 1106,
      "⛰": 1107,
      "⛱": 1108,
      "✅": 1109,
      "✈": 1110,
      "✊": 1111,
      "✋": 1112,
      "✌": 1113,
      "✍": 1114,
      "✎": 1115,
      "✒": 1116,
      "✓": 1117,
      "✔": 1118,
      "✖": 1119,
      "✗": 1120,
      "✘": 1121,
      "✝": 1122,
      "✞": 1123,
      "✟": 1124,
      "✡": 1125,
      "✥": 1126,
      "✦": 1127,
      "✨": 1128,
      "✪": 1129,
      "✿": 1130,
      "❀": 1131,
      "❐": 1132,
      "❑": 1133,
      "❖": 1134,
      "❗": 1135,
      "❝": 1136,
      "❞": 1137,
      "❤": 1138,
      "❥": 1139,
      "❷": 1140,
      "❸": 1141,
      "❾": 1142,
      "➐": 1143,
      "➔": 1144,
      "➖": 1145,
      "➜": 1146,
      "➠": 1147,
      "➡": 1148,
      "➢": 1149,
      "➣": 1150,
      "➤": 1151,
      "➳": 1152,
      "➺": 1153,
      "➿": 1154,
      "⟶": 1155,
      "⦁": 1156,
      "⧊": 1157,
      "⭐": 1158,
      "⭕": 1159,
      "⮚": 1160,
      "Ⲩ": 1161,
      "ⵗ": 1162,
      "ⶀ": 1163,
      "ⶁ": 1164,
      "ⶂ": 1165,
      "ⶅ": 1166,
      "ⶆ": 1167,
      "ⶉ": 1168,
      "ⶊ": 1169,
      "ⶋ": 1170,
      "ⶖ": 1171,
      "ⶴ": 1172,
      "ⷅ": 1173,
      "ⷍ": 1174,
      "ⷕ": 1175,
      "ⷘ": 1176,
      "、": 1177,
      "。": 1178,
      "〇": 1179,
      "〉": 1180,
      "《": 1181,
      "》": 1182,
      "「": 1183,
      "」": 1184,
      "【": 1185,
      "】": 1186,
      "あ": 1187,
      "い": 1188,
      "う": 1189,
      "お": 1190,
      "か": 1191,
      "き": 1192,
      "く": 1193,
      "こ": 1194,
      "さ": 1195,
      "し": 1196,
      "す": 1197,
      "た": 1198,
      "だ": 1199,
      "ち": 1200,
      "っ": 1201,
      "て": 1202,
      "で": 1203,
      "と": 1204,
      "ど": 1205,
      "な": 1206,
      "に": 1207,
      "の": 1208,
      "は": 1209,
      "べ": 1210,
      "ま": 1211,
      "む": 1212,
      "ゃ": 1213,
      "や": 1214,
      "ょ": 1215,
      "よ": 1216,
      "ら": 1217,
      "り": 1218,
      "る": 1219,
      "れ": 1220,
      "ろ": 1221,
      "を": 1222,
      "ん": 1223,
      "ア": 1224,
      "ィ": 1225,
      "イ": 1226,
      "エ": 1227,
      "オ": 1228,
      "カ": 1229,
      "ガ": 1230,
      "グ": 1231,
      "ケ": 1232,
      "ザ": 1233,
      "ス": 1234,
      "タ": 1235,
      "ダ": 1236,
      "ッ": 1237,
      "テ": 1238,
      "デ": 1239,
      "ト": 1240,
      "ナ": 1241,
      "ハ": 1242,
      "バ": 1243,
      "パ": 1244,
      "ビ": 1245,
      "ホ": 1246,
      "ボ": 1247,
      "マ": 1248,
      "ム": 1249,
      "ラ": 1250,
      "ル": 1251,
      "ロ": 1252,
      "ワ": 1253,
      "ン": 1254,
      "・": 1255,
      "ー": 1256,
      "一": 1257,
      "三": 1258,
      "下": 1259,
      "不": 1260,
      "丘": 1261,
      "丨": 1262,
      "中": 1263,
      "义": 1264,
      "也": 1265,
      "了": 1266,
      "京": 1267,
      "人": 1268,
      "什": 1269,
      "仕": 1270,
      "他": 1271,
      "以": 1272,
      "们": 1273,
      "件": 1274,
      "住": 1275,
      "体": 1276,
      "作": 1277,
      "你": 1278,
      "供": 1279,
      "俩": 1280,
      "修": 1281,
      "個": 1282,
      "做": 1283,
      "停": 1284,
      "僕": 1285,
      "公": 1286,
      "共": 1287,
      "分": 1288,
      "制": 1289,
      "前": 1290,
      "加": 1291,
      "午": 1292,
      "単": 1293,
      "厦": 1294,
      "去": 1295,
      "发": 1296,
      "司": 1297,
      "吗": 1298,
      "和": 1299,
      "品": 1300,
      "哈": 1301,
      "哪": 1302,
      "商": 1303,
      "嘅": 1304,
      "器": 1305,
      "回": 1306,
      "国": 1307,
      "國": 1308,
      "在": 1309,
      "场": 1310,
      "增": 1311,
      "士": 1312,
      "夏": 1313,
      "大": 1314,
      "天": 1315,
      "夫": 1316,
      "女": 1317,
      "她": 1318,
      "好": 1319,
      "姆": 1320,
      "娘": 1321,
      "子": 1322,
      "安": 1323,
      "察": 1324,
      "小": 1325,
      "局": 1326,
      "州": 1327,
      "工": 1328,
      "市": 1329,
      "带": 1330,
      "幫": 1331,
      "幽": 1332,
      "店": 1333,
      "度": 1334,
      "录": 1335,
      "彙": 1336,
      "彼": 1337,
      "往": 1338,
      "待": 1339,
      "後": 1340,
      "御": 1341,
      "思": 1342,
      "您": 1343,
      "想": 1344,
      "意": 1345,
      "憑": 1346,
      "我": 1347,
      "抦": 1348,
      "拉": 1349,
      "招": 1350,
      "接": 1351,
      "改": 1352,
      "放": 1353,
      "散": 1354,
      "文": 1355,
      "料": 1356,
      "新": 1357,
      "方": 1358,
      "於": 1359,
      "日": 1360,
      "旧": 1361,
      "时": 1362,
      "昨": 1363,
      "晋": 1364,
      "暇": 1365,
      "最": 1366,
      "有": 1367,
      "机": 1368,
      "束": 1369,
      "来": 1370,
      "杯": 1371,
      "東": 1372,
      "果": 1373,
      "校": 1374,
      "條": 1375,
      "機": 1376,
      "欢": 1377,
      "步": 1378,
      "民": 1379,
      "水": 1380,
      "法": 1381,
      "注": 1382,
      "洗": 1383,
      "活": 1384,
      "港": 1385,
      "澳": 1386,
      "為": 1387,
      "熊": 1388,
      "熱": 1389,
      "狐": 1390,
      "猫": 1391,
      "生": 1392,
      "用": 1393,
      "田": 1394,
      "発": 1395,
      "發": 1396,
      "白": 1397,
      "的": 1398,
      "皿": 1399,
      "私": 1400,
      "等": 1401,
      "结": 1402,
      "给": 1403,
      "考": 1404,
      "者": 1405,
      "育": 1406,
      "胖": 1407,
      "能": 1408,
      "至": 1409,
      "華": 1410,
      "表": 1411,
      "製": 1412,
      "西": 1413,
      "要": 1414,
      "視": 1415,
      "言": 1416,
      "評": 1417,
      "詞": 1418,
      "誕": 1419,
      "語": 1420,
      "誰": 1421,
      "論": 1422,
      "警": 1423,
      "语": 1424,
      "请": 1425,
      "谢": 1426,
      "谷": 1427,
      "車": 1428,
      "迎": 1429,
      "近": 1430,
      "还": 1431,
      "这": 1432,
      "追": 1433,
      "連": 1434,
      "達": 1435,
      "選": 1436,
      "那": 1437,
      "酒": 1438,
      "里": 1439,
      "錄": 1440,
      "録": 1441,
      "鐘": 1442,
      "链": 1443,
      "門": 1444,
      "闲": 1445,
      "阿": 1446,
      "限": 1447,
      "隨": 1448,
      "雨": 1449,
      "音": 1450,
      "頻": 1451,
      "題": 1452,
      "饮": 1453,
      "香": 1454,
      "高": 1455,
      "ꗺ": 1456,
      "ꬁ": 1457,
      "ꬂ": 1458,
      "ꬃ": 1459,
      "ꬄ": 1460,
      "ꬅ": 1461,
      "ꬆ": 1462,
      "ꬉ": 1463,
      "ꬊ": 1464,
      "ꬋ": 1465,
      "ꬌ": 1466,
      "ꬎ": 1467,
      "ꬑ": 1468,
      "ꬓ": 1469,
      "가": 1470,
      "갑": 1471,
      "강": 1472,
      "건": 1473,
      "것": 1474,
      "게": 1475,
      "겨": 1476,
      "결": 1477,
      "계": 1478,
      "고": 1479,
      "그": 1480,
      "꿈": 1481,
      "남": 1482,
      "낱": 1483,
      "녁": 1484,
      "년": 1485,
      "녕": 1486,
      "누": 1487,
      "니": 1488,
      "다": 1489,
      "더": 1490,
      "데": 1491,
      "동": 1492,
      "둑": 1493,
      "드": 1494,
      "들": 1495,
      "디": 1496,
      "또": 1497,
      "렇": 1498,
      "려": 1499,
      "로": 1500,
      "루": 1501,
      "를": 1502,
      "름": 1503,
      "리": 1504,
      "만": 1505,
      "말": 1506,
      "먹": 1507,
      "메": 1508,
      "멘": 1509,
      "못": 1510,
      "무": 1511,
      "뭐": 1512,
      "미": 1513,
      "바": 1514,
      "발": 1515,
      "보": 1516,
      "봇": 1517,
      "사": 1518,
      "삼": 1519,
      "서": 1520,
      "세": 1521,
      "송": 1522,
      "습": 1523,
      "시": 1524,
      "신": 1525,
      "싶": 1526,
      "아": 1527,
      "안": 1528,
      "어": 1529,
      "없": 1530,
      "었": 1531,
      "에": 1532,
      "요": 1533,
      "월": 1534,
      "위": 1535,
      "유": 1536,
      "으": 1537,
      "을": 1538,
      "음": 1539,
      "의": 1540,
      "이": 1541,
      "일": 1542,
      "읽": 1543,
      "저": 1544,
      "전": 1545,
      "제": 1546,
      "죄": 1547,
      "주": 1548,
      "지": 1549,
      "직": 1550,
      "진": 1551,
      "쩝": 1552,
      "책": 1553,
      "카": 1554,
      "케": 1555,
      "코": 1556,
      "키": 1557,
      "테": 1558,
      "텔": 1559,
      "토": 1560,
      "트": 1561,
      "팔": 1562,
      "팠": 1563,
      "하": 1564,
      "할": 1565,
      "함": 1566,
      "해": 1567,
      "했": 1568,
      "향": 1569,
      "호": 1570,
      "혼": 1571,
      "휴": 1572,
      "히": 1573,
      "﷽": 1574,
      "︎": 1575,
      "️": 1576,
      "￼": 1577,
      "�": 1578,
      "𐌌": 1579,
      "𓁹": 1580,
      "🇦": 1581,
      "🇧": 1582,
      "🇨": 1583,
      "🇪": 1584,
      "🇬": 1585,
      "🇭": 1586,
      "🇱": 1587,
      "🇲": 1588,
      "🇳": 1589,
      "🇴": 1590,
      "🇵": 1591,
      "🇷": 1592,
      "🇸": 1593,
      "🇹": 1594,
      "🇺": 1595,
      "🇻": 1596,
      "🇼": 1597,
      "🇽": 1598,
      "🇿": 1599,
      "🌀": 1600,
      "🌅": 1601,
      "🌉": 1602,
      "🌏": 1603,
      "🌑": 1604,
      "🌕": 1605,
      "🌞": 1606,
      "🌟": 1607,
      "🌤": 1608,
      "🌳": 1609,
      "🌷": 1610,
      "🌹": 1611,
      "🌼": 1612,
      "🌽": 1613,
      "🌿": 1614,
      "🍀": 1615,
      "🍄": 1616,
      "🍅": 1617,
      "🍌": 1618,
      "🍵": 1619,
      "🎅": 1620,
      "🎋": 1621,
      "🎍": 1622,
      "🎤": 1623,
      "🎵": 1624,
      "🎸": 1625,
      "🏆": 1626,
      "🏝": 1627,
      "🏫": 1628,
      "🏺": 1629,
      "🏻": 1630,
      "🏼": 1631,
      "🏽": 1632,
      "🏾": 1633,
      "🏿": 1634,
      "🐅": 1635,
      "🐐": 1636,
      "🐕": 1637,
      "🐜": 1638,
      "👀": 1639,
      "👁": 1640,
      "👇": 1641,
      "👈": 1642,
      "👉": 1643,
      "👊": 1644,
      "👋": 1645,
      "👌": 1646,
      "👍": 1647,
      "👎": 1648,
      "👏": 1649,
      "👑": 1650,
      "👦": 1651,
      "👬": 1652,
      "👱": 1653,
      "👳": 1654,
      "👹": 1655,
      "👻": 1656,
      "👿": 1657,
      "💃": 1658,
      "💋": 1659,
      "💌": 1660,
      "💎": 1661,
      "💐": 1662,
      "💓": 1663,
      "💔": 1664,
      "💕": 1665,
      "💖": 1666,
      "💗": 1667,
      "💘": 1668,
      "💙": 1669,
      "💚": 1670,
      "💛": 1671,
      "💜": 1672,
      "💝": 1673,
      "💞": 1674,
      "💟": 1675,
      "💢": 1676,
      "💥": 1677,
      "💪": 1678,
      "💫": 1679,
      "💭": 1680,
      "💯": 1681,
      "💰": 1682,
      "💸": 1683,
      "💽": 1684,
      "📆": 1685,
      "📌": 1686,
      "📍": 1687,
      "📒": 1688,
      "📖": 1689,
      "📚": 1690,
      "📜": 1691,
      "📡": 1692,
      "📣": 1693,
      "📮": 1694,
      "📲": 1695,
      "📶": 1696,
      "📷": 1697,
      "📻": 1698,
      "🔊": 1699,
      "🔑": 1700,
      "🔔": 1701,
      "🔗": 1702,
      "🔙": 1703,
      "🔞": 1704,
      "🔤": 1705,
      "🔥": 1706,
      "🔯": 1707,
      "🔰": 1708,
      "🔴": 1709,
      "🔵": 1710,
      "🔶": 1711,
      "🔷": 1712,
      "🔻": 1713,
      "🕊": 1714,
      "🕖": 1715,
      "🕳": 1716,
      "🕴": 1717,
      "😀": 1718,
      "😁": 1719,
      "😂": 1720,
      "😃": 1721,
      "😄": 1722,
      "😅": 1723,
      "😆": 1724,
      "😇": 1725,
      "😈": 1726,
      "😉": 1727,
      "😊": 1728,
      "😋": 1729,
      "😍": 1730,
      "😎": 1731,
      "😏": 1732,
      "😐": 1733,
      "😒": 1734,
      "😔": 1735,
      "😕": 1736,
      "😖": 1737,
      "😘": 1738,
      "😚": 1739,
      "😛": 1740,
      "😜": 1741,
      "😝": 1742,
      "😞": 1743,
      "😠": 1744,
      "😡": 1745,
      "😢": 1746,
      "😥": 1747,
      "😩": 1748,
      "😪": 1749,
      "😫": 1750,
      "😭": 1751,
      "😮": 1752,
      "😰": 1753,
      "😱": 1754,
      "😲": 1755,
      "😳": 1756,
      "😵": 1757,
      "😷": 1758,
      "😹": 1759,
      "😻": 1760,
      "😼": 1761,
      "🙁": 1762,
      "🙂": 1763,
      "🙄": 1764,
      "🙆": 1765,
      "🙈": 1766,
      "🙉": 1767,
      "🙋": 1768,
      "🙌": 1769,
      "🙏": 1770,
      "🚀": 1771,
      "🚇": 1772,
      "🚗": 1773,
      "🚦": 1774,
      "🚨": 1775,
      "🚩": 1776,
      "🚴": 1777,
      "🚵": 1778,
      "🛅": 1779,
      "🛑": 1780,
      "🤐": 1781,
      "🤓": 1782,
      "🤔": 1783,
      "🤗": 1784,
      "🤘": 1785,
      "🤙": 1786,
      "🤝": 1787,
      "🤞": 1788,
      "🤟": 1789,
      "🤣": 1790,
      "🤥": 1791,
      "🤦": 1792,
      "🤧": 1793,
      "🤨": 1794,
      "🤩": 1795,
      "🤪": 1796,
      "🤬": 1797,
      "🤭": 1798,
      "🤲": 1799,
      "🤴": 1800,
      "🤷": 1801,
      "🤸": 1802,
      "🥇": 1803,
      "🥒": 1804,
      "🥦": 1805,
      "🥰": 1806,
      "🥺": 1807,
      "🦋": 1808,
      "🧐": 1809,
      "🧑": 1810,
      "🧘": 1811,
      "🧚": 1812,
      "🧜": 1813,
      "🧸": 1814,
      "##ዝ": 1815,
      "##ሓ": 1816,
      "##ና": 1817,
      "##ዩ": 1818,
      "##ይ": 1819,
      "##ቻ": 1820,
      "##ላ": 1821,
      "##ል": 1822,
      "##\"": 1823,
      "##በ": 1824,
      "##ኩ": 1825,
      "##'": 1826,
      "##ኮ": 1827,
      "##ዘ": 1828,
      "##ታ": 1829,
      "##ን": 1830,
      "##ኣ": 1831,
      "##ም": 1832,
      "##ክ": 1833,
      "##?": 1834,
      "##ኦ": 1835,
      "##ነ": 1836,
      "##ብ": 1837,
      "##ዕ": 1838,
      "##ግ": 1839,
      "##ው": 1840,
      "##ሎ": 1841,
      "##ስ": 1842,
      "##ት": 1843,
      "##ፍ": 1844,
      "##ቐ": 1845,
      "##ኝ": 1846,
      "##መ": 1847,
      "##ረ": 1848,
      "##ጋ": 1849,
      "##ገ": 1850,
      "##ጺ": 1851,
      "##-": 1852,
      "##ሲ": 1853,
      "##ኔ": 1854,
      "##ሪ": 1855,
      "##ፈ": 1856,
      "##ር": 1857,
      "##ሱ": 1858,
      "##ተ": 1859,
      "##ባ": 1860,
      "##ዓ": 1861,
      "##4": 1862,
      "##8": 1863,
      "##ካ": 1864,
      "##የ": 1865,
      "##ህ": 1866,
      "##3": 1867,
      "##:": 1868,
      "##6": 1869,
      "##እ": 1870,
      "##ሕ": 1871,
      "##A": 1872,
      "##u": 1873,
      "##f": 1874,
      "##e": 1875,
      "##n": 1876,
      "##t": 1877,
      "##h": 1878,
      "##a": 1879,
      "##l": 1880,
      "##s": 1881,
      "##g": 1882,
      "##ለ": 1883,
      "##ቢ": 1884,
      "##ድ": 1885,
      "##ጻ": 1886,
      "##ዮ": 1887,
      "##ጸ": 1888,
      "##።": 1889,
      "##ሰ": 1890,
      "##ማ": 1891,
      "##ሉ": 1892,
      "##ጠ": 1893,
      "##ያ": 1894,
      "##ዳ": 1895,
      "##ጥ": 1896,
      "##ዚ": 1897,
      "##ዛ": 1898,
      "##ዎ": 1899,
      "##ች": 1900,
      "##ጨ": 1901,
      "##ዋ": 1902,
      "##አ": 1903,
      "##ጣ": 1904,
      "##ቸ": 1905,
      "##ወ": 1906,
      "##ደ": 1907,
      "##ሚ": 1908,
      "##ቀ": 1909,
      "##ኺ": 1910,
      "##ጭ": 1911,
      "##ቖ": 1912,
      "##M": 1913,
      "##r": 1914,
      "##k": 1915,
      "##ከ": 1916,
      "##፤": 1917,
      "##ፎ": 1918,
      "##ቶ": 1919,
      "##ሐ": 1920,
      "##፡": 1921,
      "##ፕ": 1922,
      "##ሌ": 1923,
      "##ጽ": 1924,
      "##ኹ": 1925,
      "##ኢ": 1926,
      "##c": 1927,
      "##ሳ": 1928,
      "##ቅ": 1929,
      "##o": 1930,
      "##ራ": 1931,
      "##ቤ": 1932,
      "##ኸ": 1933,
      "##ሏ": 1934,
      "##ኒ": 1935,
      "##ዙ": 1936,
      "##ዲ": 1937,
      "##ኤ": 1938,
      "##ጀ": 1939,
      "##ኡ": 1940,
      "##,": 1941,
      "##;": 1942,
      "##ዱ": 1943,
      "##ሽ": 1944,
      "##ሀ": 1945,
      "##ሜ": 1946,
      "##)": 1947,
      "##ፀ": 1948,
      "##ጦ": 1949,
      "##ጁ": 1950,
      "##ቹ": 1951,
      "##፣": 1952,
      "##K": 1953,
      "##(": 1954,
      "##ሠ": 1955,
      "##ሁ": 1956,
      "##0": 1957,
      "##7": 1958,
      "##ቃ": 1959,
      "##ኬ": 1960,
      "##ሻ": 1961,
      "##ፖ": 1962,
      "##ቲ": 1963,
      "##ፅ": 1964,
      "##ኑ": 1965,
      "##ፋ": 1966,
      "##ሞ": 1967,
      "##ሩ": 1968,
      "##ቕ": 1969,
      "##.": 1970,
      "##ኪ": 1971,
      "##ሃ": 1972,
      "##ኋ": 1973,
      "##ሊ": 1974,
      "##ጡ": 1975,
      "##ቓ": 1976,
      "##ኛ": 1977,
      "##ፉ": 1978,
      "##ሒ": 1979,
      "##ሸ": 1980,
      "##ዐ": 1981,
      "##ኽ": 1982,
      "##ፊ": 1983,
      "##ጲ": 1984,
      "##ጂ": 1985,
      "##m": 1986,
      "##ሙ": 1987,
      "##ቡ": 1988,
      "##ቴ": 1989,
      "##ጊ": 1990,
      "##ቱ": 1991,
      "##!": 1992,
      "##ቒ": 1993,
      "##ሮ": 1994,
      "##ቂ": 1995,
      "##ዜ": 1996,
      "##E": 1997,
      "##ኖ": 1998,
      "##ፂ": 1999,
      "##ቦ": 2000,
      "##ቑ": 2001,
      "##ዊ": 2002,
      "##ፆ": 2003,
      "##ኳ": 2004,
      "##ጎ": 2005,
      "##ዑ": 2006,
      "##H": 2007,
      "##I": 2008,
      "##F": 2009,
      "##=": 2010,
      "##2": 2011,
      "##/": 2012,
      "##1": 2013,
      "##ጅ": 2014,
      "##ቷ": 2015,
      "##ዒ": 2016,
      "##ቁ": 2017,
      "##5": 2018,
      "##ቆ": 2019,
      "##ጳ": 2020,
      "##ኾ": 2021,
      "##T": 2022,
      "##O": 2023,
      "##U": 2024,
      "##R": 2025,
      "##®": 2026,
      "##9": 2027,
      "##ቋ": 2028,
      "##ሂ": 2029,
      "##ጫ": 2030,
      "##*": 2031,
      "##ቊ": 2032,
      "##%": 2033,
      "##ሑ": 2034,
      "##ዪ": 2035,
      "##ፏ": 2036,
      "##|": 2037,
      "##i": 2038,
      "##ዉ": 2039,
      "##ሺ": 2040,
      "##ሆ": 2041,
      "##ሥ": 2042,
      "##ፒ": 2043,
      "##ፃ": 2044,
      "##ዶ": 2045,
      "##C": 2046,
      "##v": 2047,
      "##z": 2048,
      "##ዣ": 2049,
      "##ጓ": 2050,
      "##P": 2051,
      "##W": 2052,
      "##፥": 2053,
      "##ጹ": 2054,
      "##ዞ": 2055,
      "##ቨ": 2056,
      "##ቼ": 2057,
      "##+": 2058,
      "##ሣ": 2059,
      "##[": 2060,
      "##]": 2061,
      "##ጤ": 2062,
      "##S": 2063,
      "##y": 2064,
      "##p": 2065,
      "##ሄ": 2066,
      "##ጉ": 2067,
      "##V": 2068,
      "##፧": 2069,
      "##ቮ": 2070,
      "##ኘ": 2071,
      "##ኼ": 2072,
      "##ኰ": 2073,
      "##ኃ": 2074,
      "##ጢ": 2075,
      "##ኞ": 2076,
      "##ሷ": 2077,
      "##ኻ": 2078,
      "##ጮ": 2079,
      "##ዌ": 2080,
      "##w": 2081,
      "##G": 2082,
      "##‹": 2083,
      "###": 2084,
      "##ቝ": 2085,
      "##ቈ": 2086,
      "##B": 2087,
      "##ሬ": 2088,
      "##ጆ": 2089,
      "##ኲ": 2090,
      "##ጃ": 2091,
      "##ቺ": 2092,
      "##ዖ": 2093,
      "##ፓ": 2094,
      "##🥰": 2095,
      "##ሶ": 2096,
      "##ጩ": 2097,
      "##ጄ": 2098,
      "##x": 2099,
      "##d": 2100,
      "##ቭ": 2101,
      "##q": 2102,
      "##ሹ": 2103,
      "##ጾ": 2104,
      "##Y": 2105,
      "##Z": 2106,
      "##D": 2107,
      "##ቧ": 2108,
      "##ዴ": 2109,
      "##›": 2110,
      "##ቍ": 2111,
      "##ፌ": 2112,
      "##ف": 2113,
      "##س": 2114,
      "##ا": 2115,
      "##د": 2116,
      "##ቬ": 2117,
      "##ሴ": 2118,
      "##ዬ": 2119,
      "##ዃ": 2120,
      "##ቪ": 2121,
      "##ዥ": 2122,
      "##@": 2123,
      "##N": 2124,
      "##b": 2125,
      "##ዀ": 2126,
      "##_": 2127,
      "##ጌ": 2128,
      "##ጵ": 2129,
      "##j": 2130,
      "##ኵ": 2131,
      "##ሢ": 2132,
      "##ሯ": 2133,
      "##ቫ": 2134,
      "##ዔ": 2135,
      "##፦": 2136,
      "##ፐ": 2137,
      "##ፔ": 2138,
      "##ቿ": 2139,
      "##ኚ": 2140,
      "##ቩ": 2141,
      "##ሡ": 2142,
      "##ኅ": 2143,
      "##ዢ": 2144,
      "##ሼ": 2145,
      "##ጐ": 2146,
      "##ቘ": 2147,
      "##ኙ": 2148,
      "##L": 2149,
      "##ሦ": 2150,
      "##ዅ": 2151,
      "##፨": 2152,
      "##ጼ": 2153,
      "##<": 2154,
      "##ä": 2155,
      "##բ": 2156,
      "##ա": 2157,
      "##ռ": 2158,
      "##ը": 2159,
      "##፲": 2160,
      "##፱": 2161,
      "##ጕ": 2162,
      "##X": 2163,
      "##ጴ": 2164,
      "##ኗ": 2165,
      "##ቛ": 2166,
      "##ሖ": 2167,
      "##ሟ": 2168,
      "##፰": 2169,
      "##፻": 2170,
      "##ጝ": 2171,
      "##✟": 2172,
      "##ቄ": 2173,
      "##ሾ": 2174,
      "##ቾ": 2175,
      "##ጒ": 2176,
      "##᎓": 2177,
      "##ዯ": 2178,
      "##&": 2179,
      "##፳": 2180,
      "##ሔ": 2181,
      "##ዷ": 2182,
      "##å": 2183,
      "##ü": 2184,
      "##>": 2185,
      "##ꬃ": 2186,
      "##ፁ": 2187,
      "##J": 2188,
      "##፟": 2189,
      "##ç": 2190,
      "##}": 2191,
      "##ዤ": 2192,
      "##中": 2193,
      "##國": 2194,
      "##ኀ": 2195,
      "##ጰ": 2196,
      "##፹": 2197,
      "##ኂ": 2198,
      "##፺": 2199,
      "##ዂ": 2200,
      "##ጧ": 2201,
      "##ጱ": 2202,
      "##$": 2203,
      "##፩": 2204,
      "##፭": 2205,
      "##′": 2206,
      "##ö": 2207,
      "##፬": 2208,
      "##ፑ": 2209,
      "##ኟ": 2210,
      "##ጪ": 2211,
      "##ፄ": 2212,
      "##�": 2213,
      "##ሇ": 2214,
      "##Ö": 2215,
      "##ⷘ": 2216,
      "##\\": 2217,
      "##【": 2218,
      "##ቚ": 2219,
      "##🎅": 2220,
      "##Q": 2221,
      "##♣": 2222,
      "##፪": 2223,
      "##፫": 2224,
      "##⚽": 2225,
      "##ş": 2226,
      "##。": 2227,
      "##̈": 2228,
      "##ř": 2229,
      "##ñ": 2230,
      "##《": 2231,
      "##ኜ": 2232,
      "##μ": 2233,
      "##ሿ": 2234,
      "##é": 2235,
      "##ሤ": 2236,
      "##旧": 2237,
      "##市": 2238,
      "##ה": 2239,
      "##ב": 2240,
      "##א": 2241,
      "##彼": 2242,
      "##{": 2243,
      "##❑": 2244,
      "##~": 2245,
      "##👉": 2246,
      "##🏿": 2247,
      "##᎒": 2248,
      "##ß": 2249,
      "##⋮": 2250,
      "##ل": 2251,
      "##ر": 2252,
      "##ح": 2253,
      "##م": 2254,
      "##ن": 2255,
      "##ꬂ": 2256,
      "##ዠ": 2257,
      "##ጬ": 2258,
      "##≤": 2259,
      "##아": 2260,
      "##년": 2261,
      "##お": 2262,
      "##し": 2263,
      "##ゃ": 2264,
      "##べ": 2265,
      "##り": 2266,
      "##で": 2267,
      "##き": 2268,
      "##て": 2269,
      "##よ": 2270,
      "##か": 2271,
      "##っ": 2272,
      "##た": 2273,
      "##す": 2274,
      "##ዟ": 2275,
      "##÷": 2276,
      "##▶": 2277,
      "##️": 2278,
      "##ኁ": 2279,
      "##ጙ": 2280,
      "##ኴ": 2281,
      "##↔": 2282,
      "##ጏ": 2283,
      "##፯": 2284,
      "##◎": 2285,
      "##🌹": 2286,
      "##☝": 2287,
      "##ጿ": 2288,
      "##🎸": 2289,
      "##🙏": 2290,
      "##‖": 2291,
      "##ت": 2292,
      "##ه": 2293,
      "##ጇ": 2294,
      "##😍": 2295,
      "##►": 2296,
      "##ת": 2297,
      "##✔": 2298,
      "##ʼ": 2299,
      "##ቔ": 2300,
      "##我": 2301,
      "##要": 2302,
      "##去": 2303,
      "##散": 2304,
      "##步": 2305,
      "##ዄ": 2306,
      "##🙄": 2307,
      "##Ü": 2308,
      "##ጶ": 2309,
      "##፸": 2310,
      "##ኍ": 2311,
      "##ʺ": 2312,
      "##😷": 2313,
      "##ኧ": 2314,
      "##̂": 2315,
      "##ቌ": 2316,
      "##፮": 2317,
      "##❖": 2318,
      "##᎘": 2319,
      "##ጯ": 2320,
      "##ᎁ": 2321,
      "##🇪": 2322,
      "##🇷": 2323,
      "##💪": 2324,
      "##⃣": 2325,
      "##מ": 2326,
      "##נ": 2327,
      "##ג": 2328,
      "##ד": 2329,
      "##없": 2330,
      "##습": 2331,
      "##니": 2332,
      "##다": 2333,
      "##ዦ": 2334,
      "##结": 2335,
      "##束": 2336,
      "##了": 2337,
      "##፴": 2338,
      "##£": 2339,
      "##😃": 2340,
      "##€": 2341,
      "##ኊ": 2342,
      "##죄": 2343,
      "##송": 2344,
      "##하": 2345,
      "##지": 2346,
      "##만": 2347,
      "##ك": 2348,
      "##و": 2349,
      "##í": 2350,
      "##̧": 2351,
      "##☞": 2352,
      "##·": 2353,
      "##👌": 2354,
      "##幽": 2355,
      "##州": 2356,
      "##ዽ": 2357,
      "##፶": 2358,
      "##•": 2359,
      "##❤": 2360,
      "##𐌌": 2361,
      "##🤨": 2362,
      "##👍": 2363,
      "##ኄ": 2364,
      "##😩": 2365,
      "##ꬋ": 2366,
      "##ق": 2367,
      "##ي": 2368,
      "##ب": 2369,
      "##✅": 2370,
      "##🙂": 2371,
      "##ê": 2372,
      "##፷": 2373,
      "##о": 2374,
      "##т": 2375,
      "##ሧ": 2376,
      "##ኯ": 2377,
      "##⊖": 2378,
      "##ጛ": 2379,
      "##ዾ": 2380,
      "##İ": 2381,
      "##意": 2382,
      "##义": 2383,
      "##ᎄ": 2384,
      "##😁": 2385,
      "##ዸ": 2386,
      "##胖": 2387,
      "##的": 2388,
      "##○": 2389,
      "##ı": 2390,
      "##त": 2391,
      "##ो": 2392,
      "##♡": 2393,
      "##ꬄ": 2394,
      "##ፇ": 2395,
      "##√": 2396,
      "##隨": 2397,
      "##機": 2398,
      "##詞": 2399,
      "##彙": 2400,
      "##◼": 2401,
      "##፵": 2402,
      "##😘": 2403,
      "##책": 2404,
      "##😜": 2405,
      "##§": 2406,
      "##Ž": 2407,
      "##ž": 2408,
      "##š": 2409,
      "##ᤰ": 2410,
      "##‐": 2411,
      "##ï": 2412,
      "##¿": 2413,
      "##⁄": 2414,
      "##삼": 2415,
      "##🎤": 2416,
      "## ": 2417,
      "##ḱ": 2418,
      "##😕": 2419,
      "##😏": 2420,
      "##📲": 2421,
      "##ꬊ": 2422,
      "##✌": 2423,
      "##ዼ": 2424,
      "##̕": 2425,
      "##ğ": 2426,
      "##ዺ": 2427,
      "##💖": 2428,
      "##🌟": 2429,
      "##✒": 2430,
      "##😂": 2431,
      "##ኆ": 2432,
      "##Ø": 2433,
      "##‛": 2434,
      "##🛑": 2435,
      "##😄": 2436,
      "##क": 2437,
      "##प": 2438,
      "##ड": 2439,
      "##े": 2440,
      "##❸": 2441,
      "##¶": 2442,
      "##私": 2443,
      "##達": 2444,
      "##Ä": 2445,
      "##ꬅ": 2446,
      "##ሗ": 2447,
      "##ó": 2448,
      "##😲": 2449,
      "##ጟ": 2450,
      "##→": 2451,
      "##ל": 2452,
      "##д": 2453,
      "##н": 2454,
      "##е": 2455,
      "##й": 2456,
      "##Ş": 2457,
      "##ꬎ": 2458,
      "##×": 2459,
      "##🤓": 2460,
      "##♥": 2461,
      "##▽": 2462,
      "##ដ": 2463,
      "##្": 2464,
      "##ប": 2465,
      "##ិ": 2466,
      "##ត": 2467,
      "##您": 2468,
      "##≥": 2469,
      "##👏": 2470,
      "##̋": 2471,
      "##∶": 2472,
      "##➡": 2473,
      "##Υ": 2474,
      "##−": 2475,
      "##°": 2476,
      "##ዻ": 2477,
      "##☆": 2478,
      "##ã": 2479,
      "##ዏ": 2480,
      "##м": 2481,
      "##с": 2482,
      "##ጞ": 2483,
      "##📆": 2484,
      "##ش": 2485,
      "##ی": 2486,
      "##◈": 2487,
      "##💚": 2488,
      "##ߴ": 2489,
      "##Ā": 2490,
      "##Â": 2491,
      "##ԝ": 2492,
      "##κ": 2493,
      "##Ÿ": 2494,
      "##ā": 2495,
      "##ū": 2496,
      "##😀": 2497,
      "##こ": 2498,
      "##む": 2499,
      "##ろ": 2500,
      "##ס": 2501,
      "##י": 2502,
      "##ו": 2503,
      "##🧘": 2504,
      "##★": 2505,
      "##﷽": 2506,
      "##●": 2507,
      "##ꬆ": 2508,
      "##🔗": 2509,
      "##Ê": 2510,
      "##©": 2511,
      "##ƒ": 2512,
      "##📷": 2513,
      "##Ἐ": 2514,
      "##ρ": 2515,
      "##υ": 2516,
      "##θ": 2517,
      "##ὰ": 2518,
      "##Å": 2519,
      "##향": 2520,
      "##토": 2521,
      "##😅": 2522,
      "##σ": 2523,
      "##ῴ": 2524,
      "##ζ": 2525,
      "##ε": 2526,
      "##ט": 2527,
      "##ק": 2528,
      "##а": 2529,
      "##з": 2530,
      "##ج": 2531,
      "##👈": 2532,
      "##ጔ": 2533,
      "##俩": 2534,
      "##ኌ": 2535,
      "##⛔": 2536,
      "##Ç": 2537,
      "##ኇ": 2538,
      "##ጚ": 2539,
      "##۞": 2540,
      "##б": 2541,
      "##́": 2542,
      "##л": 2543,
      "##ы": 2544,
      "##😭": 2545,
      "##熊": 2546,
      "##は": 2547,
      "##昨": 2548,
      "##天": 2549,
      "##ख": 2550,
      "##Б": 2551,
      "##🤣": 2552,
      "##음": 2553,
      "##¦": 2554,
      "##ዡ": 2555,
      "##🔵": 2556,
      "##आ": 2557,
      "##म": 2558,
      "##ि": 2559,
      "##र": 2560,
      "##誕": 2561,
      "##生": 2562,
      "##日": 2563,
      "##パ": 2564,
      "##ー": 2565,
      "##テ": 2566,
      "##ィ": 2567,
      "##に": 2568,
      "##誰": 2569,
      "##を": 2570,
      "##招": 2571,
      "##待": 2572,
      "##る": 2573,
      "##方": 2574,
      "##法": 2575,
      "##也": 2576,
      "##æ": 2577,
      "##ص": 2578,
      "##ى": 2579,
      "##🏺": 2580,
      "##Á": 2581,
      "##Ñ": 2582,
      "##ጜ": 2583,
      "##ף": 2584,
      "##צ": 2585,
      "##è": 2586,
      "##🇹": 2587,
      "##🇻": 2588,
      "##🇳": 2589,
      "##💝": 2590,
      "##ο": 2591,
      "##φ": 2592,
      "##ή": 2593,
      "##😥": 2594,
      "##로": 2595,
      "##봇": 2596,
      "##♂": 2597,
      "##タ": 2598,
      "##イ": 2599,
      "##ト": 2600,
      "##ル": 2601,
      "##🌼": 2602,
      "##💞": 2603,
      "##🤦": 2604,
      "##✗": 2605,
      "##🇬": 2606,
      "##🇭": 2607,
      "##👁": 2608,
      "##🧜": 2609,
      "##欢": 2610,
      "##迎": 2611,
      "##ֶ": 2612,
      "##ْ": 2613,
      "##ֹ": 2614,
      "##😢": 2615,
      "##þ": 2616,
      "##高": 2617,
      "##考": 2618,
      "##ז": 2619,
      "##💯": 2620,
      "##🇲": 2621,
      "##🇱": 2622,
      "##ع": 2623,
      "##Þ": 2624,
      "##ú": 2625,
      "##ጘ": 2626,
      "##、": 2627,
      "##∷": 2628,
      "##á": 2629,
      "##ꬌ": 2630,
      "##👇": 2631,
      "##ة": 2632,
      "##👋": 2633,
      "##🇴": 2634,
      "##ô": 2635,
      "##☠": 2636,
      "##♋": 2637,
      "##︎": 2638,
      "##✦": 2639,
      "##ō": 2640,
      "##✊": 2641,
      "##💰": 2642,
      "##Ô": 2643,
      "##💛": 2644,
      "##皿": 2645,
      "##፞": 2646,
      "##ʔ": 2647,
      "##ɛ": 2648,
      "##̃": 2649,
      "##श": 2650,
      "##ब": 2651,
      "##्": 2652,
      "##द": 2653,
      "##፼": 2654,
      "##∞": 2655,
      "##ⶀ": 2656,
      "##⇐": 2657,
      "##‡": 2658,
      "##♔": 2659,
      "##➔": 2660,
      "##￼": 2661,
      "##👻": 2662,
      "##😳": 2663,
      "##ʾ": 2664,
      "##】": 2665,
      "##호": 2666,
      "##텔": 2667,
      "##에": 2668,
      "##남": 2669,
      "##겨": 2670,
      "##ø": 2671,
      "##⧊": 2672,
      "##С": 2673,
      "##к": 2674,
      "##ч": 2675,
      "##ь": 2676,
      "##É": 2677,
      "##ם": 2678,
      "##😉": 2679,
      "##ُ": 2680,
      "##😠": 2681,
      "##💙": 2682,
      "##💥": 2683,
      "##త": 2684,
      "##ీ": 2685,
      "##ర": 2686,
      "##ి": 2687,
      "##క": 2688,
      "##◉": 2689,
      "##☕": 2690,
      "##🍌": 2691,
      "##💕": 2692,
      "##҆": 2693,
      "##ֳ": 2694,
      "##ቜ": 2695,
      "##위": 2696,
      "##키": 2697,
      "##낱": 2698,
      "##말": 2699,
      "##사": 2700,
      "##전": 2701,
      "##ǒ": 2702,
      "##À": 2703,
      "##☻": 2704,
      "##🤟": 2705,
      "##디": 2706,
      "##시": 2707,
      "##在": 2708,
      "##個": 2709,
      "##視": 2710,
      "##頻": 2711,
      "##有": 2712,
      "##條": 2713,
      "##評": 2714,
      "##論": 2715,
      "##፠": 2716,
      "##🙆": 2717,
      "##결": 2718,
      "##혼": 2719,
      "##ň": 2720,
      "##◄": 2721,
      "##🤪": 2722,
      "##요": 2723,
      "##리": 2724,
      "##를": 2725,
      "##🔑": 2726,
      "##💸": 2727,
      "##🏆": 2728,
      "##🔻": 2729,
      "##ा": 2730,
      "##ह": 2731,
      "##ु": 2732,
      "##़": 2733,
      "##ì": 2734,
      "##پ": 2735,
      "##¡": 2736,
      "##ዹ": 2737,
      "##🚵": 2738,
      "##等": 2739,
      "##❝": 2740,
      "##◆": 2741,
      "##ዧ": 2742,
      "##ח": 2743,
      "##ש": 2744,
      "##▲": 2745,
      "##ꬉ": 2746,
      "##🕳": 2747,
      "##カ": 2748,
      "##オ": 2749,
      "##ス": 2750,
      "##や": 2751,
      "##п": 2752,
      "##р": 2753,
      "##ц": 2754,
      "##ю": 2755,
      "##◦": 2756,
      "##Т": 2757,
      "##г": 2758,
      "##в": 2759,
      "##я": 2760,
      "##ኈ": 2761,
      "##В": 2762,
      "##⚜": 2763,
      "##💃": 2764,
      "##✝": 2765,
      "##🙉": 2766,
      "##😮": 2767,
      "##Ó": 2768,
      "##Ф": 2769,
      "##З": 2770,
      "##♀": 2771,
      "##ɹ": 2772,
      "##إ": 2773,
      "##ِ": 2774,
      "##َ": 2775,
      "##ٰ": 2776,
      "##ቯ": 2777,
      "##œ": 2778,
      "##â": 2779,
      "##أ": 2780,
      "##ע": 2781,
      "##अ": 2782,
      "##व": 2783,
      "##č": 2784,
      "##时": 2785,
      "##―": 2786,
      "##👱": 2787,
      "##फ": 2788,
      "##ल": 2789,
      "##ض": 2790,
      "##ئ": 2791,
      "##》": 2792,
      "##の": 2793,
      "##発": 2794,
      "##音": 2795,
      "##☺": 2796,
      "##õ": 2797,
      "##洗": 2798,
      "##と": 2799,
      "##Š": 2800,
      "##†": 2801,
      "##🚗": 2802,
      "##ؤ": 2803,
      "##💽": 2804,
      "##♏": 2805,
      "##α": 2806,
      "##휴": 2807,
      "##가": 2808,
      "##ī": 2809,
      "##ǝ": 2810,
      "##✋": 2811,
      "##🏽": 2812,
      "##˂": 2813,
      "##˃": 2814,
      "##또": 2815,
      "##👀": 2816,
      "##⭐": 2817,
      "##ⵗ": 2818,
      "##주": 2819,
      "##ⶂ": 2820,
      "##ָ": 2821,
      "##🚴": 2822,
      "##ฟ": 2823,
      "##ั": 2824,
      "##ง": 2825,
      "##เ": 2826,
      "##พ": 2827,
      "##ล": 2828,
      "##А": 2829,
      "##Ã": 2830,
      "##❞": 2831,
      "##西": 2832,
      "##➤": 2833,
      "##ɔ": 2834,
      "##ˈ": 2835,
      "##ɾ": 2836,
      "##❷": 2837,
      "##̎": 2838,
      "##ٍ": 2839,
      "##ə": 2840,
      "##😫": 2841,
      "##케": 2842,
      "##테": 2843,
      "##코": 2844,
      "##멘": 2845,
      "##트": 2846,
      "##🐜": 2847,
      "##🔴": 2848,
      "##⚪": 2849,
      "##᐀": 2850,
      "##ɽ": 2851,
      "##¤": 2852,
      "##¬": 2853,
      "##💎": 2854,
      "##̄": 2855,
      "##ё": 2856,
      "##ร": 2857,
      "##🛅": 2858,
      "##闲": 2859,
      "##暇": 2860,
      "##ý": 2861,
      "##ʻ": 2862,
      "##ν": 2863,
      "##ι": 2864,
      "##ό": 2865,
      "##ς": 2866,
      "##것": 2867,
      "##،": 2868,
      "##ǘ": 2869,
      "##ፗ": 2870,
      "##ラ": 2871,
      "##ン": 2872,
      "##ダ": 2873,
      "##ム": 2874,
      "##選": 2875,
      "##ん": 2876,
      "##だ": 2877,
      "##単": 2878,
      "##語": 2879,
      "##₹": 2880,
      "##ω": 2881,
      "##들": 2882,
      "##었": 2883,
      "##어": 2884,
      "##О": 2885,
      "##▼": 2886,
      "##î": 2887,
      "##者": 2888,
      "##🍀": 2889,
      "##פ": 2890,
      "##ׁ": 2891,
      "##ò": 2892,
      "##😻": 2893,
      "##ز": 2894,
      "##ّ": 2895,
      "##이": 2896,
      "##렇": 2897,
      "##게": 2898,
      "##˅": 2899,
      "##ⶉ": 2900,
      "##Τ": 2901,
      "##γ": 2902,
      "##ί": 2903,
      "##😞": 2904,
      "##请": 2905,
      "##给": 2906,
      "##一": 2907,
      "##杯": 2908,
      "##饮": 2909,
      "##料": 2910,
      "##吗": 2911,
      "##ύ": 2912,
      "##ψ": 2913,
      "##λ": 2914,
      "##回": 2915,
      "##♭": 2916,
      "##👎": 2917,
      "##香": 2918,
      "##港": 2919,
      "##ጷ": 2920,
      "##Œ": 2921,
      "##^": 2922,
      "##‰": 2923,
      "##🧑": 2924,
      "##ʽ": 2925,
      "##᎐": 2926,
      "##ⶁ": 2927,
      "##Ğ": 2928,
      "##☯": 2929,
      "##Ѕ": 2930,
      "##Ġ": 2931,
      "##💘": 2932,
      "##Г": 2933,
      "##у": 2934,
      "##и": 2935,
      "##ш": 2936,
      "##🔞": 2937,
      "##👹": 2938,
      "##💔": 2939,
      "##活": 2940,
      "##💐": 2941,
      "##🌿": 2942,
      "##📻": 2943,
      "##ę": 2944,
      "##ń": 2945,
      "##쩝": 2946,
      "##校": 2947,
      "##β": 2948,
      "##ë": 2949,
      "##僕": 2950,
      "##♊": 2951,
      "##٤": 2952,
      "##什": 2953,
      "##い": 2954,
      "##ł": 2955,
      "##😊": 2956,
      "##߹": 2957,
      "##🤗": 2958,
      "##以": 2959,
      "##往": 2960,
      "##ĉ": 2961,
      "##🤙": 2962,
      "##స": 2963,
      "##ై": 2964,
      "##న": 2965,
      "##్": 2966,
      "##య": 2967,
      "##మ": 2968,
      "##ు": 2969,
      "##ⷕ": 2970,
      "##ⷅ": 2971,
      "##🤐": 2972,
      "##Î": 2973,
      "##🙁": 2974,
      "##≅": 2975,
      "##❐": 2976,
      "##🚩": 2977,
      "##🕖": 2978,
      "##ⶖ": 2979,
      "##Û": 2980,
      "##ù": 2981,
      "##à": 2982,
      "##ן": 2983,
      "##🙌": 2984,
      "##🏾": 2985,
      "##Ω": 2986,
      "##🙈": 2987,
      "##体": 2988,
      "##育": 2989,
      "##û": 2990,
      "##😒": 2991,
      "##💋": 2992,
      "##⮚": 2993,
      "##🌷": 2994,
      "##ห": 2995,
      "##И": 2996,
      "##ᥙ": 2997,
      "##유": 2998,
      "##그": 2999,
      "##ዿ": 3000,
      "##¥": 3001,
      "##ቇ": 3002,
      "##小": 3003,
      "##̔": 3004,
      "##해": 3005,
      "##ʁ": 3006,
      "##⚂": 3007,
      "##憑": 3008,
      "##狐": 3009,
      "##娘": 3010,
      "##П": 3011,
      "##🚇": 3012,
      "##Ý": 3013,
      "##🤭": 3014,
      "##👊": 3015,
      "##̷": 3016,
      "##澳": 3017,
      "##門": 3018,
      "##↪": 3019,
      "##➢": 3020,
      "##想": 3021,
      "##東": 3022,
      "##京": 3023,
      "##ፚ": 3024,
      "##✨": 3025,
      "##😎": 3026,
      "##🎍": 3027,
      "##🔤": 3028,
      "##ș": 3029,
      "##大": 3030,
      "##厦": 3031,
      "##■": 3032,
      "##ѕ": 3033,
      "##←": 3034,
      "##〉": 3035,
      "##▪": 3036,
      "##午": 3037,
      "##後": 3038,
      "##ר": 3039,
      "##✈": 3040,
      "##ֱ": 3041,
      "##😪": 3042,
      "##제": 3043,
      "##❗": 3044,
      "##خ": 3045,
      "##✿": 3046,
      "##➺": 3047,
      "##ា": 3048,
      "##😼": 3049,
      "##田": 3050,
      "##✘": 3051,
      "##三": 3052,
      "##♛": 3053,
      "##🤷": 3054,
      "##◊": 3055,
      "##⋅": 3056,
      "##➳": 3057,
      "##🔰": 3058,
      "##읽": 3059,
      "##🤝": 3060,
      "##ら": 3061,
      "##ᎏ": 3062,
      "##♦": 3063,
      "##度": 3064,
      "##最": 3065,
      "##近": 3066,
      "##警": 3067,
      "##察": 3068,
      "##局": 3069,
      "##哪": 3070,
      "##里": 3071,
      "##💟": 3072,
      "##ֵ": 3073,
      "##安": 3074,
      "##🤩": 3075,
      "##ے": 3076,
      "##❀": 3077,
      "##Ε": 3078,
      "##ꬁ": 3079,
      "##🇼": 3080,
      "##₿": 3081,
      "##・": 3082,
      "##「": 3083,
      "##」": 3084,
      "##嘅": 3085,
      "##發": 3086,
      "##ầ": 3087,
      "##∕": 3088,
      "##你": 3089,
      "##好": 3090,
      "##ά": 3091,
      "##τ": 3092,
      "##✞": 3093,
      "##💓": 3094,
      "##ప": 3095,
      "##ం": 3096,
      "##డ": 3097,
      "##ల": 3098,
      "##😆": 3099,
      "##ě": 3100,
      "##思": 3101,
      "##҉": 3102,
      "##̊": 3103,
      "##η": 3104,
      "##Ɛ": 3105,
      "##ホ": 3106,
      "##ま": 3107,
      "##連": 3108,
      "##れ": 3109,
      "##く": 3110,
      "##さ": 3111,
      "##🎋": 3112,
      "##ǎ": 3113,
      "##Ǐ": 3114,
      "##🏻": 3115,
      "##子": 3116,
      "##供": 3117,
      "##≠": 3118,
      "##◅": 3119,
      "##≦": 3120,
      "##π": 3121,
      "##⇒": 3122,
      "##追": 3123,
      "##加": 3124,
      "##⚠": 3125,
      "##❾": 3126,
      "##👬": 3127,
      "##前": 3128,
      "##📮": 3129,
      "##📚": 3130,
      "##⚀": 3131,
      "##录": 3132,
      "##制": 3133,
      "##发": 3134,
      "##🤔": 3135,
      "##ṇ": 3136,
      "##ፙ": 3137,
      "##🌅": 3138,
      "##🔷": 3139,
      "##🤴": 3140,
      "##भ": 3141,
      "##晋": 3142,
      "##ῶ": 3143,
      "##х": 3144,
      "##ү": 3145,
      "##э": 3146,
      "##↩": 3147,
      "##放": 3148,
      "##ڑ": 3149,
      "##آ": 3150,
      "##📌": 3151,
      "##؟": 3152,
      "##ア": 3153,
      "##ハ": 3154,
      "##※": 3155,
      "##ħ": 3156,
      "##▷": 3157,
      "##ⶅ": 3158,
      "##ワ": 3159,
      "##バ": 3160,
      "##Π": 3161,
      "##那": 3162,
      "##グ": 3163,
      "##ザ": 3164,
      "##ビ": 3165,
      "##エ": 3166,
      "##マ": 3167,
      "##ガ": 3168,
      "##🚨": 3169,
      "##ð": 3170,
      "##ً": 3171,
      "##✖": 3172,
      "##Ú": 3173,
      "##🏼": 3174,
      "##停": 3175,
      "##ど": 3176,
      "##😔": 3177,
      "##器": 3178,
      "##人": 3179,
      "##う": 3180,
      "##È": 3181,
      "##😱": 3182,
      "##غ": 3183,
      "##▸": 3184,
      "##저": 3185,
      "##녁": 3186,
      "##➖": 3187,
      "##ᎉ": 3188,
      "##📣": 3189,
      "##修": 3190,
      "##改": 3191,
      "##직": 3192,
      "##진": 3193,
      "##세": 3194,
      "##抦": 3195,
      "##这": 3196,
      "##件": 3197,
      "##商": 3198,
      "##品": 3199,
      "##💫": 3200,
      "##🤞": 3201,
      "##不": 3202,
      "##ケ": 3203,
      "##♬": 3204,
      "##🇨": 3205,
      "##ط": 3206,
      "##누": 3207,
      "##➠": 3208,
      "##᎖": 3209,
      "##💢": 3210,
      "##✥": 3211,
      "##🇿": 3212,
      "##🇦": 3213,
      "##미": 3214,
      "##🙋": 3215,
      "##름": 3216,
      "##을": 3217,
      "##😐": 3218,
      "##๑": 3219,
      "##했": 3220,
      "##下": 3221,
      "##来": 3222,
      "##📖": 3223,
      "##≈": 3224,
      "##録": 3225,
      "##➣": 3226,
      "##서": 3227,
      "##ˆ": 3228,
      "##☀": 3229,
      "##阿": 3230,
      "##姆": 3231,
      "##哈": 3232,
      "##拉": 3233,
      "##语": 3234,
      "##📶": 3235,
      "##신": 3236,
      "##고": 3237,
      "##할": 3238,
      "##ֻ": 3239,
      "##ַ": 3240,
      "##ּ": 3241,
      "##ć": 3242,
      "##👳": 3243,
      "##谢": 3244,
      "##អ": 3245,
      "##៊": 3246,
      "##Α": 3247,
      "##🌕": 3248,
      "##У": 3249,
      "##ọ": 3250,
      "##Д": 3251,
      "##♨": 3252,
      "##ಕ": 3253,
      "##ನ": 3254,
      "##್": 3255,
      "##ಡ": 3256,
      "##♌": 3257,
      "##丨": 3258,
      "##車": 3259,
      "##ظ": 3260,
      "##▫": 3261,
      "##ɻ": 3262,
      "##🔥": 3263,
      "##카": 3264,
      "##М": 3265,
      "##😰": 3266,
      "##ፘ": 3267,
      "##🥺": 3268,
      "##熱": 3269,
      "##ء": 3270,
      "##✍": 3271,
      "##Φ": 3272,
      "##言": 3273,
      "##😛": 3274,
      "##🐐": 3275,
      "##Æ": 3276,
      "##Е": 3277,
      "##न": 3278,
      "##ौ": 3279,
      "##ी": 3280,
      "##ٌ": 3281,
      "##건": 3282,
      "##강": 3283,
      "##바": 3284,
      "##꿈": 3285,
      "##🎵": 3286,
      "##新": 3287,
      "##增": 3288,
      "##ロ": 3289,
      "##ボ": 3290,
      "##ッ": 3291,
      "##🔯": 3292,
      "##Ш": 3293,
      "##ꗺ": 3294,
      "##為": 3295,
      "##錄": 3296,
      "##製": 3297,
      "##ф": 3298,
      "##🔔": 3299,
      "##あ": 3300,
      "##白": 3301,
      "##猫": 3302,
      "##她": 3303,
      "##ʿ": 3304,
      "##😡": 3305,
      "##𓁹": 3306,
      "##🇵": 3307,
      "##Ǜ": 3308,
      "##മ": 3309,
      "##ല": 3310,
      "##യ": 3311,
      "##ാ": 3312,
      "##ള": 3313,
      "##ം": 3314,
      "##δ": 3315,
      "##✓": 3316,
      "##Ù": 3317,
      "##Õ": 3318,
      "##↓": 3319,
      "##ᎅ": 3320,
      "##щ": 3321,
      "##̇": 3322,
      "##❥": 3323,
      "##ذ": 3324,
      "##싶": 3325,
      "##🕴": 3326,
      "##წ": 3327,
      "##ი": 3328,
      "##ნ": 3329,
      "##⛰": 3330,
      "##⋆": 3331,
      "##做": 3332,
      "##ֲ": 3333,
      "##Л": 3334,
      "##К": 3335,
      "##☈": 3336,
      "##گ": 3337,
      "##֣": 3338,
      "##♫": 3339,
      "##🧐": 3340,
      "##◌": 3341,
      "##丘": 3342,
      "##😋": 3343,
      "##⇨": 3344,
      "##ꬑ": 3345,
      "##ѣ": 3346,
      "##ъ": 3347,
      "##💌": 3348,
      "##Ż": 3349,
      "##ġ": 3350,
      "##注": 3351,
      "##文": 3352,
      "##स": 3353,
      "##စ": 3354,
      "##ာ": 3355,
      "##ပ": 3356,
      "##ိ": 3357,
      "##ု": 3358,
      "##ဒ": 3359,
      "##်": 3360,
      "##၊": 3361,
      "##‟": 3362,
      "##🤸": 3363,
      "##📜": 3364,
      "##⭕": 3365,
      "##۩": 3366,
      "##限": 3367,
      "##公": 3368,
      "##司": 3369,
      "##デ": 3370,
      "##ナ": 3371,
      "##🐅": 3372,
      "##메": 3373,
      "##💭": 3374,
      "##◇": 3375,
      "##♎": 3376,
      "##ส": 3377,
      "##ี": 3378,
      "##🌑": 3379,
      "##ễ": 3380,
      "##ः": 3381,
      "##♩": 3382,
      "##อ": 3383,
      "##่": 3384,
      "##夏": 3385,
      "##至": 3386,
      "##ⶆ": 3387,
      "##둑": 3388,
      "##պ": 3389,
      "##ե": 3390,
      "##თ": 3391,
      "##ვ": 3392,
      "##ს": 3393,
      "##ʕ": 3394,
      "##幫": 3395,
      "##ꬓ": 3396,
      "##☛": 3397,
      "##∙": 3398,
      "##☂": 3399,
      "##Η": 3400,
      "##Δ": 3401,
      "##Ι": 3402,
      "##Κ": 3403,
      "##👿": 3404,
      "##ち": 3405,
      "##і": 3406,
      "##᧐": 3407,
      "##더": 3408,
      "##함": 3409,
      "##士": 3410,
      "##≔": 3411,
      "##₩": 3412,
      "##₸": 3413,
      "##✡": 3414,
      "##👦": 3415,
      "##題": 3416,
      "##🤬": 3417,
      "##♚": 3418,
      "##🧚": 3419,
      "##😝": 3420,
      "##כ": 3421,
      "##🚦": 3422,
      "##일": 3423,
      "##│": 3424,
      "##仕": 3425,
      "##♪": 3426,
      "##֑": 3427,
      "##他": 3428,
      "##🌀": 3429,
      "##🇧": 3430,
      "##🤘": 3431,
      "##ώ": 3432,
      "##Č": 3433,
      "##带": 3434,
      "##酒": 3435,
      "##店": 3436,
      "##ʌ": 3437,
      "##ŭ": 3438,
      "##夫": 3439,
      "##📒": 3440,
      "##😹": 3441,
      "##갑": 3442,
      "##ⶴ": 3443,
      "##안": 3444,
      "##😇": 3445,
      "##分": 3446,
      "##鐘": 3447,
      "##🇽": 3448,
      "##😵": 3449,
      "##팠": 3450,
      "##🐕": 3451,
      "##ἑ": 3452,
      "##ξ": 3453,
      "##🔶": 3454,
      "##水": 3455,
      "##果": 3456,
      "##国": 3457,
      "##โ": 3458,
      "##บ": 3459,
      "##ต": 3460,
      "##🤲": 3461,
      "##ớ": 3462,
      "##≡": 3463,
      "##ก": 3464,
      "##า": 3465,
      "##ย": 3466,
      "##🏝": 3467,
      "##ƅ": 3468,
      "##☘": 3469,
      "##住": 3470,
      "##ḧ": 3471,
      "##ׂ": 3472,
      "##😚": 3473,
      "##🍵": 3474,
      "##뭐": 3475,
      "##ē": 3476,
      "##ⷍ": 3477,
      "##ʀ": 3478,
      "##ै": 3479,
      "##य": 3480,
      "##🔊": 3481,
      "##ⶊ": 3482,
      "##女": 3483,
      "##έ": 3484,
      "##⇢": 3485,
      "##월": 3486,
      "##ť": 3487,
      "##ÿ": 3488,
      "##ư": 3489,
      "##ִ": 3490,
      "##ј": 3491,
      "##ۆ": 3492,
      "##ک": 3493,
      "##们": 3494,
      "##💗": 3495,
      "##ܪ": 3496,
      "##ܘ": 3497,
      "##ܒ": 3498,
      "##ܛ": 3499,
      "##Ԍ": 3500,
      "##😈": 3501,
      "##못": 3502,
      "##Р": 3503,
      "##드": 3504,
      "##루": 3505,
      "##팔": 3506,
      "##ְ": 3507,
      "##֗": 3508,
      "##🚀": 3509,
      "##🍅": 3510,
      "##🥦": 3511,
      "##🥒": 3512,
      "##🌽": 3513,
      "##🍄": 3514,
      "##💜": 3515,
      "##Н": 3516,
      "##¢": 3517,
      "##🌤": 3518,
      "##─": 3519,
      "##🤥": 3520,
      "##±": 3521,
      "##🌳": 3522,
      "##🥇": 3523,
      "##데": 3524,
      "##려": 3525,
      "##Ⲩ": 3526,
      "##ဆ": 3527,
      "##ီ": 3528,
      "##း": 3529,
      "##工": 3530,
      "##作": 3531,
      "##ग": 3532,
      "##ण": 3533,
      "##ज": 3534,
      "##♈": 3535,
      "##🌞": 3536,
      "##🔙": 3537,
      "##👑": 3538,
      "##な": 3539,
      "##御": 3540,
      "##用": 3541,
      "##ょ": 3542,
      "##📡": 3543,
      "##➿": 3544,
      "##表": 3545,
      "##於": 3546,
      "##Μ": 3547,
      "##还": 3548,
      "##╔": 3549,
      "##═": 3550,
      "##ܬ": 3551,
      "##ܣ": 3552,
      "##ܦ": 3553,
      "##ܐ": 3554,
      "##✎": 3555,
      "##ღ": 3556,
      "##🏫": 3557,
      "##🧸": 3558,
      "##Ð": 3559,
      "##계": 3560,
      "##చ": 3561,
      "##〇": 3562,
      "##ǔ": 3563,
      "##➜": 3564,
      "##🌏": 3565,
      "##Փ": 3566,
      "##ո": 3567,
      "##խ": 3568,
      "##լ": 3569,
      "##ᎋ": 3570,
      "##♻": 3571,
      "##동": 3572,
      "##□": 3573,
      "##⟶": 3574,
      "##Ë": 3575,
      "##🤧": 3576,
      "##으": 3577,
      "##链": 3578,
      "##接": 3579,
      "##🌉": 3580,
      "##😖": 3581,
      "##📍": 3582,
      "##च": 3583,
      "##ิ": 3584,
      "##ม": 3585,
      "##ळ": 3586,
      "##✪": 3587,
      "##ḥ": 3588,
      "##谷": 3589,
      "##雨": 3590,
      "##⛱": 3591,
      "##🦋": 3592,
      "##ं": 3593,
      "##먹": 3594,
      "##보": 3595,
      "##➐": 3596,
      "##華": 3597,
      "##民": 3598,
      "##共": 3599,
      "##和": 3600,
      "##↑": 3601,
      "##▢": 3602,
      "##ᎌ": 3603,
      "##℗": 3604,
      "##의": 3605,
      "##녕": 3606,
      "##히": 3607,
      "##🕊": 3608,
      "##̣": 3609,
      "##能": 3610,
      "##机": 3611,
      "##场": 3612,
      "##무": 3613,
      "##☹": 3614,
      "##🇺": 3615,
      "##🇸": 3616,
      "##է": 3617,
      "##⦁": 3618,
      "##ἕ": 3619,
      "##ⶋ": 3620,
      "##발": 3621,
      "##χ": 3622,
      "##♐": 3623,
      "##Х": 3624,
      "▁እ": 3625,
      "▁ኣ": 3626,
      "▁በ": 3627,
      "▁አ": 3628,
      "▁የ": 3629,
      "▁መ": 3630,
      "▁ነ": 3631,
      "▁ከ": 3632,
      "▁ይ": 3633,
      "▁ብ": 3634,
      "▁ም": 3635,
      "▁እን": 3636,
      "▁ን": 3637,
      "▁ዝ": 3638,
      "▁ተ": 3639,
      "▁ክ": 3640,
      "▁ወ": 3641,
      "▁ስ": 3642,
      "▁ለ": 3643,
      "▁ሰ": 3644,
      "▁ኣብ": 3645,
      "▁ዘ": 3646,
      "▁ግ": 3647,
      "▁ና": 3648,
      "##ውን": 3649,
      "▁እና": 3650,
      "▁ማ": 3651,
      "▁ነው": 3652,
      "▁ት": 3653,
      "▁ያ": 3654,
      "▁ው": 3655,
      "▁ኢ": 3656,
      "▁ድ": 3657,
      "▁\"": 3658,
      "▁ሓ": 3659,
      "▁።": 3660,
      "▁ዓ": 3661,
      "▁እዩ": 3662,
      "▁ካ": 3663,
      "▁ደ": 3664,
      "##ነት": 3665,
      "##ዎች": 3666,
      "##ቸው": 3667,
      "##ላይ": 3668,
      "##ታት": 3669,
      "▁፡": 3670,
      "▁ከም": 3671,
      "##ገር": 3672,
      "▁ኣይ": 3673,
      "▁የሚ": 3674,
      "▁ሕ": 3675,
      "##ንድ": 3676,
      "▁እንደ": 3677,
      "▁ሁ": 3678,
      "▁ገ": 3679,
      "##ም።": 3680,
      "▁ል": 3681,
      "##በር": 3682,
      "▁ስለ": 3683,
      "▁1": 3684,
      "▁ጥ": 3685,
      "▁ናይ": 3686,
      "▁ቀ": 3687,
      "##ል።": 3688,
      "▁ግን": 3689,
      "▁ላይ": 3690,
      "##ስጥ": 3691,
      "##ዚህ": 3692,
      "▁ውስጥ": 3693,
      "##ን።": 3694,
      "▁ካብ": 3695,
      "▁እዩ።": 3696,
      "##ንም": 3697,
      "▁ባ": 3698,
      "##ጊዜ": 3699,
      "▁መን": 3700,
      "▁እቲ": 3701,
      "▁(": 3702,
      "##ትን": 3703,
      "▁2": 3704,
      "▁፣": 3705,
      "▁አይ": 3706,
      "▁ፍ": 3707,
      "##ለም": 3708,
      "▁ድማ": 3709,
      "▁ምስ": 3710,
      "▁እዚ": 3711,
      "▁ይህ": 3712,
      "▁ህ": 3713,
      "▁ጊዜ": 3714,
      "▁የተ": 3715,
      "▁ነገር": 3716,
      "▁ወደ": 3717,
      "##ግዚ": 3718,
      "▁ቅ": 3719,
      "##ምን": 3720,
      "▁ወይ": 3721,
      "##ፈል": 3722,
      "##ችን": 3723,
      "##ርስ": 3724,
      "##ለት": 3725,
      "##ምላ": 3726,
      "##በረ": 3727,
      "##ቶም": 3728,
      "##ለው": 3729,
      "##ንተ": 3730,
      "▁ጋ": 3731,
      "▁ሁሉ": 3732,
      "##ሆነ": 3733,
      "▁እንዲ": 3734,
      "##ስተ": 3735,
      "##..": 3736,
      "##ያን": 3737,
      "▁ቤ": 3738,
      "##ለሁ": 3739,
      "##ሔር": 3740,
      "##ብሔር": 3741,
      "▁ለመ": 3742,
      "▁ሃ": 3743,
      "▁ታ": 3744,
      "▁በእ": 3745,
      "##ሆን": 3746,
      "▁ፈ": 3747,
      "▁ዕ": 3748,
      "##ችሁ": 3749,
      "▁ነበር": 3750,
      "▁ዘይ": 3751,
      "##ርሱ": 3752,
      "▁ብዙ": 3753,
      "##በት": 3754,
      "##ባት": 3755,
      "▁እየ": 3756,
      "▁እንተ": 3757,
      "##ግዚአ": 3758,
      "##ራት": 3759,
      "▁ናብ": 3760,
      "▁-": 3761,
      "▁ነው።": 3762,
      "▁ጋር": 3763,
      "##ሪያ": 3764,
      "▁አለ": 3765,
      "▁ሊ": 3766,
      "##ኩም": 3767,
      "▁ዓመ": 3768,
      "##ቶች": 3769,
      "##ግዚአብሔር": 3770,
      "▁እነ": 3771,
      "▁በመ": 3772,
      "▁ኩ": 3773,
      "▁ሲ": 3774,
      "▁ኸ": 3775,
      "▁ለማ": 3776,
      "##ችላ": 3777,
      "##ብር": 3778,
      "▁እኔ": 3779,
      "▁አንድ": 3780,
      "##ታይ": 3781,
      "▁ጸ": 3782,
      "▁ዝተ": 3783,
      "▁በአ": 3784,
      "▁ዚ": 3785,
      "▁አን": 3786,
      "▁ኮ": 3787,
      "##ኽእ": 3788,
      "##ንያ": 3789,
      "▁ሰብ": 3790,
      "▁ክት": 3791,
      "▁የእ": 3792,
      "▁ኣለ": 3793,
      "▁ሓደ": 3794,
      "##ና።": 3795,
      "▁ጽ": 3796,
      "##ብል": 3797,
      "▁ጠ": 3798,
      "▁የመ": 3799,
      "▁ኪ": 3800,
      "##ይወ": 3801,
      "##ድር": 3802,
      "▁ጉ": 3803,
      "▁ሳ": 3804,
      "▁አል": 3805,
      "##ጀመ": 3806,
      "##ምላኽ": 3807,
      "##ረት": 3808,
      "##ስት": 3809,
      "▁ምን": 3810,
      "▁ከኣ": 3811,
      "##ሎም": 3812,
      "▁ር": 3813,
      "▁ኣሎ": 3814,
      "▁እስ": 3815,
      "##ለን": 3816,
      "##ተኛ": 3817,
      "▁ክን": 3818,
      "▁መል": 3819,
      "##ሉ።": 3820,
      "##ገል": 3821,
      "▁በተ": 3822,
      "▁አስ": 3823,
      "▁ይችላ": 3824,
      "▁ሰው": 3825,
      "##ደር": 3826,
      "##ጣም": 3827,
      "▁ተመ": 3828,
      "▁ቃ": 3829,
      "##ላት": 3830,
      "##መን": 3831,
      "▁3": 3832,
      "##ዓል": 3833,
      "▁ከእ": 3834,
      "##'ዩ": 3835,
      "▁በጣም": 3836,
      "##ርት": 3837,
      "▁20": 3838,
      "▁ዘለ": 3839,
      "##ዚያ": 3840,
      "##ሆኑ": 3841,
      "▁'": 3842,
      "▁ወይም": 3843,
      "▁ቢ": 3844,
      "##ል.": 3845,
      "##ንን": 3846,
      "▁የአ": 3847,
      "▁ከተ": 3848,
      "▁ዘሎ": 3849,
      "▁ሰዎች": 3850,
      "##ምህ": 3851,
      "▁ኣምላኽ": 3852,
      "▁ቤት": 3853,
      "▁ሆ": 3854,
      "##ማይ": 3855,
      "##ድረ": 3856,
      "▁ህዝ": 3857,
      "##ዳን": 3858,
      "##መስ": 3859,
      "▁አይደ": 3860,
      "##ገድ": 3861,
      "▁ብቻ": 3862,
      "▁እውን": 3863,
      "▁እዮ": 3864,
      "▁ነቲ": 3865,
      "▁ዋ": 3866,
      "▁ኤ": 3867,
      "##ናት": 3868,
      "▁ሚ": 3869,
      "##ራዊ": 3870,
      "##ሱስ": 3871,
      "▁ሞ": 3872,
      "▁እያ": 3873,
      "▁እግዚአብሔር": 3874,
      "##ደረ": 3875,
      "##በል": 3876,
      "##ነበረ": 3877,
      "▁ዓመት": 3878,
      "##ሰብ": 3879,
      "▁እንዳ": 3880,
      "▁እም": 3881,
      "##ሁን": 3882,
      "▁ናቸው": 3883,
      "##ኾነ": 3884,
      "▁ነይ": 3885,
      "##ኽእል": 3886,
      "▁ሽ": 3887,
      "▁ግና": 3888,
      "▁ቦ": 3889,
      "##ይወት": 3890,
      "▁ሙ": 3891,
      "▁ነገ": 3892,
      "▁ማለት": 3893,
      "▁ሌ": 3894,
      "##ግባ": 3895,
      "##ቸውን": 3896,
      "##ዓት": 3897,
      "▁መስ": 3898,
      "##ራሕ": 3899,
      "##በለ": 3900,
      "▁ንም": 3901,
      "##በሩ": 3902,
      "▁ካል": 3903,
      "▁የም": 3904,
      "▁አላ": 3905,
      "▁ቀን": 3906,
      "##ናል": 3907,
      "▁ዓለም": 3908,
      "##ኸውን": 3909,
      "▁የሚያ": 3910,
      "##ላል": 3911,
      "##ሮች": 3912,
      "▁ከመ": 3913,
      "##ይን": 3914,
      "##ፊት": 3915,
      "##ኹም": 3916,
      "▁ምክ": 3917,
      "##ኦም": 3918,
      "##ርግ": 3919,
      "##ታዊ": 3920,
      "##...": 3921,
      "##ራይ": 3922,
      "▁እንታይ": 3923,
      "▁ሥ": 3924,
      "▁ለእ": 3925,
      "##ውም": 3926,
      "▁ረ": 3927,
      "##ከል": 3928,
      "▁እኛ": 3929,
      "▁ቁ": 3930,
      "▁ምር": 3931,
      "##ሳብ": 3932,
      "##ዕባ": 3933,
      "▁ግዜ": 3934,
      "▁እንደሚ": 3935,
      "##ያት": 3936,
      "▁4": 3937,
      "##ልና": 3938,
      "##00": 3939,
      "##ይኑ": 3940,
      "▁ብም": 3941,
      "##ንቲ": 3942,
      "▁ቦታ": 3943,
      "##መለ": 3944,
      "##ቱን": 3945,
      "▁ጌ": 3946,
      "▁ክፍ": 3947,
      "##ገብ": 3948,
      "▁በዚህ": 3949,
      "▁ጀ": 3950,
      "▁ያለ": 3951,
      "▁ቃል": 3952,
      "##ኋላ": 3953,
      "##ዋል": 3954,
      "▁መጽ": 3955,
      "▁ዳ": 3956,
      "##ገባ": 3957,
      "▁ኽ": 3958,
      "▁ደግ": 3959,
      "▁ሰባት": 3960,
      "##ሳይ": 3961,
      "##ውያን": 3962,
      "▁ብዛ": 3963,
      "##ማሪ": 3964,
      "##ቅር": 3965,
      "##ሎች": 3966,
      "##የት": 3967,
      "##ረጃ": 3968,
      "▁\"እ": 3969,
      "##ንግ": 3970,
      "##ኤል": 3971,
      "##'ውን": 3972,
      "▁ኢዩ": 3973,
      "##መል": 3974,
      "▁እሱ": 3975,
      "▁አብ": 3976,
      "##በይ": 3977,
      "▁ቅዱ": 3978,
      "##ዋን": 3979,
      "##ሪካ": 3980,
      "##ሩ።": 3981,
      "▁ዜ": 3982,
      "##ርስዎ": 3983,
      "▁ነው.": 3984,
      "##ኮነ": 3985,
      "##ት።": 3986,
      "▁ደግሞ": 3987,
      "##ድን": 3988,
      "##ለይ": 3989,
      "##ምር": 3990,
      "▁5": 3991,
      "▁ኣነ": 3992,
      "▁ዓይ": 3993,
      "▁.": 3994,
      "##ህን": 3995,
      "##ዘይ": 3996,
      "##ጀመሪያ": 3997,
      "▁መንግ": 3998,
      "##ናን": 3999,
      "▁አንተ": 4000,
      "##መር": 4001,
      "▁በኋላ": 4002,
      "▁መዓል": 4003,
      "##ቱም": 4004,
      "▁ኸኣ": 4005,
      "##ሰር": 4006,
      "##ረብ": 4007,
      "▁ምክንያ": 4008,
      "▁ክርስ": 4009,
      "▁ጉዳ": 4010,
      "▁በማ": 4011,
      "▁ብዛዕባ": 4012,
      "##ሕሪ": 4013,
      "▁ኩሉ": 4014,
      "##ስቲ": 4015,
      "##ድረግ": 4016,
      "##ክት": 4017,
      "▁መጠ": 4018,
      "##የሱስ": 4019,
      "▁እቶም": 4020,
      "▁ከአ": 4021,
      "##ላለ": 4022,
      "##ሓት": 4023,
      "▁እርሱ": 4024,
      "##ግር": 4025,
      "##ዎ።": 4026,
      "##ድል": 4027,
      "##ረስ": 4028,
      "##ርከ": 4029,
      "▁ምንም": 4030,
      "▁ክል": 4031,
      "▁ቅድ": 4032,
      "▁ራ": 4033,
      "##ንዘ": 4034,
      "##ርያ": 4035,
      "▁ነዚ": 4036,
      "▁ስም": 4037,
      "##ህል": 4038,
      "##ባል": 4039,
      "##ተን": 4040,
      "▁ነበር።": 4041,
      "##ገና": 4042,
      "▁ቤተ": 4043,
      "▁ዛ": 4044,
      "▁ማን": 4045,
      "##ዕሊ": 4046,
      "▁ስለዚህ": 4047,
      "▁ከይ": 4048,
      "▁ንስ": 4049,
      "▁የማ": 4050,
      "▁ንሱ": 4051,
      "▁እሞ": 4052,
      "▁አሁን": 4053,
      "##ሰማ": 4054,
      "▁በሚ": 4055,
      "▁ቅዱስ": 4056,
      "##ችል": 4057,
      "##ላቸው": 4058,
      "##ኣብ": 4059,
      "▁እንዲህ": 4060,
      "▁ትምህ": 4061,
      "▁ቆ": 4062,
      "▁መሰ": 4063,
      "▁ኣብዚ": 4064,
      "##ስታ": 4065,
      "▁ነበረ": 4066,
      "▁መንገድ": 4067,
      "##ኖር": 4068,
      "##ሎት": 4069,
      "##ምላክ": 4070,
      "▁ህዝቢ": 4071,
      "##ወዳ": 4072,
      "##ናይ": 4073,
      "##ላችሁ": 4074,
      "##ማት": 4075,
      "##ዎችን": 4076,
      "##ያው": 4077,
      "##ግብ": 4078,
      "▁ጎ": 4079,
      "▁ፕ": 4080,
      "##ልን": 4081,
      "▁እንዴ": 4082,
      "##ልካ": 4083,
      "##ያስ": 4084,
      "▁እት": 4085,
      "##ላም": 4086,
      "##ስፋ": 4087,
      "##ብሉ": 4088,
      "##ጆች": 4089,
      "▁ዶ": 4090,
      "▁መካ": 4091,
      "##ደን": 4092,
      "▁አይደለም": 4093,
      "▁ሀ": 4094,
      "▁እዮም።": 4095,
      "▁ብሓ": 4096,
      "##ከተ": 4097,
      "▁እው": 4098,
      "▁ይሆ": 4099,
      "##ዮም": 4100,
      "##ርእ": 4101,
      "##ሮም": 4102,
      "##ሉም": 4103,
      "▁ጨ": 4104,
      "##ገልግ": 4105,
      "##ምሮ": 4106,
      "▁እናም": 4107,
      "▁ኣሎ።": 4108,
      "##'ዩ።": 4109,
      "##ትና": 4110,
      "▁ሎ": 4111,
      "##ንዘብ": 4112,
      "##ርቲ": 4113,
      "##ወሰ": 4114,
      "##ዎም": 4115,
      "##ለህ": 4116,
      "▁ኣይት": 4117,
      "##ከት": 4118,
      "##ርካ": 4119,
      "##ኘት": 4120,
      "##መጣ": 4121,
      "##ኞች": 4122,
      "▁ዓመታት": 4123,
      "▁ሕጂ": 4124,
      "▁ኃ": 4125,
      "▁ምድ": 4126,
      "##ውቃ": 4127,
      "▁ይህን": 4128,
      "▁ሃገር": 4129,
      "##ንስ": 4130,
      "▁በላይ": 4131,
      "▁እስከ": 4132,
      "▁ከምዝ": 4133,
      "▁19": 4134,
      "##ረው": 4135,
      "##ወስ": 4136,
      "▁ዝነ": 4137,
      "##ምና": 4138,
      "▁ምኽ": 4139,
      "▁ወዲ": 4140,
      "▁ሁሉም": 4141,
      "▁ላ": 4142,
      "##ፈለ": 4143,
      "##:1": 4144,
      "▁እንዴት": 4145,
      "##ርድ": 4146,
      "▁ኢኻ": 4147,
      "##'ዚ": 4148,
      "##ባቢ": 4149,
      "▁6": 4150,
      "##ዋል።": 4151,
      "▁እተ": 4152,
      "##ኖም": 4153,
      "▁ባለ": 4154,
      "##ክል": 4155,
      "▁201": 4156,
      "##ኣይ": 4157,
      "▁ጥሩ": 4158,
      "##ሳት": 4159,
      "##ዲስ": 4160,
      "##ለሁ።": 4161,
      "▁ምዃ": 4162,
      "▁እታ": 4163,
      "▁ዝሓ": 4164,
      "##ካል": 4165,
      "##ሃል": 4166,
      "##ጣን": 4167,
      "▁ኣን": 4168,
      "▁እነዚህ": 4169,
      "▁የለ": 4170,
      "##ራኤል": 4171,
      "▁ይችላሉ": 4172,
      "▁ሴ": 4173,
      "▁ተጠ": 4174,
      "##ነው": 4175,
      "▁ከተማ": 4176,
      "▁ዘንድ": 4177,
      "##ኛው": 4178,
      "▁ብዙሕ": 4179,
      "##ኔታ": 4180,
      "▁ርእ": 4181,
      "##ሉት": 4182,
      "##ዎን": 4183,
      "▁መካከል": 4184,
      "##ገብር": 4185,
      "▁ሃገ": 4186,
      "▁እዋን": 4187,
      "▁ኣብቲ": 4188,
      "##ሰው": 4189,
      "##ዎቹ": 4190,
      "▁ደቂ": 4191,
      "▁ኢየሱስ": 4192,
      "▁ስር": 4193,
      "▁ስለዚ": 4194,
      "##ፈልጋ": 4195,
      "▁ብዝ": 4196,
      "▁ብር": 4197,
      "▁መዓልቲ": 4198,
      "▁ሥራ": 4199,
      "▁ኵ": 4200,
      "▁አት": 4201,
      "▁ዲ": 4202,
      "##ቅም": 4203,
      "▁ጥራይ": 4204,
      "##ታል": 4205,
      "##መሰ": 4206,
      "▁ከዚያ": 4207,
      "##ተይ": 4208,
      "##ደል": 4209,
      "##ፍት": 4210,
      "▁እነሱ": 4211,
      "▁ጓ": 4212,
      "▁ኢና": 4213,
      "##ፈልጥ": 4214,
      "▁ኢሉ": 4215,
      "▁ከምዚ": 4216,
      "▁ከምኡ": 4217,
      "##ረጋ": 4218,
      "▁እግዚ": 4219,
      "##ሓፍ": 4220,
      "▁እዮም": 4221,
      "▁ከፍ": 4222,
      "▁ሁኔታ": 4223,
      "##ጨረ": 4224,
      "##ቀር": 4225,
      "##ልቅ": 4226,
      "▁ተስፋ": 4227,
      "##ቀም": 4228,
      "▁ኣይኮነ": 4229,
      "▁ዓይነት": 4230,
      "▁ሎሚ": 4231,
      "▁8": 4232,
      "▁ንኣ": 4233,
      "▁እንዲሁ": 4234,
      "▁ሆነ": 4235,
      "▁እንኳ": 4236,
      "##ይታ": 4237,
      "▁ያስ": 4238,
      "##ብን": 4239,
      "##ዓለም": 4240,
      "▁7": 4241,
      "▁ሌላ": 4242,
      "▁ወር": 4243,
      "▁ፖ": 4244,
      "##ዶች": 4245,
      "▁ከሆነ": 4246,
      "▁፤": 4247,
      "##ጥር": 4248,
      "▁ትን": 4249,
      "▁ምእ": 4250,
      "▁በፊት": 4251,
      "##ወቅ": 4252,
      "▁ች": 4253,
      "##ብረ": 4254,
      "##ቶስ": 4255,
      "##ሳሌ": 4256,
      "##ተር": 4257,
      "▁ልጅ": 4258,
      "▁ጌታ": 4259,
      "##ጨማሪ": 4260,
      "##ባቸው": 4261,
      "▁10": 4262,
      "▁ለአ": 4263,
      "▁ቅድሚ": 4264,
      "##ጣት": 4265,
      "▁ሕዝ": 4266,
      "▁ኢዩ።": 4267,
      "##ባይ": 4268,
      "##ጨረሻ": 4269,
      "##ተው": 4270,
      "▁መር": 4271,
      "▁ታሪ": 4272,
      "▁ዝኾነ": 4273,
      "▁ጉዳይ": 4274,
      "##ባር": 4275,
      "##ሜሪካ": 4276,
      "▁ሂ": 4277,
      "##ናንተ": 4278,
      "##ክብ": 4279,
      "▁ድሕሪ": 4280,
      "##ረን": 4281,
      "▁መግ": 4282,
      "##ነቱ": 4283,
      "▁ስራሕ": 4284,
      "##ጽእ": 4285,
      "▁አሉ": 4286,
      "##ወት": 4287,
      "▁ንጉ": 4288,
      "▁ሸ": 4289,
      "▁ዝበ": 4290,
      "##ስን": 4291,
      "▁ይጠ": 4292,
      "▁ኺ": 4293,
      "##ቦች": 4294,
      "▁ሐ": 4295,
      "##ዮን": 4296,
      "##ታው": 4297,
      "▁እናንተ": 4298,
      "▁ያለው": 4299,
      "##በብ": 4300,
      "▁ስል": 4301,
      "▁ገንዘብ": 4302,
      "##ርግጥ": 4303,
      "##ገለ": 4304,
      "▁ደረጃ": 4305,
      "▁አስተ": 4306,
      "##ኒ።": 4307,
      "##ረዳ": 4308,
      "▁ባህ": 4309,
      "▁ዮ": 4310,
      "▁ዝብል": 4311,
      "##ወደ": 4312,
      "▁ንሕ": 4313,
      "##ለች": 4314,
      "##ርን": 4315,
      "##ደት": 4316,
      "▁ማድረግ": 4317,
      "▁በዚ": 4318,
      "##re": 4319,
      "##ሰራ": 4320,
      "▁አድር": 4321,
      "##ናገ": 4322,
      "▁ኣቦ": 4323,
      "##ግኘት": 4324,
      "##መይ": 4325,
      "▁ድረስ": 4326,
      "##ትም": 4327,
      "▁የሆነ": 4328,
      "▁ኮይኑ": 4329,
      "##ገዲ": 4330,
      "##ፈላ": 4331,
      "▁መንፈ": 4332,
      "##ብሎ": 4333,
      "▁ዝነበረ": 4334,
      "▁ኸም": 4335,
      "##ለያ": 4336,
      "▁ግብ": 4337,
      "▁ልጆች": 4338,
      "▁ልዕሊ": 4339,
      "##ንቀ": 4340,
      "▁ይችላል": 4341,
      "▁መሆን": 4342,
      "▁ኣፍ": 4343,
      "▁አምላክ": 4344,
      "##ልም": 4345,
      "##ግራ": 4346,
      "▁ገለ": 4347,
      "##ፈር": 4348,
      "▁ክሳብ": 4349,
      "▁ኢና።": 4350,
      "##ፈት": 4351,
      "▁እር": 4352,
      "##ደም": 4353,
      "▁ንዓ": 4354,
      "▁እየ።": 4355,
      "##ዞም": 4356,
      "##ኣት": 4357,
      "▁አንዱ": 4358,
      "▁9": 4359,
      "##ንቋ": 4360,
      "▁ዛሬ": 4361,
      "▁አለው": 4362,
      "##ምል": 4363,
      "▁ካልእ": 4364,
      "##ከፍ": 4365,
      "▁ይመስ": 4366,
      "##መራ": 4367,
      "▁መብ": 4368,
      "▁ተገ": 4369,
      "▁አው": 4370,
      "▁ይኹ": 4371,
      "▁ከመይ": 4372,
      "##ገኛ": 4373,
      "▁አንዳ": 4374,
      "##ንካ": 4375,
      "▁ነኝ": 4376,
      "▁ነፍ": 4377,
      "▁ኻ": 4378,
      "▁ጣ": 4379,
      "##ጠር": 4380,
      "▁እጅ": 4381,
      "##ርከብ": 4382,
      "▁ምል": 4383,
      "##ቤት": 4384,
      "▁በም": 4385,
      "▁ዩ": 4386,
      "▁ንግ": 4387,
      "##ሠራ": 4388,
      "##ላማ": 4389,
      "▁እምበር": 4390,
      "##ኛውም": 4391,
      "▁ኦ": 4392,
      "▁እነርሱ": 4393,
      "▁ንስኻ": 4394,
      "##ደይ": 4395,
      "##ቢያ": 4396,
      "▁በል": 4397,
      "##ን፡": 4398,
      "▁ነው?": 4399,
      "##ኖች": 4400,
      "▁ሁለ": 4401,
      "##ላው": 4402,
      "##ክር": 4403,
      "▁ከዚህ": 4404,
      "▁ንሓ": 4405,
      "##ይል": 4406,
      "##ሄድ": 4407,
      "▁ኤርት": 4408,
      "▁‹": 4409,
      "##ሄር": 4410,
      "▁ህይወት": 4411,
      "##ነታት": 4412,
      "▁ክልተ": 4413,
      "▁የት": 4414,
      "##ገው": 4415,
      "▁ምኽንያ": 4416,
      "##ሰን": 4417,
      "▁ሁለት": 4418,
      "##ድራ": 4419,
      "##ሞች": 4420,
      "##ያንዳን": 4421,
      "▁አባ": 4422,
      "▁ውድ": 4423,
      "▁M": 4424,
      "▁ተወ": 4425,
      "##ግባር": 4426,
      "▁እንደሆነ": 4427,
      "##በሉ": 4428,
      "##ግል": 4429,
      "▁ዕድ": 4430,
      "▁በእርግጥ": 4431,
      "##ኦት": 4432,
      "▁መለ": 4433,
      "▁በቀ": 4434,
      "▁ወን": 4435,
      "##ፈላጊ": 4436,
      "##ቀት": 4437,
      "▁ነበሩ": 4438,
      "▁ድም": 4439,
      "▁ሆይ": 4440,
      "##ለን።": 4441,
      "▁እንድ": 4442,
      "▁መጽሓፍ": 4443,
      "▁ኣዝ": 4444,
      "▁ተሰ": 4445,
      "▁ገዛ": 4446,
      "##ሬታ": 4447,
      "▁ቋ": 4448,
      "##ዊት": 4449,
      "▁ፕሮ": 4450,
      "##ገኘ": 4451,
      "##ሳሳይ": 4452,
      "▁ሕይወት": 4453,
      "##ዎት": 4454,
      "▁የእግዚአብሔር": 4455,
      "##የር": 4456,
      "▁የሱስ": 4457,
      "##ሕዝ": 4458,
      "##ግም": 4459,
      "▁ነገሮች": 4460,
      "▁ምድሪ": 4461,
      "▁ሕቶ": 4462,
      "##ማን": 4463,
      "##ራን": 4464,
      "##ማር": 4465,
      "▁ቡ": 4466,
      "▁ሰላም": 4467,
      "##ለኛ": 4468,
      "##ሰይ": 4469,
      "##ገን": 4470,
      "▁ይህንን": 4471,
      "▁ብዘይ": 4472,
      "▁ንሳ": 4473,
      "▁ያህል": 4474,
      "▁እኳ": 4475,
      "▁ፊ": 4476,
      "##ገም": 4477,
      "▁አስፈላጊ": 4478,
      "▁የመጀመሪያ": 4479,
      "##ትዮ": 4480,
      "▁12": 4481,
      "▁ዝመ": 4482,
      "##ቶችን": 4483,
      "▁C": 4484,
      "▁?": 4485,
      "▁ምክንያት": 4486,
      "▁ድማ፡": 4487,
      "▁በየ": 4488,
      "##ከኣ": 4489,
      "▁ተፈ": 4490,
      "▁ጭ": 4491,
      "▁ክርስቶስ": 4492,
      "▁ጐ": 4493,
      "▁\"አ": 4494,
      "##ነሱ": 4495,
      "▁ነይሩ።": 4496,
      "##ላቅ": 4497,
      "▁እንዲሁም": 4498,
      "##ላእ": 4499,
      "##ናል።": 4500,
      "▁ንዝ": 4501,
      "##:2": 4502,
      "▁አማ": 4503,
      "##ቦም": 4504,
      "##ሉን": 4505,
      "##er": 4506,
      "##ይና": 4507,
      "▁ፀ": 4508,
      "▁ኣይተ": 4509,
      "##ላዊ": 4510,
      "##በለጠ": 4511,
      "▁ትር": 4512,
      "##ሐፍ": 4513,
      "##ቡቕ": 4514,
      "##ቀመ": 4515,
      "▁አዲስ": 4516,
      "▁ሙሉ": 4517,
      "▁መጥ": 4518,
      "▁ሓንቲ": 4519,
      "▁እርስዎ": 4520,
      "▁መደ": 4521,
      "▁ልብ": 4522,
      "##መት": 4523,
      "▁ኣስ": 4524,
      "▁ይኽእል": 4525,
      "##ነትን": 4526,
      "##ረኽ": 4527,
      "##ክርስ": 4528,
      "##in": 4529,
      "▁በለ": 4530,
      "▁ንኽ": 4531,
      "▁ይሰ": 4532,
      "▁ሳይ": 4533,
      "▁15": 4534,
      "▁ምድር": 4535,
      "##ገልግሎት": 4536,
      "▁ንእ": 4537,
      "▁በታ": 4538,
      "##or": 4539,
      "##ድና": 4540,
      "##on": 4541,
      "▁ሰዓት": 4542,
      "##ሃን": 4543,
      "##ጠራ": 4544,
      "##ሙን": 4545,
      "▁መሆኑ": 4546,
      "▁18": 4547,
      "##ፍራ": 4548,
      "▁አንዳንድ": 4549,
      "##ወጣ": 4550,
      "##ሙሉ": 4551,
      "▁ማሕ": 4552,
      "##ልፍ": 4553,
      "▁ኰ": 4554,
      "##ብዙ": 4555,
      "▁ፍር": 4556,
      "▁ኣይኮነን።": 4557,
      "##ዘን": 4558,
      "▁ይህም": 4559,
      "##ቸው።": 4560,
      "▁ወንድ": 4561,
      "▁የማይ": 4562,
      "##እታ": 4563,
      "▁ኤርትራ": 4564,
      "▁ብሎ": 4565,
      "▁ዋጋ": 4566,
      "▁እንኳን": 4567,
      "##ሁሉም": 4568,
      "▁ኔ": 4569,
      "▁ቋንቋ": 4570,
      "▁11": 4571,
      "##ብረት": 4572,
      "▁ምዃኑ": 4573,
      "##ጀመር": 4574,
      "##ስም": 4575,
      "##ይድ": 4576,
      "##ምንታይ": 4577,
      "##ርባ": 4578,
      "##ዀነ": 4579,
      "▁መንግስቲ": 4580,
      "▁እዚህ": 4581,
      "##ሳዕ": 4582,
      "▁ይኹን": 4583,
      "▁ሓበ": 4584,
      "▁ለው": 4585,
      "##ቲካ": 4586,
      "##ሞክ": 4587,
      "##ከራ": 4588,
      "##ችኋ": 4589,
      "##ቻቸው": 4590,
      "▁ያል": 4591,
      "##ርና": 4592,
      "▁ሊሆን": 4593,
      "##ታትን": 4594,
      "▁ዘለዎ": 4595,
      "▁አያ": 4596,
      "▁ፓ": 4597,
      "▁ከምቲ": 4598,
      "▁ምሕ": 4599,
      "▁በዚያ": 4600,
      "##ደርጋ": 4601,
      "▁ዝግ": 4602,
      "##በራ": 4603,
      "▁ሓድ": 4604,
      "▁ተባ": 4605,
      "▁መጻ": 4606,
      "▁ሶ": 4607,
      "▁ክኸውን": 4608,
      "▁የበለጠ": 4609,
      "▁ናቸው።": 4610,
      "▁A": 4611,
      "▁ሓቂ": 4612,
      "##ያንዳንዱ": 4613,
      "##ብራ": 4614,
      "##ታቸው": 4615,
      "▁ምእንቲ": 4616,
      "▁ድር": 4617,
      "##መና": 4618,
      "▁ገይ": 4619,
      "##ትኩም": 4620,
      "##ታን": 4621,
      "##ኣብሔር": 4622,
      "▁ነቶም": 4623,
      "▁[": 4624,
      "▁እስራኤል": 4625,
      "##ውስ": 4626,
      "▁ሌሎች": 4627,
      "▁እንጂ": 4628,
      "▁በት": 4629,
      "▁ትምህርቲ": 4630,
      "▁የምት": 4631,
      "##ወን": 4632,
      "##ችንን": 4633,
      "##ገኙ": 4634,
      "##ረ።": 4635,
      "##ሱን": 4636,
      "▁ለምን": 4637,
      "▁ማዕ": 4638,
      "▁ኣየ": 4639,
      "##ባዊ": 4640,
      "▁ንሕና": 4641,
      "##ቀጥ": 4642,
      "▁ዘመን": 4643,
      "##ብለ": 4644,
      "▁ጽሑ": 4645,
      "##ስብ": 4646,
      "▁ቀዳ": 4647,
      "▁እያ።": 4648,
      "##ነርሱ": 4649,
      "▁አካ": 4650,
      "##ኝ።": 4651,
      "##ኩል": 4652,
      "▁ስለዝ": 4653,
      "▁ብዙሓት": 4654,
      "##ሰም": 4655,
      "▁ማእ": 4656,
      "▁እምነት": 4657,
      "##ዕል": 4658,
      "▁ከሚ": 4659,
      "▁ገና": 4660,
      "##ውሮ": 4661,
      "##ሕቲ": 4662,
      "▁ኣባ": 4663,
      "▁ዝኣ": 4664,
      "##ኾኑ": 4665,
      "▁እየተ": 4666,
      "▁በሎ": 4667,
      "▁ምናል": 4668,
      "▁መጠን": 4669,
      "▁14": 4670,
      "▁ምክንያቱም": 4671,
      "▁እንግ": 4672,
      "▁ፊት": 4673,
      "▁ለም": 4674,
      "##ሽን": 4675,
      "▁ሊያ": 4676,
      "▁ሰለ": 4677,
      "##ጉም": 4678,
      "▁ፋ": 4679,
      "##ረባ": 4680,
      "▁እዚኣ": 4681,
      "▁ገሊ": 4682,
      "▁ደኣ": 4683,
      "##ረድ": 4684,
      "##ዉ።": 4685,
      "▁አሳ": 4686,
      "##ሁንም": 4687,
      "##ገዳ": 4688,
      "##ያዊ": 4689,
      "▁ብኣ": 4690,
      "##ባንያ": 4691,
      "▁ሓበሬታ": 4692,
      "▁ውሽ": 4693,
      "##ትዮጵ": 4694,
      "##ነዚህ": 4695,
      "##ፋት": 4696,
      "▁\"የ": 4697,
      "##ማዕ": 4698,
      "##ቃሚ": 4699,
      "▁ተቐ": 4700,
      "▁ሽዑ": 4701,
      "##ጠት": 4702,
      "##ግደ": 4703,
      "##ቀው": 4704,
      "▁ኬ": 4705,
      "##ረም": 4706,
      "▁ይሆናል": 4707,
      "▁ሆኖ": 4708,
      "▁ኣሕ": 4709,
      "##ድሕ": 4710,
      "##ደሊ": 4711,
      "▁ከምዘ": 4712,
      "##ጠው": 4713,
      "▁ሁል": 4714,
      "##ላሉ": 4715,
      "##ርብ": 4716,
      "##ካም": 4717,
      "▁መረጃ": 4718,
      "▁ዝገ": 4719,
      "▁ዙ": 4720,
      "##ግን": 4721,
      "##ታል።": 4722,
      "▁በእው": 4723,
      "##ህም": 4724,
      "▁ዝበለ": 4725,
      "##ጥን": 4726,
      "##ሩት": 4727,
      "▁ሲሆን": 4728,
      "▁በአንድ": 4729,
      "##ስ፡": 4730,
      "▁ምናልባት": 4731,
      "##ኹ።": 4732,
      "▁ጽቡቕ": 4733,
      "##ክእ": 4734,
      "▁ያሉ": 4735,
      "▁አሁንም": 4736,
      "▁\"በ": 4737,
      "##ርነት": 4738,
      "▁እንዲያ": 4739,
      "▁መሆኑን": 4740,
      "##ሃብ": 4741,
      "##20": 4742,
      "▁ዝር": 4743,
      "##ቡር": 4744,
      "▁እኔም": 4745,
      "##ዶም": 4746,
      "##ለማ": 4747,
      "##ሩን": 4748,
      "##ተት": 4749,
      "▁ሄ": 4750,
      "##ርሲ": 4751,
      "▁አም": 4752,
      "▁ነበረ።": 4753,
      "▁ተመል": 4754,
      "##ፈላለ": 4755,
      "▁በቲ": 4756,
      "##ቂት": 4757,
      "##ለቲካ": 4758,
      "▁ሃገራት": 4759,
      "##ነሳ": 4760,
      "##ዋት": 4761,
      "▁እዛ": 4762,
      "##ፈልጉ": 4763,
      "##ኝነት": 4764,
      "▁ስርዓት": 4765,
      "##ኩ።": 4766,
      "▁ብኸ": 4767,
      "▁ነው,": 4768,
      "▁ጀምሮ": 4769,
      "▁መንፈስ": 4770,
      "##ራል": 4771,
      "▁+": 4772,
      "##ዘጋ": 4773,
      "▁ጻ": 4774,
      "▁እንደገና": 4775,
      "▁ለሚ": 4776,
      "▁S": 4777,
      "##ሥራ": 4778,
      "▁ወቅ": 4779,
      "##'ቲ": 4780,
      "▁በሰ": 4781,
      "##ህበ": 4782,
      "##ቤተ": 4783,
      "▁መዝ": 4784,
      "##ዛረብ": 4785,
      "▁ዋና": 4786,
      "##ጥሮ": 4787,
      "##ዋታ": 4788,
      "▁ብት": 4789,
      "▁ፍል": 4790,
      "▁ቪ": 4791,
      "▁ካብቲ": 4792,
      "▁ከዚያም": 4793,
      "##ያቄ": 4794,
      "▁የለም": 4795,
      "▁ኵሉ": 4796,
      "##ገዝ": 4797,
      "▁ካልኦት": 4798,
      "▁ምዕ": 4799,
      "▁የል": 4800,
      "##ሆዋ": 4801,
      "▁የሰ": 4802,
      "##ከታ": 4803,
      "##መድ": 4804,
      "▁ከፍተኛ": 4805,
      "##ቅስ": 4806,
      "##ገዛ": 4807,
      "##ጢአ": 4808,
      "▁ዝኸ": 4809,
      "##ደጋ": 4810,
      "▁ትምህርት": 4811,
      "##በቅ": 4812,
      "##ካን": 4813,
      "##ናገር": 4814,
      "▁ነይሩ": 4815,
      "##ክክ": 4816,
      "##ኣብሄር": 4817,
      "▁ይሄ": 4818,
      "##ግና": 4819,
      "##ጠና": 4820,
      "▁እሞ፡": 4821,
      "##ነግ": 4822,
      "##ራስ": 4823,
      "##ዳት": 4824,
      "##ይቲ": 4825,
      "▁ቴ": 4826,
      "▁200": 4827,
      "##እን": 4828,
      "▁‹‹": 4829,
      "▁13": 4830,
      "##ሞት": 4831,
      "▁ሕማ": 4832,
      "▁ኢን": 4833,
      "##ውል": 4834,
      "▁ድን": 4835,
      "##እቲ": 4836,
      "▁እግዚኣብሔር": 4837,
      "▁ተራ": 4838,
      "##ደኛ": 4839,
      "▁በፍ": 4840,
      "▁ኻብ": 4841,
      "▁ምሳ": 4842,
      "##ዲያ": 4843,
      "▁ነገራት": 4844,
      "##ሉእ": 4845,
      "##ወድ": 4846,
      "##ነብር": 4847,
      "▁ሞት": 4848,
      "##ዳር": 4849,
      "▁ሁሉንም": 4850,
      "##ስተኛ": 4851,
      "▁ኩባንያ": 4852,
      "▁ኣለዎ።": 4853,
      "▁ሰማይ": 4854,
      "▁ወለ": 4855,
      "##ስና": 4856,
      "##ከር": 4857,
      "▁/": 4858,
      "▁መወዳ": 4859,
      "##ነፍ": 4860,
      "##ሻለ": 4861,
      "##ለያዩ": 4862,
      "##ሪዎች": 4863,
      "##ትዮጵያ": 4864,
      "##ነበሩ": 4865,
      "##ሕግ": 4866,
      "##በላ": 4867,
      "▁ህዝብ": 4868,
      "▁ውጤ": 4869,
      "▁መጽሐፍ": 4870,
      "##ወለ": 4871,
      "▁ከሎ": 4872,
      "##ርሕ": 4873,
      "##ቲያን": 4874,
      "##ፈልግ": 4875,
      "##ሳዊ": 4876,
      "▁ተቀ": 4877,
      "▁አብዛ": 4878,
      "##ስዕ": 4879,
      "▁ተሓ": 4880,
      "▁ክፍል": 4881,
      "##ቡ።": 4882,
      "▁እርሱም": 4883,
      "##ንታ": 4884,
      "▁በሙሉ": 4885,
      "▁ብፍ": 4886,
      "##ወር": 4887,
      "▁በረ": 4888,
      "▁እውነ": 4889,
      "##ዛረ": 4890,
      "##ሉ.": 4891,
      "▁ኢኻ።": 4892,
      "▁ጥያቄ": 4893,
      "▁ኣእ": 4894,
      "##ኒቨ": 4895,
      "▁ብል": 4896,
      "##በሮ": 4897,
      "▁ኖ": 4898,
      "##ምለ": 4899,
      "##ሬት": 4900,
      "▁ምም": 4901,
      "##ዝር": 4902,
      "##በይቲ": 4903,
      "▁ሒ": 4904,
      "▁ተዋ": 4905,
      "▁ቀላል": 4906,
      "▁ተመሳሳይ": 4907,
      "##ክን": 4908,
      "▁17": 4909,
      "##ጠቃ": 4910,
      "##ዕና": 4911,
      "##መው": 4912,
      "▁ኣዝዩ": 4913,
      "##ስራኤል": 4914,
      "▁የምን": 4915,
      "##ገኝ": 4916,
      "▁16": 4917,
      "##ችሉ": 4918,
      "##ጌታ": 4919,
      "##ዳም": 4920,
      "▁ታላቅ": 4921,
      "##an": 4922,
      "##ተሓ": 4923,
      "##ደው": 4924,
      "▁ደስ": 4925,
      "▁ስራ": 4926,
      "▁ሜ": 4927,
      "▁ልክ": 4928,
      "▁ብተ": 4929,
      "▁ይሁን": 4930,
      "▁አቀ": 4931,
      "##::": 4932,
      "##ላህ": 4933,
      "##ሆንም": 4934,
      "##ሰት": 4935,
      "##ባብ": 4936,
      "##ድም": 4937,
      "▁ፍቕ": 4938,
      "▁በዓል": 4939,
      "▁ኽት": 4940,
      "##ህዝ": 4941,
      "##ሁኑ": 4942,
      "##ለፈ": 4943,
      "▁በሌ": 4944,
      "▁ወይስ": 4945,
      "##ቻችን": 4946,
      "▁በተጨማሪ": 4947,
      "▁ማንም": 4948,
      "▁ኣው": 4949,
      "##ማኖ": 4950,
      "##ንና": 4951,
      "##'የ": 4952,
      "▁አለበት": 4953,
      "▁ባዕ": 4954,
      "▁መሳ": 4955,
      "##ላ።": 4956,
      "▁ወቅት": 4957,
      "▁መልእ": 4958,
      "##en": 4959,
      "▁አልተ": 4960,
      "##ም.": 4961,
      "▁P": 4962,
      "▁ንመ": 4963,
      "##ነብ": 4964,
      "▁መወዳእታ": 4965,
      "▁ተጨማሪ": 4966,
      "##ቢት": 4967,
      "##ኽቲ": 4968,
      "▁ኩነታት": 4969,
      "##ጸን": 4970,
      "▁በዓለም": 4971,
      "▁ማስ": 4972,
      "▁ሰማ": 4973,
      "##ገብሮ": 4974,
      "##ኰነ": 4975,
      "##ነገ": 4976,
      "▁እጅግ": 4977,
      "▁!": 4978,
      "##ሶም": 4979,
      "▁ትንሽ": 4980,
      "##ግባእ": 4981,
      "##ርኢ": 4982,
      "▁\"ኣ": 4983,
      "##ለየ": 4984,
      "▁ገጽ": 4985,
      "▁መግለ": 4986,
      "##ፈራ": 4987,
      "##ዲህ": 4988,
      "▁ትልቅ": 4989,
      "##ፍን": 4990,
      "▁ምርጫ": 4991,
      "▁ኣብኡ": 4992,
      "##ውሰ": 4993,
      "▁ሙሴ": 4994,
      "▁ክብ": 4995,
      "##ራሳ": 4996,
      "▁ነበር.": 4997,
      "##ጠቀ": 4998,
      "##ለም።": 4999,
      "▁ስን": 5000,
      "##ከውን": 5001,
      "▁ጀሚ": 5002,
      "##ብኝ": 5003,
      "##ከቱ": 5004,
      "▁መተ": 5005,
      "##ሆና": 5006,
      "▁በጥ": 5007,
      "▁ተጋ": 5008,
      "▁ሃይ": 5009,
      "▁ውን": 5010,
      "▁ዝም": 5011,
      "▁የሚያስ": 5012,
      "▁ሆኖም": 5013,
      "▁ሰዓ": 5014,
      "##ምት": 5015,
      "▁ልዩ": 5016,
      "▁ድዩ": 5017,
      "##ደረገ": 5018,
      "▁ደን": 5019,
      "▁ለማድረግ": 5020,
      "##መረ": 5021,
      "▁መልካም": 5022,
      "▁የታ": 5023,
      "##ኹሉ": 5024,
      "##ይቶ": 5025,
      "▁ኣካ": 5026,
      "##ፋል": 5027,
      "##ሳስ": 5028,
      "▁ሴት": 5029,
      "##ቷል": 5030,
      "▁ስለሆነ": 5031,
      "##000": 5032,
      "##ነጋ": 5033,
      "##ሳተ": 5034,
      "▁ይብ": 5035,
      "▁ጨዋታ": 5036,
      "##ርክ": 5037,
      "▁ከባ": 5038,
      "▁30": 5039,
      "##ዳይ": 5040,
      "▁የሆዋ": 5041,
      "##ጥነት": 5042,
      "▁ውሳ": 5043,
      "##ሊዝ": 5044,
      "▁ብእ": 5045,
      "▁ፍላ": 5046,
      "##ዉን": 5047,
      "##ዮች": 5048,
      "##ኪና": 5049,
      "##ቻል": 5050,
      "▁ለማግኘት": 5051,
      "▁ማይ": 5052,
      "##ዮም።": 5053,
      "##ቃል": 5054,
      "▁ሪ": 5055,
      "##ሳን": 5056,
      "##ፍቲ": 5057,
      "▁ስት": 5058,
      "▁ያለውን": 5059,
      "▁ሓይ": 5060,
      "##ዲዮ": 5061,
      "##ለመ": 5062,
      "##ደግ": 5063,
      "▁እሷ": 5064,
      "##ችንም": 5065,
      "##ዎም።": 5066,
      "##ላል።": 5067,
      "▁ፍቅር": 5068,
      "▁ዩኒቨ": 5069,
      "▁ነው፤": 5070,
      "▁...": 5071,
      "▁T": 5072,
      "▁ስድራ": 5073,
      "▁ብስ": 5074,
      "▁ዜና": 5075,
      "##ኖራ": 5076,
      "##ፈልጦ": 5077,
      "▁መገዲ": 5078,
      "##ዅሉ": 5079,
      "▁ምት": 5080,
      "##ዕቲ": 5081,
      "▁እግዚኣብሄር": 5082,
      "##መኑ": 5083,
      "▁ወላ": 5084,
      "▁መሠ": 5085,
      "▁24": 5086,
      "▁እውነት": 5087,
      "▁የእርስዎ": 5088,
      "▁ይሆና": 5089,
      "##ጹም": 5090,
      "##ረጋገ": 5091,
      "##፡-": 5092,
      "##ምረ": 5093,
      "▁ዝዓ": 5094,
      "##ፈጠ": 5095,
      "▁ንዘ": 5096,
      "##ግበ": 5097,
      "##ም፤": 5098,
      "##ው።": 5099,
      "##ካ።": 5100,
      "▁ቀናት": 5101,
      "##ፍር": 5102,
      "##ማል": 5103,
      "##ዛት": 5104,
      "▁ነን": 5105,
      "▁ክፉ": 5106,
      "##ኽእሉ": 5107,
      "##ar": 5108,
      "##19": 5109,
      "##እዛ": 5110,
      "▁ኣል": 5111,
      "▁የው": 5112,
      "##st": 5113,
      "▁ይበል": 5114,
      "##ቀድ": 5115,
      "##ቅድ": 5116,
      "▁ኲ": 5117,
      "▁ቐ": 5118,
      "##ፖርት": 5119,
      "##ራብ": 5120,
      "▁ማግኘት": 5121,
      "##ቹን": 5122,
      "▁ኢሎም": 5123,
      "▁ስለምንታይ": 5124,
      "##ላን": 5125,
      "##at": 5126,
      "▁ሕጊ": 5127,
      "##le": 5128,
      "▁ዝወ": 5129,
      "▁ግና፡": 5130,
      "##ቡን": 5131,
      "##ኖሩ": 5132,
      "##ጠብ": 5133,
      "▁ገበ": 5134,
      "##ሊት": 5135,
      "##ፍለ": 5136,
      "▁ግንኙ": 5137,
      "##ርሲቲ": 5138,
      "▁ነብ": 5139,
      "▁እንዳለ": 5140,
      "▁አጋ": 5141,
      "▁ወረ": 5142,
      "▁ዕድል": 5143,
      "▁ሱ": 5144,
      "▁ፖለቲካ": 5145,
      "▁ናት": 5146,
      "▁ኣጋ": 5147,
      "▁ተኣ": 5148,
      "▁ሰለስተ": 5149,
      "▁መሪ": 5150,
      "##:3": 5151,
      "##ከና": 5152,
      "▁ንጉስ": 5153,
      "▁ጥቅም": 5154,
      "▁ለዚህ": 5155,
      "##ደርግ": 5156,
      "##ወሰነ": 5157,
      "▁ልም": 5158,
      "▁ጥራሕ": 5159,
      "##ታችን": 5160,
      "▁ነጻ": 5161,
      "▁በሕ": 5162,
      "##ሙር": 5163,
      "##ቂያ": 5164,
      "▁ፍላጎ": 5165,
      "▁እንተኾነ": 5166,
      "▁ኣመ": 5167,
      "▁ፈቃ": 5168,
      "##ሮም።": 5169,
      "##ጥፍ": 5170,
      "▁መድረ": 5171,
      "##ኽእል።": 5172,
      "▁ጳ": 5173,
      "##ከለ": 5174,
      "##ህና": 5175,
      "▁ይፈልጋ": 5176,
      "▁ያውቃ": 5177,
      "##ተኞች": 5178,
      "▁ኣቢ": 5179,
      "▁ግል": 5180,
      "##ክስ": 5181,
      "##ዘር": 5182,
      "▁መንገ": 5183,
      "▁በኢ": 5184,
      "▁ክሳዕ": 5185,
      "▁ሓድሽ": 5186,
      "▁የስ": 5187,
      "##ራዊት": 5188,
      "##ንዳ": 5189,
      "##ዋ።": 5190,
      "##ኹም።": 5191,
      "▁ናይቲ": 5192,
      "▁በር": 5193,
      "##ኣን": 5194,
      "▁25": 5195,
      "▁ምኽንያት": 5196,
      "##ተና": 5197,
      "##ባህ": 5198,
      "▁እያንዳንዱ": 5199,
      "▁ኣገዳ": 5200,
      "▁በስ": 5201,
      "##ጣል": 5202,
      "▁ኣም": 5203,
      "##ሰርሕ": 5204,
      "##ቸዋ": 5205,
      "##ጥም": 5206,
      "▁ዝዀነ": 5207,
      "▁ሮ": 5208,
      "▁አይደለም።": 5209,
      "▁አለ።": 5210,
      "▁ይችላል።": 5211,
      "##ዩ።": 5212,
      "##መለስ": 5213,
      "▁ጽሑፍ": 5214,
      "▁ኣት": 5215,
      "▁ጐይታ": 5216,
      "##ሮችን": 5217,
      "▁ተማሪ": 5218,
      "▁ኢለ": 5219,
      "##ረኣ": 5220,
      "▁አገ": 5221,
      "##ርግጠ": 5222,
      "##ችሁን": 5223,
      "▁ቻ": 5224,
      "##ከም": 5225,
      "##ና፡": 5226,
      "▁በደ": 5227,
      "▁የኢ": 5228,
      "▁ችግር": 5229,
      "##መጽእ": 5230,
      "▁ሰይ": 5231,
      "##ያዳ": 5232,
      "▁መላእ": 5233,
      "##ምራ": 5234,
      "▁ከለ": 5235,
      "▁ታሪኽ": 5236,
      "▁ብኸመይ": 5237,
      "##ሊዮን": 5238,
      "▁ፍት": 5239,
      "##ጠፋ": 5240,
      "▁ይችላሉ.": 5241,
      "▁ብርሃን": 5242,
      "▁ዓብ": 5243,
      "▁ይልቅ": 5244,
      "##አን": 5245,
      "##ገነ": 5246,
      "▁ስብ": 5247,
      "##ጽሕ": 5248,
      "##ልእ": 5249,
      "▁ኢትዮጵያ": 5250,
      "##ይት": 5251,
      "▁ብዬ": 5252,
      "##ኑን": 5253,
      "▁ዘለዉ": 5254,
      "▁ከባቢ": 5255,
      "##ናዮ": 5256,
      "▁የእኔ": 5257,
      "▁ወርሒ": 5258,
      "▁ነበሩ።": 5259,
      "▁ኣድ": 5260,
      "##ግደፍ": 5261,
      "##ፈጸ": 5262,
      "▁ክንደይ": 5263,
      "▁ዓቢ": 5264,
      "▁መዓ": 5265,
      "##ጅም": 5266,
      "▁ውሽጢ": 5267,
      "▁ምው": 5268,
      "##ምነት": 5269,
      "▁አላህ": 5270,
      "##ሞም": 5271,
      "##ጠቀም": 5272,
      "▁በኩል": 5273,
      "##ከላ": 5274,
      "▁ልጆ": 5275,
      "▁ዋላ": 5276,
      "▁ይገባ": 5277,
      "##ክክል": 5278,
      "▁ኢኹም": 5279,
      "▁ስደ": 5280,
      "▁ቀደም": 5281,
      "##ለወ": 5282,
      "##ች።": 5283,
      "##ገቡ": 5284,
      "▁ሠ": 5285,
      "▁ብለው": 5286,
      "##ሎም።": 5287,
      "##ዳል": 5288,
      "▁ደር": 5289,
      "▁ደቀ": 5290,
      "▁ኢልካ": 5291,
      "##ገደ": 5292,
      "▁ዳዊት": 5293,
      "▁ነፃ": 5294,
      "▁ታሪክ": 5295,
      "▁መንእ": 5296,
      "##ቸውም": 5297,
      "▁ዕለት": 5298,
      "##ረኸ": 5299,
      "▁(አ": 5300,
      "▁በእግዚአብሔር": 5301,
      "##ስማ": 5302,
      "▁መድ": 5303,
      "##ሕት": 5304,
      "▁የተሻለ": 5305,
      "##ተኛታት": 5306,
      "▁ትግ": 5307,
      "▁ኣይን": 5308,
      "▁N": 5309,
      "##ኛል": 5310,
      "▁መንግሥ": 5311,
      "▁ምሉእ": 5312,
      "##ሪያዎች": 5313,
      "##ሎጂ": 5314,
      "▁የሕ": 5315,
      "▁ተግባ": 5316,
      "▁ተነ": 5317,
      "▁ዐ": 5318,
      "▁ንሳቶም": 5319,
      "▁ኣለዉ።": 5320,
      "##ረክብ": 5321,
      "##የው": 5322,
      "▁ፖሊ": 5323,
      "##ሜን": 5324,
      "▁መንጎ": 5325,
      "▁I": 5326,
      "##ፈው": 5327,
      "##ውሎ": 5328,
      "▁ዓዲ": 5329,
      "▁እነሆ": 5330,
      "▁ጸሎት": 5331,
      "##ቆም": 5332,
      "##ራሱ": 5333,
      "▁ማየት": 5334,
      "##ጠይ": 5335,
      "▁ነህ": 5336,
      "##ሰል": 5337,
      "##ግለ": 5338,
      "▁ክብል": 5339,
      "▁ወሲ": 5340,
      "▁ከነ": 5341,
      "▁በተጨማሪም": 5342,
      "##ጠሩ": 5343,
      "##ሓን": 5344,
      "##በኛ": 5345,
      "##it": 5346,
      "▁ጀመ": 5347,
      "▁ከማ": 5348,
      "▁እዞም": 5349,
      "##ተኛው": 5350,
      "▁\"ን": 5351,
      "##በው": 5352,
      "##ገብረ": 5353,
      "▁ቃላት": 5354,
      "▁ኪዳን": 5355,
      "▁ሩ": 5356,
      "▁እንደተ": 5357,
      "▁ዘይተ": 5358,
      "##ምስ": 5359,
      "##ያል": 5360,
      "##ደርጉ": 5361,
      "##ወል": 5362,
      "▁ትኽእል": 5363,
      "▁አላቸው": 5364,
      "▁ሴቶች": 5365,
      "▁23": 5366,
      "▁ንገ": 5367,
      "▁እነርሱም": 5368,
      "##ካብ": 5369,
      "▁ነታ": 5370,
      "##ባሕ": 5371,
      "##ሁለ": 5372,
      "▁ያሳ": 5373,
      "##ራሽ": 5374,
      "##ct": 5375,
      "##ርመን": 5376,
      "▁ሁልጊዜ": 5377,
      "▁ካብዚ": 5378,
      "##ጽል": 5379,
      "##ምንት": 5380,
      "▁ይኸውን": 5381,
      "##ያንስ": 5382,
      "▁ሕዝብ": 5383,
      "▁ህይወ": 5384,
      "##ጣሚ": 5385,
      "▁ነው!": 5386,
      "##ጠን": 5387,
      "##ለዋ": 5388,
      "▁ዳር": 5389,
      "##ቀል": 5390,
      "▁ምርጥ": 5391,
      "▁ነጥ": 5392,
      "##ላንድ": 5393,
      "##ሰባ": 5394,
      "##ናዊ": 5395,
      "▁ለተ": 5396,
      "▁የብሉ": 5397,
      "▁ተዓ": 5398,
      "▁ዩኒቨርሲቲ": 5399,
      "##ክምና": 5400,
      "##ወይ": 5401,
      "▁መመ": 5402,
      "▁R": 5403,
      "▁ፎ": 5404,
      "▁ምህ": 5405,
      "▁21": 5406,
      "##ድልየ": 5407,
      "▁ቁጥር": 5408,
      "▁ናቸው.": 5409,
      "##ደስ": 5410,
      "##በቃ": 5411,
      "▁በመጨረሻ": 5412,
      "▁ኣይኮነን": 5413,
      "##ቸዋል።": 5414,
      "▁የቀ": 5415,
      "▁ደገ": 5416,
      "▁ኣይኮ": 5417,
      "▁እዩ፡": 5418,
      "##ኞቹ": 5419,
      "▁ዘር": 5420,
      "▁ሚኒ": 5421,
      "##ዋር": 5422,
      "##ገልጽ": 5423,
      "##ቻቸውን": 5424,
      "▁ቢሆን": 5425,
      "▁ብሓቂ": 5426,
      "▁እነዚህን": 5427,
      "▁ትእዛ": 5428,
      "▁22": 5429,
      "▁ስፍራ": 5430,
      "▁ከሌ": 5431,
      "▁ፍቕሪ": 5432,
      "▁ማወቅ": 5433,
      "##ሜት": 5434,
      "▁ስጋ": 5435,
      "▁ምግ": 5436,
      "##ወስድ": 5437,
      "▁ጥቂት": 5438,
      "▁ሃይማኖ": 5439,
      "##ያ።": 5440,
      "▁ዝነበሩ": 5441,
      "▁ምፍ": 5442,
      "▁አለው።": 5443,
      "##ደና": 5444,
      "##ዱ።": 5445,
      "▁በብ": 5446,
      "##ድካ": 5447,
      "##ትያን": 5448,
      "##ቸዋል": 5449,
      "▁ሓይሊ": 5450,
      "##ረጋግ": 5451,
      "▁ሲያ": 5452,
      "##በትን": 5453,
      "##ዋቂ": 5454,
      "##ስትሪ": 5455,
      "▁ተባሂ": 5456,
      "▁ህግደፍ": 5457,
      "▁መጺ": 5458,
      "▁ስነ": 5459,
      "##ልኩም": 5460,
      "▁በተለይ": 5461,
      "##ጻኢ": 5462,
      "▁ክህ": 5463,
      "##ደለ": 5464,
      "##መጡ": 5465,
      "##ርካታ": 5466,
      "▁ዙሪያ": 5467,
      "▁ይችላል.": 5468,
      "##ጥታ": 5469,
      "▁የብ": 5470,
      "##ጽን": 5471,
      "▁አልነበረ": 5472,
      "▁ብድ": 5473,
      "##ደረግ": 5474,
      "▁ኣይነበረ": 5475,
      "▁እባ": 5476,
      "▁ንዕ": 5477,
      "▁ወዳ": 5478,
      "▁ብዘ": 5479,
      "▁መልክ": 5480,
      "##ሰቡ": 5481,
      "▁ቢያንስ": 5482,
      "▁መልሲ": 5483,
      "##ዛብ": 5484,
      "▁እኮ": 5485,
      "▁ኸኣ፡": 5486,
      "##ጥረት": 5487,
      "▁ሃብ": 5488,
      "▁ዘይኮነ": 5489,
      "▁ትዕ": 5490,
      "##ግበር": 5491,
      "▁ዘላ": 5492,
      "##ሽተ": 5493,
      "##ኻትኩም": 5494,
      "##ቅን": 5495,
      "▁ዝተፈላለ": 5496,
      "▁ሦ": 5497,
      "▁ከሰ": 5498,
      "▁ዘይት": 5499,
      "##ችልም": 5500,
      "▁ኣገዳሲ": 5501,
      "##የን": 5502,
      "##ou": 5503,
      "##ንግድ": 5504,
      "▁B": 5505,
      "##'ዶ": 5506,
      "▁ኪኸውን": 5507,
      "##ታማ": 5508,
      "▁እድ": 5509,
      "▁ይቀ": 5510,
      "##ሮን": 5511,
      "▁ሓሳብ": 5512,
      "##ልዑ": 5513,
      "▁የተለያዩ": 5514,
      "▁ምኽንያቱ": 5515,
      "##በኣ": 5516,
      "##ልክ": 5517,
      "▁ንደ": 5518,
      "▁ይታ": 5519,
      "▁ፍሉ": 5520,
      "##ቦት": 5521,
      "▁ፅ": 5522,
      "##ዕን": 5523,
      "##....": 5524,
      "▁ስልጣን": 5525,
      "##ደረጉ": 5526,
      "##ሕን": 5527,
      "▁(1": 5528,
      "▁ኩሎም": 5529,
      "##ዓተ": 5530,
      "##ኻን": 5531,
      "▁አዳ": 5532,
      "▁ሻ": 5533,
      "▁ኃይል": 5534,
      "##ድሊ": 5535,
      "##ውንም": 5536,
      "▁ሓገዝ": 5537,
      "▁ዘመ": 5538,
      "▁ተረ": 5539,
      "▁G": 5540,
      "▁በምድር": 5541,
      "▁ከባድ": 5542,
      "##ገራ": 5543,
      "▁ተማ": 5544,
      "##ላሽ": 5545,
      "##ምኑ": 5546,
      "▁መንገዲ": 5547,
      "▁የእኛ": 5548,
      "##ጥረ": 5549,
      "▁አገልግሎት": 5550,
      "##ክኖ": 5551,
      "##ገት": 5552,
      "##ልቁ": 5553,
      "▁መሬት": 5554,
      "##ታቸውን": 5555,
      "##ውሰድ": 5556,
      "▁ከኣ፡": 5557,
      "##ይነ": 5558,
      "##ሚያ": 5559,
      "▁ኃጢአ": 5560,
      "##ፈልጡ": 5561,
      "▁E": 5562,
      "▁አካባቢ": 5563,
      "##ንድን": 5564,
      "▁እርስ": 5565,
      "##ባኤ": 5566,
      "▁መራ": 5567,
      "▁የወ": 5568,
      "▁ቢሆንም": 5569,
      "##ገልግሎ": 5570,
      "##ራሲ": 5571,
      "▁ለእኔ": 5572,
      "##ውሮፓ": 5573,
      "▁ወሰ": 5574,
      "▁ዞ": 5575,
      "▁መዛ": 5576,
      "##ንኛውም": 5577,
      "▁Me": 5578,
      "##ዙይ": 5579,
      "##ከኣል": 5580,
      "▁W": 5581,
      "##ኢት": 5582,
      "▁ጆ": 5583,
      "▁ምግብ": 5584,
      "##ለሁ፤": 5585,
      "##ንኩ": 5586,
      "##ሓይ": 5587,
      "##ሩሳሌ": 5588,
      "▁ይፈ": 5589,
      "▁ምሳሌ": 5590,
      "▁የሰው": 5591,
      "▁ይኸ": 5592,
      "▁ብሕ": 5593,
      "##ህይወት": 5594,
      "##ከብ": 5595,
      "▁ፕሮግራ": 5596,
      "##ንብ": 5597,
      "##ረበ": 5598,
      "##ሰበ": 5599,
      "▁ፍጹም": 5600,
      "##ቡብ": 5601,
      "##ካየ": 5602,
      "▁በእርሱ": 5603,
      "▁ኳ": 5604,
      "▁*": 5605,
      "##ጸል": 5606,
      "▁ጾ": 5607,
      "##ቱ።": 5608,
      "▁ይብል": 5609,
      "##ሳኺ": 5610,
      "##ዋዕ": 5611,
      "▁የለን።": 5612,
      "▁ዘየ": 5613,
      "##ለፍ": 5614,
      "▁ንላ": 5615,
      "##ገብሩ": 5616,
      "▁መጨረሻ": 5617,
      "##››": 5618,
      "▁ሰብኣይ": 5619,
      "▁ክርስቲያን": 5620,
      "▁መኪና": 5621,
      "▁ትርጉም": 5622,
      "##ጻእ": 5623,
      "##ic": 5624,
      "##:-": 5625,
      "▁ደም": 5626,
      "##ብዛ": 5627,
      "##ለስ": 5628,
      "▁ከእርሱ": 5629,
      "▁ግንኙነት": 5630,
      "▁ሲል": 5631,
      "▁ይስ": 5632,
      "##ምጃ": 5633,
      "▁እዩ\"": 5634,
      "▁በርካታ": 5635,
      "▁ዝኽእል": 5636,
      "▁ጦ": 5637,
      "▁ይዘ": 5638,
      "##ሪት": 5639,
      "##መስል": 5640,
      "##,000": 5641,
      "##al": 5642,
      "▁ኣብታ": 5643,
      "▁ተኸ": 5644,
      "##ስታት": 5645,
      "▁ብመ": 5646,
      "##ለች።": 5647,
      "▁መጀመሪያ": 5648,
      "▁እስኪ": 5649,
      "▁መሠረት": 5650,
      "##ዊሕ": 5651,
      "▁እወ": 5652,
      "▁ተደ": 5653,
      "##ያዝ": 5654,
      "▁አካል": 5655,
      "▁ማህ": 5656,
      "##ብጻ": 5657,
      "##ሃር": 5658,
      "▁ሓላ": 5659,
      "▁ተጠቃሚ": 5660,
      "▁26": 5661,
      "##ርያም": 5662,
      "##ro": 5663,
      "▁ውጭ": 5664,
      "▁መቼ": 5665,
      "##ሁለት": 5666,
      "##ጤና": 5667,
      "▁ሳይሆን": 5668,
      "▁ዝሓለፈ": 5669,
      "▁ክብር": 5670,
      "▁ተዛ": 5671,
      "##ክኖሎጂ": 5672,
      "▁ናብቲ": 5673,
      "▁መቀ": 5674,
      "##ምበር": 5675,
      "##ሓደ": 5676,
      "▁ነፍሲ": 5677,
      "▁ጸኒ": 5678,
      "▁(እ": 5679,
      "▁ደው": 5680,
      "▁ምጽ": 5681,
      "##በየ": 5682,
      "##ውቅ": 5683,
      "##ስር": 5684,
      "▁ኣገልግሎት": 5685,
      "▁ጸጋ": 5686,
      "##ጫወት": 5687,
      "▁በለ።": 5688,
      "##ሃም": 5689,
      "▁አሉ።": 5690,
      "▁መብዛ": 5691,
      "##ኩም።": 5692,
      "▁የነበረ": 5693,
      "▁ኣይኰነ": 5694,
      "▁እሱን": 5695,
      "##ናግ": 5696,
      "▁እንስ": 5697,
      "▁መጣ": 5698,
      "##ጠል": 5699,
      "▁ሰም": 5700,
      "##ደገ": 5701,
      "▁ቀዳማይ": 5702,
      "##ሁዳ": 5703,
      "##ሪክ": 5704,
      "▁ንሰ": 5705,
      "##ላር": 5706,
      "##ነበር": 5707,
      "▁ይመ": 5708,
      "##ቴን": 5709,
      "##ይህ": 5710,
      "##ጠቃላይ": 5711,
      "##ጋና": 5712,
      "##ቀኑ": 5713,
      "▁አገር": 5714,
      "▁ጳውሎ": 5715,
      "▁ምልክት": 5716,
      "##ብዎ": 5717,
      "##ዮ።": 5718,
      "▁ትክክ": 5719,
      "▁ችግ": 5720,
      "##ካት": 5721,
      "##ገልጋ": 5722,
      "##ያውቁ": 5723,
      "##ዘላ": 5724,
      "▁አቀፍ": 5725,
      "▁ጣቢያ": 5726,
      "##ሻሻ": 5727,
      "##ሎ።": 5728,
      "##ኩት": 5729,
      "##ረፈ": 5730,
      "▁ፍቓ": 5731,
      "##ዝን": 5732,
      "▁ባል": 5733,
      "▁እዩ፣": 5734,
      "##ዛሬ": 5735,
      "▁አታ": 5736,
      "▁ጃ": 5737,
      "▁እግዚአብሔርን": 5738,
      "▁ኢየ": 5739,
      "▁መሰል": 5740,
      "▁ነቢ": 5741,
      "##ሃል።": 5742,
      "▁መፍት": 5743,
      "▁ኣኼ": 5744,
      "▁ለምሳሌ": 5745,
      "▁አሜሪካ": 5746,
      "##ል?": 5747,
      "##ጋዊ": 5748,
      "##ጽዕ": 5749,
      "▁ይገኛ": 5750,
      "▁ኢኹም።": 5751,
      "▁Cor": 5752,
      "##ዚቃ": 5753,
      "▁ትሕቲ": 5754,
      "▁ጥር": 5755,
      "##oo": 5756,
      "▁D": 5757,
      "▁ይቕ": 5758,
      "▁አፍ": 5759,
      "▁አቅ": 5760,
      "▁\"ከ": 5761,
      "▁t": 5762,
      "▁ወከፍ": 5763,
      "##ሕር": 5764,
      "##ካይ": 5765,
      "▁ንላዕሊ": 5766,
      "▁ጫ": 5767,
      "▁እርምጃ": 5768,
      "##ንት": 5769,
      "▁እፈልጋ": 5770,
      "▁ከእናንተ": 5771,
      "▁ዀ": 5772,
      "##ታቶም": 5773,
      "##ኝም": 5774,
      "##ድቅ": 5775,
      "##ሲ፡": 5776,
      "##ስቡ": 5777,
      "##ቆብ": 5778,
      "▁ሰነ": 5779,
      "▁ይቅር": 5780,
      "##ራ።": 5781,
      "▁የሚሰ": 5782,
      "##ፈስ": 5783,
      "▁ፕሮጀ": 5784,
      "▁መደብ": 5785,
      "▁ይላል": 5786,
      "▁ይሆናል።": 5787,
      "##ሩሳሌም": 5788,
      "##ጋሪ": 5789,
      "▁የሌ": 5790,
      "▁ማንኛውም": 5791,
      "▁ሕግ": 5792,
      "▁ቅር": 5793,
      "▁ሰበይቲ": 5794,
      "##ልዓ": 5795,
      "▁ተሳ": 5796,
      "▁አባት": 5797,
      "▁ሓቢ": 5798,
      "▁ከቢ": 5799,
      "▁ሺ": 5800,
      "##ብላ": 5801,
      "##ከሰ": 5802,
      "▁ንድ": 5803,
      "▁ኣለዎ": 5804,
      "▁ወጻኢ": 5805,
      "▁ውሳኔ": 5806,
      "▁ኣበይ": 5807,
      "▁የባ": 5808,
      "▁ዝርዝር": 5809,
      "▁በዓ": 5810,
      "▁እንተዘይ": 5811,
      "▁ዘሎ።": 5812,
      "##ቓል": 5813,
      "▁ድል": 5814,
      "##ለሁ.": 5815,
      "##ካዮ": 5816,
      "▁መሣ": 5817,
      "▁ካልኣይ": 5818,
      "▁በሎ።": 5819,
      "▁F": 5820,
      "▁እዚያ": 5821,
      "##ናብ": 5822,
      "##ሴፍ": 5823,
      "##ተማ": 5824,
      "▁i": 5825,
      "##ጠበ": 5826,
      "▁አይነት": 5827,
      "##rect": 5828,
      "▁ይግባእ": 5829,
      "▁መታ": 5830,
      "##ለውን": 5831,
      "▁ይበ": 5832,
      "##ጣሪ": 5833,
      "▁ፍላጎት": 5834,
      "▁ይሆናል.": 5835,
      "▁ኣሜሪካ": 5836,
      "▁ዜጋ": 5837,
      "▁ዕድሜ": 5838,
      "▁እግ": 5839,
      "▁እምበር፡": 5840,
      "▁በቅር": 5841,
      "▁በመጀመሪያ": 5842,
      "##ፉት": 5843,
      "▁አግ": 5844,
      "##ጻር": 5845,
      "▁ከእኔ": 5846,
      "##ል፤": 5847,
      "▁ኽን": 5848,
      "##ሙያ": 5849,
      "▁(በ": 5850,
      "▁ብቐ": 5851,
      "##ሶች": 5852,
      "##ብረተ": 5853,
      "##ገንዘብ": 5854,
      "##ታችሁ": 5855,
      "▁ሰሚ": 5856,
      "▁ኣኼባ": 5857,
      "▁ተጫ": 5858,
      "##ን?": 5859,
      "▁ብሰ": 5860,
      "▁እተን": 5861,
      "▁ፈር": 5862,
      "##ጠፍ": 5863,
      "##ንክ": 5864,
      "▁መጀመር": 5865,
      "▁ሁላ": 5866,
      "##ምልከት": 5867,
      "▁አያስ": 5868,
      "▁Correct": 5869,
      "▁መልስ": 5870,
      "##ኡን": 5871,
      "##ሖዋ": 5872,
      "▁ብዓ": 5873,
      "▁ከሆነ,": 5874,
      "▁ቕ": 5875,
      "##ረተ": 5876,
      "▁እኔን": 5877,
      "▁የሚል": 5878,
      "▁ኣባላት": 5879,
      "##ፎም": 5880,
      "▁እንሆ": 5881,
      "▁የለም።": 5882,
      "▁ዝቐ": 5883,
      "▁በአሁኑ": 5884,
      "▁ሰን": 5885,
      "▁ኣደ": 5886,
      "▁ዶላር": 5887,
      "▁ጉዞ": 5888,
      "▁በታች": 5889,
      "▁ያደርጋ": 5890,
      "##ጡ።": 5891,
      "▁ይቻ": 5892,
      "##ሞን": 5893,
      "▁መግለጺ": 5894,
      "##ጋፍ": 5895,
      "##በራዊ": 5896,
      "▁የሚቆ": 5897,
      "▁ሚሊዮን": 5898,
      "##ነይ": 5899,
      "##ርዳ": 5900,
      "##ክዎ": 5901,
      "▁ለውጢ": 5902,
      "▁መተግበ": 5903,
      "▁እናተ": 5904,
      "##ብና": 5905,
      "##ዲት": 5906,
      "▁ጸገም": 5907,
      "▁የለው": 5908,
      "##ርእዮ": 5909,
      "▁እንደዚህ": 5910,
      "##ጋሚ": 5911,
      "▁መሰረት": 5912,
      "##መለከተ": 5913,
      "##ዋይ": 5914,
      "▁ሰብኣ": 5915,
      "▁ትግራይ": 5916,
      "▁ቡድን": 5917,
      "▁ኾ": 5918,
      "##ለው።": 5919,
      "▁ለመስ": 5920,
      "##ፎች": 5921,
      "##ኑዕ": 5922,
      "▁እንዳይ": 5923,
      "##ርባዕ": 5924,
      "##ሎን": 5925,
      "▁c": 5926,
      "▁በየቀኑ": 5927,
      "▁ቱ": 5928,
      "▁ተቓ": 5929,
      "▁ቀጥ": 5930,
      "▁(የ": 5931,
      "▁ይሰማ": 5932,
      "##ገበ": 5933,
      "▁ወንጌ": 5934,
      "##ቾች": 5935,
      "▁ዕላማ": 5936,
      "▁ይበልጥ": 5937,
      "##ሁት": 5938,
      "##ተል": 5939,
      "▁ኣማ": 5940,
      "##ሳሳ": 5941,
      "▁ዉ": 5942,
      "▁ዅሉ": 5943,
      "▁እነሱን": 5944,
      "##ይኖም": 5945,
      "▁ሳዕ": 5946,
      "##ሉ?": 5947,
      "##ሸት": 5948,
      "▁የበ": 5949,
      "▁ትኩ": 5950,
      "▁ታውቃ": 5951,
      "▁የግ": 5952,
      "##ጎች": 5953,
      "##ዘላለም": 5954,
      "▁አማራ": 5955,
      "▁መጋ": 5956,
      "▁ማሳ": 5957,
      "▁ንኣብ": 5958,
      "▁ኣይክእ": 5959,
      "▁በቂ": 5960,
      "##ሁድ": 5961,
      "##ሱ።": 5962,
      "##om": 5963,
      "##ጋራ": 5964,
      "▁አውቃ": 5965,
      "▁ስላ": 5966,
      "▁ለእርስዎ": 5967,
      "▁ስለሆነም": 5968,
      "##ጅለ": 5969,
      "▁ንጹ": 5970,
      "▁እንከ": 5971,
      "##መሰግና": 5972,
      "▁የፍ": 5973,
      "▁ጉባኤ": 5974,
      "##ለል": 5975,
      "▁ይመል": 5976,
      "▁መሊ": 5977,
      "▁ማስተ": 5978,
      "▁ደቂቃ": 5979,
      "▁አንዳን": 5980,
      "▁ቪዲዮ": 5981,
      "##መሳሳይ": 5982,
      "▁፥": 5983,
      "▁ምዕራ": 5984,
      "##ታም": 5985,
      "##ዕድ": 5986,
      "▁እውነተኛ": 5987,
      "▁ሥር": 5988,
      "▁ኖሮ": 5989,
      "##ለህ?": 5990,
      "▁ሉ": 5991,
      "▁ጓደኛ": 5992,
      "▁H": 5993,
      "▁በው": 5994,
      "▁ያላቸው": 5995,
      "▁ገደ": 5996,
      "▁ምላሽ": 5997,
      "▁በእውነት": 5998,
      "##ግእ": 5999,
      "▁ጕ": 6000,
      "▁ከል": 6001,
      "▁እርግጠ": 6002,
      "##ህበራዊ": 6003,
      "▁ተማሪዎች": 6004,
      "▁ርክብ": 6005,
      "##ጡት": 6006,
      "▁ደጊ": 6007,
      "▁የመጀመሪያው": 6008,
      "▁ብፍላይ": 6009,
      "▁ውል": 6010,
      "##ፊቱ": 6011,
      "▁ዝኸውን": 6012,
      "##ፈለግ": 6013,
      "▁ኰይኑ": 6014,
      "##ሆኑም": 6015,
      "▁ቈ": 6016,
      "##ቡራት": 6017,
      "##:4": 6018,
      "##ተዋል": 6019,
      "▁ንኣምላኽ": 6020,
      "##ሳቸው": 6021,
      "##ምህርት": 6022,
      "▁ጳውሎስ": 6023,
      "▁ተበ": 6024,
      "##ረይ": 6025,
      "▁አዎ": 6026,
      "▁ካብኡ": 6027,
      "##ዝና": 6028,
      "▁ዘበለ": 6029,
      "▁ዑ": 6030,
      "▁ጥን": 6031,
      "▁ጋዜ": 6032,
      "▁ትክክለኛ": 6033,
      "##ደ።": 6034,
      "##ቃት": 6035,
      "##ስትዮ": 6036,
      "##ኻል": 6037,
      "▁ሰዓታት": 6038,
      "##ኩምን": 6039,
      "▁28": 6040,
      "##ዱስትሪ": 6041,
      "▁የዚህ": 6042,
      "##ሎችን": 6043,
      "▁ሰዎችን": 6044,
      "▁ኑ": 6045,
      "▁መው": 6046,
      "▁\"ኣብ": 6047,
      "▁ዝሰ": 6048,
      "▁ባሕሪ": 6049,
      "##ነቶች": 6050,
      "##ቐት": 6051,
      "##ንጉ": 6052,
      "##ወረ": 6053,
      "##ስተው": 6054,
      "▁ሕዚ": 6055,
      "▁ሕማም": 6056,
      "##ad": 6057,
      "▁የካ": 6058,
      "##ሃት": 6059,
      "▁ያላ": 6060,
      "▁ኣመሪካ": 6061,
      "▁ጥበብ": 6062,
      "##ኒት": 6063,
      "▁ቤተሰብ": 6064,
      "▁ሰሙን": 6065,
      "▁ይመጣ": 6066,
      "▁ተን": 6067,
      "##ሙ።": 6068,
      "##ንደ": 6069,
      "▁ወጣ": 6070,
      "▁ዓላማ": 6071,
      "▁እዩ፧": 6072,
      "##ቲያ": 6073,
      "▁በማለት": 6074,
      "▁ባይ": 6075,
      "▁ንጥ": 6076,
      "##ስራ": 6077,
      "▁ፈተና": 6078,
      "##ዱት": 6079,
      "▁እሱም": 6080,
      "##በባ": 6081,
      "▁አለብ": 6082,
      "▁አመ": 6083,
      "▁ሳል": 6084,
      "▁ዘለዎም": 6085,
      "##ፈተ": 6086,
      "##ኮኖ": 6087,
      "▁ሰል": 6088,
      "##ድሪ": 6089,
      "##-1": 6090,
      "▁በእውነቱ": 6091,
      "##ክሮ": 6092,
      "▁ቍ": 6093,
      "##ሌት": 6094,
      "▁የመጨረሻ": 6095,
      "▁የንግድ": 6096,
      "▁100": 6097,
      "▁ያንን": 6098,
      "##ካ፡": 6099,
      "##ኸይድ": 6100,
      "##ርባዕተ": 6101,
      "▁ሃገራዊ": 6102,
      "##ዘዝ": 6103,
      "▁ሀብ": 6104,
      "▁ኣዕ": 6105,
      "▁የተሰ": 6106,
      "▁ኒ": 6107,
      "▁ምዝ": 6108,
      "▁ሕይወ": 6109,
      "▁ዓቕ": 6110,
      "▁ጓደ": 6111,
      "▁ዝለ": 6112,
      "##ቃስ": 6113,
      "▁እኛም": 6114,
      "##ዩን": 6115,
      "##ኑ።": 6116,
      "▁የሆኑ": 6117,
      "▁ጀርመን": 6118,
      "▁ሁለቱም": 6119,
      "##ረፍ": 6120,
      "▁ጓል": 6121,
      "▁አብዛኛ": 6122,
      "▁እንችላ": 6123,
      "▁ደብ": 6124,
      "##ራም": 6125,
      "##ቶቹ": 6126,
      "▁ራስ": 6127,
      "##ረታዊ": 6128,
      "▁ይወ": 6129,
      "##ምህር": 6130,
      "▁^": 6131,
      "##ም፣": 6132,
      "▁አለመ": 6133,
      "▁ጥዕና": 6134,
      "▁50": 6135,
      "▁መም": 6136,
      "▁በሌላ": 6137,
      "▁ከምዘይ": 6138,
      "▁በተመሳሳይ": 6139,
      "▁በስተ": 6140,
      "▁ገይሩ": 6141,
      "##ፍጠር": 6142,
      "##ጀት": 6143,
      "##ሪቃ": 6144,
      "▁ኢልና": 6145,
      "▁ፊልም": 6146,
      "▁ብምባል": 6147,
      "▁አነ": 6148,
      "▁ግናኸ": 6149,
      "▁ይሕ": 6150,
      "▁በሆነ": 6151,
      "▁እምበኣ": 6152,
      "##et": 6153,
      "##ል,": 6154,
      "▁ዝያዳ": 6155,
      "▁ምግባር": 6156,
      "▁ቤተክርስ": 6157,
      "▁መላ": 6158,
      "▁ፌ": 6159,
      "##ስ።": 6160,
      "▁ክህል": 6161,
      "##ስቱ": 6162,
      "▁ብቸ": 6163,
      "▁ምስክር": 6164,
      "##ጢር": 6165,
      "▁መከራ": 6166,
      "▁ኳስ": 6167,
      "##ሴት": 6168,
      "▁ሰይጣን": 6169,
      "▁መጸ": 6170,
      "##ሉ፡": 6171,
      "##ጽበ": 6172,
      "▁ኣገባ": 6173,
      "▁ንጉሥ": 6174,
      "##ዕዞ": 6175,
      "##ፈለጉ": 6176,
      "##es": 6177,
      "▁በጭ": 6178,
      "▁ረኺ": 6179,
      "##ደራ": 6180,
      "▁ድርጅ": 6181,
      "▁ቫ": 6182,
      "▁ኣተ": 6183,
      "▁መሥ": 6184,
      "▁ኣካል": 6185,
      "▁ንኣብነት": 6186,
      "##ዱን": 6187,
      "▁ኣዋ": 6188,
      "##ሩብ": 6189,
      "##ነዚያ": 6190,
      "##መልከት": 6191,
      "▁s": 6192,
      "▁ነው\"": 6193,
      "▁እርግጠኛ": 6194,
      "##ስዕብ": 6195,
      "▁\"እኔ": 6196,
      "▁በእኔ": 6197,
      "##ቋቋ": 6198,
      "##ጢኣት": 6199,
      "▁ይሆን": 6200,
      "##ውሮጳ": 6201,
      "▁ከቢድ": 6202,
      "▁አግኝ": 6203,
      "▁እንድት": 6204,
      "▁ቶ": 6205,
      "##ሉ፤": 6206,
      "▁ኮነ": 6207,
      "▁ትምህር": 6208,
      "▁ስለዚ፡": 6209,
      "▁ዘተ": 6210,
      "▁ማለ": 6211,
      "▁ዘይብሉ": 6212,
      "▁ግብሪ": 6213,
      "▁ንህዝ": 6214,
      "▁መኖር": 6215,
      "▁መረ": 6216,
      "▁በሎም።": 6217,
      "▁በፍጥነት": 6218,
      "##ጹ።": 6219,
      "##ኖረው": 6220,
      "##ዒት": 6221,
      "▁አየ": 6222,
      "▁ኣቐ": 6223,
      "▁እነዚያ": 6224,
      "▁ምልክ": 6225,
      "▁መጻሕ": 6226,
      "▁L": 6227,
      "▁ምስኡ": 6228,
      "▁ሓሳ": 6229,
      "##ስል": 6230,
      "##ካከ": 6231,
      "▁ዘፍ": 6232,
      "##ስታወ": 6233,
      "##ብሃል": 6234,
      "##ሳል": 6235,
      "▁ህጻ": 6236,
      "##ጽሪ": 6237,
      "##ዕለ": 6238,
      "##ኾን": 6239,
      "▁አለባቸው": 6240,
      "▁አደጋ": 6241,
      "▁የልቦ": 6242,
      "▁ክልቲ": 6243,
      "▁ቤተሰ": 6244,
      "##ቻችሁ": 6245,
      "▁መና": 6246,
      "▁አለኝ": 6247,
      "▁እንደሚያ": 6248,
      "▁ጅ": 6249,
      "▁የብሉን።": 6250,
      "##ኮኖሚ": 6251,
      "▁ተብሎ": 6252,
      "##ማኝ": 6253,
      "##ሃበ": 6254,
      "▁ዓብዪ": 6255,
      "##am": 6256,
      "##ክርስቶስ": 6257,
      "##ጠመ": 6258,
      "##ታሕ": 6259,
      "##ቆጣ": 6260,
      "▁ካብቶም": 6261,
      "▁መስመር": 6262,
      "▁ቀንዲ": 6263,
      "▁ፖለቲካዊ": 6264,
      "▁_": 6265,
      "▁ተግባር": 6266,
      "▁ስለሚ": 6267,
      "##ቀደ": 6268,
      "##ሓር": 6269,
      "▁ውሃ": 6270,
      "▁ተጫዋ": 6271,
      "##ag": 6272,
      "▁199": 6273,
      "▁ለማስ": 6274,
      "##ቡእ": 6275,
      "▁ኃይ": 6276,
      "▁ዝበል": 6277,
      "##ሕል": 6278,
      "▁ኣህ": 6279,
      "▁ኢድ": 6280,
      "▁መንግስት": 6281,
      "##ውና": 6282,
      "##ቶ።": 6283,
      "▁ትችላ": 6284,
      "▁ኣለኹ": 6285,
      "▁ጠቃሚ": 6286,
      "▁m": 6287,
      "▁ሁላችንም": 6288,
      "▁40": 6289,
      "▁ሓደጋ": 6290,
      "▁ወት": 6291,
      "##ላችሁ።": 6292,
      "##መጥ": 6293,
      "▁ንብረት": 6294,
      "##ዋም": 6295,
      "▁ኣለኹ።": 6296,
      "##ንቅ": 6297,
      "##ሊፉ": 6298,
      "▁ኣለዉ": 6299,
      "▁በነ": 6300,
      "▁ቤቱ": 6301,
      "##ኒ፡": 6302,
      "▁ለማሳ": 6303,
      "##መቱ": 6304,
      "▁ካር": 6305,
      "##ዋል.": 6306,
      "##ቤቱ": 6307,
      "▁አምላ": 6308,
      "▁በመን": 6309,
      "▁ፍሉይ": 6310,
      "##ኣቶም": 6311,
      "##ካየድ": 6312,
      "▁ሓሙ": 6313,
      "▁ችሎ": 6314,
      "▁ኣር": 6315,
      "▁ውድብ": 6316,
      "##ረቱ": 6317,
      "▁ኣኽ": 6318,
      "▁መንግሥት": 6319,
      "▁ኮም": 6320,
      "▁በሁሉም": 6321,
      "▁መቅ": 6322,
      "##ሩም": 6323,
      "▁ተጻ": 6324,
      "▁ከእነርሱ": 6325,
      "▁ወገን": 6326,
      "▁ከአንድ": 6327,
      "▁መሄድ": 6328,
      "##ለህ።": 6329,
      "##ዖም": 6330,
      "##ቷል።": 6331,
      "▁ነገሮችን": 6332,
      "▁ተመለ": 6333,
      "▁ኣጸ": 6334,
      "##ስተር": 6335,
      "##ጠቀሙ": 6336,
      "▁ወገ": 6337,
      "▁ንኸ": 6338,
      "##ቁር": 6339,
      "▁ስሜት": 6340,
      "▁ቴክኖሎጂ": 6341,
      "##ሞቱ": 6342,
      "##እምሮ": 6343,
      "▁በማንኛውም": 6344,
      "##ናይት": 6345,
      "▁ድጋፍ": 6346,
      "▁ዘይም": 6347,
      "▁ለውጥ": 6348,
      "##ኣኽ": 6349,
      "▁የለን": 6350,
      "##ጠየ": 6351,
      "▁ልቢ": 6352,
      "##ውነት": 6353,
      "##ንካራ": 6354,
      "##ገረ": 6355,
      "##ጣዕ": 6356,
      "▁ክፋል": 6357,
      "##ላችኋ": 6358,
      "▁\"ብ": 6359,
      "▁የዓለም": 6360,
      "##ከባ": 6361,
      "▁ስእ": 6362,
      "▁ደህን": 6363,
      "▁ክፍለ": 6364,
      "##ኮች": 6365,
      "##ጨነ": 6366,
      "##ፍል": 6367,
      "▁ፎቶ": 6368,
      "##ac": 6369,
      "##ለዉ": 6370,
      "##ላፊ": 6371,
      "##ዘራ": 6372,
      "##ወሰኑ": 6373,
      "##ስነት": 6374,
      "##መንግ": 6375,
      "##እት": 6376,
      "##ጽሑ": 6377,
      "▁ኣፍሪቃ": 6378,
      "▁ባዕሉ": 6379,
      "##ሰጥ": 6380,
      "##ሖም": 6381,
      "##ደንት": 6382,
      "▁ጥበ": 6383,
      "▁እንት": 6384,
      "▁ኣርባዕተ": 6385,
      "▁ኣይነበረን።": 6386,
      "##ጋት": 6387,
      "▁ብወ": 6388,
      "▁ግድ": 6389,
      "▁ፍሬ": 6390,
      "▁ንክ": 6391,
      "▁ሰላ": 6392,
      "##ጴጥሮ": 6393,
      "##ጠላ": 6394,
      "▁ወንዶች": 6395,
      "▁ደስታ": 6396,
      "▁እንዳል": 6397,
      "▁ቃልሲ": 6398,
      "##ጠበቅ": 6399,
      "▁27": 6400,
      "▁ይብል።": 6401,
      "##ን፣": 6402,
      "▁ከይተ": 6403,
      "▁አላቸው።": 6404,
      "▁ጥቅ": 6405,
      "▁ማእከል": 6406,
      "##ነግረ": 6407,
      "▁ተወዳ": 6408,
      "▁ብዙውን": 6409,
      "▁የእግዚአብሔርን": 6410,
      "▁የእስራኤል": 6411,
      "▁ጉድ": 6412,
      "▁ያልተ": 6413,
      "▁መቕ": 6414,
      "##ልማት": 6415,
      "##ዋርያት": 6416,
      "▁ይናገ": 6417,
      "##ቅስቃ": 6418,
      "▁ኣለና።": 6419,
      "##፧\"": 6420,
      "▁ገብ": 6421,
      "##ዎ፡": 6422,
      "▁ልት": 6423,
      "▁መጥፎ": 6424,
      "▁ፈረን": 6425,
      "▁አይደለም.": 6426,
      "▁ዝኽ": 6427,
      "##በረሰብ": 6428,
      "▁ኣቕ": 6429,
      "▁የነበሩ": 6430,
      "▁ዘጋ": 6431,
      "▁ብዝተ": 6432,
      "##መነ": 6433,
      "▁ነዊሕ": 6434,
      "##ትስ": 6435,
      "##ዬን": 6436,
      "▁ንስኻትኩም": 6437,
      "▁ስለዝኾነ": 6438,
      "▁እንከሎ": 6439,
      "##ሊል": 6440,
      "▁ንሓደ": 6441,
      "▁ክፍሊ": 6442,
      "▁አሸ": 6443,
      "▁ንኹሉ": 6444,
      "▁ክልል": 6445,
      "▁የብል": 6446,
      "▁ድምጺ": 6447,
      "##ጽነት": 6448,
      "##ብ።": 6449,
      "▁ሰፊ": 6450,
      "▁መብዛሕት": 6451,
      "▁ዘለና": 6452,
      "▁እንግሊዝ": 6453,
      "▁ለመሆን": 6454,
      "▁ስህ": 6455,
      "▁እዋ": 6456,
      "▁አድ": 6457,
      "▁ፈቃድ": 6458,
      "▁ለሌ": 6459,
      "▁ተደር": 6460,
      "▁እርዳ": 6461,
      "▁አምላኽ": 6462,
      "▁ብቕ": 6463,
      "▁ማርያም": 6464,
      "##ኩም፡": 6465,
      "▁ነፍስ": 6466,
      "▁መዋ": 6467,
      "▁ብግ": 6468,
      "▁እንተኾ": 6469,
      "##ጠባ": 6470,
      "##ጽም": 6471,
      "##ግርኛ": 6472,
      "▁ሙዚቃ": 6473,
      "▁በውስ": 6474,
      "▁ዴ": 6475,
      "##ርአ": 6476,
      "##ችው": 6477,
      "##ታዎች": 6478,
      "##ርም": 6479,
      "▁ትብ": 6480,
      "▁መንፈሳዊ": 6481,
      "##ማዊ": 6482,
      "▁ዝጸ": 6483,
      "▁ክቕ": 6484,
      "▁ዕዳ": 6485,
      "▁ኣሎና።": 6486,
      "▁ትካ": 6487,
      "##ለ።": 6488,
      "▁ዝርከብ": 6489,
      "▁የተመ": 6490,
      "▁ቀር": 6491,
      "##ድዮ": 6492,
      "##ኛል።": 6493,
      "##id": 6494,
      "▁በቀላሉ": 6495,
      "▁ይኖር": 6496,
      "▁ልዑ": 6497,
      "##ጽሞ": 6498,
      "▁ይችላሉ።": 6499,
      "▁መጠቀም": 6500,
      "##he": 6501,
      "▁ንኽእል": 6502,
      "▁ብለ": 6503,
      "##ላትና": 6504,
      "▁ለእናንተ": 6505,
      "▁አውሮ": 6506,
      "▁አገልግሎ": 6507,
      "▁ካባ": 6508,
      "##ቀስ": 6509,
      "▁ሰራዊት": 6510,
      "##አት": 6511,
      "##ስለ": 6512,
      "▁ሓላፍ": 6513,
      "▁ንብ": 6514,
      "##ለን.": 6515,
      "▁ሳምንት": 6516,
      "▁ጊ": 6517,
      "▁ከብ": 6518,
      "▁ነበር,": 6519,
      "▁መገ": 6520,
      "▁የሚፈልጉ": 6521,
      "▁መልእኽቲ": 6522,
      "▁ሓዲ": 6523,
      "##ሪስ": 6524,
      "##ፋን": 6525,
      "▁የነ": 6526,
      "##ቅስቃሴ": 6527,
      "##ንቱ": 6528,
      "##ባዕ": 6529,
      "▁ፕሬ": 6530,
      "##ፍለጥ": 6531,
      "▁ንምንታይ": 6532,
      "##ግዚአብ": 6533,
      "##ናይትድ": 6534,
      "▁ህን": 6535,
      "▁ተባሂሉ": 6536,
      "▁ለማየት": 6537,
      "##ay": 6538,
      "▁ቀድ": 6539,
      "▁ኣገባብ": 6540,
      "##ነስ": 6541,
      "▁ወስ": 6542,
      "▁መተግበሪያ": 6543,
      "##ሰጣ": 6544,
      "▁መስጠት": 6545,
      "▁ፍርድ": 6546,
      "##ፈልገ": 6547,
      "##ኡ፡": 6548,
      "▁መንገዶች": 6549,
      "▁ሕል": 6550,
      "▁ዕድመ": 6551,
      "▁እምበኣር": 6552,
      "▁ከአንተ": 6553,
      "▁ይግባእ።": 6554,
      "▁ቲ": 6555,
      "▁ዘረባ": 6556,
      "▁ሞተ": 6557,
      "##ሰያት": 6558,
      "##ከተማ": 6559,
      "##2)": 6560,
      "▁የራ": 6561,
      "▁ናይዚ": 6562,
      "##ሁ።": 6563,
      "##ዋርያ": 6564,
      "▁ከእግዚአብሔር": 6565,
      "▁ክስተ": 6566,
      "##ገኘው": 6567,
      "▁ዝው": 6568,
      "▁ለሁሉም": 6569,
      "##ዲሱ": 6570,
      "▁ያን": 6571,
      "▁ጠንካራ": 6572,
      "##ወቁ": 6573,
      "▁ለመቀ": 6574,
      "##ኣለም": 6575,
      "▁ለእኛ": 6576,
      "##ደረገው": 6577,
      "##ንግሊዝ": 6578,
      "##'ዮም": 6579,
      "##፡1": 6580,
      "##ሊያ": 6581,
      "##ቀመጥ": 6582,
      "▁ምቕ": 6583,
      "▁ክርስትያን": 6584,
      "▁ፍጻ": 6585,
      "▁ጉጅለ": 6586,
      "▁ምስጋና": 6587,
      "▁ርዕ": 6588,
      "▁ኣቦይ": 6589,
      "▁ወንጌል": 6590,
      "▁ሕቶታት": 6591,
      "▁ብን": 6592,
      "##ሐይ": 6593,
      "▁29": 6594,
      "▁ይመለ": 6595,
      "▁ዮሴፍ": 6596,
      "▁ፍርዲ": 6597,
      "▁ክወ": 6598,
      "▁ከእኛ": 6599,
      "##ም,": 6600,
      "▁ሕቡራት": 6601,
      "##ላውያን": 6602,
      "##ደልዩ": 6603,
      "▁ዕዮ": 6604,
      "▁በትክክል": 6605,
      "##ናዳ": 6606,
      "##ብህ": 6607,
      "▁እዝ": 6608,
      "▁የሚችል": 6609,
      "##ችለው": 6610,
      "▁ምሽ": 6611,
      "▁ግብጺ": 6612,
      "▁ቻይና": 6613,
      "▁አስቸ": 6614,
      "▁ደጋ": 6615,
      "▁እነሱም": 6616,
      "##ክተር": 6617,
      "##ፋስ": 6618,
      "▁በላ": 6619,
      "▁ይወስ": 6620,
      "##ረዱ": 6621,
      "▁ታዲያ": 6622,
      "##ጮች": 6623,
      "▁እዩ?": 6624,
      "##ሃሮ": 6625,
      "▁የምታ": 6626,
      "##ዓለ": 6627,
      "▁ሰናይ": 6628,
      "▁መለሰ": 6629,
      "▁ምሕረት": 6630,
      "##ምዕ": 6631,
      "##21": 6632,
      "▁ስሙ": 6633,
      "▁ኮሚ": 6634,
      "##ፖር": 6635,
      "▁ቀይ": 6636,
      "▁ክንዲ": 6637,
      "▁ሆነው": 6638,
      "##ሏል": 6639,
      "##ጫወ": 6640,
      "##ዝም": 6641,
      "▁ቁጥ": 6642,
      "##'ኳ": 6643,
      "##ኬት": 6644,
      "▁ቀል": 6645,
      "▁ፈጺ": 6646,
      "##ፈረ": 6647,
      "▁ትልቁ": 6648,
      "▁ተሸ": 6649,
      "▁ዘዴ": 6650,
      "##እኔ": 6651,
      "▁ሽሕ": 6652,
      "▁ኣታ": 6653,
      "▁ኤል": 6654,
      "▁ነዛ": 6655,
      "▁ከው": 6656,
      "▁በጭራሽ": 6657,
      "▁የደ": 6658,
      "##ከው": 6659,
      "▁ሂደት": 6660,
      "▁ይኽእል።": 6661,
      "▁ስደተኛታት": 6662,
      "##ወጥ": 6663,
      "▁ደንበ": 6664,
      "▁ይሰጣ": 6665,
      "▁ቀሪ": 6666,
      "▁እንቅስቃሴ": 6667,
      "▁ለዘላለም": 6668,
      "##ከረም": 6669,
      "##ኣቱ": 6670,
      "##ንግዲህ": 6671,
      "▁ክንድ": 6672,
      "##ጽና": 6673,
      "▁ተቋ": 6674,
      "▁ትውል": 6675,
      "##ስካ": 6676,
      "▁አንተም": 6677,
      "##ዓን": 6678,
      "▁ይኸውን።": 6679,
      "##ረቡ": 6680,
      "▁ክሓ": 6681,
      "▁ደብዳ": 6682,
      "▁ማር": 6683,
      "##ራቸው": 6684,
      "▁ዓ.": 6685,
      "▁ነይረ።": 6686,
      "##ክቶ": 6687,
      "##ብሩ": 6688,
      "▁ይመልከቱ": 6689,
      "▁በመስ": 6690,
      "▁ብመን": 6691,
      "▁ይው": 6692,
      "▁ጥሪ": 6693,
      "##ዘው": 6694,
      "##ሃይ": 6695,
      "▁ይላ": 6696,
      "▁ክበ": 6697,
      "##ንጎ": 6698,
      "▁ጀሚሩ": 6699,
      "▁አገልጋ": 6700,
      "▁ያሉት": 6701,
      "▁እንግዲህ": 6702,
      "▁ትም": 6703,
      "##ናው": 6704,
      "▁በግል": 6705,
      "▁ኣዚ": 6706,
      "▁የግል": 6707,
      "##ኔት": 6708,
      "▁ክነ": 6709,
      "▁ውስጥ,": 6710,
      "##በሪ": 6711,
      "##ነጋገር": 6712,
      "##'ሞ": 6713,
      "▁ወድ": 6714,
      "▁ጌጋ": 6715,
      "▁ሠራ": 6716,
      "##ታትና": 6717,
      "##ረዳት": 6718,
      "▁ባለው": 6719,
      "▁መቶ": 6720,
      "##ወቀ": 6721,
      "##ሳሳሊ": 6722,
      "##በሳ": 6723,
      "▁ቀረባ": 6724,
      "##ፈልገው": 6725,
      "▁ፈለ": 6726,
      "▁ኢንተ": 6727,
      "▁ዳግ": 6728,
      "▁ትእዛዝ": 6729,
      "▁መነ": 6730,
      "▁ሬ": 6731,
      "##ባን": 6732,
      "▁ኵሎም": 6733,
      "##ስፒ": 6734,
      "##ዎስ": 6735,
      "▁በጃ": 6736,
      "##ሞክራሲ": 6737,
      "▁ዓሰር": 6738,
      "▁ብሩ": 6739,
      "##ኣል": 6740,
      "▁እየን።": 6741,
      "▁ሦስት": 6742,
      "##ጀመርያ": 6743,
      "▁ፕሮግራም": 6744,
      "▁አራት": 6745,
      "▁ግልጽ": 6746,
      "##ላጥ": 6747,
      "▁ካለ": 6748,
      "▁ራሱ": 6749,
      "##ብቅ": 6750,
      "▁ድኣ": 6751,
      "▁ጨምሮ": 6752,
      "▁ፕረ": 6753,
      "##ፈጠረ": 6754,
      "##ጣዕሚ": 6755,
      "##ደሳ": 6756,
      "▁ሰራ": 6757,
      "▁p": 6758,
      "▁ሰር": 6759,
      "##ሆኑት": 6760,
      "##'ያ": 6761,
      "##).": 6762,
      "##ፈን": 6763,
      "##ከፋ": 6764,
      "▁ስቴ": 6765,
      "##ቦም።": 6766,
      "##በን": 6767,
      "##ቀቅ": 6768,
      "▁እህ": 6769,
      "##ሕነት": 6770,
      "▁እግር": 6771,
      "##ናን።": 6772,
      "##ደርስ": 6773,
      "▁ብሰን": 6774,
      "▁አድርጎ": 6775,
      "##ጽር": 6776,
      "##ቀድሞ": 6777,
      "▁ወትሩ": 6778,
      "##ቅረብ": 6779,
      "▁ዝቅ": 6780,
      "▁ዓበይቲ": 6781,
      "▁እንስሳ": 6782,
      "▁ደስተኛ": 6783,
      "##ልኝ": 6784,
      "▁\"መ": 6785,
      "▁ይነ": 6786,
      "▁ባይቶ": 6787,
      "▁ኣርእ": 6788,
      "▁ለመጀመሪያ": 6789,
      "▁የአምላክ": 6790,
      "▁ፕሮጀክት": 6791,
      "▁ውግእ": 6792,
      "▁የተለየ": 6793,
      "##ቻለ": 6794,
      "▁በቃ": 6795,
      "▁የተባ": 6796,
      "##is": 6797,
      "▁ዝግጁ": 6798,
      "##ረጅም": 6799,
      "▁ከዓ": 6800,
      "▁ይቆ": 6801,
      "▁ግድን": 6802,
      "▁ብርግ": 6803,
      "▁ኢያ": 6804,
      "▁ጥቕ": 6805,
      "▁እስካ": 6806,
      "▁መጀመርታ": 6807,
      "▁ዘው": 6808,
      "##ሰምዕ": 6809,
      "##ከረ": 6810,
      "▁ዝሕ": 6811,
      "▁ወል": 6812,
      "▁ነይሮም።": 6813,
      "##ዳእ": 6814,
      "▁ደቡብ": 6815,
      "##ላትን": 6816,
      "▁ማህበራዊ": 6817,
      "▁ገበያ": 6818,
      "▁አሎ": 6819,
      "##ታቱ": 6820,
      "▁እችላ": 6821,
      "##ing": 6822,
      "▁መስርሕ": 6823,
      "▁ፍቓድ": 6824,
      "##ኩን": 6825,
      "▁የመጣ": 6826,
      "##ንቀሳ": 6827,
      "##ጠረ": 6828,
      "▁ማሕበር": 6829,
      "##ብረተሰብ": 6830,
      "▁አጥ": 6831,
      "▁ወያ": 6832,
      "##መዝ": 6833,
      "##ቅዱ": 6834,
      "##ጠቅ": 6835,
      "▁2020": 6836,
      "##as": 6837,
      "▁የሚቆጠሩ": 6838,
      "▁ተጸ": 6839,
      "##ምካ": 6840,
      "▁ልክዕ": 6841,
      "▁ተቃ": 6842,
      "▁ብጣዕሚ": 6843,
      "▁በሚቀጥ": 6844,
      "▁ዞባ": 6845,
      "▁ኣይኰነን።": 6846,
      "▁ኣተሓ": 6847,
      "##ed": 6848,
      "▁ምምሕ": 6849,
      "##ሮት": 6850,
      "▁ፈሪ": 6851,
      "##ምሩ": 6852,
      "▁31": 6853,
      "▁ታላ": 6854,
      "▁ተመሊ": 6855,
      "▁ዝነበር": 6856,
      "▁ይርከብ": 6857,
      "##ስኻ": 6858,
      "▁ብው": 6859,
      "##ምነ": 6860,
      "▁በመቶ": 6861,
      "▁ሳይን": 6862,
      "▁አደርጋ": 6863,
      "▁ንዓይ": 6864,
      "▁ምባል": 6865,
      "▁ንጽ": 6866,
      "▁የፈ": 6867,
      "▁የሙ": 6868,
      "##ነብሩ": 6869,
      "##ጭር": 6870,
      "▁0": 6871,
      "##ፈሻ": 6872,
      "##ደርገው": 6873,
      "▁በእኛ": 6874,
      "▁ትኩረት": 6875,
      "##ለብ": 6876,
      "▁ወዲያው": 6877,
      "▁ብርቱ": 6878,
      "▁ዝኾኑ": 6879,
      "##ሐንስ": 6880,
      "▁ንው": 6881,
      "▁የጥ": 6882,
      "##ረጋገጥ": 6883,
      "▁እፈልጋለሁ": 6884,
      "##ሬን": 6885,
      "▁መሓ": 6886,
      "##ቅርብ": 6887,
      "▁መጻኢ": 6888,
      "##\"።": 6889,
      "▁አስቸጋሪ": 6890,
      "▁32": 6891,
      "▁አይደሉም": 6892,
      "##ቤተሰብ": 6893,
      "##ትታት": 6894,
      "##ኦል": 6895,
      "▁ጽሕ": 6896,
      "▁ይን": 6897,
      "▁ክሕ": 6898,
      "##ጅምር": 6899,
      "▁ጽባሕ": 6900,
      "▁ኹሉ": 6901,
      "▁ጴጥሮ": 6902,
      "##ኦን": 6903,
      "##የም": 6904,
      "▁ወጥ": 6905,
      "▁ሕብረት": 6906,
      "▁እባክ": 6907,
      "▁ንኽት": 6908,
      "▁ጽን": 6909,
      "▁ዝቕ": 6910,
      "▁ተናግ": 6911,
      "##ብሪ": 6912,
      "##ረታ": 6913,
      "▁ቁር": 6914,
      "▁ድምፅ": 6915,
      "▁ማስታወ": 6916,
      "▁ሆይ፥": 6917,
      "##ረጥ": 6918,
      "##ደድ": 6919,
      "▁ንርእ": 6920,
      "▁እንድን": 6921,
      "##ታል.": 6922,
      "##ገሩ": 6923,
      "##ደሳች": 6924,
      "##ቦ።": 6925,
      "▁እናውቃ": 6926,
      "▁ዱ": 6927,
      "▁ትግርኛ": 6928,
      "▁ይቻላል": 6929,
      "##ይረስ": 6930,
      "##ራር": 6931,
      "##ፍና": 6932,
      "▁የሆነው": 6933,
      "▁ኢንዱስትሪ": 6934,
      "▁የመስ": 6935,
      "##ደርገ": 6936,
      "▁ርእሱ": 6937,
      "##ሪቱ": 6938,
      "▁ይሓ": 6939,
      "▁ህዝባዊ": 6940,
      "##ችልም።": 6941,
      "##ማም": 6942,
      "▁ሰራሕ": 6943,
      "▁ፈጣሪ": 6944,
      "##ሄዱ": 6945,
      "▁ግለ": 6946,
      "##ህ።": 6947,
      "##ሴን": 6948,
      "##ቦችን": 6949,
      "▁ሕክምና": 6950,
      "##ዀኑ": 6951,
      "▁ኣይክ": 6952,
      "▁ኣብዛ": 6953,
      "▁ከእነዚህ": 6954,
      "▁ውጤት": 6955,
      "##ሰሩ": 6956,
      "##ዓዝ": 6957,
      "▁መዳ": 6958,
      "▁አስደሳች": 6959,
      "▁መሣሪያ": 6960,
      "##ገስ": 6961,
      "##ሣኤ": 6962,
      "▁አር": 6963,
      "##ርከቡ": 6964,
      "▁በሕይወት": 6965,
      "▁ጻዕ": 6966,
      "##ጽሐ": 6967,
      "##ራኸ": 6968,
      "▁በተመለከተ": 6969,
      "##ምረጥ": 6970,
      "##ክእል": 6971,
      "▁ተም": 6972,
      "▁\"እቲ": 6973,
      "▁ኣቐዲ": 6974,
      "▁ዘለዋ": 6975,
      "▁የአሜሪካ": 6976,
      "▁ሁለቱ": 6977,
      "##ኻ፡": 6978,
      "▁የሚታ": 6979,
      "▁ለማወቅ": 6980,
      "▁ኤውሮጳ": 6981,
      "▁አመት": 6982,
      "▁ንነ": 6983,
      "▁ዘሎና": 6984,
      "▁ምጥ": 6985,
      "▁ክእ": 6986,
      "##በረታ": 6987,
      "▁ጸሎ": 6988,
      "▁ብመሰ": 6989,
      "▁ወሳ": 6990,
      "##ore": 6991,
      "▁ሽማ": 6992,
      "##ሞከር": 6993,
      "▁ግም": 6994,
      "▁ልን": 6995,
      "##ሉ,": 6996,
      "▁መብት": 6997,
      "##ዶቹ": 6998,
      "▁ዝስ": 6999,
      "▁ያስተ": 7000,
      "##ዚያን": 7001,
      "▁ገዛእ": 7002,
      "▁ነኝ።": 7003,
      "▁ዝበሃል": 7004,
      "▁ሃይማኖት": 7005,
      "▁በተለይም": 7006,
      "##ኩሉ": 7007,
      "▁ኣይከኣ": 7008,
      "▁ትካል": 7009,
      "▁በይ": 7010,
      "▁ቆልዑ": 7011,
      "##ዕብ": 7012,
      "▁በበ": 7013,
      "▁መሸ": 7014,
      "##ረኽቡ": 7015,
      "▁ኃጢአት": 7016,
      "▁ፍቅ": 7017,
      "▁ፈጣን": 7018,
      "▁ጤና": 7019,
      "▁ሰማያት": 7020,
      "▁ቆይ": 7021,
      "##መስለ": 7022,
      "▁ለመግ": 7023,
      "▁ሕዝቡ": 7024,
      "▁ዝበዝ": 7025,
      "▁እናት": 7026,
      "##ኸት": 7027,
      "▁እቲኣ": 7028,
      "▁ችሎታ": 7029,
      "▁ልዑል": 7030,
      "▁ትክክል": 7031,
      "##ግዚአብሄር": 7032,
      "▁ማው": 7033,
      "▁ራሳ": 7034,
      "▁ምዕራፍ": 7035,
      "##ድግ": 7036,
      "##ኖረ": 7037,
      "▁የተቀ": 7038,
      "##ለት።": 7039,
      "▁ብዘይካ": 7040,
      "##ሲያ": 7041,
      "##ኻ።": 7042,
      "▁U": 7043,
      "▁ክስ": 7044,
      "▁ጉዕዞ": 7045,
      "▁ምኽሪ": 7046,
      "▁ብሓባር": 7047,
      "▁የሞ": 7048,
      "▁መንእሰያት": 7049,
      "▁ተሞክ": 7050,
      "▁ይኖራ": 7051,
      "▁ሰባ": 7052,
      "▁አልቻ": 7053,
      "▁ክገብር": 7054,
      "▁ዳርጋ": 7055,
      "##ውቁ": 7056,
      "##ሴቶች": 7057,
      "▁መዛሙር": 7058,
      "##ቃን": 7059,
      "▁ተጠቃሚዎች": 7060,
      "▁በክ": 7061,
      "##ጠኝ": 7062,
      "##ወሳኺ": 7063,
      "##ፊያ": 7064,
      "##ማሊ": 7065,
      "▁ግራ": 7066,
      "▁መጽና": 7067,
      "##ረግ": 7068,
      "▁እንደም": 7069,
      "##እይ": 7070,
      "▁ኣይፈልጥ": 7071,
      "▁የይ": 7072,
      "▁ድዩ?": 7073,
      "##መስግ": 7074,
      "##'ምበር": 7075,
      "▁እኛን": 7076,
      "##ረገ": 7077,
      "##ከተል": 7078,
      "▁መንእሰይ": 7079,
      "▁ሃገርና": 7080,
      "##ሕና": 7081,
      "##ምን?": 7082,
      "▁ጸገ": 7083,
      "##ራሳቸው": 7084,
      "##ማሽ": 7085,
      "##ችሉም": 7086,
      "▁መበ": 7087,
      "▁ሚል": 7088,
      "▁ውጽ": 7089,
      "▁(ማ": 7090,
      "▁ንግድ": 7091,
      "▁ጠየ": 7092,
      "▁መስዋ": 7093,
      "▁ይባ": 7094,
      "▁ሕማቕ": 7095,
      "##ሰና": 7096,
      "▁ሥጋ": 7097,
      "▁ምድርን": 7098,
      "##ኞችን": 7099,
      "▁ፒ": 7100,
      "##መም": 7101,
      "▁ምርት": 7102,
      "▁አመሰግና": 7103,
      "▁ኩባንያዎች": 7104,
      "▁አደረገ": 7105,
      "▁ሚስ": 7106,
      "##ምድ": 7107,
      "▁ስድ": 7108,
      "##ጓዝ": 7109,
      "##ድኣ": 7110,
      "##መናዊ": 7111,
      "##ምቲ": 7112,
      "▁ከወ": 7113,
      "▁ነበር፤": 7114,
      "▁ብርግጽ": 7115,
      "##ቅና": 7116,
      "▁ምንድን": 7117,
      "▁ኣእምሮ": 7118,
      "##:5": 7119,
      "▁መቐ": 7120,
      "▁ህወ": 7121,
      "▁አምስት": 7122,
      "▁እግዚአብሔርም": 7123,
      "##ion": 7124,
      "▁ዝፈ": 7125,
      "▁ዎ": 7126,
      "##ነን": 7127,
      "▁በሉ": 7128,
      "▁ኮን": 7129,
      "▁የአየር": 7130,
      "▁ንሰብ": 7131,
      "▁ነጥብ": 7132,
      "##ሃደ": 7133,
      "##ፉን": 7134,
      "▁መፅ": 7135,
      "▁ልጁ": 7136,
      "▁ዕው": 7137,
      "▁ከቶ": 7138,
      "##ዕቆብ": 7139,
      "▁ለይቲ": 7140,
      "##ኖስ": 7141,
      "##ጠቕ": 7142,
      "▁የእርሱ": 7143,
      "##ርሻ": 7144,
      "##ጸር": 7145,
      "▁ብኽ": 7146,
      "##ህብ": 7147,
      "▁ኼ": 7148,
      "##ኤላውያን": 7149,
      "##ክራ": 7150,
      "▁መዓልታት": 7151,
      "▁አደ": 7152,
      "▁እርዳታ": 7153,
      "##ሶት": 7154,
      "▁ሕጉ": 7155,
      "▁ህል": 7156,
      "▁በመሆኑም": 7157,
      "▁መራሕ": 7158,
      "▁ወጣት": 7159,
      "##ብቲ": 7160,
      "▁ጊዜ,": 7161,
      "▁ኣሕዋ": 7162,
      "▁ፍጥነት": 7163,
      "▁ማሕበራዊ": 7164,
      "▁ንዘለ": 7165,
      "▁ተስማ": 7166,
      "▁መሆና": 7167,
      "▁\"ይህ": 7168,
      "##ስቡክ": 7169,
      "▁ባለሙያ": 7170,
      "▁በብዙ": 7171,
      "▁ተከታ": 7172,
      "▁ሰልፊ": 7173,
      "▁ተሞክሮ": 7174,
      "▁ሆስፒ": 7175,
      "▁)": 7176,
      "##ዋለሁ": 7177,
      "▁ፍረ": 7178,
      "##ምለስ": 7179,
      "▁ፈሊ": 7180,
      "▁ኣይክእልን": 7181,
      "##ሏል።": 7182,
      "▁ነጋ": 7183,
      "▁,": 7184,
      "##ወደን": 7185,
      "▁ጠቅ": 7186,
      "##ገርም": 7187,
      "▁ብሓደ": 7188,
      "##ሕግዘ": 7189,
      "▁ውጤታማ": 7190,
      "▁ዝኾ": 7191,
      "##ያቸው": 7192,
      "▁ለል": 7193,
      "▁ምርቶች": 7194,
      "▁ተዛሪ": 7195,
      "▁ሓዊ": 7196,
      "▁ምስቲ": 7197,
      "##ደሉ": 7198,
      "▁ሁኔታዎች": 7199,
      "▁በድ": 7200,
      "##ዛን": 7201,
      "▁2018": 7202,
      "##ለምን": 7203,
      "▁ኣለዋ።": 7204,
      "##የ።": 7205,
      "▁ኣላ": 7206,
      "▁ዝተፈላለዩ": 7207,
      "##አል": 7208,
      "##ሁሉ": 7209,
      "▁መሲ": 7210,
      "▁ጥራት": 7211,
      "▁ክርስቲያ": 7212,
      "▁የምና": 7213,
      "▁ኰነ": 7214,
      "##ኡ።": 7215,
      "▁ስጦ": 7216,
      "▁ዓው": 7217,
      "▁ማንኛ": 7218,
      "▁ያስፈልጋ": 7219,
      "##ጸም": 7220,
      "▁መዓስ": 7221,
      "▁ከጥ": 7222,
      "▁ሚስት": 7223,
      "▁\"እዚ": 7224,
      "##ያትን": 7225,
      "##ጽዕኖ": 7226,
      "##ናውያን": 7227,
      "▁ምኻ": 7228,
      "▁ሰጥ": 7229,
      "▁ሀገር": 7230,
      "##ሰርሑ": 7231,
      "##ዳደር": 7232,
      "▁እስራ": 7233,
      "##ሃንስ": 7234,
      "##ሙት": 7235,
      "▁ክመ": 7236,
      "▁በደን": 7237,
      "▁ብሉ": 7238,
      "▁(ከ": 7239,
      "##ክሲ": 7240,
      "##ቆየት": 7241,
      "▁ባህሪ": 7242,
      "▁በግ": 7243,
      "▁ምንጭ": 7244,
      "▁ኢላ": 7245,
      "▁እሳት": 7246,
      "##ክተ": 7247,
      "▁ቅን": 7248,
      "▁ታዋቂ": 7249,
      "▁ብድሕሪ": 7250,
      "▁በስተቀር": 7251,
      "▁ኡ": 7252,
      "##ብሎም": 7253,
      "##ያዘ": 7254,
      "▁ትብል": 7255,
      "▁የህ": 7256,
      "▁አብዛኛዎቹ": 7257,
      "▁አላው": 7258,
      "▁ይግ": 7259,
      "▁ሺህ": 7260,
      "##ትያ": 7261,
      "▁ርእይቶ": 7262,
      "▁ቅል": 7263,
      "▁ርግ": 7264,
      "##ሃለሁ": 7265,
      "##ልጣን": 7266,
      "▁ብለን": 7267,
      "▁አይችልም": 7268,
      "▁ፈጽሞ": 7269,
      "▁ዀይኑ": 7270,
      "▁ኣብነት": 7271,
      "##ቀኛ": 7272,
      "▁ኸተማ": 7273,
      "▁ኣባል": 7274,
      "▁ጸብጻ": 7275,
      "▁ምክር": 7276,
      "▁ስለዚህ,": 7277,
      "▁ኣለና": 7278,
      "▁ረኣ": 7279,
      "##ሄዳ": 7280,
      "##በርካ": 7281,
      "##ቻለሁ": 7282,
      "##el": 7283,
      "▁በእናንተ": 7284,
      "##ነታ": 7285,
      "##ቕር": 7286,
      "##ልዩ": 7287,
      "▁ሚዲያ": 7288,
      "▁ከተሞች": 7289,
      "▁መዝሙር": 7290,
      "##ኢየሱስ": 7291,
      "▁ተጽዕኖ": 7292,
      "##ያተ": 7293,
      "▁ዝፍ": 7294,
      "##ገልገል": 7295,
      "▁ኣዒ": 7296,
      "▁የላ": 7297,
      "▁ክብሪ": 7298,
      "##ደሰ": 7299,
      "▁ጌርካ": 7300,
      "##ማስ": 7301,
      "▁ሓላፍነት": 7302,
      "##ያይ": 7303,
      "▁ብዕ": 7304,
      "▁ዝጸን": 7305,
      "##ህናት": 7306,
      "▁ንበ": 7307,
      "▁መፍ": 7308,
      "▁ንመን": 7309,
      "##ሻሻል": 7310,
      "##'ዮም።": 7311,
      "▁ለእግዚአብሔር": 7312,
      "##ንድነው": 7313,
      "▁ብተወሳኺ": 7314,
      "##ዖን": 7315,
      "▁ሰሪ": 7316,
      "▁ከእንግዲህ": 7317,
      "##ከናወ": 7318,
      "▁ሓሙሽተ": 7319,
      "▁ንምፍ": 7320,
      "▁ቀድሞ": 7321,
      "##ሠሩ": 7322,
      "##ig": 7323,
      "##ነቱን": 7324,
      "##ርኩም": 7325,
      "##ትር": 7326,
      "##ልዎ": 7327,
      "▁መስከረም": 7328,
      "##ንዱ": 7329,
      "##ጽኣ": 7330,
      "▁ጽድ": 7331,
      "▁አይደለሁ": 7332,
      "▁ዅ": 7333,
      "##ዓይ": 7334,
      "##ጻሕ": 7335,
      "▁አባላት": 7336,
      "##ፈሩ": 7337,
      "##ኻኽ": 7338,
      "▁ንተ": 7339,
      "##ጋይ": 7340,
      "▁ዝኣመሰ": 7341,
      "▁ኣብ'ዚ": 7342,
      "▁ፖሊስ": 7343,
      "▁በቅርቡ": 7344,
      "▁ምዃን": 7345,
      "▁በእነዚህ": 7346,
      "▁ሁለተኛ": 7347,
      "▁ግን፡": 7348,
      "▁ጉዳዮች": 7349,
      "▁ግምት": 7350,
      "##ራትን": 7351,
      "##ልተ": 7352,
      "▁ፍለ": 7353,
      "▁አስተያ": 7354,
      "##one": 7355,
      "##ህሉ": 7356,
      "▁ናጽነት": 7357,
      "▁d": 7358,
      "▁አዳዲስ": 7359,
      "##ሳእ": 7360,
      "▁ጦርነት": 7361,
      "▁በአሜሪካ": 7362,
      "##ፍትዌ": 7363,
      "▁ገዲ": 7364,
      "##ሽቶ": 7365,
      "▁ያገኛ": 7366,
      "▁\"እን": 7367,
      "▁መድሃ": 7368,
      "##ባሪ": 7369,
      "##ጊት": 7370,
      "▁ተጓ": 7371,
      "▁ቤቶች": 7372,
      "▁በሽ": 7373,
      "▁አገኘ": 7374,
      "▁ንቕ": 7375,
      "##201": 7376,
      "▁እዚ፡": 7377,
      "##ላቸው።": 7378,
      "▁ወጪ": 7379,
      "##ኩን።": 7380,
      "##ዳና": 7381,
      "##ሕዛብ": 7382,
      "▁ቡድ": 7383,
      "▁ዚብል": 7384,
      "##ዓልቲ": 7385,
      "▁ቅኑዕ": 7386,
      "▁ኣይነ": 7387,
      "▁መግቢ": 7388,
      "##ደናቂ": 7389,
      "##ሓድ": 7390,
      "▁ኢኮኖሚ": 7391,
      "▁በሁለ": 7392,
      "▁ናባ": 7393,
      "▁ከምዘሎ": 7394,
      "▁ኣጋጣሚ": 7395,
      "##ቲት": 7396,
      "▁ሓው": 7397,
      "▁አውቃለሁ": 7398,
      "▁O": 7399,
      "##ዑ።": 7400,
      "▁ብናይ": 7401,
      "▁ዲኻ": 7402,
      "##ሌክት": 7403,
      "▁$": 7404,
      "▁እዙይ": 7405,
      "▁ተዘ": 7406,
      "▁ፊል": 7407,
      "▁የተወሰነ": 7408,
      "▁ጠላ": 7409,
      "##ቀን": 7410,
      "##ብርሃም": 7411,
      "▁ችግሮች": 7412,
      "##ሊክ": 7413,
      "▁ሳምን": 7414,
      "##50": 7415,
      "▁ሓጢኣት": 7416,
      "▁ያላቸውን": 7417,
      "##ሳይያስ": 7418,
      "▁አዝ": 7419,
      "▁33": 7420,
      "▁ብሰንኪ": 7421,
      "▁ዝደ": 7422,
      "▁ምንቅስ": 7423,
      "##ይዎ": 7424,
      "▁ስለዘ": 7425,
      "##ጀራ": 7426,
      "▁ክፍያ": 7427,
      "##ከፍተኛ": 7428,
      "▁ዝመጽእ": 7429,
      "▁ይኽእሉ": 7430,
      "▁ከፊ": 7431,
      "▁ቅጣት": 7432,
      "▁የወደ": 7433,
      "▁ሚኒስት": 7434,
      "▁ሰበይ": 7435,
      "##ሓትት": 7436,
      "▁በጺ": 7437,
      "▁ከሁሉም": 7438,
      "▁ንኹ": 7439,
      "##ጀመረ": 7440,
      "▁ክፍሎች": 7441,
      "▁አድርገ": 7442,
      "▁ኣብር": 7443,
      "##ም?": 7444,
      "▁በዚያን": 7445,
      "▁መድረኽ": 7446,
      "▁ውሉ": 7447,
      "▁ሽወደን": 7448,
      "▁ፍጥረት": 7449,
      "##ን\"": 7450,
      "##3)": 7451,
      "##ሰለ": 7452,
      "▁ንዓኻ": 7453,
      "##ውሞ": 7454,
      "##ex": 7455,
      "▁አዎን": 7456,
      "▁ዝሃ": 7457,
      "▁ሕዝቦች": 7458,
      "##ላቶም": 7459,
      "##ቃወ": 7460,
      "▁ቦታዎች": 7461,
      "▁ጀመር": 7462,
      "▁ግዝ": 7463,
      "##ገናኘት": 7464,
      "##ናገሩ": 7465,
      "▁ክተ": 7466,
      "▁ዓወት": 7467,
      "▁ኢሳ": 7468,
      "##ዚደንት": 7469,
      "▁ምርምር": 7470,
      "##ታውቁ": 7471,
      "▁ገሊኦም": 7472,
      "▁ስህተት": 7473,
      "▁ማንኛውንም": 7474,
      "##ኒያ": 7475,
      "##ና፣": 7476,
      "▁ባህር": 7477,
      "▁ተኻ": 7478,
      "##ላኢ": 7479,
      "##ብካ": 7480,
      "▁ኣላ።": 7481,
      "##ይቱ": 7482,
      "▁ብሔ": 7483,
      "▁ክትከውን": 7484,
      "▁ኣስመራ": 7485,
      "##ጡን": 7486,
      "▁መንግስታት": 7487,
      "▁አባል": 7488,
      "▁ትማሊ": 7489,
      "▁ኣለዎም።": 7490,
      "##መታት": 7491,
      "##4)": 7492,
      "##ስሊ": 7493,
      "##ቕን": 7494,
      "▁መውሰድ": 7495,
      "▁ተከ": 7496,
      "▁የሚለው": 7497,
      "▁እንችላለን": 7498,
      "##በዝ": 7499,
      "##ካባቢ": 7500,
      "##ጽ።": 7501,
      "▁ዝግበር": 7502,
      "▁አገሮች": 7503,
      "▁ገል": 7504,
      "▁ከሌሎች": 7505,
      "▁ዂ": 7506,
      "##ቶምን": 7507,
      "▁ምሥ": 7508,
      "##-መ": 7509,
      "##ኩዎ": 7510,
      "##ጠኛ": 7511,
      "▁ሰብኣዊ": 7512,
      "▁ይፍ": 7513,
      "##ብሎስ": 7514,
      "##ኃጢአ": 7515,
      "##ጋል": 7516,
      "##ራል።": 7517,
      "▁እድል": 7518,
      "▁ትሕዝ": 7519,
      "▁ሀገ": 7520,
      "▁ብምዃ": 7521,
      "▁ደግሞም": 7522,
      "▁ስልክ": 7523,
      "▁የሆነውን": 7524,
      "▁አላውቅም": 7525,
      "##ተወ": 7526,
      "##ለካ": 7527,
      "▁ኢዮ": 7528,
      "▁ኸይ": 7529,
      "▁አሉት": 7530,
      "▁መሰረታዊ": 7531,
      "##ለና": 7532,
      "▁ዝገበረ": 7533,
      "##ስያ": 7534,
      "▁ገነት": 7535,
      "▁ዳን": 7536,
      "##ሱም": 7537,
      "▁ውሑ": 7538,
      "▁ናብኡ": 7539,
      "▁አማራጭ": 7540,
      "▁ኣበ": 7541,
      "▁በዩ": 7542,
      "▁ንጉሡ": 7543,
      "##ብሓ": 7544,
      "##ብቻ": 7545,
      "##ሎ፡": 7546,
      "▁2019": 7547,
      "▁ተገሊ": 7548,
      "##ኮር": 7549,
      "##ረኽቦ": 7550,
      "##ባለ": 7551,
      "▁ጥረት": 7552,
      "▁ኮይኖም": 7553,
      "##ቤን": 7554,
      "▁ይሖዋ": 7555,
      "##ፈልግም": 7556,
      "▁ጉዳያት": 7557,
      "▁በጉ": 7558,
      "▁ኾነ": 7559,
      "▁የትምህርት": 7560,
      "▁ፍልጠት": 7561,
      "▁ጎን": 7562,
      "▁መልዕ": 7563,
      "▁ምርመራ": 7564,
      "##ታረ": 7565,
      "##30": 7566,
      "##ቪዥ": 7567,
      "##ጠበቀ": 7568,
      "▁ይፈልጥ": 7569,
      "▁ምሳይ": 7570,
      "▁ዝብሉ": 7571,
      "▁2017": 7572,
      "▁f": 7573,
      "▁ስብሰባ": 7574,
      "##ቼን": 7575,
      "▁መበል": 7576,
      "▁ክኸ": 7577,
      "##ጋጥ": 7578,
      "##ዳንት": 7579,
      "▁ፖሊሲ": 7580,
      "▁መዘ": 7581,
      "▁ቀጺ": 7582,
      "##ኽን": 7583,
      "▁(ዮ": 7584,
      "▁2016": 7585,
      "▁አጋጣሚ": 7586,
      "▁Re": 7587,
      "▁ይረዳ": 7588,
      "##il": 7589,
      "▁ቅዱሳን": 7590,
      "▁ፍትሒ": 7591,
      "▁የድሊ": 7592,
      "##ናገረ": 7593,
      "▁ርስ": 7594,
      "▁ሓን": 7595,
      "▁ወደፊት": 7596,
      "▁ጎይታ": 7597,
      "▁ዝገብር": 7598,
      "▁የሚከተ": 7599,
      "▁በሚያ": 7600,
      "##ዳስ": 7601,
      "##ችሁ።": 7602,
      "▁ወዲያውኑ": 7603,
      "▁በጎ": 7604,
      "##ወለድ": 7605,
      "##እና": 7606,
      "##ቴዎስ": 7607,
      "▁የሚሆን": 7608,
      "##ቻይና": 7609,
      "##ራው": 7610,
      "##ታት፡": 7611,
      "▁ይመስለኛ": 7612,
      "##ፈቱ": 7613,
      "##ጆቹ": 7614,
      "##8)": 7615,
      "▁ጻድ": 7616,
      "▁በደንብ": 7617,
      "▁በአጠቃላይ": 7618,
      "▁ይወዳ": 7619,
      "▁ድኻ": 7620,
      "▁እዩ!": 7621,
      "▁ግንቦት": 7622,
      "▁ስርዓ": 7623,
      "▁ዝምልከት": 7624,
      "▁ወተ": 7625,
      "▁ናት።": 7626,
      "▁ቃለ": 7627,
      "##ሳስባ": 7628,
      "##5)": 7629,
      "▁b": 7630,
      "▁ቆን": 7631,
      "▁እንደምት": 7632,
      "▁ከእነሱ": 7633,
      "▁ትውልድ": 7634,
      "▁መጠበቅ": 7635,
      "▁ይገል": 7636,
      "▁እንደሆኑ": 7637,
      "▁ሁሉን": 7638,
      "▁ነውና": 7639,
      "▁አይችሉም": 7640,
      "▁አንቺ": 7641,
      "▁ተመራ": 7642,
      "▁በዚያም": 7643,
      "▁ደጊም": 7644,
      "▁ሀሳብ": 7645,
      "▁ከምኡ'ውን": 7646,
      "▁የልቦን።": 7647,
      "▁ላለ": 7648,
      "##ኤን": 7649,
      "▁መመሪያ": 7650,
      "▁ክው": 7651,
      "▁ሾ": 7652,
      "▁በሰው": 7653,
      "##ጽሐፍ": 7654,
      "▁ትካላት": 7655,
      "##ጊያ": 7656,
      "▁ሰሜን": 7657,
      "▁ኮይና": 7658,
      "##ገበረ": 7659,
      "▁ዘን": 7660,
      "▁ፋይ": 7661,
      "##ዓብ": 7662,
      "▁ከላይ": 7663,
      "##በስ": 7664,
      "##ኝም።": 7665,
      "▁ዕለ": 7666,
      "▁አለን": 7667,
      "##ነቶም": 7668,
      "##ጎስ": 7669,
      "##\">": 7670,
      "▁ዘለኹ": 7671,
      "##ካዊ": 7672,
      "##ሏቸው": 7673,
      "▁ምዕባ": 7674,
      "▁[.": 7675,
      "▁ባለቤ": 7676,
      "##በ።": 7677,
      "##ፖለቲካ": 7678,
      "▁በዳ": 7679,
      "▁አየር": 7680,
      "▁ስቴትስ": 7681,
      "▁ህወሓት": 7682,
      "##ዓዊ": 7683,
      "##|1": 7684,
      "▁ዳግም": 7685,
      "##ልይ": 7686,
      "▁እመ": 7687,
      "##ርሷ": 7688,
      "##ሊን": 7689,
      "##ሮና": 7690,
      "##ጣቸው": 7691,
      "▁አብዛኞቹ": 7692,
      "▁ጥያቄዎች": 7693,
      "▁ተግባራዊ": 7694,
      "▁Y": 7695,
      "##un": 7696,
      "##፣+": 7697,
      "▁ዘይኰነ": 7698,
      "▁አሉት።": 7699,
      "##እም": 7700,
      "▁ሊቀ": 7701,
      "▁ምክንያቶች": 7702,
      "▁ይጥ": 7703,
      "▁ርእሲ": 7704,
      "▁ውድድር": 7705,
      "▁ከምዝተ": 7706,
      "▁ጴጥሮስ": 7707,
      "▁ወጺ": 7708,
      "##ጾም": 7709,
      "▁ዝን": 7710,
      "▁ተወዳጅ": 7711,
      "##ተዋል።": 7712,
      "##ባሉ": 7713,
      "##ጣዊ": 7714,
      "▁መክ": 7715,
      "▁ተለ": 7716,
      "▁ሓለ": 7717,
      "▁አስደናቂ": 7718,
      "▁ኣቢሉ": 7719,
      "##ከሩ": 7720,
      "▁እችላለሁ": 7721,
      "▁<": 7722,
      "##ኪም": 7723,
      "▁መልአ": 7724,
      "▁አብረው": 7725,
      "▁ኣይም": 7726,
      "▁የተሻ": 7727,
      "##ጸት": 7728,
      "▁ክቡር": 7729,
      "▁ተወሳኺ": 7730,
      "▁ነዋ": 7731,
      "▁ይቅርታ": 7732,
      "##ስታው": 7733,
      "##ጐስ": 7734,
      "##ent": 7735,
      "▁ዓሰርተ": 7736,
      "##ፅእ": 7737,
      "▁ሕብረተሰብ": 7738,
      "▁ግዴ": 7739,
      "▁ቀሊል": 7740,
      "##ኳን": 7741,
      "▁ይም": 7742,
      "##ስትራ": 7743,
      "##ህቦ": 7744,
      "##ጽው": 7745,
      "▁ዝተሓ": 7746,
      "##ሰርቲ": 7747,
      "##ዎቹን": 7748,
      "##ወታ": 7749,
      "▁እንዲሆን": 7750,
      "##ol": 7751,
      "▁ደረ": 7752,
      "▁ክፍት": 7753,
      "##ጽኦ": 7754,
      "▁ይኣ": 7755,
      "▁ባቡር": 7756,
      "##ሾች": 7757,
      "▁ላዕሊ": 7758,
      "##ፈጥሮ": 7759,
      "▁እንደማይ": 7760,
      "▁ይጠቀ": 7761,
      "▁ኣስታት": 7762,
      "##ዘዘ": 7763,
      "##ጦች": 7764,
      "▁ማታ": 7765,
      "▁ኲናት": 7766,
      "▁ብመሰረት": 7767,
      "##ያንዳንዳ": 7768,
      "##ወጡ": 7769,
      "##ፊዎች": 7770,
      "▁በፈ": 7771,
      "▁እስካሁን": 7772,
      "##ማውያን": 7773,
      "##ሉም።": 7774,
      "▁አንዲት": 7775,
      "▁እንተተ": 7776,
      "▁መጽሐ": 7777,
      "▁ማእከ": 7778,
      "##ሰሉ": 7779,
      "##ቶን": 7780,
      "▁ወራት": 7781,
      "▁ድሮ": 7782,
      "▁ንዕኡ": 7783,
      "##ሃድ": 7784,
      "▁ኢዮም።": 7785,
      "▁ጥናት": 7786,
      "##gle": 7787,
      "▁ወለዶ": 7788,
      "▁ቀጣ": 7789,
      "▁አስታው": 7790,
      "##መልክ": 7791,
      "▁ክኢ": 7792,
      "##ናገረው": 7793,
      "▁ኸምዚ": 7794,
      "##ንዲ": 7795,
      "##ረ-": 7796,
      "▁ውሳነ": 7797,
      "##ላስ": 7798,
      "##ረኛ": 7799,
      "##ናቸው": 7800,
      "▁ዛንታ": 7801,
      "▁ኲሉ": 7802,
      "▁የሥራ": 7803,
      "▁V": 7804,
      "▁የጉ": 7805,
      "▁\"ም": 7806,
      "##ድርጉ": 7807,
      "##ዎታል": 7808,
      "##ሽከ": 7809,
      "▁ሓያ": 7810,
      "▁ሆኗ": 7811,
      "▁ተሪ": 7812,
      "##ግብፅ": 7813,
      "▁ግብረ": 7814,
      "▁ይሁዳ": 7815,
      "##ሎቹ": 7816,
      "##የይ": 7817,
      "▁ኣምላ": 7818,
      "▁ወንድሞ": 7819,
      "▁ፓርቲ": 7820,
      "▁ሌሊት": 7821,
      "▁ብርሃ": 7822,
      "▁ተፈጥሮ": 7823,
      "▁ስጉም": 7824,
      "##ጻሊ": 7825,
      "##ሳድ": 7826,
      "▁ወሰን": 7827,
      "▁ተመሳሳሊ": 7828,
      "▁ሶስት": 7829,
      "##:9": 7830,
      "##ኻዊ": 7831,
      "▁ስልጠና": 7832,
      "▁ዝተፈላለየ": 7833,
      "▁ንወ": 7834,
      "▁ውሕ": 7835,
      "▁ይጠይ": 7836,
      "▁የዘ": 7837,
      "▁ሕን": 7838,
      "##ነሰ": 7839,
      "##7)": 7840,
      "▁ምስጢር": 7841,
      "▁ዓር": 7842,
      "##ያለሁ": 7843,
      "▁ሓጺ": 7844,
      "##ረአ": 7845,
      "▁ገንዘ": 7846,
      "▁እንዲያውም": 7847,
      "▁መንበሪ": 7848,
      "▁ካሉ": 7849,
      "##ከናወን": 7850,
      "▁ሹ": 7851,
      "##ርሓ": 7852,
      "▁ግደ": 7853,
      "▁ኤርትራውያን": 7854,
      "##ሰስ": 7855,
      "##ልል": 7856,
      "▁ግዳ": 7857,
      "▁አማካ": 7858,
      "##ዕ።": 7859,
      "##ከባቢ": 7860,
      "##ፎን": 7861,
      "▁ገባ": 7862,
      "##ውር": 7863,
      "▁ከይት": 7864,
      "▁w": 7865,
      "▁እንሆ፡": 7866,
      "▁ኣባይ": 7867,
      "▁ቓል": 7868,
      "▁ዚኽእል": 7869,
      "▁ነይር": 7870,
      "##መለከት": 7871,
      "▁ርኢ": 7872,
      "▁አያው": 7873,
      "▁ኢሉ።": 7874,
      "##ch": 7875,
      "▁ትራ": 7876,
      "▁(ዘ": 7877,
      "▁በእርስዎ": 7878,
      "▁ራሱን": 7879,
      "▁ይለ": 7880,
      "▁ኢኺ": 7881,
      "▁በቀጥታ": 7882,
      "▁ደቂቃዎች": 7883,
      "▁ከታ": 7884,
      "▁አጠቃላይ": 7885,
      "##ስቶ": 7886,
      "▁የመን": 7887,
      "▁ይገብር": 7888,
      "##ርግጠኝነት": 7889,
      "▁ለሰ": 7890,
      "##oogle": 7891,
      "##ፓን": 7892,
      "▁ሰጠ": 7893,
      "▁ሽግር": 7894,
      "##ሑ።": 7895,
      "▁ኣንስትዮ": 7896,
      "▁የተነሳ": 7897,
      "▁አለበት።": 7898,
      "▁አያውቁ": 7899,
      "▁ኣጽ": 7900,
      "##ረና": 7901,
      "##ዳው": 7902,
      "##ምራት": 7903,
      "##ያዙ": 7904,
      "▁ምሸት": 7905,
      "▁ደህና": 7906,
      "▁ኔሩ።": 7907,
      "▁ቆንጆ": 7908,
      "##ወገድ": 7909,
      "▁ይመስላል": 7910,
      "##ረሳ": 7911,
      "▁ይሻ": 7912,
      "##በና": 7913,
      "▁የተወሰኑ": 7914,
      "▁እየ፡": 7915,
      "▁አና": 7916,
      "▁ጊዜም": 7917,
      "▁የቴ": 7918,
      "##ጸሎት": 7919,
      "▁መጫወት": 7920,
      "▁ዝደሊ": 7921,
      "##ቶቻችን": 7922,
      "▁በሚቀጥለው": 7923,
      "▁ከበ": 7924,
      "▁ይላል።": 7925,
      "▁ደብዳቤ": 7926,
      "▁ገም": 7927,
      "##ንያት": 7928,
      "▁ልጄ": 7929,
      "▁አለብን": 7930,
      "##ኒክ": 7931,
      "▁ውልቀ": 7932,
      "##ሓዝ": 7933,
      "▁ግብር": 7934,
      "##ልህ": 7935,
      "##ሰሙ": 7936,
      "▁መዛሙርቱ": 7937,
      "##ሞተ": 7938,
      "▁አመሰግናለሁ": 7939,
      "##6)": 7940,
      "▁ክም": 7941,
      "##ሕዝቡ": 7942,
      "▁ነይሮም": 7943,
      "##ስምዓ": 7944,
      "▁እ.": 7945,
      "##ቀርብ": 7946,
      "▁ሆስፒታል": 7947,
      "▁እራ": 7948,
      "##ኽእልን": 7949,
      "##ላቸውም": 7950,
      "▁ስነ-": 7951,
      "▁ዚኸውን": 7952,
      "▁እስቲ": 7953,
      "▁ፍጻሜ": 7954,
      "##ረፍት": 7955,
      "##ሠረተ": 7956,
      "▁የሚችሉ": 7957,
      "▁ክታ": 7958,
      "##ዘርላንድ": 7959,
      "##-2": 7960,
      "##'የ።": 7961,
      "▁ንህዝቢ": 7962,
      "##ባታ": 7963,
      "##ዋጋ": 7964,
      "▁የምድር": 7965,
      "▁የእርስዎን": 7966,
      "▁ትሕ": 7967,
      "▁#": 7968,
      "▁ጠብ": 7969,
      "▁ንኻል": 7970,
      "▁ንዓና": 7971,
      "##ነካ": 7972,
      "##እካ": 7973,
      "▁ምንቅስቓ": 7974,
      "##ድረስ": 7975,
      "##ቲን": 7976,
      "▁እወዳ": 7977,
      "▁\"ስ": 7978,
      "▁የቆ": 7979,
      "▁ትጽ": 7980,
      "▁በቀር": 7981,
      "▁ኣይኰ": 7982,
      "▁እርሱን": 7983,
      "▁አድርጓ": 7984,
      "▁ሶፍትዌ": 7985,
      "▁ሞዴ": 7986,
      "##ኩ፡": 7987,
      "▁ደህንነት": 7988,
      "##ow": 7989,
      "##ኖሪያ": 7990,
      "▁ለብዙ": 7991,
      "▁ወዲህ": 7992,
      "##li": 7993,
      "▁እዚኦም": 7994,
      "▁በአንተ": 7995,
      "▁በማድረግ": 7996,
      "▁ብእኡ": 7997,
      "▁የክ": 7998,
      "▁ይጀ": 7999,
      "▁ሆን": 8000,
      "##ቻችንን": 8001,
      "##ለፉ": 8002,
      "▁በራሱ": 8003,
      "▁ሞያ": 8004,
      "##ሳተፍ": 8005,
      "##ባችሁ": 8006,
      "##ሙሴ": 8007,
      "▁ብዙዎች": 8008,
      "##ሰ።": 8009,
      "##ኹ፡": 8010,
      "▁እንደሌ": 8011,
      "▁እንደሆን": 8012,
      "▁ያሉትን": 8013,
      "▁ክብሉ": 8014,
      "▁አፈ": 8015,
      "▁ይተ": 8016,
      "▁ሚልዮን": 8017,
      "▁ኣይኪ": 8018,
      "▁ሂወት": 8019,
      "▁ዝረኣ": 8020,
      "▁iP": 8021,
      "▁ጽል": 8022,
      "##ድያ": 8023,
      "▁ትፈልጥ": 8024,
      "##ነው።": 8025,
      "##ነሣ": 8026,
      "##ሆነው": 8027,
      "▁በቤት": 8028,
      "▁መት": 8029,
      "▁ንል": 8030,
      "▁ሽዑ፡": 8031,
      "##ቕቲ": 8032,
      "▁ግበር": 8033,
      "##ገናኝ": 8034,
      "##ይታይ": 8035,
      "▁ስታ": 8036,
      "▁ዶ?": 8037,
      "▁ይርከብ።": 8038,
      "▁እኩ": 8039,
      "▁መናገር": 8040,
      "▁ኣስተ": 8041,
      "▁ረጅም": 8042,
      "##በትም": 8043,
      "▁ይከ": 8044,
      "##ፋይ": 8045,
      "##ኣምን": 8046,
      "▁\"ይ": 8047,
      "▁35": 8048,
      "##ዲኡ": 8049,
      "▁ከት": 8050,
      "▁ባሪያ": 8051,
      "▁በእርግጠኝነት": 8052,
      "▁ሓሳባት": 8053,
      "##ላላ": 8054,
      "##ደጋጋሚ": 8055,
      "▁ሕፃ": 8056,
      "▁አቅር": 8057,
      "##ክም": 8058,
      "▁ንህ": 8059,
      "##ቡል": 8060,
      "##ቁ።": 8061,
      "▁ትሕዝቶ": 8062,
      "▁ለካ": 8063,
      "##ነገር": 8064,
      "##ሥር": 8065,
      "##:10": 8066,
      "▁ዝምድና": 8067,
      "▁ጠይ": 8068,
      "▁ባለፈው": 8069,
      "▁ከስ": 8070,
      "▁ናቸው,": 8071,
      "▁፲": 8072,
      "▁ብላ": 8073,
      "▁ብዛት": 8074,
      "▁ሓተ": 8075,
      "##ዛረቡ": 8076,
      "▁ኣለው።": 8077,
      "▁ዝገበር": 8078,
      "▁ግር": 8079,
      "▁ነይረ": 8080,
      "▁ምሳና": 8081,
      "##ዳሪ": 8082,
      "▁የጎ": 8083,
      "▁መልሶ": 8084,
      "##ባህር": 8085,
      "##ዩት": 8086,
      "##ቶት": 8087,
      "##ሌቪዥ": 8088,
      "##በት።": 8089,
      "▁ብቸኛው": 8090,
      "▁ቸ": 8091,
      "##ነጻ": 8092,
      "##ቡቅ": 8093,
      "▁ኢዮም": 8094,
      "▁ኣሕዋት": 8095,
      "▁ወላጆች": 8096,
      "##ማማ": 8097,
      "##ኹል": 8098,
      "▁ዝብ": 8099,
      "##ወግ": 8100,
      "▁የኤ": 8101,
      "▁ስሜ": 8102,
      "##ጠነ": 8103,
      "▁ሌላው": 8104,
      "▁እዚኣቶም": 8105,
      "##ናትን": 8106,
      "##ደብ": 8107,
      "▁ውኃ": 8108,
      "##ደረጋ": 8109,
      "▁ጂ": 8110,
      "▁ከሆኑ": 8111,
      "▁ትናን": 8112,
      "##ፍካ": 8113,
      "▁ክርስትያ": 8114,
      "##ዘጋጅ": 8115,
      "▁2015": 8116,
      "▁ሱዳን": 8117,
      "▁ዝስዕብ": 8118,
      "▁የተለመ": 8119,
      "##ገነዘ": 8120,
      "##ችሁት": 8121,
      "##ረር": 8122,
      "##ገንባት": 8123,
      "##ገዱ": 8124,
      "▁መልኩ": 8125,
      "▁በእሱ": 8126,
      "▁መጽናዕቲ": 8127,
      "##ፍቅ": 8128,
      "▁ይሰጣል": 8129,
      "▁እንተኾይኑ": 8130,
      "▁ዚህ": 8131,
      "##ለሉ": 8132,
      "▁ባን": 8133,
      "▁የሕይወት": 8134,
      "##የ፡": 8135,
      "▁በወ": 8136,
      "▁ዘመናዊ": 8137,
      "▁\"ካብ": 8138,
      "▁በተቻለ": 8139,
      "##ጽኡ": 8140,
      "▁ጥዑ": 8141,
      "▁መስተ": 8142,
      "▁ወታ": 8143,
      "##ንዳንድ": 8144,
      "▁ነቢይ": 8145,
      "▁ስጦታ": 8146,
      "▁ኣካላት": 8147,
      "▁ጨዋታዎች": 8148,
      "▁ክህሉ": 8149,
      "▁ናተይ": 8150,
      "▁በመጨረሻም": 8151,
      "▁37": 8152,
      "##ላችሁ?": 8153,
      "##ዕላ": 8154,
      "▁አምላካ": 8155,
      "▁ወይ፡": 8156,
      "▁በእያንዳንዱ": 8157,
      "▁ዝበሉ": 8158,
      "▁ትንቢት": 8159,
      "▁አለብዎት": 8160,
      "##ዴት": 8161,
      "▁ሕጋዊ": 8162,
      "▁ምሽት": 8163,
      "##ረካ": 8164,
      "▁አሳል": 8165,
      "##ረክ": 8166,
      "▁ለማስተ": 8167,
      "##ጥና": 8168,
      "▁የኮ": 8169,
      "##ቁን": 8170,
      "▁ኣብያተ": 8171,
      "▁ናትካ": 8172,
      "##ሚት": 8173,
      "##:8": 8174,
      "##ሳኤ": 8175,
      "▁ኣዋርሕ": 8176,
      "▁በዙ": 8177,
      "▁ለመስጠት": 8178,
      "▁በከ": 8179,
      "▁መኣ": 8180,
      "##መልከ": 8181,
      "##ፈጸመ": 8182,
      "▁ዓባይ": 8183,
      "▁ስእሊ": 8184,
      "▁(2": 8185,
      "▁የማያ": 8186,
      "##'ሎ።": 8187,
      "##:6": 8188,
      "▁መምህር": 8189,
      "▁ይከኣል": 8190,
      "▁ታይ": 8191,
      "▁ምሳኻ": 8192,
      "▁እስራኤላውያን": 8193,
      "##አይ": 8194,
      "##ሄደ": 8195,
      "▁የገ": 8196,
      "▁ነው፣": 8197,
      "▁እየ\"": 8198,
      "▁አንተን": 8199,
      "▁በቀን": 8200,
      "##ለማዊ": 8201,
      "##ልና።": 8202,
      "##ርኔት": 8203,
      "▁መምር": 8204,
      "▁ዓቕሚ": 8205,
      "##ጠጣ": 8206,
      "##ላማዊ": 8207,
      "##ነበ": 8208,
      "##ተናል": 8209,
      "▁ዘይን": 8210,
      "▁እየን": 8211,
      "##ስታን": 8212,
      "▁ይቀጥ": 8213,
      "▁የሚገባ": 8214,
      "▁ኣንጻር": 8215,
      "##ውዓተ": 8216,
      "▁መለያ": 8217,
      "##ናስ": 8218,
      "##ወቃ": 8219,
      "▁ኽሳዕ": 8220,
      "▁36": 8221,
      "▁\"ኣነ": 8222,
      "##መላለ": 8223,
      "▁ውይ": 8224,
      "▁ህያ": 8225,
      "▁በአውሮፓ": 8226,
      "##መለከቱ": 8227,
      "##ር።": 8228,
      "▁ንእግዚ": 8229,
      "▁በዚህም": 8230,
      "▁የለውም": 8231,
      "▁መብዛሕትኡ": 8232,
      "##ለኛው": 8233,
      "▁እውቀት": 8234,
      "▁ይመስል": 8235,
      "▁ዕን": 8236,
      "▁የነበረው": 8237,
      "▁መሥራት": 8238,
      "▁ሓሊፉ": 8239,
      "▁መግለጫ": 8240,
      "▁60": 8241,
      "##ግምት": 8242,
      "▁K": 8243,
      "##ይሩ": 8244,
      "▁ዘሕ": 8245,
      "▁ኣዳ": 8246,
      "▁ሁሌ": 8247,
      "▁ተስማሚ": 8248,
      "▁መምረጥ": 8249,
      "##ገለግ": 8250,
      "▁ይብሉ": 8251,
      "▁ለአንድ": 8252,
      "##ኔን": 8253,
      "▁ዝረኸ": 8254,
      "▁ኢሳይያስ": 8255,
      "▁ሕያው": 8256,
      "##ስተኛው": 8257,
      "##ሞላ": 8258,
      "▁መንግስ": 8259,
      "▁80": 8260,
      "##ርቶ": 8261,
      "▁ንዅ": 8262,
      "▁ደሊ": 8263,
      "▁ይጠብ": 8264,
      "##ub": 8265,
      "##ጣጫ": 8266,
      "▁ከየ": 8267,
      "▁የአውሮፓ": 8268,
      "##ደኣ": 8269,
      "##ርዳት": 8270,
      "▁መራሕቲ": 8271,
      "▁ተና": 8272,
      "▁ንዅሉ": 8273,
      "▁ምንባር": 8274,
      "▁ብምሉእ": 8275,
      "▁ለአንተ": 8276,
      "▁ዳርቻ": 8277,
      "▁ዒ": 8278,
      "##ቶቻቸው": 8279,
      "▁ኣቶ": 8280,
      "▁ዘለው": 8281,
      "▁ሙከራ": 8282,
      "▁እኩል": 8283,
      "##:11": 8284,
      "▁ዕዳጋ": 8285,
      "##ዊተር": 8286,
      "▁ሊሆኑ": 8287,
      "▁በኢየሱስ": 8288,
      "##እያ": 8289,
      "▁አውታረ": 8290,
      "▁ነዞም": 8291,
      "▁አንቀ": 8292,
      "##ድልዮ": 8293,
      "##ማቸው": 8294,
      "▁ሰንበት": 8295,
      "##ውኑ": 8296,
      "▁ረብሓ": 8297,
      "▁ቀልጢ": 8298,
      "##ጥቀመ": 8299,
      "▁እዘን": 8300,
      "▁ተር": 8301,
      "▁ህጻናት": 8302,
      "▁ናቱ": 8303,
      "▁ዝዓበየ": 8304,
      "▁የውጭ": 8305,
      "▁ንጥፈ": 8306,
      "▁ድርጅት": 8307,
      "##ext": 8308,
      "▁እርሷ": 8309,
      "▁ህዝብና": 8310,
      "##ራቅ": 8311,
      "##ድሕን": 8312,
      "▁እያለ": 8313,
      "▁ኣትሒ": 8314,
      "▁ሰሎ": 8315,
      "▁ኣቲ": 8316,
      "▁ናትና": 8317,
      "##ክቱ": 8318,
      "##ባቸውን": 8319,
      "▁መጀመርያ": 8320,
      "▁ዶክተር": 8321,
      "▁መጻሕፍት": 8322,
      "##ኪያ": 8323,
      "▁በሳ": 8324,
      "##ላዉ": 8325,
      "##ሥት": 8326,
      "##nd": 8327,
      "▁ንእሽቶ": 8328,
      "##ጭት": 8329,
      "▁\"ለ": 8330,
      "▁ስፖርት": 8331,
      "▁ንሓድሕ": 8332,
      "▁ፈል": 8333,
      "##አቸው": 8334,
      "▁ኣይመስ": 8335,
      "▁ንነፍ": 8336,
      "▁ምስሊ": 8337,
      "##ሳተፉ": 8338,
      "▁በሕይወ": 8339,
      "▁ምብራ": 8340,
      "▁ማእሰርቲ": 8341,
      "##ህዝብ": 8342,
      "▁ልዩነት": 8343,
      "##ኮት": 8344,
      "##እርሱ": 8345,
      "▁ክንም": 8346,
      "##ታዊት": 8347,
      "##ልማ": 8348,
      "##ባህለ": 8349,
      "##መ።": 8350,
      "##ርሒ": 8351,
      "##ዶችን": 8352,
      "▁ስኬ": 8353,
      "▁ካርድ": 8354,
      "▁ርእሰ": 8355,
      "▁በቁ": 8356,
      "▁መጥቃ": 8357,
      "##ተነ": 8358,
      "▁መስቀል": 8359,
      "▁ይመስለ": 8360,
      "##ዘተ": 8361,
      "▁የድልየ": 8362,
      "▁ተሰማ": 8363,
      "▁በምን": 8364,
      "##ሰድ": 8365,
      "▁ትኽእሉ": 8366,
      "##ለይ።": 8367,
      "▁ጸብጻብ": 8368,
      "##ቶቡ": 8369,
      "▁በጥሩ": 8370,
      "▁ዀነ": 8371,
      "▁እናበለ": 8372,
      "##ቀርባ": 8373,
      "▁ጀመረ።": 8374,
      "##ርፍ": 8375,
      "##ባባ": 8376,
      "▁ለእርሱ": 8377,
      "▁እንደሚችሉ": 8378,
      "▁መላእክት": 8379,
      "##ለዎ": 8380,
      "▁ብስም": 8381,
      "▁ሆቴ": 8382,
      "▁ከምዝኾነ": 8383,
      "▁ያእ": 8384,
      "▁አንዳንዶቹ": 8385,
      "▁ተጫዋቾች": 8386,
      "▁ስለዘይ": 8387,
      "▁ብምኽ": 8388,
      "▁ይሠራ": 8389,
      "▁198": 8390,
      "##ላፊነት": 8391,
      "▁ኣሎኹ።": 8392,
      "▁ዝሓዘ": 8393,
      "▁በኋላ,": 8394,
      "▁አሉ.": 8395,
      "▁ፕረዚደንት": 8396,
      "▁ለበ": 8397,
      "▁ባዕል": 8398,
      "▁ኾይኑ": 8399,
      "▁የዩ": 8400,
      "▁ቅድመ": 8401,
      "▁ዘል": 8402,
      "▁አለ?": 8403,
      "▁ሄደ": 8404,
      "##ዘጋጀ": 8405,
      "▁ግጥ": 8406,
      "##ገማ": 8407,
      "▁ማዕረ": 8408,
      "▁ፍጡ": 8409,
      "▁ዘይኮነስ": 8410,
      "##ም)": 8411,
      "##ሸነፍ": 8412,
      "▁በመካከ": 8413,
      "##ዩ፡": 8414,
      "##ጥሩ": 8415,
      "##ሰጠ": 8416,
      "▁ገበር": 8417,
      "▁ትዝ": 8418,
      "▁ግንባር": 8419,
      "▁ብዙም": 8420,
      "▁የአንድ": 8421,
      "##ዚሁ": 8422,
      "▁መዓልትታት": 8423,
      "▁ጀመረ": 8424,
      "▁ባለቤት": 8425,
      "▁መቼም": 8426,
      "##ገልጸ": 8427,
      "##፡2": 8428,
      "▁ዓመቱ": 8429,
      "##ያብሎስ": 8430,
      "##:15": 8431,
      "##ገዛእ": 8432,
      "##ምጣት": 8433,
      "▁ላይ,": 8434,
      "▁ስለዚህም": 8435,
      "▁አነስተኛ": 8436,
      "▁ተላ": 8437,
      "▁መጠየ": 8438,
      "▁አንዱን": 8439,
      "##ዛዝ": 8440,
      "##ጎብ": 8441,
      "▁34": 8442,
      "##ሊሉ": 8443,
      "▁ምንባ": 8444,
      "▁ነይራ።": 8445,
      "##ፈጸም": 8446,
      "▁ቤተክርስቲያን": 8447,
      "##ልኪ": 8448,
      "##ብኣ": 8449,
      "▁ነን።": 8450,
      "▁ልኡ": 8451,
      "##ኖራቸው": 8452,
      "##ናፊ": 8453,
      "▁የገንዘብ": 8454,
      "▁ሪፖርት": 8455,
      "##:7": 8456,
      "▁የሩሳሌም": 8457,
      "▁ቁጽሪ": 8458,
      "▁እንደሚችል": 8459,
      "▁መፍትሄ": 8460,
      "▁ዝተዋ": 8461,
      "##ኽእሉ።": 8462,
      "##ከታተ": 8463,
      "##ወራ": 8464,
      "▁ጽሕፈት": 8465,
      "##ሓስ": 8466,
      "##hone": 8467,
      "##ኻልእ": 8468,
      "▁ይሸ": 8469,
      "##ers": 8470,
      "▁ኋላ": 8471,
      "##ዕለት": 8472,
      "##ግሪ": 8473,
      "##ሙኤል": 8474,
      "▁አክ": 8475,
      "##ቃዊ": 8476,
      "▁ዓለምን": 8477,
      "##ዛረቦ": 8478,
      "##ላል.": 8479,
      "##ንግሊዝኛ": 8480,
      "##ve": 8481,
      "##ደረጃ": 8482,
      "▁ርሑ": 8483,
      "▁ዘም": 8484,
      "##ናቱ": 8485,
      "▁'እ": 8486,
      "▁በሌሎች": 8487,
      "▁ሳልሳይ": 8488,
      "▁አስተማ": 8489,
      "▁የቅርብ": 8490,
      "##ከይ": 8491,
      "▁እብ": 8492,
      "▁ዛፍ": 8493,
      "▁ይብለ": 8494,
      "##ውያንን": 8495,
      "##ለይቲ": 8496,
      "▁2014": 8497,
      "##ደረሰ": 8498,
      "▁መራሒ": 8499,
      "##ለሽ": 8500,
      "▁ማጥ": 8501,
      "▁እንተዝ": 8502,
      "▁ድምጽ": 8503,
      "▁ምምሕዳር": 8504,
      "▁ኀ": 8505,
      "##ቀሳ": 8506,
      "▁ትርጉ": 8507,
      "##ልጣ": 8508,
      "▁ቀጠ": 8509,
      "▁ሲሉ": 8510,
      "##ፍታ": 8511,
      "▁ማኅ": 8512,
      "▁በእነርሱ": 8513,
      "##ሰቦች": 8514,
      "##ኻየ": 8515,
      "▁እናደርጋ": 8516,
      "▁ትንሣኤ": 8517,
      "▁ሥርዓት": 8518,
      "▁ሓሶት": 8519,
      "▁ረድ": 8520,
      "▁አገልግሎቶች": 8521,
      "▁ባይታ": 8522,
      "▁ለይ": 8523,
      "##ዶ?": 8524,
      "##ርካብ": 8525,
      "##ሩ፡": 8526,
      "▁አመለ": 8527,
      "▁የአባ": 8528,
      "▁እናንተም": 8529,
      "##ልዮ": 8530,
      "▁በጌታ": 8531,
      "##ፈላለየ": 8532,
      "▁ጸገማት": 8533,
      "▁ብኡ": 8534,
      "##በሎ": 8535,
      "▁ብራ": 8536,
      "▁ጠን": 8537,
      "▁ኖር": 8538,
      "##ፈጠር": 8539,
      "▁ኣየር": 8540,
      "▁እንከለ": 8541,
      "##ላለፍ": 8542,
      "##ጠ።": 8543,
      "##ዚያም": 8544,
      "▁ባለፉት": 8545,
      "##ጋም": 8546,
      "##ፉ።": 8547,
      "▁ባሕር": 8548,
      "▁ኣጸቢ": 8549,
      "▁ከማን": 8550,
      "▁ስጉምቲ": 8551,
      "▁ዜጋታት": 8552,
      "##ጉር": 8553,
      "▁አቅም": 8554,
      "▁ባህል": 8555,
      "▁ቅዳ": 8556,
      "▁ገይረ": 8557,
      "##ርኣ": 8558,
      "▁ሓይል": 8559,
      "##ጋር": 8560,
      "##ጀርመን": 8561,
      "▁ታሕ": 8562,
      "▁አልፎ": 8563,
      "##us": 8564,
      "▁ልታ": 8565,
      "▁ዝነበሮ": 8566,
      "▁መማር": 8567,
      "##'ያ።": 8568,
      "##ፕሮ": 8569,
      "▁ታማኝ": 8570,
      "▁ፈራ": 8571,
      "▁ጄ": 8572,
      "##ፍሪካ": 8573,
      "##ተህ": 8574,
      "##ቆይ": 8575,
      "▁በግልጽ": 8576,
      "▁ዝና": 8577,
      "▁ዘርኢ": 8578,
      "##ርዕ": 8579,
      "##ሶን": 8580,
      "##ዳዊት": 8581,
      "▁ከዋ": 8582,
      "▁ከፈለጉ": 8583,
      "▁ኢሎም።": 8584,
      "##ነም": 8585,
      "##ቋር": 8586,
      "▁ቪድዮ": 8587,
      "##ዓሉ": 8588,
      "▁በተለያዩ": 8589,
      "##ሂብ": 8590,
      "▁ምንድነው": 8591,
      "▁ቢያ": 8592,
      "##ዱ፡": 8593,
      "##ፃፀ": 8594,
      "▁እይታ": 8595,
      "▁መዳይ": 8596,
      "##ቋቋም": 8597,
      "##ቆች": 8598,
      "##ገናኙ": 8599,
      "▁ሕዝቢ": 8600,
      "▁ዝቅተኛ": 8601,
      "▁ብሪ": 8602,
      "▁ክኣ": 8603,
      "▁ስዒ": 8604,
      "##...]": 8605,
      "##ባይል": 8606,
      "▁ብሔራዊ": 8607,
      "▁ነበራ": 8608,
      "▁ከእሱ": 8609,
      "▁ዊ": 8610,
      "##ዓቢ": 8611,
      "▁እንጅ": 8612,
      "▁ሓያል": 8613,
      "▁ቅድም": 8614,
      "▁ፍርሃት": 8615,
      "▁አደርጋለሁ": 8616,
      "##ቓይ": 8617,
      "▁አጠ": 8618,
      "▁ከሎ፡": 8619,
      "##ራኒ": 8620,
      "▁ኩልና": 8621,
      "▁[...]": 8622,
      "##ብያ": 8623,
      "##ስኮ": 8624,
      "▁የሚገኙ": 8625,
      "▁አይገባ": 8626,
      "▁ንኻልኦት": 8627,
      "##ሃሉ": 8628,
      "##መረብ": 8629,
      "##ኃይል": 8630,
      "▁ሓራ": 8631,
      "▁ሰብ፡": 8632,
      "##ሓይሽ": 8633,
      "▁መስዋእቲ": 8634,
      "▁ተብ": 8635,
      "▁ዮሐንስ": 8636,
      "▁ይሆናል,": 8637,
      "▁ቆልዓ": 8638,
      "##ገልግል": 8639,
      "▁ተግባራት": 8640,
      "▁ብደ": 8641,
      "▁ለስ": 8642,
      "▁38": 8643,
      "▁ብሄ": 8644,
      "▁ምዉ": 8645,
      "▁2013": 8646,
      "▁ክልቲኦም": 8647,
      "▁የጌታ": 8648,
      "▁ሓር": 8649,
      "▁ዝመጸ": 8650,
      "##ራሳቸውን": 8651,
      "▁ጥርጥር": 8652,
      "##ሌቪዥን": 8653,
      "▁ክትገብር": 8654,
      "▁ከምኡውን": 8655,
      "##ደደ": 8656,
      "##መለሱ": 8657,
      "▁ለማን": 8658,
      "▁70": 8659,
      "▁ስትራ": 8660,
      "▁እኹል": 8661,
      "##ከታተል": 8662,
      "##ur": 8663,
      "▁ራእይ": 8664,
      "##መኛ": 8665,
      "##ቀበል": 8666,
      "▁ንት": 8667,
      "▁ትል": 8668,
      "▁ኣህዛብ": 8669,
      "▁ተሳት": 8670,
      "##ገዙ": 8671,
      "▁በሉ።": 8672,
      "▁የቁ": 8673,
      "▁አላት": 8674,
      "▁ኣብ'ቲ": 8675,
      "▁እንቅ": 8676,
      "▁ጓደኞች": 8677,
      "##10": 8678,
      "▁ወንድሞች": 8679,
      "##ቷን": 8680,
      "▁ጭንቀ": 8681,
      "▁>": 8682,
      "##ሯል።": 8683,
      "▁እንደምን": 8684,
      "##ጊዜው": 8685,
      "▁ከመይሲ፡": 8686,
      "▁ቫይረስ": 8687,
      "##ክቶች": 8688,
      "##ጥቀ": 8689,
      "##ጉት": 8690,
      "▁ያድርጉ": 8691,
      "##:12": 8692,
      "▁አቅጣጫ": 8693,
      "▁ብዓል": 8694,
      "##ዳሚ": 8695,
      "▁ኣብኣ": 8696,
      "▁አለች": 8697,
      "##እተ": 8698,
      "▁ተአ": 8699,
      "▁ባርያ": 8700,
      "▁ፈለማ": 8701,
      "▁ከዚህም": 8702,
      "##ኸው": 8703,
      "▁ነውና።": 8704,
      "▁ኪዳ": 8705,
      "##ሰማዕ": 8706,
      "▁ተራራ": 8707,
      "▁ጸላኢ": 8708,
      "▁Google": 8709,
      "▁ዝኣመሰለ": 8710,
      "▁ስደት": 8711,
      "▁ጽሑፋት": 8712,
      "##ነኛ": 8713,
      "▁ያለን": 8714,
      "▁መቕደስ": 8715,
      "##ቐን": 8716,
      "##ሞ።": 8717,
      "▁ገዝ": 8718,
      "▁ለእነርሱ": 8719,
      "##ወና": 8720,
      "▁በዘ": 8721,
      "▁ጸላእ": 8722,
      "▁አልነበረም።": 8723,
      "▁ያግ": 8724,
      "▁ብዝያዳ": 8725,
      "▁መምርሒ": 8726,
      "▁መጋቢት": 8727,
      "##ፈሉ": 8728,
      "##ቕርብ": 8729,
      "▁መዓልታዊ": 8730,
      "##ርእዩ": 8731,
      "##ትሪ": 8732,
      "▁አስባ": 8733,
      "▁ማህበረሰብ": 8734,
      "▁ለመርዳት": 8735,
      "▁ዝገበሮ": 8736,
      "▁ለባ": 8737,
      "▁ኮፍ": 8738,
      "▁In": 8739,
      "##ሰረ": 8740,
      "▁ሓድነት": 8741,
      "##ቁት": 8742,
      "▁አዲሱ": 8743,
      "▁ምቅ": 8744,
      "▁እንደማ": 8745,
      "##ልባ": 8746,
      "▁ካን": 8747,
      "▁ዝነብር": 8748,
      "▁ሁለተኛው": 8749,
      "▁ማሰብ": 8750,
      "▁ጥበቃ": 8751,
      "▁ሳምንታት": 8752,
      "##ሳካ": 8753,
      "##ነ።": 8754,
      "▁ይዝ": 8755,
      "▁ክኽ": 8756,
      "##ኹምን": 8757,
      "##ቀርቡ": 8758,
      "▁አስተያየት": 8759,
      "▁ጥም": 8760,
      "##ንጫ": 8761,
      "▁ይላሉ": 8762,
      "▁እንጀራ": 8763,
      "##ችሁም": 8764,
      "##ኸይ": 8765,
      "▁ዕብ": 8766,
      "▁ሙሉእ": 8767,
      "##ሕግዝ": 8768,
      "▁2021": 8769,
      "▁ጉዳት": 8770,
      "##ሕዝብ": 8771,
      "##ገራሚ": 8772,
      "▁የእኛን": 8773,
      "##ሯል": 8774,
      "▁ቁልፍ": 8775,
      "▁ንሃ": 8776,
      "▁ልጃ": 8777,
      "▁ተመስ": 8778,
      "▁ክፉእ": 8779,
      "▁ይሞክ": 8780,
      "▁ሐዚ": 8781,
      "▁ብኸም": 8782,
      "##ስቴ": 8783,
      "##አ።": 8784,
      "##ግሌ": 8785,
      "▁ህዝብን": 8786,
      "▁ኮምፒ": 8787,
      "##ዓመቱ": 8788,
      "▁መልኣኽ": 8789,
      "▁'ውን": 8790,
      "##ድራሻ": 8791,
      "##መውት": 8792,
      "##ኣዊ": 8793,
      "##ራእ": 8794,
      "▁መመለስ": 8795,
      "##ግለጽ": 8796,
      "##ዎቻችን": 8797,
      "▁ንናይ": 8798,
      "##ከማ": 8799,
      "##ሮ።": 8800,
      "▁መሰላት": 8801,
      "##ራቢ": 8802,
      "##ልቲ": 8803,
      "##ድ።": 8804,
      "▁ስልጣ": 8805,
      "##um": 8806,
      "▁ኣፈ": 8807,
      "▁አለኝ።": 8808,
      "##th": 8809,
      "▁ኣዋል": 8810,
      "▁ካህናት": 8811,
      "▁ልቡ": 8812,
      "▁ወያነ": 8813,
      "▁ለመጠቀም": 8814,
      "▁መርበብ": 8815,
      "▁ለምንድን": 8816,
      "▁ኣተሓሳስባ": 8817,
      "##ጅት": 8818,
      "##pp": 8819,
      "▁ኣጋጢ": 8820,
      "▁a": 8821,
      "▁ንብዙ": 8822,
      "▁ከእርስዎ": 8823,
      "##ወቅቱ": 8824,
      "▁በሰማይ": 8825,
      "##ሓስብ": 8826,
      "##ረጽ": 8827,
      "##ri": 8828,
      "▁አለብኝ": 8829,
      "▁አይደለም,": 8830,
      "##ወሰን": 8831,
      "▁ክታበት": 8832,
      "▁በካ": 8833,
      "▁ሰበ": 8834,
      "▁ካብታ": 8835,
      "▁ይገባል": 8836,
      "▁\"ሰ": 8837,
      "##ፍረት": 8838,
      "##ሉትን": 8839,
      "##ቷል.": 8840,
      "▁ሓቀኛ": 8841,
      "▁በእስራኤል": 8842,
      "##ማሪዎች": 8843,
      "▁አድርገው": 8844,
      "▁ንግሆ": 8845,
      "▁ገበረ": 8846,
      "▁ባሕ": 8847,
      "▁ዝበሎ": 8848,
      "##ጥራ": 8849,
      "▁ቅርብ": 8850,
      "▁ሒዙ": 8851,
      "##ሊስ": 8852,
      "▁ስግ": 8853,
      "▁በሊ": 8854,
      "▁ብታ": 8855,
      "▁መጥቃዕቲ": 8856,
      "##ሙድ": 8857,
      "##ሉ፣": 8858,
      "▁ስምምዕ": 8859,
      "▁ምስጢ": 8860,
      "▁ደገፍ": 8861,
      "▁ሸውዓተ": 8862,
      "##ጨት": 8863,
      "##ጽሓ": 8864,
      "▁ቤት-": 8865,
      "##ረንሳይ": 8866,
      "▁በአላህ": 8867,
      "▁ዓይን": 8868,
      "##ዳል።": 8869,
      "▁ወግ": 8870,
      "▁ንምርካብ": 8871,
      "▁አላህም": 8872,
      "▁ተቀባይ": 8873,
      "##ጦም": 8874,
      "##ጠባዊ": 8875,
      "▁መጓ": 8876,
      "▁መንነት": 8877,
      "▁አውሮፕ": 8878,
      "▁ዝዀ": 8879,
      "▁የተወለ": 8880,
      "▁ገይሮም": 8881,
      "▁ዝበለጸ": 8882,
      "▁መላእኽቲ": 8883,
      "▁ኮይን": 8884,
      "##:18": 8885,
      "▁ክትብል": 8886,
      "##ሕብ": 8887,
      "##ቀይ": 8888,
      "▁ማመን": 8889,
      "▁ይፈልጋሉ": 8890,
      "▁ፍራን": 8891,
      "▁ገቢ": 8892,
      "▁ፈረ": 8893,
      "▁ይወድ": 8894,
      "##ፈለገ": 8895,
      "▁ዝነበረት": 8896,
      "▁ሒዝ": 8897,
      "##and": 8898,
      "▁ንኺ": 8899,
      "▁ህግ": 8900,
      "##ህ?": 8901,
      "▁ነፋ": 8902,
      "▁ቢሆንም,": 8903,
      "▁h": 8904,
      "##ልያ": 8905,
      "▁ህ.": 8906,
      "##ገሪቱ": 8907,
      "▁ረኸ": 8908,
      "▁ማስረጃ": 8909,
      "▁ሊያስ": 8910,
      "##ሰማያት": 8911,
      "##ጻት": 8912,
      "▁ብጽ": 8913,
      "▁ማዕከ": 8914,
      "##ገበር": 8915,
      "▁ጸሓይ": 8916,
      "▁ኣካይ": 8917,
      "▁በዝ": 8918,
      "▁ሚና": 8919,
      "▁ውስ": 8920,
      "▁ጌርና": 8921,
      "▁ለሌሎች": 8922,
      "▁ናብራ": 8923,
      "▁ንምግባር": 8924,
      "▁ደረጃዎች": 8925,
      "▁መምህ": 8926,
      "▁ዓንቀ": 8927,
      "##ደንበ": 8928,
      "▁ዝሓሸ": 8929,
      "##ችም": 8930,
      "##ፋር": 8931,
      "▁ትኸውን": 8932,
      "▁ኣሎና": 8933,
      "▁ክንብል": 8934,
      "▁ንጸ": 8935,
      "▁የሳ": 8936,
      "▁ይመር": 8937,
      "▁ክር": 8938,
      "▁የአላህ": 8939,
      "▁ናቸው፤": 8940,
      "▁ተገቢ": 8941,
      "##ለስተ": 8942,
      "▁የሚመጣ": 8943,
      "##ካከል": 8944,
      "▁ኣብርሃም": 8945,
      "▁እብለ": 8946,
      "##ዛሬው": 8947,
      "##ልክት": 8948,
      "##ቃይ": 8949,
      "▁ልበይ": 8950,
      "▁ተጠቒ": 8951,
      "▁ወለዲ": 8952,
      "##ሩሲያ": 8953,
      "▁አራ": 8954,
      "▁ንምስ": 8955,
      "##ዎቻቸው": 8956,
      "▁ሽልማት": 8957,
      "▁ዛሬም": 8958,
      "▁አፍሪካ": 8959,
      "##የና": 8960,
      "▁ብኢ": 8961,
      "▁ውጽኢት": 8962,
      "▁ለረጅም": 8963,
      "##ሌክትሪክ": 8964,
      "▁የሎ": 8965,
      "▁ቢሮ": 8966,
      "▁መስማት": 8967,
      "##ኹን": 8968,
      "▁የሚሆኑት": 8969,
      "▁በምት": 8970,
      "▁ኣቱም": 8971,
      "▁ምኞ": 8972,
      "▁ጠዋት": 8973,
      "▁አውሮፓ": 8974,
      "##ኽብ": 8975,
      "##ግብኣ": 8976,
      "▁ተቐቢ": 8977,
      "▁ሰላምን": 8978,
      "##ንጻ": 8979,
      "▁(መ": 8980,
      "▁በመጠቀም": 8981,
      "▁አበ": 8982,
      "▁ማረ": 8983,
      "▁ይጽ": 8984,
      "▁ተተ": 8985,
      "##ቤል": 8986,
      "▁ጽቡቅ": 8987,
      "▁\"ሕ": 8988,
      "▁ደሞ": 8989,
      "▁የሚለውን": 8990,
      "▁ዝተኣ": 8991,
      "▁የድ": 8992,
      "▁ብህይወት": 8993,
      "▁ምሁ": 8994,
      "▁ወዘተ": 8995,
      "▁\"ተ": 8996,
      "##ኽእሎ": 8997,
      "▁ማንበብ": 8998,
      "▁ቁሩብ": 8999,
      "▁ብቸኛ": 9000,
      "▁በፊ": 9001,
      "▁ይሰራ": 9002,
      "▁ክዕ": 9003,
      "##ለወጥ": 9004,
      "##ደልዮ": 9005,
      "▁ሆይ፣": 9006,
      "##ሪን": 9007,
      "▁ዝገብሮ": 9008,
      "▁'ኣ": 9009,
      "##ከይድ": 9010,
      "▁የቤት": 9011,
      "▁\"አንተ": 9012,
      "▁ሕጻ": 9013,
      "##ቀበ": 9014,
      "▁ሀሳ": 9015,
      "▁ረገድ": 9016,
      "▁ሙስሊ": 9017,
      "##of": 9018,
      "▁ጠፊ": 9019,
      "##ስታወስ": 9020,
      "##ፈለጥ": 9021,
      "##ርሳ": 9022,
      "##ተርፍ": 9023,
      "▁ስምዒት": 9024,
      "▁ነው;": 9025,
      "▁ባህሊ": 9026,
      "▁ግዴታ": 9027,
      "##ጎም": 9028,
      "▁በከፍተኛ": 9029,
      "▁ክስተት": 9030,
      "▁ዝደለ": 9031,
      "▁ጣል": 9032,
      "▁ነጥቢ": 9033,
      "##የሁ": 9034,
      "##ቦን": 9035,
      "##ጾች": 9036,
      "▁ይችላል,": 9037,
      "▁እድገት": 9038,
      "##ጋሕ": 9039,
      "##ሞችን": 9040,
      "▁አስገራሚ": 9041,
      "▁ቤተሰቦች": 9042,
      "##እነዚያ": 9043,
      "▁ብና": 9044,
      "▁ናበይ": 9045,
      "▁ኣይደ": 9046,
      "##ኹም፡": 9047,
      "▁አስተዋ": 9048,
      "##እግዚአብሔር": 9049,
      "▁እየ፣": 9050,
      "▁ተሓቢ": 9051,
      "▁ሜዳ": 9052,
      "▁ሓጺር": 9053,
      "▁ስቕ": 9054,
      "▁ባንክ": 9055,
      "##ሰጡ": 9056,
      "▁ተጣ": 9057,
      "▁ካልሆነ": 9058,
      "▁፦": 9059,
      "##ጻል": 9060,
      "▁አሳይ": 9061,
      "▁ክነብር": 9062,
      "▁መልእክት": 9063,
      "##ዘብ": 9064,
      "▁እርግጥ": 9065,
      "▁ዝድ": 9066,
      "▁ስዊ": 9067,
      "▁iPhone": 9068,
      "##ናችሁ": 9069,
      "▁ሰራሕተኛታት": 9070,
      "##ሠሩት": 9071,
      "▁ያው": 9072,
      "▁ውር": 9073,
      "▁ተራእ": 9074,
      "▁ርዕስ": 9075,
      "##ላድ": 9076,
      "##ጐይታ": 9077,
      "▁ዋዕላ": 9078,
      "##ጡፍ": 9079,
      "▁ስማ": 9080,
      "▁ሓዳር": 9081,
      "##መሩ": 9082,
      "▁ጊዜው": 9083,
      "##ሦስት": 9084,
      "▁ናጻ": 9085,
      "▁ዓረብ": 9086,
      "▁42": 9087,
      "▁2012": 9088,
      "▁እናውቃለን": 9089,
      "▁ፍርቂ": 9090,
      "##ከሰት": 9091,
      "▁በህ": 9092,
      "▁ብጥ": 9093,
      "▁ማግ": 9094,
      "▁አጠቃ": 9095,
      "▁ለመጠበቅ": 9096,
      "▁ላዕ": 9097,
      "▁ምግቢ": 9098,
      "##መካ": 9099,
      "▁'ን": 9100,
      "##:13": 9101,
      "##ግስ": 9102,
      "##እለ": 9103,
      "##መይቲ": 9104,
      "##ጀምር": 9105,
      "▁ዕር": 9106,
      "▁ተባዕ": 9107,
      "▁ግልፅ": 9108,
      "▁የተመሠረተ": 9109,
      "▁በውስጡ": 9110,
      "▁ሚኒስትር": 9111,
      "▁በሺ": 9112,
      "▁ደንበኞች": 9113,
      "##ወዱ": 9114,
      "▁ጥቁር": 9115,
      "▁ዮሃንስ": 9116,
      "▁መጠየቅ": 9117,
      "▁ዝርከቡ": 9118,
      "▁ጊዜያት": 9119,
      "▁የማን": 9120,
      "▁ቓ": 9121,
      "##ዳዊ": 9122,
      "▁ጠባ": 9123,
      "▁መሆናቸውን": 9124,
      "##ወጽእ": 9125,
      "▁ነጊ": 9126,
      "▁ተጨ": 9127,
      "▁አባቴ": 9128,
      "##ኮል": 9129,
      "▁አጭር": 9130,
      "▁197": 9131,
      "▁ምዃኖም": 9132,
      "##ብጻሕ": 9133,
      "▁አይሆንም": 9134,
      "▁ስድስት": 9135,
      "▁ምንቅስቓስ": 9136,
      "▁ህብረት": 9137,
      "▁ክፍሊት": 9138,
      "▁በድን": 9139,
      "##ሉን።": 9140,
      "▁ጸልማት": 9141,
      "▁ሳሙኤል": 9142,
      "##:19": 9143,
      "▁ተቓውሞ": 9144,
      "##ወካ": 9145,
      "▁የሚች": 9146,
      "##ራስዎ": 9147,
      "##ባቱ": 9148,
      "▁ሶፍትዌር": 9149,
      "##ብሪካ": 9150,
      "##ጨለማ": 9151,
      "##ላችኋለሁ": 9152,
      "▁ኣርእስቲ": 9153,
      "##ቹም": 9154,
      "▁ክፋ": 9155,
      "▁ልማት": 9156,
      "▁እያንዳንዳ": 9157,
      "▁መርከብ": 9158,
      "▁ትሆና": 9159,
      "▁ናብታ": 9160,
      "▁ስምምነት": 9161,
      "▁90": 9162,
      "▁ራስህን": 9163,
      "##ብዝ": 9164,
      "##ረኽበ": 9165,
      "▁ዎቹ": 9166,
      "##-19": 9167,
      "▁\"ነ": 9168,
      "▁በእጅ": 9169,
      "##ግብኦ": 9170,
      "▁የጤና": 9171,
      "▁የሚያደርጉ": 9172,
      "▁ሰባት፡": 9173,
      "▁ይዞ": 9174,
      "▁ግቡእ": 9175,
      "▁የሚጠ": 9176,
      "▁ዶብ": 9177,
      "▁ሕልሚ": 9178,
      "##ምም": 9179,
      "##ጉን": 9180,
      "▁አመጣ": 9181,
      "##ወስደ": 9182,
      "▁ማስታወቂያ": 9183,
      "##መዓ": 9184,
      "▁ትራም": 9185,
      "▁ገን": 9186,
      "▁ክንከውን": 9187,
      "▁ንምሕ": 9188,
      "▁ዝለዓለ": 9189,
      "▁አሸናፊ": 9190,
      "##ግሩ": 9191,
      "##ፍሬ": 9192,
      "▁ሓቲ": 9193,
      "##ርግጋ": 9194,
      "▁ሥልጣን": 9195,
      "▁ኅ": 9196,
      "##ጋገ": 9197,
      "▁ንባዕ": 9198,
      "▁ሰማዕ": 9199,
      "▁ክንገብር": 9200,
      "▁ቦታታት": 9201,
      "##ዘጋጀት": 9202,
      "##ሽከርካ": 9203,
      "▁ይከኣ": 9204,
      "▁ዝናብ": 9205,
      "▁ተው": 9206,
      "▁ቤተክርስትያን": 9207,
      "##ሊና": 9208,
      "▁ፈት": 9209,
      "▁ተጠንቀ": 9210,
      "▁ናችሁ": 9211,
      "▁ኣበር": 9212,
      "▁ፈላ": 9213,
      "▁ነበር?": 9214,
      "▁የእሱ": 9215,
      "▁'የ": 9216,
      "▁ሚእ": 9217,
      "##ሓዊ": 9218,
      "▁የራሱ": 9219,
      "▁ብለህ": 9220,
      "##ዎችም": 9221,
      "▁ይኽ": 9222,
      "▁ግንዛ": 9223,
      "##ወሰደ": 9224,
      "▁መሳሪያ": 9225,
      "▁n": 9226,
      "##ባእ": 9227,
      "##ቃቄ": 9228,
      "▁ኣይሁድ": 9229,
      "▁ሰነድ": 9230,
      "##ክሩ": 9231,
      "##ሽቱ": 9232,
      "▁እፈልጥ": 9233,
      "▁ንደቂ": 9234,
      "##3|": 9235,
      "▁እንዳት": 9236,
      "▁ልምዓት": 9237,
      "▁....": 9238,
      "##እዝ": 9239,
      "▁በገ": 9240,
      "▁J": 9241,
      "▁የፀ": 9242,
      "▁ዓሳ": 9243,
      "##ለድ": 9244,
      "▁ዳዊ": 9245,
      "##eb": 9246,
      "##ለበት": 9247,
      "▁እንፈልጋ": 9248,
      "▁ጠፍ": 9249,
      "##ዘዙ": 9250,
      "▁ኢዱ": 9251,
      "▁ሞትን": 9252,
      "▁ዝኸፍ": 9253,
      "▁አይደለሁም": 9254,
      "▁ንዝተ": 9255,
      "▁ስንት": 9256,
      "▁በባ": 9257,
      "▁ነዎት": 9258,
      "##ወስዱ": 9259,
      "##ኮን": 9260,
      "▁በዋ": 9261,
      "▁ዝብሎ": 9262,
      "▁በመላው": 9263,
      "▁ሳለ": 9264,
      "##ቤተሰ": 9265,
      "##ዱሽተ": 9266,
      "▁ኣሰ": 9267,
      "▁ፈቃደኛ": 9268,
      "##ታታ": 9269,
      "▁ልደት": 9270,
      "▁አብሮ": 9271,
      "▁ፍቅሪ": 9272,
      "##ቖም": 9273,
      "▁ኣደይ": 9274,
      "▁ያም": 9275,
      "▁ተሰም": 9276,
      "▁ከሰማይ": 9277,
      "##'ኸ": 9278,
      "##:,": 9279,
      "▁ክኸይድ": 9280,
      "▁ዓይኒ": 9281,
      "##ሰምዑ": 9282,
      "##ደነ": 9283,
      "##ሳውያን": 9284,
      "##ላችሁም": 9285,
      "##ታውን": 9286,
      "▁ህያው": 9287,
      "▁ፀገም": 9288,
      "▁ይላሉ።": 9289,
      "##ሱት": 9290,
      "##ጽሑፍ": 9291,
      "##ወከፍ": 9292,
      "##ፊክ": 9293,
      "▁በራ": 9294,
      "▁ለጥ": 9295,
      "▁ሓሊ": 9296,
      "▁በአብዛ": 9297,
      "▁ድንቅ": 9298,
      "##ሽም": 9299,
      "##ዘም": 9300,
      "##ክረ": 9301,
      "##ለኝ": 9302,
      "▁ማነው": 9303,
      "▁ልምድ": 9304,
      "##ፈሪ": 9305,
      "##ዚ፡": 9306,
      "▁ከተማታት": 9307,
      "##ረፉ": 9308,
      "▁መልካ": 9309,
      "##ንግል": 9310,
      "▁እንደሚሆን": 9311,
      "▁ፍልልይ": 9312,
      "##ታችንን": 9313,
      "##ምባ": 9314,
      "▁ተቀም": 9315,
      "▁ትደሊ": 9316,
      "##ኤስ": 9317,
      "▁አንድም": 9318,
      "▁መጺኡ": 9319,
      "▁ይገኛል": 9320,
      "▁እንግሊዝኛ": 9321,
      "▁ገር": 9322,
      "▁የቤተሰብ": 9323,
      "▁ለመሄድ": 9324,
      "▁በልዎ።": 9325,
      "##ተም": 9326,
      "##ቪዲዮ": 9327,
      "▁በሃ": 9328,
      "▁ከሁለት": 9329,
      "▁ፍለጋ": 9330,
      "▁መድሃኒት": 9331,
      "##ጨመር": 9332,
      "▁በረራ": 9333,
      "##ሳር": 9334,
      "▁በሀ": 9335,
      "▁ለመጀመር": 9336,
      "▁ዘለኻ": 9337,
      "▁ኒው": 9338,
      "▁ጠላት": 9339,
      "▁፳": 9340,
      "##ልዕ": 9341,
      "▁መርዓ": 9342,
      "▁ውህ": 9343,
      "▁እንዳለው": 9344,
      "##ላታት": 9345,
      "##ማራ": 9346,
      "▁ኸአ": 9347,
      "##ካኤል": 9348,
      "▁ኮሌ": 9349,
      "##ስዕቡ": 9350,
      "▁ቁጥጥር": 9351,
      "##ልስ": 9352,
      "▁ፕሬዚ": 9353,
      "▁ብርቱዕ": 9354,
      "##ድርግ": 9355,
      "▁መሣሪያዎች": 9356,
      "▁ብሰላም": 9357,
      "##መንግስቲ": 9358,
      "##ቀኝ": 9359,
      "▁ያመጣ": 9360,
      "▁መደባት": 9361,
      "##ጠይቅ": 9362,
      "▁ፈረንሳይ": 9363,
      "##ያጭ": 9364,
      "##ኒ\"": 9365,
      "▁ኢልኩም": 9366,
      "##ot": 9367,
      "▁ይግባ": 9368,
      "▁ወሪ": 9369,
      "##በልና": 9370,
      "▁ምምላ": 9371,
      "▁ኩለን": 9372,
      "▁ሆይ፤": 9373,
      "##'ዶ?": 9374,
      "##እ።": 9375,
      "▁ነግ": 9376,
      "##ነገሩ": 9377,
      "▁ይዘት": 9378,
      "▁ኣረኣ": 9379,
      "▁ባሉ": 9380,
      "▁ዝፈልጦ": 9381,
      "##ዳሉ": 9382,
      "▁ለእነሱ": 9383,
      "##ታ።": 9384,
      "##ጠም": 9385,
      "▁ፍቃ": 9386,
      "##ኻየደ": 9387,
      "##ማድ": 9388,
      "▁አለም": 9389,
      "▁ሒደት": 9390,
      "▁ጥንካ": 9391,
      "##ዛረብ።": 9392,
      "▁የመስመር": 9393,
      "▁ሰሙ": 9394,
      "▁ትው": 9395,
      "##ጠየቅ": 9396,
      "##ዋለሁ።": 9397,
      "▁ክሊ": 9398,
      "##ምህርቲ": 9399,
      "##ክርስቲያን": 9400,
      "▁1.": 9401,
      "▁ያደርገ": 9402,
      "▁ዓለምና": 9403,
      "▁እባክዎን": 9404,
      "▁ወተሃደ": 9405,
      "▁ጋር,": 9406,
      "▁ይሄን": 9407,
      "▁ጋዜጠኛ": 9408,
      "▁ይሆን?": 9409,
      "##ጓደ": 9410,
      "▁እላ": 9411,
      "##ውቀው": 9412,
      "▁መድኃ": 9413,
      "▁በደል": 9414,
      "##በታል።": 9415,
      "##ህንም": 9416,
      "##ማረ": 9417,
      "##ማሩ": 9418,
      "▁በሁለት": 9419,
      "▁ማክ": 9420,
      "##ለሁ\"": 9421,
      "##200": 9422,
      "▁ንዚ": 9423,
      "▁Next": 9424,
      "▁ኣይኮንኩ": 9425,
      "##ዎታ": 9426,
      "▁ክኾኑ": 9427,
      "▁አረ": 9428,
      "▁ብምን": 9429,
      "##ሎምን።": 9430,
      "##ተቱ": 9431,
      "##አላህ": 9432,
      "▁ምናልባትም": 9433,
      "▁ኣይፈልጥን": 9434,
      "##ነ-": 9435,
      "##ss": 9436,
      "▁በህይወት": 9437,
      "▁48": 9438,
      "▁ፈጺሙ": 9439,
      "##በሮም": 9440,
      "▁39": 9441,
      "▁ጋዜጣ": 9442,
      "▁ዜጎች": 9443,
      "▁የባቡር": 9444,
      "▁ኴ": 9445,
      "##ትኻ": 9446,
      "##ኻት": 9447,
      "▁ዝመስ": 9448,
      "▁ያምና": 9449,
      "##ቆጣጠር": 9450,
      "▁ወሳኝ": 9451,
      "▁ደል": 9452,
      "▁አይችልም።": 9453,
      "▁ር.": 9454,
      "##ትል": 9455,
      "▁ከዛ": 9456,
      "##ገለጸ": 9457,
      "▁ይችላሉ,": 9458,
      "##ዋሚ": 9459,
      "▁ካናዳ": 9460,
      "##ዕር": 9461,
      "##ኝን": 9462,
      "##ጣር": 9463,
      "▁ለወ": 9464,
      "▁ዝተቐ": 9465,
      "▁ጸኒሑ": 9466,
      "▁ኻል": 9467,
      "##ation": 9468,
      "##ገነባ": 9469,
      "##ጸራ": 9470,
      "▁ፈቲ": 9471,
      "▁ድሕሪኡ": 9472,
      "▁ኹ": 9473,
      "▁ኣረ": 9474,
      "##ንነት": 9475,
      "▁ሓጥ": 9476,
      "▁ቀለም": 9477,
      "▁ብዝኾነ": 9478,
      "##ጦር": 9479,
      "▁ከደ": 9480,
      "▁ኔሩ": 9481,
      "##ጊዕ": 9482,
      "▁ዘዳ": 9483,
      "##ዋህ": 9484,
      "▁በጽ": 9485,
      "▁ጥቓ": 9486,
      "▁ህፃ": 9487,
      "▁ኦም": 9488,
      "▁በዛ": 9489,
      "▁ድሕ": 9490,
      "▁ደራሲ": 9491,
      "##ስትና": 9492,
      "▁ኣፍሊ": 9493,
      "##ጠብቅ": 9494,
      "▁ወንጀ": 9495,
      "▁ድሕነት": 9496,
      "▁ዓመታዊ": 9497,
      "##'ታ": 9498,
      "▁\"ወ": 9499,
      "▁ሁሌም": 9500,
      "▁በሎም": 9501,
      "▁ንቡር": 9502,
      "▁ምልክቶች": 9503,
      "▁ትራምፕ": 9504,
      "▁የቱ": 9505,
      "##ገናኘ": 9506,
      "▁ምዕራብ": 9507,
      "▁ምንጪ": 9508,
      "##ዩም": 9509,
      "▁የሚያሳ": 9510,
      "▁ፃ": 9511,
      "##ድማ": 9512,
      "▁በወቅቱ": 9513,
      "▁ማዕከል": 9514,
      "▁ስኬታማ": 9515,
      "##ለኒ": 9516,
      "▁አይኖር": 9517,
      "##:17": 9518,
      "▁ተቀባይነት": 9519,
      "##አዊ": 9520,
      "▁ኮይነ": 9521,
      "▁ያውቃል": 9522,
      "▁ጡ": 9523,
      "▁ናብዚ": 9524,
      "▁መዝገብ": 9525,
      "▁ተዋሂ": 9526,
      "##ርሽ": 9527,
      "▁ብጾ": 9528,
      "▁ምሃብ": 9529,
      "▁እዋን፡": 9530,
      "▁ጥበበኛ": 9531,
      "▁አእምሮ": 9532,
      "▁ምስቶም": 9533,
      "▁ይመለሳ": 9534,
      "##ድስ": 9535,
      "##ጠፉ": 9536,
      "▁ነተን": 9537,
      "##ሃይማኖ": 9538,
      "##በራት": 9539,
      "##ታትካ": 9540,
      "▁አንደ": 9541,
      "▁ግናኸ፡": 9542,
      "##ኮይኑ": 9543,
      "##ርኪ": 9544,
      "##ኑን።": 9545,
      "##ሸን": 9546,
      "##ሙና": 9547,
      "▁ተካ": 9548,
      "▁ካለው": 9549,
      "##ገናኛ": 9550,
      "##ሳው": 9551,
      "▁እግዚአብሄር": 9552,
      "▁ቀድሞውኑ": 9553,
      "▁ታሕቲ": 9554,
      "▁ኣምላኽ፡": 9555,
      "▁ያእቆብ": 9556,
      "▁ትብል።": 9557,
      "##ልበት": 9558,
      "▁ለማንኛውም": 9559,
      "##ናፍ": 9560,
      "##ጣሉ": 9561,
      "##ገኙት": 9562,
      "▁\"ከም": 9563,
      "##ኻኽር": 9564,
      "##ቦና": 9565,
      "▁መቃ": 9566,
      "▁ያዕቆብ": 9567,
      "▁ተሰጥ": 9568,
      "▁ተማሂ": 9569,
      "▁የለውም።": 9570,
      "▁44": 9571,
      "▁ዝኣክል": 9572,
      "▁ኣንስቲ": 9573,
      "##art": 9574,
      "▁የሶ": 9575,
      "▁ንምው": 9576,
      "##ግዳ": 9577,
      "##ፍትን": 9578,
      "▁መገድ": 9579,
      "▁ካሊ": 9580,
      "##እስ": 9581,
      "▁በረኻ": 9582,
      "▁ሰሎሞን": 9583,
      "##ተይን": 9584,
      "##ሯቸው": 9585,
      "▁ስምዒ": 9586,
      "▁ትንሳኤ": 9587,
      "##ተተ": 9588,
      "▁አቤቱ": 9589,
      "▁አንዴ": 9590,
      "▁እወ፡": 9591,
      "▁Read": 9592,
      "##እኛ": 9593,
      "▁ንብረ": 9594,
      "▁ተመለስ": 9595,
      "▁ቅድሜ": 9596,
      "▁አድርግ": 9597,
      "##የሩሳሌም": 9598,
      "▁አሰ": 9599,
      "▁ኣይመስለን": 9600,
      "##ሪዝም": 9601,
      "▁መስራት": 9602,
      "▁ርእስኻ": 9603,
      "##ኸል": 9604,
      "▁የኔ": 9605,
      "▁ይት": 9606,
      "▁·": 9607,
      "▁እንተድኣ": 9608,
      "▁ዚርከብ": 9609,
      "▁እጃ": 9610,
      "▁ኣቡ": 9611,
      "▁ኤርትራዊ": 9612,
      "▁የድር": 9613,
      "▁ነገረ": 9614,
      "▁ምርኣይ": 9615,
      "▁የመጨረሻው": 9616,
      "▁ሓርነት": 9617,
      "▁አይደል?": 9618,
      "##ምልከ": 9619,
      "##ከላከል": 9620,
      "▁አምና": 9621,
      "▁ኢሜ": 9622,
      "▁ከምት": 9623,
      "▁ሕገ": 9624,
      "▁አማካኝነት": 9625,
      "▁እቅድ": 9626,
      "##ነትና": 9627,
      "▁እንደነበረ": 9628,
      "##ዋቸው": 9629,
      "▁ለሰው": 9630,
      "▁ዩናይትድ": 9631,
      "##ቀረ": 9632,
      "##ሌን": 9633,
      "##ጠብቃ": 9634,
      "##ምፒ": 9635,
      "▁ናይቶም": 9636,
      "▁ለዚህም": 9637,
      "##መሓ": 9638,
      "▁የን": 9639,
      "▁እንጌ": 9640,
      "▁ብምስ": 9641,
      "##ስትራሊያ": 9642,
      "▁ዘብ": 9643,
      "▁ጸሓ": 9644,
      "▁ሂደ": 9645,
      "▁ኣዝዮም": 9646,
      "▁ይሁንና": 9647,
      "##ፈጥር": 9648,
      "##vi": 9649,
      "##ቨር": 9650,
      "##ቪድ": 9651,
      "▁በትን": 9652,
      "▁(ለ": 9653,
      "▁ታስ": 9654,
      "▁ቃሉ": 9655,
      "##:20": 9656,
      "▁ንገረ": 9657,
      "▁ይመጣል": 9658,
      "▁ኛው": 9659,
      "##ጠቐ": 9660,
      "##ፀን": 9661,
      "##ቑ።": 9662,
      "▁መኖሪያ": 9663,
      "▁ኣለው": 9664,
      "▁(ም": 9665,
      "▁ሳይንስ": 9666,
      "▁ጤ": 9667,
      "##ላቀ": 9668,
      "##ባ።": 9669,
      "▁የመንግ": 9670,
      "▁እግሪ": 9671,
      "▁በርሱ": 9672,
      "▁የፍቅር": 9673,
      "▁ዝዝ": 9674,
      "▁ኣይረኸ": 9675,
      "▁ክርስቲያኖች": 9676,
      "▁ጋንታ": 9677,
      "##ባረ": 9678,
      "##ቆት": 9679,
      "▁ቢኖር": 9680,
      "##ወሰድ": 9681,
      "▁ኢየሱስም": 9682,
      "▁እሷን": 9683,
      "▁ዑቕ": 9684,
      "▁ዂሉ": 9685,
      "▁ህዝብታት": 9686,
      "##ገበያ": 9687,
      "##ኮኑ": 9688,
      "##ጋስ": 9689,
      "##ፔን": 9690,
      "▁ስላል": 9691,
      "▁መሊሱ": 9692,
      "▁መሐ": 9693,
      "▁ንነብ": 9694,
      "▁አልችልም": 9695,
      "▁ዘለና።": 9696,
      "▁ቅድሚኡ": 9697,
      "▁ብለዋል": 9698,
      "##ረፍቲ": 9699,
      "▁ኣዴ": 9700,
      "▁ወፍ": 9701,
      "▁አለበት.": 9702,
      "##ቃም": 9703,
      "##ውቲ": 9704,
      "##ለዩ": 9705,
      "▁ምቹ": 9706,
      "▁ደቅ": 9707,
      "▁መፈለግ": 9708,
      "▁ነገሩ": 9709,
      "▁ያስፈልግ": 9710,
      "##ዛረበ": 9711,
      "▁ንነዊሕ": 9712,
      "▁አሕዛብ": 9713,
      "▁ትፈልጋ": 9714,
      "▁ያየ": 9715,
      "▁ጥፍ": 9716,
      "▁ንምም": 9717,
      "##ብሃ": 9718,
      "▁መልአክ": 9719,
      "##ጁን": 9720,
      "▁አይቀር": 9721,
      "▁የእኔን": 9722,
      "##ጅነት": 9723,
      "##ስጥኤ": 9724,
      "▁አለ.": 9725,
      "▁=": 9726,
      "##ላፍ": 9727,
      "##ook": 9728,
      "▁ዄ": 9729,
      "##ሎምን": 9730,
      "▁ዝካየድ": 9731,
      "▁ክዛረብ": 9732,
      "▁እነሆ፥": 9733,
      "▁ብህ": 9734,
      "▁ቀስ": 9735,
      "▁እየሰራ": 9736,
      "##፡+": 9737,
      "▁ገጹ": 9738,
      "▁ረሲ": 9739,
      "▁መቐለ": 9740,
      "▁ከጥቂት": 9741,
      "##አንተ": 9742,
      "▁የሐ": 9743,
      "▁ዝመል": 9744,
      "##ከላከ": 9745,
      "▁ንኣብነት፡": 9746,
      "▁እሺ": 9747,
      "▁ድኽ": 9748,
      "##ገልጽ።": 9749,
      "▁አስተማማኝ": 9750,
      "##ሓሉ": 9751,
      "▁ክረም": 9752,
      "▁ዓሚ": 9753,
      "▁ምንታይ": 9754,
      "##ለታ": 9755,
      "▁ብፁ": 9756,
      "▁ውድባት": 9757,
      "▁ጾም": 9758,
      "##--": 9759,
      "##ወሩ": 9760,
      "▁ክለ": 9761,
      "▁ስለተ": 9762,
      "▁ፈርኦን": 9763,
      "▁ክድ": 9764,
      "▁ዓድ": 9765,
      "▁2009": 9766,
      "##ችልም.": 9767,
      "##ግረ": 9768,
      "▁ኸዓ": 9769,
      "##በርካታ": 9770,
      "▁ንጥፈታት": 9771,
      "##መተ": 9772,
      "▁አስቀድሞ": 9773,
      "▁ፕላ": 9774,
      "▁ሃገረ": 9775,
      "▁ቤተሰቦ": 9776,
      "##ጎድ": 9777,
      "▁ትኽእል።": 9778,
      "▁2008": 9779,
      "▁የድሊ።": 9780,
      "▁ነበረት።": 9781,
      "##ሩኽ": 9782,
      "▁ምስል": 9783,
      "##ምስት": 9784,
      "##ራጃ": 9785,
      "▁ይጨ": 9786,
      "▁45": 9787,
      "▁ብዝሒ": 9788,
      "▁ሽማግሌ": 9789,
      "##ውነ": 9790,
      "##ና፤": 9791,
      "##ጽዓ": 9792,
      "▁ምግባ": 9793,
      "▁መብራ": 9794,
      "▁ድንኳን": 9795,
      "▁ክሰ": 9796,
      "▁ለመኖር": 9797,
      "▁ዳሕ": 9798,
      "##ድሽ": 9799,
      "▁ንማ": 9800,
      "▁ኣለዋ": 9801,
      "##:16": 9802,
      "▁ኣፍል": 9803,
      "▁ተጫዋች": 9804,
      "▁ወታደ": 9805,
      "##-3": 9806,
      "##ጥቀም": 9807,
      "##ቋንቋ": 9808,
      "▁በይነ": 9809,
      "▁ሊኖር": 9810,
      "##ድኩም": 9811,
      "▁ምድረ": 9812,
      "▁ክዳ": 9813,
      "▁በቅ": 9814,
      "##ያዝያ": 9815,
      "##op": 9816,
      "▁ዝብሃል": 9817,
      "##መንት": 9818,
      "##ቢብ": 9819,
      "▁ሰፈር": 9820,
      "▁ህዝቡ": 9821,
      "▁ዛዕባ": 9822,
      "##ጠፍእ": 9823,
      "▁ሓያሎ": 9824,
      "##ረትን": 9825,
      "▁ቅዱስን": 9826,
      "##ጢሩ": 9827,
      "▁ነዳ": 9828,
      "▁ይደሊ": 9829,
      "▁ደሓን": 9830,
      "##ርእየ": 9831,
      "▁ትእዛዛት": 9832,
      "##ቡና": 9833,
      "##ዑ፡": 9834,
      "▁(ይ": 9835,
      "▁ልብስ": 9836,
      "▁ዙርያ": 9837,
      "##ነግር": 9838,
      "##ረደ": 9839,
      "▁ብምኽንያት": 9840,
      "▁ዕቃ": 9841,
      "▁ኪቕ": 9842,
      "▁በዙሪያ": 9843,
      "##ጎብኘት": 9844,
      "▁አምል": 9845,
      "▁ባዶ": 9846,
      "##ለይን።": 9847,
      "▁ድርጅቶች": 9848,
      "▁ወረዳ": 9849,
      "##ቡት": 9850,
      "##ቴጂ": 9851,
      "##ኝ፤": 9852,
      "##ጸና": 9853,
      "▁መደበኛ": 9854,
      "▁ጽድቂ": 9855,
      "##ia": 9856,
      "##ፃኢ": 9857,
      "▁ይሁ": 9858,
      "▁ክዝ": 9859,
      "▁ካላ": 9860,
      "▁የእግር": 9861,
      "##ሃል?": 9862,
      "▁ተወሊ": 9863,
      "##14": 9864,
      "▁መረዳ": 9865,
      "▁እንዲህም": 9866,
      "##ut": 9867,
      "▁እንዴ?": 9868,
      "▁መድረክ": 9869,
      "▁የነበሩት": 9870,
      "▁ጥላ": 9871,
      "▁ጥል": 9872,
      "▁ንድሕሪ": 9873,
      "▁ውሕስነት": 9874,
      "##ርዎ": 9875,
      "##ቨስት": 9876,
      "▁ጸዊ": 9877,
      "▁አብረን": 9878,
      "##ቸዋል.": 9879,
      "▁በተሻለ": 9880,
      "##ፈታ": 9881,
      "▁የመጡ": 9882,
      "##:14": 9883,
      "▁ኣንብ": 9884,
      "##ew": 9885,
      "▁ይደ": 9886,
      "▁ንፍ": 9887,
      "▁እንደመ": 9888,
      "▁መሳሪያዎች": 9889,
      "▁የብሉን": 9890,
      "##em": 9891,
      "▁እሷም": 9892,
      "▁እድሜ": 9893,
      "▁አለ,": 9894,
      "▁መለስ": 9895,
      "▁ክስተቶች": 9896,
      "##እነርሱ": 9897,
      "##ጻፍ": 9898,
      "##ሞንተ": 9899,
      "▁ኣጥ": 9900,
      "##ሰይጣን": 9901,
      "##ቶቡስ": 9902,
      "##ለቅ": 9903,
      "##ሚን": 9904,
      "##ጓድ": 9905,
      "▁ይናገራ": 9906,
      "▁ንሶም": 9907,
      "▁ተቆ": 9908,
      "▁ተመዝ": 9909,
      "▁ይመስላል።": 9910,
      "▁ተረኺ": 9911,
      "▁መራኸ": 9912,
      "▁ምዕባለ": 9913,
      "##ኦ።": 9914,
      "▁ፋብሪካ": 9915,
      "▁ይገባል።": 9916,
      "▁ዉን": 9917,
      "##ኒን": 9918,
      "▁ያረጋግ": 9919,
      "▁ሐሳብ": 9920,
      "▁ቋንቋዎች": 9921,
      "##ፈሻዊ": 9922,
      "##ላ፡": 9923,
      "##ኣያ": 9924,
      "▁ሓይልታት": 9925,
      "##ሁ፤": 9926,
      "##ሻል": 9927,
      "▁ባህላዊ": 9928,
      "##ላጽ": 9929,
      "▁የራስ": 9930,
      "▁ሓጢ": 9931,
      "▁ዘይሕ": 9932,
      "##ቸዋለሁ": 9933,
      "##ናሽ": 9934,
      "##ኦምን": 9935,
      "##ኖ።": 9936,
      "▁ማል": 9937,
      "▁ወደዚህ": 9938,
      "##ቃሉ": 9939,
      "##ኑ፡": 9940,
      "##ኛታት": 9941,
      "▁ንዓለም": 9942,
      "▁ማራ": 9943,
      "##ብርሃን": 9944,
      "▁ግምገማ": 9945,
      "▁አድና": 9946,
      "▁ኢያ።": 9947,
      "##በልዕ": 9948,
      "▁ሆነ።": 9949,
      "##ራሳችን": 9950,
      "▁ይክ": 9951,
      "▁ፈጠ": 9952,
      "▁ተደርጓ": 9953,
      "▁ጩ": 9954,
      "##ነር": 9955,
      "▁መጽሔ": 9956,
      "##የትኛውም": 9957,
      "##ኒ፣": 9958,
      "▁ተነሳ": 9959,
      "▁ልዕል": 9960,
      "▁ለማረጋገጥ": 9961,
      "▁196": 9962,
      "##ላዕ": 9963,
      "##ሊያን": 9964,
      "▁መርመራ": 9965,
      "##ፈጠረው": 9966,
      "▁ኢየሩሳሌም": 9967,
      "▁ሽማግለ": 9968,
      "▁ኣረጋ": 9969,
      "▁ከጊዜ": 9970,
      "##ጠንቀ": 9971,
      "▁አህ": 9972,
      "▁እንኮ": 9973,
      "▁ውጪ": 9974,
      "▁ዝርዝ": 9975,
      "▁ኢሳያስ": 9976,
      "▁ዕዉ": 9977,
      "▁ከመጀመሪያ": 9978,
      "##ቱ፡": 9979,
      "▁አንብ": 9980,
      "▁X": 9981,
      "##ኾም": 9982,
      "▁ረዳ": 9983,
      "▁ባህሪያ": 9984,
      "▁በአምላክ": 9985,
      "▁ብቑ": 9986,
      "▁ሆኑ": 9987,
      "##ሽሓት": 9988,
      "▁ከንቱ": 9989,
      "▁ይወጣ": 9990,
      "▁ተልእ": 9991,
      "▁\"ወደ": 9992,
      "▁ማእከላይ": 9993,
      "▁ኣረኣእያ": 9994,
      "▁ጾታዊ": 9995,
      "##ሸጥ": 9996,
      "▁አሮ": 9997,
      "▁እዮም፣": 9998,
      "##ችኋል።": 9999,
      "▁ክመጽእ": 10000,
      "##ኃጢአት": 10001,
      "##እዎ": 10002,
      "▁ለወደ": 10003,
      "▁ካም": 10004,
      "▁ኩባንያው": 10005,
      "▁ተገኝ": 10006,
      "▁ከሁሉ": 10007,
      "▁ለመረዳት": 10008,
      "▁ገበን": 10009,
      "##ጥቀመሉ": 10010,
      "##ሰጠው": 10011,
      "##ጨመረ": 10012,
      "##ጫን": 10013,
      "▁ብጻ": 10014,
      "▁ሓሲ": 10015,
      "▁ተሳትፎ": 10016,
      "##ሰባት": 10017,
      "##ፊል": 10018,
      "▁ኮሮና": 10019,
      "▁በታላቅ": 10020,
      "▁ንባብ": 10021,
      "▁ያደረገ": 10022,
      "##ዓትን": 10023,
      "▁በሥራ": 10024,
      "▁ይነብር": 10025,
      "▁ብምግባር": 10026,
      "▁ነበርኩ": 10027,
      "▁ነጻነት": 10028,
      "##ላቸውን": 10029,
      "##ኩት።": 10030,
      "##ገባት": 10031,
      "##ሽነት": 10032,
      "▁ስኬት": 10033,
      "▁አይታ": 10034,
      "▁በመሆኑ": 10035,
      "##ሰምዖ": 10036,
      "▁ይል": 10037,
      "▁ብጸ": 10038,
      "▁ምና": 10039,
      "▁ቀኝ": 10040,
      "▁አለው.": 10041,
      "▁በረከት": 10042,
      "▁መርገ": 10043,
      "##ላውን": 10044,
      "▁የከ": 10045,
      "▁ዝግባእ": 10046,
      "▁ግዙ": 10047,
      "##ዋዕት": 10048,
      "▁ያግኙ": 10049,
      "##'ከ": 10050,
      "##ቶም።": 10051,
      "▁ጎዳና": 10052,
      "▁አስተዳደር": 10053,
      "▁ቘ": 10054,
      "▁ንገዛእ": 10055,
      "▁ያገኘ": 10056,
      "▁ኣዳም": 10057,
      "▁ይገ": 10058,
      "▁ወኪ": 10059,
      "▁ተሰሚ": 10060,
      "▁ተጋዳ": 10061,
      "##ቶቻችሁ": 10062,
      "##1)": 10063,
      "▁ሽዱሽተ": 10064,
      "▁ሃብቲ": 10065,
      "##ባችን": 10066,
      "##ያቂ": 10067,
      "▁ዘጸ": 10068,
      "▁አባቱ": 10069,
      "▁ጦር": 10070,
      "▁መፍትሔ": 10071,
      "##ብሊክ": 10072,
      "▁በሐ": 10073,
      "▁ግፍ": 10074,
      "▁ማቴ": 10075,
      "▁ኣቀ": 10076,
      "▁ሓጐስ": 10077,
      "▁\"እኛ": 10078,
      "##ቐርብ": 10079,
      "##እናንተ": 10080,
      "##ያል።": 10081,
      "▁ይሞ": 10082,
      "##ካከት": 10083,
      "##ውንቲ": 10084,
      "▁ሠራተኞች": 10085,
      "▁ይከኣል።": 10086,
      "▁በማይ": 10087,
      "▁ወይኒ": 10088,
      "▁ጸወታ": 10089,
      "▁ጠር": 10090,
      "▁ኣነን": 10091,
      "▁ገደማ": 10092,
      "▁አብዛኛውን": 10093,
      "##ቀቀ": 10094,
      "##ቕ።": 10095,
      "▁የኃይል": 10096,
      "▁ንግዲ": 10097,
      "##ንጉሡ": 10098,
      "##ዓር": 10099,
      "▁ህዝበይ": 10100,
      "▁ኣማራ": 10101,
      "##ላዪ": 10102,
      "▁ብ19": 10103,
      "▁መግዛት": 10104,
      "▁መልእክ": 10105,
      "##ላቱ": 10106,
      "##ሥጋ": 10107,
      "▁ሕያ": 10108,
      "▁እንደዚሁ": 10109,
      "▁የእነሱ": 10110,
      "##ዋስ": 10111,
      "▁ቀለ": 10112,
      "▁ትጽቢት": 10113,
      "▁ዕቅድ": 10114,
      "▁መጻሕፍቲ": 10115,
      "▁የውሃ": 10116,
      "##ያዕቆብ": 10117,
      "##ጹጽ": 10118,
      "▁ከብዙ": 10119,
      "▁ጥቂ": 10120,
      "▁ኣለዎም": 10121,
      "##roid": 10122,
      "##'ቶም": 10123,
      "▁በጥን": 10124,
      "▁ነው...": 10125,
      "▁ዳይ": 10126,
      "▁ያልሆነ": 10127,
      "##ቅል": 10128,
      "##ጎዳ": 10129,
      "▁ኣመል": 10130,
      "▁ሆይ!": 10131,
      "▁ቡድኖች": 10132,
      "##ሃሩ": 10133,
      "##ኖችን": 10134,
      "▁ምንድነው?": 10135,
      "##ይ።": 10136,
      "##ኖት": 10137,
      "▁\"ል": 10138,
      "▁አማልክት": 10139,
      "▁ዋናው": 10140,
      "▁ብዘየ": 10141,
      "▁in": 10142,
      "▁ተኽ": 10143,
      "▁ቀጻሊ": 10144,
      "▁የተመሰ": 10145,
      "▁ናቸው?": 10146,
      "▁2011": 10147,
      "▁ኣንታ": 10148,
      "▁ዳንኤል": 10149,
      "##ባበር": 10150,
      "##ፕሬ": 10151,
      "▁መቓ": 10152,
      "##ለዋል": 10153,
      "▁ማለትም": 10154,
      "▁የምር": 10155,
      "##ፍለጥ።": 10156,
      "##ም፥": 10157,
      "##ደርሱ": 10158,
      "##በልካ": 10159,
      "▁ድሕር": 10160,
      "##ሩይ": 10161,
      "▁ንዑ": 10162,
      "▁ግሩም": 10163,
      "##ስተን": 10164,
      "▁ወንድም": 10165,
      "▁መዛሙ": 10166,
      "▁ለመስራት": 10167,
      "▁ዝኽእሉ": 10168,
      "▁በእሳት": 10169,
      "##ንዱስትሪ": 10170,
      "##ፌስቡክ": 10171,
      "▁የዕ": 10172,
      "▁መሰኻኽር": 10173,
      "##ክሬን": 10174,
      "##ለጥ": 10175,
      "▁And": 10176,
      "##ነታቸው": 10177,
      "▁ውብ": 10178,
      "▁ለመሆኑ": 10179,
      "##ኣም": 10180,
      "##ባበ": 10181,
      "##ወርድ": 10182,
      "##ውያ": 10183,
      "▁ለመድረስ": 10184,
      "▁ዝተኸ": 10185,
      "##ሞክራስ": 10186,
      "▁ይቕረ": 10187,
      "▁ንድሕሪት": 10188,
      "▁እላችኋለሁ": 10189,
      "▁የሽ": 10190,
      "##ያውቅ": 10191,
      "▁ሙሴን": 10192,
      "▁ዩኒቨርስ": 10193,
      "▁መፍትሒ": 10194,
      "▁የትኛው": 10195,
      "▁ምፍላጥ": 10196,
      "▁መሪሕነት": 10197,
      "▁ጣቢያዎች": 10198,
      "▁ጒ": 10199,
      "▁'ዩ": 10200,
      "##መጸ": 10201,
      "▁ጥንካሬ": 10202,
      "▁ቊ": 10203,
      "##ኣኸ": 10204,
      "▁እሙን": 10205,
      "▁ተመልከቱ": 10206,
      "▁ንዘለኣለም": 10207,
      "##ዞች": 10208,
      "▁መሳርሒ": 10209,
      "▁ጆሮ": 10210,
      "##ፈፀ": 10211,
      "▁የተጻ": 10212,
      "▁ለማለት": 10213,
      "▁የጉዞ": 10214,
      "##ኩባንያ": 10215,
      "##ክሮች": 10216,
      "▁ኣይሓ": 10217,
      "▁ሊቃ": 10218,
      "▁ምዃና": 10219,
      "##-ሰብ": 10220,
      "▁ነቢያት": 10221,
      "##ክኒ": 10222,
      "▁ካልተ": 10223,
      "▁ነበረው": 10224,
      "▁የብልናን።": 10225,
      "##ኣለ": 10226,
      "##ራረብ": 10227,
      "▁መረዳት": 10228,
      "▁በሺዎች": 10229,
      "##ቀሰ": 10230,
      "▁ይችላል?": 10231,
      "▁ወጣቶች": 10232,
      "##ብር።": 10233,
      "▁ኮር": 10234,
      "▁ንጹር": 10235,
      "##ጋዝ": 10236,
      "▁ንየ": 10237,
      "▁ወረቐት": 10238,
      "##ሓትን": 10239,
      "##ዮ፡": 10240,
      "▁እንድታ": 10241,
      "▁የሚያስችል": 10242,
      "▁መብዛሕትኦም": 10243,
      "▁ዝጸንሐ": 10244,
      "▁ብኻልእ": 10245,
      "▁ክሰርሕ": 10246,
      "▁ማረጋገጥ": 10247,
      "▁ሓወይ": 10248,
      "▁ምክል": 10249,
      "▁በፍቅር": 10250,
      "##ሪኽ": 10251,
      "##ያየ": 10252,
      "##ቛንቋ": 10253,
      "▁ንፈልጥ": 10254,
      "##ፈልጠ": 10255,
      "▁እንደሚያስ": 10256,
      "▁የለም.": 10257,
      "▁com": 10258,
      "▁ኢንተርነት": 10259,
      "##4|": 10260,
      "▁ክምለስ": 10261,
      "##ሰብኩ": 10262,
      "▁ብዝብል": 10263,
      "▁ብድሕሪኡ": 10264,
      "##40": 10265,
      "##ስታውስ": 10266,
      "▁እንግዳ": 10267,
      "##ም\"": 10268,
      "##ማህ": 10269,
      "▁ሞይ": 10270,
      "▁ንሰባት": 10271,
      "▁ፌስቡክ": 10272,
      "▁የሰማ": 10273,
      "▁ዝመር": 10274,
      "##ለን፤": 10275,
      "▁የአንተ": 10276,
      "##ርድኦ": 10277,
      "##ስእ": 10278,
      "##ደዱ": 10279,
      "▁በኤ": 10280,
      "▁ማዳ": 10281,
      "▁ድቃስ": 10282,
      "▁(ኤ": 10283,
      "##ቀመጡ": 10284,
      "▁እንዳለበት": 10285,
      "##ኪን": 10286,
      "▁የገባ": 10287,
[...]
