<pad>
<unk>
<s>
</s>
!
"
#
$
%
&
'
(
)
*
+
,
-
.
/
0
1
2
3
4
5
6
7
8
9
:
;
<
=
>
?
@
A
B
C
D
E
F
G
H
I
J
K
L
M
N
O
P
Q
R
S
T
U
V
W
X
Y
Z
[
\
]
^
_
a
b
c
d
e
f
g
h
i
j
k
l
m
n
o
p
q
r
s
t
u
v
w
x
y
z
{
|
}
~
¡
¢
£
¤
¥
¦
§
©
¬
®
°
±
¶
·
¿
À
Á
Â
Ã
Ä
Å
Æ
Ç
È
É
Ê
Ë
Î
Ð
Ñ
Ó
Ô
Õ
Ö
×
Ø
Ù
Ú
Û
Ü
Ý
Þ
ß
à
á
â
ã
ä
å
æ
ç
è
é
ê
ë
ì
í
î
ï
ð
ñ
ò
ó
ô
õ
ö
÷
ø
ù
ú
û
ü
ý
þ
ÿ
Ā
ā
ć
ĉ
Č
č
ē
ę
ě
Ğ
ğ
Ġ
ġ
ħ
ī
İ
ı
ł
ń
ň
ō
Œ
œ
ř
Ş
ş
Š
š
ť
ū
ŭ
Ÿ
Ż
Ž
ž
ƅ
Ɛ
ƒ
ư
ǎ
Ǐ
ǒ
ǔ
ǘ
Ǜ
ǝ
ș
ɔ
ə
ɛ
ɹ
ɻ
ɽ
ɾ
ʀ
ʁ
ʌ
ʔ
ʕ
ʺ
ʻ
ʼ
ʽ
ʾ
ʿ
˂
˃
˅
ˆ
ˈ
́
̂
̃
̄
̇
̈
̊
̋
̎
̔
̕
̣
̧
̷
Α
Δ
Ε
Η
Ι
Κ
Μ
Π
Τ
Υ
Φ
Ω
ά
έ
ή
ί
α
β
γ
δ
ε
ζ
η
θ
ι
κ
λ
μ
ν
ξ
ο
π
ρ
ς
σ
τ
υ
φ
χ
ψ
ω
ό
ύ
ώ
Ѕ
А
Б
В
Г
Д
Е
З
И
К
Л
М
Н
О
П
Р
С
Т
У
Ф
Х
Ш
а
б
в
г
д
е
з
и
й
к
л
м
н
о
п
р
с
т
у
ф
х
ц
ч
ш
щ
ъ
ы
ь
э
ю
я
ё
ѕ
і
ј
ѣ
҆
҉
ү
Ԍ
ԝ
Փ
ա
բ
ե
է
ը
լ
խ
ո
պ
ռ
֑
֗
֣
ְ
ֱ
ֲ
ֳ
ִ
ֵ
ֶ
ַ
ָ
ֹ
ֻ
ּ
ׁ
ׂ
א
ב
ג
ד
ה
ו
ז
ח
ט
י
כ
ל
ם
מ
ן
נ
ס
ע
ף
פ
צ
ק
ר
ש
ת
،
؟
ء
آ
أ
ؤ
إ
ئ
ا
ب
ة
ت
ج
ح
خ
د
ذ
ر
ز
س
ش
ص
ض
ط
ظ
ع
غ
ف
ق
ك
ل
م
ن
ه
و
ى
ي
ً
ٌ
ٍ
َ
ُ
ِ
ّ
ْ
٤
ٰ
پ
ڑ
ک
گ
ۆ
ی
ے
۞
۩
ܐ
ܒ
ܘ
ܛ
ܣ
ܦ
ܪ
ܬ
ߴ
߹
ं
ः
अ
आ
क
ख
ग
च
ज
ड
ण
त
द
न
प
फ
ब
भ
म
य
र
ल
ळ
व
श
स
ह
़
ा
ि
ी
ु
े
ै
ो
ौ
्
ం
క
చ
డ
త
న
ప
మ
య
ర
ల
స
ి
ీ
ు
ై
్
ಕ
ಡ
ನ
್
ം
മ
യ
ല
ള
ാ
ก
ง
ต
บ
พ
ฟ
ม
ย
ร
ล
ส
ห
อ
ั
า
ิ
ี
เ
โ
่
๑
စ
ဆ
ဒ
ပ
ာ
ိ
ီ
ု
း
်
၊
ვ
თ
ი
ნ
ს
ღ
წ
ሀ
ሁ
ሂ
ሃ
ሄ
ህ
ሆ
ሇ
ለ
ሉ
ሊ
ላ
ሌ
ል
ሎ
ሏ
ሐ
ሑ
ሒ
ሓ
ሔ
ሕ
ሖ
ሗ
መ
ሙ
ሚ
ማ
ሜ
ም
ሞ
ሟ
ሠ
ሡ
ሢ
ሣ
ሤ
ሥ
ሦ
ሧ
ረ
ሩ
ሪ
ራ
ሬ
ር
ሮ
ሯ
ሰ
ሱ
ሲ
ሳ
ሴ
ስ
ሶ
ሷ
ሸ
ሹ
ሺ
ሻ
ሼ
ሽ
ሾ
ሿ
ቀ
ቁ
ቂ
ቃ
ቄ
ቅ
ቆ
ቇ
ቈ
ቊ
ቋ
ቌ
ቍ
ቐ
ቑ
ቒ
ቓ
ቔ
ቕ
ቖ
ቘ
ቚ
ቛ
ቜ
ቝ
በ
ቡ
ቢ
ባ
ቤ
ብ
ቦ
ቧ
ቨ
ቩ
ቪ
ቫ
ቬ
ቭ
ቮ
ቯ
ተ
ቱ
ቲ
ታ
ቴ
ት
ቶ
ቷ
ቸ
ቹ
ቺ
ቻ
ቼ
ች
ቾ
ቿ
ኀ
ኁ
ኂ
ኃ
ኄ
ኅ
ኆ
ኇ
ኈ
ኊ
ኋ
ኌ
ኍ
ነ
ኑ
ኒ
ና
ኔ
ን
ኖ
ኗ
ኘ
ኙ
ኚ
ኛ
ኜ
ኝ
ኞ
ኟ
አ
ኡ
ኢ
ኣ
ኤ
እ
ኦ
ኧ
ከ
ኩ
ኪ
ካ
ኬ
ክ
ኮ
ኯ
ኰ
ኲ
ኳ
ኴ
ኵ
ኸ
ኹ
ኺ
ኻ
ኼ
ኽ
ኾ
ዀ
ዂ
ዃ
ዄ
ዅ
ወ
ዉ
ዊ
ዋ
ዌ
ው
ዎ
ዏ
ዐ
ዑ
ዒ
ዓ
ዔ
ዕ
ዖ
ዘ
ዙ
ዚ
ዛ
ዜ
ዝ
ዞ
ዟ
ዠ
ዡ
ዢ
ዣ
ዤ
ዥ
ዦ
ዧ
የ
ዩ
ዪ
ያ
ዬ
ይ
ዮ
ዯ
ደ
ዱ
ዲ
ዳ
ዴ
ድ
ዶ
ዷ
ዸ
ዹ
ዺ
ዻ
ዼ
ዽ
ዾ
ዿ
ጀ
ጁ
ጂ
ጃ
ጄ
ጅ
ጆ
ጇ
ገ
ጉ
ጊ
ጋ
ጌ
ግ
ጎ
ጏ
ጐ
ጒ
ጓ
ጔ
ጕ
ጘ
ጙ
ጚ
ጛ
ጜ
ጝ
ጞ
ጟ
ጠ
ጡ
ጢ
ጣ
ጤ
ጥ
ጦ
ጧ
ጨ
ጩ
ጪ
ጫ
ጬ
ጭ
ጮ
ጯ
ጰ
ጱ
ጲ
ጳ
ጴ
ጵ
ጶ
ጷ
ጸ
ጹ
ጺ
ጻ
ጼ
ጽ
ጾ
ጿ
ፀ
ፁ
ፂ
ፃ
ፄ
ፅ
ፆ
ፇ
ፈ
ፉ
ፊ
ፋ
ፌ
ፍ
ፎ
ፏ
ፐ
ፑ
ፒ
ፓ
ፔ
ፕ
ፖ
ፗ
ፘ
ፙ
ፚ
፞
፟
፠
፡
።
፣
፤
፥
፦
፧
፨
፩
፪
፫
፬
፭
፮
፯
፰
፱
፲
፳
፴
፵
፶
፷
፸
፹
፺
፻
፼
ᎁ
ᎄ
ᎅ
ᎉ
ᎋ
ᎌ
ᎏ
᎐
᎒
᎓
᎖
᎘
᐀
ដ
ត
ប
អ
ា
ិ
៊
្
ᤰ
ᥙ
᧐
ḥ
ḧ
ḱ
ṇ
ầ
ễ
ọ
ớ
ἑ
ἕ
Ἐ
ὰ
ῴ
ῶ
‐
―
‖
‛
‟
†
‡
•
 
‰
′
‹
›
※
⁄
₩
€
₸
₹
₿
⃣
℗
←
↑
→
↓
↔
↩
↪
⇐
⇒
⇢
⇨
−
∕
∙
√
∞
∶
∷
≅
≈
≔
≠
≡
≤
≥
≦
⊖
⋅
⋆
⋮
─
│
═
╔
▁
■
□
▢
▪
▫
▲
▶
▷
▸
►
▼
▽
◄
◅
◆
◇
◈
◉
◊
○
◌
◎
●
◦
◼
☀
☂
★
☆
☈
☕
☘
☛
☝
☞
☠
☯
☹
☺
☻
♀
♂
♈
♊
♋
♌
♎
♏
♐
♔
♚
♛
♡
♣
♥
♦
♨
♩
♪
♫
♬
♭
♻
⚀
⚂
⚜
⚠
⚪
⚽
⛔
⛰
⛱
✅
✈
✊
✋
✌
✍
✎
✒
✓
✔
✖
✗
✘
✝
✞
✟
✡
✥
✦
✨
✪
✿
❀
❐
❑
❖
❗
❝
❞
❤
❥
❷
❸
❾
➐
➔
➖
➜
➠
➡
➢
➣
➤
➳
➺
➿
⟶
⦁
⧊
⭐
⭕
⮚
Ⲩ
ⵗ
ⶀ
ⶁ
ⶂ
ⶅ
ⶆ
ⶉ
ⶊ
ⶋ
ⶖ
ⶴ
ⷅ
ⷍ
ⷕ
ⷘ
、
。
〇
〉
《
》
「
」
【
】
あ
い
う
お
か
き
く
こ
さ
し
す
た
だ
ち
っ
て
で
と
ど
な
に
の
は
べ
ま
む
ゃ
や
ょ
よ
ら
り
る
れ
ろ
を
ん
ア
ィ
イ
エ
オ
カ
ガ
グ
ケ
ザ
ス
タ
ダ
ッ
テ
デ
ト
ナ
ハ
バ
パ
ビ
ホ
ボ
マ
ム
ラ
ル
ロ
ワ
ン
・
ー
一
三
下
不
丘
丨
中
义
也
了
京
人
什
仕
他
以
们
件
住
体
作
你
供
俩
修
個
做
停
僕
公
共
分
制
前
加
午
単
厦
去
发
司
吗
和
品
哈
哪
商
嘅
器
回
国
國
在
场
增
士
夏
大
天
夫
女
她
好
姆
娘
子
安
察
小
局
州
工
市
带
幫
幽
店
度
录
彙
彼
往
待
後
御
思
您
想
意
憑
我
抦
拉
招
接
改
放
散
文
料
新
方
於
日
旧
时
昨
晋
暇
最
有
机
束
来
杯
東
果
校
條
機
欢
步
民
水
法
注
洗
活
港
澳
為
熊
熱
狐
猫
生
用
田
発
發
白
的
皿
私
等
结
给
考
者
育
胖
能
至
華
表
製
西
要
視
言
評
詞
誕
語
誰
論
警
语
请
谢
谷
車
迎
近
还
这
追
連
達
選
那
酒
里
錄
録
鐘
链
門
闲
阿
限
隨
雨
音
頻
題
饮
香
高
ꗺ
ꬁ
ꬂ
ꬃ
ꬄ
ꬅ
ꬆ
ꬉ
ꬊ
ꬋ
ꬌ
ꬎ
ꬑ
ꬓ
가
갑
강
건
것
게
겨
결
계
고
그
꿈
남
낱
녁
년
녕
누
니
다
더
데
동
둑
드
들
디
또
렇
려
로
루
를
름
리
만
말
먹
메
멘
못
무
뭐
미
바
발
보
봇
사
삼
서
세
송
습
시
신
싶
아
안
어
없
었
에
요
월
위
유
으
을
음
의
이
일
읽
저
전
제
죄
주
지
직
진
쩝
책
카
케
코
키
테
텔
토
트
팔
팠
하
할
함
해
했
향
호
혼
휴
히
﷽
︎
️
￼
�
𐌌
𓁹
🇦
🇧
🇨
🇪
🇬
🇭
🇱
🇲
🇳
🇴
🇵
🇷
🇸
🇹
🇺
🇻
🇼
🇽
🇿
🌀
🌅
🌉
🌏
🌑
🌕
🌞
🌟
🌤
🌳
🌷
🌹
🌼
🌽
🌿
🍀
🍄
🍅
🍌
🍵
🎅
🎋
🎍
🎤
🎵
🎸
🏆
🏝
🏫
🏺
🏻
🏼
🏽
🏾
🏿
🐅
🐐
🐕
🐜
👀
👁
👇
👈
👉
👊
👋
👌
👍
👎
👏
👑
👦
👬
👱
👳
👹
👻
👿
💃
💋
💌
💎
💐
💓
💔
💕
💖
💗
💘
💙
💚
💛
💜
💝
💞
💟
💢
💥
💪
💫
💭
💯
💰
💸
💽
📆
📌
📍
📒
📖
📚
📜
📡
📣
📮
📲
📶
📷
📻
🔊
🔑
🔔
🔗
🔙
🔞
🔤
🔥
🔯
🔰
🔴
🔵
🔶
🔷
🔻
🕊
🕖
🕳
🕴
😀
😁
😂
😃
😄
😅
😆
😇
😈
😉
😊
😋
😍
😎
😏
😐
😒
😔
😕
😖
😘
😚
😛
😜
😝
😞
😠
😡
😢
😥
😩
😪
😫
😭
😮
😰
😱
😲
😳
😵
😷
😹
😻
😼
🙁
🙂
🙄
🙆
🙈
🙉
🙋
🙌
🙏
🚀
🚇
🚗
🚦
🚨
🚩
🚴
🚵
🛅
🛑
🤐
🤓
🤔
🤗
🤘
🤙
🤝
🤞
🤟
🤣
🤥
🤦
🤧
🤨
🤩
🤪
🤬
🤭
🤲
🤴
🤷
🤸
🥇
🥒
🥦
🥰
🥺
🦋
🧐
🧑
🧘
🧚
🧜
🧸
##ዝ
##ሓ
##ና
##ዩ
##ይ
##ቻ
##ላ
##ል
##"
##በ
##ኩ
##'
##ኮ
##ዘ
##ታ
##ን
##ኣ
##ም
##ክ
##?
##ኦ
##ነ
##ብ
##ዕ
##ግ
##ው
##ሎ
##ስ
##ት
##ፍ
##ቐ
##ኝ
##መ
##ረ
##ጋ
##ገ
##ጺ
##-
##ሲ
##ኔ
##ሪ
##ፈ
##ር
##ሱ
##ተ
##ባ
##ዓ
##4
##8
##ካ
##የ
##ህ
##3
##:
##6
##እ
##ሕ
##A
##u
##f
##e
##n
##t
##h
##a
##l
##s
##g
##ለ
##ቢ
##ድ
##ጻ
##ዮ
##ጸ
##።
##ሰ
##ማ
##ሉ
##ጠ
##ያ
##ዳ
##ጥ
##ዚ
##ዛ
##ዎ
##ች
##ጨ
##ዋ
##አ
##ጣ
##ቸ
##ወ
##ደ
##ሚ
##ቀ
##ኺ
##ጭ
##ቖ
##M
##r
##k
##ከ
##፤
##ፎ
##ቶ
##ሐ
##፡
##ፕ
##ሌ
##ጽ
##ኹ
##ኢ
##c
##ሳ
##ቅ
##o
##ራ
##ቤ
##ኸ
##ሏ
##ኒ
##ዙ
##ዲ
##ኤ
##ጀ
##ኡ
##,
##;
##ዱ
##ሽ
##ሀ
##ሜ
##)
##ፀ
##ጦ
##ጁ
##ቹ
##፣
##K
##(
##ሠ
##ሁ
##0
##7
##ቃ
##ኬ
##ሻ
##ፖ
##ቲ
##ፅ
##ኑ
##ፋ
##ሞ
##ሩ
##ቕ
##.
##ኪ
##ሃ
##ኋ
##ሊ
##ጡ
##ቓ
##ኛ
##ፉ
##ሒ
##ሸ
##ዐ
##ኽ
##ፊ
##ጲ
##ጂ
##m
##ሙ
##ቡ
##ቴ
##ጊ
##ቱ
##!
##ቒ
##ሮ
##ቂ
##ዜ
##E
##ኖ
##ፂ
##ቦ
##ቑ
##ዊ
##ፆ
##ኳ
##ጎ
##ዑ
##H
##I
##F
##=
##2
##/
##1
##ጅ
##ቷ
##ዒ
##ቁ
##5
##ቆ
##ጳ
##ኾ
##T
##O
##U
##R
##®
##9
##ቋ
##ሂ
##ጫ
##*
##ቊ
##%
##ሑ
##ዪ
##ፏ
##|
##i
##ዉ
##ሺ
##ሆ
##ሥ
##ፒ
##ፃ
##ዶ
##C
##v
##z
##ዣ
##ጓ
##P
##W
##፥
##ጹ
##ዞ
##ቨ
##ቼ
##+
##ሣ
##[
##]
##ጤ
##S
##y
##p
##ሄ
##ጉ
##V
##፧
##ቮ
##ኘ
##ኼ
##ኰ
##ኃ
##ጢ
##ኞ
##ሷ
##ኻ
##ጮ
##ዌ
##w
##G
##‹
###
##ቝ
##ቈ
##B
##ሬ
##ጆ
##ኲ
##ጃ
##ቺ
##ዖ
##ፓ
##🥰
##ሶ
##ጩ
##ጄ
##x
##d
##ቭ
##q
##ሹ
##ጾ
##Y
##Z
##D
##ቧ
##ዴ
##›
##ቍ
##ፌ
##ف
##س
##ا
##د
##ቬ
##ሴ
##ዬ
##ዃ
##ቪ
##ዥ
##@
##N
##b
##ዀ
##_
##ጌ
##ጵ
##j
##ኵ
##ሢ
##ሯ
##ቫ
##ዔ
##፦
##ፐ
##ፔ
##ቿ
##ኚ
##ቩ
##ሡ
##ኅ
##ዢ
##ሼ
##ጐ
##ቘ
##ኙ
##L
##ሦ
##ዅ
##፨
##ጼ
##<
##ä
##բ
##ա
##ռ
##ը
##፲
##፱
##ጕ
##X
##ጴ
##ኗ
##ቛ
##ሖ
##ሟ
##፰
##፻
##ጝ
##✟
##ቄ
##ሾ
##ቾ
##ጒ
##᎓
##ዯ
##&
##፳
##ሔ
##ዷ
##å
##ü
##>
##ꬃ
##ፁ
##J
##፟
##ç
##}
##ዤ
##中
##國
##ኀ
##ጰ
##፹
##ኂ
##፺
##ዂ
##ጧ
##ጱ
##$
##፩
##፭
##′
##ö
##፬
##ፑ
##ኟ
##ጪ
##ፄ
##�
##ሇ
##Ö
##ⷘ
##\
##【
##ቚ
##🎅
##Q
##♣
##፪
##፫
##⚽
##ş
##。
##̈
##ř
##ñ
##《
##ኜ
##μ
##ሿ
##é
##ሤ
##旧
##市
##ה
##ב
##א
##彼
##{
##❑
##~
##👉
##🏿
##᎒
##ß
##⋮
##ل
##ر
##ح
##م
##ن
##ꬂ
##ዠ
##ጬ
##≤
##아
##년
##お
##し
##ゃ
##べ
##り
##で
##き
##て
##よ
##か
##っ
##た
##す
##ዟ
##÷
##▶
##️
##ኁ
##ጙ
##ኴ
##↔
##ጏ
##፯
##◎
##🌹
##☝
##ጿ
##🎸
##🙏
##‖
##ت
##ه
##ጇ
##😍
##►
##ת
##✔
##ʼ
##ቔ
##我
##要
##去
##散
##步
##ዄ
##🙄
##Ü
##ጶ
##፸
##ኍ
##ʺ
##😷
##ኧ
##̂
##ቌ
##፮
##❖
##᎘
##ጯ
##ᎁ
##🇪
##🇷
##💪
##⃣
##מ
##נ
##ג
##ד
##없
##습
##니
##다
##ዦ
##结
##束
##了
##፴
##£
##😃
##€
##ኊ
##죄
##송
##하
##지
##만
##ك
##و
##í
##̧
##☞
##·
##👌
##幽
##州
##ዽ
##፶
##•
##❤
##𐌌
##🤨
##👍
##ኄ
##😩
##ꬋ
##ق
##ي
##ب
##✅
##🙂
##ê
##፷
##о
##т
##ሧ
##ኯ
##⊖
##ጛ
##ዾ
##İ
##意
##义
##ᎄ
##😁
##ዸ
##胖
##的
##○
##ı
##त
##ो
##♡
##ꬄ
##ፇ
##√
##隨
##機
##詞
##彙
##◼
##፵
##😘
##책
##😜
##§
##Ž
##ž
##š
##ᤰ
##‐
##ï
##¿
##⁄
##삼
##🎤
## 
##ḱ
##😕
##😏
##📲
##ꬊ
##✌
##ዼ
##̕
##ğ
##ዺ
##💖
##🌟
##✒
##😂
##ኆ
##Ø
##‛
##🛑
##😄
##क
##प
##ड
##े
##❸
##¶
##私
##達
##Ä
##ꬅ
##ሗ
##ó
##😲
##ጟ
##→
##ל
##д
##н
##е
##й
##Ş
##ꬎ
##×
##🤓
##♥
##▽
##ដ
##្
##ប
##ិ
##ត
##您
##≥
##👏
##̋
##∶
##➡
##Υ
##−
##°
##ዻ
##☆
##ã
##ዏ
##м
##с
##ጞ
##📆
##ش
##ی
##◈
##💚
##ߴ
##Ā
##Â
##ԝ
##κ
##Ÿ
##ā
##ū
##😀
##こ
##む
##ろ
##ס
##י
##ו
##🧘
##★
##﷽
##●
##ꬆ
##🔗
##Ê
##©
##ƒ
##📷
##Ἐ
##ρ
##υ
##θ
##ὰ
##Å
##향
##토
##😅
##σ
##ῴ
##ζ
##ε
##ט
##ק
##а
##з
##ج
##👈
##ጔ
##俩
##ኌ
##⛔
##Ç
##ኇ
##ጚ
##۞
##б
##́
##л
##ы
##😭
##熊
##は
##昨
##天
##ख
##Б
##🤣
##음
##¦
##ዡ
##🔵
##आ
##म
##ि
##र
##誕
##生
##日
##パ
##ー
##テ
##ィ
##に
##誰
##を
##招
##待
##る
##方
##法
##也
##æ
##ص
##ى
##🏺
##Á
##Ñ
##ጜ
##ף
##צ
##è
##🇹
##🇻
##🇳
##💝
##ο
##φ
##ή
##😥
##로
##봇
##♂
##タ
##イ
##ト
##ル
##🌼
##💞
##🤦
##✗
##🇬
##🇭
##👁
##🧜
##欢
##迎
##ֶ
##ْ
##ֹ
##😢
##þ
##高
##考
##ז
##💯
##🇲
##🇱
##ع
##Þ
##ú
##ጘ
##、
##∷
##á
##ꬌ
##👇
##ة
##👋
##🇴
##ô
##☠
##♋
##︎
##✦
##ō
##✊
##💰
##Ô
##💛
##皿
##፞
##ʔ
##ɛ
##̃
##श
##ब
##्
##द
##፼
##∞
##ⶀ
##⇐
##‡
##♔
##➔
##￼
##👻
##😳
##ʾ
##】
##호
##텔
##에
##남
##겨
##ø
##⧊
##С
##к
##ч
##ь
##É
##ם
##😉
##ُ
##😠
##💙
##💥
##త
##ీ
##ర
##ి
##క
##◉
##☕
##🍌
##💕
##҆
##ֳ
##ቜ
##위
##키
##낱
##말
##사
##전
##ǒ
##À
##☻
##🤟
##디
##시
##在
##個
##視
##頻
##有
##條
##評
##論
##፠
##🙆
##결
##혼
##ň
##◄
##🤪
##요
##리
##를
##🔑
##💸
##🏆
##🔻
##ा
##ह
##ु
##़
##ì
##پ
##¡
##ዹ
##🚵
##等
##❝
##◆
##ዧ
##ח
##ש
##▲
##ꬉ
##🕳
##カ
##オ
##ス
##や
##п
##р
##ц
##ю
##◦
##Т
##г
##в
##я
##ኈ
##В
##⚜
##💃
##✝
##🙉
##😮
##Ó
##Ф
##З
##♀
##ɹ
##إ
##ِ
##َ
##ٰ
##ቯ
##œ
##â
##أ
##ע
##अ
##व
##č
##时
##―
##👱
##फ
##ल
##ض
##ئ
##》
##の
##発
##音
##☺
##õ
##洗
##と
##Š
##†
##🚗
##ؤ
##💽
##♏
##α
##휴
##가
##ī
##ǝ
##✋
##🏽
##˂
##˃
##또
##👀
##⭐
##ⵗ
##주
##ⶂ
##ָ
##🚴
##ฟ
##ั
##ง
##เ
##พ
##ล
##А
##Ã
##❞
##西
##➤
##ɔ
##ˈ
##ɾ
##❷
##̎
##ٍ
##ə
##😫
##케
##테
##코
##멘
##트
##🐜
##🔴
##⚪
##᐀
##ɽ
##¤
##¬
##💎
##̄
##ё
##ร
##🛅
##闲
##暇
##ý
##ʻ
##ν
##ι
##ό
##ς
##것
##،
##ǘ
##ፗ
##ラ
##ン
##ダ
##ム
##選
##ん
##だ
##単
##語
##₹
##ω
##들
##었
##어
##О
##▼
##î
##者
##🍀
##פ
##ׁ
##ò
##😻
##ز
##ّ
##이
##렇
##게
##˅
##ⶉ
##Τ
##γ
##ί
##😞
##请
##给
##一
##杯
##饮
##料
##吗
##ύ
##ψ
##λ
##回
##♭
##👎
##香
##港
##ጷ
##Œ
##^
##‰
##🧑
##ʽ
##᎐
##ⶁ
##Ğ
##☯
##Ѕ
##Ġ
##💘
##Г
##у
##и
##ш
##🔞
##👹
##💔
##活
##💐
##🌿
##📻
##ę
##ń
##쩝
##校
##β
##ë
##僕
##♊
##٤
##什
##い
##ł
##😊
##߹
##🤗
##以
##往
##ĉ
##🤙
##స
##ై
##న
##్
##య
##మ
##ు
##ⷕ
##ⷅ
##🤐
##Î
##🙁
##≅
##❐
##🚩
##🕖
##ⶖ
##Û
##ù
##à
##ן
##🙌
##🏾
##Ω
##🙈
##体
##育
##û
##😒
##💋
##⮚
##🌷
##ห
##И
##ᥙ
##유
##그
##ዿ
##¥
##ቇ
##小
##̔
##해
##ʁ
##⚂
##憑
##狐
##娘
##П
##🚇
##Ý
##🤭
##👊
##̷
##澳
##門
##↪
##➢
##想
##東
##京
##ፚ
##✨
##😎
##🎍
##🔤
##ș
##大
##厦
##■
##ѕ
##←
##〉
##▪
##午
##後
##ר
##✈
##ֱ
##😪
##제
##❗
##خ
##✿
##➺
##ា
##😼
##田
##✘
##三
##♛
##🤷
##◊
##⋅
##➳
##🔰
##읽
##🤝
##ら
##ᎏ
##♦
##度
##最
##近
##警
##察
##局
##哪
##里
##💟
##ֵ
##安
##🤩
##ے
##❀
##Ε
##ꬁ
##🇼
##₿
##・
##「
##」
##嘅
##發
##ầ
##∕
##你
##好
##ά
##τ
##✞
##💓
##ప
##ం
##డ
##ల
##😆
##ě
##思
##҉
##̊
##η
##Ɛ
##ホ
##ま
##連
##れ
##く
##さ
##🎋
##ǎ
##Ǐ
##🏻
##子
##供
##≠
##◅
##≦
##π
##⇒
##追
##加
##⚠
##❾
##👬
##前
##📮
##📚
##⚀
##录
##制
##发
##🤔
##ṇ
##ፙ
##🌅
##🔷
##🤴
##भ
##晋
##ῶ
##х
##ү
##э
##↩
##放
##ڑ
##آ
##📌
##؟
##ア
##ハ
##※
##ħ
##▷
##ⶅ
##ワ
##バ
##Π
##那
##グ
##ザ
##ビ
##エ
##マ
##ガ
##🚨
##ð
##ً
##✖
##Ú
##🏼
##停
##ど
##😔
##器
##人
##う
##È
##😱
##غ
##▸
##저
##녁
##➖
##ᎉ
##📣
##修
##改
##직
##진
##세
##抦
##这
##件
##商
##品
##💫
##🤞
##不
##ケ
##♬
##🇨
##ط
##누
##➠
##᎖
##💢
##✥
##🇿
##🇦
##미
##🙋
##름
##을
##😐
##๑
##했
##下
##来
##📖
##≈
##録
##➣
##서
##ˆ
##☀
##阿
##姆
##哈
##拉
##语
##📶
##신
##고
##할
##ֻ
##ַ
##ּ
##ć
##👳
##谢
##អ
##៊
##Α
##🌕
##У
##ọ
##Д
##♨
##ಕ
##ನ
##್
##ಡ
##♌
##丨
##車
##ظ
##▫
##ɻ
##🔥
##카
##М
##😰
##ፘ
##🥺
##熱
##ء
##✍
##Φ
##言
##😛
##🐐
##Æ
##Е
##न
##ौ
##ी
##ٌ
##건
##강
##바
##꿈
##🎵
##新
##增
##ロ
##ボ
##ッ
##🔯
##Ш
##ꗺ
##為
##錄
##製
##ф
##🔔
##あ
##白
##猫
##她
##ʿ
##😡
##𓁹
##🇵
##Ǜ
##മ
##ല
##യ
##ാ
##ള
##ം
##δ
##✓
##Ù
##Õ
##↓
##ᎅ
##щ
##̇
##❥
##ذ
##싶
##🕴
##წ
##ი
##ნ
##⛰
##⋆
##做
##ֲ
##Л
##К
##☈
##گ
##֣
##♫
##🧐
##◌
##丘
##😋
##⇨
##ꬑ
##ѣ
##ъ
##💌
##Ż
##ġ
##注
##文
##स
##စ
##ာ
##ပ
##ိ
##ု
##ဒ
##်
##၊
##‟
##🤸
##📜
##⭕
##۩
##限
##公
##司
##デ
##ナ
##🐅
##메
##💭
##◇
##♎
##ส
##ี
##🌑
##ễ
##ः
##♩
##อ
##่
##夏
##至
##ⶆ
##둑
##պ
##ե
##თ
##ვ
##ს
##ʕ
##幫
##ꬓ
##☛
##∙
##☂
##Η
##Δ
##Ι
##Κ
##👿
##ち
##і
##᧐
##더
##함
##士
##≔
##₩
##₸
##✡
##👦
##題
##🤬
##♚
##🧚
##😝
##כ
##🚦
##일
##│
##仕
##♪
##֑
##他
##🌀
##🇧
##🤘
##ώ
##Č
##带
##酒
##店
##ʌ
##ŭ
##夫
##📒
##😹
##갑
##ⶴ
##안
##😇
##分
##鐘
##🇽
##😵
##팠
##🐕
##ἑ
##ξ
##🔶
##水
##果
##国
##โ
##บ
##ต
##🤲
##ớ
##≡
##ก
##า
##ย
##🏝
##ƅ
##☘
##住
##ḧ
##ׂ
##😚
##🍵
##뭐
##ē
##ⷍ
##ʀ
##ै
##य
##🔊
##ⶊ
##女
##έ
##⇢
##월
##ť
##ÿ
##ư
##ִ
##ј
##ۆ
##ک
##们
##💗
##ܪ
##ܘ
##ܒ
##ܛ
##Ԍ
##😈
##못
##Р
##드
##루
##팔
##ְ
##֗
##🚀
##🍅
##🥦
##🥒
##🌽
##🍄
##💜
##Н
##¢
##🌤
##─
##🤥
##±
##🌳
##🥇
##데
##려
##Ⲩ
##ဆ
##ီ
##း
##工
##作
##ग
##ण
##ज
##♈
##🌞
##🔙
##👑
##な
##御
##用
##ょ
##📡
##➿
##表
##於
##Μ
##还
##╔
##═
##ܬ
##ܣ
##ܦ
##ܐ
##✎
##ღ
##🏫
##🧸
##Ð
##계
##చ
##〇
##ǔ
##➜
##🌏
##Փ
##ո
##խ
##լ
##ᎋ
##♻
##동
##□
##⟶
##Ë
##🤧
##으
##链
##接
##🌉
##😖
##📍
##च
##ิ
##ม
##ळ
##✪
##ḥ
##谷
##雨
##⛱
##🦋
##ं
##먹
##보
##➐
##華
##民
##共
##和
##↑
##▢
##ᎌ
##℗
##의
##녕
##히
##🕊
##̣
##能
##机
##场
##무
##☹
##🇺
##🇸
##է
##⦁
##ἕ
##ⶋ
##발
##χ
##♐
##Х
▁እ
▁ኣ
▁በ
▁አ
▁የ
▁መ
▁ነ
▁ከ
▁ይ
▁ብ
▁ም
▁እን
▁ን
▁ዝ
▁ተ
▁ክ
▁ወ
▁ስ
▁ለ
▁ሰ
▁ኣብ
▁ዘ
▁ግ
▁ና
##ውን
▁እና
▁ማ
▁ነው
▁ት
▁ያ
▁ው
▁ኢ
▁ድ
▁"
▁ሓ
▁።
▁ዓ
▁እዩ
▁ካ
▁ደ
##ነት
##ዎች
##ቸው
##ላይ
##ታት
▁፡
▁ከም
##ገር
▁ኣይ
▁የሚ
▁ሕ
##ንድ
▁እንደ
▁ሁ
▁ገ
##ም።
▁ል
##በር
▁ስለ
▁1
▁ጥ
▁ናይ
▁ቀ
##ል።
▁ግን
▁ላይ
##ስጥ
##ዚህ
▁ውስጥ
##ን።
▁ካብ
▁እዩ።
##ንም
▁ባ
##ጊዜ
▁መን
▁እቲ
▁(
##ትን
▁2
▁፣
▁አይ
▁ፍ
##ለም
▁ድማ
▁ምስ
▁እዚ
▁ይህ
▁ህ
▁ጊዜ
▁የተ
▁ነገር
▁ወደ
##ግዚ
▁ቅ
##ምን
▁ወይ
##ፈል
##ችን
##ርስ
##ለት
##ምላ
##በረ
##ቶም
##ለው
##ንተ
▁ጋ
▁ሁሉ
##ሆነ
▁እንዲ
##ስተ
##..
##ያን
▁ቤ
##ለሁ
##ሔር
##ብሔር
▁ለመ
▁ሃ
▁ታ
▁በእ
##ሆን
▁ፈ
▁ዕ
##ችሁ
▁ነበር
▁ዘይ
##ርሱ
▁ብዙ
##በት
##ባት
▁እየ
▁እንተ
##ግዚአ
##ራት
▁ናብ
▁-
▁ነው።
▁ጋር
##ሪያ
▁አለ
▁ሊ
##ኩም
▁ዓመ
##ቶች
##ግዚአብሔር
▁እነ
▁በመ
▁ኩ
▁ሲ
▁ኸ
▁ለማ
##ችላ
##ብር
▁እኔ
▁አንድ
##ታይ
▁ጸ
▁ዝተ
▁በአ
▁ዚ
▁አን
▁ኮ
##ኽእ
##ንያ
▁ሰብ
▁ክት
▁የእ
▁ኣለ
▁ሓደ
##ና።
▁ጽ
##ብል
▁ጠ
▁የመ
▁ኪ
##ይወ
##ድር
▁ጉ
▁ሳ
▁አል
##ጀመ
##ምላኽ
##ረት
##ስት
▁ምን
▁ከኣ
##ሎም
▁ር
▁ኣሎ
▁እስ
##ለን
##ተኛ
▁ክን
▁መል
##ሉ።
##ገል
▁በተ
▁አስ
▁ይችላ
▁ሰው
##ደር
##ጣም
▁ተመ
▁ቃ
##ላት
##መን
▁3
##ዓል
▁ከእ
##'ዩ
▁በጣም
##ርት
▁20
▁ዘለ
##ዚያ
##ሆኑ
▁'
▁ወይም
▁ቢ
##ል.
##ንን
▁የአ
▁ከተ
▁ዘሎ
▁ሰዎች
##ምህ
▁ኣምላኽ
▁ቤት
▁ሆ
##ማይ
##ድረ
▁ህዝ
##ዳን
##መስ
▁አይደ
##ገድ
▁ብቻ
▁እውን
▁እዮ
▁ነቲ
▁ዋ
▁ኤ
##ናት
▁ሚ
##ራዊ
##ሱስ
▁ሞ
▁እያ
▁እግዚአብሔር
##ደረ
##በል
##ነበረ
▁ዓመት
##ሰብ
▁እንዳ
▁እም
##ሁን
▁ናቸው
##ኾነ
▁ነይ
##ኽእል
▁ሽ
▁ግና
▁ቦ
##ይወት
▁ሙ
▁ነገ
▁ማለት
▁ሌ
##ግባ
##ቸውን
##ዓት
▁መስ
##ራሕ
##በለ
▁ንም
##በሩ
▁ካል
▁የም
▁አላ
▁ቀን
##ናል
▁ዓለም
##ኸውን
▁የሚያ
##ላል
##ሮች
▁ከመ
##ይን
##ፊት
##ኹም
▁ምክ
##ኦም
##ርግ
##ታዊ
##...
##ራይ
▁እንታይ
▁ሥ
▁ለእ
##ውም
▁ረ
##ከል
▁እኛ
▁ቁ
▁ምር
##ሳብ
##ዕባ
▁ግዜ
▁እንደሚ
##ያት
▁4
##ልና
##00
##ይኑ
▁ብም
##ንቲ
▁ቦታ
##መለ
##ቱን
▁ጌ
▁ክፍ
##ገብ
▁በዚህ
▁ጀ
▁ያለ
▁ቃል
##ኋላ
##ዋል
▁መጽ
▁ዳ
##ገባ
▁ኽ
▁ደግ
▁ሰባት
##ሳይ
##ውያን
▁ብዛ
##ማሪ
##ቅር
##ሎች
##የት
##ረጃ
▁"እ
##ንግ
##ኤል
##'ውን
▁ኢዩ
##መል
▁እሱ
▁አብ
##በይ
▁ቅዱ
##ዋን
##ሪካ
##ሩ።
▁ዜ
##ርስዎ
▁ነው.
##ኮነ
##ት።
▁ደግሞ
##ድን
##ለይ
##ምር
▁5
▁ኣነ
▁ዓይ
▁.
##ህን
##ዘይ
##ጀመሪያ
▁መንግ
##ናን
▁አንተ
##መር
▁በኋላ
▁መዓል
##ቱም
▁ኸኣ
##ሰር
##ረብ
▁ምክንያ
▁ክርስ
▁ጉዳ
▁በማ
▁ብዛዕባ
##ሕሪ
▁ኩሉ
##ስቲ
##ድረግ
##ክት
▁መጠ
##የሱስ
▁እቶም
▁ከአ
##ላለ
##ሓት
▁እርሱ
##ግር
##ዎ።
##ድል
##ረስ
##ርከ
▁ምንም
▁ክል
▁ቅድ
▁ራ
##ንዘ
##ርያ
▁ነዚ
▁ስም
##ህል
##ባል
##ተን
▁ነበር።
##ገና
▁ቤተ
▁ዛ
▁ማን
##ዕሊ
▁ስለዚህ
▁ከይ
▁ንስ
▁የማ
▁ንሱ
▁እሞ
▁አሁን
##ሰማ
▁በሚ
▁ቅዱስ
##ችል
##ላቸው
##ኣብ
▁እንዲህ
▁ትምህ
▁ቆ
▁መሰ
▁ኣብዚ
##ስታ
▁ነበረ
▁መንገድ
##ኖር
##ሎት
##ምላክ
▁ህዝቢ
##ወዳ
##ናይ
##ላችሁ
##ማት
##ዎችን
##ያው
##ግብ
▁ጎ
▁ፕ
##ልን
▁እንዴ
##ልካ
##ያስ
▁እት
##ላም
##ስፋ
##ብሉ
##ጆች
▁ዶ
▁መካ
##ደን
▁አይደለም
▁ሀ
▁እዮም።
▁ብሓ
##ከተ
▁እው
▁ይሆ
##ዮም
##ርእ
##ሮም
##ሉም
▁ጨ
##ገልግ
##ምሮ
▁እናም
▁ኣሎ።
##'ዩ።
##ትና
▁ሎ
##ንዘብ
##ርቲ
##ወሰ
##ዎም
##ለህ
▁ኣይት
##ከት
##ርካ
##ኘት
##መጣ
##ኞች
▁ዓመታት
▁ሕጂ
▁ኃ
▁ምድ
##ውቃ
▁ይህን
▁ሃገር
##ንስ
▁በላይ
▁እስከ
▁ከምዝ
▁19
##ረው
##ወስ
▁ዝነ
##ምና
▁ምኽ
▁ወዲ
▁ሁሉም
▁ላ
##ፈለ
##:1
▁እንዴት
##ርድ
▁ኢኻ
##'ዚ
##ባቢ
▁6
##ዋል።
▁እተ
##ኖም
▁ባለ
##ክል
▁201
##ኣይ
▁ጥሩ
##ሳት
##ዲስ
##ለሁ።
▁ምዃ
▁እታ
▁ዝሓ
##ካል
##ሃል
##ጣን
▁ኣን
▁እነዚህ
▁የለ
##ራኤል
▁ይችላሉ
▁ሴ
▁ተጠ
##ነው
▁ከተማ
▁ዘንድ
##ኛው
▁ብዙሕ
##ኔታ
▁ርእ
##ሉት
##ዎን
▁መካከል
##ገብር
▁ሃገ
▁እዋን
▁ኣብቲ
##ሰው
##ዎቹ
▁ደቂ
▁ኢየሱስ
▁ስር
▁ስለዚ
##ፈልጋ
▁ብዝ
▁ብር
▁መዓልቲ
▁ሥራ
▁ኵ
▁አት
▁ዲ
##ቅም
▁ጥራይ
##ታል
##መሰ
▁ከዚያ
##ተይ
##ደል
##ፍት
▁እነሱ
▁ጓ
▁ኢና
##ፈልጥ
▁ኢሉ
▁ከምዚ
▁ከምኡ
##ረጋ
▁እግዚ
##ሓፍ
▁እዮም
▁ከፍ
▁ሁኔታ
##ጨረ
##ቀር
##ልቅ
▁ተስፋ
##ቀም
▁ኣይኮነ
▁ዓይነት
▁ሎሚ
▁8
▁ንኣ
▁እንዲሁ
▁ሆነ
▁እንኳ
##ይታ
▁ያስ
##ብን
##ዓለም
▁7
▁ሌላ
▁ወር
▁ፖ
##ዶች
▁ከሆነ
▁፤
##ጥር
▁ትን
▁ምእ
▁በፊት
##ወቅ
▁ች
##ብረ
##ቶስ
##ሳሌ
##ተር
▁ልጅ
▁ጌታ
##ጨማሪ
##ባቸው
▁10
▁ለአ
▁ቅድሚ
##ጣት
▁ሕዝ
▁ኢዩ።
##ባይ
##ጨረሻ
##ተው
▁መር
▁ታሪ
▁ዝኾነ
▁ጉዳይ
##ባር
##ሜሪካ
▁ሂ
##ናንተ
##ክብ
▁ድሕሪ
##ረን
▁መግ
##ነቱ
▁ስራሕ
##ጽእ
▁አሉ
##ወት
▁ንጉ
▁ሸ
▁ዝበ
##ስን
▁ይጠ
▁ኺ
##ቦች
▁ሐ
##ዮን
##ታው
▁እናንተ
▁ያለው
##በብ
▁ስል
▁ገንዘብ
##ርግጥ
##ገለ
▁ደረጃ
▁አስተ
##ኒ።
##ረዳ
▁ባህ
▁ዮ
▁ዝብል
##ወደ
▁ንሕ
##ለች
##ርን
##ደት
▁ማድረግ
▁በዚ
##re
##ሰራ
▁አድር
##ናገ
▁ኣቦ
##ግኘት
##መይ
▁ድረስ
##ትም
▁የሆነ
▁ኮይኑ
##ገዲ
##ፈላ
▁መንፈ
##ብሎ
▁ዝነበረ
▁ኸም
##ለያ
▁ግብ
▁ልጆች
▁ልዕሊ
##ንቀ
▁ይችላል
▁መሆን
▁ኣፍ
▁አምላክ
##ልም
##ግራ
▁ገለ
##ፈር
▁ክሳብ
▁ኢና።
##ፈት
▁እር
##ደም
▁ንዓ
▁እየ።
##ዞም
##ኣት
▁አንዱ
▁9
##ንቋ
▁ዛሬ
▁አለው
##ምል
▁ካልእ
##ከፍ
▁ይመስ
##መራ
▁መብ
▁ተገ
▁አው
▁ይኹ
▁ከመይ
##ገኛ
▁አንዳ
##ንካ
▁ነኝ
▁ነፍ
▁ኻ
▁ጣ
##ጠር
▁እጅ
##ርከብ
▁ምል
##ቤት
▁በም
▁ዩ
▁ንግ
##ሠራ
##ላማ
▁እምበር
##ኛውም
▁ኦ
▁እነርሱ
▁ንስኻ
##ደይ
##ቢያ
▁በል
##ን፡
▁ነው?
##ኖች
▁ሁለ
##ላው
##ክር
▁ከዚህ
▁ንሓ
##ይል
##ሄድ
▁ኤርት
▁‹
##ሄር
▁ህይወት
##ነታት
▁ክልተ
▁የት
##ገው
▁ምኽንያ
##ሰን
▁ሁለት
##ድራ
##ሞች
##ያንዳን
▁አባ
▁ውድ
▁M
▁ተወ
##ግባር
▁እንደሆነ
##በሉ
##ግል
▁ዕድ
▁በእርግጥ
##ኦት
▁መለ
▁በቀ
▁ወን
##ፈላጊ
##ቀት
▁ነበሩ
▁ድም
▁ሆይ
##ለን።
▁እንድ
▁መጽሓፍ
▁ኣዝ
▁ተሰ
▁ገዛ
##ሬታ
▁ቋ
##ዊት
▁ፕሮ
##ገኘ
##ሳሳይ
▁ሕይወት
##ዎት
▁የእግዚአብሔር
##የር
▁የሱስ
##ሕዝ
##ግም
▁ነገሮች
▁ምድሪ
▁ሕቶ
##ማን
##ራን
##ማር
▁ቡ
▁ሰላም
##ለኛ
##ሰይ
##ገን
▁ይህንን
▁ብዘይ
▁ንሳ
▁ያህል
▁እኳ
▁ፊ
##ገም
▁አስፈላጊ
▁የመጀመሪያ
##ትዮ
▁12
▁ዝመ
##ቶችን
▁C
▁?
▁ምክንያት
▁ድማ፡
▁በየ
##ከኣ
▁ተፈ
▁ጭ
▁ክርስቶስ
▁ጐ
▁"አ
##ነሱ
▁ነይሩ።
##ላቅ
▁እንዲሁም
##ላእ
##ናል።
▁ንዝ
##:2
▁አማ
##ቦም
##ሉን
##er
##ይና
▁ፀ
▁ኣይተ
##ላዊ
##በለጠ
▁ትር
##ሐፍ
##ቡቕ
##ቀመ
▁አዲስ
▁ሙሉ
▁መጥ
▁ሓንቲ
▁እርስዎ
▁መደ
▁ልብ
##መት
▁ኣስ
▁ይኽእል
##ነትን
##ረኽ
##ክርስ
##in
▁በለ
▁ንኽ
▁ይሰ
▁ሳይ
▁15
▁ምድር
##ገልግሎት
▁ንእ
▁በታ
##or
##ድና
##on
▁ሰዓት
##ሃን
##ጠራ
##ሙን
▁መሆኑ
▁18
##ፍራ
▁አንዳንድ
##ወጣ
##ሙሉ
▁ማሕ
##ልፍ
▁ኰ
##ብዙ
▁ፍር
▁ኣይኮነን።
##ዘን
▁ይህም
##ቸው።
▁ወንድ
▁የማይ
##እታ
▁ኤርትራ
▁ብሎ
▁ዋጋ
▁እንኳን
##ሁሉም
▁ኔ
▁ቋንቋ
▁11
##ብረት
▁ምዃኑ
##ጀመር
##ስም
##ይድ
##ምንታይ
##ርባ
##ዀነ
▁መንግስቲ
▁እዚህ
##ሳዕ
▁ይኹን
▁ሓበ
▁ለው
##ቲካ
##ሞክ
##ከራ
##ችኋ
##ቻቸው
▁ያል
##ርና
▁ሊሆን
##ታትን
▁ዘለዎ
▁አያ
▁ፓ
▁ከምቲ
▁ምሕ
▁በዚያ
##ደርጋ
▁ዝግ
##በራ
▁ሓድ
▁ተባ
▁መጻ
▁ሶ
▁ክኸውን
▁የበለጠ
▁ናቸው።
▁A
▁ሓቂ
##ያንዳንዱ
##ብራ
##ታቸው
▁ምእንቲ
▁ድር
##መና
▁ገይ
##ትኩም
##ታን
##ኣብሔር
▁ነቶም
▁[
▁እስራኤል
##ውስ
▁ሌሎች
▁እንጂ
▁በት
▁ትምህርቲ
▁የምት
##ወን
##ችንን
##ገኙ
##ረ።
##ሱን
▁ለምን
▁ማዕ
▁ኣየ
##ባዊ
▁ንሕና
##ቀጥ
▁ዘመን
##ብለ
▁ጽሑ
##ስብ
▁ቀዳ
▁እያ።
##ነርሱ
▁አካ
##ኝ።
##ኩል
▁ስለዝ
▁ብዙሓት
##ሰም
▁ማእ
▁እምነት
##ዕል
▁ከሚ
▁ገና
##ውሮ
##ሕቲ
▁ኣባ
▁ዝኣ
##ኾኑ
▁እየተ
▁በሎ
▁ምናል
▁መጠን
▁14
▁ምክንያቱም
▁እንግ
▁ፊት
▁ለም
##ሽን
▁ሊያ
▁ሰለ
##ጉም
▁ፋ
##ረባ
▁እዚኣ
▁ገሊ
▁ደኣ
##ረድ
##ዉ።
▁አሳ
##ሁንም
##ገዳ
##ያዊ
▁ብኣ
##ባንያ
▁ሓበሬታ
▁ውሽ
##ትዮጵ
##ነዚህ
##ፋት
▁"የ
##ማዕ
##ቃሚ
▁ተቐ
▁ሽዑ
##ጠት
##ግደ
##ቀው
▁ኬ
##ረም
▁ይሆናል
▁ሆኖ
▁ኣሕ
##ድሕ
##ደሊ
▁ከምዘ
##ጠው
▁ሁል
##ላሉ
##ርብ
##ካም
▁መረጃ
▁ዝገ
▁ዙ
##ግን
##ታል።
▁በእው
##ህም
▁ዝበለ
##ጥን
##ሩት
▁ሲሆን
▁በአንድ
##ስ፡
▁ምናልባት
##ኹ።
▁ጽቡቕ
##ክእ
▁ያሉ
▁አሁንም
▁"በ
##ርነት
▁እንዲያ
▁መሆኑን
##ሃብ
##20
▁ዝር
##ቡር
▁እኔም
##ዶም
##ለማ
##ሩን
##ተት
▁ሄ
##ርሲ
▁አም
▁ነበረ።
▁ተመል
##ፈላለ
▁በቲ
##ቂት
##ለቲካ
▁ሃገራት
##ነሳ
##ዋት
▁እዛ
##ፈልጉ
##ኝነት
▁ስርዓት
##ኩ።
▁ብኸ
▁ነው,
▁ጀምሮ
▁መንፈስ
##ራል
▁+
##ዘጋ
▁ጻ
▁እንደገና
▁ለሚ
▁S
##ሥራ
▁ወቅ
##'ቲ
▁በሰ
##ህበ
##ቤተ
▁መዝ
##ዛረብ
▁ዋና
##ጥሮ
##ዋታ
▁ብት
▁ፍል
▁ቪ
▁ካብቲ
▁ከዚያም
##ያቄ
▁የለም
▁ኵሉ
##ገዝ
▁ካልኦት
▁ምዕ
▁የል
##ሆዋ
▁የሰ
##ከታ
##መድ
▁ከፍተኛ
##ቅስ
##ገዛ
##ጢአ
▁ዝኸ
##ደጋ
▁ትምህርት
##በቅ
##ካን
##ናገር
▁ነይሩ
##ክክ
##ኣብሄር
▁ይሄ
##ግና
##ጠና
▁እሞ፡
##ነግ
##ራስ
##ዳት
##ይቲ
▁ቴ
▁200
##እን
▁‹‹
▁13
##ሞት
▁ሕማ
▁ኢን
##ውል
▁ድን
##እቲ
▁እግዚኣብሔር
▁ተራ
##ደኛ
▁በፍ
▁ኻብ
▁ምሳ
##ዲያ
▁ነገራት
##ሉእ
##ወድ
##ነብር
▁ሞት
##ዳር
▁ሁሉንም
##ስተኛ
▁ኩባንያ
▁ኣለዎ።
▁ሰማይ
▁ወለ
##ስና
##ከር
▁/
▁መወዳ
##ነፍ
##ሻለ
##ለያዩ
##ሪዎች
##ትዮጵያ
##ነበሩ
##ሕግ
##በላ
▁ህዝብ
▁ውጤ
▁መጽሐፍ
##ወለ
▁ከሎ
##ርሕ
##ቲያን
##ፈልግ
##ሳዊ
▁ተቀ
▁አብዛ
##ስዕ
▁ተሓ
▁ክፍል
##ቡ።
▁እርሱም
##ንታ
▁በሙሉ
▁ብፍ
##ወር
▁በረ
▁እውነ
##ዛረ
##ሉ.
▁ኢኻ።
▁ጥያቄ
▁ኣእ
##ኒቨ
▁ብል
##በሮ
▁ኖ
##ምለ
##ሬት
▁ምም
##ዝር
##በይቲ
▁ሒ
▁ተዋ
▁ቀላል
▁ተመሳሳይ
##ክን
▁17
##ጠቃ
##ዕና
##መው
▁ኣዝዩ
##ስራኤል
▁የምን
##ገኝ
▁16
##ችሉ
##ጌታ
##ዳም
▁ታላቅ
##an
##ተሓ
##ደው
▁ደስ
▁ስራ
▁ሜ
▁ልክ
▁ብተ
▁ይሁን
▁አቀ
##::
##ላህ
##ሆንም
##ሰት
##ባብ
##ድም
▁ፍቕ
▁በዓል
▁ኽት
##ህዝ
##ሁኑ
##ለፈ
▁በሌ
▁ወይስ
##ቻችን
▁በተጨማሪ
▁ማንም
▁ኣው
##ማኖ
##ንና
##'የ
▁አለበት
▁ባዕ
▁መሳ
##ላ።
▁ወቅት
▁መልእ
##en
▁አልተ
##ም.
▁P
▁ንመ
##ነብ
▁መወዳእታ
▁ተጨማሪ
##ቢት
##ኽቲ
▁ኩነታት
##ጸን
▁በዓለም
▁ማስ
▁ሰማ
##ገብሮ
##ኰነ
##ነገ
▁እጅግ
▁!
##ሶም
▁ትንሽ
##ግባእ
##ርኢ
▁"ኣ
##ለየ
▁ገጽ
▁መግለ
##ፈራ
##ዲህ
▁ትልቅ
##ፍን
▁ምርጫ
▁ኣብኡ
##ውሰ
▁ሙሴ
▁ክብ
##ራሳ
▁ነበር.
##ጠቀ
##ለም።
▁ስን
##ከውን
▁ጀሚ
##ብኝ
##ከቱ
▁መተ
##ሆና
▁በጥ
▁ተጋ
▁ሃይ
▁ውን
▁ዝም
▁የሚያስ
▁ሆኖም
▁ሰዓ
##ምት
▁ልዩ
▁ድዩ
##ደረገ
▁ደን
▁ለማድረግ
##መረ
▁መልካም
▁የታ
##ኹሉ
##ይቶ
▁ኣካ
##ፋል
##ሳስ
▁ሴት
##ቷል
▁ስለሆነ
##000
##ነጋ
##ሳተ
▁ይብ
▁ጨዋታ
##ርክ
▁ከባ
▁30
##ዳይ
▁የሆዋ
##ጥነት
▁ውሳ
##ሊዝ
▁ብእ
▁ፍላ
##ዉን
##ዮች
##ኪና
##ቻል
▁ለማግኘት
▁ማይ
##ዮም።
##ቃል
▁ሪ
##ሳን
##ፍቲ
▁ስት
▁ያለውን
▁ሓይ
##ዲዮ
##ለመ
##ደግ
▁እሷ
##ችንም
##ዎም።
##ላል።
▁ፍቅር
▁ዩኒቨ
▁ነው፤
▁...
▁T
▁ስድራ
▁ብስ
▁ዜና
##ኖራ
##ፈልጦ
▁መገዲ
##ዅሉ
▁ምት
##ዕቲ
▁እግዚኣብሄር
##መኑ
▁ወላ
▁መሠ
▁24
▁እውነት
▁የእርስዎ
▁ይሆና
##ጹም
##ረጋገ
##፡-
##ምረ
▁ዝዓ
##ፈጠ
▁ንዘ
##ግበ
##ም፤
##ው።
##ካ።
▁ቀናት
##ፍር
##ማል
##ዛት
▁ነን
▁ክፉ
##ኽእሉ
##ar
##19
##እዛ
▁ኣል
▁የው
##st
▁ይበል
##ቀድ
##ቅድ
▁ኲ
▁ቐ
##ፖርት
##ራብ
▁ማግኘት
##ቹን
▁ኢሎም
▁ስለምንታይ
##ላን
##at
▁ሕጊ
##le
▁ዝወ
▁ግና፡
##ቡን
##ኖሩ
##ጠብ
▁ገበ
##ሊት
##ፍለ
▁ግንኙ
##ርሲቲ
▁ነብ
▁እንዳለ
▁አጋ
▁ወረ
▁ዕድል
▁ሱ
▁ፖለቲካ
▁ናት
▁ኣጋ
▁ተኣ
▁ሰለስተ
▁መሪ
##:3
##ከና
▁ንጉስ
▁ጥቅም
▁ለዚህ
##ደርግ
##ወሰነ
▁ልም
▁ጥራሕ
##ታችን
▁ነጻ
▁በሕ
##ሙር
##ቂያ
▁ፍላጎ
▁እንተኾነ
▁ኣመ
▁ፈቃ
##ሮም።
##ጥፍ
▁መድረ
##ኽእል።
▁ጳ
##ከለ
##ህና
▁ይፈልጋ
▁ያውቃ
##ተኞች
▁ኣቢ
▁ግል
##ክስ
##ዘር
▁መንገ
▁በኢ
▁ክሳዕ
▁ሓድሽ
▁የስ
##ራዊት
##ንዳ
##ዋ።
##ኹም።
▁ናይቲ
▁በር
##ኣን
▁25
▁ምኽንያት
##ተና
##ባህ
▁እያንዳንዱ
▁ኣገዳ
▁በስ
##ጣል
▁ኣም
##ሰርሕ
##ቸዋ
##ጥም
▁ዝዀነ
▁ሮ
▁አይደለም።
▁አለ።
▁ይችላል።
##ዩ።
##መለስ
▁ጽሑፍ
▁ኣት
▁ጐይታ
##ሮችን
▁ተማሪ
▁ኢለ
##ረኣ
▁አገ
##ርግጠ
##ችሁን
▁ቻ
##ከም
##ና፡
▁በደ
▁የኢ
▁ችግር
##መጽእ
▁ሰይ
##ያዳ
▁መላእ
##ምራ
▁ከለ
▁ታሪኽ
▁ብኸመይ
##ሊዮን
▁ፍት
##ጠፋ
▁ይችላሉ.
▁ብርሃን
▁ዓብ
▁ይልቅ
##አን
##ገነ
▁ስብ
##ጽሕ
##ልእ
▁ኢትዮጵያ
##ይት
▁ብዬ
##ኑን
▁ዘለዉ
▁ከባቢ
##ናዮ
▁የእኔ
▁ወርሒ
▁ነበሩ።
▁ኣድ
##ግደፍ
##ፈጸ
▁ክንደይ
▁ዓቢ
▁መዓ
##ጅም
▁ውሽጢ
▁ምው
##ምነት
▁አላህ
##ሞም
##ጠቀም
▁በኩል
##ከላ
▁ልጆ
▁ዋላ
▁ይገባ
##ክክል
▁ኢኹም
▁ስደ
▁ቀደም
##ለወ
##ች።
##ገቡ
▁ሠ
▁ብለው
##ሎም።
##ዳል
▁ደር
▁ደቀ
▁ኢልካ
##ገደ
▁ዳዊት
▁ነፃ
▁ታሪክ
▁መንእ
##ቸውም
▁ዕለት
##ረኸ
▁(አ
▁በእግዚአብሔር
##ስማ
▁መድ
##ሕት
▁የተሻለ
##ተኛታት
▁ትግ
▁ኣይን
▁N
##ኛል
▁መንግሥ
▁ምሉእ
##ሪያዎች
##ሎጂ
▁የሕ
▁ተግባ
▁ተነ
▁ዐ
▁ንሳቶም
▁ኣለዉ።
##ረክብ
##የው
▁ፖሊ
##ሜን
▁መንጎ
▁I
##ፈው
##ውሎ
▁ዓዲ
▁እነሆ
▁ጸሎት
##ቆም
##ራሱ
▁ማየት
##ጠይ
▁ነህ
##ሰል
##ግለ
▁ክብል
▁ወሲ
▁ከነ
▁በተጨማሪም
##ጠሩ
##ሓን
##በኛ
##it
▁ጀመ
▁ከማ
▁እዞም
##ተኛው
▁"ን
##በው
##ገብረ
▁ቃላት
▁ኪዳን
▁ሩ
▁እንደተ
▁ዘይተ
##ምስ
##ያል
##ደርጉ
##ወል
▁ትኽእል
▁አላቸው
▁ሴቶች
▁23
▁ንገ
▁እነርሱም
##ካብ
▁ነታ
##ባሕ
##ሁለ
▁ያሳ
##ራሽ
##ct
##ርመን
▁ሁልጊዜ
▁ካብዚ
##ጽል
##ምንት
▁ይኸውን
##ያንስ
▁ሕዝብ
▁ህይወ
##ጣሚ
▁ነው!
##ጠን
##ለዋ
▁ዳር
##ቀል
▁ምርጥ
▁ነጥ
##ላንድ
##ሰባ
##ናዊ
▁ለተ
▁የብሉ
▁ተዓ
▁ዩኒቨርሲቲ
##ክምና
##ወይ
▁መመ
▁R
▁ፎ
▁ምህ
▁21
##ድልየ
▁ቁጥር
▁ናቸው.
##ደስ
##በቃ
▁በመጨረሻ
▁ኣይኮነን
##ቸዋል።
▁የቀ
▁ደገ
▁ኣይኮ
▁እዩ፡
##ኞቹ
▁ዘር
▁ሚኒ
##ዋር
##ገልጽ
##ቻቸውን
▁ቢሆን
▁ብሓቂ
▁እነዚህን
▁ትእዛ
▁22
▁ስፍራ
▁ከሌ
▁ፍቕሪ
▁ማወቅ
##ሜት
▁ስጋ
▁ምግ
##ወስድ
▁ጥቂት
▁ሃይማኖ
##ያ።
▁ዝነበሩ
▁ምፍ
▁አለው።
##ደና
##ዱ።
▁በብ
##ድካ
##ትያን
##ቸዋል
▁ሓይሊ
##ረጋግ
▁ሲያ
##በትን
##ዋቂ
##ስትሪ
▁ተባሂ
▁ህግደፍ
▁መጺ
▁ስነ
##ልኩም
▁በተለይ
##ጻኢ
▁ክህ
##ደለ
##መጡ
##ርካታ
▁ዙሪያ
▁ይችላል.
##ጥታ
▁የብ
##ጽን
▁አልነበረ
▁ብድ
##ደረግ
▁ኣይነበረ
▁እባ
▁ንዕ
▁ወዳ
▁ብዘ
▁መልክ
##ሰቡ
▁ቢያንስ
▁መልሲ
##ዛብ
▁እኮ
▁ኸኣ፡
##ጥረት
▁ሃብ
▁ዘይኮነ
▁ትዕ
##ግበር
▁ዘላ
##ሽተ
##ኻትኩም
##ቅን
▁ዝተፈላለ
▁ሦ
▁ከሰ
▁ዘይት
##ችልም
▁ኣገዳሲ
##የን
##ou
##ንግድ
▁B
##'ዶ
▁ኪኸውን
##ታማ
▁እድ
▁ይቀ
##ሮን
▁ሓሳብ
##ልዑ
▁የተለያዩ
▁ምኽንያቱ
##በኣ
##ልክ
▁ንደ
▁ይታ
▁ፍሉ
##ቦት
▁ፅ
##ዕን
##....
▁ስልጣን
##ደረጉ
##ሕን
▁(1
▁ኩሎም
##ዓተ
##ኻን
▁አዳ
▁ሻ
▁ኃይል
##ድሊ
##ውንም
▁ሓገዝ
▁ዘመ
▁ተረ
▁G
▁በምድር
▁ከባድ
##ገራ
▁ተማ
##ላሽ
##ምኑ
▁መንገዲ
▁የእኛ
##ጥረ
▁አገልግሎት
##ክኖ
##ገት
##ልቁ
▁መሬት
##ታቸውን
##ውሰድ
▁ከኣ፡
##ይነ
##ሚያ
▁ኃጢአ
##ፈልጡ
▁E
▁አካባቢ
##ንድን
▁እርስ
##ባኤ
▁መራ
▁የወ
▁ቢሆንም
##ገልግሎ
##ራሲ
▁ለእኔ
##ውሮፓ
▁ወሰ
▁ዞ
▁መዛ
##ንኛውም
▁Me
##ዙይ
##ከኣል
▁W
##ኢት
▁ጆ
▁ምግብ
##ለሁ፤
##ንኩ
##ሓይ
##ሩሳሌ
▁ይፈ
▁ምሳሌ
▁የሰው
▁ይኸ
▁ብሕ
##ህይወት
##ከብ
▁ፕሮግራ
##ንብ
##ረበ
##ሰበ
▁ፍጹም
##ቡብ
##ካየ
▁በእርሱ
▁ኳ
▁*
##ጸል
▁ጾ
##ቱ።
▁ይብል
##ሳኺ
##ዋዕ
▁የለን።
▁ዘየ
##ለፍ
▁ንላ
##ገብሩ
▁መጨረሻ
##››
▁ሰብኣይ
▁ክርስቲያን
▁መኪና
▁ትርጉም
##ጻእ
##ic
##:-
▁ደም
##ብዛ
##ለስ
▁ከእርሱ
▁ግንኙነት
▁ሲል
▁ይስ
##ምጃ
▁እዩ"
▁በርካታ
▁ዝኽእል
▁ጦ
▁ይዘ
##ሪት
##መስል
##,000
##al
▁ኣብታ
▁ተኸ
##ስታት
▁ብመ
##ለች።
▁መጀመሪያ
▁እስኪ
▁መሠረት
##ዊሕ
▁እወ
▁ተደ
##ያዝ
▁አካል
▁ማህ
##ብጻ
##ሃር
▁ሓላ
▁ተጠቃሚ
▁26
##ርያም
##ro
▁ውጭ
▁መቼ
##ሁለት
##ጤና
▁ሳይሆን
▁ዝሓለፈ
▁ክብር
▁ተዛ
##ክኖሎጂ
▁ናብቲ
▁መቀ
##ምበር
##ሓደ
▁ነፍሲ
▁ጸኒ
▁(እ
▁ደው
▁ምጽ
##በየ
##ውቅ
##ስር
▁ኣገልግሎት
▁ጸጋ
##ጫወት
▁በለ።
##ሃም
▁አሉ።
▁መብዛ
##ኩም።
▁የነበረ
▁ኣይኰነ
▁እሱን
##ናግ
▁እንስ
▁መጣ
##ጠል
▁ሰም
##ደገ
▁ቀዳማይ
##ሁዳ
##ሪክ
▁ንሰ
##ላር
##ነበር
▁ይመ
##ቴን
##ይህ
##ጠቃላይ
##ጋና
##ቀኑ
▁አገር
▁ጳውሎ
▁ምልክት
##ብዎ
##ዮ።
▁ትክክ
▁ችግ
##ካት
##ገልጋ
##ያውቁ
##ዘላ
▁አቀፍ
▁ጣቢያ
##ሻሻ
##ሎ።
##ኩት
##ረፈ
▁ፍቓ
##ዝን
▁ባል
▁እዩ፣
##ዛሬ
▁አታ
▁ጃ
▁እግዚአብሔርን
▁ኢየ
▁መሰል
▁ነቢ
##ሃል።
▁መፍት
▁ኣኼ
▁ለምሳሌ
▁አሜሪካ
##ል?
##ጋዊ
##ጽዕ
▁ይገኛ
▁ኢኹም።
▁Cor
##ዚቃ
▁ትሕቲ
▁ጥር
##oo
▁D
▁ይቕ
▁አፍ
▁አቅ
▁"ከ
▁t
▁ወከፍ
##ሕር
##ካይ
▁ንላዕሊ
▁ጫ
▁እርምጃ
##ንት
▁እፈልጋ
▁ከእናንተ
▁ዀ
##ታቶም
##ኝም
##ድቅ
##ሲ፡
##ስቡ
##ቆብ
▁ሰነ
▁ይቅር
##ራ።
▁የሚሰ
##ፈስ
▁ፕሮጀ
▁መደብ
▁ይላል
▁ይሆናል።
##ሩሳሌም
##ጋሪ
▁የሌ
▁ማንኛውም
▁ሕግ
▁ቅር
▁ሰበይቲ
##ልዓ
▁ተሳ
▁አባት
▁ሓቢ
▁ከቢ
▁ሺ
##ብላ
##ከሰ
▁ንድ
▁ኣለዎ
▁ወጻኢ
▁ውሳኔ
▁ኣበይ
▁የባ
▁ዝርዝር
▁በዓ
▁እንተዘይ
▁ዘሎ።
##ቓል
▁ድል
##ለሁ.
##ካዮ
▁መሣ
▁ካልኣይ
▁በሎ።
▁F
▁እዚያ
##ናብ
##ሴፍ
##ተማ
▁i
##ጠበ
▁አይነት
##rect
▁ይግባእ
▁መታ
##ለውን
▁ይበ
##ጣሪ
▁ፍላጎት
▁ይሆናል.
▁ኣሜሪካ
▁ዜጋ
▁ዕድሜ
▁እግ
▁እምበር፡
▁በቅር
▁በመጀመሪያ
##ፉት
▁አግ
##ጻር
▁ከእኔ
##ል፤
▁ኽን
##ሙያ
▁(በ
▁ብቐ
##ሶች
##ብረተ
##ገንዘብ
##ታችሁ
▁ሰሚ
▁ኣኼባ
▁ተጫ
##ን?
▁ብሰ
▁እተን
▁ፈር
##ጠፍ
##ንክ
▁መጀመር
▁ሁላ
##ምልከት
▁አያስ
▁Correct
▁መልስ
##ኡን
##ሖዋ
▁ብዓ
▁ከሆነ,
▁ቕ
##ረተ
▁እኔን
▁የሚል
▁ኣባላት
##ፎም
▁እንሆ
▁የለም።
▁ዝቐ
▁በአሁኑ
▁ሰን
▁ኣደ
▁ዶላር
▁ጉዞ
▁በታች
▁ያደርጋ
##ጡ።
▁ይቻ
##ሞን
▁መግለጺ
##ጋፍ
##በራዊ
▁የሚቆ
▁ሚሊዮን
##ነይ
##ርዳ
##ክዎ
▁ለውጢ
▁መተግበ
▁እናተ
##ብና
##ዲት
▁ጸገም
▁የለው
##ርእዮ
▁እንደዚህ
##ጋሚ
▁መሰረት
##መለከተ
##ዋይ
▁ሰብኣ
▁ትግራይ
▁ቡድን
▁ኾ
##ለው።
▁ለመስ
##ፎች
##ኑዕ
▁እንዳይ
##ርባዕ
##ሎን
▁c
▁በየቀኑ
▁ቱ
▁ተቓ
▁ቀጥ
▁(የ
▁ይሰማ
##ገበ
▁ወንጌ
##ቾች
▁ዕላማ
▁ይበልጥ
##ሁት
##ተል
▁ኣማ
##ሳሳ
▁ዉ
▁ዅሉ
▁እነሱን
##ይኖም
▁ሳዕ
##ሉ?
##ሸት
▁የበ
▁ትኩ
▁ታውቃ
▁የግ
##ጎች
##ዘላለም
▁አማራ
▁መጋ
▁ማሳ
▁ንኣብ
▁ኣይክእ
▁በቂ
##ሁድ
##ሱ።
##om
##ጋራ
▁አውቃ
▁ስላ
▁ለእርስዎ
▁ስለሆነም
##ጅለ
▁ንጹ
▁እንከ
##መሰግና
▁የፍ
▁ጉባኤ
##ለል
▁ይመል
▁መሊ
▁ማስተ
▁ደቂቃ
▁አንዳን
▁ቪዲዮ
##መሳሳይ
▁፥
▁ምዕራ
##ታም
##ዕድ
▁እውነተኛ
▁ሥር
▁ኖሮ
##ለህ?
▁ሉ
▁ጓደኛ
▁H
▁በው
▁ያላቸው
▁ገደ
▁ምላሽ
▁በእውነት
##ግእ
▁ጕ
▁ከል
▁እርግጠ
##ህበራዊ
▁ተማሪዎች
▁ርክብ
##ጡት
▁ደጊ
▁የመጀመሪያው
▁ብፍላይ
▁ውል
##ፊቱ
▁ዝኸውን
##ፈለግ
▁ኰይኑ
##ሆኑም
▁ቈ
##ቡራት
##:4
##ተዋል
▁ንኣምላኽ
##ሳቸው
##ምህርት
▁ጳውሎስ
▁ተበ
##ረይ
▁አዎ
▁ካብኡ
##ዝና
▁ዘበለ
▁ዑ
▁ጥን
▁ጋዜ
▁ትክክለኛ
##ደ።
##ቃት
##ስትዮ
##ኻል
▁ሰዓታት
##ኩምን
▁28
##ዱስትሪ
▁የዚህ
##ሎችን
▁ሰዎችን
▁ኑ
▁መው
▁"ኣብ
▁ዝሰ
▁ባሕሪ
##ነቶች
##ቐት
##ንጉ
##ወረ
##ስተው
▁ሕዚ
▁ሕማም
##ad
▁የካ
##ሃት
▁ያላ
▁ኣመሪካ
▁ጥበብ
##ኒት
▁ቤተሰብ
▁ሰሙን
▁ይመጣ
▁ተን
##ሙ።
##ንደ
▁ወጣ
▁ዓላማ
▁እዩ፧
##ቲያ
▁በማለት
▁ባይ
▁ንጥ
##ስራ
▁ፈተና
##ዱት
▁እሱም
##በባ
▁አለብ
▁አመ
▁ሳል
▁ዘለዎም
##ፈተ
##ኮኖ
▁ሰል
##ድሪ
##-1
▁በእውነቱ
##ክሮ
▁ቍ
##ሌት
▁የመጨረሻ
▁የንግድ
▁100
▁ያንን
##ካ፡
##ኸይድ
##ርባዕተ
▁ሃገራዊ
##ዘዝ
▁ሀብ
▁ኣዕ
▁የተሰ
▁ኒ
▁ምዝ
▁ሕይወ
▁ዓቕ
▁ጓደ
▁ዝለ
##ቃስ
▁እኛም
##ዩን
##ኑ።
▁የሆኑ
▁ጀርመን
▁ሁለቱም
##ረፍ
▁ጓል
▁አብዛኛ
▁እንችላ
▁ደብ
##ራም
##ቶቹ
▁ራስ
##ረታዊ
▁ይወ
##ምህር
▁^
##ም፣
▁አለመ
▁ጥዕና
▁50
▁መም
▁በሌላ
▁ከምዘይ
▁በተመሳሳይ
▁በስተ
▁ገይሩ
##ፍጠር
##ጀት
##ሪቃ
▁ኢልና
▁ፊልም
▁ብምባል
▁አነ
▁ግናኸ
▁ይሕ
▁በሆነ
▁እምበኣ
##et
##ል,
▁ዝያዳ
▁ምግባር
▁ቤተክርስ
▁መላ
▁ፌ
##ስ።
▁ክህል
##ስቱ
▁ብቸ
▁ምስክር
##ጢር
▁መከራ
▁ኳስ
##ሴት
▁ሰይጣን
▁መጸ
##ሉ፡
##ጽበ
▁ኣገባ
▁ንጉሥ
##ዕዞ
##ፈለጉ
##es
▁በጭ
▁ረኺ
##ደራ
▁ድርጅ
▁ቫ
▁ኣተ
▁መሥ
▁ኣካል
▁ንኣብነት
##ዱን
▁ኣዋ
##ሩብ
##ነዚያ
##መልከት
▁s
▁ነው"
▁እርግጠኛ
##ስዕብ
▁"እኔ
▁በእኔ
##ቋቋ
##ጢኣት
▁ይሆን
##ውሮጳ
▁ከቢድ
▁አግኝ
▁እንድት
▁ቶ
##ሉ፤
▁ኮነ
▁ትምህር
▁ስለዚ፡
▁ዘተ
▁ማለ
▁ዘይብሉ
▁ግብሪ
▁ንህዝ
▁መኖር
▁መረ
▁በሎም።
▁በፍጥነት
##ጹ።
##ኖረው
##ዒት
▁አየ
▁ኣቐ
▁እነዚያ
▁ምልክ
▁መጻሕ
▁L
▁ምስኡ
▁ሓሳ
##ስል
##ካከ
▁ዘፍ
##ስታወ
##ብሃል
##ሳል
▁ህጻ
##ጽሪ
##ዕለ
##ኾን
▁አለባቸው
▁አደጋ
▁የልቦ
▁ክልቲ
▁ቤተሰ
##ቻችሁ
▁መና
▁አለኝ
▁እንደሚያ
▁ጅ
▁የብሉን።
##ኮኖሚ
▁ተብሎ
##ማኝ
##ሃበ
▁ዓብዪ
##am
##ክርስቶስ
##ጠመ
##ታሕ
##ቆጣ
▁ካብቶም
▁መስመር
▁ቀንዲ
▁ፖለቲካዊ
▁_
▁ተግባር
▁ስለሚ
##ቀደ
##ሓር
▁ውሃ
▁ተጫዋ
##ag
▁199
▁ለማስ
##ቡእ
▁ኃይ
▁ዝበል
##ሕል
▁ኣህ
▁ኢድ
▁መንግስት
##ውና
##ቶ።
▁ትችላ
▁ኣለኹ
▁ጠቃሚ
▁m
▁ሁላችንም
▁40
▁ሓደጋ
▁ወት
##ላችሁ።
##መጥ
▁ንብረት
##ዋም
▁ኣለኹ።
##ንቅ
##ሊፉ
▁ኣለዉ
▁በነ
▁ቤቱ
##ኒ፡
▁ለማሳ
##መቱ
▁ካር
##ዋል.
##ቤቱ
▁አምላ
▁በመን
▁ፍሉይ
##ኣቶም
##ካየድ
▁ሓሙ
▁ችሎ
▁ኣር
▁ውድብ
##ረቱ
▁ኣኽ
▁መንግሥት
▁ኮም
▁በሁሉም
▁መቅ
##ሩም
▁ተጻ
▁ከእነርሱ
▁ወገን
▁ከአንድ
▁መሄድ
##ለህ።
##ዖም
##ቷል።
▁ነገሮችን
▁ተመለ
▁ኣጸ
##ስተር
##ጠቀሙ
▁ወገ
▁ንኸ
##ቁር
▁ስሜት
▁ቴክኖሎጂ
##ሞቱ
##እምሮ
▁በማንኛውም
##ናይት
▁ድጋፍ
▁ዘይም
▁ለውጥ
##ኣኽ
▁የለን
##ጠየ
▁ልቢ
##ውነት
##ንካራ
##ገረ
##ጣዕ
▁ክፋል
##ላችኋ
▁"ብ
▁የዓለም
##ከባ
▁ስእ
▁ደህን
▁ክፍለ
##ኮች
##ጨነ
##ፍል
▁ፎቶ
##ac
##ለዉ
##ላፊ
##ዘራ
##ወሰኑ
##ስነት
##መንግ
##እት
##ጽሑ
▁ኣፍሪቃ
▁ባዕሉ
##ሰጥ
##ሖም
##ደንት
▁ጥበ
▁እንት
▁ኣርባዕተ
▁ኣይነበረን።
##ጋት
▁ብወ
▁ግድ
▁ፍሬ
▁ንክ
▁ሰላ
##ጴጥሮ
##ጠላ
▁ወንዶች
▁ደስታ
▁እንዳል
▁ቃልሲ
##ጠበቅ
▁27
▁ይብል።
##ን፣
▁ከይተ
▁አላቸው።
▁ጥቅ
▁ማእከል
##ነግረ
▁ተወዳ
▁ብዙውን
▁የእግዚአብሔርን
▁የእስራኤል
▁ጉድ
▁ያልተ
▁መቕ
##ልማት
##ዋርያት
▁ይናገ
##ቅስቃ
▁ኣለና።
##፧"
▁ገብ
##ዎ፡
▁ልት
▁መጥፎ
▁ፈረን
▁አይደለም.
▁ዝኽ
##በረሰብ
▁ኣቕ
▁የነበሩ
▁ዘጋ
▁ብዝተ
##መነ
▁ነዊሕ
##ትስ
##ዬን
▁ንስኻትኩም
▁ስለዝኾነ
▁እንከሎ
##ሊል
▁ንሓደ
▁ክፍሊ
▁አሸ
▁ንኹሉ
▁ክልል
▁የብል
▁ድምጺ
##ጽነት
##ብ።
▁ሰፊ
▁መብዛሕት
▁ዘለና
▁እንግሊዝ
▁ለመሆን
▁ስህ
▁እዋ
▁አድ
▁ፈቃድ
▁ለሌ
▁ተደር
▁እርዳ
▁አምላኽ
▁ብቕ
▁ማርያም
##ኩም፡
▁ነፍስ
▁መዋ
▁ብግ
▁እንተኾ
##ጠባ
##ጽም
##ግርኛ
▁ሙዚቃ
▁በውስ
▁ዴ
##ርአ
##ችው
##ታዎች
##ርም
▁ትብ
▁መንፈሳዊ
##ማዊ
▁ዝጸ
▁ክቕ
▁ዕዳ
▁ኣሎና።
▁ትካ
##ለ።
▁ዝርከብ
▁የተመ
▁ቀር
##ድዮ
##ኛል።
##id
▁በቀላሉ
▁ይኖር
▁ልዑ
##ጽሞ
▁ይችላሉ።
▁መጠቀም
##he
▁ንኽእል
▁ብለ
##ላትና
▁ለእናንተ
▁አውሮ
▁አገልግሎ
▁ካባ
##ቀስ
▁ሰራዊት
##አት
##ስለ
▁ሓላፍ
▁ንብ
##ለን.
▁ሳምንት
▁ጊ
▁ከብ
▁ነበር,
▁መገ
▁የሚፈልጉ
▁መልእኽቲ
▁ሓዲ
##ሪስ
##ፋን
▁የነ
##ቅስቃሴ
##ንቱ
##ባዕ
▁ፕሬ
##ፍለጥ
▁ንምንታይ
##ግዚአብ
##ናይትድ
▁ህን
▁ተባሂሉ
▁ለማየት
##ay
▁ቀድ
▁ኣገባብ
##ነስ
▁ወስ
▁መተግበሪያ
##ሰጣ
▁መስጠት
▁ፍርድ
##ፈልገ
##ኡ፡
▁መንገዶች
▁ሕል
▁ዕድመ
▁እምበኣር
▁ከአንተ
▁ይግባእ።
▁ቲ
▁ዘረባ
▁ሞተ
##ሰያት
##ከተማ
##2)
▁የራ
▁ናይዚ
##ሁ።
##ዋርያ
▁ከእግዚአብሔር
▁ክስተ
##ገኘው
▁ዝው
▁ለሁሉም
##ዲሱ
▁ያን
▁ጠንካራ
##ወቁ
▁ለመቀ
##ኣለም
▁ለእኛ
##ደረገው
##ንግሊዝ
##'ዮም
##፡1
##ሊያ
##ቀመጥ
▁ምቕ
▁ክርስትያን
▁ፍጻ
▁ጉጅለ
▁ምስጋና
▁ርዕ
▁ኣቦይ
▁ወንጌል
▁ሕቶታት
▁ብን
##ሐይ
▁29
▁ይመለ
▁ዮሴፍ
▁ፍርዲ
▁ክወ
▁ከእኛ
##ም,
▁ሕቡራት
##ላውያን
##ደልዩ
▁ዕዮ
▁በትክክል
##ናዳ
##ብህ
▁እዝ
▁የሚችል
##ችለው
▁ምሽ
▁ግብጺ
▁ቻይና
▁አስቸ
▁ደጋ
▁እነሱም
##ክተር
##ፋስ
▁በላ
▁ይወስ
##ረዱ
▁ታዲያ
##ጮች
▁እዩ?
##ሃሮ
▁የምታ
##ዓለ
▁ሰናይ
▁መለሰ
▁ምሕረት
##ምዕ
##21
▁ስሙ
▁ኮሚ
##ፖር
▁ቀይ
▁ክንዲ
▁ሆነው
##ሏል
##ጫወ
##ዝም
▁ቁጥ
##'ኳ
##ኬት
▁ቀል
▁ፈጺ
##ፈረ
▁ትልቁ
▁ተሸ
▁ዘዴ
##እኔ
▁ሽሕ
▁ኣታ
▁ኤል
▁ነዛ
▁ከው
▁በጭራሽ
▁የደ
##ከው
▁ሂደት
▁ይኽእል።
▁ስደተኛታት
##ወጥ
▁ደንበ
▁ይሰጣ
▁ቀሪ
▁እንቅስቃሴ
▁ለዘላለም
##ከረም
##ኣቱ
##ንግዲህ
▁ክንድ
##ጽና
▁ተቋ
▁ትውል
##ስካ
▁አንተም
##ዓን
▁ይኸውን።
##ረቡ
▁ክሓ
▁ደብዳ
▁ማር
##ራቸው
▁ዓ.
▁ነይረ።
##ክቶ
##ብሩ
▁ይመልከቱ
▁በመስ
▁ብመን
▁ይው
▁ጥሪ
##ዘው
##ሃይ
▁ይላ
▁ክበ
##ንጎ
▁ጀሚሩ
▁አገልጋ
▁ያሉት
▁እንግዲህ
▁ትም
##ናው
▁በግል
▁ኣዚ
▁የግል
##ኔት
▁ክነ
▁ውስጥ,
##በሪ
##ነጋገር
##'ሞ
▁ወድ
▁ጌጋ
▁ሠራ
##ታትና
##ረዳት
▁ባለው
▁መቶ
##ወቀ
##ሳሳሊ
##በሳ
▁ቀረባ
##ፈልገው
▁ፈለ
▁ኢንተ
▁ዳግ
▁ትእዛዝ
▁መነ
▁ሬ
##ባን
▁ኵሎም
##ስፒ
##ዎስ
▁በጃ
##ሞክራሲ
▁ዓሰር
▁ብሩ
##ኣል
▁እየን።
▁ሦስት
##ጀመርያ
▁ፕሮግራም
▁አራት
▁ግልጽ
##ላጥ
▁ካለ
▁ራሱ
##ብቅ
▁ድኣ
▁ጨምሮ
▁ፕረ
##ፈጠረ
##ጣዕሚ
##ደሳ
▁ሰራ
▁p
▁ሰር
##ሆኑት
##'ያ
##).
##ፈን
##ከፋ
▁ስቴ
##ቦም።
##በን
##ቀቅ
▁እህ
##ሕነት
▁እግር
##ናን።
##ደርስ
▁ብሰን
▁አድርጎ
##ጽር
##ቀድሞ
▁ወትሩ
##ቅረብ
▁ዝቅ
▁ዓበይቲ
▁እንስሳ
▁ደስተኛ
##ልኝ
▁"መ
▁ይነ
▁ባይቶ
▁ኣርእ
▁ለመጀመሪያ
▁የአምላክ
▁ፕሮጀክት
▁ውግእ
▁የተለየ
##ቻለ
▁በቃ
▁የተባ
##is
▁ዝግጁ
##ረጅም
▁ከዓ
▁ይቆ
▁ግድን
▁ብርግ
▁ኢያ
▁ጥቕ
▁እስካ
▁መጀመርታ
▁ዘው
##ሰምዕ
##ከረ
▁ዝሕ
▁ወል
▁ነይሮም።
##ዳእ
▁ደቡብ
##ላትን
▁ማህበራዊ
▁ገበያ
▁አሎ
##ታቱ
▁እችላ
##ing
▁መስርሕ
▁ፍቓድ
##ኩን
▁የመጣ
##ንቀሳ
##ጠረ
▁ማሕበር
##ብረተሰብ
▁አጥ
▁ወያ
##መዝ
##ቅዱ
##ጠቅ
▁2020
##as
▁የሚቆጠሩ
▁ተጸ
##ምካ
▁ልክዕ
▁ተቃ
▁ብጣዕሚ
▁በሚቀጥ
▁ዞባ
▁ኣይኰነን።
▁ኣተሓ
##ed
▁ምምሕ
##ሮት
▁ፈሪ
##ምሩ
▁31
▁ታላ
▁ተመሊ
▁ዝነበር
▁ይርከብ
##ስኻ
▁ብው
##ምነ
▁በመቶ
▁ሳይን
▁አደርጋ
▁ንዓይ
▁ምባል
▁ንጽ
▁የፈ
▁የሙ
##ነብሩ
##ጭር
▁0
##ፈሻ
##ደርገው
▁በእኛ
▁ትኩረት
##ለብ
▁ወዲያው
▁ብርቱ
▁ዝኾኑ
##ሐንስ
▁ንው
▁የጥ
##ረጋገጥ
▁እፈልጋለሁ
##ሬን
▁መሓ
##ቅርብ
▁መጻኢ
##"።
▁አስቸጋሪ
▁32
▁አይደሉም
##ቤተሰብ
##ትታት
##ኦል
▁ጽሕ
▁ይን
▁ክሕ
##ጅምር
▁ጽባሕ
▁ኹሉ
▁ጴጥሮ
##ኦን
##የም
▁ወጥ
▁ሕብረት
▁እባክ
▁ንኽት
▁ጽን
▁ዝቕ
▁ተናግ
##ብሪ
##ረታ
▁ቁር
▁ድምፅ
▁ማስታወ
▁ሆይ፥
##ረጥ
##ደድ
▁ንርእ
▁እንድን
##ታል.
##ገሩ
##ደሳች
##ቦ።
▁እናውቃ
▁ዱ
▁ትግርኛ
▁ይቻላል
##ይረስ
##ራር
##ፍና
▁የሆነው
▁ኢንዱስትሪ
▁የመስ
##ደርገ
▁ርእሱ
##ሪቱ
▁ይሓ
▁ህዝባዊ
##ችልም።
##ማም
▁ሰራሕ
▁ፈጣሪ
##ሄዱ
▁ግለ
##ህ።
##ሴን
##ቦችን
▁ሕክምና
##ዀኑ
▁ኣይክ
▁ኣብዛ
▁ከእነዚህ
▁ውጤት
##ሰሩ
##ዓዝ
▁መዳ
▁አስደሳች
▁መሣሪያ
##ገስ
##ሣኤ
▁አር
##ርከቡ
▁በሕይወት
▁ጻዕ
##ጽሐ
##ራኸ
▁በተመለከተ
##ምረጥ
##ክእል
▁ተም
▁"እቲ
▁ኣቐዲ
▁ዘለዋ
▁የአሜሪካ
▁ሁለቱ
##ኻ፡
▁የሚታ
▁ለማወቅ
▁ኤውሮጳ
▁አመት
▁ንነ
▁ዘሎና
▁ምጥ
▁ክእ
##በረታ
▁ጸሎ
▁ብመሰ
▁ወሳ
##ore
▁ሽማ
##ሞከር
▁ግም
▁ልን
##ሉ,
▁መብት
##ዶቹ
▁ዝስ
▁ያስተ
##ዚያን
▁ገዛእ
▁ነኝ።
▁ዝበሃል
▁ሃይማኖት
▁በተለይም
##ኩሉ
▁ኣይከኣ
▁ትካል
▁በይ
▁ቆልዑ
##ዕብ
▁በበ
▁መሸ
##ረኽቡ
▁ኃጢአት
▁ፍቅ
▁ፈጣን
▁ጤና
▁ሰማያት
▁ቆይ
##መስለ
▁ለመግ
▁ሕዝቡ
▁ዝበዝ
▁እናት
##ኸት
▁እቲኣ
▁ችሎታ
▁ልዑል
▁ትክክል
##ግዚአብሄር
▁ማው
▁ራሳ
▁ምዕራፍ
##ድግ
##ኖረ
▁የተቀ
##ለት።
▁ብዘይካ
##ሲያ
##ኻ።
▁U
▁ክስ
▁ጉዕዞ
▁ምኽሪ
▁ብሓባር
▁የሞ
▁መንእሰያት
▁ተሞክ
▁ይኖራ
▁ሰባ
▁አልቻ
▁ክገብር
▁ዳርጋ
##ውቁ
##ሴቶች
▁መዛሙር
##ቃን
▁ተጠቃሚዎች
▁በክ
##ጠኝ
##ወሳኺ
##ፊያ
##ማሊ
▁ግራ
▁መጽና
##ረግ
▁እንደም
##እይ
▁ኣይፈልጥ
▁የይ
▁ድዩ?
##መስግ
##'ምበር
▁እኛን
##ረገ
##ከተል
▁መንእሰይ
▁ሃገርና
##ሕና
##ምን?
▁ጸገ
##ራሳቸው
##ማሽ
##ችሉም
▁መበ
▁ሚል
▁ውጽ
▁(ማ
▁ንግድ
▁ጠየ
▁መስዋ
▁ይባ
▁ሕማቕ
##ሰና
▁ሥጋ
▁ምድርን
##ኞችን
▁ፒ
##መም
▁ምርት
▁አመሰግና
▁ኩባንያዎች
▁አደረገ
▁ሚስ
##ምድ
▁ስድ
##ጓዝ
##ድኣ
##መናዊ
##ምቲ
▁ከወ
▁ነበር፤
▁ብርግጽ
##ቅና
▁ምንድን
▁ኣእምሮ
##:5
▁መቐ
▁ህወ
▁አምስት
▁እግዚአብሔርም
##ion
▁ዝፈ
▁ዎ
##ነን
▁በሉ
▁ኮን
▁የአየር
▁ንሰብ
▁ነጥብ
##ሃደ
##ፉን
▁መፅ
▁ልጁ
▁ዕው
▁ከቶ
##ዕቆብ
▁ለይቲ
##ኖስ
##ጠቕ
▁የእርሱ
##ርሻ
##ጸር
▁ብኽ
##ህብ
▁ኼ
##ኤላውያን
##ክራ
▁መዓልታት
▁አደ
▁እርዳታ
##ሶት
▁ሕጉ
▁ህል
▁በመሆኑም
▁መራሕ
▁ወጣት
##ብቲ
▁ጊዜ,
▁ኣሕዋ
▁ፍጥነት
▁ማሕበራዊ
▁ንዘለ
▁ተስማ
▁መሆና
▁"ይህ
##ስቡክ
▁ባለሙያ
▁በብዙ
▁ተከታ
▁ሰልፊ
▁ተሞክሮ
▁ሆስፒ
▁)
##ዋለሁ
▁ፍረ
##ምለስ
▁ፈሊ
▁ኣይክእልን
##ሏል።
▁ነጋ
▁,
##ወደን
▁ጠቅ
##ገርም
▁ብሓደ
##ሕግዘ
▁ውጤታማ
▁ዝኾ
##ያቸው
▁ለል
▁ምርቶች
▁ተዛሪ
▁ሓዊ
▁ምስቲ
##ደሉ
▁ሁኔታዎች
▁በድ
##ዛን
▁2018
##ለምን
▁ኣለዋ።
##የ።
▁ኣላ
▁ዝተፈላለዩ
##አል
##ሁሉ
▁መሲ
▁ጥራት
▁ክርስቲያ
▁የምና
▁ኰነ
##ኡ።
▁ስጦ
▁ዓው
▁ማንኛ
▁ያስፈልጋ
##ጸም
▁መዓስ
▁ከጥ
▁ሚስት
▁"እዚ
##ያትን
##ጽዕኖ
##ናውያን
▁ምኻ
▁ሰጥ
▁ሀገር
##ሰርሑ
##ዳደር
▁እስራ
##ሃንስ
##ሙት
▁ክመ
▁በደን
▁ብሉ
▁(ከ
##ክሲ
##ቆየት
▁ባህሪ
▁በግ
▁ምንጭ
▁ኢላ
▁እሳት
##ክተ
▁ቅን
▁ታዋቂ
▁ብድሕሪ
▁በስተቀር
▁ኡ
##ብሎም
##ያዘ
▁ትብል
▁የህ
▁አብዛኛዎቹ
▁አላው
▁ይግ
▁ሺህ
##ትያ
▁ርእይቶ
▁ቅል
▁ርግ
##ሃለሁ
##ልጣን
▁ብለን
▁አይችልም
▁ፈጽሞ
▁ዀይኑ
▁ኣብነት
##ቀኛ
▁ኸተማ
▁ኣባል
▁ጸብጻ
▁ምክር
▁ስለዚህ,
▁ኣለና
▁ረኣ
##ሄዳ
##በርካ
##ቻለሁ
##el
▁በእናንተ
##ነታ
##ቕር
##ልዩ
▁ሚዲያ
▁ከተሞች
▁መዝሙር
##ኢየሱስ
▁ተጽዕኖ
##ያተ
▁ዝፍ
##ገልገል
▁ኣዒ
▁የላ
▁ክብሪ
##ደሰ
▁ጌርካ
##ማስ
▁ሓላፍነት
##ያይ
▁ብዕ
▁ዝጸን
##ህናት
▁ንበ
▁መፍ
▁ንመን
##ሻሻል
##'ዮም።
▁ለእግዚአብሔር
##ንድነው
▁ብተወሳኺ
##ዖን
▁ሰሪ
▁ከእንግዲህ
##ከናወ
▁ሓሙሽተ
▁ንምፍ
▁ቀድሞ
##ሠሩ
##ig
##ነቱን
##ርኩም
##ትር
##ልዎ
▁መስከረም
##ንዱ
##ጽኣ
▁ጽድ
▁አይደለሁ
▁ዅ
##ዓይ
##ጻሕ
▁አባላት
##ፈሩ
##ኻኽ
▁ንተ
##ጋይ
▁ዝኣመሰ
▁ኣብ'ዚ
▁ፖሊስ
▁በቅርቡ
▁ምዃን
▁በእነዚህ
▁ሁለተኛ
▁ግን፡
▁ጉዳዮች
▁ግምት
##ራትን
##ልተ
▁ፍለ
▁አስተያ
##one
##ህሉ
▁ናጽነት
▁d
▁አዳዲስ
##ሳእ
▁ጦርነት
▁በአሜሪካ
##ፍትዌ
▁ገዲ
##ሽቶ
▁ያገኛ
▁"እን
▁መድሃ
##ባሪ
##ጊት
▁ተጓ
▁ቤቶች
▁በሽ
▁አገኘ
▁ንቕ
##201
▁እዚ፡
##ላቸው።
▁ወጪ
##ኩን።
##ዳና
##ሕዛብ
▁ቡድ
▁ዚብል
##ዓልቲ
▁ቅኑዕ
▁ኣይነ
▁መግቢ
##ደናቂ
##ሓድ
▁ኢኮኖሚ
▁በሁለ
▁ናባ
▁ከምዘሎ
▁ኣጋጣሚ
##ቲት
▁ሓው
▁አውቃለሁ
▁O
##ዑ።
▁ብናይ
▁ዲኻ
##ሌክት
▁$
▁እዙይ
▁ተዘ
▁ፊል
▁የተወሰነ
▁ጠላ
##ቀን
##ብርሃም
▁ችግሮች
##ሊክ
▁ሳምን
##50
▁ሓጢኣት
▁ያላቸውን
##ሳይያስ
▁አዝ
▁33
▁ብሰንኪ
▁ዝደ
▁ምንቅስ
##ይዎ
▁ስለዘ
##ጀራ
▁ክፍያ
##ከፍተኛ
▁ዝመጽእ
▁ይኽእሉ
▁ከፊ
▁ቅጣት
▁የወደ
▁ሚኒስት
▁ሰበይ
##ሓትት
▁በጺ
▁ከሁሉም
▁ንኹ
##ጀመረ
▁ክፍሎች
▁አድርገ
▁ኣብር
##ም?
▁በዚያን
▁መድረኽ
▁ውሉ
▁ሽወደን
▁ፍጥረት
##ን"
##3)
##ሰለ
▁ንዓኻ
##ውሞ
##ex
▁አዎን
▁ዝሃ
▁ሕዝቦች
##ላቶም
##ቃወ
▁ቦታዎች
▁ጀመር
▁ግዝ
##ገናኘት
##ናገሩ
▁ክተ
▁ዓወት
▁ኢሳ
##ዚደንት
▁ምርምር
##ታውቁ
▁ገሊኦም
▁ስህተት
▁ማንኛውንም
##ኒያ
##ና፣
▁ባህር
▁ተኻ
##ላኢ
##ብካ
▁ኣላ።
##ይቱ
▁ብሔ
▁ክትከውን
▁ኣስመራ
##ጡን
▁መንግስታት
▁አባል
▁ትማሊ
▁ኣለዎም።
##መታት
##4)
##ስሊ
##ቕን
▁መውሰድ
▁ተከ
▁የሚለው
▁እንችላለን
##በዝ
##ካባቢ
##ጽ።
▁ዝግበር
▁አገሮች
▁ገል
▁ከሌሎች
▁ዂ
##ቶምን
▁ምሥ
##-መ
##ኩዎ
##ጠኛ
▁ሰብኣዊ
▁ይፍ
##ብሎስ
##ኃጢአ
##ጋል
##ራል።
▁እድል
▁ትሕዝ
▁ሀገ
▁ብምዃ
▁ደግሞም
▁ስልክ
▁የሆነውን
▁አላውቅም
##ተወ
##ለካ
▁ኢዮ
▁ኸይ
▁አሉት
▁መሰረታዊ
##ለና
▁ዝገበረ
##ስያ
▁ገነት
▁ዳን
##ሱም
▁ውሑ
▁ናብኡ
▁አማራጭ
▁ኣበ
▁በዩ
▁ንጉሡ
##ብሓ
##ብቻ
##ሎ፡
▁2019
▁ተገሊ
##ኮር
##ረኽቦ
##ባለ
▁ጥረት
▁ኮይኖም
##ቤን
▁ይሖዋ
##ፈልግም
▁ጉዳያት
▁በጉ
▁ኾነ
▁የትምህርት
▁ፍልጠት
▁ጎን
▁መልዕ
▁ምርመራ
##ታረ
##30
##ቪዥ
##ጠበቀ
▁ይፈልጥ
▁ምሳይ
▁ዝብሉ
▁2017
▁f
▁ስብሰባ
##ቼን
▁መበል
▁ክኸ
##ጋጥ
##ዳንት
▁ፖሊሲ
▁መዘ
▁ቀጺ
##ኽን
▁(ዮ
▁2016
▁አጋጣሚ
▁Re
▁ይረዳ
##il
▁ቅዱሳን
▁ፍትሒ
▁የድሊ
##ናገረ
▁ርስ
▁ሓን
▁ወደፊት
▁ጎይታ
▁ዝገብር
▁የሚከተ
▁በሚያ
##ዳስ
##ችሁ።
▁ወዲያውኑ
▁በጎ
##ወለድ
##እና
##ቴዎስ
▁የሚሆን
##ቻይና
##ራው
##ታት፡
▁ይመስለኛ
##ፈቱ
##ጆቹ
##8)
▁ጻድ
▁በደንብ
▁በአጠቃላይ
▁ይወዳ
▁ድኻ
▁እዩ!
▁ግንቦት
▁ስርዓ
▁ዝምልከት
▁ወተ
▁ናት።
▁ቃለ
##ሳስባ
##5)
▁b
▁ቆን
▁እንደምት
▁ከእነሱ
▁ትውልድ
▁መጠበቅ
▁ይገል
▁እንደሆኑ
▁ሁሉን
▁ነውና
▁አይችሉም
▁አንቺ
▁ተመራ
▁በዚያም
▁ደጊም
▁ሀሳብ
▁ከምኡ'ውን
▁የልቦን።
▁ላለ
##ኤን
▁መመሪያ
▁ክው
▁ሾ
▁በሰው
##ጽሐፍ
▁ትካላት
##ጊያ
▁ሰሜን
▁ኮይና
##ገበረ
▁ዘን
▁ፋይ
##ዓብ
▁ከላይ
##በስ
##ኝም።
▁ዕለ
▁አለን
##ነቶም
##ጎስ
##">
▁ዘለኹ
##ካዊ
##ሏቸው
▁ምዕባ
▁[.
▁ባለቤ
##በ።
##ፖለቲካ
▁በዳ
▁አየር
▁ስቴትስ
▁ህወሓት
##ዓዊ
##|1
▁ዳግም
##ልይ
▁እመ
##ርሷ
##ሊን
##ሮና
##ጣቸው
▁አብዛኞቹ
▁ጥያቄዎች
▁ተግባራዊ
▁Y
##un
##፣+
▁ዘይኰነ
▁አሉት።
##እም
▁ሊቀ
▁ምክንያቶች
▁ይጥ
▁ርእሲ
▁ውድድር
▁ከምዝተ
▁ጴጥሮስ
▁ወጺ
##ጾም
▁ዝን
▁ተወዳጅ
##ተዋል።
##ባሉ
##ጣዊ
▁መክ
▁ተለ
▁ሓለ
▁አስደናቂ
▁ኣቢሉ
##ከሩ
▁እችላለሁ
▁<
##ኪም
▁መልአ
▁አብረው
▁ኣይም
▁የተሻ
##ጸት
▁ክቡር
▁ተወሳኺ
▁ነዋ
▁ይቅርታ
##ስታው
##ጐስ
##ent
▁ዓሰርተ
##ፅእ
▁ሕብረተሰብ
▁ግዴ
▁ቀሊል
##ኳን
▁ይም
##ስትራ
##ህቦ
##ጽው
▁ዝተሓ
##ሰርቲ
##ዎቹን
##ወታ
▁እንዲሆን
##ol
▁ደረ
▁ክፍት
##ጽኦ
▁ይኣ
▁ባቡር
##ሾች
▁ላዕሊ
##ፈጥሮ
▁እንደማይ
▁ይጠቀ
▁ኣስታት
##ዘዘ
##ጦች
▁ማታ
▁ኲናት
▁ብመሰረት
##ያንዳንዳ
##ወጡ
##ፊዎች
▁በፈ
▁እስካሁን
##ማውያን
##ሉም።
▁አንዲት
▁እንተተ
▁መጽሐ
▁ማእከ
##ሰሉ
##ቶን
▁ወራት
▁ድሮ
▁ንዕኡ
##ሃድ
▁ኢዮም።
▁ጥናት
##gle
▁ወለዶ
▁ቀጣ
▁አስታው
##መልክ
▁ክኢ
##ናገረው
▁ኸምዚ
##ንዲ
##ረ-
▁ውሳነ
##ላስ
##ረኛ
##ናቸው
▁ዛንታ
▁ኲሉ
▁የሥራ
▁V
▁የጉ
▁"ም
##ድርጉ
##ዎታል
##ሽከ
▁ሓያ
▁ሆኗ
▁ተሪ
##ግብፅ
▁ግብረ
▁ይሁዳ
##ሎቹ
##የይ
▁ኣምላ
▁ወንድሞ
▁ፓርቲ
▁ሌሊት
▁ብርሃ
▁ተፈጥሮ
▁ስጉም
##ጻሊ
##ሳድ
▁ወሰን
▁ተመሳሳሊ
▁ሶስት
##:9
##ኻዊ
▁ስልጠና
▁ዝተፈላለየ
▁ንወ
▁ውሕ
▁ይጠይ
▁የዘ
▁ሕን
##ነሰ
##7)
▁ምስጢር
▁ዓር
##ያለሁ
▁ሓጺ
##ረአ
▁ገንዘ
▁እንዲያውም
▁መንበሪ
▁ካሉ
##ከናወን
▁ሹ
##ርሓ
▁ግደ
▁ኤርትራውያን
##ሰስ
##ልል
▁ግዳ
▁አማካ
##ዕ።
##ከባቢ
##ፎን
▁ገባ
##ውር
▁ከይት
▁w
▁እንሆ፡
▁ኣባይ
▁ቓል
▁ዚኽእል
▁ነይር
##መለከት
▁ርኢ
▁አያው
▁ኢሉ።
##ch
▁ትራ
▁(ዘ
▁በእርስዎ
▁ራሱን
▁ይለ
▁ኢኺ
▁በቀጥታ
▁ደቂቃዎች
▁ከታ
▁አጠቃላይ
##ስቶ
▁የመን
▁ይገብር
##ርግጠኝነት
▁ለሰ
##oogle
##ፓን
▁ሰጠ
▁ሽግር
##ሑ።
▁ኣንስትዮ
▁የተነሳ
▁አለበት።
▁አያውቁ
▁ኣጽ
##ረና
##ዳው
##ምራት
##ያዙ
▁ምሸት
▁ደህና
▁ኔሩ።
▁ቆንጆ
##ወገድ
▁ይመስላል
##ረሳ
▁ይሻ
##በና
▁የተወሰኑ
▁እየ፡
▁አና
▁ጊዜም
▁የቴ
##ጸሎት
▁መጫወት
▁ዝደሊ
##ቶቻችን
▁በሚቀጥለው
▁ከበ
▁ይላል።
▁ደብዳቤ
▁ገም
##ንያት
▁ልጄ
▁አለብን
##ኒክ
▁ውልቀ
##ሓዝ
▁ግብር
##ልህ
##ሰሙ
▁መዛሙርቱ
##ሞተ
▁አመሰግናለሁ
##6)
▁ክም
##ሕዝቡ
▁ነይሮም
##ስምዓ
▁እ.
##ቀርብ
▁ሆስፒታል
▁እራ
##ኽእልን
##ላቸውም
▁ስነ-
▁ዚኸውን
▁እስቲ
▁ፍጻሜ
##ረፍት
##ሠረተ
▁የሚችሉ
▁ክታ
##ዘርላንድ
##-2
##'የ።
▁ንህዝቢ
##ባታ
##ዋጋ
▁የምድር
▁የእርስዎን
▁ትሕ
▁#
▁ጠብ
▁ንኻል
▁ንዓና
##ነካ
##እካ
▁ምንቅስቓ
##ድረስ
##ቲን
▁እወዳ
▁"ስ
▁የቆ
▁ትጽ
▁በቀር
▁ኣይኰ
▁እርሱን
▁አድርጓ
▁ሶፍትዌ
▁ሞዴ
##ኩ፡
▁ደህንነት
##ow
##ኖሪያ
▁ለብዙ
▁ወዲህ
##li
▁እዚኦም
▁በአንተ
▁በማድረግ
▁ብእኡ
▁የክ
▁ይጀ
▁ሆን
##ቻችንን
##ለፉ
▁በራሱ
▁ሞያ
##ሳተፍ
##ባችሁ
##ሙሴ
▁ብዙዎች
##ሰ።
##ኹ፡
▁እንደሌ
▁እንደሆን
▁ያሉትን
▁ክብሉ
▁አፈ
▁ይተ
▁ሚልዮን
▁ኣይኪ
▁ሂወት
▁ዝረኣ
▁iP
▁ጽል
##ድያ
▁ትፈልጥ
##ነው።
##ነሣ
##ሆነው
▁በቤት
▁መት
▁ንል
▁ሽዑ፡
##ቕቲ
▁ግበር
##ገናኝ
##ይታይ
▁ስታ
▁ዶ?
▁ይርከብ።
▁እኩ
▁መናገር
▁ኣስተ
▁ረጅም
##በትም
▁ይከ
##ፋይ
##ኣምን
▁"ይ
▁35
##ዲኡ
▁ከት
▁ባሪያ
▁በእርግጠኝነት
▁ሓሳባት
##ላላ
##ደጋጋሚ
▁ሕፃ
▁አቅር
##ክም
▁ንህ
##ቡል
##ቁ።
▁ትሕዝቶ
▁ለካ
##ነገር
##ሥር
##:10
▁ዝምድና
▁ጠይ
▁ባለፈው
▁ከስ
▁ናቸው,
▁፲
▁ብላ
▁ብዛት
▁ሓተ
##ዛረቡ
▁ኣለው።
▁ዝገበር
▁ግር
▁ነይረ
▁ምሳና
##ዳሪ
▁የጎ
▁መልሶ
##ባህር
##ዩት
##ቶት
##ሌቪዥ
##በት።
▁ብቸኛው
▁ቸ
##ነጻ
##ቡቅ
▁ኢዮም
▁ኣሕዋት
▁ወላጆች
##ማማ
##ኹል
▁ዝብ
##ወግ
▁የኤ
▁ስሜ
##ጠነ
▁ሌላው
▁እዚኣቶም
##ናትን
##ደብ
▁ውኃ
##ደረጋ
▁ጂ
▁ከሆኑ
▁ትናን
##ፍካ
▁ክርስትያ
##ዘጋጅ
▁2015
▁ሱዳን
▁ዝስዕብ
▁የተለመ
##ገነዘ
##ችሁት
##ረር
##ገንባት
##ገዱ
▁መልኩ
▁በእሱ
▁መጽናዕቲ
##ፍቅ
▁ይሰጣል
▁እንተኾይኑ
▁ዚህ
##ለሉ
▁ባን
▁የሕይወት
##የ፡
▁በወ
▁ዘመናዊ
▁"ካብ
▁በተቻለ
##ጽኡ
▁ጥዑ
▁መስተ
▁ወታ
##ንዳንድ
▁ነቢይ
▁ስጦታ
▁ኣካላት
▁ጨዋታዎች
▁ክህሉ
▁ናተይ
▁በመጨረሻም
▁37
##ላችሁ?
##ዕላ
▁አምላካ
▁ወይ፡
▁በእያንዳንዱ
▁ዝበሉ
▁ትንቢት
▁አለብዎት
##ዴት
▁ሕጋዊ
▁ምሽት
##ረካ
▁አሳል
##ረክ
▁ለማስተ
##ጥና
▁የኮ
##ቁን
▁ኣብያተ
▁ናትካ
##ሚት
##:8
##ሳኤ
▁ኣዋርሕ
▁በዙ
▁ለመስጠት
▁በከ
▁መኣ
##መልከ
##ፈጸመ
▁ዓባይ
▁ስእሊ
▁(2
▁የማያ
##'ሎ።
##:6
▁መምህር
▁ይከኣል
▁ታይ
▁ምሳኻ
▁እስራኤላውያን
##አይ
##ሄደ
▁የገ
▁ነው፣
▁እየ"
▁አንተን
▁በቀን
##ለማዊ
##ልና።
##ርኔት
▁መምር
▁ዓቕሚ
##ጠጣ
##ላማዊ
##ነበ
##ተናል
▁ዘይን
▁እየን
##ስታን
▁ይቀጥ
▁የሚገባ
▁ኣንጻር
##ውዓተ
▁መለያ
##ናስ
##ወቃ
▁ኽሳዕ
▁36
▁"ኣነ
##መላለ
▁ውይ
▁ህያ
▁በአውሮፓ
##መለከቱ
##ር።
▁ንእግዚ
▁በዚህም
▁የለውም
▁መብዛሕትኡ
##ለኛው
▁እውቀት
▁ይመስል
▁ዕን
▁የነበረው
▁መሥራት
▁ሓሊፉ
▁መግለጫ
▁60
##ግምት
▁K
##ይሩ
▁ዘሕ
▁ኣዳ
▁ሁሌ
▁ተስማሚ
▁መምረጥ
##ገለግ
▁ይብሉ
▁ለአንድ
##ኔን
▁ዝረኸ
▁ኢሳይያስ
▁ሕያው
##ስተኛው
##ሞላ
▁መንግስ
▁80
##ርቶ
▁ንዅ
▁ደሊ
▁ይጠብ
##ub
##ጣጫ
▁ከየ
▁የአውሮፓ
##ደኣ
##ርዳት
▁መራሕቲ
▁ተና
▁ንዅሉ
▁ምንባር
▁ብምሉእ
▁ለአንተ
▁ዳርቻ
▁ዒ
##ቶቻቸው
▁ኣቶ
▁ዘለው
▁ሙከራ
▁እኩል
##:11
▁ዕዳጋ
##ዊተር
▁ሊሆኑ
▁በኢየሱስ
##እያ
▁አውታረ
▁ነዞም
▁አንቀ
##ድልዮ
##ማቸው
▁ሰንበት
##ውኑ
▁ረብሓ
▁ቀልጢ
##ጥቀመ
▁እዘን
▁ተር
▁ህጻናት
▁ናቱ
▁ዝዓበየ
▁የውጭ
▁ንጥፈ
▁ድርጅት
##ext
▁እርሷ
▁ህዝብና
##ራቅ
##ድሕን
▁እያለ
▁ኣትሒ
▁ሰሎ
▁ኣቲ
▁ናትና
##ክቱ
##ባቸውን
▁መጀመርያ
▁ዶክተር
▁መጻሕፍት
##ኪያ
▁በሳ
##ላዉ
##ሥት
##nd
▁ንእሽቶ
##ጭት
▁"ለ
▁ስፖርት
▁ንሓድሕ
▁ፈል
##አቸው
▁ኣይመስ
▁ንነፍ
▁ምስሊ
##ሳተፉ
▁በሕይወ
▁ምብራ
▁ማእሰርቲ
##ህዝብ
▁ልዩነት
##ኮት
##እርሱ
▁ክንም
##ታዊት
##ልማ
##ባህለ
##መ።
##ርሒ
##ዶችን
▁ስኬ
▁ካርድ
▁ርእሰ
▁በቁ
▁መጥቃ
##ተነ
▁መስቀል
▁ይመስለ
##ዘተ
▁የድልየ
▁ተሰማ
▁በምን
##ሰድ
▁ትኽእሉ
##ለይ።
▁ጸብጻብ
##ቶቡ
▁በጥሩ
▁ዀነ
▁እናበለ
##ቀርባ
▁ጀመረ።
##ርፍ
##ባባ
▁ለእርሱ
▁እንደሚችሉ
▁መላእክት
##ለዎ
▁ብስም
▁ሆቴ
▁ከምዝኾነ
▁ያእ
▁አንዳንዶቹ
▁ተጫዋቾች
▁ስለዘይ
▁ብምኽ
▁ይሠራ
▁198
##ላፊነት
▁ኣሎኹ።
▁ዝሓዘ
▁በኋላ,
▁አሉ.
▁ፕረዚደንት
▁ለበ
▁ባዕል
▁ኾይኑ
▁የዩ
▁ቅድመ
▁ዘል
▁አለ?
▁ሄደ
##ዘጋጀ
▁ግጥ
##ገማ
▁ማዕረ
▁ፍጡ
▁ዘይኮነስ
##ም)
##ሸነፍ
▁በመካከ
##ዩ፡
##ጥሩ
##ሰጠ
▁ገበር
▁ትዝ
▁ግንባር
▁ብዙም
▁የአንድ
##ዚሁ
▁መዓልትታት
▁ጀመረ
▁ባለቤት
▁መቼም
##ገልጸ
##፡2
▁ዓመቱ
##ያብሎስ
##:15
##ገዛእ
##ምጣት
▁ላይ,
▁ስለዚህም
▁አነስተኛ
▁ተላ
▁መጠየ
▁አንዱን
##ዛዝ
##ጎብ
▁34
##ሊሉ
▁ምንባ
▁ነይራ።
##ፈጸም
▁ቤተክርስቲያን
##ልኪ
##ብኣ
▁ነን።
▁ልኡ
##ኖራቸው
##ናፊ
▁የገንዘብ
▁ሪፖርት
##:7
▁የሩሳሌም
▁ቁጽሪ
▁እንደሚችል
▁መፍትሄ
▁ዝተዋ
##ኽእሉ።
##ከታተ
##ወራ
▁ጽሕፈት
##ሓስ
##hone
##ኻልእ
▁ይሸ
##ers
▁ኋላ
##ዕለት
##ግሪ
##ሙኤል
▁አክ
##ቃዊ
▁ዓለምን
##ዛረቦ
##ላል.
##ንግሊዝኛ
##ve
##ደረጃ
▁ርሑ
▁ዘም
##ናቱ
▁'እ
▁በሌሎች
▁ሳልሳይ
▁አስተማ
▁የቅርብ
##ከይ
▁እብ
▁ዛፍ
▁ይብለ
##ውያንን
##ለይቲ
▁2014
##ደረሰ
▁መራሒ
##ለሽ
▁ማጥ
▁እንተዝ
▁ድምጽ
▁ምምሕዳር
▁ኀ
##ቀሳ
▁ትርጉ
##ልጣ
▁ቀጠ
▁ሲሉ
##ፍታ
▁ማኅ
▁በእነርሱ
##ሰቦች
##ኻየ
▁እናደርጋ
▁ትንሣኤ
▁ሥርዓት
▁ሓሶት
▁ረድ
▁አገልግሎቶች
▁ባይታ
▁ለይ
##ዶ?
##ርካብ
##ሩ፡
▁አመለ
▁የአባ
▁እናንተም
##ልዮ
▁በጌታ
##ፈላለየ
▁ጸገማት
▁ብኡ
##በሎ
▁ብራ
▁ጠን
▁ኖር
##ፈጠር
▁ኣየር
▁እንከለ
##ላለፍ
##ጠ።
##ዚያም
▁ባለፉት
##ጋም
##ፉ።
▁ባሕር
▁ኣጸቢ
▁ከማን
▁ስጉምቲ
▁ዜጋታት
##ጉር
▁አቅም
▁ባህል
▁ቅዳ
▁ገይረ
##ርኣ
▁ሓይል
##ጋር
##ጀርመን
▁ታሕ
▁አልፎ
##us
▁ልታ
▁ዝነበሮ
▁መማር
##'ያ።
##ፕሮ
▁ታማኝ
▁ፈራ
▁ጄ
##ፍሪካ
##ተህ
##ቆይ
▁በግልጽ
▁ዝና
▁ዘርኢ
##ርዕ
##ሶን
##ዳዊት
▁ከዋ
▁ከፈለጉ
▁ኢሎም።
##ነም
##ቋር
▁ቪድዮ
##ዓሉ
▁በተለያዩ
##ሂብ
▁ምንድነው
▁ቢያ
##ዱ፡
##ፃፀ
▁እይታ
▁መዳይ
##ቋቋም
##ቆች
##ገናኙ
▁ሕዝቢ
▁ዝቅተኛ
▁ብሪ
▁ክኣ
▁ስዒ
##...]
##ባይል
▁ብሔራዊ
▁ነበራ
▁ከእሱ
▁ዊ
##ዓቢ
▁እንጅ
▁ሓያል
▁ቅድም
▁ፍርሃት
▁አደርጋለሁ
##ቓይ
▁አጠ
▁ከሎ፡
##ራኒ
▁ኩልና
▁[...]
##ብያ
##ስኮ
▁የሚገኙ
▁አይገባ
▁ንኻልኦት
##ሃሉ
##መረብ
##ኃይል
▁ሓራ
▁ሰብ፡
##ሓይሽ
▁መስዋእቲ
▁ተብ
▁ዮሐንስ
▁ይሆናል,
▁ቆልዓ
##ገልግል
▁ተግባራት
▁ብደ
▁ለስ
▁38
▁ብሄ
▁ምዉ
▁2013
▁ክልቲኦም
▁የጌታ
▁ሓር
▁ዝመጸ
##ራሳቸውን
▁ጥርጥር
##ሌቪዥን
▁ክትገብር
▁ከምኡውን
##ደደ
##መለሱ
▁ለማን
▁70
▁ስትራ
▁እኹል
##ከታተል
##ur
▁ራእይ
##መኛ
##ቀበል
▁ንት
▁ትል
▁ኣህዛብ
▁ተሳት
##ገዙ
▁በሉ።
▁የቁ
▁አላት
▁ኣብ'ቲ
▁እንቅ
▁ጓደኞች
##10
▁ወንድሞች
##ቷን
▁ጭንቀ
▁>
##ሯል።
▁እንደምን
##ጊዜው
▁ከመይሲ፡
▁ቫይረስ
##ክቶች
##ጥቀ
##ጉት
▁ያድርጉ
##:12
▁አቅጣጫ
▁ብዓል
##ዳሚ
▁ኣብኣ
▁አለች
##እተ
▁ተአ
▁ባርያ
▁ፈለማ
▁ከዚህም
##ኸው
▁ነውና።
▁ኪዳ
##ሰማዕ
▁ተራራ
▁ጸላኢ
▁Google
▁ዝኣመሰለ
▁ስደት
▁ጽሑፋት
##ነኛ
▁ያለን
▁መቕደስ
##ቐን
##ሞ።
▁ገዝ
▁ለእነርሱ
##ወና
▁በዘ
▁ጸላእ
▁አልነበረም።
▁ያግ
▁ብዝያዳ
▁መምርሒ
▁መጋቢት
##ፈሉ
##ቕርብ
▁መዓልታዊ
##ርእዩ
##ትሪ
▁አስባ
▁ማህበረሰብ
▁ለመርዳት
▁ዝገበሮ
▁ለባ
▁ኮፍ
▁In
##ሰረ
▁ሓድነት
##ቁት
▁አዲሱ
▁ምቅ
▁እንደማ
##ልባ
▁ካን
▁ዝነብር
▁ሁለተኛው
▁ማሰብ
▁ጥበቃ
▁ሳምንታት
##ሳካ
##ነ።
▁ይዝ
▁ክኽ
##ኹምን
##ቀርቡ
▁አስተያየት
▁ጥም
##ንጫ
▁ይላሉ
▁እንጀራ
##ችሁም
##ኸይ
▁ዕብ
▁ሙሉእ
##ሕግዝ
▁2021
▁ጉዳት
##ሕዝብ
##ገራሚ
▁የእኛን
##ሯል
▁ቁልፍ
▁ንሃ
▁ልጃ
▁ተመስ
▁ክፉእ
▁ይሞክ
▁ሐዚ
▁ብኸም
##ስቴ
##አ።
##ግሌ
▁ህዝብን
▁ኮምፒ
##ዓመቱ
▁መልኣኽ
▁'ውን
##ድራሻ
##መውት
##ኣዊ
##ራእ
▁መመለስ
##ግለጽ
##ዎቻችን
▁ንናይ
##ከማ
##ሮ።
▁መሰላት
##ራቢ
##ልቲ
##ድ።
▁ስልጣ
##um
▁ኣፈ
▁አለኝ።
##th
▁ኣዋል
▁ካህናት
▁ልቡ
▁ወያነ
▁ለመጠቀም
▁መርበብ
▁ለምንድን
▁ኣተሓሳስባ
##ጅት
##pp
▁ኣጋጢ
▁a
▁ንብዙ
▁ከእርስዎ
##ወቅቱ
▁በሰማይ
##ሓስብ
##ረጽ
##ri
▁አለብኝ
▁አይደለም,
##ወሰን
▁ክታበት
▁በካ
▁ሰበ
▁ካብታ
▁ይገባል
▁"ሰ
##ፍረት
##ሉትን
##ቷል.
▁ሓቀኛ
▁በእስራኤል
##ማሪዎች
▁አድርገው
▁ንግሆ
▁ገበረ
▁ባሕ
▁ዝበሎ
##ጥራ
▁ቅርብ
▁ሒዙ
##ሊስ
▁ስግ
▁በሊ
▁ብታ
▁መጥቃዕቲ
##ሙድ
##ሉ፣
▁ስምምዕ
▁ምስጢ
▁ደገፍ
▁ሸውዓተ
##ጨት
##ጽሓ
▁ቤት-
##ረንሳይ
▁በአላህ
▁ዓይን
##ዳል።
▁ወግ
▁ንምርካብ
▁አላህም
▁ተቀባይ
##ጦም
##ጠባዊ
▁መጓ
▁መንነት
▁አውሮፕ
▁ዝዀ
▁የተወለ
▁ገይሮም
▁ዝበለጸ
▁መላእኽቲ
▁ኮይን
##:18
▁ክትብል
##ሕብ
##ቀይ
▁ማመን
▁ይፈልጋሉ
▁ፍራን
▁ገቢ
▁ፈረ
▁ይወድ
##ፈለገ
▁ዝነበረት
▁ሒዝ
##and
▁ንኺ
▁ህግ
##ህ?
▁ነፋ
▁ቢሆንም,
▁h
##ልያ
▁ህ.
##ገሪቱ
▁ረኸ
▁ማስረጃ
▁ሊያስ
##ሰማያት
##ጻት
▁ብጽ
▁ማዕከ
##ገበር
▁ጸሓይ
▁ኣካይ
▁በዝ
▁ሚና
▁ውስ
▁ጌርና
▁ለሌሎች
▁ናብራ
▁ንምግባር
▁ደረጃዎች
▁መምህ
▁ዓንቀ
##ደንበ
▁ዝሓሸ
##ችም
##ፋር
▁ትኸውን
▁ኣሎና
▁ክንብል
▁ንጸ
▁የሳ
▁ይመር
▁ክር
▁የአላህ
▁ናቸው፤
▁ተገቢ
##ለስተ
▁የሚመጣ
##ካከል
▁ኣብርሃም
▁እብለ
##ዛሬው
##ልክት
##ቃይ
▁ልበይ
▁ተጠቒ
▁ወለዲ
##ሩሲያ
▁አራ
▁ንምስ
##ዎቻቸው
▁ሽልማት
▁ዛሬም
▁አፍሪካ
##የና
▁ብኢ
▁ውጽኢት
▁ለረጅም
##ሌክትሪክ
▁የሎ
▁ቢሮ
▁መስማት
##ኹን
▁የሚሆኑት
▁በምት
▁ኣቱም
▁ምኞ
▁ጠዋት
▁አውሮፓ
##ኽብ
##ግብኣ
▁ተቐቢ
▁ሰላምን
##ንጻ
▁(መ
▁በመጠቀም
▁አበ
▁ማረ
▁ይጽ
▁ተተ
##ቤል
▁ጽቡቅ
▁"ሕ
▁ደሞ
▁የሚለውን
▁ዝተኣ
▁የድ
▁ብህይወት
▁ምሁ
▁ወዘተ
▁"ተ
##ኽእሎ
▁ማንበብ
▁ቁሩብ
▁ብቸኛ
▁በፊ
▁ይሰራ
▁ክዕ
##ለወጥ
##ደልዮ
▁ሆይ፣
##ሪን
▁ዝገብሮ
▁'ኣ
##ከይድ
▁የቤት
▁"አንተ
▁ሕጻ
##ቀበ
▁ሀሳ
▁ረገድ
▁ሙስሊ
##of
▁ጠፊ
##ስታወስ
##ፈለጥ
##ርሳ
##ተርፍ
▁ስምዒት
▁ነው;
▁ባህሊ
▁ግዴታ
##ጎም
▁በከፍተኛ
▁ክስተት
▁ዝደለ
▁ጣል
▁ነጥቢ
##የሁ
##ቦን
##ጾች
▁ይችላል,
▁እድገት
##ጋሕ
##ሞችን
▁አስገራሚ
▁ቤተሰቦች
##እነዚያ
▁ብና
▁ናበይ
▁ኣይደ
##ኹም፡
▁አስተዋ
##እግዚአብሔር
▁እየ፣
▁ተሓቢ
▁ሜዳ
▁ሓጺር
▁ስቕ
▁ባንክ
##ሰጡ
▁ተጣ
▁ካልሆነ
▁፦
##ጻል
▁አሳይ
▁ክነብር
▁መልእክት
##ዘብ
▁እርግጥ
▁ዝድ
▁ስዊ
▁iPhone
##ናችሁ
▁ሰራሕተኛታት
##ሠሩት
▁ያው
▁ውር
▁ተራእ
▁ርዕስ
##ላድ
##ጐይታ
▁ዋዕላ
##ጡፍ
▁ስማ
▁ሓዳር
##መሩ
▁ጊዜው
##ሦስት
▁ናጻ
▁ዓረብ
▁42
▁2012
▁እናውቃለን
▁ፍርቂ
##ከሰት
▁በህ
▁ብጥ
▁ማግ
▁አጠቃ
▁ለመጠበቅ
▁ላዕ
▁ምግቢ
##መካ
▁'ን
##:13
##ግስ
##እለ
##መይቲ
##ጀምር
▁ዕር
▁ተባዕ
▁ግልፅ
▁የተመሠረተ
▁በውስጡ
▁ሚኒስትር
▁በሺ
▁ደንበኞች
##ወዱ
▁ጥቁር
▁ዮሃንስ
▁መጠየቅ
▁ዝርከቡ
▁ጊዜያት
▁የማን
▁ቓ
##ዳዊ
▁ጠባ
▁መሆናቸውን
##ወጽእ
▁ነጊ
▁ተጨ
▁አባቴ
##ኮል
▁አጭር
▁197
▁ምዃኖም
##ብጻሕ
▁አይሆንም
▁ስድስት
▁ምንቅስቓስ
▁ህብረት
▁ክፍሊት
▁በድን
##ሉን።
▁ጸልማት
▁ሳሙኤል
##:19
▁ተቓውሞ
##ወካ
▁የሚች
##ራስዎ
##ባቱ
▁ሶፍትዌር
##ብሪካ
##ጨለማ
##ላችኋለሁ
▁ኣርእስቲ
##ቹም
▁ክፋ
▁ልማት
▁እያንዳንዳ
▁መርከብ
▁ትሆና
▁ናብታ
▁ስምምነት
▁90
▁ራስህን
##ብዝ
##ረኽበ
▁ዎቹ
##-19
▁"ነ
▁በእጅ
##ግብኦ
▁የጤና
▁የሚያደርጉ
▁ሰባት፡
▁ይዞ
▁ግቡእ
▁የሚጠ
▁ዶብ
▁ሕልሚ
##ምም
##ጉን
▁አመጣ
##ወስደ
▁ማስታወቂያ
##መዓ
▁ትራም
▁ገን
▁ክንከውን
▁ንምሕ
▁ዝለዓለ
▁አሸናፊ
##ግሩ
##ፍሬ
▁ሓቲ
##ርግጋ
▁ሥልጣን
▁ኅ
##ጋገ
▁ንባዕ
▁ሰማዕ
▁ክንገብር
▁ቦታታት
##ዘጋጀት
##ሽከርካ
▁ይከኣ
▁ዝናብ
▁ተው
▁ቤተክርስትያን
##ሊና
▁ፈት
▁ተጠንቀ
▁ናችሁ
▁ኣበር
▁ፈላ
▁ነበር?
▁የእሱ
▁'የ
▁ሚእ
##ሓዊ
▁የራሱ
▁ብለህ
##ዎችም
▁ይኽ
▁ግንዛ
##ወሰደ
▁መሳሪያ
▁n
##ባእ
##ቃቄ
▁ኣይሁድ
▁ሰነድ
##ክሩ
##ሽቱ
▁እፈልጥ
▁ንደቂ
##3|
▁እንዳት
▁ልምዓት
▁....
##እዝ
▁በገ
▁J
▁የፀ
▁ዓሳ
##ለድ
▁ዳዊ
##eb
##ለበት
▁እንፈልጋ
▁ጠፍ
##ዘዙ
▁ኢዱ
▁ሞትን
▁ዝኸፍ
▁አይደለሁም
▁ንዝተ
▁ስንት
▁በባ
▁ነዎት
##ወስዱ
##ኮን
▁በዋ
▁ዝብሎ
▁በመላው
▁ሳለ
##ቤተሰ
##ዱሽተ
▁ኣሰ
▁ፈቃደኛ
##ታታ
▁ልደት
▁አብሮ
▁ፍቅሪ
##ቖም
▁ኣደይ
▁ያም
▁ተሰም
▁ከሰማይ
##'ኸ
##:,
▁ክኸይድ
▁ዓይኒ
##ሰምዑ
##ደነ
##ሳውያን
##ላችሁም
##ታውን
▁ህያው
▁ፀገም
▁ይላሉ።
##ሱት
##ጽሑፍ
##ወከፍ
##ፊክ
▁በራ
▁ለጥ
▁ሓሊ
▁በአብዛ
▁ድንቅ
##ሽም
##ዘም
##ክረ
##ለኝ
▁ማነው
▁ልምድ
##ፈሪ
##ዚ፡
▁ከተማታት
##ረፉ
▁መልካ
##ንግል
▁እንደሚሆን
▁ፍልልይ
##ታችንን
##ምባ
▁ተቀም
▁ትደሊ
##ኤስ
▁አንድም
▁መጺኡ
▁ይገኛል
▁እንግሊዝኛ
▁ገር
▁የቤተሰብ
▁ለመሄድ
▁በልዎ።
##ተም
##ቪዲዮ
▁በሃ
▁ከሁለት
▁ፍለጋ
▁መድሃኒት
##ጨመር
▁በረራ
##ሳር
▁በሀ
▁ለመጀመር
▁ዘለኻ
▁ኒው
▁ጠላት
▁፳
##ልዕ
▁መርዓ
▁ውህ
▁እንዳለው
##ላታት
##ማራ
▁ኸአ
##ካኤል
▁ኮሌ
##ስዕቡ
▁ቁጥጥር
##ልስ
▁ፕሬዚ
▁ብርቱዕ
##ድርግ
▁መሣሪያዎች
▁ብሰላም
##መንግስቲ
##ቀኝ
▁ያመጣ
▁መደባት
##ጠይቅ
▁ፈረንሳይ
##ያጭ
##ኒ"
▁ኢልኩም
##ot
▁ይግባ
▁ወሪ
##በልና
▁ምምላ
▁ኩለን
▁ሆይ፤
##'ዶ?
##እ።
▁ነግ
##ነገሩ
▁ይዘት
▁ኣረኣ
▁ባሉ
▁ዝፈልጦ
##ዳሉ
▁ለእነሱ
##ታ።
##ጠም
▁ፍቃ
##ኻየደ
##ማድ
▁አለም
▁ሒደት
▁ጥንካ
##ዛረብ።
▁የመስመር
▁ሰሙ
▁ትው
##ጠየቅ
##ዋለሁ።
▁ክሊ
##ምህርቲ
##ክርስቲያን
▁1.
▁ያደርገ
▁ዓለምና
▁እባክዎን
▁ወተሃደ
▁ጋር,
▁ይሄን
▁ጋዜጠኛ
▁ይሆን?
##ጓደ
▁እላ
##ውቀው
▁መድኃ
▁በደል
##በታል።
##ህንም
##ማረ
##ማሩ
▁በሁለት
▁ማክ
##ለሁ"
##200
▁ንዚ
▁Next
▁ኣይኮንኩ
##ዎታ
▁ክኾኑ
▁አረ
▁ብምን
##ሎምን።
##ተቱ
##አላህ
▁ምናልባትም
▁ኣይፈልጥን
##ነ-
##ss
▁በህይወት
▁48
▁ፈጺሙ
##በሮም
▁39
▁ጋዜጣ
▁ዜጎች
▁የባቡር
▁ኴ
##ትኻ
##ኻት
▁ዝመስ
▁ያምና
##ቆጣጠር
▁ወሳኝ
▁ደል
▁አይችልም።
▁ር.
##ትል
▁ከዛ
##ገለጸ
▁ይችላሉ,
##ዋሚ
▁ካናዳ
##ዕር
##ኝን
##ጣር
▁ለወ
▁ዝተቐ
▁ጸኒሑ
▁ኻል
##ation
##ገነባ
##ጸራ
▁ፈቲ
▁ድሕሪኡ
▁ኹ
▁ኣረ
##ንነት
▁ሓጥ
▁ቀለም
▁ብዝኾነ
##ጦር
▁ከደ
▁ኔሩ
##ጊዕ
▁ዘዳ
##ዋህ
▁በጽ
▁ጥቓ
▁ህፃ
▁ኦም
▁በዛ
▁ድሕ
▁ደራሲ
##ስትና
▁ኣፍሊ
##ጠብቅ
▁ወንጀ
▁ድሕነት
▁ዓመታዊ
##'ታ
▁"ወ
▁ሁሌም
▁በሎም
▁ንቡር
▁ምልክቶች
▁ትራምፕ
▁የቱ
##ገናኘ
▁ምዕራብ
▁ምንጪ
##ዩም
▁የሚያሳ
▁ፃ
##ድማ
▁በወቅቱ
▁ማዕከል
▁ስኬታማ
##ለኒ
▁አይኖር
##:17
▁ተቀባይነት
##አዊ
▁ኮይነ
▁ያውቃል
▁ጡ
▁ናብዚ
▁መዝገብ
▁ተዋሂ
##ርሽ
▁ብጾ
▁ምሃብ
▁እዋን፡
▁ጥበበኛ
▁አእምሮ
▁ምስቶም
▁ይመለሳ
##ድስ
##ጠፉ
▁ነተን
##ሃይማኖ
##በራት
##ታትካ
▁አንደ
▁ግናኸ፡
##ኮይኑ
##ርኪ
##ኑን።
##ሸን
##ሙና
▁ተካ
▁ካለው
##ገናኛ
##ሳው
▁እግዚአብሄር
▁ቀድሞውኑ
▁ታሕቲ
▁ኣምላኽ፡
▁ያእቆብ
▁ትብል።
##ልበት
▁ለማንኛውም
##ናፍ
##ጣሉ
##ገኙት
▁"ከም
##ኻኽር
##ቦና
▁መቃ
▁ያዕቆብ
▁ተሰጥ
▁ተማሂ
▁የለውም።
▁44
▁ዝኣክል
▁ኣንስቲ
##art
▁የሶ
▁ንምው
##ግዳ
##ፍትን
▁መገድ
▁ካሊ
##እስ
▁በረኻ
▁ሰሎሞን
##ተይን
##ሯቸው
▁ስምዒ
▁ትንሳኤ
##ተተ
▁አቤቱ
▁አንዴ
▁እወ፡
▁Read
##እኛ
▁ንብረ
▁ተመለስ
▁ቅድሜ
▁አድርግ
##የሩሳሌም
▁አሰ
▁ኣይመስለን
##ሪዝም
▁መስራት
▁ርእስኻ
##ኸል
▁የኔ
▁ይት
▁·
▁እንተድኣ
▁ዚርከብ
▁እጃ
▁ኣቡ
▁ኤርትራዊ
▁የድር
▁ነገረ
▁ምርኣይ
▁የመጨረሻው
▁ሓርነት
▁አይደል?
##ምልከ
##ከላከል
▁አምና
▁ኢሜ
▁ከምት
▁ሕገ
▁አማካኝነት
▁እቅድ
##ነትና
▁እንደነበረ
##ዋቸው
▁ለሰው
▁ዩናይትድ
##ቀረ
##ሌን
##ጠብቃ
##ምፒ
▁ናይቶም
▁ለዚህም
##መሓ
▁የን
▁እንጌ
▁ብምስ
##ስትራሊያ
▁ዘብ
▁ጸሓ
▁ሂደ
▁ኣዝዮም
▁ይሁንና
##ፈጥር
##vi
##ቨር
##ቪድ
▁በትን
▁(ለ
▁ታስ
▁ቃሉ
##:20
▁ንገረ
▁ይመጣል
▁ኛው
##ጠቐ
##ፀን
##ቑ።
▁መኖሪያ
▁ኣለው
▁(ም
▁ሳይንስ
▁ጤ
##ላቀ
##ባ።
▁የመንግ
▁እግሪ
▁በርሱ
▁የፍቅር
▁ዝዝ
▁ኣይረኸ
▁ክርስቲያኖች
▁ጋንታ
##ባረ
##ቆት
▁ቢኖር
##ወሰድ
▁ኢየሱስም
▁እሷን
▁ዑቕ
▁ዂሉ
▁ህዝብታት
##ገበያ
##ኮኑ
##ጋስ
##ፔን
▁ስላል
▁መሊሱ
▁መሐ
▁ንነብ
▁አልችልም
▁ዘለና።
▁ቅድሚኡ
▁ብለዋል
##ረፍቲ
▁ኣዴ
▁ወፍ
▁አለበት.
##ቃም
##ውቲ
##ለዩ
▁ምቹ
▁ደቅ
▁መፈለግ
▁ነገሩ
▁ያስፈልግ
##ዛረበ
▁ንነዊሕ
▁አሕዛብ
▁ትፈልጋ
▁ያየ
▁ጥፍ
▁ንምም
##ብሃ
▁መልአክ
##ጁን
▁አይቀር
▁የእኔን
##ጅነት
##ስጥኤ
▁አለ.
▁=
##ላፍ
##ook
▁ዄ
##ሎምን
▁ዝካየድ
▁ክዛረብ
▁እነሆ፥
▁ብህ
▁ቀስ
▁እየሰራ
##፡+
▁ገጹ
▁ረሲ
▁መቐለ
▁ከጥቂት
##አንተ
▁የሐ
▁ዝመል
##ከላከ
▁ንኣብነት፡
▁እሺ
▁ድኽ
##ገልጽ።
▁አስተማማኝ
##ሓሉ
▁ክረም
▁ዓሚ
▁ምንታይ
##ለታ
▁ብፁ
▁ውድባት
▁ጾም
##--
##ወሩ
▁ክለ
▁ስለተ
▁ፈርኦን
▁ክድ
▁ዓድ
▁2009
##ችልም.
##ግረ
▁ኸዓ
##በርካታ
▁ንጥፈታት
##መተ
▁አስቀድሞ
▁ፕላ
▁ሃገረ
▁ቤተሰቦ
##ጎድ
▁ትኽእል።
▁2008
▁የድሊ።
▁ነበረት።
##ሩኽ
▁ምስል
##ምስት
##ራጃ
▁ይጨ
▁45
▁ብዝሒ
▁ሽማግሌ
##ውነ
##ና፤
##ጽዓ
▁ምግባ
▁መብራ
▁ድንኳን
▁ክሰ
▁ለመኖር
▁ዳሕ
##ድሽ
▁ንማ
▁ኣለዋ
##:16
▁ኣፍል
▁ተጫዋች
▁ወታደ
##-3
##ጥቀም
##ቋንቋ
▁በይነ
▁ሊኖር
##ድኩም
▁ምድረ
▁ክዳ
▁በቅ
##ያዝያ
##op
▁ዝብሃል
##መንት
##ቢብ
▁ሰፈር
▁ህዝቡ
▁ዛዕባ
##ጠፍእ
▁ሓያሎ
##ረትን
▁ቅዱስን
##ጢሩ
▁ነዳ
▁ይደሊ
▁ደሓን
##ርእየ
▁ትእዛዛት
##ቡና
##ዑ፡
▁(ይ
▁ልብስ
▁ዙርያ
##ነግር
##ረደ
▁ብምኽንያት
▁ዕቃ
▁ኪቕ
▁በዙሪያ
##ጎብኘት
▁አምል
▁ባዶ
##ለይን።
▁ድርጅቶች
▁ወረዳ
##ቡት
##ቴጂ
##ኝ፤
##ጸና
▁መደበኛ
▁ጽድቂ
##ia
##ፃኢ
▁ይሁ
▁ክዝ
▁ካላ
▁የእግር
##ሃል?
▁ተወሊ
##14
▁መረዳ
▁እንዲህም
##ut
▁እንዴ?
▁መድረክ
▁የነበሩት
▁ጥላ
▁ጥል
▁ንድሕሪ
▁ውሕስነት
##ርዎ
##ቨስት
▁ጸዊ
▁አብረን
##ቸዋል.
▁በተሻለ
##ፈታ
▁የመጡ
##:14
▁ኣንብ
##ew
▁ይደ
▁ንፍ
▁እንደመ
▁መሳሪያዎች
▁የብሉን
##em
▁እሷም
▁እድሜ
▁አለ,
▁መለስ
▁ክስተቶች
##እነርሱ
##ጻፍ
##ሞንተ
▁ኣጥ
##ሰይጣን
##ቶቡስ
##ለቅ
##ሚን
##ጓድ
▁ይናገራ
▁ንሶም
▁ተቆ
▁ተመዝ
▁ይመስላል።
▁ተረኺ
▁መራኸ
▁ምዕባለ
##ኦ።
▁ፋብሪካ
▁ይገባል።
▁ዉን
##ኒን
▁ያረጋግ
▁ሐሳብ
▁ቋንቋዎች
##ፈሻዊ
##ላ፡
##ኣያ
▁ሓይልታት
##ሁ፤
##ሻል
▁ባህላዊ
##ላጽ
▁የራስ
▁ሓጢ
▁ዘይሕ
##ቸዋለሁ
##ናሽ
##ኦምን
##ኖ።
▁ማል
▁ወደዚህ
##ቃሉ
##ኑ፡
##ኛታት
▁ንዓለም
▁ማራ
##ብርሃን
▁ግምገማ
▁አድና
▁ኢያ።
##በልዕ
▁ሆነ።
##ራሳችን
▁ይክ
▁ፈጠ
▁ተደርጓ
▁ጩ
##ነር
▁መጽሔ
##የትኛውም
##ኒ፣
▁ተነሳ
▁ልዕል
▁ለማረጋገጥ
▁196
##ላዕ
##ሊያን
▁መርመራ
##ፈጠረው
▁ኢየሩሳሌም
▁ሽማግለ
▁ኣረጋ
▁ከጊዜ
##ጠንቀ
▁አህ
▁እንኮ
▁ውጪ
▁ዝርዝ
▁ኢሳያስ
▁ዕዉ
▁ከመጀመሪያ
##ቱ፡
▁አንብ
▁X
##ኾም
▁ረዳ
▁ባህሪያ
▁በአምላክ
▁ብቑ
▁ሆኑ
##ሽሓት
▁ከንቱ
▁ይወጣ
▁ተልእ
▁"ወደ
▁ማእከላይ
▁ኣረኣእያ
▁ጾታዊ
##ሸጥ
▁አሮ
▁እዮም፣
##ችኋል።
▁ክመጽእ
##ኃጢአት
##እዎ
▁ለወደ
▁ካም
▁ኩባንያው
▁ተገኝ
▁ከሁሉ
▁ለመረዳት
▁ገበን
##ጥቀመሉ
##ሰጠው
##ጨመረ
##ጫን
▁ብጻ
▁ሓሲ
▁ተሳትፎ
##ሰባት
##ፊል
▁ኮሮና
▁በታላቅ
▁ንባብ
▁ያደረገ
##ዓትን
▁በሥራ
▁ይነብር
▁ብምግባር
▁ነበርኩ
▁ነጻነት
##ላቸውን
##ኩት።
##ገባት
##ሽነት
▁ስኬት
▁አይታ
▁በመሆኑ
##ሰምዖ
▁ይል
▁ብጸ
▁ምና
▁ቀኝ
▁አለው.
▁በረከት
▁መርገ
##ላውን
▁የከ
▁ዝግባእ
▁ግዙ
##ዋዕት
▁ያግኙ
##'ከ
##ቶም።
▁ጎዳና
▁አስተዳደር
▁ቘ
▁ንገዛእ
▁ያገኘ
▁ኣዳም
▁ይገ
▁ወኪ
▁ተሰሚ
▁ተጋዳ
##ቶቻችሁ
##1)
▁ሽዱሽተ
▁ሃብቲ
##ባችን
##ያቂ
▁ዘጸ
▁አባቱ
▁ጦር
▁መፍትሔ
##ብሊክ
▁በሐ
▁ግፍ
▁ማቴ
▁ኣቀ
▁ሓጐስ
▁"እኛ
##ቐርብ
##እናንተ
##ያል።
▁ይሞ
##ካከት
##ውንቲ
▁ሠራተኞች
▁ይከኣል።
▁በማይ
▁ወይኒ
▁ጸወታ
▁ጠር
▁ኣነን
▁ገደማ
▁አብዛኛውን
##ቀቀ
##ቕ።
▁የኃይል
▁ንግዲ
##ንጉሡ
##ዓር
▁ህዝበይ
▁ኣማራ
##ላዪ
▁ብ19
▁መግዛት
▁መልእክ
##ላቱ
##ሥጋ
▁ሕያ
▁እንደዚሁ
▁የእነሱ
##ዋስ
▁ቀለ
▁ትጽቢት
▁ዕቅድ
▁መጻሕፍቲ
▁የውሃ
##ያዕቆብ
##ጹጽ
▁ከብዙ
▁ጥቂ
▁ኣለዎም
##roid
##'ቶም
▁በጥን
▁ነው...
▁ዳይ
▁ያልሆነ
##ቅል
##ጎዳ
▁ኣመል
▁ሆይ!
▁ቡድኖች
##ሃሩ
##ኖችን
▁ምንድነው?
##ይ።
##ኖት
▁"ል
▁አማልክት
▁ዋናው
▁ብዘየ
▁in
▁ተኽ
▁ቀጻሊ
▁የተመሰ
▁ናቸው?
▁2011
▁ኣንታ
▁ዳንኤል
##ባበር
##ፕሬ
▁መቓ
##ለዋል
▁ማለትም
▁የምር
##ፍለጥ።
##ም፥
##ደርሱ
##በልካ
▁ድሕር
##ሩይ
▁ንዑ
▁ግሩም
##ስተን
▁ወንድም
▁መዛሙ
▁ለመስራት
▁ዝኽእሉ
▁በእሳት
##ንዱስትሪ
##ፌስቡክ
▁የዕ
▁መሰኻኽር
##ክሬን
##ለጥ
▁And
##ነታቸው
▁ውብ
▁ለመሆኑ
##ኣም
##ባበ
##ወርድ
##ውያ
▁ለመድረስ
▁ዝተኸ
##ሞክራስ
▁ይቕረ
▁ንድሕሪት
▁እላችኋለሁ
▁የሽ
##ያውቅ
▁ሙሴን
▁ዩኒቨርስ
▁መፍትሒ
▁የትኛው
▁ምፍላጥ
▁መሪሕነት
▁ጣቢያዎች
▁ጒ
▁'ዩ
##መጸ
▁ጥንካሬ
▁ቊ
##ኣኸ
▁እሙን
▁ተመልከቱ
▁ንዘለኣለም
##ዞች
▁መሳርሒ
▁ጆሮ
##ፈፀ
▁የተጻ
▁ለማለት
▁የጉዞ
##ኩባንያ
##ክሮች
▁ኣይሓ
▁ሊቃ
▁ምዃና
##-ሰብ
▁ነቢያት
##ክኒ
▁ካልተ
▁ነበረው
▁የብልናን።
##ኣለ
##ራረብ
▁መረዳት
▁በሺዎች
##ቀሰ
▁ይችላል?
▁ወጣቶች
##ብር።
▁ኮር
▁ንጹር
##ጋዝ
▁ንየ
▁ወረቐት
##ሓትን
##ዮ፡
▁እንድታ
▁የሚያስችል
▁መብዛሕትኦም
▁ዝጸንሐ
▁ብኻልእ
▁ክሰርሕ
▁ማረጋገጥ
▁ሓወይ
▁ምክል
▁በፍቅር
##ሪኽ
##ያየ
##ቛንቋ
▁ንፈልጥ
##ፈልጠ
▁እንደሚያስ
▁የለም.
▁com
▁ኢንተርነት
##4|
▁ክምለስ
##ሰብኩ
▁ብዝብል
▁ብድሕሪኡ
##40
##ስታውስ
▁እንግዳ
##ም"
##ማህ
▁ሞይ
▁ንሰባት
▁ፌስቡክ
▁የሰማ
▁ዝመር
##ለን፤
▁የአንተ
##ርድኦ
##ስእ
##ደዱ
▁በኤ
▁ማዳ
▁ድቃስ
▁(ኤ
##ቀመጡ
▁እንዳለበት
##ኪን
▁የገባ
▁መኽ
▁ርሕ
▁;
##ሳሰብ
##ፋዊ
▁መረብ
▁ዝፈልጥ
▁ሰላማዊ
▁ምስራሕ
▁"እናንተ
##ሳችሁ
▁ከን
▁ኣለካ።
▁ሥራዎች
▁more
##ቻለሁ።
##ቶቹን
▁የሀ
▁መከ
▁አድርጌ
▁ጥቅሞች
▁ሓዲሽ
##ንዛ
##ረሻ
▁ዘበ
▁ድንግል
▁ሓባር
▁አይፈ
▁አካባቢዎች
▁ቈልዑ
▁You
▁ይድ
▁ፍጥረ
▁መስክ
▁ክርስትያናት
▁ጥልቅ
▁የተከ
▁ኣለኻ
##igr
##ሻይ
▁ይካ
▁ሕሉ
##ብዙሕ
▁ተመልሶ
##ost
▁አይተ
▁ውጤቶች
##ብላዕ
▁ተቋማት
##ፍሩ
##ቕካ
##18
##ሟላ
##ፁ።
##ሰርሐ
▁መልክዕ
▁ጆን
##ግነት
##ጻወ
##ዶን
▁የተጠበቀ
▁ጨለማ
▁በቅርብ
▁ህጻን
▁ዘጋጠመ
▁ፍጡር
##ፋእ
▁አዛ
▁ንዘይ
▁መናፍ
▁ምብራቕ
▁ስትራቴጂ
##ይይ
##ከተሉ
▁ይኹን።
▁(ማቴ
##መዱ
##ፕሎ
##ራሪ
▁ስኢ
▁ካቶ
▁ክትረክብ
▁እንችላለን።
▁የሚፈልጉትን
▁ይመስለኛል
##ቐር
##ab
##ደሰት
▁እዩ፤
▁ዘይብል
##ደልየ
##ምረው
##መደ
▁ዝተሰ
##መለክ
##ፈልገውን
##ቅዱስ
##ram
▁እናበሉ
▁2010
▁ንዅሎም
▁ሰልፍ
▁ግዛት
▁(ኢ
##ባትን
▁ሕልና
▁43
▁መለወጥ
##ጋን
##ጺሩ
▁ዘድሊ
▁ነጋዴ
▁ውሉድ
▁እንጌራ
▁ግዛ
##በሩት
▁በሽታ
##ዝቃ
##-የ
▁ተዳ
▁ካብ'ቲ
▁500
▁የመጀመሪያውን
##ሃቦ
##ኾና
▁በዛሬው
▁ተጀ
##ዕም
▁ዘይብሎም
##ላችሁ፤
##ስክ
▁መላው
▁ግማሽ
▁ኩላትና
▁አመለካከት
##ራንስ
▁የፖለቲካ
▁ኣሎ፡
▁እንዳያ
##ጹር
▁ናባይ
▁ትሑ
##ምለሱ
##ጸንሕ
▁ኣህጉ
▁ጤናማ
▁ዑቕባ
▁ለእያንዳንዱ
▁ጫማ
▁አያውቅም
##ቀትን
▁ሳኦል
##ስማማ
▁መዕ
▁Android
##ላክ
##መናን
▁በራስ
▁ክግ
▁ኣይከኣል
▁ተወል
▁ዝኸይድ
▁ግንዛቤ
▁ኛ
##ter
##ጽሊ
##ዱስ
##ir
▁መፍጠር
▁ዝፈት
▁አደገኛ
▁ሓም
▁ምርካብ
▁ኽልተ
##ጋኑ
##ሷል
▁ከምድር
▁ተመር
▁እንደሚቻል
▁ኮሚቴ
▁ማስታወሻ
##ምራል
##ቶቻቸውን
▁መሬ
▁ሳን
▁ማረፊያ
##ማመን
##ጂታል
▁ዝተኻየደ
▁የወይን
▁እወዳለሁ
##ቀጣ
##ሽቲ
▁ኣሰራ
▁ደሓር
▁እንደነበር
▁አለ:
▁መግባት
##ለዋይ
##ድሕሪ
▁ዝብለ
▁እናመሰግና
▁"ሓ
▁እነዚያን
▁ግዜ፡
▁ድንጋ
▁ታላላቅ
▁ብኸምዚ
##ሳራ
##ሒፉ
▁የሠራ
▁ኣወዳ
▁መወ
▁"ጌታ
##ላሉ።
▁ያካት
##ውጣት
▁ስለ'ዚ
▁ዕረፍቲ
▁ወርቂ
▁ብስራት
##ርና።
##ዓም
##ዥም
▁ጽድቅ
▁ንምዃ
▁41
##ዒሉ
▁ኣበባ
▁ንቁ
▁አልቻል
##'ዩ?
▁ዘሎካ
##ጠለ
▁አቋ
▁ራዕ
▁የስራ
▁ፕሬዝ
##ሙም
▁ክረክብ
▁ሓፈሻዊ
##ምንቱ
▁እያሉ
▁ሰፊሕ
▁ብቁ
▁በአንዳንድ
##ወንዶች
▁ሀገሮች
##ነጽ
▁ብሏል
▁ደይ
▁የሚፈ
▁ሮሜ
##ous
▁በመንገድ
▁ክበሃል
▁››
##ዳማይ
▁የኢየሱስ
▁ሀብት
▁ልዕ
##ወደው
▁ብለዋል።
##ኞቻቸው
##ፁም
▁መሪዎች
##ቀመጠ
▁የባህር
▁ይሁኑ
▁ኢድካ
▁ካበይ
▁ነበርኩ።
##ነገረ
▁v
▁ይግበር
▁ማቅረብ
▁አምላክን
▁አማራጮች
##ገግ
▁ኣዲስ
▁ሊኖረው
##ብርሃ
##ቱንም
▁ንኡ
▁ትፈልጡ
▁ታያ
▁ገደብ
##ሮስ
▁ሃዋርያ
##ኩምዎ
##ዋታው
##ደባ
▁ክብረ
▁ዘርእ
##እንደ
##ጨነቅ
▁ኣዚዩ
▁ብሩህ
▁በዩናይትድ
▁ወይንም
##ቸዉ
##ፎችን
▁አደረግ
▁ለመን
##ልን።
▁"ዝ
▁ሚካኤል
▁ቋንቋታት
▁ኣቐዲሙ
##ታተ
##ሪው
##ለለ
▁ሰውን
▁መምጣት
##ፈ።
▁የጋራ
▁ሞንጎ
▁የግብ
▁መቆ
▁ይልቁ
▁እንስሳት
▁ባዕልኻ
▁ዌ
##-አ
▁"ደ
##ነበሩት
##ውተር
▁ጽም
▁ጥንታዊ
##ስከ
##ኒ?
▁መብላት
##os
##ፋሽ
▁አደረጉ
▁የዋ
▁የቤተ
▁ነጭ
▁ወደይ
▁በደስታ
▁ብማ
▁ልሙድ
▁ለእሱ
▁ከአሁን
##ክብካ
▁ሰላምታ
##ሁለተኛ
▁ወገኖች
▁ዳግማይ
▁ለመግባት
▁ዝርከ
▁"ት
▁"ንስ
▁ዓለ
▁የተሳ
▁ሚስጥ
##ካር
▁ንባ
▁ዝህ
▁ሚያዝያ
##ታል፤
▁እንቅልፍ
▁ተጋዳላይ
##ቻችሁን
##ፍታት
▁ደካ
▁ከአላህ
▁ኣፍልጦ
▁ግዘ
▁አለዎት
▁ቁጠባ
▁ኣቦና
▁ተንሲ
##ሊዮ
##22
▁ኣሉ
▁ካኣ
▁ያለበት
▁ውይይት
▁ክብደት
▁ትክክለኛውን
##በሃል
##ኞቻችን
▁ታቦት
▁በቤተ
▁መሞከር
▁ፕሬዚዳንት
▁100%
▁ራሳቸውን
##ባቴ
##/ር
▁ዲሞክራሲ
▁ታውቃለህ?
▁አጠገብ
##ነበብ
##ዮችን
##9)
▁ዝነብሩ
##ሰራው
▁ይፈልጋል
##ያያዘ
▁ይእ
▁ወዮ
▁ይህች
##ናቶች
##ላሳ
##ገሰ
##-ኣ
▁ፍታሕ
##ይዛ
##ኤት
##15
▁ለዘ
▁"ስለ
▁ካህን
▁አላህን
##ሜራ
▁ለት
▁ብቻውን
▁የሚያደርግ
▁ሚኒስተር
##በደ
##ውው
##ውላው
▁ብሏል።
▁እንቋ
##ድድ
▁እማ
▁አዳም
▁ይርከ
▁ለኔ
▁ኣለካ
▁ገሊኡ
▁ነዋሪዎች
▁ጭንቀት
▁ዓንቀጽ
▁ኣመን
▁ከሰው
▁ሕይወትን
▁y
▁የህዝብ
▁ዋስትና
▁እንዳሉ
▁ኣየናይ
▁ሰማያዊ
▁ብግቡእ
##ታሉ
##ጥ።
##ቀቁ
▁ክግበር
▁ዘግ
▁የምግብ
▁ቅዱስ፡
▁መልእኽ
▁የቀድሞ
▁ንካል
▁(ሉ
▁ለመፍጠር
##ጥቅ
##ጀርባ
##ቡ፡
##ሂዱ
▁ተጠቅ
##ላችን
##ቦይ
##ኣትዉ
▁ስደተኛ
##ስተዋ
▁ቅዱሳት
▁የራሱን
##ሥራት
##ኻዮ
▁ምብ
▁ዘቕ
▁እምኒ
▁እስከሚ
##ሻው
▁በከተማ
▁የጨ
▁ነገድ
▁ኤልያስ
▁ከጌታ
▁ትኽ
##ይር
##ኑት
##ሃሃ
##ሃዊ
##ቫይረስ
▁ዝሃበ
##ዘጋጁ
▁ህይወቱ
▁ህይወተይ
▁ሰራተኞች
##ረከ
##ዶ፧
▁ይሓይሽ
▁ጌታዬ
▁ሰማይን
▁ሞዴል
##ኩኝ
##ደሙ
▁በ19
▁አደረ
▁እየጨመረ
##ind
##ርምያስ
##ኦም።
##ዕካ
##ሕካ
▁ዘድልየ
▁ገብረ
##:22
▁ዓቢይ
##ክፍ
▁እንተሎ
##መልስ
▁ሕጂ'ውን
▁ኵነታት
##ዮቹ
▁ናይታ
▁ሑ
▁አይችልም.
▁በመሆን
▁ቆር
▁ብሓፈሻ
##ናጋ
▁የጌ
▁የሚኖሩ
▁ዚመጽእ
##ልካም
▁ምዝራብ
▁ጥቃት
▁ምስተ
▁ታው
▁ሓደገኛ
▁አገልጋይ
##ak
▁ለመናገር
▁ጠጅ
▁ቀዳሞት
▁ይሆናሉ
▁ነዉ
▁ሓቅ
▁ፓር
▁አልነበረም
▁ተሳታ
##ome
##ሃህ
##5|
▁ንኣይ
▁ኣቦኡ
▁አብርሃም
##ኣና
▁ዝተዓ
##ጠይቃ
##ወን።
▁ባቢ
▁ምሳኻትኩም
▁ጥዑም
##ሃለሁ።
▁የኦ
▁ብድሆ
##ሕድ
▁ለብ
▁"'
▁ባር
▁ብዝምልከት
▁ነኝ.
##ራችን
▁ያውቃሉ
▁አጠቃቀም
▁ኣሚ
▁ቀረ
▁እውነትን
▁እብለኩም
▁ኣገልግሎ
##ታቲ
##ኽእልን።
##ሰምዓ
##ህበካ
##/ም
▁ንምን
▁ሓጎስ
▁ዓይነቶች
##ከን
▁ንፋስ
▁አንባቢ
##ራጽ
▁አዋ
▁መደም
▁የሕክምና
▁እሳ
▁እንደዚያ
▁የድል
▁ትዊተር
▁ዝተገብረ
▁ሰዎችም
##ገድስ
▁ነገሥ
▁ብእምነት
▁ኣይኰነን
▁ጻዕሪ
▁ቑ
##ul
##ጸሩ
▁መታን
▁ድሌት
▁"ማ
▁መጥቶ
▁አንዳንዶች
##ትሮ
▁መገለ
▁ሕልም
##9|
##ጓዙ
▁ተኽእሎ
▁ውዕል
▁1,
▁ፍሽ
##በልጥ
▁አብዛኛው
▁የሎን።
##ይሊ
##ጋጥም
##አል።
▁ዝስዕቡ
▁ዐዋቂ
##ሮቹ
▁ጎረ
▁መቀበል
▁ኮሌጅ
##ንቺ
##ክፉ
##ፈሳዊ
##12
▁ዘስ
▁አልፈልግም
▁ኃላፊነት
##ከሰተ
▁በሞ
▁ከቤት
▁ከሚያ
▁ተጋደል
▁የጠ
▁ሂድ
▁የብለይን።
▁የላቀ
##ኩበት
##oc
▁ይመራ
▁እውን፡
▁ጨረ
▁ኢየሱስን
▁የሰማይ
##ወለደ
▁መውጣት
▁ዝኾነት
##በዛ
##ክልት
##ፈልጡን
▁ብመንፈስ
▁ጁ
##ኣክል
##ሰቢያ
##ዎትም
##ሩዕ
▁ያኔ
▁የሚገኝ
▁ብዙዎቹ
##ቋቋመ
##ክብካቤ
##ባራዊ
##ያዎች
##ቁም
▁ይመጽእ
▁ጐይታይ
▁ኢንቨስት
##ኣሉ
▁አዘ
▁ተረድ
▁ወደዚያ
▁ሌሎችን
▁ክልቲኡ
##ሎሚ
##ገሲ
##ሒት
▁ሕጉስ
##ሰ-
▁ንምዕ
▁ስርዓተ
##ችኋለሁ
▁&
▁መጓዝ
▁ስለማ
▁2.
▁ተጋሩ
▁ጳጳ
▁በኮ
▁ያመኑ
▁ውበት
▁ቀኑን
▁አስታ
▁ቀጥተኛ
##ራኸብ
▁መራኸቢ
##ደሩ
##ቃለ
▁ተታ
▁እኔና
▁ዲግሪ
▁በረኸት
▁የተለመደ
▁በኔ
▁ከሳ
▁እናቴ
▁ኢትዮጵ
▁ለማጥ
▁እምበኣር፡
▁ለመግዛት
▁የሱስ፡
##ube
▁g
▁ኣግ
▁ለን
▁ረአ
##8|
▁መሃ
▁ኣምላኽና
▁ንግግር
▁ተከታታይ
▁ሆቴል
▁ምክልኻል
▁ዝተባህለ
▁ብምሕ
▁ስራሕቲ
▁ኢዮብ
##ፍቅር
##ቃለስ
##ሄደው
▁ኣምል
▁(መዝ
▁ለመገንባት
▁በእርስ
▁በእነሱ
▁ያስፈልገ
##ብኡ
##ቕሪ
▁ከሆን
▁ያነሰ
▁ሚእቲ
▁ተመልከት
▁ለወደፊቱ
##ኻብ
▁ሶርያ
▁ሀብታም
▁ተደርጎ
##ንሳ
▁ይነግረ
##ፈልየ
▁ከእሷ
▁ጀመሩ።
▁አላቸው.
##ኑም
##11
▁ነጠላ
▁ቤቱን
▁ቃሉን
▁አይደሉም።
##በሮ።
▁the
##ዕድሜ
##ዛር
##ጣንያ
▁ንአ
▁ወፃኢ
▁ወደሚ
▁ላከ
▁ይብሉ።
##ቻሉ
▁እትብል
▁ዝሓለፉ
▁ኣውጺ
▁ኣይመስለንን።
##ና"
##ነታዊ
##ጡ.
##ጋው
##ኢታዊ
▁የከተማ
▁ይኖ
▁ውዳ
▁ሳላ
▁ዝዓበ
##ነቴ
##ሀብ
##ቃጥ
▁እንኽእል
▁ሃዋርያት
▁ስድራቤት
▁አገልጋዮች
▁ከቀ
▁ዚገብር
▁ኃይለኛ
▁ንየሱስ
▁አለቃ
▁ለማሻሻል
▁ጽልዋ
##'ኮ
▁ከይን
▁በእግር
▁አማካይ
▁አካላት
▁ብጹ
##ላቸውም።
▁ፍልስጥኤ
▁ብረት
▁ሲኦል
▁ኢና"
▁ሂወ
##ጽሕፍ
▁በላቸው።
▁ባሪያዎች
▁አውቃለሁ።
##ነኽ
##ቡዕ
▁Tigr
▁በሙ
▁ቀጣይ
##ግሶ
##ቲክ
▁ዝዀኑ
▁ሕድሪ
▁አገራት
▁ሬሳ
▁ሕንፃ
##ልፉ
▁ከም'ዚ
▁ለመክ
▁ከለኹ
▁ንጹህ
##መሉ
##ቲቱ
▁ዓለምለ
##ሰይቲ
##ደረጉት
##ስቶች
##ተዋ
##na
##ጆቼ
▁ከሞት
▁ሓኪም
▁ዮሓ
▁ምዝገባ
▁ዳግመኛ
▁ጢ
##የሉ
▁ድዮም
▁ዘለዎ።
##ፈልጥን
▁መቅደስ
▁እራስ
▁ይፈልጉ
▁ተዛረ
▁ካባይ
▁የቁማር
##ግድ
▁አታውቁ
▁ጥቅምቲ
▁አምላኬ
▁ህንጻ
##ሳሰል
▁ሲባል
▁ጸን
▁በተቃ
##ክልተ
▁አድርጉ
▁በሰላም
▁በፊቱ
▁ዝመስል
▁የሚችለው
▁እምብኣ
##ኩስ
##ጠሉ
##ዎቻቸውን
##ጫው
▁ነች
▁የተመረ
##ልን?
▁ይፈልጋሉ?
▁ከለዉ
▁ትችላለህ
▁ለማሳየት
##ኩር
##6|
##ጠቃሚ
▁እገዳ
##ንተርኔት
▁እንዳልሆነ
##ra
##ራውያን
▁በቢ
▁ደመና
▁ደሴት
▁ናይ'ቲ
▁ካብተን
▁ነበርቲ
▁መስፈር
▁ንምድ
▁በሚገባ
▁ማሕበረሰብ
▁ፍልስ
▁ይኸይድ
##ኣስ
##ጣል።
▁እንዲሆኑ
▁ሃሳብ
▁ክትቅ
▁በመንፈስ
##ጨምር
▁በይኑ
▁ኣይክት
▁ዓሻ
▁ኣትዩ
▁ጮ
##ለር
##ዮስ
##ወምቲ
▁የመጽሐፍ
▁ልብና
##ont
▁ወገናት
▁ኣዋልድ
▁ጻድቅ
▁ለሚያ
▁ንን
▁የሚመ
##ደገፍ
▁ጥርጣ
▁ሁለቱንም
▁ርግጸ
##ዕሉ
##ከስ
##ኖቹ
▁ሂቡ
##ገለግል
##ኖም።
▁በቤ
##ርጅ
##ቸውንም
▁ዮርዳ
▁ንብዙሓት
##በጽሕ
##ቢሲ
▁ሓዘን
▁በአካባቢ
▁ዘለኹም
##በሩ።
##ህነት
▁በጌ
▁ዝዕ
▁ዝባ
▁ያቀ
▁የሚኖር
##ሎም፡
▁ሃገርን
##stag
##ውቅም።
##ከላከያ
##ታለሁ
##ዕዎ
##ውድ
▁አዲ
▁ያወጣ
▁ሳም
▁ቁጠባዊ
##ወሰዱ
▁ነጥብታት
##ሓዲ
##ፎር
▁ኣዘ
▁ውሸ
▁ጥፋት
##ስተይቲ
▁ክንክን
▁አካላዊ
▁ኣሕሊ
▁ያውቃል።
▁ኑሮ
##ኒው
▁ቁም
▁More
##ሕዝን
▁CO
▁ኣዋጅ
##ጣቱ
##ቕና
▁ለዓለም
▁ሕዝቡን
▁ኮይኑ፡
##ሓሰ
##ና፥
##ብድ
##ዕግ
##ፖሊስ
##ዐን
▁ኣጆ
▁ዝሃብ
▁ዘለኹ።
▁ዲያብሎስ
##ደርጉት
▁እባክህ
▁ፆ
##ልበ
##ፈርቲ
##ቢይ
##ቃል።
▁ዘይክእል
▁ሌሊ
▁ዓይነቱ
▁ዮርክ
▁እውነቱን
▁ፍቃድ
##ጀንዳ
##ጸ።
##ያለሁ።
##x)
▁ይደግ
▁ሓምለ
▁አይደለም፤
▁ደቀን
▁በመስመር
##ስቴር
▁በአብዛኛው
##-ተ
▁ተከት
▁ማድረ
▁ጀጋኑ
▁ርእሶም
▁እንድሕር
▁ሦስተኛ
▁ኣቕሪ
▁ላዕለዋይ
##ዕሎ
##ሊ።
▁ወዱ
▁እንደ,
▁ጉብኝ
▁ማለት፡
▁ባለሙያዎች
##ት፡
##ሰላ
▁በሲ
▁ቀዳመይቲ
##ኣትን
##ፈርድ
▁ኣማል
▁ዝነበራ
▁የለኝም
▁በፍጹም
▁ትዕግ
▁ክህልዎ
▁ይዕ
▁ንኽን
▁ወላዲ
##ኣምኑ
▁ከሙ
▁ድራ
▁ቅዋም
▁ዮና
▁ጥቕሚ
▁ይግበረ
##ይሮ
##im
▁ግቡ
▁ውሻ
▁ሓረስ
▁ሕርሻ
▁አይቻ
##ምላካ
▁ሲመጣ
▁ተነሥ
##ንብብ
##ታዩ
##ኣነ
▁በማስ
▁የለበት
▁መሠረታዊ
##ዎም፡
▁ዘዴዎች
▁ጠባቂ
▁እንክ
▁ዝተፈ
▁ያልሆኑ
##ነግሩ
▁መበገሲ
▁ውሑዳት
##ዝቃዛ
##ሱ፡
##ሶችን
▁ኣሸ
▁ክመር
▁ብሓድሽ
##ፈልግም።
##ጨነቁ
▁በመካከላቸው
##መጹ
##ጋብ
##ገልግሉ
▁ይወስዳል
▁"ታ
##ርትዖ
▁ቡና
▁በሰዎች
##stagram
##ያሉ
##ጣራ
##ደፍ
▁እንክብካቤ
▁አንድን
▁ሰብኡ
▁በቀጣ
▁ሓላፊ
▁አለመሆኑ
##በኒ
##መኒ
▁ያተ
##ዋል,
##ጠናቀቅ
##ወረደ
▁ወሳኒ
##ቅም።
##ቋል
##__
▁ብቃት
▁ደህንነቱ
##ጋሩ
▁ጋብቻ
##ነበረው
##ጠቀሙበት
▁ማውራት
▁ህያብ
▁እናደርጋለን
▁አሻ
▁አመራ
▁ከሕ
▁ተሽከርካ
▁ስህተ
▁መዳረሻ
##ብዓተ
##ጦስ
▁ዝጽ
▁ሃብታም
##ርዳእ
▁አለባቸው።
▁ስለእ
▁መግዛ
▁ንእግዚኣብሔር
##ሊም
##ግዝ
##ስ?
##'ዩ"
▁ቦርድ
▁እውነታ
▁ጕዳይ
▁ጥበብን
▁ሕሉፍ
##7|
##ver
▁በዲ
▁ዝሰርሕ
▁ትእ
##ክር።
▁ፀሐይ
▁ብቐሊሉ
▁ኮሚሽን
▁መረዳእታ
▁እሙ
▁ኣሎ?
▁ከመቼ
##ህንነት
▁መብዛሕ
▁ንድፍ
▁እንቅስቃሴዎች
▁ጻድቃን
##ወሳ
##ወቀው
##ቆስ
▁ማሽ
▁ጌሩ
▁ኣማራጺ
▁ይኖራል
##ማል።
▁ተሰብ
##ባልነት
▁ለሰዎች
▁ርሑቕ
##ዳቸው
▁በን
▁በላ።
▁ምሥራ
##ረጋገጫ
##ከላኸ
▁ወዳጅ
▁ከማንኛውም
##ዘመን
##ፋቸው
▁ርክ
▁ዝመጹ
▁ካባና
▁ካህና
▁ቅሬታ
▁ጭምር
##ክክለኛው
▁በድጋሚ
##ጣኝ
##ሟላት
▁ይበሉ
▁ውስጥ.
▁ብምል
▁ያስፈል
▁እባክዎ
▁ፍሉጥ
##ቃወም
##ማትን
##ራችሁ
##ሠር
▁ያድ
▁ኮይኑ።
##ሲኖ
##ካፈል
▁ጀነ
▁ይኸው
▁ጫፍ
▁ፈረንሳ
▁ኖርወይ
▁አውሮፕላን
##ቆሮ
▁እጥፍ
▁ንምግ
▁እትኽእል
▁ዲፕሎ
▁ዑደት
▁ኣዲ
▁ኣሃ
▁አቶ
▁መያዝ
▁ንኩሉ
▁ተስ
▁ሲሆኑ
▁49
▁ዲና
▁ደርፊ
▁የብሎምን።
▁ለመቀበል
##ሂድ
▁ስሪት
▁የአሁኑ
▁ድርሻ
▁የተሻለው
▁ኣትሒዙ
##ተሉ
##ለቲ
##ፊው
▁ምጅ
▁ዓም
▁እንተደኣ
▁እንድና
▁ቂ
▁ብቅ
▁ተሞ
▁ባርነት
▁ህልም
▁ዕላል
▁በየዓመቱ
▁ርዕሰ
▁ሓንሳብ
##ዱሽ
##ሒቱ
▁የትም
▁ሕዳር
▁ጽዋ
▁ነፃነት
##ዘኛ
##ሳሰ
▁በቴ
▁ዝት
▁ውሰድ
▁ቅጥ
▁ኪሎ
▁በርሳቸው
▁ኣድላዪ
▁ህይወትን
▁ኣጋጢሙ
##ክሌ
##ትምህርቲ
##ኝ"
##እሰይ
##ጀን
▁እሰጣ
▁ኪዀኑ
▁በኋላም
▁ባህርያ
##ከባከብ
▁ተምሃሮ
▁ታሕሳስ
##ሶስት
▁ከድ
▁ይዛ
▁ብሃ
▁ውፅ
▁ዓይኖች
▁ክርስትና
▁ኣቦታት
▁ኻልእ
##ዴን
▁ሓዳስ
##ግብሪ
▁ውሽጣዊ
▁ተቐሚ
##ወይም
▁የይሖዋ
##ኅበራዊ
▁አታው
▁ብዚ
▁ጥቃ
▁ውድቀት
▁ኢየ።
▁ታላቁ
▁ንነፍሲ
##ንጻሩ
##ሓቕ
##ዋውያን
▁ስለመ
##'ሎ
▁መባ
▁ኢል
▁በመባል
▁ለማቅረብ
##ጥንት
▁ሣ
##ፈቀደ
▁ነውን
▁ያውቁ
▁ጸጥታ
##ባሳ
▁በራሳቸው
▁2007
▁ለተወሰነ
▁ሕዝቡም
##ሐን
▁"ናይ
##:30
▁ሩቅ
##ኩሮ
##ገፍ
##ha
▁ንኽእል።
##ላዊነት
▁ልብኻ
▁በትምህርት
▁አመታት
▁ህመም
##ላልቅ
##ፈለማ
▁እዮም፡
▁ፍላጎቶች
##ከሰቱ
##ገላ
##ቢያው
▁ኣገደ
▁ይወር
##ገልጾ
##ሞክራስያዊ
##ግብር
▁ይኖረ
▁ወሬ
▁እንዲኖር
▁ዝኸፍአ
##ቅረ
▁ኣምላክ
##ለያየ
▁ብሉጽ
##ጋራት
##ቃሽ
##ip
▁መቸ
▁ንደሊ
▁ታሪካ
##መለከታ
▁ሞተ።
▁መክፈል
▁አምላካችን
##ይሽ
##ቾት
▁ብመልክ
▁ዘራ
▁ጠጠው
##በልኩ
▁ውልቃዊ
▁ተናግረ
##ላይን
▁እርምጃዎች
▁ግጥሚ
▁ወዴት
▁ዘድል
▁ንስድራ
▁ሸሞንተ
##ኒቨርሲቲ
▁ከመቼውም
##ኪ።
▁ትስ
▁አላገኘ
##መላለስ
##ዕናን
##ተኞችን
##ዳድ
##ኞቼ
▁የቪዲዮ
▁ዝረ
▁ልና
##'ዩ፡
▁ሞተር
▁መካከ
▁ወሲዱ
▁ሆኗል
▁ያገለግ
▁ጥራ
▁ኤስ
▁ዲኹም
▁የታወቀ
##ርአ።
##ነይቲ
##ዚል
▁መንበር
▁እንተዀነ
▁መስመ
▁በአንድነት
▁ይፍለጥ።
▁ያደረገው
##:26
▁ታውቃላችሁ
▁ቀሪቡ
▁ኣይነበሮ
▁ኾነው
##ሁፍ
▁በጀት
▁ክገብሮ
▁ኣይፍ
▁ጋሻ
▁ኣሎ"
▁ቆጸራ
▁ወርቅ
##ንብቡ
▁ምዉታት
##ነተይ
##ዱእ
▁የግን
▁ግጥም
▁ያደረግ
##ሓልፍ
##ስተኞች
▁አብዚ
##:24
##ቶቼ
▁ክገብሩ
▁ማና
##ቸው፤
▁ፈተነ
▁ዓመጽ
▁Pre
##ዝገብ
▁የሚሆኑ
▁የመጀመሪያዎቹ
▁ዝሃቦ
▁ትናንት
▁ላም
▁ዓሣ
▁ሚዛን
##ስብስብ
▁አወ
##በርት
▁ሞገስ
▁ቅልውላው
▁በይን
##ጀመሩ
▁ኣንቢ
##ሉስ
▁የጸ
▁ንገብር
▁አስቀድ
##ዋሩ
▁ኣሳ
▁ይፋ
▁ዝከኣል
▁ኣይነበረን
▁ሕግታት
##ሕግዘካ
▁አላት።
##ክታ
▁ከመስ
▁ንኢ
▁የሚሆነው
▁ኣሎ፣
▁194
▁ሃይማኖታዊ
▁ይቻላል።
▁ዝኽሪ
▁እዋናዊ
▁ንኹሎም
▁አሏ
▁ፈታ
##ለን?
▁ብምው
▁ገሊጹ።
##ጴዛ
▁ንኩ
▁ፈተው
##:25
▁አማኞች
▁የሰጠ
▁ይኣክል
##ነውን
##ቋረጥ
▁ይሉ
▁ኢህ
##መልካ
▁ወዲያ
##ጠራጠር
▁ልጆቹ
▁ዝነበርኩ
▁ፔ
##የረ
##ኽዎ
▁አመስ
▁ከየት
▁ብቀ
▁ሰብን
##ዋል፤
▁እናምና
##'ዛ
##ታተይ
##መቻ
▁በቦ
▁ተቖ
▁(ተ
##መለሳ
▁ማሕበራት
##ጸው
▁ርእስና
▁አስተማሪ
▁ኣልቦ
▁ምህላ
##ላቀል
▁ይምረ
▁መልሱ
▁ለእስራኤል
▁ሸቶ
##ጸበ
##አንድ
##ኸኝ
##ቦቹ
▁እሄዳ
▁የሚያውቅ
▁አስተሳሰብ
▁ማዕጾ
▁ኬንያ
##ate
▁አዎንታዊ
##ላህም
##ድኑ
##ጎት
▁ከኢ
▁ተሻ
▁ዘለኣለም
▁ሆና
▁ምስክርነት
##ምሌ
##ራሴ
##ሃራይ
▁ስው
▁መዝሙ
▁ደሞዝ
##ነሆ
▁ኣብተን
▁በእምነት
▁ኩነት
##ስልጣን
▁ባቢሎን
▁አሥር
▁ከላ
▁ትግራ
▁ብሎግ
##ብስ
##-በ
▁መሆ
▁ዓመተ
##ወስዶ
▁ኣየድልየ
##ችሉም።
▁ሔ
##ዮሴፍ
##ፉእ
▁በድር
▁ኣነስ
▁"አንድ
▁ኣእዳ
▁መንገዱ
▁ይናገራል።
▁ቬ
▁ዘገባ
▁ደቒ
▁ያደርጋል
▁ዕውቀት
▁መሲሉ
▁ብሪጣንያ
▁በቻይና
##ሓዘ
##ብጥ
▁አጣ
▁ዓ/ም
##ጀመረው
▁ቢል
▁አየሁ
▁ዲኻ?
##ሕተት
##ድስት
##ጻድ
▁ክፈ
▁ይኽእል'ዩ።
▁ኣይፈልጥን።
▁ዝእ
▁ተጽ
▁ስምንት
▁ትርከብ
▁ደመ
▁ወንዝ
▁ኣዝየ
▁ነህ።
▁ሾብዓተ
▁ህጹጽ
▁መሥዋዕት
##ገጥ
##የለ
##ዋሪ
▁ብሽ
▁ህይወትና
▁በጥቂት
##ቻለው
##ቸውም።
▁ግን,
▁ኪንግ
▁ኤርምያስ
▁ቪዛ
▁Pl
##ጠብቁ
▁መድረስ
##ሟል
▁ጸሐ
##በይነ
▁ንስኺ
▁ተጠያቂ
##ችኋል
##ሰያስ
▁ንክት
▁ለመማር
▁እንተወ
▁ዘለዉ።
▁ለውጦች
##ዑን
▁መቆየት
▁ንፈለማ
▁ሽም
##ላለች
▁ድንጋይ
▁ምኻኑ
##ደሱ
##ጽሓፍ
▁ስድራቤ
▁ልጆችን
##ጽሐፉ
▁ንየሆዋ
##ያችሁ
##ደቅ
▁ውሂብ
##መሃር
##ጋጠ
##ቦቻቸው
▁እኽእል
▁ታች
▁ኮድ
▁ኣምላኽን
▁ቅድሚያ
##ፈጠሩ
▁ልምምድ
▁ሰራሕተኛ
##ብዎት
▁ተናገ
▁ኣሎኹ
▁ኤር
##ርእይ
▁ገሊጹ
▁መረጃዎች
▁ቱርክ
▁ብምዃኑ
▁ፈገግ
▁ሊረዳ
▁ዝተበ
▁ዩኒቨርስቲ
##ሓኒ
##ዕምሮ
▁ፈጥ
##ገብራ
##ወትር
▁ቀጺሉ
##ስበው
##ቀሱ
##ኵሉ
▁ውስብስብ
▁ላሉት
##ና!
##መዘ
##ከሉ
▁መገናኘት
▁ግዲ
##ወስዳ
▁ሩስያ
▁ፕሮግራሞች
▁ምልክታት
▁ዓውዲ
##ይዝ
##ሞቹ
##ጄሪያ
▁ተመን
▁ግብይት
##:23
##ሕ።
##ሀል
▁ተለይ
▁ትገብር
▁ሃንደ
▁የአካባቢ
▁ምስራቅ
▁እፈልጋለሁ።
▁ተቋም
▁ኣስተው
▁የክርስቶስ
▁ከካ
▁ግንባታ
##ለች፤
▁ወለድ
▁ባህርያት
▁ኣህጉራዊ
##ያር
▁የራሳቸውን
▁ክካየድ
▁ሓደስቲ
▁በተለየ
##ሰማው
▁እችላለሁ?
##ሕስ
##ጠቅም
▁ተገል
▁ርቀት
▁ይችላሉ?
▁ቕድ
▁ኣምላኸይ
##ገጽ
▁ንምቕ
▁ራእ
▁ዘመናት
▁የሚሠራ
▁300
##ሰማም
▁ዝነበረ።
##ክሲኮ
▁ይጀምራ
##ጣው
▁አዋቂ
▁ምክንያቱ
##ረጋጋ
▁መብቶች
##ሕግዙ
▁ብተመ
▁የወደፊት
##ባቸዋል።
##ህሳስ
##ጎን
##ነቕ
▁"መን
▁የምስ
▁ማንነት
##ሁለቱም
▁ተጋደልቲ
##ፈና
##እቱ
▁ሰራዊ
▁በአለም
▁ዓይኖ
▁አውጥ
##ሞክራ
▁ኣሕሊፉ
▁ሠር
##ወልድ
##ት፣
▁ዝዛረብ
▁ብዙኅ
##ለህ፤
▁ሐዋርያ
▁ዝወጸ
▁ጥፍኣት
▁ስዉ
▁ተፈሊ
▁ሰይጣ
▁እናመሰግናለን
##ራቱ
##ጆቻቸው
▁ዘይፈልጥ
▁ተመሃሮ
▁መጺኦም
▁(1)
##ልታ
##ነበራ
##ጽፍ
▁ኣገልጋ
▁ያስታው
##..."
##ነፍስ
##ያድ
▁በፓ
##ባቸው።
▁አስተዳ
##ፈትዎ
##ወንጌ
▁የግድ
▁የተሰጠ
##ጸረ
▁ይለኛ
▁ሚዛ
##ረው።
▁ይመስል።
##፡"
##ፕል
▁ይጫወ
▁ኸሎ
##vious
▁ደካማ
##ሃነም
▁በግብፅ
▁የኾነ
▁ከከም
▁እንበር
▁ማቆም
▁ፈጠራ
▁ከለኻ
##ዕድመ
▁ይሞክሩ
##ም!
##ጥበ
##ከቡ
▁ንፈ
▁ንኤ
▁"ናብ
▁አልነበሩ
▁የምርት
▁"እግዚአብሔር
▁የማት
##ሆናቸው
▁ትዕዛ
##በካ
##ኸፍ
##ዞን
▁ንጹሕ
▁Instagram
▁ኣገደስቲ
##ተዉ
##ጠጥ
##ወቂያ
##ደላ
##ሮኒ
▁እኽ
▁ለመገናኘት
▁ኢንተርኔት
▁የከፋ
▁ኣድላይ
▁to
▁ቖ
##),
▁የላቸውም
▁ዚነብሩ
##ዎቹም
▁በጃኻ
##ሉው
▁ንሽ
▁ዓስ
▁እየሞ
▁ዚሕ
▁ቢሊዮን
▁አለብን።
▁አያውቁም።
▁ጠንቂ
##ውት
##ማሚ
▁መመልከት
▁ነው:
▁ሓባራዊ
##ብልን
##ንግተን
▁መርዳት
▁ተወሲ
##ክርስቲያ
▁ሪፖር
▁ዝወሃብ
▁ንሓድሕዶም
##ግኡ
##ዎታል።
##ፋቱ
▁መእተ
▁ብላችሁ
▁ዝሰር
▁ማለት'ዩ።
##ህን?
▁ፓስ
▁ይፈልጋል።
##ዎች,
▁ወንበር
▁ኣተወ
▁ኣመልኪ
##ጠቓ
##ጣችሁ
▁የወጣ
▁ነሽ
▁ይሳ
▁ማጣት
▁ማሽን
▁የሚከተሉትን
##መመ
##ዳለወ
##ፕላ
##16
▁ስምህ
▁ከይዱ
▁ኣይትረስ
▁ኢኻ፡
##ለዋል።
▁ይሰርሕ
▁ዄንካ
▁መጽሔት
##ሓል
▁የፊ
▁ይር
▁ማረጋገጫ
▁ዓን
▁ጥረ
▁ቀና
▁ለማዳን
▁ያለፈ
##:21
▁ጀሚሩ።
▁ዓርቢ
▁ምንባሩ
##ኖሩት
##ዶም።
▁የጽ
▁ከሆኑት
▁ለፊት
▁ሽግ
▁ሌላውን
▁ጃፓን
▁ካሊእ
##ቆማ
▁ኣድራሻ
▁ሓተት
▁የተነሣ
▁ተኣሲ
▁ተበጊ
▁ሓፍ
▁ዮሃ
▁ዘይኰነስ፡
##ለኹ
▁አወጣ
▁ንጥረ
▁እያንዳንዱን
▁ደጋጊ
##ነቅ
▁የገና
▁ፋሕ
##ነቃ
##ያ፡
▁ግዳይ
##ትንና
##ፈላለዩ
##ንደዚህ
▁ትርጉሙ
##ኣኒ
##ዕዝ
##2|
▁አበባ
▁ክዳን
##መለሰ
▁ከምዘለዎ
##ፍረ
##hat
▁በቃል
##ሰማማዕ
▁ብዝበለ
▁እስራኤልን
##ጠበቁ
##ኩትን
##od
##OS
▁ይኽእሉ።
▁ዝፍለጥ
▁አይመስለ
▁ኸመይ
##ወዳደር
▁የልቦን
▁እዋናት
▁አስባለሁ
▁(ብ
##ለምዶ
▁ነብዪ
▁ኣይኮኑን።
##ቢዎች
▁ክጥ
▁ድሌ
▁ዝተረፈ
▁ጠረ
▁ኪድ
▁ሚስቱ
▁Home
##ህ፤
##ዖም።
▁ኸተ
##ሰብሰብ
▁ትዕዛዝ
##ጽሙ
##ሮሜ
▁ንንጉ
▁ትብሉ
▁ትንቢ
▁ምክንያት,
▁ገጽታ
▁ሓቢሩ።
##ሜል
▁በክርስቶስ
▁በለት።
▁ህላ
##ግራም
▁ይኖርብ
▁ናባኻ
##ይቅ
##ሐሴ
##ጎበ
▁ማብ
▁መስሎ
##መርመር
##ጻም
▁አክብ
▁ለራሱ
▁ካሜራ
##ሽታ
##ፅል
##ቆር
▁እምብዛ
▁ብምእ
##ፈይ
##ጽሖ
▁አድራ
▁ምስት
▁ሰውነት
▁መጥተው
▁ድዩ፧
▁ልጁን
▁ይሠራል
##የኒ
##ቲ፡
▁ንምር
▁የሚያስተ
▁ንእኡ
▁ሰብኣይን
▁ምኻድ
▁re
##ዓቱ
##ካሚ
▁እረፍት
▁መርከ
▁ኸምኡ
▁ብዘሎ
▁ንእግዚኣብሄር
##24
##ቋረ
▁ከነሱ
▁ያዘ
▁"ኢ
▁በተወሰነ
▁ምርቶችን
▁46
▁ብሓን
▁ያሳያል
##ቸዋል፤
##ack
▁ፈሪሳውያን
▁በተቃራኒ
▁ተንቀሳ
##ልናን
▁ንምፍላጥ
▁ባለቤቴ
▁ግዙፍ
▁ተንስ
▁ክብለ
▁ላይ.
▁ምስማዕ
▁አይደለች
▁በእውነ
▁ፈሊጥ
##መልከቻ
▁ለንደን
##ዩ?
##ዳ።
##ራረ
##ቓት
##ፃር
##pt
##ሷን
▁ኣመስ
▁ተዘር
▁ዜግነት
▁ራብ
##ጸይ
##ዳል.
##ዙ።
▁ዝል
▁ደብረ
##ኩም?
▁በይፋ
##ላሊ
##ተኞቹ
▁ከዘ
▁ዳኛ
▁ነበረች
▁እንዲያገኙ
▁በመጀመሪያው
▁ብቐጥታ
▁ጠየቀ
##ህ፣
##ድገት
##ሳቁ
##ዐ።
▁ኣዛ
▁የዘላለም
▁ሚኒስቴር
▁ጅግና
▁ኣጸጋሚ
▁በሁለቱም
▁እንፈልጋለን
##ይረ
##ፐር
▁እከይ
▁ኣሽሓት
▁ዘካ
▁"ክ
▁ኣይትፍር
##ገራችን
##ዓና
##ቕታ
▁ክትሕ
▁ዘለካ
▁እንተኾነ፡
▁ዘላቂ
▁በነፃ
##ጻሕፈ
▁መቓብር
##ሉይ
##ጣቢያ
##ጓጓ
▁ስዕ
▁ለናንተ
▁ያደረ
▁ሓዳ
▁ደቁ
▁ብዛዕባኡ
▁በደቡብ
▁l
##'ዉን
##ቆሙ
▁የዳ
▁የፓ
▁ይጸ
▁"ምን
▁ጊዜ፣
▁የተፈጥሮ
▁(እና
▁ተገሊጹ
##፡3
▁ኣታዊ
▁ከጓደ
▁ብማዕ
▁ሳያ
▁ብምት
▁ደርሶ
▁ረኺበ
##ግዜ
##ተናል።
##ጠኑ
##ዲን
##ጧል
▁መከተል
▁ከሐ
▁ዝጥ
▁ንምእ
▁ፕሮፌ
▁ነገሥታት
##በታል
##መታ
##ገሉ
##ሳም
##ሩቅ
▁መዓት
▁ዓወ
▁ኣሎካ።
▁ንምት
▁ሥነ
▁ጀርባ
##ፈልጉት
##ለወጠ
▁መልክተኛ
▁ለመውሰድ
▁ፈው
▁ዝግጅት
▁ለማንበብ
▁ኣሰራርሓ
▁ትሽ
▁ለመመለስ
▁በትክክለኛው
##ወልደ
▁ግለሰብ
##ows
##ጋዚ
▁47
▁በየአ
▁ትናንሽ
##ጸባር
##ፃእ
▁የጦር
▁የሚተ
▁ጥናቶች
▁ሌሎቹ
##ጥፍእ
##ፈጸሙ
▁እራሱን
##ካሄድ
▁የሚሆነ
▁እያ፡
▁ሥራው
▁ነኝ፤
▁ብንጹር
▁ደጋግ
▁በጥንቃቄ
##ፍሕ
▁አለ፤
▁እሱራት
▁ከምዝነበረ
##ገለጠ
▁ኣምጺ
▁ዝበዝሕ
▁ይመስለኛል።
▁ምምላስ
##ቀበሉ
▁መንደ
▁ምስኣ
▁በአንዱ
▁በነጻ
##ልጠና
##ካኒ
##ኤም
▁የጊዜ
▁መቁ
▁ንዂ
▁ግጭት
▁ሲቪ
▁የአካል
##ናል፤
▁ብምጥ
▁ለማሳደግ
▁የፈጠራ
▁ኣይከኣለን።
▁ኣማልኽቲ
##ኖን
##መሰግ
▁እርስዎን
##ጠይቁ
▁አሳልፎ
▁ወተሃደራዊ
▁የጌታን
▁ዮሓንስ
##በይነመረብ
##ቀፍ
##ፋፍ
▁ይይዛ
▁ተናገር
▁ሓለዋ
▁መዓልትን
▁ወሰደ
▁ብቕዓት
##ብሮ
##ዎታል.
##ሙስ
##ዶ።
▁አሰል
▁ዝህል
▁ላይም
▁በመንግ
▁ድርጊት
##ዘጋጃ
▁ግለሰቦች
▁ይጠቀማ
▁ኣይደልን
▁ይልቁንም
##ሳሲ
▁ለሁለት
▁ኮርያ
▁በሚቀጥሉት
##ይስ
##ነፈ
##ቀና
▁ኸለዉ
▁ኣለኒ።
▁ድልየት
▁ክንድዚ
▁ልቦም
▁ዘይኰ
▁ሳት
▁የአት
▁የሚያውቁ
▁ርእየ
##ክብት
▁ከይተረፈ
##በታ
▁አጠፋ
▁ብክ
▁ሊወስድ
▁ተመክሮ
▁ቢኖሩ
▁ዲዛ
##ብራውያን
▁ከመጀመሪያው
##ተ-
##ጥል
##ሁም
##ሻገር
▁ይደረጋ
▁በተደጋጋሚ
##ወርቅ
▁ተዋህ
▁እናውቃለን።
▁መልዕክት
▁ወፍሪ
##ሪቡ
##ዊን
▁ኣና
▁ነቦ
▁ክወስድ
▁ለኢ
▁ኮከብ
▁ነገስታት
▁ቁጣ
▁በሚል
▁እዋን'ዚ
▁መድኃኒ
▁ብተመሳሳሊ
##ID
##ጐድ
▁የዓ
▁ኣፍሪካ
▁የነበረውን
▁ባልደረ
▁ለመቀነስ
##ር፡
##ያሽ
##ጽበት
▁ክገብረ
▁ኣይንኽእልን
▁ክእለት
▁የሚችሉት
##ዘረ
##ስስ
▁ንፉ
##በረሉ
▁ሰውራ
▁ኰን
▁ገብቶ
▁እንደሌለ
##ከብር
▁ብብዝ
▁ሕግን
▁ወይን
▁ብሓይሊ
▁መግቢያ
##ኮረ
##ጹን
##ጪው
▁እሁድ
▁መጡ
▁ይኾኑ
▁ዝጠፍ
▁ኣብቶም
▁ድማ፣
▁ዋይ
##ከተለው
▁በፊትህ
▁ዙር
##መለከተው
##ጅምር።
▁መልዕክ
▁አንደኛው
##ነታቸውን
##te
▁ስሚ
▁ስፖር
▁ተገን
▁ካርታ
##ርማ
##ጻጸ
▁ዝቑ
▁ልቤ
▁ኻብቲ
##ዋ፡
##ፃፍ
▁ለህ
▁ለደ
▁ዋንጫ
▁ጌርኩም
▁ፓሪስ
▁ዙፋን
▁ዩኒቨርሲቲዎች
▁መድሃኒ
▁ሚእታዊት
##ገመ
##ኳይ
##ber
▁እል
▁ከምታ
▁ህጋዊ
▁እዮም"
▁ተሰሪ
▁ወረቀት
▁of
##ያችን
##ጥዓ
▁አዘጋጅ
▁አይቶ
▁ኩራት
▁ብምቕ
▁ጉዳዩ
▁ፍልጠ
▁በውጭ
▁ተመለሱ
▁መንግስትን
▁ስግኣት
##በቁ
##ቅያ
▁ኣወ
▁እንመልከት
▁(2)
▁የተካ
▁ወደኋላ
▁ዶ/ር
▁ቀይሕ
▁እንቋዕ
##ብቆ
##ባለው
##ቴና
▁ዘድልዮ
▁፡-
▁ንምጥ
▁ዝሓለ
▁ምእታው
▁ፎቶግራ
▁ለማምጣት
▁ሚሊ
▁ድርጊ
▁Previous
##ችው።
##ኻ?
▁ይገለ
##ውንት
▁አለው,
▁2006
▁ባዕለይ
▁መተግበሪያዎች
##ድቕ
##ሃረ
▁ሓዋርያ
▁በማን
▁መቀጠል
##ለትን
▁ዘብል
▁ዓርከ
▁ዚቕ
▁ሞይቱ
##መልክት
▁መእተዊ
##ፈነ
▁በየትኛውም
▁ምረ
▁ምቾት
▁ካሉት
##ባሕር
▁ይገኛል።
▁ቅዳሜ
##ጦርነት
▁ተዘጋጅ
▁አምራ
▁ተመልሰ
▁ቀጣዩ
##ሌክ
▁በሪ
▁ዘይከኣ
▁2000
▁ባለሥ
▁ኻባ
▁የቀረ
##ድመ
##ዋሕ
▁ከረን
▁ይከፍ
▁ህይወትካ
▁ኢኮኖሚያዊ
##ጻሚ
##ወያ
##ኹን።
▁ተይ
▁ስና
▁ነው፥
▁እየሆነ
##ንንት
▁መንግስተ
▁ንልዕሊ
##ሪኡ
▁ተፋ
▁ዘገርም
▁ማሻሻ
▁አይችሉም።
▁እውቅና
▁ልዕሊኡ
##:28
▁የማይታ
▁ይሆናል፤
▁የወንድ
▁አያስፈልግ
▁ይጠቀሙ
▁በድንገት
▁አለመሆኑን
##ፕሪ
▁በፀ
▁ያካ
▁ኢደይ
##ፈልጣ
▁ይህንንም
▁ሥራውን
▁የማይቻል
▁ማዕበል
▁የለም፤
▁ዘመቻ
▁ትራንስ
##ለቲከ
##ne
##ሚሩ
▁ነበርና።
▁በአው
▁እምቢ
▁ምኽንያታት
▁እሆና
##በለዚያ
▁ራሴ
▁መዓልቲ፡
##ድብ
##ቫል
▁ነባሪ
▁ዝገለ
▁ስሞች
▁አሉታዊ
▁ጣፋ
▁ሜላ
▁ክብርን
▁ሳዕቤ
▁ብሄራዊ
##ክሉ
##ዕሶ
▁ዝርያ
▁የእነዚህ
▁ቤትካ
##ለመደ
▁ፅቡቕ
▁ተኻይ
▁ችላ
##ሬሽን
▁ከፈ
▁ዝረአ
▁ያደርጉ
▁ጽዮን
▁ትንታ
▁ተፈጥ
▁ያውቃሉ?
▁ለሌላ
▁ውህበት
▁ፍሽኽ
##ውዓል
##0)
▁መሮ
▁ዝሰማዕ
▁የተሞላ
▁ንስኹም
▁በኢየሩሳሌም
##ፍጸም
▁መዚ
▁ክፈልጥ
▁ሓንጎ
##ስተማ
##ታይን
▁ቻይ
▁ያደርጋል።
##ዕለቱ
▁ተመስገን
##ዓታት
##ከኝ
##ቅሮ
▁የቻይና
▁ከርሱ
▁ሰሌ
▁ኣይትሕ
▁ኣባይቲ
##ውዒት
##ፋሉ
▁ይከሰ
▁ናቶም
▁ሲነ
▁'በ
▁ይሄንን
▁ኢኺ።
##ሕብባር
▁ሙስሊም
##ስበ
##s:
▁በግን
▁አመስግ
##ገልጹ
▁ገምጋም
▁ወንጀል
▁ተታሒ
##ce
▁በጨ
▁የሩሲያ
▁"ኣይ
▁ንምዝ
▁እርሻ
##መኝ
▁እሞ፣
##ቸዋለሁ።
▁ብሕጊ
▁ንቕድ
▁ጠላቶች
##indows
##ሌፎን
▁ነው)
##ይንስ
##ደንቕ
▁ዓብይ
▁ይናገራል
▁ንርእሱ
##ካሪ
▁ይፈር
▁ዓይነ
▁ጨን
▁ጨር
##ድሕነ
▁በርስ
▁ወጋሕ
▁ውሰ
▁ድያ
▁ታደርጋ
▁ምእንታ
##ብረሉ
##ቀመጫ
▁ሒዞም
▁ሉቃስ
▁ሕጉሳት
▁ንጉሡም
##ማችሁ
##ሐ።
▁በርግጥ
▁ጥፋ
▁ምድሓን
▁ምዃነይ
▁እንደምታ
▁አስተያየ
##የን።
##አልና
##ኘው
▁የቡ
▁ስጕ
▁(፪
▁የተጠቀ
▁አይደለህ
▁ምዃንካ
▁ርእስ
##ውስኽ
▁ሙሴም
▁ኣምሓ
▁ዘፍጥረት
▁መርትዖ
▁ውላድ
▁ጋር.
▁3.
▁እያደገ
##ቀጥለው
▁ለማስወገድ
▁ተመሊሱ
▁ዝበዝሐ
▁ግዳያት
▁መብራህ
##ራቢያ
▁ያቀር
▁የሚባል
▁ግን፣
▁አንዳች
▁ነቢዩ
##ጠንቀቂያ
##ራራ
##ሃቦም
▁በላቸው
▁ዓሌ
▁ገዳም
▁ለመጫወት
▁አይደለምን?
▁ፍትሕ
##ፈኒ
##ቀሉ
##ፋል።
▁ኣገልገል
▁ውዒ
▁ከእስራኤል
##ርትራ
▁'ቲ
▁ከመጠን
##ባቸውም
▁ቀዳም
▁ከምዘለ
▁ቶን
▁ፈለግ
##ራጭ
▁የሚከ
▁ሲኾን
▁ኣይትኽእልን
▁ተገይሩ
▁መጻፍ
▁የመጣው
##ንኩም
##እል
##ማ።
##og
▁የሃ
▁ንገለ
▁ቁማር
▁ሁለቱን
▁ቴክኒ
▁ችግሩ
▁አቅራቢ
▁ሉቃ
▁እንደሆንኩ
##ፈጥ
▁ተል
▁ሓዱሽ
▁እዩ'
▁ልማድ
▁ባልና
▁ዲያ
▁ምሕደራ
▁ብተደጋጋሚ
▁በዓላት
▁የአምላክን
▁ሕፃን
▁ሎም
##-4
##ደትን
##ኑይ
##ቂዎች
▁በአን
▁ዚግበር
▁ለይትን
▁ኣረጋጊ
##በያ
##ትለት
▁መሃል
▁ተግ
▁ታገኛ
##ግባባት
▁ንሓዋሩ
▁ልቦና
▁በመጽሐፍ
▁ጸው
▁ሽልማ
▁ርእሰይ
▁ጌታችን
▁ባዕሎም
▁ምህላዉ
▁ኣበርክቶ
##'ሲ
##ሰሰ
▁ይወስድ
▁ስማዕ
▁ዘወትር
▁ፍራ
##ሪያው
▁ቤተ-
##ርባን
▁በሌሊት
▁ይቀበ
▁ማህበረ
▁ዓሰርተው
##ፅን
##25
▁የሥ
▁ዝወደ
▁ወብ
##ለሁ,
▁ዘሎ፡
▁ነብያት
▁ወረርሽ
##ሰጣቸው
▁ጨረቃ
##ዙት
▁በምር
▁አዝና
▁የኑ
▁ልባ
▁ጽሒ
##ፈርዖን
▁በጉጉት
▁ጻድቕ
▁ጣልቃ
##ካከለ
##AD
##ራቸውን
▁በእን
▁እንደሚሰራ
▁ተፈጺ
▁ተበግሶ
▁ኣዕሩኽ
▁ህንዲ
▁ፍጥረታት
▁ፍልስጥኤማውያን
▁ለዚያ
▁ሊብያ
▁ክትባት
▁ከአምላክ
▁ኣዝያ
▁በጺሑ
##ካስ
##ኳቸው
▁የብሎ
▁ነፈርቲ
▁ካሲኖ
▁2ይ
▁እምባ
##ናንስ
▁ኃጢኣት
▁ተጠር
##ታቸውም
▁የሌለው
▁እነዚያም
▁ኣምልኾ
##ናሕ
##ke
##ጊዎች
▁ኣዘራ
▁ንታ
▁ወራ
▁ስመይ
▁ለመለ
▁ነበር"
##ሳተፍቲ
▁ሕጻን
##ዎታለን
▁ነውን?
▁አመስጋ
##ly
##ኢሉ
##ሑን
▁እርግ
▁ዚው
▁ኣለኹም
##ጻዕቲ
##ኻእለ
▁ምተ
▁ክሲ
▁ነህ?
▁በመጨረሻው
##ርግጋጽ
▁ርግጸኛ
▁ይግበ
▁እናያ
▁ድኅ
▁በተለምዶ
##መለከ
▁ሰማእ
▁Windows
▁የሚሰጡ
▁የሙዚቃ
▁ዕለታዊ
##ኣትና
▁ትኽእሉ።
▁በአየር
▁ምንባብ
▁ሆኜ
▁በሚያስ
▁ከእነርሱም
▁ይኖሩ
▁ምብጻሕ
▁ክምር
▁ገላ
▁ፈጣ
▁ነበር!
▁ተመሪ
▁እትርከብ
▁ነበሩ.
▁ሩሲያ
▁አልቻለም
##ዩኒ
##ተዋል.
##ሮታ
▁ኣመና
▁የሰራ
▁ብደረጃ
▁ጸበባ
▁ምድላው
##ተረ
▁ኣውሮጳ
▁ማጣ
▁ድሒ
▁ክትዕ
▁ብርክት
▁ንስኻን
▁ዕድሚ
##ቀጥታ
▁ቪዲዮዎች
##ኝ.
##ቕጢ
▁ዘዕ
▁ዘይክ
▁ጸጥ
▁400
▁ማሕበረ
##ኣንስትዮ
▁ሠራዊት
▁ኣይክእልን።
▁ዕብየት
▁ነፋሪት
▁መምህራን
##ጓስ
▁ኣመራ
▁አሎ።
▁ዓሊ
▁አንደኛ
▁55
▁ተገረ
▁ከለና
▁ከእርሱም
##ቴም
##17
▁ተዕለት
▁ለዓ
▁ያጠፋ
▁የአይ
▁መጠንቀ
##ርእይዎ
##ጠራው
##ኾኑን
▁ስራዎች
▁ለማሳካት
▁ቓላት
##ሃይማኖት
▁ፕሬዝዳንት
##መሙ
##ቸስኮ
▁ኣይፈ
▁ቅሩብ
▁ፈረስ
▁እስር
##ውልድ
▁ክህብ
▁ሓቢርና
##ልቶ
##በሰ
##ሬው
▁ካሳ
▁አይኮነ
▁ዕጣ
▁ቅድመይ
▁(አስታውስ
▁ብዝተፈላለየ
##ሞም።
▁ሃሳ
▁ዚገልጽ
▁ሞኝ
▁መዝና
##ለመደው
▁ብብዝሒ
##ዕራ
##ደጉ
▁የሁሉም
▁ተጠና
▁ትሑት
##ክኒክ
##ጋችሁ
▁ከዓለም
▁ከነዚህ
▁"ኦ
▁"ምስ
##ለሁ፥
##ነበረበት
##ክርስትያን
▁ትኸውን።
##ጥበብ
##ዎን።
##ሳል።
▁እጆች
▁የረጅም
▁ዘላ።
▁ናይ'ዚ
▁ኣየድል
▁ጐይታና
▁ቈልዓ
▁ለካቲት
▁ቄ
##ዕራብ
##ውቀ
##ፍጥረት
##ጉስ
▁ይደር
▁ተጠቀም
▁አባቶች
##ረጋግጽ
▁ወጥቶ
▁ለበዳ
##ታንያ
##ውዒ
▁እደሊ
▁ሰሜ
▁የሚፈልግ
▁ገፅ
▁ለመመልከት
▁ሊታ
▁'ተ
▁ሙቀት
▁ንምድሪ
##ine
▁ዝቐረበ
##80
##ቶ፡
##ቃሉ።
▁የሠ
▁ብብዙሕ
▁ወይ?
▁የእናንተ
▁ወንድሜ
▁ንዘሎ
▁መንግስታዊ
▁]
##ብላት
▁ኣይበ
##ሁለቱ
▁መናእሰይ
▁ንባዕሉ
▁ማነው?
▁መቸም
##ምረት
▁ዝማ
▁ተኝ
▁ተርእዮ
▁ዛጊት
▁ይዘው
▁ዀነ፡
▁ሀሳቦች
▁ጠፊኡ
▁ኣገልጋሊ
##ዕ፡
##ኢቱ
▁ይውሰ
▁ክክክ
▁ትነብር
▁ዝተጠቕ
▁ኣለኩም።
##ስትዮን
##'ዚ፡
▁ሐዋርያት
▁ደቀይ
▁እህት
##ጽአ
▁እቃ
▁መቻል
▁ብሔር
▁ብግዜ
##ዛም
##ቧል
▁ኣውራጃ
##ደንበኞች
##ንጋ
▁በጨለማ
▁አድራሻ
▁የሸ
▁የህይወት
▁ከፊት
▁ዝገልጽ
▁ያቀርባ
▁መጠቀ
▁ኣስዒ
▁ፓርክ
▁ዝርርብ
▁ተመልከ
▁ማሳየት
▁(አስታውስ)
▁and
##ዝብ
##ኣካ
##ፍሉ
▁መኪ
▁ንርአ።
▁ጽብ
▁65
▁ይታወቃ
▁ያገኛሉ
▁የኤሌክትሪክ
▁በጋራ
▁ዝፈር
▁ተለዋ
▁የሚወ
▁የአፍሪካ
▁መብጽዓ
▁የስፖርት
▁አደረገ።
##ሪያን
▁ይከተ
▁ባቡ
▁እንዳላቸው
##ለይ፡
▁ዘንድ.
▁በለቶ።
▁እስኪያ
▁ርግጽ
▁ይጀምራል
▁←
##ኮታዊ
##ደራል
▁ከግምት
▁ኣይሰ
##ላትኩም
▁ብምም
▁ድሕሪኡ፡
##ጠራጥር
▁ክፉት
▁New
▁ስዊዘርላንድ
##ፍጽም
▁ተቆጣ
▁ዘመኑ
▁ትሓ
▁ባት
▁አሉ,
▁ገሊፆ
▁ፍቓደኛ
##ዘራረብ
##ዩተር
##መጨረሻ
##ሰቃ
▁ማያ
▁ሞክ
▁ቁሳቁ
▁እናም,
##ረኸበ
▁ደብዳበ
##ተመ
##ወዝ
##ከዚያም
▁ብየ
▁ዝህብ
▁ጋራ
▁ዕም
▁መርሃ
▁"እንታይ
##ግሮ
##ኳኑ
##ቁ.
▁ብከ
▁የሚመጡ
▁ስምም
##ክእሉ
▁ተመልሰው
▁ጀመርኩ።
##ን፤
##ጋንዳ
##ዳችሁ
▁ክሳ
▁ዘጠኝ
▁በመጣ
▁በተያያዘ
▁'አ
▁ጀግና
▁ቤተይ
▁የባለ
▁ማጥናት
▁ደቀንስትዮ
▁አይቻልም
##ኩኹም
##ዳግ
##ደመ
▁የሕግ
▁ይዋ
▁ኣለኒ
▁አስከ
▁ቅድስት
▁ከምዝኽእል
▁ባለመ
##ረምት
▁ጓደኛዬ
▁ባለቤቶች
##ኣ።
##ክዕ
##ቓሕ
▁መፈ
▁እንደምና
▁ዕማም
▁ለምሳሌ,
▁ተከታዮች
##|3
▁እኒ
▁ብሂ
▁ርዝ
##ምህሮ
▁አጋማሽ
▁ፕሮጀክቶች
▁አዝማ
##የውን
##ለቆ
##ፎቶ
##ሆም
##qu
▁በሆኑ
▁ተከተ
▁(ወይም
##ትን፡
▁ለመጎብኘት
▁ሰውም
▁ከይዲ
▁Tag
▁ዘመነ
▁የሚሰጥ
▁በሳምንት
##ረዝ
##ፋኑ
▁መደረ
▁ዓድና
▁ኪኸ
▁ዘሎኹ
##ግባብ
▁ረቡዕ
▁ኣልዒ
##ተፍ
##ዴራል
▁በኃ
▁ቀትሪ
▁ነገርን
▁'ከ
▁ነይራ
▁ታሪኮች
▁ፍራንቸስኮ
##ጻወት
##ሽት
▁የሙያ
▁ሕራይ
▁ምንጮች
##መልሰ
▁አስፈላጊነት
▁ኲሎም
▁ኢኹም፡
▁ማስተዋል
▁(ማቴዎስ
##ደሰቱ
▁ኣይነበሮን።
##ካ?
##ጎል
▁ነፋስ
▁ህጎች
▁ለመከላከል
▁ኣምላኽካ
▁መቃብር
▁፴
##ላሴ
##ግቡ
##ረኩም
▁ኣቃ
▁ሓሚ
##በልዑ
▁ሙያ
▁አውቀ
▁ታውቃለህ
▁ይሰጣል።
##ለ፡
▁መኸ
▁እንታ
▁ግበሩ
▁ደቓይ
▁ስለምን
▁ለመሞከር
▁ጠቕ
▁እናንተን
▁ይሰጠ
▁ካንሰር
▁ካቶሊ
▁ፉ
##ምን።
##ድይ
##ሙኒ
▁በበለጠ
▁ቀዝቃዛ
▁የተሟላ
▁ጸሓፍ
##ብራሂ
▁ወጋሕታ
▁e
##ጠፈ
##ሯዊ
##ኅን
▁አሏቸው
▁ሰኔ
▁ያውቅ
▁ኩናት
##ፈልጋቸው
▁በዚያው
▁ኣካይዳ
▁አምልኮ
▁ተሰሚዑ
##ግዒ
##ርፎ
▁ደስተኞች
▁የሚሰማ
▁ክትሓ
▁ውድድ
▁የነበራ
▁የሚመጣው
##ንቂ
##ሰሳ
##ዱር
▁በቶም
▁አረጋግ
▁ብሚ
▁ናችሁ።
▁የሚገኘው
▁ክንርኢ
▁ጣዖ
▁ኣመሓ
##ጫወቱ
▁የደህንነት
▁ብውሑ
▁ግዝኣት
##በበ
##ጣቸው።
##ቡኒ
▁ይኑ
▁ዘኽእል
▁ይህል
▁አልፈ
▁ርኣ
▁ክንቅ
▁ቴሌቪዥን
▁ማስቀመጥ
▁እንዳለባቸው
##ገነይ
▁ፍጻመ
▁ውሑድ
▁አፈፃፀ
##ኩሞ
##ውታ
##ውም።
▁እራሳቸውን
▁ነሓሰ
▁እናስ
##ለሁ!
▁ለማሸነፍ
##መስረት
##ከልቲ
▁ይሻላል
▁ንኡስ
##ውቀት
##ስሕ
##ጋብቻ
##ዳጅ
▁ለሕዝቡ
▁ከምን
▁የተስፋ
▁ዘይኮ
▁ኣነውን
▁ይሆናሉ።
▁የሆኑት
▁ቀርቶ
▁ወያኔ
▁ወኪል
##ክበር
##መቅ
##ዋለን
##ኖቼ
▁ይቅ
▁ክውን
▁ውስን
▁አልጋ
▁ይጠራ
##በላሸ
▁"ኣምላኽ
▁አንዳንዴ
▁ብዘይካዚ፡
▁ፊልሞች
##ግባት
##ችውን
▁ሕብረተ
▁ለማንም
▁ንኣቦ
▁ለጥቂት
▁ዮርዳኖስ
##ላጅ
##ዕቢ
##ተኣ
##ደቱ
##ሽተይ
▁የሕዝብ
▁ንሙሴ
▁ሃገሮም
▁ለመስማት
▁መረፃ
▁ብዘየገድስ
##ነግራ
##ment
##ሆች
##ጾም።
▁የብለ
▁መሕ
▁ነዉ።
▁ከዚያን
▁እዚያው
▁ዘይብ
▁ኣሎኒ።
▁ቃንዛ
▁አስተናጋ
##ገሱ
##ርፊ
##ዷል
▁ማቴዎስ
▁ኣይኣ
▁አይሰ
▁አንስቶ
▁ጠበ
▁የመረጃ
▁ኢና፡
▁ዝግበ
##ራሳችንን
▁ዴሞክራሲ
▁ጠቅላይ
##እምማን
▁መትከል
▁ዝረኸብ
▁ዳይሬ
▁አዲሱን
##ወሉ
▁ይጸል
▁ምቁ
▁ዝሰርሑ
▁ውሸት
▁ደሃይ
▁ብርኪ
▁ንገሩ
▁ዅሎም
▁(፪x)
##መጣም
▁ክርኢ
▁ትበ
▁ያለም
▁1)
▁አለን።
▁ጽኑዕ
▁ጠው
▁እውነቱ
##ሃል፤
▁ባዕልና
▁ምኽንያቱ፡
▁በፈረንሳይ
##ኣንን
##ገማት
##ጽሎ
▁ይግብኣ
▁ክፈት
▁(ያ
▁ስምካ
▁ደቂ-
▁ጣፋጭ
##ዩና
##ነታችን
##ድዎ
##ቀዱ
##ልካ።
▁ብሓዊ
▁ገንዘብን
▁በዓልቲ
▁ቶሎ
##ዘሎ
##ጉይ
▁ከቅርብ
▁ምላ
▁ተሳተፍቲ
▁ሕሰብ
▁ካብዞም
##መስሉ
##መልእ
##መልካም
##መርቲ
##ብራራ
▁ስብከት
▁አገልግሎቶችን
▁ሰጥቶ
##ልጡፍ
▁እንመ
▁ኢሰያስ
▁የተገነባ
▁ቡን
▁ስደተኞች
▁ምህላው
▁የነበሩትን
▁አድነ
▁ዝበዝሑ
▁›
##Tube
▁ዝደል
▁ሓጊ
▁በመተ
▁ሳንቲ
##ገባው
▁ጎብ
##ወንታዊ
▁የቀረበ
▁ተሪፉ
##ebook
##ኋቸው
##ኻኸ
##ታትኩም
▁እነርሱን
▁ተቐባልነት
▁ያውቃሉ።
##ሕዛ
##ሕድሕ
▁በጠ
▁የዛሬ
▁መተው
▁ከይወ
▁ኣብዘን
▁እናቱ
▁እንደ.
▁ክትረኽቡ
▁ሰውዬ
▁የማያውቁ
▁"አይ
▁የኢኮኖሚ
▁ይገኛሉ
▁መካከለኛ
▁ቝ
##ቐስ
▁በሰማያት
▁ትቕ
▁ውጊያ
▁ዓለማዊ
▁የሚሰራ
▁የሚመራ
##ጊዜም
▁ቦታን
▁ፖለቲከ
▁ንዝኾነ
▁ቆይቷል
▁ምኞት
▁እገዛ
▁ብቓ
▁"ዓ
##በርግ
▁ሃና
▁አንችልም
▁ተረዲ
##ብ፡
##ry
##ሞታ
##1|
▁ይገድ
▁ለታ
▁ፈተ
▁በተፈጥሮ
▁ብዘይም
##ወለዱ
▁መንገዱን
▁for
▁Z
▁2,
##ፈለጠ
▁ብኣንጻሩ
▁ከወንድ
▁ንቕድሚት
##ሳቢ
▁ይገልጽ።
▁ንቤት
▁ክብረት
▁ሓዋርያት
▁ዘይኣ
▁በመቀ
▁ለማገልገል
▁በአማ
▁የሚያደርገው
▁ግብፅ
##ሰይፍ
▁ነጥቦች
▁የዚህን
##ቆጣጠ
▁ይኖራል።
▁ርስት
▁ፓርላማ
##ይም
##ጨን
##PS
▁ክኣቱ
▁ስለነበር
▁ኣንፈት
▁ስጋት
▁ፈርዖን
▁ሰባትን
▁'ዩ።
##-እ
##ባውያን
▁ድራር
▁ሕጽ
##ይወቱ
▁ሞባይል
##ተንስ
▁St
▁የሚሰሩ
▁መላክ
▁ታሪካዊ
##ልኩ
##ጋዜ
##፣"
▁በኦ
▁በሦ
▁የቅ
▁ማመልከቻ
▁ደድሕሪ
▁ስለሌ
##ስፋት
▁ተቐቲ
▁ቻር
##ጽዕር
▁የበላይ
▁ትምህርትን
▁እንስሳታት
##ላሕ
##መጠ
##ለንም
##ዐት
##_"
▁ግራት
▁ገመድ
▁በሚሊዮን
▁በእርግጥም
##ord
▁ቐዳማይ
▁ንብዓት
##ን.
##ዋፍ
▁የሴት
▁እናኣ
▁(ሮሜ
▁ሓደሽቲ
▁መጻምድ
▁ምህረት
▁መገኘት
##በል።
##የትን
▁አትፍራ
##ረንጓ
▁የተሻሉ
▁ባህሪያት
▁ላል
##በጥ
##ኩላ
##ደልን
##ሽ።
▁ክምል
▁""
▁(ኣብ
▁አለብዎ
▁ዲጂታል
▁ከምኡ።
##ወደድ
▁ተፈጸ
▁ንእስራኤል
▁2005
▁00
##co
##ቆመ
▁መሰው
▁ፍርሒ
##ህዝቢ
▁ይመስለኒ።
▁ቅድሜኻ
▁የአትክልት
##ሓና
##ላቸዋል።
##ሊኡ
▁የበረ
▁ዘድ
▁እዩ፥
▁ክንገብሮ
▁ኮነ።
▁እመኑ
▁መገንባት
▁ማርያ
▁ለመፍታት
▁የአእምሮ
▁ዓይነታት
##ኖርበት
##ከፍል
▁ፍልል
▁ድኻታት
▁ሓለቓ
▁ድኽነት
▁መደምደም
##ብት
##ረኞች
##ያል.
##ጅን
▁የሲ
▁ንጐይታ
▁ያዩ
▁መጠጥ
##ላለች።
▁ጨው
▁ፋይል
▁ትችላለህ።
▁ሓለፍቲ
▁ድራማ
▁አዝማሚያ
##ጋለ
##ሕይወት
▁ክትን
▁ለሆኑ
▁ኣብዝ
▁በአዲስ
▁ምርኮ
▁ኖህ
▁ቁጥሮች
▁ያደርገዋል
##ና.
##ጽጻር
▁በጀርመን
▁የደረ
▁ይስምዓ
▁ማስታወስ
▁ፈጽ
▁እየቀ
##መስልም
▁ከይደ
▁ሌላኛው
▁ሕማማት
▁በኢትዮጵያ
▁@
##ምዎ
##ዛእ
##ፋሕ
▁መዳን
▁ንኸውን
▁ተዛረብ
▁ያንብቡ
▁ጥንቲ
▁ጎብኝ
▁ኢኻ"
▁ኣንበብ
▁ታሪኻዊ
▁በረከ
▁ግንኙነቶች
##ገብረሉ
▁ጥንሲ
##acebook
▁ደጋፊ
▁ኣመንቲ
##ፎ።
▁የሆ
▁ክነግረ
▁ኣይከ
▁(3
▁ርአ።
▁ቪዲዮዎችን
▁ዕለተ
▁እያንዳንዳቸው
▁ያስፈልግዎታል
▁ደቓይቕ
##ላቁ
##ውሉ
##ተራ
##ሽጢ
##ዑዲ
##ቆዩ
▁ትኽእ
▁የሚወድ
▁ካብኣ
▁ዝተረፉ
##ላችሁን
▁ኵናት
##ሙሉእ
##ህበኩም
▁ደንብ
▁የሚፈልጉት
▁ኣጽዋር
▁Play
##ዝራ
##ጳውሎ
▁ስሩዕ
##ግዚኣብሔር
▁እተቐ
##ማንነት
▁ትርፍ
▁አሳየ
##ዳምነት
▁ንደቀ
##ረንጓዴ
##ላለን
##ዘገ
##ዚኡ
##ሁትን
##TV
▁እቶት
▁ምስዚ
▁ፖር
##ጀመርታ
##ርብዓ
▁ተኣኪ
▁ዝቕጽል
▁ተወልደ
##ፋ።
##ኧረ
▁የዲ
▁ከግብፅ
▁ዝሞቱ
▁(C
##ንተን
▁ኮሪያ
▁ያስባ
▁በምንም
▁ፊደ
▁ሊያደርግ
▁"የአ
▁ሳይንሳዊ
▁ሰበይቱ
▁ነዳዲ
▁you
##ገበሩ
##ዋና
▁በገዛ
▁ኔርና።
▁ኣሕመድ
▁ዘጋጠ
▁የተባበሩት
▁ንበይኑ
##ማማት
##ሳትን
##ፅር
##ኛውን
##ፃሚ
##፧'
▁ወሊ
▁ትህ
▁በእጃ
▁ዕግ
##መስገን
▁ህዝቢ፡
▁ዝነበሮም
▁ኰይኖም
▁ይሰማኛል
▁ተሓቢሩ።
##ዎትን
▁ሰረገ
▁ጥሜት
▁ጊዜ።
▁የተናገረው
##ለውም
▁Ch
▁የምንችለው
▁ኣካላዊ
▁ዘርፍ
▁ብዓይ
▁የቴክኖሎጂ
##ምባሲ
▁አቋም
##ማኝነት
##ጮችን
▁ብኹሉ
▁ኢጣል
▁ጸል
▁አዎ,
▁ዲፕሎማ
▁k
▁ቺ
##ካን።
##ጭሩ
##ፌሶን
▁ከጎ
▁ይብሎ
▁ብድሕ
▁ውላ
▁ተመላለ
##ወንጀ
▁ኢኹም"
▁የካቲት
▁በእውነተኛ
▁አሥራ
▁ክፋት
▁ማለፍ
▁ሓደራ
▁ግዜን
##ታውቅ
▁በልጅ
▁እስራኤል፡
▁ምጥቃም
▁የተወለደው
▁ንንጉስ
▁ዓርከይ
##ምንም
##ዳዩ
##ዲሙ
##ጲላ
##ኗኗ
▁ዝሐ
▁ሓመድ
▁ላይሆን
▁ውስጥም
▁ህው
▁በአዲሱ
▁አልገባ
▁የምፈልገው
▁ነበረ፡
▁አሮጌ
▁መግዛእቲ
##ዎ፣
##ደበት
##ሳሉ
##ሞክር
▁አሞ
▁የሉም
▁ከግ
▁ሓልዮ
##ብዛዕባ
▁አልቻሉም
##ww
▁የጠፋ
▁ዘኽ
▁ደቆም
▁ነበረች።
▁ክርክር
▁ዝምልከ
▁ከምቶም
▁ኣይሕ
▁ባየ
▁ቤቴ
##ነው፤
##ሰንበት
▁"አሁን
##ቀጥል
##ገኝም
▁በዓመት
▁ጕድ
▁ባንኪ
▁ኣይኮንኩን።
▁ስሙን
▁ዘመድ
▁ያጣ
##ነት።
▁ማስጠንቀቂያ
▁ስላለው
##ስራኤላውያን
▁ነጋዴዎች
▁Q
##ጠቀመ
##ቸት
##ሐጕ
▁ዜማ
##ችኋል፤
##ፈልጦን
##ከባቢው
▁መስፈርቶች
##ሀን
##ቡም
▁የኛ
▁ኢ-
▁በዚሁ
▁ዩክሬን
▁ጥምቀት
▁የተሳሳተ
▁ይርከቡ።
##ማቾች
▁የተሰጠው
##ለምንታይ
▁የፕሮ
▁ትኹ
▁ጸቕጢ
▁ረዳት
▁ምሕሳብ
▁ምሳታቶም
▁ኣውስት
▁አውሮፕላ
##ሃህላ
##ዓዪ
##ኞቹን
▁ኣያ
▁ኣንስ
▁ተገዲ
▁ልኢ
##በር።
▁መሰና
▁ጎደና
▁ክርስቶስን
▁ቀዳሚ
▁ይበሃል።
▁ተልእኮ
##60
##ጠጡ
##ሁት።
##ቂኝ
##ቆብን
▁እራት
▁በወር
▁ከሲ
▁ብነጻ
▁ያያ
▁ቀረብ
▁ዚነብር
▁ቁፅ
##ርከስ
▁ማስወገድ
▁መግለፂ
▁መነሻ
▁ጻዕዳ
▁የእርሱን
▁ትሕትና
▁መገለጫ
##ነቲ
##ተካ
▁ለመለወጥ
▁ህይወቶም
##ጋገብ
##ቡጥ
##በልኩም
▁ኣንበሳ
##ናገሩት
▁ድምፂ
▁ወከፍና
▁ዅነታት
▁<<
##ን!
##ፈርት
▁በጊዜ
▁የጭ
▁ክንዳ
▁ራስን
▁ምድብ
▁መጻእ
▁ኣእዳው
▁እንተዘይኮይኑ
▁ዳዊትን
##ቐል
##ከብራ
##ሸጡ
##13
▁መጨመር
▁ከመን
▁ብጉ
▁ምነው
▁ደሴ
▁ልጥፍ
▁ጥገና
▁ፍን
▁ለመዋ
##:27
##ቤቴ
##if
▁በሜ
▁ብግብሪ
▁ገዢ
▁ባሉት
▁(S
▁ሰብነት
▁የአለም
##ሮም፡
▁ለአን
▁ኣገዳስነት
▁ቀጥሎ
▁አግኝቷል
▁ምሥክሮች
▁የግብይት
▁ሰብኡት
##ኮም
▁ኣጀንዳ
▁ለነሱ
▁(ኣ
▁ጊዜ.
▁ዮናስ
▁ተዳል
▁መንደር
▁(A
▁ዘይሓ
##ቶችም
▁የመኪና
▁ቢሆኑ
▁ቆሞ
▁ይመጣል።
▁ማለቴ
▁መፍራት
##በተ
##መጽ
##ቶቻችንን
▁እዉን
▁የጣ
▁የፈጠረ
▁ይችል
▁ዝኮነ
▁እቲ፡
▁ቢሆኑም
▁ኮምፒውተር
▁የጃ
▁ዝሞተ
▁ትደልዩ
▁ሳኦ
▁ንዝብል
##ላሉ.
▁የኢትዮጵያ
▁ቱሪዝም
▁ሰሌዳ
##ጋድ
##ቢድ
##ጓል
▁ኣኺ
▁የሱ
▁(E
▁ኸነ
▁ጠለ
▁ሙታን
▁ወለደ
▁አጋር
▁ወዳጄ
▁on
##ልቦ
##ሎስ
##ካችሁ
▁ትኸ
##ነትን።
▁ዝተዛረቦ
▁በሰሜን
▁ውጤቶችን
##ለፈው
##መንግስት
▁ይሰጣል.
##ዝጊ
##ዘት
##ሰኝ
##ቆረ
▁መብር
▁ዝከኣ
▁ትግል
▁የተዋ
▁ዝተመር
▁ጠባይ
##ተኛት
▁አላውቅም።
▁ይኹን'ምበር
▁በመስጠት
▁ሓጥያት
▁የተጻፈ
▁አቃ
▁የሮ
##ንድር
▁የለበትም
▁ደምበ
▁ማለቱ
▁የፈረንሳይ
▁ማውጣት
▁ህልውና
▁እላለሁ
##አር
▁በሶ
▁ዝፈጠ
▁ለራስ
▁ድየ
▁እየፈለጉ
▁ኣለኻ።
##መልሱ
##ንስሳት
▁በላይ,
▁በለኒ።
▁ኔሮም።
▁መረጃን
▁ማህበር
▁ጩኸት
##ናሉ
##ዙን
##ሃለወ
##ኃት
▁አሰራ
▁ከረ
▁ስቓይ
▁የሚሉ
▁የሚቻል
▁አለበለዚያ
▁በመሠ
▁ኮቪድ
▁ኣለኩም
▁ኢና!
▁ያስደ
▁ኣባጊዕ
##ity
▁ሰሚዐ
▁ትምህርቶች
▁ቁርኣን
▁ዓውደ
▁አያውቁም
##የሽ
##ሕትና
##ሽሽ
##ሮው
▁የጀርመን
▁ይለያ
▁ንመር
▁"ለምን
▁የአው
##ግባቡ
▁ሃገሩ
##:29
▁ፍልይ
▁ተቓወምቲ
▁ዳዊትም
▁ብሓንሳብ
##ልዋ
▁ጠንክ
▁አስር
▁አፍቃ
▁(ዮሓ
▁(ዮሐንስ
▁የመንግስት
##ፍራት
▁መኖ
▁ንከ
▁ኣይወ
▁1x
▁ለመቆየት
▁ጠቓ
▁አልባ
##ሓትት።
▁እንጂ።
▁ሪፐ
▁ለመቀጠል
##ንሱ
##ቀብ
▁ቀንም
▁(19
▁ኢትዮጵያውያን
▁አደጋዎች
##ንቀሳቀስ
▁ብሉይ
▁መገድታት
##ሕዋ
##ቢሩ
##ራዕ
##ዖንም
##ሶ።
▁ዝቖ
▁ሓፋሽ
▁ኣይበል
▁ገዳይ
▁ወደቀ
▁በእንግሊዝኛ
▁ፈንታ
▁ዝተፈጸመ
▁በአስ
▁ኣምባሳ
▁ጉድጓድ
▁መገሻ
##ድገ
##ዜና
##iv
##ቧን
▁እሰ
▁በጣ
▁በሩሲያ
▁የያዘ
▁ንጎ
▁ታናሽ
▁ክትም
##ባልን
##ፈለየ
▁ሆነን
▁ዩሮ
▁2004
▁መተማመን
▁በኢንተርኔት
▁ኣኽራን
▁ዔ
▁ብቋንቋ
▁ወሃብ
▁ዘሎና።
▁አይደለም?
▁150
▁እዋኑ
▁ያስፈልጋል
##ዛይ
##አብ
##አለሁ
##ጊድ
▁ለቤተ
▁(ይህ
▁ኤም
##ንግሊ
▁ንኣኻ
##ren
▁ሶማል
##ህበና
##ባብሮ
▁ብስክ
▁መዛሙርቲ
##ሲካ
##ርጋ
▁በለት
##ለች.
▁አለው:
##ሠራው
▁ተኣምራት
▁ከሌላው
##icle
▁ተብለው
▁የጨዋታ
##ዳሉ።
▁እቅ
▁አተ
▁ደረት
▁ሕተ
##ትንስ
##ለን"
▁ዘሎኒ
▁መለሱ
▁ክወጽእ
▁ሽማግሌዎች
▁YouTube
##ተጨማሪ
##ጻብ
##ያቸውን
▁እንደነበሩ
▁ደንበኛ
▁ንድኻ
▁ተወዳዳሪ
▁ወልድ
##ዓዝያ
▁ተዛሪቡ
▁ያለንን
▁ኮይንካ
▁አቤቱ፥
##ታ፡
##ቀሩ
##ሃለ
##500
▁እምላ
▁ገጾች
▁አንጻር
##በልጡ
▁ንእግዚአብሔር
▁ከምዘለዉ
▁ዓለምለኻዊ
▁የብለይን
##ልምና
##ታችንም
##ርዓት
▁እጁን
▁ከኔ
▁ብጀ
▁ንፁ
▁ክሪ
▁ሃፍቲ
▁አላማ
▁ራሴን
▁ሓድሓደ
▁ትእዛዛ
▁ገበረ።
▁ጠረጴዛ
##ፍያ
##ጋቢ
##ችበት
##ደበ
▁ማብራ
▁አይሁድ
##ለንን
▁ረቂ
▁ብዛዕባ'ዚ
▁በምድረ
▁ትርጕ
▁ልጆቼ
▁መንግሥታት
▁የብልናን
##23
▁እጁ
▁ከማይ
▁ተክ
▁ማሸነፍ
▁ስለም
▁ለማዳ
▁እተፈላለየ
▁ሸነኽ
▁ዝግጅ
▁ሄደ።
##ቅድሚ
▁ከባቢታት
##ርዳታ
##ተልቲ
▁ጨንፈር
##ላላው
##ገቢ
▁ዝግብኦ
▁ሓጋዚ
##ገዛት
##ረጋገጠ
▁መጣ።
▁መጸለይ
▁እቲኣ፡
##ፍዎ
##ጋባ
##ማምን
##VID
▁መማ
▁ማዘጋጀት
▁ምስታ
▁በተን
##ርእያ
▁ኃላፊ
▁አባባል
##ማንኛውም
▁ጀምሮ,
▁ኻብቶም
▁የፍርድ
▁ነዋሪ
##ብሊ
##ሳ።
##ፃፅ
▁ብለይቲ
▁ወደብ
▁በተግባር
▁ሽጋራ
##ናልድ
##ገብሮም
▁53
▁ያስችላ
▁ሳይቆይ
▁ምግቦች
▁ብመገዲ
▁መኣዲ
▁"ነቲ
▁ጉብኝት
##ህቦም
##ሐት
##ራ፡
##ቆጠሩ
▁እፈ
▁ዘሕዝን
▁ትላልቅ
▁ባንተ
▁በአገሪቱ
▁ጠራ
▁ጉልበት
▁ረዥም
▁ቁል
▁ቆይታ
##ቲካዊ
▁ህንፃ
▁ከታች
▁ሰሙናት
▁አምናለሁ
▁li
▁ብክርስቶስ
▁ዘና
▁ኢራን
▁ኢትዮ
▁ድረ
▁ልማ
▁ሲያስ
▁ምንዳ
▁ነበረበት
##ነጋገሩ
▁ኣዒንቲ
▁ግርማ
▁ከሆንክ
##ነባ
▁ይገር
▁ይግለ
▁ሰደ
▁ዓይኑ
▁ሕሙ
▁ቀኖች
▁ሚድያ
▁እስከዛሬ
##ጢአት
▁ስብስብ
▁ፎቶዎች
##ጫወቻ
▁ሕፃናት
##70
▁ገዥ
▁ለማከናወን
▁ስለዝነበረ
##ard
▁ረኺብ
▁ነቒ
▁ይፈት
▁ትመስ
▁ያደር
▁ደየ
▁ገዚ
▁ገሃነም
▁ባላ
▁ዚስዕብ
▁ለእነዚህ
▁ኵለን
▁ቍጽሪ
▁ተመለሰ
▁ብወገነይ
▁ዝኾና
▁ተመራማሪዎች
##ላን።
##ኮችን
##ትኡ
##ቢቱ
▁ሰኞ
▁ድያብሎስ
▁1ይ
▁ዝተመ
▁ዘሎ?
▁ነንሕድሕ
▁ይኸውን?
▁ክሓልፍ
▁ተራእዩ
##ላችንም
▁ይዛረብ።
▁ተሃ
▁መንስ
▁ለመያዝ
##ኦም፡
▁በዚህች
##መርጣ
▁ብልክዕ
▁አለባቸው.
▁አልቻልኩም
##በቃል
##ሩ፤
▁አቁ
▁ጥዕናን
▁ምስሎች
##ለየ።
▁ተናግሯል።
▁በየአመቱ
▁እጄ
▁ይካየድ
▁ዝጀመረ
▁እናድርግ
▁ገድሊ
▁ኪህል
▁ሙዚ
▁ንምባል
▁ግብጻ
▁ሕይወትና
▁ስለዝተ
▁ሚኒስትሪ
▁ያስፈልጋል።
▁ወንድሞቼ
▁እራሴን
▁ይትረፍ
##ወንጌል
##ታች
##ከመ
##ሀፍ
##ሻለሁ
##ሸል
▁ንህይወት
▁ናፍ
▁እናሓ
▁ከእንቅ
▁ዜድልየ
##ታል?
▁ንዓመታት
▁ብኣካል
##ፈልጦም
▁ጓደኞቼ
▁ቀልጢፉ
▁ወግዓዊ
##ኮስ
##ኸን
##ጀው
##ሃቡ
▁መወሰን
▁ከህ
▁ከሥራ
▁ይወሰ
▁ብብ
▁ዝዘ
▁(ሰ
▁የተገኘ
▁ኮንግ
▁ምንጊዜም
▁የሚያምኑ
▁193
▁ዝበሎ፡
##ንካን
▁ዝርአ
▁የእስራኤልን
▁ይባላል
▁ኣራዊት
▁ሓጎ
▁አይሰራ
▁ፍትሕን
▁ከሌላ
▁በመቶዎች
▁ንምዃኑ
##ጀንሲ
▁ብስክሌት
##ዕኩም
##-ሓ
##ጽብ
▁አዩ
▁"ሓደ
▁(ን
▁2)
▁ሲኾኑ
▁እስልምና
##ዮም፡
▁ተራኺ
##ሰበሰቡ
▁ካባኻ
▁የቦ
▁ይጽበ
▁ደሴቶች
▁ርዱእ
##ናገራ
▁ልብኹም
▁ብልጽ
▁ወላጅ
##ኒስ
▁መሻ
▁ተጎ
▁"ያ
▁የሚናገር
▁ሕሳብ
▁ርሒ
▁ይሰጥ
▁ይሄዳል
##ራሳችሁ
##ጥቀሙ
▁ብቑዕ
##በለት
##ንታይ
##ኝታ
##ባስ
##ሣይ
▁ምሂ
▁ክለብ
▁ለ,
▁ተመልካ
▁ቤተሰቡ
▁ላለው
▁ማእኸል
▁ጥንቃቄ
▁በእኔና
▁ወጺኡ
##ኩባንያው
▁ጥርጣሬ
▁ሃንደበት
##በዩ
##ጋጣሚ
##ተኮር
##ዲድ
▁ምሓ
▁ስክ
▁ዓቅ
▁ታየ
▁አለማ
▁ምርዳእ
▁እንደሚታ
##መጣው
▁ይኽእል?
▁እንግሊ
▁ተዋሳ
▁ስእል
▁ተቃራኒ
▁ባህርይ
▁ይገብር።
▁ወተሃደራት
▁ወታደራዊ
▁ባህርያዊ
▁መሰውኢ
##ht
##ov
▁ማበረታ
▁ያደ
▁ልውው
▁ሊግ
▁ጽኑ
▁አይደለንም
▁ኵላትና
▁የልብ
▁ንመጻኢ
▁ወንዶችና
▁ቀጠሮ
▁ብፁዓን
##ሊዮኖች
##ባባይ
▁የበይነመረብ
▁ቀኑ
▁መን'ዩ
▁አይተው
▁ምስኦም
▁ጊዜን
▁ለመታ
▁አንዷ
▁የእን
▁ኣሎኒ
▁ንስሐ
▁የማስ
▁አሸን
▁ሀገራት
▁ሓንሳእ
▁የሚከተሉት
▁ሙስሊሞች
▁ኻልኣይ
▁ዕቃዎች
▁ግዛቶች
##ላህን
##ፍእ
##ሉል
▁መፂ
▁ይጣ
▁ዝገብሩ
▁ተናገረ
▁ስያ
▁ግቦች
▁አለች።
▁ኤሌክትሪክ
▁ብዛዕብ
▁ላክ
▁ጌታን
##ወጣው
▁ተደራሽ
▁የሚገባው
##ጻዕ
##ሩና
##🇪🇷
▁መነጋገር
▁ይኼ
▁ነበር፣
##ገልገ
▁የአን
##ገናል።
▁ኣባና
▁በስራ
▁እርስዋም
▁ይስሃ
▁መረጻ
▁ጥቕሲ
##ከናወነ
▁ጀመር።
▁እኩይ
▁ባለሥልጣ
##ገፋ
##ዎ"
##ዎ?
##ች.
##ደኞች
##ሸራ
▁ንቑ
▁ጊዜውን
▁ዘይከኣል
▁ዚም
▁ሴቶችን
▁ዕድላት
▁መላእክ
##ጠየቁ
▁ሳይንቲ
▁የሞባይል
▁ዝደሊ።
▁ኣጸቢቑ
##በድ
##ፍ።
▁የሚወዱ
▁ለመጓዝ
▁ዕቤት
▁51
▁ኃያል
▁ተስፋይ
▁ወረደ
▁ጢሞ
##ስጋ
##መን።
##ባሽ
##ob
##SA
▁ይበላ
##ታት።
▁ስለሆኑ
▁እንዲሰማ
▁ጠለብ
▁ሚኢ
▁መስፍን
▁ላንተ
##ort
▁ተማሃሮ
▁ቕድሚ
##ቕ፡
##ኽልቲ
##ሮንን
##ኖረን
▁በሞት
▁መኾኑን
▁ሁላችሁም
▁ካብ'ዚ
##ሆንም።
##ንያም
▁"እነዚህ
▁ኃጢ
▁ምእመናን
▁መድረሻ
▁ሮማ
▁ኰነ።
▁ህፃናት
▁ብጻይ
##ጠቁ
##ዎቼ
##ik
▁መገንዘብ
▁ንቤተ
▁ውሾች
▁ሓል
▁አልታ
##ለን፣
▁ቁጭ
▁ጀር
▁ገበነኛ
▁ኣኼባታት
▁ያደርጋል.
▁ጽንዓት
▁እራስዎን
▁ኣመራርሓ
##ሳቐ
##ቃቐ
▁እመጣ
▁የላቸውም።
▁ተ.
▁ደቡ
▁ባሮት
▁195
▁ገዛኢ
##ላእክት
▁አያምኑ
▁ሒዘ
▁መቀነስ
▁ሳዕቤን
▁በሁለቱ
▁ተገሊፁ።
▁ወሪዱ
▁ሞይቶም
##ምድር
##ፋሪ
##ሹን
▁በች
▁ዝደልዮ
▁ክራይ
▁በእጁ
##ልና፡
▁ሕዝቤ
▁ከመይሲ
▁ልጆቻቸውን
▁ለልጆች
▁ተዋሂቡ
▁መብርሂ
▁ቛንቋ
##ዘኒ
##ውጣ
##ጸለ
##ዶምን
▁በሥ
▁በነገ
▁የብዙ
▁ሓብ
▁ካብኣቶም
▁ምስጋ
▁ኮይ
▁አላስ
▁መጠጣት
▁99
▁ቋሚ
▁ፀጋ
▁ለምንድነው
##ጠው።
▁የስልክ
▁ኣይኮኑን
▁ይታወ
▁ዝኣመሰሉ
##ስታንቡል
▁አይቀርም።
▁ኣሉታዊ
##ናል.
##ታቱን
##ንዶ
##መላ
##ሕዱ
##ሳምንቱ
##|4
▁በጸሎት
▁አዘዘ
▁ነሐሴ
▁ለጊዜው
▁ማከናወን
▁ድሓር
▁ቅኑ
##ብርት
##ገባቸው
▁ኣንስተይቲ
▁ገለል
▁ብልህ
▁አሜሪካውያን
▁ወስዶ
▁ፕረሲ
▁ይባላል።
##ምጽእ
##ነህ
##ነወ
##ቀዋል
▁በጆ
▁የሕዝ
▁ህክምና
▁ንስሓ
▁የለብ
▁መረጃዎችን
▁ንዘል
▁ልጆቹን
▁ትዕይን
▁ናባኻትኩም
▁ውፅኢት
##ል"
##ከበረ
##ራውን
##ፋፊ
##ቋል።
##ሔራዊ
▁የች
▁ደለይቲ
▁ምስላ
▁ጸልዩ
▁ኣነ'ውን
▁ኣይትፈልጡን
##ገዝእ
##ገበያው
▁ካባኻትኩም
▁ሰበይትን
▁ትራፊክ
▁ጲላ
##ትዩ
##ገኑ
▁ገዳ
▁አለቆች
▁የመሬት
▁አስቀም
▁ዘለወን
▁Pro
▁ሠለስተ
▁በሆነው
##ከናወኑ
▁የተለመዱ
##በኞች
##ዋወቅ
##ቀውን
##ጅመር
▁በሮች
▁ዓገብ
▁ለመፈለግ
▁ጎቦ
▁Mac
▁ገዛና
▁እፈልጋለሁ.
▁መላኺ
▁አጋጣሚዎች
##ኩ፣
##ታንን
##ፖሊ
##ጂን
▁አገልግ
▁ዝመስለ
▁ለፍ
▁ለነርሱ
▁በእነዚያ
▁እያደረጉ
##ከተሉት
▁ንሓንቲ
▁ሄዶ
▁ብተግባር
▁የሙቀት
▁ረድኤት
▁በይንኻ
##ክልና
##%)
##ትንሣኤ
▁ቅጣ
▁ለመሥራት
▁አንድነት
▁የእሳት
▁አይደል
▁እንታይ'ዩ
▁ተወለ
▁ጭር
▁ጻውዒት
▁ጥያቄዎችን
▁ቲቪ
##ንጣ
##ኋችሁ
▁ከር
▁ንብል
▁ስቅ
▁ዘሰ
▁ዓሪ
▁ኩዕሶ
▁ሙሽ
▁ዝመጻእ
▁ዝገበሩ
▁ፍቕርን
▁ምውጻእ
▁ጆርጅ
▁አያውቅም።
▁ኣይኰንኩ
▁ሒዝካ
##ኦትን
##ነቶችን
##መጻ
##ሰጡት
##ቆል
▁እጠብቃ
▁ስቃይ
▁ደሞክራሲ
▁ጠቒ
##ደርግም
▁52
▁እንድዩ
##ላዕለ
##ታችሁን
##ድኒ
##ሮምን
▁ይባር
▁ንቐ
▁ዝደልዩ
▁ቀረበ
▁አይወድ
▁እንተይ
▁ዓመት፡
▁ከሚያስ
▁ሃይለ
▁ዝዓቢ
##እነዚያም
▁ኣቡነ
##ላዩ
##ዋላ
▁ንቅ
▁ስላለ
▁ከአባ
##ርንጫ
▁ተመልክ
▁የሰውን
▁ድንበር
▁ከልጅ
▁ኢትዮጵያን
▁ፈታኝ
##ታተን
▁የድም
▁ካሕ
▁ቅቡል
▁ርብ
▁አስፈሪ
▁ጣሊያን
##ቲካን
▁App
▁ገሊፆም።
##-20
##ያያዙ
##ቀቱ
##ጽካ
▁ጊዜ፥
##ተኛውም
▁ሞቱ
▁ነበረ፣
▁ሆይ:,
▁ሪኢ
▁እንዳለብኝ
▁መቕጻዕቲ
▁"ፍ
▁የሚቀ
▁ጌረ
▁ማሕበራ
##ቻቸውም
▁ምትእስ
▁ተባሂሉ።
##ክሕ
##ጸሉ
##ሊፍ
▁እጆ
▁ክምስ
▁ጥብቅ
▁ሊባ
▁ብምሉ
▁የለንም
▁እዚኣ፡
▁እዝስ
##ቕርቦ
▁ስዒቡ
▁ንሃገር
▁እሙናት
##ውለ
##ረቅ
##ገተኛ
##ዓኒ
##ማጭ
##ች፤
##ist
▁ምጉ
▁ክዋ
▁የተሰራ
▁አስብ
##ዋል?
▁ጣዕ
▁ወሲኹ
▁ጉድኣት
▁ካለዎት
▁ርስቲ
▁በቁም
▁መከራን
##ዎምን
##ዋጭ
##ሚኒ
##ቕል
▁በግምት
▁መከላከያ
▁እናገኛ
▁"ዘ
▁አይሁዳ
▁ዘይነበረ
▁4.
▁ኵላ
▁ናት፤
▁ልዕሌ
▁ፓስፖርት
▁ነመስግ
▁ይገብሩ
▁ንዳዊት
##ትንፋስ
▁አይሁ
▁ሀይ
▁75
▁ብኣምላኽ
▁እውነታው
##እዛዝ
##ጥፍኡ
▁ይመልከቱ.
▁ልኡኽ
▁አመስጋኝ
▁News
▁ያለምንም
##በሎም
##ነየ
##ስቦ
##ጋኒ
##ጥሞ
##ቃጠል
▁ኣፉ
▁ብሞት
▁ንና
▁ሰጪ
▁አይጨነቁ
▁ዘይብላ
▁በአጭር
▁ጠበቃ
▁ዘሎን
▁ንምኽ
▁የትዳር
▁ንውሉ
▁ኣብርሃ
▁የምርምር
##በሉ።
##|2
▁የፌ
▁ያገኙ
##ነት፡
▁ገድ
▁ቅርንጫ
▁ክትገብሮ
▁ጀም
▁ሦስተኛው
▁Facebook
▁ኣዒን
▁ዝድለ
##ክላ
##ክዎ።
##ት፤
##ጋገር
##ህራ
##ጀምሩ
▁ኣድል
▁ዝጠ
▁ተሐ
▁ክርከብ
▁ማንን
▁እንተዘ
##ርኢ።
▁ጀሚሮም
▁ምትእምማን
▁De
▁ብምንባ
▁ትራንስፖርት
##ጻጽ
##ጉ።
##BC
▁የጻ
▁ያመለክ
##ግዚኡ
▁እየ'
▁በአፍሪካ
▁የመልክ
▁ሰውየው
▁ክቕጽል
##ምሳ
##ኝት
##-5
##ችሉት
##ዋለን።
##ፋውያን
▁የድን
▁ይመሰ
▁ካብኦም
▁ክንሕ
▁ክንነብር
▁ክልሎች
▁ስርሑ
▁ፀሐ
##ሮንቶስ
▁ፅን
▁ራስህ
▁በሕይወቴ
▁ፈጠረ።
▁ደቒቕ
▁{
##ዘነ
##ቃዕ
▁ክላ
▁ወጻእ
▁ማያት
▁ያነሳ
##ኽእሉን
##ደንቅ
▁ይፈልጋሉ.
▁ዩኒቨርሲቲው
▁ብወገን
##ስለዚህ
##ጠቅላላው
##ናገረውን
▁ውስጣዊ
▁ኣይከኣልኩን።
▁የሚሆነውን
▁አፈፃፀም
##ልሃል
##up
##ሏል.
##ሽው
▁ይግደ
▁ኣይፋ
▁ካብዛ
▁እያ"
▁ጌና
▁ኽፉእ
##ማርክ
▁ዝግለ
▁..."
▁ብዘላ
▁እስራኤ
▁ሕጻናት
##ራንስፖርት
##መናት
##ኛዎቹ
▁መዐ
▁ውራይ
▁የሚደረግ
▁ፍፁም
▁የተፈጠረ
▁ቤዛ
▁ዝተወ
▁እሞክራ
▁ግብዣ
▁ጨዋታዎችን
▁ዓርኪ
▁(ሉቃስ
##ጹ፡
▁አርባ
▁ኣይረኣ
▁የተዘጋጀ
▁ዕንቅ
▁ህዝባ
▁ንምምላ
▁ፖሎ
▁ኦሮ
▁ምውሳድ
▁አላቸው፦
▁ለሌላው
▁ኪንግደም
▁ኢጣልያ
##ር.
##ወረድ
##ጡ፤
▁ከጠ
▁ሕጋ
▁ለመጠየቅ
▁ዕጽ
▁ዘይቤ
▁ሊከሰት
▁ክትነብር
##ለን!
▁ምክሮች
▁የኢንዱስትሪ
▁ትክክለኛው
▁ፈለገ
▁000
##ሷል።
▁የደም
▁ያሰ
▁ፈጸ
▁ጸረ
▁ርካ
▁እስክ
▁ሁልጊዜም
▁መልክዑ
▁መቀየር
##ቕርቡ
##ጸባረ
##ቀውም
##ዱም
▁ስለሆን
##ንንቲ
▁ጀልባ
▁እትም
▁66
▁የሆዋ፡
▁ብኡብኡ
▁ምጅማር
##ይነቱ
##ችት
##ራንን
▁አጥን
▁የቢ
▁ይነሳ
▁ምሰ
▁ዝጽበ
##ንተይ
▁ኤን
▁ጥሩው
##ress
▁አድርገን
▁ጭፍራ
▁ጥቅምት
##ሕትት
▁iOS
▁ንኸይ
##በረታታ
▁ማውረድ
▁ብምዃን
▁ነይርና።
▁ይቀጥላል
▁ዮናታን
##ለታል።
##ዋንን
##ሞና
▁ኣሰር
▁በጻ
▁በሰይፍ
▁ብድር
▁ብምግ
▁ተፈጢ
▁ጾታ
▁የእስራኤልም
▁በውስጧ
▁ጸሎትን
▁ውርደት
##ዓስ
##ጦችን
##ሒታት
##ዴግ
▁እልል
▁ብሄር
▁ዓራት
▁ቀውስ
▁ጸባ
▁ንግዶች
▁ድምፁ
▁ቡዙ
▁ፀብ
▁ፀገማት
##ዋዕታ
▁ይገኛል.
▁ጋዜጠ
##ደርገውን
▁ማዕከላዊ
▁በባቡር
▁ራዕይ
##ኩኻ
##ታማት
▁እጥረት
▁በሻ
▁አገባ
▁ብኣይ
▁ዝምር
▁ክረኽቡ
▁ከምእት
▁ሃበ
▁መስጠ
▁ሆነህ
##ላውነት
▁ቀዳምነት
▁ፍቅርን
▁መሪሕ
▁ግድብ
▁ስብሰባዎች
▁ተባዕትዮ
▁ስጕምቲ
##ቻችንም
##ረኒ
▁ከሓዲ
▁ይጋ
##ሆንበት
▁ዚብሃል
##ርእዮም
▁ኢኻ?
▁Mic
▁ተፈጢሩ
##ቦም፡
##ዝርጋሕ
▁ሓቢሮም።
▁ማሳለፍ
▁ማግኘ
▁→
##ሙሳ
▁በኾነ
▁ምድራዊ
▁ማሳያ
▁ገበያዎች
▁ቸር
▁ብፁዕ
▁ፍልስፍና
##ክሞ
##/ኪ
▁ኣለም
▁(ት
▁ፈን
▁ራሳቸው
▁መደብር
##ነጋገራ
▁ረኺቡ
▁እንከሎ፡
▁ምሥጢር
▁ላለመ
▁የፀሐይ
▁ዘዳግም
##uc
##ሊኦም
▁በጸ
▁መቀመጫ
▁ይገብሮ
▁የእንግሊዝኛ
▁ኽኣ
▁ንኽብሪ
##ዛረቡ።
##ጠቀማ
▁ኣቢሎም
▁ይኸውም
▁በክፉ
▁መዛሙርት
▁ተንሲኡ
▁መደምደምታ
##ኽብር
▁እቶ
▁ንኻልእ
▁ናእ
▁ሓዉ
▁ልበ
▁ፈጢሩ
▁የለኝም።
▁አባቱን
##ግባእን።
▁አገሪቱ
▁ይቕሬታ
▁ተቃውሞ
##መጀመሪያ
##90
▁ዘረ
▁ቀደ
▁በአካል
▁ኮርስ
▁ሁኔታው
▁ኣቢልካ
▁ኣድማ
##all
▁በይነይ
##ዝሕ
##ውሕ
##የውም
##እነሱ
##ሃፍ
▁በሕዝ
▁አናት
▁ተፅእ
▁ኸደ።
▁ዝተወሰነ
▁አልበ
▁መልሰው
##ፈለገው
▁ፍርያት
▁‹‹የ
▁ዝተፈላለያ
▁ዘየለ
▁ሁላችን
▁ቕዱስ
##ስልጣ
▁ጉድለት
▁ትብብር
▁እንግዲህ,
##ቅዱሳን
▁ጹ
▁ቼ
##ጽዎ
▁አናው
▁የገዛ
▁የሎን
▁ብነ
▁ብጤ
▁ብምንታይ
▁ተለው
▁ክጅምር
▁ክትፈልጥ
▁'ኣብ
▁አላችሁ
▁ይበልጣል
##ቅድመ
▁ዝኸውን።
▁ጠቅላላ
▁ተሰጥቶ
##ግሬ
##ሲስ
##ain
##ዳውያን
##ደሪያ
##፤+
▁ከናንተ
▁ብጭ
▁ናይዛ
▁እነግራ
▁እተገብረ
▁ዝነበረ፡
▁"በእ
▁ድንገት
▁ሠናይ
▁መመሪያዎች
▁ማስተማር
▁ማለዳ
▁ኣይክሓድ
▁መፅና
▁ብርሃነ
##እርሱም
▁ኣፍሊጡ።
▁ኢንቨስትመንት
##ትመት
##ርኩ
##ድሩ
##ሙ፡
▁ኣከ
▁በኩ
▁መሻሻል
▁ነቐ
▁ፈጢ
▁ርኤ
▁አላደረ
▁ሐሳ
▁ከባለ
##:32
##ጠቀምበት
▁ጣልያን
▁እኽሊ
▁በጽሐ
▁ዝግብ
▁ተረዳ
▁ትመ
▁ዘለናዮ
▁ኢዩ?
▁ኢና፣
▁ተሰኪ
▁ብፍጹም
▁ብመዓልቲ
▁ጅምር
▁ተጻሒፉ
▁ወልደ
▁አስተዋጽኦ
▁ሪፐብሊክ
##ሁላችንም
##ቋቸው
▁ሲናገር
##ተኛውን
▁ረቛ
▁ኽፍ
▁አሁን,
▁ዮሐ
▁ነፍሴ
##ors
##ረክብ።
▁በእርሱም
▁ኣይክእሉን
▁ሆኗል።
▁ይመለሳሉ።
▁ኣጥፊ
▁ተረኺቡ
##ጳውሎስ
##ህም።
##ሽየ
▁የና
▁እንዲኖራቸው
▁ጽሩይ
▁ኤጀንሲ
▁እያደረገ
▁ንስም
▁ጎል
##ስብሰባ
##ሆናችሁ
▁ብእተ
▁ወንድሞቹ
##ና?
##ባክ
▁ኣሰና
▁የሞት
▁ይችሉ
▁እንመለከታ
▁ንነብር
▁ማዳን
▁ትጥ
▁ኢለን
▁ስለማይ
##ግዚኣብሄር
▁ሃየ
▁ታዛ
▁የሚያሳይ
▁መድሓኒ
##አለሁ።
▁ኣሲ
▁ንኢየሱስ
▁ለቅ
▁ኢላ።
▁የሚጠቀሙ
▁የእምነት
▁ማንንም
▁ፀጉር
▁‹‹አ
▁የካዱት
▁መገመት
##መልከት።
▁ዲዛይን
##ብብ
##ሉ"
▁ለመጨረሻ
▁ዘሎኻ
▁መስኮት
▁ምምሃር
▁ገጽታዎች
▁መሪር
▁ይገኛሉ።
▁መጸ።
##ሕግዘና
▁ጥቂቶች
##ጣሉ።
##ቓን
##ፊሑ
▁በሂ
▁ማርቲ
▁የመሆን
##ስርዓት
▁ብቐጻሊ
##መዝገብ
##ፃፀር
##ለቱ
##ድሽተ
##ሰካ
##ቃቂ
##ጓሚ
▁ኣዲኡ
▁አፈር
▁የሴቶች
▁ንሞት
▁ክቅ
▁ትሰርሕ
▁ድሙ
▁ሓቀይ
▁ደቃ
▁ለመተ
▁ናቸው!
▁ያለብዎት
▁ዓመታት፡
▁በልኩ
▁ሶስተኛ
##ወድቕ
▁ተዓጽ
▁ሰነዳት
▁ክህልወና
▁ሓርበኛ
▁ግምገማዎች
▁የሽያጭ
▁ብመልክዕ
▁ራብዓይ
▁ነዘን
▁ሓዘ
▁ሕብሪ
▁1000
▁ለመደገፍ
▁"እርሱ
##ላለማዊ
##ልካን
▁መለኮታዊ
▁መጨረሻው
▁ይሁን።
▁ለማጥፋት
##ፕላን
##ሁም።
▁ወጸ
▁አይን
▁በእርሷ
▁ኣሎዎ።
▁ክንዝ
▁እንዳተ
##ስቲክ
▁"በዚህ
▁እንዲያደርጉ
▁ዐይ
▁ተባሂሎም
▁ብቕልጡፍ
▁ንካልኦት
▁መንስኤ
##ሓብ
##ርጂ
##AR
##ቀዋል።
##ፎም።
##ኽብቲ
▁በ201
▁አቆ
▁አመጡ
▁የዝ
▁የተደረገ
▁የተከለ
▁ተመኩሮ
▁ብቻዬን
▁"እቶም
▁"እነሆ
▁በማህበራዊ
▁ሸይ
▁ይፈልጋሉ።
##ያውቁት
##ካከለኛው
##ወኩም
##ሻሽ
##ፅዕ
▁ኣቑ
▁ንሎሚ
▁ዝአ
▁እናሰ
▁ልመና
▁(3)
▁ሃለ
▁72
▁ሀብቶች
##ሳሽ
▁ብግል
▁ዝምል
▁ትዳር
▁የሚሄድ
▁ስለሚያ
##ምር።
▁በማስተ
▁ጎራ
▁ላዕለ
##ችኋለሁ።
▁ተሓጒ
▁ሒዛ
▁ከሌለ
▁is
▁ገደቦች
##ድሪቱ
▁የሞተ
▁መጽሐፉ
▁ትፈልጋለህ?
##በጣ
##ue
##ሰላም
##ሳኔ
##ሀት
▁ኣይግባእን።
▁ጋኔን
▁ክትከይድ
▁ንሱን
##ቅምት
▁በሰፊው
##ረጋግጥ
▁መጽሐፉን
▁ኣንብብ።
##ፈጽም
##ድሜ
##ራፍ
##ቕፋ
##ሙትን
##ቋሚ
▁ኣፋ
▁የፋ
▁(ራ
▁ኤምባሲ
▁ብምፍ
▁ከይዶም
▁ጓሳ
▁በሰባ
▁በጥብቅ
▁ጾር
▁ተዛሪቡ።
▁ቅዳሴ
▁ኮሮናቫይረስ
##ሲብ
##ie
▁አረንጓዴ
▁መረጋገ
▁ሓዲስ
▁እየመጣ
▁ጠርቶ
▁ብፍቕሪ
##ኛል፤
##ጠባበቅ
▁ንወዲ
▁ትልሚ
▁ርክባት
##ሓቂ
##ጥብ
##ጀር
▁እገብር
▁ብጸሎት
▁ግማ
▁ትፈልጦ
▁"በአ
##ant
##ጸልይ
##ros
▁ሰምተው
▁ሳልሰይቲ
##ራኸቡ
▁እንተወሓደ
##ይቱም
##ም፡
##ስራሕ
##ዓካ
##ሙሽተ
▁የሆን
▁ይፈልጡ
▁እንሄዳ
▁ሕነ
▁(4
▁ለማገዝ
▁አስቂኝ
##ሳይት
▁ቅድስቲ
▁ሂብ
##ቀው።
##ጠቀሰው
▁ምትሕብባር
▁ሰይፍ
##ጽሕፈት
▁ፅሕ
##ብዎትም
▁የቴሌቪዥን
▁ጸሓፊ
▁ክረምት
▁ፊደላት
##ጋዕ
##ርኻ
##ዖ።
▁ትኖራ
▁"እንደ
▁ኣቦኹም
▁What
▁ቆልዑት
▁ተሰማሚ
▁ተመልከት።
▁art
##ነውም
##ዓረ
##ቢያት
##ኳር
▁የሁለት
▁ይግብኦ
▁ይሂዱ
▁ባረ
##ላችሁ.
▁ተጋብ
▁ኣቢለ
##ምነገር
##ታውያን
##ህዋ
##ዲያው
##ፋችሁ
##ሖም።
▁የነገ
▁ኸሎ፡
▁ኢኻ፣
▁ለአባ
▁መብራት
▁ነኝ!
▁ተነስ
▁መዳያት
▁ምስጢራዊ
##ፈቅድ
##የካ
▁ተወሰ
▁ተልዕ
▁ለነ
▁ሰጊ
##ውን።
▁ጠቀ
▁ናቸው"
▁."
▁ብሎ:
▁የሰላም
##ታችሁም
▁ብመንገዲ
▁አጥብ
##ሽከርከ
##ል፡
##ዛመዱ
##ቀዝ
##ቀረበ
##ሽንግተን
▁በሕዝቡ
▁የብር
▁ከሕዝቡ
▁ይደረ
▁ባእ
▁እንተደሊ
▁ምሕታት
▁ኖኅ
##ጡንቻ
▁ጽልኢ
▁ሰልፍታት
▁ያስፈልገናል
▁ምስትውዓል
##ሓጎ
##ባጭ
##ህለ
##ሕዎ
##ድኡ
##ጻጸር
##ደሎ
##,"
##ዌይ
▁ይምህ
▁ያደረጉ
▁(P
▁አይቻል
▁ፍቺ
▁በመልካም
▁እንደሚፈልጉ
##ang
▁እድገ
▁ይቀመጣ
▁በአካባቢው
▁ብምእታው
▁ተፅእኖ
##በን።
##ኮዝ
##ንበት
##ካሉ
##ኑኤል
▁በሆ
▁ዘበን
▁ቤታ
▁የአስተ
▁ተጠራ
▁በቀኝ
##ዝርዝር
▁ኽትከውን
▁አላቸው,
▁በሁለተኛው
▁ለመክፈት
▁ስህተቶች
##s)
##ችም።
##ሳለሁ
##ፀት
##ቃቸው
##ፃናት
##ሖዋን
▁እምን
▁እራሱ
▁በዕ
▁በባህር
▁አመሰ
▁አመኑ
▁ይሃብ
▁ያዝ
▁ለማሟላት
▁ዝተባህ
▁አልሰማ
▁ሽፋን
##ካልእ
▁ግልጋ
▁እግሩ
▁ከልብ
##ቀሳቀስ
##ተሮች
##ባሌ
##ድእ
##ቅዕ
##ቤሴ
##ሽዑ
##iz
##ሆ፡
▁መደረግ
▁ንመንግስቲ
▁ትኸይድ
▁የሚወስ
▁ጨዋታው
▁መለየት
▁እንተዘይተ
▁የህክምና
▁ኣበሃህላ
▁ክፋላት
▁ንገረኝ
▁አክብሮት
##ፍተ
##ድነት
##ሉ፥
##፤"
▁ክኾነ
▁ሰአት
▁ልጥ
▁አንችልም።
▁ርአ
▁ከእግዚአብሄር
##ስቲቫል
▁ንኣሽቱ
▁ልጅም
▁ነኝ"
▁ንኽልተ
▁ድርብ
▁ሰማያትን
▁ዘጋጥም
##oft
▁ብናጻ
▁ዕዉት
▁ጀነራል
▁አለብዎት።
##ሓ።
▁እወድ
▁ዝኽእል።
▁ማሻሻል
▁ዓሌት
▁የሚገር
▁ሕመ
▁ገላዉ
▁ወደድ
▁እነማን
▁ክትርኢ
▁የመረ
▁ኪሳራ
▁የአል
▁እያሳ
▁ቁጽ
▁ስራሕን
▁2003
▁ወላጆቹ
▁በተጨማሪም,
▁ኢያሱ
▁ኣውስትራል
▁ጠቓሚ
##ap
##ቅጥ
▁በገበያው
▁ውግ
▁ሊኖራቸው
▁ኩን
▁በተራ
▁ክፍሉ
▁ኣይትፍራ
▁ዝብልዎ
▁ኣፍንጫ
▁ሓበሬታታት
▁ነብሱ
▁ልምዲ
▁ቫቲካን
▁ምምሕዳ
▁ኤውሮጳዊ
▁ቡድኑ
##ታር
##ቅያስ
▁አነሳ
▁ኩል
▁እንደሚመጣ
▁አሉን
##ገዛዝ
▁አልተገኘ
▁ሱር
▁የሰውነት
▁የሚሰጠው
▁የሚታወቅ
▁ኣጽኒ
▁በዋና
▁አመራር
▁ዓስቢ
▁ይታወቃል
##ሉና
▁በርት
▁በጊዕ
▁ዝጎ
▁ክቡራት
▁ስሒ
▁ማኪና
▁ቅብ
▁ሁሉ፣
▁እንተሃል
▁በአጭሩ
##መንበር
▁ንእሽተይ
▁ምቕራብ
▁እህቶች
▁አዎን፣
▁ደሊኻ
▁ሚስጥር
▁እምብኣርሲ
▁COVID
▁ሐዋርያው
##ጋቢት
##ችለውን
▁ይዓቢ
▁ያስታ
##ለምሳሌ
▁በመሄድ
▁አንበሳ
▁ምክትል
▁ሥፍራ
▁ዳቦ
▁አንተና
▁ይህንኑ
▁አትፍሩ
▁ነፍሰ
▁በየሳምንቱ
##ንጉሥ
▁ኣታኽልቲ
▁አድርጓል
##ኝ!
##ፈቅ
##ሰኛ
##ቀኒ
##ኙነት
▁ኣሮን
▁ቃላ
▁ይጠቅ
##ንቀት
▁ንዝሓ
▁፩
##ገሪ
##የናይ
##ሾም
▁የሂ
▁ይጽው
▁ብርእ
▁"ሁሉም
▁ፍቑ
▁ርኹ
▁ያስከት
▁ልጆቻችሁ
##ስታወቂያ
▁በተቃራኒው
##በቱ
##ሻውን
##ጓደኛ
▁ከፋ
▁ክሰርሑ
▁ውቅያ
▁ኣይነበር
▁ገብር
▁ኪት
▁ኤሊ
▁ዝኸበር
▁ብፍር
▁ዓላማዎች
▁አሎና።
▁ፈልጌ
▁፪
##ታሉ።
##ነበሮ
##ፍሪ
##ማእ
##r.
##ሳሰሉ
##ቲቭ
▁ሓቅን
▁ሥልጣ
▁ያልታ
▁ማስገባት
▁እነሆ:,
▁በስተጀርባ
▁ወጪዎች
▁ያደረገውን
▁በግራ
▁ይገልጽ
▁ብዅሉ
▁ዝወስድ
▁ኣብይ
▁"ብዙ
▁ኣይፋል
##ኽእላ
▁ፕሪ
▁ፊደል
▁ጭንቅ
▁ኔርካ
▁ዝምስ
▁እችላለሁ።
##ገነዘባ
▁ፕሮፌሰር
##ፍንቲ
##ሳችን
##ሃቢ
▁መሞት
▁ይዛረብ
▁ቤትን
▁ለመብላት
▁የእሱን
▁ዘለዓ
▁ኢና፧
▁ልጆችም
##ሠራር
▁መጽሓፍቲ
▁መላውን
▁ክልቲአን
▁አይችሉም.
▁ሞዴሎች
##ካክ
##ጥጥር
▁ዝወሰ
▁ዝሰምዕ
▁ውጹ
▁የሚገቡ
▁ቅ.
▁አልነበር
▁ርኽ
▁ቤትና
▁የማግኘት
▁ሃገረይ
▁ትምኒት
▁ተዘግ
▁ተአምራት
▁ያስታውሱ
##በላው
##ኣምላኽ
##se
##ዞር
▁ተቘ
▁ክገልጽ
▁ትበል
▁ዕረፍ
▁ለማስታወስ
▁ክትገብሩ
▁ኣለኹም።
▁አልችልም።
▁እስያ
▁መስራ
▁ኦሪት
▁ንእስ
▁ተራሮች
▁ሜትር
▁ጕጅለ
##ሠሩትን
▁ተናጋሪ
▁ኣይኮንኩን
▁ፕላኔት
▁ፍልልያት
▁article
##ast
##ጻናት
▁ኣሻ
▁ለራሳቸው
▁"ሰብ
▁ደና
▁ደለ
▁ቀለል
▁ዕረፍት
▁በአቅ
##ምልኮ
##ሞክሩ
▁በፍርድ
##ከባድ
▁ይመለከ
▁ኢንተር
▁ኣገልገልቲ
##ዘሮ
##ኣለማዊ
##ውረድ
##App
##ሄርን
##ሶቹ
▁ኣርብዓ
▁በበርካታ
▁እንወዳ
▁ዝፈጠረ
▁ወፎች
▁ለመቆጣጠር
▁ቃላትን
▁እምነትን
▁ስምዑ
▁ጀሚረ
##ምኩም
##ግዱ
##የቱ
##ከበር
##ጉል
▁የሞቱ
▁ነቢያ
▁ክዓ
▁ከም'ቲ
▁ታም
▁ኤፍሬ
▁ባህጊ
▁ዕድለኛ
▁2001
##በላሽ
##ህዝቡ
▁ብሕል
▁ዝጸንሑ
▁አንቀጽ
▁ኣሃዱ
##ወኒ
##ኪዳን
##ጓዓዝ
▁ኣኅ
▁አደረገው
▁ነቅ
▁ጠቢ
▁ኣሎካ
▁ሽያጭ
▁ባለበት
▁ወርሓዊ
##ግራፊ
▁ንሰለስተ
▁cont
##ide
▁አደርጋለሁ።
▁ብዓይኒ
##በክ
##ዓመት
##ጸብ
##ማቱ
##ደበኛ
##ፒክ
▁በቤቱ
▁በኒው
▁የሚበልጥ
▁የተላ
▁ብምር
▁ኣልኣ
▁ዝወረደ
▁ምግላጽ
▁ቱርኪ
##ርቶዶ
▁more:
##ግራይ
##ማችን
##ጽሉ
##ዱሳት
##ዜማ
##28
##**
▁መመለ
▁ለራሴ
▁ዘዘ
▁ዓዋ
▁ከይሓ
▁ላማ
##ክልሉ
▁ተወከ
▁ኣጋይሽ
##ሰባችን
▁ጫካ
▁ሥርዓ
▁የዩኒቨርሲቲ
▁ከዋክብት
▁በእጅጉ
▁በይነመረብ
##ዋጥ
##ዱብ
##ጫኑ
##ፓር
▁ባሻገር
▁ለመግለጽ
▁በመላ
▁ቢራ
▁በማግ
▁የልጅ
▁ምውሳ
▁ይገባል.
▁ጕዕዞ
▁ብዝተኻእለ
▁ዝፍጸም
▁ባህልን
##ከማቻ
▁ኣይረኸብ
▁ዝርከባ
##ቐም
##ሪፍ
##ሁ፥
##ዴራ
##ዷቸው
▁በሰማ
▁አርቲ
▁የበለ
▁ዘርግ
##ችሁትን
▁ዋሕ
▁በማኅበራዊ
▁ነበረው።
##ክልል
▁ርእሳ
##መሰለ
▁ጭፍ
▁አያስፈልገ
▁ያደርጋሉ
▁የበጋ
▁አቅርቦ
##ልዮናት
▁ወረርሽኝ
▁መጠንቀቕታ
##TV:
▁Apple
##ዮት
##ሻል።
▁በጎች
▁ማይን
▁ድጋ
▁ሕሰ
▁ለመምረጥ
▁ለመውጣት
▁ዕጡ
▁እየታ
##መርጽ
▁ብሓጺሩ
▁ማእኸ
##:31
##ገነቡ
▁ስጋዊ
▁ተባሂላ
▁ከሰዎች
▁ያገኛሉ.
▁ዘይሕጋዊ
▁ቘልዓ
##ል፣
##ኻድ
▁አጠና
▁የያዕቆብ
▁ብቛንቋ
▁ለጉ
▁ግርም
##ውን፡
▁ፈታዊ
▁ክትሰርሕ
▁የእግዚአብሔርም
▁ፀጉ
##end
▁ሰዓቶች
▁መንእሰ
▁የቀን
▁ተዛማ
▁ሺሕ
▁የተመዘ
▁መነባብሮ
▁ተገሊጹ።
▁"ስመይ
▁ማክበር
▁ርዝመት
▁ፕረሲደንት
##ኸብ
##wit
▁የረ
▁ተፈል
▁ናቕፋ
▁ህገ
##ፈልጉም
▁ዚኣክል
▁ኪም
▁እያሱ
▁ያስች
▁አስፈላጊው
▁ጃልባ
▁ሓቢሩ
▁ተመራመርቲ
##ናና
▁እፈራ
▁በገንዘብ
▁አደራ
▁ንበይ
▁ሰዎቹ
▁ግእዝ
▁በእንደዚህ
▁ዘይቅ
▁በአእምሮ
▁ዋነኛ
▁ከመጣ
##ላለስ
▁የማይወ
▁th
▁ሓቢሮም
▁ተቃዋሚ
▁አልቻለም።
▁ስርዓታት
▁ላለፉት
▁ደረሰ
▁ኣዳራሽ
▁ምትእስሳር
##በህ
▁ኣኪ
▁ነች።
▁ከረጅም
▁ይማ
▁እንሆና
▁ማቆ
▁ድሃ
##ንም፣
▁እየሠራ
▁ለማቆየት
▁ኪን
▁ኪቐት
▁ሸለቆ
##ደርጋቸው
▁እንድትሆን
##ሃደራዊ
##ርደ
##ጠዋል
##ዳጊ
##ጨስ
##ኸስ
▁አፕል
▁ከቤተ
▁ብብር
▁ማገልገል
▁የሚሸ
▁ጽሁፍ
▁ኪገብር
▁ምክት
▁ዓይነቱን
▁እዮም፧
##በሉን
▁አያስፈልግም
▁አስተናጋጅ
▁ንዘልኣለም
▁Whats
▁አይቻልም።
##ናቸውን
##ዓዙ
##እኽ
##ኗል
▁በግብ
▁ከክፉ
▁ብሃን
▁ተከተል
▁ሰዲ
▁ውጥን
▁ኢብራሂ
▁ሓጐ
▁ሕር
▁ነበርና
▁ኩኪ
▁ክንርእዮ
▁የሕይወ
▁"ንሕና
▁ይታያል
▁ሬዲዮ
▁መሸጥ
▁ይገልጻ
##ውነተኛ
▁እሄዳለሁ
▁ትኽእሊ
▁or
##ይሩ።
##ፈርስ
##አለም
##ከፈ
##ሑፍ
##ዃኑ
▁ብዕድመ
▁ንመሰ
▁ክጽ
▁ትብሎ
▁ስለነበረ
▁የተቀደ
▁ናብኣ
▁አለ፦
▁እትኸውን
▁ኵላቶም
▁ለአምላክ
▁ኦር
▁ኣውቶቡስ
▁ኣትዮም
▁እነሆ፣
▁የደቡብ
▁(ሉቃ
##ኣሰ
##ክዮ
##-ሕ
▁በቡ
▁መጎ
▁መጨነቅ
▁ይፈልጦ
▁ውጣ
▁ገጸ
##ረት።
▁ቅድስና
▁አካሄድ
##ነጋገ
▁ውይይ
▁እንከለዉ
▁ካምፓ
▁እንደዚሁም
▁ከደ።
▁ዝዕድ
▁ዝገርም
▁ኣይደል
▁ክትው
▁ኣቦታትና
▁ተሰዊ
▁ወንድሙ
▁በውሃ
##ከናወነው
▁ማዳመጥ
▁ጎረቤ
##coin
##ናቴ
##ርዱ
##ለቀ
▁ንቓ
▁ንፈልጦ
▁ግጉይ
▁ኮለ
▁5.
▁ነበረ፤
##ለህ፥
▁ፊሊ
▁120
##ፍርዲ
▁ደገፍቲ
▁ብመሰረቱ
▁ዀይኑ፡
##፡22)
▁ዕርቂ
▁ከሙታን
▁መዝናኛ
##ካሄደ
##ጠቢያ
##ጀምረው
##ቆን
▁ይደል
▁ደግሞ,
##ሰርተ
▁MP
▁ገዛኻ
▁ያህል,
▁በለስ
##ድሕኑ
▁ራሳችንን
▁(ማቴ.
▁ትርከብ።
##ፕሪል
▁መብራህቲ
▁ሮም
##ታለች
##ምና።
##ነል
##ሃለሁ፤
▁በፌስቡክ
▁የዳዊት
▁ክሰር
▁ለዚያም
▁(እንደ
▁ዘለኩም
▁ሰዎች,
▁ሞያዊ
▁ረስ
▁መንግስቱ
▁ጎኒ
▁በየጊዜው
▁ምፍጣር
▁ከሰዓት
▁መሓሪ
▁ተነሳሽነት
##ርታት
##ድሎ
##ሰለት
##ዳያት
##ሀነም
##ሜታ
##ሶም።
▁የቤ
▁ከፀ
▁ከሞ
▁ለበርካታ
▁አይቻለሁ
▁ህግደ
▁ያለማ
▁እነዚህም
##ባርነት
▁አሉ፤
▁ኬሚ
▁በርሳችሁ
▁ትችላለህ?
▁ተመለከተ
▁በጃኹም
▁አሎኹ።
▁አገኘሁ
▁ይጠይቁ
▁ጥዑይ
▁ዝተኣሳ
▁ብጀካ
##ud
▁እይ
▁ዘሌ
▁ማማ
▁ማሪያ
▁ሕድሕ
▁ዘሎዎ
▁መርገም
▁ሌሎችም
▁ኣባኻ
##ውሰድ።
▁እርምጃዎችን
▁የሆኑትን
▁አለመታ
▁ንምፍታሕ
▁ደልየ
##ገራዊ
##ጨው
##ቦቼ
##ቆጠር
▁መከታተል
▁ዘመና
▁ግጭ
▁ሓወ
▁ቅጽ
▁እንዳሉት
▁ጌታም
##ገለጥ
▁በየዕለቱ
▁[ተጨማሪ
▁የባንክ
▁ተቓሊ
▁የግብር
▁ያልተለመደ
▁ዝተዋህበ
▁ዘርእስታ
▁ያቀርባል
##ጨና
##ዋኑ
##ኛል.
##ጅቱ
##io
##ቛን
▁ኣሞ
▁ኣበየ
▁አዚ
▁አቦ
▁ካፒ
▁ለመሸ
▁የመታ
▁እምነ
▁ሽኮር
▁ዳኣ
▁በታሪክ
##ans
▁ያሳያል።
▁ትዕቢት
▁ንደሓር
▁ሓሙስ
▁ተመለሱ።
▁ስጦታዎች
▁ደመወዝ
##ባማ
##ህ"
##ሕሱ
##ሽና
▁ብውል
▁ብጐይታ
▁ክስዕ
▁"ዛሬ
▁ሁላችሁ
▁የተለያየ
##ርስዋ
▁ኸለ
▁'እኔ
##ደረሱ
▁ጎረባ
▁ገሊኣቶም
▁ቴሌ
▁በርሷ
▁ዝዀነ፡
▁(አላህ
##ወልዱ
▁ጃክ
▁ጫና
▁ከውጭ
##ናውቀው
▁አለብዎት.
##ዮሐንስ
##ዐይ
##ቬስት
▁በንግድ
▁መፃ
▁ዝዋ
##ትንሽ
▁ብዙሃን
##'ዩ!
▁መጽሓ
▁እተዋ
▁ነኝ,
##ሕግዞም
▁መውደድ
▁ጽድቅን
▁የድሮ
##ት.
##ሰቲ
##ጐይታይ
▁ይገዛ
▁ይፈራ
▁ለሁለተኛ
▁ዘፈ
##ላለፈ
▁ሃገራትን
▁አምጡ
▁ወቅታዊ
▁መዛግብ
##ከሰተው
▁1991
▁ትምኒ
▁ንነቢይ
▁ሆኗል.
▁በከንቱ
▁ጤንነት
▁ሓረስቶት
▁ተሽከርካሪ
▁ተጠቀምቲ
##ረ፡
##እቶም
##ጎችን
▁ንመስ
▁የሚረዳ
▁ልብን
▁ሃያ
▁እንተት
▁ዚስ
▁ክትዛረብ
▁ክንከይድ
▁ዘለዓለም
▁ዜደንቕ
▁ምናልባሽ
▁ነብስኻ
##ጠፍኡ
▁ዘጋጥ
##'s
##ሻን
##ፅሕ
▁የፊት
▁ብአ
##ውንድ
▁ያደርግ
▁ደኺ
▁የተሸ
▁'ብ
▁ሙሳ
▁እሞኸ
▁ምሕረቱ
▁ገሊላ
▁ሜትሮ
▁ደንቦች
▁የሌለበት
▁እንደሚያሳ
▁ብወግዒ
▁መድኃኒት
▁ድሕርዚ
▁Tag:
▁ኣምባሳደር
##ይሉ
##ልየ
##ፍላ
##መዋል
##ዓበ
##ለዓለም
##ጠጋ
##ቱብ
▁ኣምር
▁ማካ
▁ነው-
▁ጋዝ
▁ሊገድ
▁ጸብ
▁ቢቢሲ
▁እዮብ
▁ምርኻብ
▁ንስራሕ
▁ተጠቂ
▁ንሓቂ
##ቀመጠው
▁የሰጠው
▁ዝኸኣለ
▁ልምዶች
▁መለሰ።
▁>>
▁ጥልያን
▁በጌታቸው
##ጻድቃን
##ዘረዘ
▁ሼ
##ዘዞ
##ኣ፡
##ክዎም
##ጫዊ
▁ክዛ
▁ሰፈ
##ገር።
▁ዘይቲ
▁የመኖሪያ
▁የማል
▁ጣቢያው
▁ትርኢት
▁ንሰበይ
▁ማለተይ
▁ግበር።
▁አቅርቦት
▁ኻልኦት
##ተኝነት
##ህ.
##ህ፥
##ፋዕ
##ሃትን
▁አከባቢ
▁ብሙሉእ
▁ወ/
▁ዓዱ
▁(ቅ
▁ቅጂ
▁ዓመትን
▁እኔንም
▁አስፈ
▁የማድረግ
▁ነፍሳት
▁ቐሪቡ
▁ባይሆን
##ፈተነ
▁50%
▁ትብዓት
▁ፋይሎች
▁አማካሪ
▁ይናገራሉ።
▁ጸሐፊ
##ጎበኙ
##ኗኗር
##ናዮም
##ነፉ
##ቶሪ
##ሳነ
##ኗን
▁ይዟ
▁ምሩ
▁ተወስ
▁ያዕ
▁ዓደይ
▁የተገደ
▁ህዝቦች
▁600
▁ገይርካ
▁ተቀብ
▁250
▁ምጽሓፍ
▁ሰሚና
▁ኃይሎች
▁ይነሣ
▁ብውሕዱ
▁የሙከራ
▁በይሁዳ
##ገነዘቡ
▁ይግበር።
▁ልውውጥ
▁ፅሕፈት
##ግበረ
##ትነት
##har
##ሮ፡
▁ከከተማ
▁ተከፍ
▁ማምለ
▁ክንዛረብ
▁ቆመው
▁ያስቡ
▁የማይችሉ
▁ዋጋዎች
▁ንመጀመርያ
▁በስልክ
▁ክበጽሕ
▁ጠይቅ
##መሰግኑ
##ላጆች
##መዓል
##ረሱ
##ቃጠ
▁ኣውሮፓ
▁በሙሴ
▁የሰብ
▁የቅር
▁ክቐት
▁ትወዳ
▁እንደዛ
▁ዝተወለድ
▁በአይ
▁ሚስተር
▁እያ፣
▁መጽሐፍን
▁ገበሬ
##በኣር
▁1990
▁እዝኒ
▁ነይርዎ።
▁ትልልቅ
▁ትውስታ
▁ዝተፈጥረ
▁ርካሽ
▁ኧረ
##ነሳት
##ዓሊ
▁አመን
▁እንባ
▁ጥቅስ
##ንተና
▁እንዲያስ
▁ዝተመስ
##ላለን።
▁ላሉ
##ክልቲ
##ስምዕ
▁ብኣኻ
▁ውሽጥ
▁የሰዎች
##ከታታይ
##ወድቅ
##ite
▁ክህልዎም
▁ይጠይቃል
▁ሓተተ
▁በካናዳ
##ክዋ
##ድነ
##ደካ
##ዑል
▁ኣቋ
▁ያነጋ
▁ደፊ
▁ዕሽነት
##ልና፤
▁ኤርትራን
▁ኣስማት
##ዲህኤ
##መለስ።
##ከምዚ
▁ጸኒሑ።
▁ኣቕሓ
##ገለጸው
▁ጸዊዑ
▁ዪ
##አይቲ
##99
##ሴፍን
▁እህል
▁በነበረበት
▁በስፋት
▁የራሳቸው
▁መቆም
▁እንዶ
##ለምቲ
▁ፈቀቅ
##ባት።
▁ኤክስ
▁ረዘም
▁ዳኒ
▁ጎበዝ
▁ምምስ
▁ርሑስ
▁መስመሮች
▁ንምርኣይ
▁ትንታኔ
▁ተልዕኮ
##ነቡ
##ኝና
##ባበል
##ድጉ
▁መች
▁(I
▁ምስክሮች
▁የተራ
▁የተደረገው
▁በመከራ
▁ዝተረ
▁ኤፍ
▁አይደለም!
##ለያይ
▁ሳይቀር
▁ቶማስ
▁ብደሓን
▁ገዝኡ
▁ዳይሬክተር
▁WhatsApp
##ዘዋ
##ለላ
##ኛለሁ
▁ይነግ
▁ይገብረ
▁ዝህቦ
▁ለሙሉ
▁ያለሁ
▁(ለምሳሌ
▁ሲደርስ
##ብርን
▁እትገብሮ
▁ፀሓይ
▁ፓት
▁ለሚፈልጉ
▁ከሎና
##ስተውዕል
▁መጻሕፍትን
▁ንጽባ
▁ክኸዉን
▁የቴክኒክ
▁ማጥፋት
▁ሰሜናዊ
##መች
##እሰያት
##፡00
##RE
##ቧል።
▁የገበያ
▁መቆጣጠር
▁ሰኑይ
▁ለመቅ
▁ጽባ
▁ዘሎኹም
▁የሚያምር
▁የማውቀው
▁ከተማዋ
▁አምላክህ
▁ምምጻእ
▁ነብሲ
▁ዋላ'ኳ
▁ማርቆስ
▁ጸብጻባት
▁ነበራ።
▁ግፍዒ
▁ሰማእታት
▁ትርጕም
##ሰኞ
##ያዛ
▁ኣፈላ
▁መግብ
▁ነዝ
▁ትኬት
▁ባዩ
▁ለመከታተል
▁ሊውል
▁ዚምልከት
▁ጽላል
▁ዘለኒ
▁የሚያምን
▁ያለብን
##ናን፡
##ረኽባ
##ዲያብሎስ
▁ወጻኢታት
##ቓልል
▁እዚያም
▁ታውቃላችሁ።
▁ጌጋታት
▁ስርዓቶች
▁ርኢቶ
▁(ዘጽ
▁እኩያት
▁በከፊል
▁እናደርጋለን።
▁ብጽቡቕ
▁ምሁር
▁ጥላቻ
▁ተደርጓል
##ሓላል
##በቡ
##ma
▁እሰጥ
▁አቢ
▁ተገናኝ
▁ግሪ
▁ነው'
▁ትላለ
▁ስለዚያ
▁ሃዋ
▁ሳራ
▁በተሳካ
▁ጉዳዩን
▁ንዓኹም
▁ነፍሱ
▁ትርኢ
▁ኔዘርላንድ
▁በትዊተር
▁ጀመርኩ
▁ዝገብርዎ
▁አስታውስ
▁አንቀጾች
▁ፈልጎ
▁ረኸብ
##ሓቱ
##ኮራ
##ግሞ
##ff
##ለህን?
▁በሱ
▁በሩ
▁ክብሎ
▁ክሪስ
▁ገጻት
▁አይሆንም።
▁ድማ፥
▁ምስዝ
##በትና
▁ሌዋ
▁ምድላ
▁በደልካ
▁ክፍያዎች
▁ኢሜል
▁ይሁዳን
▁(መዝሙር
▁ትሽዓተ
##ናኒ
##ስኪ
##ዱ፤
▁የደን
▁እንዳን
▁እንገብሮ
▁ተፃ
▁ዓንዲ
▁ደርግ
▁ሊመጣ
▁ዚዛረብ
▁ጠቢብ
▁ምክንያታዊ
##ረጋጋት
▁ኣዝማ
▁ይብሃል።
▁ብሰሪ
▁ወስደ
▁ኣሕዋቱ
##አልና።
▁መጽሐፍት
▁ነይረን።
▁ያካትታል
##ነድ
##ነኝነት
##ኝ,
##ርሳቸው
##የ፣
##ሩኒ
▁ኣወንታዊ
▁በሬ
▁ከፈተ
▁ለርሱ
▁ለሕዝ
▁ትላ
##በርቲ
▁ግንብ
▁(s
▁ቤን
▁ቀንና
▁ያስችል
▁ምልኪ
▁ኰይነ
▁ውሽጠይ
▁ዕድሜያቸው
▁ሰላሳ
▁መለሰሉ።
▁አይደለሁም።
▁ተቐሚጡ
▁ብዝበለጸ
##ህሪ
##ጸናን
##ሳቱ
##|7
##ዷል።
▁በሴ
▁መዲ
▁ይከብ
▁ምፅ
▁እንጠብቃ
▁ንፋ
▁ለጌታ
▁ዘላለማዊ
##ትን፣
▁ሃቦም።
▁ዕጥ
▁ክንዕ
▁የአገልግሎት
##መርጡ
▁መጠይቅ
▁ምድላይ
▁ሸክም
▁ይጠበቃል
▁ሐደ
▁ብፍሉይ
▁ብራዚል
▁ተሰምዩ
▁ጳጳሳት
▁ኣምሓራ
##ላኽ
▁እራሳችንን
▁የጋጥ
▁የሁለተኛ
▁መቆጣጠ
▁ኢዩ፡
▁ከአሜሪካ
▁ጨረታ
▁ሥራዎችን
▁ዲዩ
▁በልጁ
▁እንግዶች
▁በኢንዱስትሪ
▁ኣድጊ
▁ይቕረታ
▁ከምዘይኮነ
▁ሠራተኛ
▁ብሩኽ
▁ስሜታዊ
▁ሚዛናዊ
▁ተፈጺሙ
▁ለመለየት
##ድዩ
##ጭበር
##ኒ!
▁ለኛ
▁ትዳ
▁ዓጽ
▁ኣይመ
▁እንደነዚህ
▁መጠጊያ
▁ነበረብኝ
▁ያለው።
##ፈርህ
▁ክፍልታት
▁ተዋጊ
▁ምውዳ
▁ኣይኮነትን።
▁እርስዋ
▁ባልተ
##age
▁በሚያሳ
▁ዝርዝሮች
▁ብማዕረ
▁ዝፈጠሮ
▁j
##ልላይ
##ግጋር
##እመን
##ሰዋል
##ወቲ
##ፃሊ
▁በቤተሰብ
▁የፌስቡክ
▁ቀቲ
▁ሊኖሩ
▁ለማዘጋጀት
▁ከእርሷ
##ውም፤
▁የማነ
▁ዝበጽሕ
▁አውቶ
▁ጭማሪ
##ድምጺ
##ለወጡ
▁አላቸው:
▁መልእክተኛ
▁ከጓደኞች
▁ተፈጥሯዊ
##ወንጀል
▁ለመዋጋት
##ኤፍ
##ጎዱ
##ዬም
##ሟል።
▁ከዳ
▁ንምህ
▁ግበረ
▁ትብለ
▁ሓግ
▁ሁን
▁ህንድ
▁ታክሲ
▁ፈጠረ
▁ኩነ
▁ጉርሻ
##በልዎ
##መልክቶ
▁54
▁ኦፊ
▁የማይችል
▁ሒዝና
▁ደርሷል
▁Wi
##ዓለማት
##ጽናፈ
##ዕብያ
▁ብርሃንን
▁ተቀምጦ
##ልጋ
##ልጥ
##ትኹም
##እኩም
▁እዘ
▁ኣራ
▁የሉ
▁ከጉ
▁ውሱን
▁ድሉው
▁ካህ
##ዎችና
▁ለመጠ
##መስግን
▁እንዳስ
▁ካልሆኑ
▁አለው፤
▁The
▁ወላጆ
##ናዮ።
▁የሌላቸው
▁መተግበሪያው
▁ኣሕዋትን
▁ሙከራዎች
▁አለችው።
##ፈፀም
▁ተሳታፊ
##rosoft
##ሓድሕ
##ልድ
##'ባ
##ቱር
##ሶር
▁በሕግ
▁ኣይፈለጥ
##ምን፡
▁ብዙዎቻችን
▁ሥልጠና
▁ቆሻሻ
##ልካ፡
▁ዶናልድ
##ውሮፕላን
▁የልደት
▁ተዓዊ
▁ቀርቦ
▁መጽናዕ
▁መፅሐፍ
▁ስልጣኑ
▁ጲላጦስ
##ጋቡ
##-ዝ
##ሉ!
▁ነነ
▁ንወለ
▁ተጠም
▁ተስፋን
▁ነፍሰይ
##ተማመን
▁ቀርኒ
▁ይጠብቁ
▁ፃዕ
▁ማሻሻያ
▁አያስፈልግዎትም
▁ኣዘራርባ
▁አናውቅም
##ድላ
##ሰኒ
##አል፤
##ኽሪ
##br
▁እከ
▁መቋቋም
▁ከፈለ
▁ከጨለማ
▁ለንግድ
▁ኣብሪ
▁ሲሄድ
##'ውን፡
▁አብረ
▁ጉዳዮችን
▁ቆሮንቶስ
▁ጌታቸው
▁ዝገደደ
▁ስራሓት
▁ባዕላ
▁ችግሩን
##ሳሳቱ
##ላችኋል።
▁ዝጸሓ
▁ሕያዋይ
▁ብከመይ
##witter
##ስፈ
##ዚን
##ደፈ
##ኸኣ
##ጀምራ
▁ኣጠቓ
▁የለህ
▁ከቤተሰ
▁ክርአ
▁ውረድ
▁አይሰማ
▁እዚአን
▁እየሰሩ
▁ሸለል
##ገለፀ
▁ኻህናት
▁ሰይፊ
▁አሜሪካዊ
▁ጥምረት
▁"ንስኻትኩም
▁ተለዋዋጭ
##ቤሴሎም
##ኻእ
▁ክራ
▁እንዲችሉ
▁ናብቶም
▁ሊባል
▁ኪመጽእ
##ይንካ
▁ኢኻ፧"
▁ተገነ
▁ንግሥ
▁ህዝብኻ
▁ኖረ
▁መተካ
▁በግልፅ
▁መበለት
▁ሆስፒታ
▁ንብዙሕ
##'ለ
##ግቦ
##ተጂ
##ቃችሁ
##ሃል.
##ዥያ
▁እችል
▁የቻ
▁የግብፅ
▁"ው
▁ደጅ
▁ዝተፈልየ
▁ሌባ
▁አብቲ
##ከር።
##ጸንሐ
▁ማይክሮ
▁ይልቅ,
▁ኣይከኣልን
▁በክብር
▁ክረምቲ
▁ንፉዕ
##ድኃ
##ሜይል
##7_
▁በቆ
▁በነበሩት
▁ይምር
▁ወሓደ
▁ሕጎች
▁እምነትና
##ወርቂ
▁ተኣምር
▁ጀመሩ
▁ካርዶች
▁ይቻላል?
▁ኣዒንት
▁የቱሪዝም
▁ግልጋሎት
##ልት
##ለታት
##ቃብር
##/201
##ፏል።
▁ተናገሩ
▁ዘገድ
▁ጠብቅ
▁አልሆነ
##ርግያ
▁ንኣኻትኩም
▁ይጠበቃ
##ስምዖ
▁ጽሑፎች
▁ምሳኹም
##ዛረበሉ
##ካይዱ
▁እዩ፧"
▁ዝነበርና
▁የድልየና
▁የሚጠጉ
▁እንፈልጋለን።
▁ለዓመታት
▁፫
##ust
##ለክት
##ወዱት
▁በባሕር
▁ምፍራ
▁ንዮ
▁ንፅ
▁ወከልቲ
▁ዘእ
▁ናትኩም
▁ትፅ
▁ባሮ
▁ቅትለት
▁በመታ
▁አልኩ
▁'ምበር
##ተይ፡
▁እዮም?
▁እዚኣተን
▁አምጥ
##ጠንቅ
▁መመገብ
##|10
▁ቅድመ-
##ሰማያትና
▁በቀጣዩ
▁መረጋገጺ
##ገሬ
##ህሉን
##ዋቱ
▁ብምህ
▁ተያይ
▁ግፊት
▁ግላዊ
▁ደበና
▁ምስጉን
▁የተማሪ
▁እነግር
▁አስቡ
▁'እን
▁ምርኢት
▁በማለ
▁ርእዮም
▁ሂሳብ
▁ሸማቾች
▁ደጋፊዎች
▁ተመሊሶም
▁በቦታው
▁st
##ሲን
##ኛን
##ጊሑ
##ጆታ
▁ከኛ
▁እንሂድ
▁ሰዲህኤ
▁ካገኘ
▁ደዊ
▁ይህንም
▁ቃልካ
▁ቆዳ
##መጣበት
▁8.
▁ኰይና
▁"ኣቦ
▁ገጽካ
▁በምድርም
▁ምግብን
▁በውኑ
▁የወደፊቱ
▁</
▁ሆንሁ
▁የዩናይትድ
▁የሚያደርጉት
▁ብድሆታት
##ክሌር
▁ህላወ
▁ንፁህ
▁ጭርሖ
##ትካ
##ሱር
##እዚ
##እስራኤል
##."
##ቓቕ
##ኽል
▁በቱ
▁ከሱ
▁ከሃ
▁ስጡ
▁ሃረር
##ገልካን
▁ሆናችሁ
▁ሀበ
▁ዝበላ
▁ዝበለት
▁አባታችን
▁ATV:
▁መንግሥተ
▁ወሰነ
▁ንህዝቡ
▁ዝበልካዮ
▁የይሁዳ
##ክተሮች
▁እንደምንችል
▁ፍልጠትን
▁ሳንቲም
##ኣዩ
##ረሉ
##ርር
##ባቸዋል
##ጻ።
▁አገናኝ
▁የወርቅ
▁ንክርስቶስ
▁ተዘራ
▁"ጽ
▁ደበ
▁ህዝቡን
▁ጌሮም
##ላችሁን?
▁ርእዩ
▁ይጠበቅ
##ረኽበሉ
▁ኔርና
▁ኣለኹ"
▁ኴንካ
##ልፋ
##መህ
##ሪና
##ኹዎ
##ኰኑ
▁ኣክ
▁የቃል
▁ድሕን
▁ኣይደለ
##ለውቲ
▁ጸሊ
▁ጭብ
▁ተቐማ
▁ብትሆን
##:33
##ቸዋለን።
▁አገላለ
▁23፡22)
▁ዘይኮነ፡
▁ቅርጺ
▁የግላዊነት
▁ደስታን
##ብሃለ
▁አዋጅ
▁ትግራዋይ
▁ንዂሉ
▁Microsoft
▁ኣይክሓድገልካን
##ስጢ
##ጭን
▁ከገ
▁ከሦስት
▁ይደልዩ
▁እንሰጣ
▁ተዘይ
▁ትሪ
▁ትንሹ
▁በፊት,
▁ሐኪ
##ገለጹ
▁አለው፦
▁ኣባኻትኩም
▁ነይሩ፣
▁የታመነ
▁ይቻላል.
▁በዋነኝነት
##ሕ፡
##ቢዩ
##ራሉ
▁ንበል
▁እናበልና
▁ባትሪ
▁አይት
▁ዝተገበረ
▁ክትትል
▁አስራ
▁ሌዋውያን
##ሉትም
▁እግዚኦ
▁ስትል
▁ከለኹ፡
▁ስጋብ
▁ሕይወቱ
##መንግሥ
▁ግድግዳ
▁ብቕን
▁ንብዘሎ
▁በወንድ
▁'ኣነ
▁ህፃን
▁ተናግረዋል።
▁COVID-19
##ኩዋ
##ታለሁ።
##ንም።
##ቀቶች
##ከሙ
▁አወቅ
▁ይለው
▁ለየት
▁ለመል
▁በአሕዛብ
▁እንዳላ
▁ሥራን
▁ለአላህ
▁ንግበር
▁አካዳሚ
▁ተዋናይ
▁አላቸው፤
▁ምህርቲ
▁እባካችሁ
▁ክንምለስ
▁"ንስኻ
▁ሓረስታይ
##ምብ
##ቺን
▁ሃዲ
▁በእንግሊዝ
▁ሊተ
▁የማህ
▁ኢኻ፧
▁ጓዶች
▁የትራንስፖርት
▁ዝመሓ
▁ጭቡጥ
##itcoin
▁በውስጣቸው
▁ብኽብሪ
▁ብዕለት
▁ቃለ-መ
▁ሓለፋ
▁አድርጓል።
▁በእጅህ
▁ያምናሉ
▁ተወሊዱ
##ፎርኒያ
▁ብውሑዱ
##ይላ
##ውነትን
##ድ፡
##ሙላት
##ies
##ጧል።
▁ኣገ
▁ኣሓትን
▁ግቢ
▁ውጥረት
▁ጊዜያዊ
▁ሀ)
▁ዝኣተ
▁SE
▁ተሓጐ
▁ዝዓይነቱ
▁መጺኡ።
▁የግዳ
▁ቀይዲ
▁ይወዳል
▁ማበረታቻ
▁|
##ፍቀድ
##ባቶች
##የል
##:00
##ዛኝ
##ቀራ
##ከበ
##ሃድም
▁እጠይቃ
▁ይኾ
▁መንጐ
▁አንፃር
▁ኪስ
##ወዳቸው
##ላችሁ"
▁በልቡ
▁ድርጣቢያ
▁ገይራ
▁ገይርና
▁Sk
▁ትግበራ
▁ኃጢአትን
▁ይቕጽል
▁ብዓቢ
▁ነፍስወከፍ
▁ክርስቲያናት
▁ይረዳል
▁ካቶሊክ
▁ብሃንደበት
##ብኝ።
##ስትን
##ፈቕ
##ጠዋል።
##ያውን
▁ከሩቅ
▁ክኽእል
▁ግሉ
▁ግንባ
▁ዘይምር
▁ዚደሊ
▁ወንድማማ
▁ሄዱ።
##ንና፡
▁ውሳነታት
▁ሰነዶች
##ago
▁ኣዚና
▁ዳግመ
▁ሬድዮ
▁አድርገህ
▁1980
▁በራሴ
▁እሆናለሁ
##ይ፡
##ኣየ
##ወቅም
##ሮቻቸው
##ሯል.
▁አሰበ
▁ብመስ
▁ወከ
▁ማሰ
▁ደልዩ
▁እትገብር
##ከተማይ
##ረንሣይ
▁ኣቦኻ
▁ተገዳ
▁ፎቶዎችን
▁መርገጺ
▁ዝርያዎች
##በዙ
##ማቸውን
##ሽ?
##ዶስ
▁በየት
▁መቀመጥ
▁ከኤ
▁ይምስ
▁ለሀ
▁ለማቆም
▁ኤረት
▁ያለባቸው
▁MO
▁ሄን
▁በስሜ
▁ደርጊ
▁ሰብኣያ
▁ይቆጠራ
▁አይቀርም
▁ሽግራት
▁ሄድ
##ቐደ
##ፈቻ
##ቀሙ
##ፅኦ
▁"።
▁ዓዶም
▁ዘይኮኑ
▁ይሰጡ
▁ዝኣተወ
##ግንነት
▁say
▁ኣርኣያ
##ung
▁አራተኛ
▁ንምዃን
##በሊ
##ህብን
##ጣ።
▁መሞ
▁ይኣኽ
▁እንሰራ
▁ተነግ
▁ትቶ
▁ዓበይ
▁ደቁን
▁ቤታቸው
▁ክትወ
▁ኪኢ
▁እንደሚገባ
▁"እወ
▁ዛፎች
▁ያስቀም
##ግራቸው
▁ተገዝ
▁ይሄዳሉ
▁ከማንም
▁ገንዘባዊ
▁"ይህን
▁በሕይወታችን
▁ሚእትን
▁ማብራሪያ
▁ሚኢታዊት
▁ገለልተኛ
▁ዬ
▁ቶም
##ረታት
##-ሰ
##ማኒ
##ኹዎን
▁በራሳችን
▁ብፅ
▁ተኾ
▁ዘት
▁የተያያዙ
▁ቅሳ
▁ሲቲ
▁ዝተው
▁የእጅ
##መርሕ
▁ይመስገን
##ግልጋል
▁ሰብኣይ፡
▁ማስተላለፍ
▁ዝተሓተ
▁ስያሜ
##ሓቐ
##ላቸዋል
##ላጆቹ
▁እንቁ
▁ዘበሉ
▁እንዲሰ
▁በአግባቡ
▁ጉልበ
##ለን,
▁ከመካከ
▁ቃልስና
##ውቃቸው
▁የለብዎትም
##ቀርበው
▁ኣይኮነን፡
▁ለውጥን
▁ገሊጾም።
##ጸንሑ
▁ዐይን
▁26_
▁ይላል:
▁ኣሜሪካን
▁ምዕራባዊ
##ሌክትሮ
▁ዒላማ
▁ተባዕታይ
▁ክንዳኡ
▁ኣዒንቶም
##የሩ
##ቢስ
##;.
▁ኣሰል
▁ነበሮ።
▁ተቀመ
▁ሓወል
▁ቀጥታ
▁ዝተረኽበ
##ስትሪያ
▁ክንሰርሕ
▁ቃሌን
▁ካልኦትን
▁ያለህ
▁ጌታ,
▁ሐምሌ
▁ዋጋው
▁የውስጥ
##ገቡት
▁ከማኻ
##ንኩ፡
▁መሊኡ
▁መሸፈኒ
▁መዓስከር
▁ጸላእቲ
▁ተመዝጊ
▁ተጀሚሩ
▁ንአምላኽ
▁በፓሪስ
##ግዕ
##ዓ።
##ቱጋል
▁እለ
▁እለት
##ንም፤
▁ከአምስት
▁የማስተ
▁ጥራይ'ዩ
##ሥራቅ
▁የልጆች
▁ብስመይ
▁የውሂብ
▁ከሌሎቹ
▁ይበሃል
▁ራሳችሁን
▁ውጽኢቱ
▁ይብለና።
▁ምሁራን
▁ሂደቶች
▁ሰይጣንን
▁እየሞከሩ
▁ሊባኖስ
##ናገድ
##'ዞም
##ነሉ
##ሎሪ
##፡4
##ኤ።
##ቂቱ
▁ምይይ
▁ግሪኽ
##ቸው.
▁ወይ'ውን
▁ወይዘሮ
▁በመጥ
▁ዚገብሮ
▁ሰብዓዊ
▁ጠንቅ
▁ንምክል
##ለህ.
▁ድረስ.
##ከፍሉ
▁ፍትሃዊ
##ሃበካ
▁የመስግ
▁የተወለደ
▁በህይወ
▁ላዕለዎት
##ናቅ
##ፈያ
##ህቡ
##A)
##ማው
##ሾችን
▁መጎብኘት
▁ምሕዝ
▁ለክ
▁ናጽ
▁ዓቐን
▁ርድ
▁ሚኢታዊ
##ሰራጨት
▁ኣስፊ
▁‹‹በ
▁ንመላእ
##ከናው
▁መታየት
▁ስለዝኾነ።
▁ንወዱ
▁ዝብል።
##በሮምን።
▁ስምህን
▁ትኹረት
##ኪ፡
##ዶቹን
▁እቱ
▁ኣገል
▁ስዕል
▁ግዳም
▁ማምጣት
##ዎች)
▁የሚረዱ
▁ምርጡን
▁ኸምቲ
▁Com
▁ኔረ።
##ከራከሩ
##ስማሙ
▁አቅራቢያ
▁የራቀ
▁ይኖራሉ።
▁ስለዘሎ
##ነጻጸር
▁ለወንድ
▁በጽድቅ
▁ወታደሮች
##ውጽ
##-ወከፍ
##ድሞ
##ወዲ
▁በሦስት
▁በሥጋ
▁መጫን
▁ከቁ
▁ተሰር
▁ማደግ
▁ኣይስ
▁ልደ
▁(201
▁ንምሉእ
▁ብሓንቲ
##'ዚኣ
▁64
▁ገዛይ
▁ጭብጥ
▁ሰለሞን
▁ኢኹም፣
▁ኽንደይ
▁አስባለሁ።
▁የሳይንስ
##በቂያ
##ብል።
##ርዎ።
##ለኩም
##ደክ
##ሊላ
##ጃን
▁የሴ
▁ነናብ
▁ተገለጠ
▁ወተት
▁ደቅና
▁ድማ።
▁ለመሸጥ
▁እንተሓ
▁ዝተዳለወ
▁መስቀ
▁"እስከ
##ልካዊ
▁ኦርቶዶ
▁"አምላክ
▁አብዛኞቻቸው
##ከናውን
▁ሚስቶች
▁ቅልጡፍ
##ill
▁ዝንባሌ
▁ማኅበር
▁ሊያስከት
##ናዕ
##ህር
##ሚር
##ፅ።
##ሃሪ
##ዐይቲ
##ኖክ
▁መጡ።
▁ከሀ
▁ተረጋግ
▁ተግዳ
▁ደሙ
▁ከተለያዩ
▁ዝነበረኒ
▁አውቶቡስ
▁ብተኣ
▁ገበናት
▁ሱዳ
##ረኸብ
▁ተዓዘ
▁ዞር
▁መንግስትታት
▁ወገኖቼ
▁ተመሊሰ
▁ክመሓ
▁ኢሜይል
▁ቢኖሩም
▁ሳይንቲስቶች
▁ላማናውያን
##ልው
##ጨረስ
##//
▁መጹ።
▁እንመልከት።
▁ዝጸል
▁ክጸንሕ
▁ዘካየ
▁እናገራ
▁ድፍረት
▁ዓማ
▁የሚሉት
▁የተቆ
##ያንን
▁ዕስራ
▁'ዚ
▁እግዚአብሔር።
▁ንምርግጋጽ
▁ብምሃብ
▁ኣይትፈልጥን
▁ውሽጡ
▁ሜክሲኮ
▁ኣይኮናን
▁ፕሮጀክ
▁የተባለ
▁ምምሕያሽ
▁ክክክክክ
▁አፍቃሪ
▁ጢሞቴዎስ
▁ሩት
##ጋግ
##ll
##ቀበላ
##ኺ?
##ፎርድ
##ጦት
##ሩትን
##ሊኻ
▁ኣሓት
▁የኪ
▁ስኒ
▁ዓያ
▁'ኳ
▁"እውነት
▁ንሱ፡
▁እትደሊ
▁የለባቸው
▁ብርታ
▁ጓለይ
##ink
##ረድእ
▁ነይሩ፡
▁ክህልወካ
▁ማክሰኞ
▁ብጸጋ
##ዘመ
##ው?
##ገሙ
##ርቅ
##ካ፣
##ሳቤ
##ቆና
##Bet
▁ብሸ
▁ተደረገ
▁ኢዶም
▁"ና
▁ጉግል
▁ዜብል
▁ንግስቲ
▁ጽቡቕን
▁መቅረብ
▁post
▁ንጽብ
▁በፈቃ
▁በሕይወቱ
▁(ይባ
▁ባቡሮች
##ኣና።
##ነብረሉ
##ስ፣
##ኝ?
##ረየ
##ሰናል
##ሽናል
##ፅኡ
##ጌጋ
▁እርካታ
▁መባእ
▁ይከታተ
▁ለግ
##ለትም
▁እየ!
▁ከፍታ
##ወደደ
▁PS
▁ወሲዶም
▁ብቐዳምነት
▁ይሕሸ
▁ለውጥታት
▁ኣይነበሮምን።
▁የግንባታ
##ቀ።
##ቴር
▁እዋይ
▁አነጋገር
▁ለሙ
▁"ኵሉ
##ዎች.
▁ፍጹ
▁ቅደም
▁አልነበራ
##ላለፉ
▁ጨካ
▁ባህሪዎች
▁ኣይተቐ
▁"ኣቱም
▁የኢን
▁RE
▁ስርዓትን
▁ተከትሎ
▁በሚያሳዝን
▁መተካእታ
##ተሪ
##ጸግ
▁ብገዛእ
▁ንብጻ
▁ዘተሓ
▁ገጠር
▁ልባችን
▁(D
▁ኸረን
▁ኪብሃል
##ምህን
▁ልጅዎ
▁አሉኝ።
▁ግብፃ
▁ኤርትራ፡
▁መጺእካ
##ብረተሰቡ
▁ኮምፕ
▁ክፍለጥ
▁ግበርዎ።
▁ለማስተካከል
▁ብኢድ
▁ለመክፈል
▁ደቂ-ኣንስትዮ
##በዳ
##ትን።
##ዞም።
▁ከሞተ
▁ተኳ
▁ክሽ
▁ክሰምዕ
▁ያዳም
▁ድምር
▁ባእታ
▁ክንረክብ
▁የማናይ
▁ከምዚኦም
▁መደበር
▁አጋሮች
▁ተዓምር
▁ይወስዳል።
▁ይሰጣሉ
▁ተስማም
▁መልዕክቶች
▁"ሕጂ
▁በትንሽ
▁(ምሳሌ
▁የለበትም።
▁(አላህ)
##ልኝ።
##ኩትም
##ተለ
##ፏል
##ሹራንስ
▁በዕድሜ
▁ተተር
▁ክሬ
▁ኢልኪ
▁ባልን
##ሰብን
▁ሥነ-
▁በሚገኘው
##ላሉ)
▁ኢንቬስት
▁በጥበብ
▁ምቕባል
▁ፋይዳ
▁ኮምፒተር
▁ኣመልኪቱ
##ምኖ
##ጠቅስ
##ኪስታን
##ዉም
▁አቲ
▁መአ
▁ከፊቱ
▁ይቐ
▁ይሽ
▁ለብቻ
▁ማሪ
▁"ብዛዕባ
▁ቀዲ
▁ዘይወ
▁ኸባቢ
▁3)
##ደረግን
▁ንምብጻሕ
▁"እታ
▁56
▁ዝመረ
##ብራዚል
▁እየተደረገ
▁በፍር
▁ነህ፤
▁ምሳሌዎች
▁እግዝ
##ዝናኛ
▁ምልክታ
▁ኣሕዋትና
##ማስቆ
##ight
▁de
##ነበቡ
▁ዝዀነት
▁ርሕቀት
▁አታውቅም
▁የግዳስ፡
##ይዙ
##ላለሁ
##ኣዝ
##ራቸው።
##ive
##ዅሪ
▁በጀ
▁ንገዛ
▁ዝጠቐ
▁ለመው
▁ዘለዎን
▁ሎጥ
▁ተነስቶ
▁ሩባ
▁መስዋእት
▁ተጓዒ
▁ውሉዳት
▁እያንዳንዳችን
▁ፎቶግራፍ
▁ፑ
##ርዝር
##ድሮ
##ቸኳይ
##ቶ፣
##ቅድም
##]።
▁እገም
▁አገና
▁መተኛት
▁ያነ
▁(ሀ
▁የተሞ
##ለውጥ
▁ፈጻሚ
▁ኣሎኻ
##መሰክር
▁ሱቅ
##ጅምሩ
▁ጉጅለታት
##ass
▁ብኽልተ
▁መሆናቸው
▁እንችላለን?
▁እብድ
▁ልጃገረ
▁መልካሙን
▁ያምናሉ።
▁ተልእኾ
▁አስተያየቶች
▁ማርያምን
▁ግብጻውያን
##ስኹም
##-"
##ካከላ
##ለይን
##ለኞች
##ሚል
##ኸ?
##ጓቸው
##_4
▁በቅድ
▁ምርግጋ
▁("
▁ዝተለ
▁ኣለወን።
##ምርቲ
▁190
▁መንፈስን
▁ዝኸዱ
▁ሦስቱ
▁በውኃ
▁ይወክ
▁በቃሉ
▁ዱቄ
▁ኣቐዲመ
▁እወዳለሁ።
▁ተኽሊ
▁የተመሰረተ
▁ጎረቤት
▁ቴክኒካዊ
▁ሕጽረት
##ዝካ
##ኣተ
##ቢያን
##ጣፍ
##ራድ
##;,
▁ብሮ
▁ምለ
▁ምጭ
▁ዝሓትት
▁የሚያን
##ሎምፒክ
▁እስክት
▁ሚን
▁ዓለም፡
▁ንዓኺ
▁እምበር።
▁ደጊመ
▁ወጥተው
▁ናባና
▁የመንፈስ
▁ዌብ
▁ተሳታፊዎች
▁ባለሥልጣናት
##በጽሑ
##ኮሩ
##ስባ
##ረኺ
##ሰውን
##ራመድ
##ጫዋ
##ዦች
▁ሰፋ
▁ያጠና
▁ካስ
▁ቅጥር
▁ለመመ
▁ዘይፍ
▁ዚስምዓ
▁ኣሎ!
##መርኮዝ
▁ኣይትስ
▁አሉኝ
▁አውራጃ
▁መለክ
##ረኽቦ።
##our
▁ዀይኖም
▁ዝለኣኸ
▁US
▁በረራዎች
▁አሏቸው።
##ው፣
##ያየት
##ያዋን
##ዐር
##27
▁የጆ
▁ይነገ
▁ትሰ
▁የሚናገሩ
▁ቀጸ
▁ከተማይ
▁መስፈርት
##ልናል።
▁ብዝግባእ
▁በየወሩ
▁ኣየኖት
##ጠቃል
▁አታድርግ
▁(ዘፍጥረት
##ላጭ
##ብራት
##የስ
##ወቱ
##1.
▁እሴት
▁በጥር
▁መማህ
▁ከጌ
▁ከድልየ
▁ይነብሩ
▁ተኩል
▁ሰጣቸው
▁ዘኪ
▁ሓረግ
▁ነገር፡
▁በመመርኮዝ
▁የአዲስ
▁አብሬ
▁ሥራቸውን
▁ኣዒንቱ
▁ወተሃ
▁አለብኝ?
▁አድናቆት
▁ቢልዮን
##ፈጥሩ
##ያሉ።
##ሞትም
##ቕኩም
##IS
▁ኣኸ
▁ኣዳል
▁የረድ
▁ምድን
▁ድሓን
##ታት፣
▁ኣይፈለ
▁ስለቲ
▁ዝተፈለየ
▁አላየሁ
##ርድኡ
▁ገዛውቲ
▁ፊቱን
▁ክብሃል
▁ምትካ
##ምራትን
▁በመጨረሻይቱ
▁ስፍራዎች
▁ለማሳለፍ
##ሊያም
▁ለራስህ
##ኣኾ
##ፈጥረ
##ጠውን
##አላህም
##ቅቅ
##ቃላት
▁የቪ
▁መብል
▁ስዑዲ
▁ያንተ
▁ኣይነበሩ
▁ገጢ
▁እንዲኖሩ
▁ጽላ
▁እንዳደረገ
##ልና፥
▁58
▁ኣንጻ
▁ብዝሓ
▁መለከት
▁ፍትህ
▁በዓመቱ
▁ተዘክሮ
##መለከቱት
▁80%
▁አምናለሁ።
▁ያለማቋረጥ
▁ኣፈላላይ
▁🙂
##ብኻ
##ሪኦ
##ሕልፍ
##ድዳእ
##ያዘው
##ጥፉ
##rit
##100
##ሹ።
▁በሁ
▁በንግ
▁በቅን
▁ለድ
▁ዘወር
▁ደፋር
▁ኣይተር
▁ቀዋሚ
▁አይመስልም
▁ለመሳተፍ
▁ዓመቱን
▁ክትከ
▁የአብርሃም
▁ኤለክት
▁ሌላም
▁የሚያውቀው
▁በሚለው
▁ምዃንና
▁መርኣያ
▁አለው?
▁ይመስላል.
▁ንግዜ
▁ነገሮችም
▁ያህል፣
▁ነይሩ"
▁በፍፁም
##ርሕቕ
▁ኣእጋ
▁ነን!
▁ነብሰይ
▁ዘላለም
▁መራመድ
▁ተጠቃሚው
##ወረደው
▁እንችላለን.
##እትታው
▁አይደሉም.
▁ኣይከኣሉን።
▁ለባም
▁ከዛም
▁ተመለስ።
▁ተሽከርካሪዎች
▁ዘድልዮም
##ብሩ።
##ረበሉ
##AC
##ወንድ
##|5
▁የሜ
▁የሙሉ
▁ምሓዝ
▁ለመደሰት
▁ጠል
##ናይጄሪያ
▁እግዚኣብ
▁ንዓኣ
▁ሄሮ
▁ኢንዱ
▁የምንኖረው
▁ዘፍቅ
▁ሰራተኛ
##li>
▁አለዎት?
▁ጽብቕቲ
▁ስእልታት
▁መፅናዕቲ
##ቛንቛ
##ክሎ
##ፍኩም
##ጻን
##Fi
▁እፎ
▁የጀመረው
▁ይረ
▁ክምለ
▁ናዝ
▁ያላችሁ
▁የሚመስል
▁ሕደ
▁እንደመጣ
▁ሁሉ,
▁ለመቋቋም
##ሎም፣
▁ቀን,
▁ዜፍቅ
▁ፀኒ
##ረኽብዎ
▁የለም,
▁2002
▁ድንገተኛ
▁ንደቅ
▁ምጽዋት
▁ዓቕም
▁መረቦች
▁ባሕርን
▁ዝመልኦ
##መለክተው
▁ማርቲን
▁o
▁x
▁£
##fe
##ዎቻችሁ
##ቀለ
##ሳይን
##ቃብ
##ሃራ
▁በኪ
▁ከኋላ
▁ዝግብኣ
▁ለሁለቱም
▁ኣብነታት
▁ማመልከት
▁(እን
##ስተምር
▁ለመጨመር
▁ቁምነገር
▁እውቀ
▁67
##ሃንጽ
▁ስድራ-
##ፍለጋ
▁ተነሣ
▁ክኢላ
▁ተአምር
▁ውርርድ
▁ማስታወቂያዎች
▁ጠቀሜታ
##ኣድ
##ተየ፡
##ሕሉ
##ጥፋት
##ራፊክ
##,,
##ጫዎች
▁ክበር
▁ከምዛ
▁ሲሶ
▁ኪገብሩ
##ኸውንን
▁ሃገራ
▁አባቶቻችን
▁ድርድር
##ቸዋለሁ፤
▁ልጆቻቸው
##ምኑት
▁የግዳስ
▁ባይሆንም
##ሕልፎ
▁እርሷም
▁ኅብረት
▁ሓጢኣ
##ጋጠመ
##ርዎም
##s.
##ያዣ
##ጭነ
##ጦን
##ቿን
▁በነገሩ
▁ሰላማ
▁ቁስ
▁ይችላሉ!
▁ትንበያ
▁ዝበሃሉ
▁"የተ
▁ይሆናል?
##ከምቲ
▁ፍቓዱ
▁ትችላላችሁ።
▁ያስተምራ
▁መሲሕ
▁በሎም፦
▁የሐሰት
##ኣምኖ
▁በሦስተኛው
##ናማ
##sk
##ድሶ
##ዮና
##ማቕ
##ጾችን
▁ስፓ
▁ፍሩ
▁ዘይሰ
▁በመሆናቸው
▁ረብ
▁59
▁ተጠቐ
▁ሐኪም
▁በትር
##ank
##ደግፍ
##ረኣዩ
▁አዳራሽ
▁ለመግደል
▁ዝደለየ
▁ማግኛ
▁መርከቦች
▁በአውስትራሊያ
▁ሕሰብ።
##ብኩም
##ቐሉ
##ካላዊ
##ለዪ
##ጠኝነት
##ጥዕ
##ወሓት
##ሁበት
▁እዝን
▁መጀመ
▁ዝፍለ
▁ለቤተሰ
▁ሕጅ
▁መንጋ
▁ታምና
▁ሲታይ
▁የእውነት
▁ኤች
▁መርሆ
▁በቀስ
▁‹‹እ
▁ቐዳ
▁ፍትሓዊ
▁ብሕታዊ
▁አድማ
▁ንርእስኻ
▁"ወዲ
▁ዳሕሮት
▁ዝሓለፋ
▁ካቶሊካ
▁ንጽባሒቱ
##-ም
##ዋትን
##ዊስ
▁እረኛ
▁ሰጭ
▁ዘፈን
▁ዓሠር
▁አይቼ
▁ህሞት
▁የተቻ
▁የተሰማ
▁እንዲቀ
▁ጠፈር
▁የአምላካ
▁ዋነ
##ግባእን
▁ዜሐጕ
▁ሃገር፡
▁85
▁ጐደና
▁ሓበሬታን
▁ሻቕ
▁የተባለው
##ገለግሉ
▁ውህደት
▁ይጨምራ
▁ብሏል፦
##ፈሱ
##ሱ.
##ሳያ
▁መድሕን
▁ከኢየሱስ
▁ይራ
▁ተተሓ
▁ለሴቶች
▁ናታ
▁የሚኖረው
▁ቅቡ
▁ጉልህ
##መለክት
▁እስከዚያ
▁ዝኾነሉ
▁ድምጻ
▁ኽትገብር
##rom
▁ጃን
##ምታ
##ገሥ
##ድህ
##ኬቶች
##ial
▁በነፍ
▁ለራስዎ
▁ዘህ
▁ትሸ
▁የተጀመረው
▁ኣሎኹ፡
▁ቤትም
▁ንምሃብ
▁57
##ገምገም
▁ፓውንድ
##መናችሁ
##መኑ።
▁ተናግሮ
▁በይሖዋ
▁አልቻሉም።
▁"ስለምንታይ
▁ዒራ
▁ንምግላጽ
▁•
##ካሄደው
##ጸን።
##ሳሕ
##ሳቸውም
##|6
▁እመርጣ
▁ብባህ
▁የተደ
▁ቤቶም
▁ሊሰማ
▁እያየ
##ድልዮም
▁በፊትም
▁ነበሩ,
▁አማኝ
▁ምድርም
▁ሰዓብ
##out
##ገራቸው
##ጠበቀው
▁ኣመሪካን
▁ይመለከታ
▁ኤልሳእ
▁ፈራጅ
▁የመልክት።
##ታወቅ
##መዋል።
##ባራ
##ቓድ
##ቦታ
##ሬያለሁ
▁አግባብ
▁የፈለጉ
▁የፈለገ
▁ክህበካ
▁ወፂ
▁ለነዚያ
▁ዘምሩ
▁ነው::
▁ኢድና
▁ደርብ
▁ኣይጸ
##ስተም
▁ለማመን
▁የእንግሊዝ
##ላት።
▁ሕጂ፡
##ወደግ
▁ተወዲ
##ጠራችሁ
▁ሃገራት፡
▁አቀራረብ
##:34
▁መንገዶችን
##ግለሰብ
##ለዋል.
▁ሻም
▁ጸኒሖም
▁ሰምቶ
▁ብተወሳኺ፡
▁ገልጸ
▁መጓሰ
▁ተዋህዶ
##ሓቅ
##ናውን
##ይዎም
##ጋቸው
##-8
##ፈቀ
##ug
##ቶቼን
##ሐዋርያት
▁በገበያ
▁የላቸው
▁ነባር
▁ክቐ
▁ክጸ
▁ክቡ
▁እንተላይ
▁ጠፋ
▁አልረሳ
▁ተመረ
##ንንና
▁ኤፌሶን
##ችልበት
▁መካይን
##ገኘውን
▁በሰሙ
##ጽንዕ
▁ኃጢአተኛ
▁እግዜ
▁ጅማ
▁ኣርሒ
▁አራቱ
▁ፈረንሳይኛ
##ከላኸሊ
▁ቁፅሪ
▁ብምሉኡ
##ዝነስ
##ረን።
##ሪታንያ
##ፈረን
##ዋእ
▁አገዛዝ
▁ምዝር
▁ማጋራት
▁ሓሪ
##ትንሳኤ
▁ምስግጋር
▁ወይል
▁ሊታይ
▁ኩባ
##ናትና
##ራዊነት
▁ረኣይ
▁በለኒ
▁ዝኣምን
##ወርዱ
##ቷል,
▁ሓይልን
##ess
▁ኣጋጣሚታት
▁እንደሆንክ
▁ተነሥቶ
##ንቃ
##ኣይን
##ፈሩት
##ሌላ
##ሳሳተ
▁አደርግ
▁ከዕ
▁ብማይ
▁ክተሓ
▁ለነገሩ
▁ገረ
▁ቅናሽ
▁ታማኝነት
##መስለው
▁ያስወግ
▁የልጅነት
##ነገረው
▁የሚያስፈልጉ
▁ኣልኮ
##ካይዶ
▁እንትኸውን
▁መነሳት
▁አሻንጉ
▁ንኩሎም
▁ምህላዎም
▁አይመስለኝም
▁ያቀርባል.
##ዝተ
##ኣታት
##ጋህ
##ጥካ
##ኻውን
▁እረ
▁በብር
▁ዝሸ
▁ስረ
▁ኣይረ
▁ባሏ
▁ይህብ
▁ጊዜና
▁20%
▁ሞኝነት
▁ስርሒት
▁188
##'የን
▁"ኣታ
▁መድረኮች
##ጠየቀ
##ጴጥሮስ
▁መለሰሎም።
##ኖረውም
##ሃድሶ
▁ዝገበርዎ
▁አይኖርም።
▁ተፈሊጡ።
▁አይኮነን።
##ላታ
##በ፡
##መይን
##ተሎ
##አሁን
##ጣፋ
##ሐመድ
##ዱል
##29
▁የፈለግ
▁የጸሎት
▁ና,
▁"+
▁(T
▁(ወደ
▁የተጠቃሚ
▁በእሷ
▁ሲቀ
##ናል?
##ያትር
▁ጨና
▁ኃጥ
▁ሕማቅ
##ፈራሪ
▁መታሰቢያ
##ቋርጥ
▁ሂደቱ
▁ፈገግታ
▁አለመታደል
##ልዎም
##ጣጣ
##ቅኤል
##ሁድን
##26
▁ብሰብ
▁ወአ
▁ወሃቢ
▁ነውሪ
▁ትወ
▁"ቀ
▁እዩ.
▁ባላቸው
▁ሊሰጥ
▁ተመላሽ
▁እንደሚከተለው
▁ብምድ
▁ሆይ:
▁ተፈቲ
▁ሊያሳ
##ለማችን
##ለማመድ
▁ሄዱ
▁ብትግርኛ
▁ዝዓለመ
▁ያሳየ
##ደገፈ
▁ወጣቱ
▁በመንፈሳዊ
▁ከውሒ
▁የተባረከ
▁ሕክምናዊ
▁ገንዘቡ
▁ዕንወት
▁ሰሎሞ
##ራእየ
▁በአብዛኛዎቹ
▁"ከምቲ
▁በትንሣኤ
▁ኮርፖ
▁ፈውሲ
##ጋኒስታን
##ረይቲ
##ጽፉ
▁ከቤተሰብ
▁ይጎ
▁ንድሕ
▁ስሪ
▁ለቀ
▁ሕብረ
▁መንገዳ
##ትንስእ
▁ቅዋ
▁ዚወ
▁ክንው
▁ቦታዎችን
▁ከይከውን
##ባቢሎን
▁አስተዋይ
▁ተቀበለ
▁ጨዋታውን
▁ወዳንተ
##ጽናና
▁ተዛሪቦም።
▁ርኢና
▁የመንገድ
##ለሽ?
▁ተደርጓል.
▁ድሕርዚ፡
▁ዕጽፊ
▁መለክዒ
##በዮ
##መፅ
##መቕ
##መድን
##ጋጊ
##ጠዓ
##ያም
##ሥእ
▁እኖራ
▁በፕሮ
▁እንከላ
▁ዝጠል
▁(M
▁ህዋ
▁ጠመተ
##ድርብ
▁አስርት
##ደረስ
▁ያለኝ
▁ዝሓስብ
▁ይመስለካ
##ረኽብ
▁የሚያስፈልግ
▁አባትህ
▁ዕድሜው
▁1994
▁ንኸም
▁ይንከባ
▁ተከፈተ
▁ክኸዱ
▁ክኢላታት
▁አውታረመረ
▁ይደሊ።
##ጻወቱ
▁ቁሳቁሶች
▁ወ/ሮ
##መሳሰል
##ሰማይ
##ዛመድ
##ኑት።
##ጾ።
▁ኣበሳ
▁ኣሮንን
▁አሰብኩ
▁አዕምሮ
▁የኬ
▁ነጺ
▁ነበል
▁ከክ
▁ይጓ
▁ምህና
▁ተከላ
▁"ነፍ
▁ዕፅ
▁ኤረይ
▁ዓይነይ
▁ነበረኝ
▁ከሆነ.
▁ንዓኻትኩም
▁ብሎኛል
▁የወሲብ
▁1997
▁በዝግ
▁ዘቕረብ
▁መኪኖች
##ማሉ
##ደኝነት
##ቕማ
##ሆኔ
▁እዙ
▁ከጋጥም
▁ዝጀመ
▁ዝሕግዝ
▁ክቐርብ
▁ሰረ
▁ማዶ
▁ናይጄሪያ
▁ኮሎ
▁ክንፈልጥ
▁3ይ
▁ያለነው
▁ወንድሙን
▁ተሓታቲ
▁ወሲባዊ
▁በዓለ
▁ኽንገብር
▁አሉት.
▁የሚከተለውን
▁በፊቴ
▁ኢትዮጵያዊ
▁መንደቕ
▁ሕሙማት
▁ብዛዕብኡ
▁የለብንም
▁ተወለደ
▁ኣውስትራልያ
##ጋእ
##-6
##ጻረ
##ማንን
##ራግ
##ቴል
##ቑ፡
▁የኃ
▁ንገር
▁ዘሐ
▁ደአ
▁ደወል
▁ሃላፊነት
▁ኮንት
▁መርህ
▁እንድሕሪ
▁ቅርጸት
▁ማስተካከ
▁ሆቴሎች
▁በዙሪያው
▁አማካይነት
▁ያተኮረ
▁አስቀድመው
▁ተንቀሳቃሽ
##ዘረጋ
##ታሪ
##የሚ
##ለታል
##ሰተ
##ዳሴ
##ሁል
##ፆም
##ዶር
▁በጊዜው
▁አፋ
▁ሓሓ
▁ከምዙይ
▁ሃዋህ
▁ዕቅ
▁የአገር
▁ኣምላኽኩም
▁ሚያ
▁ከመቶ
▁መጠን፡
##ታውቀው
▁ማድረግ.
▁ሆይ,
▁ተቐበል
▁ብትሕትና
##ረጋገጽ
▁መዓር
##ረኸቡ
##ጽልዩ
▁ተሳቲ
▁ጉዞዎች
▁ፍጻመታት
##ድግፍ
▁አድርጓል.
▁ሓጊዙ
##ሓዙ
##ኩህ
##መጠ።
##|8
▁የኃጢአት
▁መብረ
▁እንቆ
▁ዝፋን
▁ዝፀን
▁ያረ
▁ድላይ
▁ቀኒ
▁ጽርግያ
▁አብያተ
▁በማሰብ
▁ባለስልጣ
▁በምስ
▁ስለዝኾ
▁ጀሚርካ
▁ተጫው
▁ጥቅሶች
▁መጓጓ
▁ፍራንክ
▁ድሕረ
##እነርሱም፣
##ውያንም
▁ሓቅታት
▁የቡድን
▁የብሎምን
▁ተገዳስነት
##ናቸው።
##ኮንን
##ገጃ
##ዓው
##ደጃ
##ቡቲ
##ቑን
##pe
##ጶስ
▁አጎ
▁የዚያ
▁ንያ
▁ክሳራ
▁ወሮች
▁ሰሉስ
▁እናቀርባ
▁ኢካ
▁ገረብ
▁ልሳ
▁የተሠራ
▁አለህ?
▁ሊገኝ
▁ዝተጸ
##ርግር
▁ምሳኺ
##ለዋወጥ
▁ተዛዚ
▁በእውነት,
▁ለማስቀመጥ
▁ኃይልን
▁ገዲፉ
▁ልጄን
▁ባንኮች
▁ዝናም
▁ኴንና
▁ዝዓበኹዎን
▁ሚሊየን
▁መሮር
▁ዝግበኦ
▁መንእሰያትን
▁ዝተወለድኩዎ
##ምሯል
##ሎቹን
##ፈሊ
▁በነበር
▁የዕድሜ
▁ይምል
▁ይከተሉ
▁ተፅዕ
▁ከምእ
▁ኣይኽእልን።
▁(U
▁(N
▁ህሉው
▁ቅርስ
▁ንምጽ
##መልአ
▁ሃገርካ
▁ጉዳይ'ዚ
▁አቀረበ
▁አለበት,
▁መንግሥቲ
▁መኪናው
▁ሳልሕ
##ፈረንስ
▁ንዘለዓለም
▁ውሑስ
▁ህያዋን
▁ኣወዳት
▁ጭፍሮች
##-ለ
##ሕዶ
##ዮብ
##ኻኺ
##ሟቸው
▁እገባ
▁የፍር
▁ክነብሩ
▁ዓደ
▁ከምጽእ
▁ኣይቅ
▁ዘይው
▁በመኪና
▁ሰዎች.
▁ነገሩን
▁እንደሚለው
▁የማኅበራዊ
▁በሚሆንበት
▁ስርሓት
##ኣትው
▁ድምጹ
▁በለ፡
▁መሳተፍ
▁ተዓዚ
##ጽበዮ
▁ተመራማሪ
▁ዝመስል።
▁ኣይከኣልን።
▁ይለኛል
▁በመንግስት
▁ተገንዝ
▁ይውሰዱ
▁ንድኻታት
##ልቀት
##ፈዋል
##are
##ያኔ
##ራርባ
##ሁ.
##ሞስ
##ኽ።
##ፊቱን
▁የዶ
▁ከኮ
▁ሰኣን
▁ትሄዳ
▁ካና
▁ገጠ
▁(ው
▁ይህችን
▁በአገር
▁በተከታታይ
▁ሞገ
▁መንገድታት
##ያውቀው
▁ይጠፋ
##ወድቁ
▁ውጤቱ
##ስዕቦ
▁ምጽባይ
▁እርግማን
##ላሕታ
▁ኣኺሉ
▁r
##ዩ፣
##ኮሰ
##ጋጭ
##ሰዋል።
##አብሔር
##ሏት
▁ዝካየ
▁ክምለሱ
▁ሰና
▁ትሕት
▁ድካም
▁"ካ
▁(ስ
▁ዕስ
▁ለማጠናቀቅ
▁ለማክበር
▁ዝተሰርሐ
▁ሳብ
▁የአባት
▁ቁራጭ
▁ላላቸው
▁አንዳቸው
▁ጣብያ
▁Am
▁በትዕግ
▁ነይሩኒ።
▁ብልዒ
▁ክብሩ
▁መመዝገብ
▁በብዛት
▁አካባቢያዊ
▁ኣለዎ፡
▁የካር
▁መፍታት
▁ዲኻ፧
##ታውቁት
▁ተሓቢሩ
##ssen
##ጓጓዣ
▁ነነዌ
##ዘዘው
##ዕታ
##ረዳን
##አቸው።
##ደኒ
▁በል።
▁ይዘን
▁ግዚኡ
▁ድግስ
▁ዕላዊ
▁ኩላቶም
▁የእያንዳንዱ
▁ኣምላኽ፣
▁በማድረ
##ስቲክስ
▁ባለማ
▁ኢሉ፡
▁እግዚኣ
▁95
▁ምክንያቱም.
##ገኝም።
▁ስራውን
▁በጥቅምት
##ሩሳሌምን
▁አለብኝ።
##ቁርኣን
##ከፋፈል
▁የሚያደርጉትን
▁ይነብር።
▁መኖሩን
##ልፎ
##ዕል።
##ትዮን
##ዳሪዎች
##ሳሉ።
##ሑል
##ሑት
##ዉን።
▁በዝርዝር
▁መፈጸም
▁ብጥን
▁ትናገራ
▁ያገባ
▁ነበርን
▁አንጀ
▁'ታ
▁የምለው
▁ንሱውን
▁ብዝርዝር
▁ያስባሉ
▁ለአብዛ
▁መርሓ
▁ይሰበ
▁አሳማሚ
▁የሚያስፈራ
▁ቐረባ
▁No
▁ምግላ
▁ይመጣሉ
▁ይኖርብዎ
▁ጊልያ
▁የነገር
▁ይኖራሉ
▁መሆናችንን
▁የቀድሞው
▁ከጌታህ
▁ተናገረ።
▁መጓጓዣ
##ይዋ
##ነድድ
##እንተ
##est
##ዳዲስ
##ዛዊ
##ox
##ዉያን
▁መኖሩ
▁ለድር
▁ሰዉ
▁ያብራ
▁ካብ'ቶም
▁ወደርሱ
▁ለመወሰን
▁ሃሪ
##ሎምቢያ
▁ረሃብ
▁በኋላ፣
▁አውስትራሊያ
▁በትሪ
▁ሰዓቱ
▁ያውቃል?
▁ወዳጆች
▁አዳኝ
▁ዝቐርብ
▁"ኣብዚ
▁ቤተክርስቲያ
▁ማርታ
▁ጸሎቶች
##ሕግዘኩም
▁በእንዲህ
▁ሰረገላ
▁ውቅያኖስ
##ረቦ
##ዮ፣
##ጥፋ
##ፋሪዎች
##>>
▁ኣቓል
▁መገኘ
▁ይተሓ
▁ተኛ
▁ሰጠው
▁ቀደሙ
▁ጸሊም
▁በአት
▁ዚኸ
##ፈርዖ
▁በልኩ።
##'የን።
▁ኢኹም?
▁ቅርፅ
##ቕርብ።
▁ዝሃበና
▁ብጹኣን
▁ሓወልቲ
##ንበብ
▁መተን
▁ነጸ
▁ይዳ
▁ዝቀ
▁ዘማ
▁"ሃ
▁ላይ።
▁ምስራ
▁እንዲኖረው
▁ሲታ
▁ቤትህ
▁አሳዛኝ
▁ንመጀመርታ
▁መቅደሱ
▁መትከ
▁ይወጣል
▁"ታዲያ
▁ተፈሊጡ
▁ድርጊቶች
##ንግሊዘኛ
▁ዓዋተ
▁ዝዕድሚ
▁ago
##አችሁ
##ቲቪ
▁ከ19
▁ንሰርሕ
▁ተቛ
▁ትተው
▁ድሉ
▁ሕታም
▁እዚሁ
▁የተለዩ
▁ሳለሁ
▁አስከት
##ንቲባ
##ገብርን
▁ዮሴፍን
##ንካ፡
▁ነበሩ፤
▁መሳርሕ
▁መብዛሕቲ
▁መፍትሕ
▁ብቐንዱ
▁ጠየቅ
▁አድራጊ
▁ንምክልኻል
##በሉት
##ካይድ
▁ይስጥ
▁ይነግሩ
▁ንርኢ
▁ፍጆታ
▁የአላህን
▁አብራ
##ሰማዕና
##ስምዑ
▁ልዩነቶች
##መስልን።
▁ችግሮችን
▁የካናዳ
▁ይወቁ
▁ይኣምኑ
##ላቀሉ
▁ይምረጡ
▁የምስክር
▁ከግማሽ
##'ስ
##ሰ፡
##ሳቸውን
▁ኣንተ
▁አመልካ
▁ከፈለግ
▁እንቢ
▁ዘክር
▁ሓላዊ
▁ገጻ
▁2:
▁ወይውን
##በረ።
▁የመሰ
▁2022
▁ኽገብር
▁ስምዑ።
▁800
▁ንእተ
##ረጋገጸ
▁ማስተካከል
▁መሓመድ
▁ፈሊጡ
##ሎትን
##ተኽ
##ባበሩ
##ዓበየ
##lic
##ሰትን
##ጣጥ
##ሽሮ
##ፊሉ
##ዖት
##ጿል።
▁በሴቶች
▁ተፈት
▁ተቀመጠ
▁ለቆ
▁የሚወስድ
▁ፍሪ
▁ቅጽል
▁ኮታ
▁'መ
##ዳንኤል
▁ኤሳው
▁ቦታው
▁ክፍጠር
▁በማሳ
▁ግብሩ
▁በልቤ
▁በለ፦
▁ይሄው
▁ድንኳ
▁በረዶ
##ታቸውንም
▁ፈርዖንም
▁ፈተናዎች
▁ክህልዉ
▁ዘተኣ
▁ይወስዳል.
▁ብውሽ
▁አድናቂ
▁ጐይታይ፡
▁ምሥራቅ
##ንጋፖር
▁የባለሙያ
▁በአማካይ
##ኩ.
##ወተ
▁አሰጣ
▁የፖ
▁የሊ
▁የከፍተኛ
▁የደረሰ
▁ከገባ
▁ንክልተ
▁እናኸ
▁ትላን
▁ሁኑ
▁የመግ
▁ረጊ
▁እትቕ
▁አንዳቸውም
▁ጀሚራ
▁ተኸሲ
▁ዘይኰነስ
▁ምሁራት
▁ዝደለዮ
▁ገንሸል
▁የተመረጡ
▁ይኾኑ።
▁ደቡባዊ
▁ዋነኛው
▁ተፅዕኖ
##ላምን
##ear
##ወጀ
##PN
##ال
▁እሰራ
▁ኣፕ
▁በሸ
▁በኃጢአት
▁ንፈር
▁ኣይሰማዕ
▁ባስ
▁የተረጋጋ
▁አለህ
▁እንዳበለ
▁አላየ
▁ንሱ'ውን
▁ብርታት
▁ጓና
▁ሌላን
##ብለዋል
▁ተመልክተ
▁ነብይ
▁ፈቃደኞች
▁BBC
▁ይሕብር።
▁ብኽብረት
▁ነይርዎ
▁ብሄረ
▁ቀለሞች
▁ሕንፃዎች
##ዝዝ
##ዋለህ
##ዱ፣
▁ነበሮ
▁ከነፍ
▁እንረዳ
▁ለከ
▁ድኹም
▁ሓውና
▁ደራ
##ዎችዎ
▁መንከባከብ
▁የተፈጠረው
▁ታዳሚ
▁ንምቅ
▁የማዕ
▁ዘንድ፥
▁ዝበሎም
▁በምድሪቱ
▁ምሕረትን
▁በሕንድ
▁Bitcoin
▁ማሳደግ
▁1998
▁ፈሊጠ
▁ግዝያዊ
▁ትፅቢት
##ዕታት
##ሰሱ
##ኡይ
##ED
▁እሴ
▁ኣሓ
▁ነሩ።
▁ከበር
▁ምባ
▁ንግዚኡ
▁ተቋቋመ
▁ስምን
▁ስሕተት
▁ደማ
▁የሚጠብቅ
▁1,000
▁ለመከተል
▁እንተኣ
▁ርጉ
▁77
▁በልዩ
▁ዕድሎች
▁ጭራ
▁ነን.
▁የቀረቡ
▁ምፍልላይ
▁እድሉ
▁ብሰለስተ
▁አግኝተዋል
▁ይነግር
▁እንደመሆኑ
▁ዝቑጸሩ
▁አዝናኝ
##ሓድር
##ህተት
##nt
##ድኅ
▁ይገደ
▁ማይል
▁"ሰው
##ዎች፣
▁ከምንም
▁ዚኣምኑ
▁እስማማ
▁እንደሚሉት
▁ብዛዕባይ
▁ምኽባር
▁ከሆነ፣
▁ስልኮች
▁አባቶቻችሁ
▁Ar
▁ነይሩ?
▁ተደፊ
▁ደጊሙ
▁ሕይወቱን
▁ክሓስብ
##ኖረኝ
##ፖለቲካዊ
▁90%
▁ተመልከቱ።
▁እናምናለን
▁አምራቾች
▁የሠራዊት
▁ደናግል
▁ዓሠርተ
##በና።
##ፍረድ
##ጠቡ
##ጥዎ
##ኺ።
##ቃሕ
##ዊያን
##i)
##_5
▁ብሱ
▁ናይዞም
▁ባርዕ
▁ብዙዎችን
▁ኪው
▁አይደላችሁ
##ናል"
▁ክፍተት
▁ዓይና
▁በሚገኙ
▁ንዓታቶም
▁መለኪያ
##ረኽቦም
▁ስራው
▁ቐንዲ
▁የኢሜል
##ንብቦ
▁በላጭ
▁መፅሓፍ
▁ኣይምተ
##ቐንየ
▁ሕገ-
▁ጥልቀት
▁ይለኛል።
▁ድምፁን
##ክመ
##ዓኒ።
##aw
##ያብ
##ዳራ
##ዲያስ
▁ከነበሩት
▁ከሁለቱ
▁ምብላዕ
▁እንነጋገራ
▁የሚስማማ
▁(G
▁ምስክ
▁አልማ
▁እተጻሕፈ
▁በዚያች
▁ይወዳል።
▁የቆየ
▁"ነዚ
##ፕሬዚ
▁ንታሕቲ
▁ኣንበብቲ
▁፭
▁€
##በታት
##ርኹም
##ሰሪ
##ጢፋ
▁እብል
▁በጨረ
▁በዅሪ
▁አዩ።
▁ነህና
▁ከባብ
▁ብገ
▁ንቀ
▁ተፈላ
▁ተደጋጋሚ
▁ስቶ
##ውንን
▁ትታ
▁ሓካይ
▁ከምር
▁የሚፈልገው
▁ፍሰት
▁ለመላክ
▁ክትሓትት
▁አስቤ
##ይንና
▁ከአን
▁ማንሳት
##ላቸው፤
▁ማሕደር
▁እየተካሄደ
▁ኣለኹ፣
▁ለመቀየር
▁ትምክ
▁ራሳችሁ
▁(ዮሃንስ
▁ቀልጢፍካ
▁ማራኪ
▁መናፍስቲ
▁ተኻይዱ
▁ፐ
##ክሽን
##AN
##ሰህ
##ሰበው
##ጠህ
##ደስት
##ጽል።
##ቪል
▁የንግ
▁የድልዮ
▁የቀጥታ
▁ይጮ
▁ብጽሑፍ
▁ስጠኝ
▁ለሕዝብ
▁እናቶች
▁ድህ
▁"ንም
▁የሚስብ
▁ገደል
▁ለመጥ
▁ዕላም
##ኩምን።
##ከልከል
▁እትነብር
##ወሰነው
▁ባህልና
▁ዞባዊ
▁ንሰላም
▁ዝቐር
▁አውታረመረብ
##ው፤
##መት።
##ቦምን
##ሺህ
▁በኛ
▁በጽሑ
▁የዕለት
▁ነገር።
##ኩም፣
▁በመፈለግ
##ራይስጥ
▁ሥራሕ
##ገብሪ
▁ጀምረ
▁መሰሉ
▁ዶባት
▁62
##ፈልጥዎ
▁አውራ
▁ነፍሱን
▁ልብህ
▁ፍርድን
▁ብስጋ
▁ዝወጽእ
▁በደህና
▁በብዓመቱ
▁ተደነ
▁ቅርጽ
▁ብሰማይ
▁ኾኖ
▁ዱባይ
▁መጓዓዝያ
▁የተገነባው
▁በዋናነት
▁ገብርኤል
##ስቱም
##ርዶ
##ወሱ
##ደቂ
▁የኖ
▁ከራሱ
▁ይዛረቡ።
▁ተገድ
▁ተደጋ
▁ሰመ
▁ሓጋይ
▁(5
▁ለመም
▁የመነ
▁በተወሰኑ
▁ከአውሮፓ
▁ተቐመጠ።
▁ሄጄ
▁አምባ
▁ተሓታት
▁ይቀበላ
▁ሻዕብያ
▁ሕይወቴን
▁ስቴት
▁መሓዙ
▁በሰውነት
▁ዝረኣየ
##ፋይናንስ
▁የኮምፒ
▁ስትራተጂ
▁ጋዜጠኛታት
▁ኣረጊት
▁አይመስለኝም።
▁ፍራፍሬ
##rypt
▁የሚገርመው
▁ወከፎም
##ብኦ
##ህዮ
##lers
##ለዮ
##ድድር
##ሰተኛ
##አን።
##ib
▁መኳ
▁መመርመር
▁ብገንዘብ
▁ንክን
▁ስሕ
▁ለባለ
▁ለሦስት
▁ትገብሮ
▁"ባ
▁ደሞክራስያዊ
▁ልባቸው
▁ቤል
▁ኣሎ፧
##ረጋጊ
▁ዮው
▁ይኹን፡
▁የትኞቹ
▁ተሰና
▁ውሽጥና
▁ሄደው
▁እውነተኛው
▁ኣጋንንቲ
▁ዘርፎች
▁የብላን።
▁የሌለ
##-12
▁ኣዕዋፍ
▁se
▁ኮሚሽ
▁ጠብቆ
▁ቸርነት
▁ጂኦ
##ሸንፍ
▁አቅራቢዎች
▁እንመክራ
▁ኮቪድ-19
##ቧንቧ
##ሽከርከር
##ናቀ
##ልወጥ
##ኣሽቱ
##ፍላጥ
##ጠሩት
##ሊእ
▁ተረት
▁ሰገዱ
▁ዘዋ
▁ግባ
▁(ማር
▁የተረጋገጠ
##ቶም፡
▁ዘይከውን
▁ኮከ
▁ክትኮኑ
▁ሓደኳ
▁የመገናኛ
▁አልፈልግም።
▁'ሞ
▁ቦርሳ
▁ኔራ።
##በላሹ
##ጠብቀው
▁እንዳለብን
▁ኃይሊ
▁ኣኽቢ
▁በላዩ
▁ብሉጻት
▁አዝ፦
▁ኣቡኡ
▁በነገራችን
▁ዕንቅፋት
##ልብ
##-ነ
##ሪንግ
##ኽኣ
▁ኣደን
▁አገኙ
▁የፍለጋ
▁ይበቃ
▁ንዒ
▁ለ)
▁ዘገልግል
▁ትመስል
▁ሓሰ
▁ሓሳዊ
##ለትም።
▁ጋህ
▁ዘይበ
▁ዓመጻ
▁ጸርፊ
▁ኪኸይድ
▁ርቆ
▁መሰለ
▁ንኣባ
##ወደዱ
##ወጣበት
##ጥፍኣ
▁1999
##21)
▁ኮንፈረንስ
▁አንቺን
▁www
▁forum
▁(ሀ)
##ዕኩም፡
##ፈላል
##ቃር
##ሑ፡
▁አገኛ
▁ክሓትት
▁ናውቲ
▁ቤቶችን
▁እንተስ
▁ኤረ
▁እርሱንም
##ትናገር
##ወሰኸ
▁7.
▁ኣፍደገ
▁ኦሊ
▁ኦባማ
▁ሕቶ፡
▁እርስዎም
▁የምትችለው
▁በደመና
▁ኣይንኽእልን።
▁ክህነት
▁ይፈቱ
##ዋዕ።
▁ክወና
▁ዞባታት
##'ምበር፡
▁ለማስተማር
▁ብኸምኡ
▁የመንግሥት
##ንሳቶም
▁ይታወቃል።
▁መቆጣጠሪያ
##ዘና
##ርሞ
##ሳለ
##ራሚ
##ኪ?
▁መሰብሰብ
▁ይክእል
▁ክምህ
▁ሕሊና
▁ታህሳስ
▁ክትስ
▁ሳያስ
▁ሳጥን
▁ግዜኡ
▁መጠኑ
▁10%
##ገለጽ
▁ወለዱ
▁ምምራጽ
##ሆናችን
▁በጥልቀት
▁ምውህ
▁"ንሱ
▁የነፃ
▁ወድጄ
▁እናውቃለን.
##ነታችንን
▁አለን.
▁ያግኙ.
▁እንክብሉ
##"የ
##ነኩም
##ትም።
##እነዚህ
##ለሊ
##አና
##ፎቹ
##ፕረ
##ኳስ
##ጅምላ
##ዶ፡
▁የፍት
▁ከሶስት
▁ይፈላለ
▁ዝብላ
▁ትሰማ
▁ምስኪን
▁ወይለ
▁ዝተቓ
▁ዚኽእሉ
▁ሰብአዊ
▁ክትመ
▁ግዜና
▁ክፍትን
▁ዝኾነ።
▁አድርጋ
▁ኣቦኦም
▁ግብራዊ
##ሰምዐ
▁ብዝተፈላለዩ
▁ካባታቶም
▁ሚኒስትሩ
▁ፋይናንስ
▁ዘልኣለም
▁በሎም፡
▁ይገመ
▁ሕያዋን
▁ኣገልግሎታት
▁ማሽኖች
##መቻቸት
▁ሪፖርቶች
▁ተታሒዙ
##ልም።
##ld
##ቅብ
##ፋፋ
##ጓሜ
▁በሩን
▁የዛ
▁ምጥር
▁ስድር
▁ለቢ
▁ኣብራ
▁ትንተና
##ንድስና
▁ኪብል
▁ረቢ
▁ብዛዕባ'ቲ
▁ሁኔታውን
▁ቋንቋን
▁ሓድሕድ
▁Twitter
##ary
▁ተረፍ
▁ፕሮጀክቱ
▁ብዓወት
▁ትምህርቱ
▁ተጻዋ
▁ምቕያር
▁ፓርቲዎች
▁ነዳጅ
▁ንምድሓን
▁ርብዒ
▁ኤፍሬም
▁ኢንዱስት
##ልሲ
##ታሊ
##ጣቸውን
##ሮቹን
##ዉ፡
##ጧቸው
▁ኣዘዝ
▁የሰማያትና
▁ከግብ
▁ይውስኽ
▁እንቀጥ
▁ክነግ
▁ማርክ
▁ሕሱም
▁አይፈልጉም
▁ፈነወ
▁ዚቝ
▁አንገ
▁ሳሉ
▁እስትንፋስ
▁ተመሠረተ
▁ሴቲ
▁ቅድሚት
▁ነፍሶ
▁ደኣ፡
▁ወለደይ
▁ተጋላጭ
▁ይስመዓ
▁የመጣሁት
▁መሣሪያዎችን
▁ኣዒንተይ
▁ባሕርይ
▁ጠበቓ
▁ፖሎቲካዊ
##ዘካ
##የድ
##ሌጅ
##ቕበል
##ፊሕ
▁እካ
▁ዘዝ
▁ዘፍር
▁(4)
▁አይታይ
▁የተቋቋመ
▁እንዲሠራ
▁ኸይት
▁ክትድ
##ፍትሒ
▁ተገሪ
▁ፍርዱ
##ካንሰር
▁ኣእት
▁ብልጫ
▁ኣይኮናን።
▁ድልየ
▁ይመልከቱ።
▁ኰነ፡
▁ዂሎም
▁1970
▁ይቀበላል
▁አውሮፕላኖች
▁am
##ይተ
##ይቕ
##ኩራ
##ገመት
##ርኽ
##ሰነ
##ሉኝ
##ዳእን
##ኒሽ
▁ብሰይ
▁ናሙና
▁ውዒሉ
▁ኣይከውን
▁ኣይሁዳ
▁የሚባለው
▁ህዳር
▁የተደረጉ
▁በመደበኛ
▁በአንጻ
▁'ዶ
##...?
##የት።
▁አትክል
##ታል,
▁በልብ
##ልፍል
▁ጽሑፋ
▁ኻብኡ
▁ተቀማጭ
▁ነብያትን
▁ተኸቲ
▁መምሪያ
▁ተመለሰ።
▁"ሰላም
▁ቤት-ትምህርቲ
▁ነግሮ
▁ክዳውን
▁ብዘየገድ
▁ሊቃነ
▁አልነበሩም
▁ተዋሳእቲ
▁www.
##ን)
##ክለታ
##ገረድ
##ጭነቕ
##ኒና
##ጊሙ
▁በዕለት
▁አደረጋ
▁የር
▁የደንበኞች
▁መገባ
▁ከጋጥ
▁ንፍር
▁ማሟላት
▁ዝተወስደ
▁ዚን
▁ቢያስ
##ናል,
▁ለእሷ
##ልና!
##ዘይት
▁ሀያ
▁ዲሲ
▁በሎ፡
##ኖሩበት
▁ሲያደርጉ
▁Ex
▁ኮምዩን
▁የደስታ
▁ሚስቱን
▁በጉዞ
▁ደረቅ
▁ንሓድሕድና
##ቋርጽ
▁ምክትታል
##መዓልቱ
▁says:
##ኸ፡
##ዑይ
▁በራስዎ
▁ምምር
▁ምልካዊ
▁ወራር
▁ውጫዊ
▁እንደማት
▁ጥሪት
▁ባለት
▁እዚአ
▁ሁሉ፥
▁ጠሊ
▁አብይ
##ላቸው)
▁መንገድን
▁ባለቤቱ
▁ፖለቲካውን
▁ብሰፊሑ
▁(የተ
▁ወጣ።
▁ኣቐዲምካ
▁ግምቢ
▁የህንድ
▁One
▁ንህይወ
##መላለሱ
▁ክብለካ
▁ማህበረሰቦች
▁በእጃቸው
▁ገዚፍ
##በለው
##ነነ
##ግበሩ
##ፍቶ
##ህበረ
##ያዊት
##ደቐ
##ቃል.
##]>
##SE
##ቪዬ
▁አደርገ
▁መኖራ
▁ብካልእ
▁ማነጋገር
▁ትደል
▁የሚናገረው
▁2ኛ
▁እዚ'ውን
▁ይህብ።
▁ሲኖ
▁ጸዓት
▁ክትኣቱ
▁ሳሚ
▁ሥዕ
##ቅርታ
▁አብን
##ሰርሖ
▁ጎጂ
▁ዘንድ,
▁ሂዱ
▁ይመስላሉ
▁ተወካ
▁ዝኣቱ
▁Sh
▁ኣቢይ
▁ሰንሰለት
▁ቫይረ
▁ከብዲ
##ጽውዕ
▁ስሜቶች
▁ማናቸውም
▁አስተዳዳሪ
##በዋል
##ኣኑ
##ግሮች
##ትናን
##ጓም
##ቫን
▁አድም
▁መግባባት
▁መከላኸሊ
▁ይደው
▁ምንድር
▁ለዛ
▁ኢሚ
▁ኣይው
▁ገሩ
▁ዕቝ
▁እንተዀ
▁ኩላ
▁ምንኛ
▁እምነቱ
##ርያስ
##ርድእ
▁ሁኔታዎችን
##ክብብ
▁ይችላል!
##ገኛል
▁ንሳተን
▁ጭነት
▁ከሎኻ
▁ደርቢ
▁Word
##ከብሩ
▁ሺዎች
▁ሰሚዕ
▁ይሰማኛል።
##ስራቅ
▁መዋእል
▁ውጤታማነት
##ell
▁አይገባም።
▁ኣውጺኡ
▁አስከፊ
##ናጽ
##ብዓት
##ፈጽ
##ሉ)
##ጠቓልል
##ሻብ
▁እመለሳ
▁በባህ
▁መከላከል
▁ይዓ
▁ይርአ
▁ይረዱ
▁ተኪ
▁ተጉ
▁ተማር
▁ናዕቢ
▁ማዓልቲ
▁ትኹን
▁ውጺ
▁ድ.
▁እንደማንኛውም
▁ታግ
##ሰርሓ
▁ሂቦም
##ረዳው
▁ይኹነ
▁ኦፕሬ
▁ጐን
▁"የሚ
▁የለም"
▁በረኸ
##ጠይቀው
▁እንዳይሆን
▁በክረምት
▁ማእከላት
▁አናውቅም።
▁ንማሕ
▁ተፈጸመ
▁የጃፓን
▁1xBet
▁ይስሃቅ
##በሬታ
##'ን
##ዋለሁ፤
##ደ፡
▁አሮን
▁የጠበቀ
▁ይዅ
▁ንሸ
▁ዝጀመር
▁ስተ
▁ግዢ
▁ዓባ
▁ቀረጽ
▁ታና
▁--
▁የመከላከያ
▁ርህራ
▁ሆላንድ
▁እንዳታ
▁ዶላ
##ርካዮ
▁ተፈሪ
▁ሜሪ
▁መሳፍንቲ
▁ተጋድሎ
▁ምትክ
▁ኢኹም፧
▁አልነበረውም
▁ትልቁን
▁ኣተሓሕዛ
▁የጎደ
▁ቀጣይነት
▁ዲኹም?
▁ተለይቶ
▁የተከለከለ
▁ዘለዓለማዊ
##ኝ፣
##የዋ
##ዋሽ
##ኢታት
##ኑር
##Re
▁በነሱ
▁የዱር
▁መጣል
▁ከሴት
▁ንዜ
▁ንቓል
▁ንርእዮ
▁ካንተ
▁ካላቸው
▁ገጾም
▁ቀጽል
▁አይመ
▁ረዲ
▁ሆነ፤
▁አስተው
▁"አት
▁ብልቢ
▁ዀይነ
▁ድልድይ
▁ኣቐሚ
▁ዛዕባታት
▁ርእስኹም
▁እናያለን
▁ዝኸበርኩም
▁(ይባላሉ)
##ናዊት
##ኣኹ
##ጺር
##ካኔ
##ዋው
##ከአ
##ሳለሁ።
▁ነዊ
▁እንጨት
▁ተጀመረ
▁ያክል
▁የተነ
##ርስዕ
▁እንተለ
▁ዚሓ
▁ሽብር
▁ቆመ
▁ምእማን
##ተው።
▁ኣቦን
▁ጀሚረ።
▁መሠረት,
▁ሰሚዑ
▁በውስጥ
▁መሥዋዕ
▁ትካላትን
▁"እንዴት
▁እንተኾይኑ፡
▁ሌሊቱን
▁ቅጥዒ
##ነቴን
##ፍሮ
##ሪስት
##ማርያም
##ሳውን
##ኒኑ
▁ኣንድ
▁ዝሽ
▁ወቕ
▁ባዮ
▁የተጠና
##ስተዋል
▁ብዙኃት
▁ሲሄዱ
▁ዚኽ
▁የመሰለ
▁ርት
▁ክንፍ
▁መልበስ
##ልናን።
▁ዳስ
▁እተጠቕ
▁ኣንጊ
▁እንድዒ
▁ፅባሕ
▁ይስማዕ
▁የባሰ
▁ከልቢ
▁ረኺብና
▁መገዱ
▁ከአንተም
▁ቁጥራቸው
▁፲፪
▁ልጃገረድ
▁አስፈፃሚ
▁ተግዳሮ
##ና,
##8_
##ድም።
##ወላ
##ከፈት
##*+
##p>
▁እግዚአብ
▁ኣመስግ
▁የዚያን
▁ከዛሬ
▁ለረ
▁ኣይፈልጡን
▁ሕንድ
▁ዘይምህ
▁እየሱስ
▁በአባቱ
▁ሞኣብ
▁ንምክ
▁እንኳዕ
▁ይጠብቅ
▁ብትኽ
▁ምርጫታት
▁ሱቕ
##:35
##ጠንቂ
▁ch
▁መምጣ
▁በጃፓን
▁ሰራቒ
▁ተናግሯል
▁ለማስተዳደር
▁እንደነበረው
▁ዓድታት
▁ድንጋጌ
▁ጳጳስ
▁ሔዋን
▁ፀብፃ
▁(ራእይ
▁ማቆሚያ
##መጋገብ
##እቆብ
##ዳሉ.
##ሃብን
##ጊሩ
##ፃፈ
##ዶንያ
##ኵር
▁ዝመሰ
▁ተቈ
▁ክመል
▁"ጥ
▁ሓዚ
▁ቀሺ
▁አይነቶች
▁በመካከለኛው
▁ዝተገልጸ
▁ዝተጻሕፈ
▁ዝተላዕለ
▁በአስተ
▁በአሥራ
▁ዚግባእ
▁ኮንካ
##ብልን።
▁አልወድ
▁በተለያየ
▁ከመሆኑም
##ረብኛ
▁የማታ
▁የለሽ
▁ይሰም
▁ሊያደርገው
##ጠናከር
▁አልነበረም.
##ሰበስብ
##ናግዒ
▁መውደ
▁ፌዴ
▁ቴክኖሎጂዎች
▁ብመንጽር
▁ተኽለ
##ፈፀመ
▁አዛኝ
▁ተዳልዩ
▁በመሠረቱ
▁ተቐማጦ
##ነስተኛ
##-7
##ያውያን
##/ት
▁ኣቅ
▁በ200
▁የደንበ
▁የጽሑፍ
▁ብሞ
▁ብዓልቲ
▁ንካ
▁ንጓ
▁ዝፍጠር
▁ለኣኸ
▁ልግ
▁1ኛ
##ለምና
▁ዓመቷ
▁ዚመስል
##ደርቲ
▁ተመዲ
##መንፈስ
▁"እና
▁ኺህል
▁መንፈሱ
▁ኻህን
▁ፋንታ
▁ኣቢልና
▁አዎ፣
▁ኣለኹ፡
▁ኣይክኣ
▁ገምገም
▁ኣስተምህሮ
▁ንሓድሕድኩም
▁ይዝከር።
##ጋገሪ
##እነርሱም
▁ስሚዝ
▁ብድሕር
▁እፈቱ።
▁መላእክትን
▁ዱቄት
▁አውታረመረቦች
▁ቮ
##ማጥ
##ያንም
##ቱና
##ቨን
##ኻር
▁እጽ
▁በገባ
▁በናንተ
▁መኝታ
▁ይማራ
▁ይጅምር።
▁ብቓል
▁ንቅድ
▁ዝገብረ
▁ተናገረው
##ውንና
▁እናቱን
▁ኢማ
▁ጥይት
▁መንቀጥ
▁በመፍጠር
▁አስመልክቶ
▁የአማ
▁የምችለው
▁የምናውቀው
▁ከአባቱ
▁ኣንስትዮን
▁ድሕሪት
▁ኺዳን
▁እጅህን
##ክርስትና
##ርናዕ
▁ዝርኢ
▁አቀፋዊ
▁ምትእትታው
▁ወዳጅነት
##ቶቹም
##ጠቀሙባቸው
▁ገዲፍካ
▁ኸምዚ፡
▁ያእቆብን
▁ልኡኻት
▁ማኅበራዊ
▁መወከ
▁ይሓይሽ።
▁ዝባሃል
▁ተጽፎ
▁ጸሓፍቲ
▁ኢብራሂም
##ውዎ
##ስላም
##ተባብ
##ዳሰ
##;;
##ኖቻቸው
##pr
▁በቶ
▁ከቕርብ
▁ይሃ
▁ንሱስ
▁ስሜን
▁ያቆ
▁ነበርን።
▁ሊሰ
▁ኩኑ
##ገልፅ
▁እተፈልየ
▁ሆነ.
▁10.
▁መርዓት
▁ምትእኽ
##ቸዋለን
▁ኣይኮንካን
▁ክህቡ
▁ተረዲኡ
##ice
▁አታድርጉ
▁የለውም.
▁ዮሴፍም
▁መፅሀፍ
▁ንኺድ
##ኽብሮ
▁በገነት
▁ሳዕቤናት
##በጠ
##ኩ፤
##ምፕ
##ገነት
##አስ
##ቃቃ
##ዜን
▁በምና
▁በባለ
▁አቡ
▁የኒ
▁ነባ
▁ነዲ
▁እንኖራ
▁ንርከብ
▁ዝዳ
▁ያደረጋ
▁ዕርክ
▁ሰብ፣
▁የእንስሳት
▁'ይ
##ንን፡
▁ስምረት
▁ሀይል
▁ከምዝሓ
▁700
▁ታሪኩ
▁ዩ።
▁ፍርሃ
▁ምሕጋዝ
##ቀጥሉ
▁ኢንሹራንስ
▁Pay
▁Net
##መጡት
▁መታዘዝ
▁እነዚያንም
▁በመንገዱ
##ሪስቶች
▁ሚልዮ
▁ሕንጻ
##ወግድ
##ገነዘብ
▁መስተን
▁ይብለና
▁ምናባዊ
▁አምራች
▁ቅርንጫፍ
▁አገላለጽ
##ሓሳብ
##ስዎ
##ረዮ
##ካያ
##የኝ
##ዮርክ
##ቾችን
▁እመል
▁እሳቸው
▁ኣላት
▁አሁኑ
▁የሁሉ
▁የፈጠረው
▁ንዛረብ
▁ዝጅምር
▁ተበራ
▁እናበልካ
▁ያጠቃል
▁ሕሩ
▁(ክ
▁ጉጉት
▁አስበው
▁ንስለ
##ንስሳ
▁Mar
▁የፍቅ
▁ቍርባን
▁ተደርገ
▁ደንበኞችን
▁ምንቅስቃስ
▁የወደፊቱን
▁ሓቲተ
▁አድርግ።
▁ኣዴታት
▁ካህናትን
▁ኢህወደግ
##ፕላኔ
▁ህላዌ
▁መልዕክቶችን
▁ሓልዮት
▁ካሕሳ
▁ምይይጥ
##-ት
##32
##ቸር
##ደለየ
##ቀበለ
##ቅ።
##ፀም
##ቒዱ
##C)
##bet
▁በድም
▁መመስ
▁ብባ
▁እንበል
▁ዝወሰደ
▁ማከማቻ
▁ውዕ
##በርን
▁አንድዬ
▁ነገሮ።
▁ክፍጸም
##ረብሓ
▁ስምዖን
▁አይደለም"
▁ሎሚ፡
▁ምዃኑን
▁ተባባሪ
▁ምሳሕ
▁ተማሪዎችን
▁ኣይኮነትን
##ዋቂዎች
▁ዉስጥ
▁ትኩስ
▁ያገኛል
##ቃወሙ
▁(200
▁መደምደ
▁መሆኔን
▁ኣየድልየካን
▁የኑሮ
▁ኣንስትን
▁ልኢኹ
▁አሰራር
▁ሃዋህው
▁መገባደጃ
##ኣል።
##ዓዉ
##ማንም
##ቖት
##ጽሩ
##ኖስን
▁የዘር
▁የወንዶች
▁የጥንት
▁ከንቲባ
▁ይሰርሑ
▁ንጽበ
▁ክበብ
▁ውሒ
▁ካላችሁ
##ባትና
▁ናብ'ቲ
▁በማያ
▁ልጅ,
▁ሊያገኙ
▁/>
▁በሌላው
▁ተማሃራይ
▁ምጽንና
▁ኾናችሁ
▁ፈጺመ
▁ተሸክ
▁ኣቐዲምና
▁የሚታወቀው
▁ደቅኹም
▁ይግለጽ።
▁ነቢያትን
▁ነበልባል
▁he
##ዝኾነ
##ናፊዎች
##ግሩን
##ፍስ
##ለቡ
##ቅተኛ
##ፃን
▁ኣርባ
▁ኣማዕ
▁አሠራር
▁ወነ
▁የሚጀምረው
▁ቀቢ
▁ባንድ
▁(ነ
▁ቤታችን
▁ኣለኩ
▁ከኣ፥
▁ዋሻ
▁ከመሆን
▁ለእነዚያ
▁ተስፋዎች
▁ተገዢ
▁ነኝና
▁ፊትህን
▁ከፍተኛው
▁ተዋጋ
▁የታወቁ
▁ምህዞ
▁ክህቦ
▁ሻው
▁ኣማኒ
▁ጽሕፈ
▁ለስላሳ
▁"ወንድ
▁ዳሕራይ
▁ለመንከባከብ
▁ኣሸጋሪ
▁ተኻይዱ።
▁ሲነፃፀር
▁ጥፋተኛ
##🇪🇷🇪🇷
##ደራዊ
##ቀላ
##ቱዕ
##ቪያ
▁እኖ
▁የሃይማኖት
▁መፋር
▁ዝወለ
▁ክርእዮ
▁ክረአ
▁"ድ
##ላይት
▁እንደውም
▁ዕጫ
▁ሲገባ
▁ዚደልዩ
▁የሚያሰ
▁የማደርገው
▁ኣይትኹ
▁ዝነገር
▁አትችልም
▁አያያዝ
▁ፋሲካ
▁ምርጫዎች
▁ስትሆን
▁ኣምሪ
▁ወሲብ
▁መኪናዎች
▁ፈለጥ
▁ክርስትያናዊ
▁ገበርኩም፡
▁ኣዋልድን
▁ጡረታ
▁ስምዒታት
▁ጒዕዞ
▁ጽዋእ
▁በቴሌቪዥን
▁like
##ኦ፡
##ቀነ
##ቅዶ
##ጦም።
##pl
##ኻ፣
▁እፈልጦ
▁ብኤ
▁ምሉ
▁ኣብሊ
▁ያላት
▁"ዕ
▁"ኪ
▁ሓገዛት
▁ዓማዊ
▁ካቢ
▁እንደኾነ
▁(ናይ
▁እንዲያውቁ
▁ዘይተርፍ
##ንያቱ
▁አስች
▁ተመጣ
▁3:1
▁ከመድረ
▁መንገድ,
##ጽእ።
##መይል
▁አምላክም
▁ተገኘ
▁ተሰዲ
▁"አላህ
▁መደሰት
▁መንጎኦም
▁(እርሱ
▁አግኝተናል
##'ሞ፡
▁ሰሪሑ
▁ተጠቒሱ
▁ነዎት?
##ደባባይ
▁በጌት
▁ጡንቻ
##ኣታ
##ብነት
##ረረ
##ጭቆ
##ከፈል
##ሸሽ
##95
▁በሠ
▁በኬ
▁አሰብ
▁ከጠላ
▁ምሒ
▁ኢት
##ስተባ
▁ለመጻፍ
▁ታጋ
▁ለማጣ
▁ከኣ፣
▁ሰዎች፣
▁እንደሚፈልግ
▁አብዝ
##ዋንዳ
▁ኣይትግበር
▁ሐቀኛ
▁ንሕናውን
▁መዓሙ
▁አያስፈልጋ
▁አየሁ፤
▁ህጻናትን
▁በነበራ
▁የብልካን
##ሃለሁ"
##ፍትዌር
▁በሁለተኛ
▁ገባ።
▁ትጽቢ
▁ኪዳነ
▁አይኖርም
▁ሊቃውንቲ
▁ኣቋሪ
▁ተተሓሒ
##ግቢ
##ፍኡ
##ረና።
##ማመጥ
##ኤ፡
##ሽር
##TS
▁የዋጋ
▁መጫወቻ
▁መኮንን
▁ከና
▁ለንጉሡ
▁ሃን
▁እንተነበረ
▁3,
▁ብምዝ
▁ብምኻድ
##ስቲን
▁ነዚኣ
▁ሕጂውን
▁73
▁ነኝ?
▁ንሕና'ውን
▁ኣውሪ
▁ነን፤
▁አጋንንት
▁ይብል፦
▁ሰሚዖም
▁ንህግደፍ
▁ንምምሕ
▁ስክፍታ
▁ሓቀይ?
▁ምምስራት
##ካከላችን
▁ኣቓልቦ
▁ዖ
##በእ
##ውላ
##የሸ
##ድባ
##ራቡ
##ሮጥ
##ኳት
▁መጨረ
▁ይዛረቡ
▁ብጁ
▁ወ)
▁ልጇ
▁ባያ
▁(ሙሳ
▁በመቅ
▁በአፍ
▁የመለ
▁እስመ
▁ተመላ
▁ብዛዕባኻ
▁ኣብዚኣ
▁ዝነኛ
▁ሂበ
▁ሳይት
▁ሊያገለግል
▁ኣእዋም
##ፈራም
▁ወሰድ
▁አማራጮችን
▁መጋረጃ
▁ጸሎተ
▁በጺሕ
▁ምሥጋና
▁ከዋኽብቲ
▁ጡብ
▁ታስባ
▁ዘጸአት
##ሓዚ
##ናቶም
##ይይት
##ዘዛ
##ስታዊ
##ረተው
##የተ
##:)
##ዎት።
##ዋቸውን
##ወጅ
##ወዴግ
##ደጎ
##ዐኛ
##ጉድ
▁በንጉሡ
▁አሠ
▁መዋል
▁ስሞም
▁ትከ
▁አይነ
▁የተሳካ
▁ለመጫን
▁ነበር;
▁ሲኢ
▁ጽዒ
▁የመተ
▁ኪሰ
▁ክንደ
▁ቢሉ
▁የምወደው
▁ጎይታይ
▁እስከዚህ
▁ዘንድሮ
▁አትስ
▁ልጅን
▁መለለዪ
##ስምዖም
▁ለምድር
▁ተቀባ
▁ነን"
▁ሰሚዕና
▁ብዕራይ
▁ይሻላል።
▁አምላካችሁ
▁እንደማያ
▁አጠቃቀ
▁የራስህን
▁የግንኙነት
##ax
##ማሉ።
##ወጣት
##ሳስብ
##PA
##ዴታ
▁ነሩ
▁ዝክ
▁ክከውን
▁ውሎ
▁ኢሎ
▁የሚኖሩት
##ለንም።
##መርጥ
▁ወርቃ
▁ዝኸኣ
▁ተቀበሉ
##ስዕር
##ith
▁ዘይኮነስ፡
##ካትት
▁የሚሰሙ
▁ግድነት
▁በበጋ
▁በሽታዎች
▁ያደርገዋል።
▁በጨዋታው
##"ን
##ብይ
##ረያ
##-ኢ
##tt
##ዎቻችንን
##ዋወ
##ቶሊክ
##ኬሽን
##ሑድ
##PR
##ሴላዊ
▁እወደ
▁በበረ
▁ምኳኑ
▁ዝእዝ
▁ያገለ
▁"ሎሚ
▁ኣይገበረ
▁እንደማስ
▁ፈስቲቫል
▁እየሄደ
▁በተስፋ
##ደርግል
▁3፡1
##ይንኛ
▁ብምድሪ
▁እተኣ
▁ምእታ
▁በየናይ
##ይድሮ
▁ሰለስቲ
▁ይሆናል!
▁ወለድና
▁ብልሽ
▁ጀሚሮም።
▁በስፔን
▁ብሕጂ
##ሎንቄ
▁ሓሳባ
▁ነውና፤
▁እመቤት
▁ሓያላት
▁መኣስ
▁ማግባት
▁ይግባይ
▁ስድራቤታት
▁እሞክራለሁ
▁ቡዙሕ
▁ለመልቀቅ
##ና፦
##ኩረት
##ሪ።
##እንግዲህ
##ጀርያ
##ቦ፡
▁በዱ
▁በኀ
▁መኻ
▁ንሰይጣን
▁ማዋ
▁ያደረጉት
▁ሓዋ
▁ኣይር
▁ጥሒ
▁እዚ'ዩ
▁እኔስ
▁ዚገብሩ
▁ህዝበ
▁አንተስ
▁ራኢ
▁ቤተመቅ
▁ከይዱ።
▁ጎዳ
▁መርማሪ
▁ዝመፅእ
▁ብተስፋ
▁ምፍላ
##ቸዋል,
▁ጋዜጣዊ
▁ዝጸሓፍ
▁የሙሴ
▁ይንገ
▁ዝገብር።
▁ልጃቸው
▁ያስፈልገናል።
▁ሕድሕድ
▁ኣገልጊ
##ሓካ
##ፈኛ
##ሰቡን
##ዳሕ
##ዋእቲ
##ጣጠ
##ቀሻ
##ፖን
##ኃን
▁የንጉሡ
▁የቅዱስ
▁መኾና
▁ከየትኛውም
▁ይግብ
▁ይሃል
▁ንቆ
▁ወቕቲ
▁ኣብ'ታ
▁(ካብ
▁ዕል
##ሪያት
##ራዊቱ
▁ንምብ
##ናልባት
▁ያለች
▁በሚሊዮኖች
##ላችሁ!
▁ንኣና
▁10,000
▁ለአንዳንድ
▁ንሕቶ
▁የትኛውም
▁ትርጓሜ
▁ማስክ
▁መድሓ
▁ካብዚኦም
▁ይታመ
▁ይፈቅ
▁(የሚ
▁አግኝቼ
▁በበይኑ
▁የምናደርገው
▁እንደሆንን
▁ውስጠ
▁ተጨባጭ
##ታታሊ
▁ያረጋግጡ
▁ኢንዱስትሪዎች
▁ቨር
##'።
##ቐለ
##ያያ
##ፀባር
##ኬን
##ቡኡ
##ዞ።
##ኻኑ
▁የነበር
▁መቻ
▁መእ
▁መወለድ
▁ብመንግስቲ
▁ለኸ
▁መንሽሮ
▁ለማሰብ
▁ኪሕ
##ደርሰው
▁ሽን
▁ነገዶች
▁የምሥራ
▁ቅዱሳ
▁ለአሜሪካ
▁CB
##መጡ።
▁ኣማኑኤል
▁ጓደኝነት
▁ኣኽብ
▁ዝውዕል
▁ክንድኡ
##ንቀሳቃሽ
▁የህግ
▁"እንሆ፡
▁ተፈጥሮአዊ
▁ከፈለጉ,
▁ይገብሮ።
▁ኮምፕዩተር
##ዘከር
##አምላክ
##ሐቅ
##ጀንቲ
##ጡብ
##ቁ፤
##ሄል
##ዴል
▁በስም
▁ብዉ
▁ዝላ
▁"ኤ
▁ዓጋ
▁ደሃ
##ንተር
▁አላወቁ
##ኹም?
▁ከምዝኾኑ
▁አትችልም።
##ፈልጥን።
▁ይጠየ
▁ይመስል?
##በራል
▁ከምዘየ
▁ይሄዳል።
▁መወዳእታን
▁የሚያስፈልገው
▁ሓይሉ
▁ሃብት
##ሃበኩም
▁ዝፈጥር
##unes
▁አድርጓል,
▁ትዕይንት
▁በኢንዱስትሪው
##ኔል
##ሱ፤
##ዓቕ
##av
##ጸጸ
##ዋንም
##ቶቻችሁን
##ሻት
##ቦራ
##ጢያት
▁አእ
▁አሃ
▁አደን
▁የየ
▁ይርኣ
▁ምቑ
▁ተሌፎን
▁ክርክ
▁ዘቐ
▁ድፍ
▁"ህ
▁ኣይግባእን
▁ኣይመስልን።
▁ቀብሪ
▁አይፈልግም
▁ፍርያ
▁የተያያዘ
▁ለመነጋገር
▁ናብዛ
▁ያለፈው
▁አሉን።
##ከራከር
▁ዝገበርካ
▁የታሰበ
▁ኣድሒ
▁ደርሆ
##ሃር።
▁እርግጠኞች
▁ኣዕሩ
▁ፌደራል
▁ሓደጋታት
##ዘውት
▁እንደምችል
▁የቆዳ
▁ዘይብልካ
▁ውዳሴ
▁ኣድላይነት
##ጸባርቕ
##ወያየት
▁ርኹስ
##ካው
##AS
##ያላን
##ET
##1,
##ቆፍ
##ፒንስ
##ya
▁እልክ
▁በፂ
▁አድን
▁ብሆን
▁ብነብ
▁ሰሓ
▁ትሓስብ
▁ያዳ
▁ልቦ
▁(ሕ
##ኩም!
▁ሲመጡ
▁ለማውጣት
▁ቃለይ
▁ቃለመ
▁ግና፣
##ችልም፤
▁እተወሰነ
▁ጥያቄው
▁ስንኳ
▁የሚያስከት
▁ንርእስና
▁ተከስ
▁ጎንጺ
##und
▁ይጀምሩ
▁ሓተቶ።
▁ኣፈፃፅ
▁ንምሕጋዝ
▁አደረጉ።
▁አንባቢዎች
▁ተናግረዋል
▁ወሃብቲ
##ብእ
##ፍሽ
##ገዘ
##sh
##ለናል
##ጻፈ
##ቀባ
##ዲና
##ሀይ
##ሜሌክ
##ጆቻችሁ
##ሟሉ
▁በሕዝብ
▁መግባ
▁ንቢ
▁ትመጣ
▁ትመጽእ
▁ያመነ
▁ውስተ
▁ደማስቆ
▁የተናገር
▁አስኪያ
▁ሞራ
▁መስኮ
▁ከአራት
▁ጎስ
▁68
▁ስልኪ
▁ልዕሊኦም
▁ገለጸ
▁ይኹኑ
▁ማዕርነት
▁ዉሽ
▁ንኽእል፧
▁እንድንሆን
▁ዱር
##ሌክትሮኒ
▁እንደማይችል
▁ይጠይቃል።
▁ከስድስት
▁እንተዝኸውን
▁ስልጣንን
▁ደቅኻ
▁መናፍስት
##na.
▁ዲናር
▁ብመልክዑ
▁ብሚልዮናት
▁ተመልካች
▁ዕስራን
##ልሳይ
##ገቢያ
##ርሞን
##ጸጋ
##ጽድ
##ቦር
▁በደረጃ
▁የሬ
▁ይከናወ
▁ይደሰቱ
▁ምትን
▁ሊከናወን
▁ጸረ-
▁ኮሙን
▁ክትፈልጡ
▁ሞክረ
▁እንዳይወ
▁ሽታ
##በሩን
▁ያለፉ
▁ከአስር
▁6.
▁አሉ?
##ንቀጾ
##ህምያ
▁ኣይንፈልጥን
▁መልክተኞች
▁ነፍሲወከፍ
▁ፍቓድካ
▁ጃፓ
▁በቅርቢቱ
▁የመጨረሻውን
▁1993
▁ኤልሳዕ
▁የጥበብ
▁ስድራይ
▁ህልው
▁ብርሃኑ
▁ንካልእ
▁ኣተወ።
▁ይኖርብናል።
▁ኸለዉ፡
▁ይከሰታል
▁የአይሁድ
▁በማለዳ
##ዩናይትድ
##ዕዎ።
##ረፊ
##የመ
##ጀክቱ
##ሃቸው
##2.
##ዥን
▁እመን
▁በረድ
▁በጠላ
▁የብርሃን
▁የቐንየ
▁ይሓትት።
▁ለደንበ
▁ኣይዓ
▁ባድማ
▁ህር
##ለትን።
##ለሁ?
▁እየ፤
▁ሲመለከቱ
##ችላቸው
▁ዚሰ
▁እንታይ'ዩ?
▁ክፍታሕ
▁በማቅረብ
##ተርጎም
▁ዝነበረሉ
▁አሳሳቢ
▁መወዳእታ፡
▁እነሆም፥
▁ምፍጻም
▁(1-
▁መውጫ
▁መዋቅር
▁ላለማ
▁ፋይሎችን
▁መክፈት
▁የጎን
##ቀበለው
▁ሽማግለታት
▁ሊቃውንት
▁ባልደረባ
▁ኣስዒቡ
▁በጆሮ
##ወረድነው
▁ብተኣማንነት
##"፡
##ታለች።
##ብዓ
##ዕነት
##ትረፈ
##ገኘት
##ርበት
##AT
##ጣይ
##ፕስ
##ጆቻችን
▁ብገለ
▁ብጌጋ
▁ምራ
▁ክገብራ
▁ትሰጣ
▁ድረ-
▁የሚታይ
##ርስዖ
##በት፣
▁አለባ
▁ሲና
▁አልመ
▁'ኣይ
▁ዋሽንግተን
##ዕባል
▁የማህበራዊ
▁መሰልን
▁ትንፋስ
▁ታሪኮችን
▁ኺገብር
▁በእርግጥ,
▁ድምፃ
##ሰምዖም
▁ኣእዛ
▁ጀሚርና
##ኛል?
▁Bl
▁በመጀመሪያዎቹ
▁ክፍለዘመን
▁በሕይወትህ
▁ክእለ
▁በበኩ
▁dr.
▁ይለወጣ
##ረክብን
▁ሄደህ
▁ንምስራሕ
▁ስዊድን
▁ይመለሳል።
##ock
▁ትስስር
▁ጎብኝዎች
▁ንጽብሒቱ
▁ኣልኮላዊ
##ነና
##ነኒ
##ፈሎ
##ፈካ
##ህ!
##ቀየር
##ሌና
##IN
##ጫት
##ጤራ
##جل
▁በኃይል
▁የጠራ
▁ይፍት
▁ወጸ።
▁ሰጡ
▁ሰጣቸው።
▁ግሪክ
▁ማድረስ
▁እያ፧
##ሰብኽ
▁በሚመጣበት
##ችኋል.
▁ጽሑፈይ
▁ዝገዝ
▁በተጨማሪ,
▁ጸጋም
▁ዜጋጥ
▁ቕኑዕ
▁አገልጋዮ
▁አብረውት
▁ኣይኰኑን።
▁ተገኝቷል
▁ብክለት
▁ፈጣሪዎች
▁፬
##eg
##ጠርን
##ጨርስ
##ሽያጭ
##ሃገር
##ዌር
##ዀኑ።
▁እኹም
▁እሰማ
▁ከብር
▁ለሕ
##ውን፣
▁ውዲት
▁የሚሹ
▁የሚደርስ
▁ገጸይ
▁ፈውስ
▁ክንጽበ
▁ሰው,
▁ንኣስታት
▁ኣፍቂ
▁ንእስነት
▁ንእስራኤላውያን
##ገኙም
▁አሳዩ
▁ቐሪ
▁ንዕኦም
▁ሃብተ
▁ውሳኔዎች
▁ክፍለ-
##ጫወተ
▁ብሩር
▁ጽሕፍቲ
▁iPad
▁ዳርቻዎች
▁እጃቸውን
▁(ለ)
▁ሆኑ።
▁ሓምሳ
▁ተቐቲሎም
▁ንኸውን።
▁ብልጽግና
▁ተወሰኽቲ
▁ዓበይትን
##ሌክትሮኒክ
##ሳቤጥ
##ሓሕ
##መትን
##ድዋ
##ቀዳ
##ቷቸው
▁ኣሜን
▁የቅን
▁መገልገ
▁ከጭ
▁ይወደ
▁ብረታዊ
▁ተከሰተ
▁ማተኮር
▁ልሳን
##በርክ
▁የተቃ
▁የተገናኘ
▁ሃይል
▁ዝተዘር
▁በአባቴ
▁ክትሰ
▁ሳው
▁ርኸ
▁መስኮች
▁መስርዕ
▁4,
##መልሲ
▁ስርጭት
▁ሎሚ'ውን
▁ኣፍሪ
▁በምዕራ
▁ምድሪቱን
▁ዝመጻ
▁ኔርኩም
##ፍንጫ
##ari
▁ኣምጽእ
▁ለተጠቃሚ
▁ይፈጥ
▁እዩ፣+
▁አሜሪካን
▁አድሮ
▁ዝርከብ።
▁ቁርጠኛ
▁አመሰግናለሁ።
▁(ዮሐ
▁ክውዕል
▁ኀጢአ
▁ኪዳኑ
▁የተከበረ
▁ይጠቀማሉ
##ጋለጡ
▁በሰባተኛው
▁ዲስ
##ዝክር
##ሓንቲ
##ኩኝ።
##ረሰ
##ፈወስ
##ሱ፣
##ከፍት
▁ኣሪ
▁ስቓ
▁ስቱ
▁የሚሄዱ
▁ሕጹ
▁ገማ
▁መን'ዩ?
▁ፍጥ
▁ፍፃ
▁ዘይክእሉ
▁ዚተ
▁ጽሒፉ
▁የመሳሰሉ
▁ኣሎዎ
##ግባሩ
▁ኢዩ"
##ስፋሕ
▁ብርሀን
▁በምሳሌ
##ነሳው
▁ኣቢላ
##ልዓለ
▁ማስተዳደር
▁ገንዘቡን
▁እንደሌለው
▁ዚህበኒ
▁የአባቱን
▁ማዕከናት
▁ቢኖርም
▁መሐመድ
▁ተቆጥ
▁በራስህ
▁በኔዘርላንድ
▁ኣይነበረንን።
▁ዕቝባ
▁መፋርቕ
##ረጉ
##ee
##ያሎ
##ያቱ
##ቀሲ
##ሃልና
##ES
▁በጦር
▁አሊያም
▁መተሓ
▁ይናገር
▁ብንያም
▁ለህዝብ
▁እና,
▁ሓዝ
▁እንደታ
▁ገበሩ
▁ባነሰ
▁የተደራ
▁እንዲገቡ
▁ለመደ
▁ሲኖር
▁ሲነጻጸር
▁ክትርእዮ
▁አልሰጠ
▁ንኣዳም
▁ለውጦችን
▁ዝግበኣ
▁ኣውያት
▁ስለምንታይከ
##ረኣየ
▁ማህጸን
▁ክመሃር
▁ምሥክር
##ስታውሳ
▁የገቢያ
▁የሶስተኛ
▁ኣይፍቀ
▁አይሰራም
▁ምድላዋት
▁በቅድሚያ
##ዩብ
##ሎና
##ጠማ
##ኸሉ
##75
##ቕለ
##ER
##ጤን
▁የብረት
▁የጥን
▁ከዐ
▁ተደስ
▁ሓለፈ
▁የሚን
▁ጥሬ
▁ምስሎችን
▁ቅዲ
##ለውጢ
▁ሃቦ።
▁ታካሚ
▁በአራት
▁ሽድሽተ
▁ነገራትን
▁ዳሩ
▁"እሱ
▁ከሆነው
##ሄድም
▁ንእት
▁አሳድ
##:38
▁II
▁ወሰኽ
▁ሰምዐ
▁ኢየን።
▁ይላል፦
▁ተሳፋሪዎች
▁ይመጣል፤
##ach
▁ዝኽፈል
▁ኣሕዋተየ፡
▁አይችልም,
▁ተጀሚ
▁ዓለምለኸ
▁ጠለባት
▁የድምፅ
▁በአቅራቢያ
▁:
▁~
##ላዊት
##ነዳ
##ገረም
##ዛማ
##ጦ።
##Press
##ፌን
##ሾቹ
▁እሴቶች
▁በምላ
▁ተደም
▁ዘነ
▁ግህ
▁እዩ፦
▁የሚሉትን
▁ቀበ
▁መንቀሳቀስ
▁አይክ
▁የተለ
▁ታውቁ
▁ሓደን
▁አልሰ
▁ኣሎዉ።
▁'ካብ
▁ዋዛ
▁ንምዕባ
##ፈለጡ
▁ጥሩውን
▁ቅድሚኦም
▁ምሕላፍ
▁የሰለ
▁ሩጫ
▁ባይኖር
##ፈተሽ
▁ከምዘይብሉ
##ንቅልፍ
▁በመስከረም
▁ቆይተዋል
▁አደረገ.
▁ቅኑዕን
▁በጻሕቲ
▁የተቀደሰ
▁ተኳሃ
##ታተልቲ
##ብና።
##ዕዘ
##ካፍ
##ካራ
##ጻረር
##ሩ.
##ኪሩ
▁ኣዘዘ
▁በኃጢአ
▁አሥ
▁ንጋ
▁ስፔን
▁የሚመረ
▁ገሪ
▁ቀላሉ
▁ባጽዕ
▁ዘይስ
▁ጉባ
▁የአስ
▁ኽብሪ
▁ነበረ.
▁አትሁኑ
▁ምእንት
▁ተገይሩ።
▁አውቅ
##ፈጸመው
##ሕትኡ
▁መንግሥቱ
##ክዎ፡
▁እምበኣርከስ
▁ለመቀላቀል
##መዝገበ
▁ምጥፋእ
▁ድኻም
▁እመክራ
▁ኣቲኻ
▁ኀይል
▁አረቢያ
▁ሂደቱን
▁ቤተሰቦቼ
##ሰላሰል
▁ይኖረዋል
▁ኣድልዎ
▁ኣይትፍራህ።
##lersች
▁ለረዥም
▁እንደማስበው
##ዝሓ
##ነቷ
##ዓታዊ
##ጣችን
##ኋለኛው
##ዉት
▁ይረአ
▁ይሖዋን
▁ዝፈልጡ
▁ተሃድሶ
▁ስጳ
▁ሰበብ
▁ትኾኑ
▁ልቓሕ
▁1፡
▁ጊዜዎች
##ለት፤
##ሪያቸው
▁ሲወጣ
▁ኤዶም
▁እምነቶም
▁ነገሥት
▁ከአንቺ
▁ዲክታ
▁82
▁ኣፍን
▁ተቀበል
##ተሓሓዘ
##::"
▁ሪፓ
▁ታሪኽና
##ከላኸል
▁ከማድረግ
▁ተዓዲ
▁ሃይማኖታት
▁የተወሰኑት
▁ጮኸ
▁ሎምስ
▁ዕድሚኡ
▁ሕብረተ-ሰብ
##ጐይታይ፡
▁ልጃገረዶች
▁ቐዳመይቲ
▁መደምደሚያ
▁ቛንቛ
##ዝገቡ
##ልሽ
##ታቶምን
##ባ፡
##33
##ጸልእ
##ጽዮን
##ሃርን
##Tunes
▁የገልግ
▁ይሕግዝ
▁ምረጥ
▁ወጽዓ
▁ለቤተሰብ
▁ትጉ
▁ትገልጽ።
▁ውሎች
▁ሓማ
▁ሓቲት
▁1:
▁(W
##በት፤
▁ሊደረግ
▁ጸዓ
▁የአር
▁ዋን
▁ሞክር
##ናል፣
##ይንኻ
##መለክቱ
▁ነዚኦም
▁ዝሓሰብ
▁ሥራቸው
▁ሁኔታ,
▁መዝገበ
▁ኣድሓ
▁ተደሪ
▁ጸጋማይ
▁የካዱ
##-15
▁ችሎታዎች
▁ረብሓታት
▁እንከለኹ
▁ወዲያውም
▁ንምምላስ
▁ብግልጺ
▁ጽባቐ
##ናቸውም
##ይብ
##ልጠ
##ልቀ
##ነዋል
##ፈዋል።
##ለዓለ
##ሉት።
##ሁህ
##ፋው
##2,
##ኞቻችንን
▁አሲ
▁አዘጋጀ
▁የፖሊስ
▁የወንጀል
▁ብኃ
▁ብዂ
▁ዝፈል
▁ስዓት
▁ሓጻር
▁ካራ
▁ኣይሂ
▁ዚብ
▁የእድገት
▁ጠጥ
▁ሳቅ
##ገልጻ
▁ከተው
▁የሚያመጣ
▁ዜሮ
▁አንተንም
▁እሞ።
▁እተሰ
▁ጓኖት
▁በዚሑ
▁የትራፊክ
▁"በጣም
▁ኣውራ
▁ደንቆሮ
▁ንዘለዉ
▁ኣይኮነን!
▁ጥርዓን
▁ትኩረ
▁ምላሽ,
▁መቅደ
##ዘራረቡ
▁ባንዴራ
##ከታተሉ
▁አዋቂዎች
▁ዝግጅቶች
▁ሰሚናር
▁መወከሲ
##'ተን
##ቢን
##ጣብ
##ሽኑ
##|9
##ሹም
##ዃን
##ሯን
▁የፒ
▁ነበ
▁ብህዝቢ
▁ምርግጋጽ
▁እንነብር
▁ተረጋጊ
▁ክዛረቡ
▁ማላ
▁ያዙ
▁ያስተው
▁ካለፈው
▁(B
▁ለመሰብሰብ
▁አንሥ
▁ሞባይ
▁ለእርሷ
▁ያለኝን
▁"እዚህ
▁ዲዩ?
▁ጌታህ
▁ንጉስ፡
▁አውጪ
▁ፊን
▁ይሰምዕ
▁ፍርሂ
▁የሰዎችን
▁ንመጽሓፍ
▁እውነትም
▁የስደ
▁ti
▁ተንኮል
▁አለብህ።
▁የብልካን።
▁ቁርጥራ
▁በግሌ
▁ቀጠለ
▁ኣፈይ
▁ተቀምጠው
▁ኮይነን
▁በመተባበር
▁በመቀጠል
▁እምላለሁ
▁org
▁ታት
##ይራ
##ጸለይ
##ጥናት
##ዋክብት
##ራብን
##ጹህ
▁ኣጕ
▁አጀንዳ
▁ከወደ
▁ይደሰ
▁ብዜ
▁ንብሎ
▁ንውል
▁ክውሰድ
▁ክርእዩ
▁ያፈ
▁ድብል
▁የሚቻለው
▁ፍስ
▁ዘይፈልጡ
##በትም።
▁በመለ
▁ሳዋ
##ራይስጢ
▁ኽቡር
##ግብሮ
▁ሸነ
▁ሰላምና
▁አቀባበል
▁ይብላ
▁ማይክ
▁ህይወቱን
▁ኣለዎ"
▁ራሳችን
▁ግብርታት
##ቶቻቸውም
▁የሚችለውን
##ሰ-ሀ
▁ዚገብርዎ
▁እምብኣር
▁እናምናለን።
▁የኑክሌር
▁እንተሃልዩ
▁የደንበኛ
▁READ
▁ሓካይም
##ብም
##ርጊ
##e)
##ጥኑ
##ዲፍ
##ሃስ
▁እኅ
▁በክልሉ
▁ብቃ
▁እንጨ
▁ክመውት
▁ክፈጥር
▁ለሥራ
▁ማሞ
▁ማቆየት
▁ትኣ
▁ያጠ
▁ቀያ
▁ቅጽበት
▁ጋላ
##ስትሮ
▁ክንብሎ
▁በተሳሳተ
##'ዩ፣
▁ሞቶ
▁ምክያድ
▁ቆየ
▁ከምዝኸውን
▁ግብዝ
▁እጅህ
▁ንግሥት
▁ምድሪ፡
▁180
▁ፍቕሩ
▁ወርሒ፡
▁ይፈሩ
▁ጳውሎስ፡
▁ምዕራባውያን
▁መምራት
▁LG
##ሕልዉ
▁ኮምሽን
▁ብግዲ
▁ነጋዶ
▁ምሥጢ
▁ይመስልሃል?
▁የድልየና።
▁አይገባም
▁ጠፍቶ
▁የተጻፈው
▁እማመ
▁ዲፕሎማሲ
▁፰
##")
##በዘ
##ገይ
##ሲሉ
##ባሕቲ
##ለሙ
##ማግሌ
##ዳግም
##ከረ።
##ፎካ
##!!
▁እጩ
▁በቪዲዮ
▁አበረታ
▁ከሶ
▁ይና
▁ይፈጸ
▁ተጽእ
▁ክርድ
▁ትባ
▁ደጃ
▁የሚደረገው
▁ምስናይ
▁ክትግበር
▁ኪወ
▁'ም
▁የሆነበት
▁የትውልድ
▁አባታችሁ
▁አማልክ
##ዘንት
▁"የሆዋ
▁ንመዓልቲ
##ማልእ
▁ፅሑፍ
##ዕድግ
▁ኖሮ፣
##ላችኋለሁ።
▁ፈጺሞም
▁ደንበኞቻችን
##ish
▁መሸጣ
##በዝሕ
▁ኣምላኹ
▁ዚህል
▁በመካከላችሁ
▁ጋንታታት
▁1960
▁ማድረጉ
▁ረቂቅ
▁እናገኛለን
▁ዕጡቓት
▁በየትኛው
▁ቅሳነት
▁ዝለኣኸኒ
##ዝኑ
##ዝነው
##ure
##ጣል.
##/ቤት
##ፃል
##ኞቻቸውን
▁ንግብ
▁ተዛረበ
▁እናሃ
▁ትገኛ
▁ዘይነ
▁ሲም
▁ዝተን
▁የእግዚአብሄር
▁የአገሪቱ
##ለይ"
▁ጉዳቶች
▁መጠለያ
▁ራቅ
▁ግብጽ
▁ጣዕም
▁በልባቸው
▁ነበሩ፡
##ውስቦ
▁እንጂ,
▁ውሽጣ
▁ያሉት።
##ዝርዝ
▁ስንል
▁አጋንን
▁ረኣኹ
▁አድርገዋል.
▁ገልፀ
##ኩዎን።
▁be
▁በወጣት
▁ፈረሰ
▁ለዘለዓለም
▁ለማጥናት
▁ድዮም?
▁ይደረጋል.
##haric
▁ኣገላል
▁መንቀጥቀጥ
##ዛል
##ዛቢ
##ደቡ
##ራሉ።
##ሸይ
##ቱ፣
▁እጠላ
▁ኣግራ
▁ዝገር
▁ዝውስ
▁ክኾን
▁ትዛረብ
▁ያወ
▁ልኮ
▁ጥዕ
▁ነበር፥
▁ኪነብር
▁ጉያ
##መንቲ
▁ንምርዳእ
▁ክልላዊ
▁ሆነዋል
▁ወርቅን
▁ፊቴን
##ong
▁አያይ
▁ምሕላው
##ዕልል
▁ተቀቢ
##ገኝበት
▁ኣልዒሉ
▁ዘይትኽእል
▁ጸኒሐ
▁ተንኮ
▁አመጋገብ
▁ኣዕጽም
##ጠቅላላ
▁ለልጅ
▁ብሔራት
▁(ዘፍ
▁ገበርቲ
▁ጩኸ
▁ዘድልየካ
▁ይነግረና።
▁ኣጆኻ
▁ኣመሓዳሪ
▁እመጣለሁ
▁ያስከትላል
▁በጌትነቱ
▁ጺ
##ሪኮ
##ካእ
##ጻእን
##ጣበ
##ራቶም
##ፉም
##ዑት
##FC
##ቁረጥ
▁እደ
▁በይና
▁በወረ
▁አረጋ
▁ይቀር
▁እንፈልጦ
▁ንሙ
▁ማደሪያ
▁ትፈት
▁ስለምት
##ምን"
▁በእጥፍ
▁እየጠበቁ
▁በመግ
▁ክትጥ
▁ሞላ
▁ሽያ
▁መስለ
▁መሰረታ
▁ኣይትኽእሉን
##ንስኻትኩም
▁ጓሂ
▁ኢሉኒ
▁ስራሕካ
##ሄድበት
▁ነበሩ፣
##ክእልን
▁ሰዓብቲ
##ሳተፈ
▁ዜናታት
▁ስጋን
▁En
▁የግሪክ
▁ጕዳያት
▁ጓደኞቹ
##ደራላዊ
▁ቴክኖሎጂን
▁ብወገ
▁ስለዝኾነ፡
▁ህንፀት
##ጠረጴዛ
▁ተጸዊ
▁UN
##ወቃችሁ
▁በቀጣይ
▁ተሰብስበው
▁ቻይናን
▁መኸተ
▁እጠብቃለሁ
▁ኦፊሴላዊ
▁መኖራቸውን
##ዘዋል
##ብዓም
##ሪኢ
##ሕጸ
##ዮሽ
##ፅሐ
##ቷቸዋል።
▁የሻ
▁ክንተ
▁እንዲታ
▁ኪ.
##በልጽ
##ኮነን
##ወትቲ
##ንቀውታ
▁ተወላጅ
▁ፀረ-
▁ማእለያ
▁ኣውጽኣ
##ለመዱ
##ካዮ፡
##ቋቋመው
▁ንብል።
▁አሎኹ
▁የሚታወቁ
▁ዝስዕባ
▁ንዘለአለም
▁ብዕም
##ሓድሽ
▁ክኢሉ
▁ነበራቸው።
▁ተካሂ
▁የተመሰረቱ
▁የፊልም
▁ያካተተ
##ባልንጀራ
▁ምስጋናን
▁ሊያስከትል
▁ኣኽብሮት
##ገገም
##-?
##ሕረት
##ጠን።
##ቓዕ
##ሮማ
##ኗል።
▁የግራ
▁የፋይናንስ
▁መሀ
▁ከለው
▁ለይቶ
▁ኣብ'ዛ
▁ማፍ
▁ሕሙም
▁የተፈጠሩ
▁ታውቅ
▁በአስር
▁ጠመ
▁3፡
▁ዋህዮ
▁4)
▁ብምብ
▁የማያውቅ
▁ብሓጎስ
##ርእዮን
▁78
▁ምእላይ
##ነግረን
▁ሮበርት
▁ስብከ
▁ማህደረ
▁iTunes
▁ከልጆች
▁ባይደን
▁ፊልምታት
▁ዘሕለፍ
▁እላችኋለሁ፣
##ምላካችን
▁ሓፍተይ
▁በግንቦት
▁WordPress
##ሓሓ
##ጋኔ
##aid
##ድፍ
##ጸድቕ
##አ፡
##ቃውያን
##ጉዝ
##ዔ፡
▁ይሆኑ
▁ዘጠራጥር
▁የሚጠራ
▁የሚቀጥለው
▁ሕድገት
▁ዕላ
##ቶችና
▁ኪኽ
▁ሽቶ
▁መሰጋገሪ
▁እተዛረቦ
▁ዝሓልፍ
▁ነፍስን
▁ሰለባ
▁መግለጽ
▁ብስክሌ
▁ይፈልጋል.
▁በስምህ
##:40
##ረፍተ
▁ይናገሩ
▁ንጽባሕ
▁ኣሕዋተይ
▁እንደምትችል
▁ፕላኔ
▁ብማእ
▁የፌዴራል
▁ንግሥና
▁ሻቕሎት
▁ፈልገው
##ባበሩት
##ዳኝ
##ሞቱም
▁እሾ
▁እረዳ
▁እኸይድ
▁ኣሊ
▁አትን
▁የሁ
▁ነዙይ
▁ንቲ
▁ዝፍት
▁ዝህሉ
▁ተዐ
▁ሰቴ
▁ግኝ
▁ዓቐ
▁ዓሰብ
▁ኣይገበር
▁የሚበልጡ
▁ልሙ
▁(ሲ
▁2፡
▁ለመመርመር
▁በእስያ
▁ሲጋራ
▁ክትኰኑ
▁ክንክእል
▁'ስ
▁ሽወደ
▁ኽፋል
##ላችሁ,
▁63
##መሰል
##ብረላ
##ሰይጣ
▁ተፈታታ
▁ሙሉውን
▁ማዕዶ
▁እንግዲያው
▁ከምዘየለ
▁ብትብዓት
▁የልማት
▁ወለል
##ተሓሓዝ
##ገደብ
▁"ንዅሉ
▁በብመዓልቱ
##ረጋግጽ።
▁የሌላ
▁ሓቢርካ
▁ንጥቀመ
▁የራሴን
▁ዕውት
▁ርእይቶታት
▁ረኣየ።
▁ንምስማዕ
▁የእነሱን
▁ተሻሽ
▁እየሞከረ
▁ዚሕብር
▁ሓንጎል
▁ካሲኖዎች
▁፵
▁جل
##ሪዎቹ
##ዓዘ
##ጸኒ
##ጨይቲ
##ዋጅ
##))
##ቹህ
##ሻዕ
##ኖምን
##፧+
▁እወስዳ
▁ኣተን
▁የሥጋ
▁ይሠሩት
▁ንዲ
▁ክኾ
▁ክጽሕፍ
▁ልባችሁ
▁(ኦ
##ርስቲ
▁ጉል
▁አልለ
▁አስቆ
▁ከተገልግሉ
##ረብሕ
▁ንስካ
▁ታሪክን
▁ዕድመን
▁መደገፍ
▁Post
▁ብስሩ
▁ፕሮግራሙ
▁ይስሕ
▁ኣገባባት
▁ቤተሰቡን
##ስካሕ
▁ባዕልኹም
▁እብለካ
▁ሀሳቦችን
▁እላችኋለሁ፥
▁(ኢሳይያስ
▁ሸቶታት
▁ዝገለጽ
▁የጭነት
▁እጄን
▁የሰብአዊ
▁it
##ዝዩ
##ገደል
##ኺ፡
##ጡትን
##ጓን
##ሄም
▁እጠራ
▁እጸል
▁በነበረው
▁አፍር
▁ዝዛ
▁ሰነፍ
▁ትገብሩ
▁ከምእተ
▁እንደደረሰ
▁1/
▁የተናገረውን
▁በእርሳቸው
▁ክትክ
▁ክትወስድ
##ላትያ
##መንን
▁አላወቅ
▁ኣንቱም
▁ሆነች
▁ኣቦታቶም
▁ምልስ
▁ፕሮጄ
▁ሶማ
▁An
##ብራቕ
▁መዝገ
▁ተዋፊ
▁ኣይኮነን?
▁ሳዕሪ
##ድሪድ
▁ኣለዉ፡
▁መዋቲ
▁ጴጥሮስን
▁ፊልሞችን
▁ተቐቢሉ
▁ይሰራሉ
##ቀበሉት
▁አይደለችም።
▁ኣመስጊ
▁ፖለቲከኛ
▁ከፀሐይ
▁ተጽእኖ
##ዩፍ
##-ማ
##ተሽ
##የሎም
##ያፊ
##ጣሪዎች
##ከበሩ
##ኸም
##ቧቸው
▁እለምን
▁በቅዱስ
▁የቋንቋ
▁መጉ
▁ከቻሉ
▁ምምል
▁ዝፈረ
▁ክባ
▁ክግለጽ
▁ለሞት
▁ያድር
▁ሕድ
▁ነገርዚ
▁ፈይ
▁ፈፅ
▁ዘይእ
▁ሲናገሩ
▁ኮረብ
▁ክትክእል
▁ኪራይ
▁እንዳለን
▁ብዛዕባና
▁በምግብ
▁ዕድገት
▁ፀሎት
##ጠቃቀም
##መውትን
▁የሚያስቡ
▁ኃጢአተኞች
▁ፈጺምካ
▁አሳልፈው
▁ይጠብቃል
▁="
▁ክዳውንቲ
##ነ፡
##ሎሞን
##ያማ
##ዳሜ
##ጽሖም
##ok
##ዲዎች
##ሞራ
##ጾሙ
▁ኣሽ
▁ብሏ
▁ክመስል
▁ክኣትዉ
▁ዓረ
▁ሕቡእ
▁ቀቅድሚ
▁መንቀ
▁እንዲያው
▁እየ፣+
▁ሲሰሙ
▁የመኖር
▁ከእነዚያ
▁'ና
▁እንደሚመስል
▁ቃልኪዳን
▁ራህዋ
▁የለባቸውም
▁ይችላል፤
▁ፕሮቶ
##ነሳሳት
▁ፍቕርኻ
▁ሃብትን
▁ጸጋን
▁ተመለከት
▁ፕሬዚደንት
▁ዝስሕ
▁ዕውር
##ሃለሁ,
▁ንምፍጣር
▁ስለዘለ
▁መፍትሄዎች
##ጥቀሙሉ
▁ገዝኦም
▁እየሰራን
▁ይደግፋል
▁ኣዲኣ
▁ብሽክለታ
▁ሲቪል
▁ተገረሙ።
▁ኣብርሃምን
▁ኣልኣዛር
▁ፃዕሪ
▁MORE
##ልፈ
##በጽሖ
##ታንም
##-ህ
##ጽዋዕ
▁ኣኻ
▁በለን
▁የሩ
▁ይተኛ
▁ይፍለ
▁ብቝ
▁ብቀጥታ
▁ዝሙት
▁ስዋ
▁ለስራ
▁ማምረት
▁ትዛረብ።
▁ዘይዕ
▁ሊደርስ
▁ጸጉ
▁ዚብሉ
▁ኪነግ
##ድርን
▁ጉን
▁ሙያዊ
▁ብምቅ
▁ቅዱሳዊ
##መሰክራ
▁ያስፈራ
▁ሂብካ
▁ደረጃን
▁አስተም
▁ንሕጊ
▁ንዝያዳ
##ብለካ
##ወርሒ
##ከለክ
▁እነሆም
▁ንገሊኦም
▁ሰበይቲ፡
▁ዕላማታት
▁ገብቷል
▁ከፊሉ
▁መዘናግዒ
▁አለብን.
▁ወታደር
▁መምርሒታት
▁ለባማት
▁ስማርት
▁የምርጫ
▁ትዕግስት
▁ይሞክሩ.
▁ሓዋርያዊ
##ታሞች
##ግዘ
##ረዋል
##ካና
##ቢ።
##ቶኒ
##ጽረ
##):
##ቃሉ.
##ሩ፣
##ሊቱ
##ሮሞ
##ሬድ
▁ኣምለ
▁የርሱ
▁ከዱ።
▁ንበረ
▁ዝሀ
▁ዝፋ
▁ለሴት
▁ኢዛ
▁"[
▁ሃቡ
▁በመጡ
▁ርባ
▁ክንሓ
▁ተመሳሳ
▁ኤደን
##ሰርሓሉ
##ላለፊያ
▁ተጠንቂ
▁ሐዲ
▁ገዛእቲ
▁ሳይኖር
▁ሓድሕ
▁Assen
▁ይገኛሉ.
▁የሌሎች
▁አያስደን
▁ዉሽጢ
▁መሊሰ
▁ዘፍቀ
▁ዴቪድ
▁ፕረዚ
▁ቁርአን
▁ምንጭታት
▁ይወዳሉ
▁ወጺኦም
▁መልአኩ
▁ርኢኻ
▁ኣስተብህ
▁በዙፋኑ
▁ኮይንና
▁ዓቅሚ
▁ተመጣጣኝ
##ሎቻቸው
##ካውን
##የሙ
##ሳቡ
##ቦቻቸውን
##ኚዎች
▁መጐ
▁ይኩን
▁ተክል
▁ክነብ
▁ስሎ
▁ስፍ
▁ለፈ
▁ኢልዎ
▁ድብ
▁ድሩት
▁ዓለማ
▁(F
▁2፡1
▁የተገኘው
##ችሁም።
▁አለና
▁ሊረዱ
▁በመሞከር
▁ክንክ
▁ከተመ
▁እውን።
▁ብምዕ
▁መዓልት
▁ጌታ.
▁ተቐይሩ
▁ተመልሱ።
▁ንመብዛ
▁መወዳእታኡ
▁ሰማሁ
▁ሰማዒ
▁ዝምታ
▁ይብሃል
▁መላእኽ
▁ልጆቻችን
▁ሃብታማት
▁ከእናንተም
▁ብዝተረፈ
▁በጉዳዩ
▁ክሊኒ
▁ማስታወሻ:
##ብርሃምን
▁ትእምርቲ
▁ፈተውቲ
▁ንምዝራብ
▁ተግሳ
##ድኃኒት
##ኩዎ።
##ረቤት
##ail
##ዳኑ
##ደቕ
##ሌሎች
##ፀኛ
▁እሕ
▁ኣሶር
▁በፌ
▁በደረሰ
▁ምንድ
▁ተፀ
▁ሰኣ
▁ማጨስ
▁ትበላ
▁ትሞታ
▁ያሸ
▁"ፈ
▁(c
▁አለ!
▁ለማውረድ
▁ቃና
▁ሆሴ
▁ዜድሊ
▁ዛጊድ
▁ኣይትበል
▁ከምዝግባእ
▁ደቂሱ
▁መግደል
▁ኔሮም
▁ፋሽን
▁እንዲያደርግ
▁ብልጭ
▁(አይ
▁1996
▁ትውልዲ
▁ይሓስብ
▁ኣባልነት
▁ያገኛሉ።
##ጽውዑ
▁የክረምት
▁ትዝታ
▁ነበራቸው
▁ፕሬዚዳን
▁ትችላለህ.
▁ትዕግስቲ
##ኩሩ
##ጋንንት
##እሱ
##tube
▁እዳ
▁ኣመለ
▁በዋጋ
▁አግብ
▁ከስራ
▁ምዱብ
▁ስኽ
▁ድግ
▁ድኳ
▁ደላይ
▁ልባዊ
▁ጥግ
▁ታደሰ
▁ፈጠር
▁ዘይከ
▁የመረጥ
▁እያስ
▁ምርጡ
▁በማወቅ
▁ቆም
##ደልኩም
▁ሐይ
▁ልጆች,
▁ሁለታችንም
▁ሁለታችሁም
▁ደኣምበር
▁ኢንጂ
▁ኽትፈልጥ
▁ዝምራሕ
▁ይሆናሉ.
▁ገበያው
##ከናኸ
▁ይታያል።
##ናውያንን
##ኣምንን
▁ይብለኒ።
▁ኣበርቲ
▁ዝፈልጦ።
▁የመንግሥ
▁ዳሕረ
##ቐርቡ
▁ያመኑትን
▁ስለዚያች
▁ኣጠቓቕማ
▁ኤረትራ
▁ንኸምዚ
##ውራ
##ጋገዝ
##ሯት
▁በነጋ
▁የጀመር
▁ምኒ
▁ያውም
▁ድቃ
▁እዩ::
▁ሕመም
▁ስለአ
▁አይመስል
▁ነገርም
▁ወይንስ
▁እንተሃ
▁ክትምለስ
▁ከእናቱ
##በለን።
▁ንምል
▁"እሞ
▁ቤተ-መ
##ብሉይ
##ርእን
▁ከፍር
▁ሸሸ
▁ተወዲኡ
▁አያደርግም
▁‹‹ከ
▁ምምዝ
▁የሚያስፈልገውን
▁መገዲ፡
▁ቐል
##ከምኡ
▁ተሳኢ
▁በዓቲ
▁ካልኣይቲ
▁ኣቕር
▁ሙዚቃን
##ቅዱሳት
▁በጉባኤ
▁ከትምህርት
▁በሳምንቱ
▁ብስምካ
▁ኣይትረስዕ።
▁ዕግበት
▁ጋዜጠኞች
▁ምትካኽ
▁ካቶሊካዊት
##ቐ።
##ሰዎች
##ሰባዊ
##ቀኝነት
##ከርን
##ሣሥ
##ጌጥ
##ሖ።
▁ኣድና
▁በፖ
▁የዴ
▁የንጉ
▁ብረ
▁ዝቘ
▁ተሰራ
▁ክጥቀም
▁ነው››
##ቸውና
▁የተጣራ
##ፈልገን
▁ጸላም
▁አንዲ
▁ጠም
▁ጠንቋ
▁የመዝናኛ
▁ክንዮ
##ቅርቡ
▁የማስታወቂያ
##ርካን
▁ሃገርናን
##ብሎስን
▁የሰሜን
▁ክብላ
▁እድለኛ
▁ኢንተርና
▁መስዋእ
▁ዕለቱ
▁ዝረኣዮ
▁ዝረኸበ
▁ይመስለኒ
▁የድልየካ
▁የሚገኙት
▁ትዕዛዞች
▁ብሂል
▁መመለሻ
▁ክንዳኡስ፡
▁ርድኢት
▁ርህራሄ
▁መጨረሽታ
##ላቻ
##ነዉ
##ግዙ
##ካቲት
##ህበት
##እ፡
##ጥቋ
##7,
##ፅም
##ሞር
▁ይነብ
▁ምቅር
▁ማከል
▁ቀጠል
▁ባታ
▁ታክ
▁ለማይ
▁ለማጋራት
▁ክትእ
▁እምብ
##ራሕቲ
▁ላስ
▁ሸጥ
▁ተገደ
▁ምልላይ
##ond
##ብለኒ
▁ምክንያቱም,
▁ሆኖ,
▁SD
##ጠቀስ
##ሳተፋ
##ማልክት
▁መድረኻት
▁መዓስን
▁ትዕቢ
▁ወሰነ።
▁ይስጡ
▁ቅርጸ
▁ቍጣ
▁ተደርገው
▁ጸሎተይ
▁ስርዓቱ
▁ቓልሲ
▁እርሷን
▁ጀመረ.
##ለሽ።
▁መልካምን
▁ሓቅነት
▁ሊረዳህ
▁ድሒሩ
▁ተሰሚዑኒ።
▁እንደሚታየው
##ኣእምሮ
##ere
##ah
##ዳ፡
##ደቀ
##ቀረው
##ሻለሁ።
##ኳቸው።
▁የያዙ
▁መፃፍ
▁ከቀድሞ
▁ከኃጢአ
▁ብመር
▁ዝባን
▁ምንቅጥ
▁ሰው፣
##ከተለ
▁ንጉስን
▁ይጠቁ
▁ይጠፋል
▁ኣቦኣ
##ምልስ
▁ኦክስ
##orm
##መኑት
▁ተኣሚ
##ጸልዩ
▁መሊሶም
▁ሓሳቡ
▁ግድያ
▁ህንጸት
▁ወጥመድ
▁መፍቀድ
▁ዘንጊ
▁ኣትሒዞም
▁ይሰራል
▁ይሰራል.
▁ትሆናለህ።
▁ሓቲቱ
▁ያመጣል
▁ይናገራሉ
▁መኽሰብ
▁ሑጻ
▁አሰልቺ
##ኣኩም
##ደኝ
##ሚካኤል
##ሽኖች
##ሀል።
##ጦታ
##77
##ኵሮ
▁በሶስት
▁የኾኑ
▁እንጠይቃ
▁ዝቆ
▁ኣብዪ
▁ዘረጋ
▁ኢየን
▁"ለመ
▁ኣይትን
▁የሚሰራው
▁ባጤራ
▁ዚኸይድ
▁ኮኾ
▁እንዳደረግ
▁ዝበጽሐ
##ትም፤
##ንቀቕ
▁እየተከናወነ
▁ተሓቲ
▁ስራዎችን
▁መሠዊ
▁ኲላቶም
▁በርሀ
##ጽሕፎ
▁ኣይኮነን"
▁አዳራ
##ሃበና
▁እንዳልተ
▁ነፍስኻ
▁ማርች
▁የአሜሪካን
▁የሚታየው
##ጽኣሉ
▁አበዛ
▁አሳይቷል
▁"ስለዚህ
▁ንሽዑ
▁የሚያውቁት
▁በአንፃ
▁የሥነ
▁አይሁዳውያን
▁አያስፈልገውም
▁የተመዘገበ
▁ንቅድሚት
▁ሚልዮናት
##ለስቲ
##ድለ
##ዋለ
##፣-
##ቆችን
##ሬስ
##ጆችን
▁እፈቱ
▁ከብል
▁ዘጽ
▁ድኹ
▁ኣይካ
▁የሚፈልገውን
▁የተቀመጠ
##ንተርነት
▁ሲ)
▁ክትር
▁እስማ
▁ኣምላኽ።
▁ናቸውና።
▁ግዜ'ዚ
##ድልን
▁የማወቅ
▁ዘንድ፣
▁ተስፋዬ
▁ያስባል
▁ንሕዝ
▁የትኛውን
▁ተሰበ
##ዎትም።
▁ኣይተረድ
▁Ad
##ማል፤
▁ቅርሺ
▁ሰንጠረ
▁ያደርጋሉ።
▁ቀጥሏል
▁ትክክለኛነት
▁መጸ፡
▁ቀሪውን
▁ለልጁ
▁ጎይታና
▁ይገልጹ።
▁ክዕወት
▁ዓድዋ
##ርእየካ
▁ምዕባለታት
▁ዘግይ
▁ተገንዚ
▁ድኅነት
▁ያደገው
▁የማህበረሰብ
▁ተፈታታኝ
##ሓላ
##ዩን።
##ክ።
##ክሳስ
##ብሽ
##ግዛ
##ኝም፤
##ረዱት
##-ሰር
##ለኪ
##ያሱ
##ቀደው
##ሐዊ
##ኖ፡
##1]
▁ኣ.
▁የክርስቲያን
▁የጋብቻ
▁የክልል
▁እንርእዮ
▁ክነሱ
▁የእሷ
▁አልቆ
▁አልመጣ
▁ክንስ
▁ዋዕ
##ልናዮ
▁እውቀትን
▁61
▁"አዎ
##ቀመዛ
▁ብትሆኑ
▁ማይክል
▁ለተለያዩ
▁ሲያደርግ
▁መጺአ
▁ፍሉያት
▁ተኸታተ
▁ዓላማው
##ኣልቦ
▁ጥቕስታት
▁ወልፊ
▁ቁርጠኝነት
▁እንድንችል
▁ዘይኰነ፡
▁የክፍያ
▁ባለቤትነት
▁አድርጉ።
▁ፆታ
▁ስውኣት
▁አሰልጣኝ
▁ወራቶች
▁ኪኸዱ
▁አይሁዶች
▁ኣበየናይ
▁ብቕንዕና
▁Assenna.
##ዝክ
##ብዱ
##ኝ፥
##ዓዮ።
##ደሎም
##ሁን።
##O)
##Google
▁እብራውያን
▁በጋ
▁አጸ
▁ነር
▁ከነበረው
▁ዝራ
▁ክደ
▁ለገበያ
▁ገንዳ
▁ናይተን
▁ቀፃሊ
▁ምስኣቶም
▁ቅኔ
▁እየሞከር
▁ለማምለ
▁ሰብ።
▁ክትወጽእ
▁ክትጥፍኡ
▁ጽላት
▁ርኩስ
▁ረሳ
▁5,
▁ከተማው
▁አስተባ
▁ድረስ,
▁አውሎ
▁ኔራ
▁ሓበሬታ፡
▁ተመልሰ።
▁ሒሳብ
▁ነብስ
##ሜንት
▁ይመጹ
▁ብሩርን
▁ወጥሪ
##ሓስቦ
▁ረድቶ
##መሓላል
▁ረሲኣን
▁ሚስጥራዊ
▁ጥርጣረ
▁ኣሕሊፈ
▁ትግራይን
▁ዝተጠቕሰ
▁ስምምነቶች
▁ትጥሕሱ
▁content
▁ወይልርኹም
▁አሰጣጥ
▁ኣፈፃፅማ
##35
##65
##ሕሊ
##a)
##ቃው
▁ኣዊ
▁አሌ
▁መሄ
▁መሕትት
▁ይምለ
▁ይፍለጥ
▁ምደለ
▁እንሞክራ
▁ክጽበ
▁ትወጣ
▁ኣይብ
▁ባድመ
▁ለመወያየት
▁ሃደ
▁ታድያ
▁በመጋቢት
▁ዚእ
▁ኣሎዉ
▁የአምልኮ
▁ምርድዳእ
▁ከአባቴ
##ትናም
##ዎም፣
▁ጓሶት
▁ሕዝብን
▁ማዕቀብ
▁የለም!
##በቅዕ
▁አጋጥ
##ሁለተኛው
▁ይኸዱ
▁ጸኒሕ
▁በዓይ
##ላችኋል
▁ዴን
▁በሕይወትዎ
▁ዝስሙ
▁ዕውቀትን
▁ተላዒሉ
▁መፍትሄዎችን
▁አመለካከ
▁በምትኩ
▁ቅድሜና
▁"ልጄ
▁ስማዕ።
▁ዝምልከቶም
▁ረቛሒታት
▁ብሰይፊ
▁ገማግም
##ላዲ
##ገበሮ
##ተሙ
##ካ"
##ዊድን
##ጢሞ
▁በጦርነት
▁የጂ
▁ክሳተፉ
▁ግዕዝ
▁ማት
▁እንዲሄድ
▁ታገ
▁እየ፧
▁ሊጠቀሙበት
##ቶች,
▁በመመልከት
▁ክትመጽእ
▁ኪነብሩ
▁ያለመ
▁5%
▁ምእመና
▁ዝኾነ፡
##ቀጥሉት
##ዛረቦም
##ኖራችሁ
▁ናት.
▁ስብስ
▁ባልሆነ
▁ይበዝሕ
▁ቱር
##ቐትሉ
▁በላዕኩም፡
▁ይቆያል
▁Un
##ነበበ
▁ባሕርያት
▁ብሄራት
##ክርስቲያኗ
▁ጥረቶች
▁አይኮነን
▁ትመስል።
▁ዜሐጕስ
##ታሉ.
##ው.
##sp
##ቀህ
##ኽሉ
##ኻሪ
##ቪስ
▁ከወጣ
▁እንጠቀማ
▁ዝሳ
▁ተሟ
▁ዘደን
▁ግኝት
▁"የት
▁ካለህ
▁ሕርሲ
▁እንደማል
▁ቀመር
▁ግን፥
▁(ገ
▁አይርሱ
##ርስን
▁እንዲመጣ
##ስተካከል
▁ዕሽሽ
##ችሁ?
▁እንተኾኑ
▁ሊንክ
▁ኸው
▁የእረፍት
▁'ለ
▁ቁመት
▁ዛዚ
##ኣብነት
##ካልኦት
▁ለአምስት
▁መርዓዊ
▁ዝበሃ
▁በልብህ
▁ውድቅ
▁ኔት
##ችኋለሁ፤
▁ክፉን
##ጥፍኦ
▁በርሊን
▁ደቀባት
▁እግሮች
▁ንጥፈት
▁መጸዋዕታ
▁ትምህርታዊ
▁ምልክቶችን
▁ክቕየር
##እኔም
▁ሚስዮ
▁ፍጻሜታት
▁የተለመደው
▁መግለጫዎች
▁ኣዳምን
▁ኣፍሊጡ
▁በከተማው
▁ፍልስጤ
▁ዓምዲ
▁ኢህወዴግ
▁የጽድቅ
▁የቀረበው
▁ለማዳበር
▁Skip
▁ብዘየገድስ፡
▁አሁኑኑ
▁ንቢቢሲ
▁ti>
▁ሰቴኹም፡
##ናጸ
##ላኺ
##ታለል
##ርታ
##ተኸ
##ቃድ
##ፅና
▁በብሎ
▁አሳብ
▁መፀ
▁ንረብሓ
▁ስዩም
▁ለገ
▁ግቦችን
▁ያጋጥ
▁"ዘይ
▁ሓቆፍ
▁ስለሱ
▁ጥሪዎች
▁መንገር
▁ዚደል
▁እምበይ
▁ምርቱ
▁እንደሚኖር
##ኤልያስ
▁ቆራ
▁ከምዝበ
▁ምኽፋል
▁እዋን'ቲ
▁አውቆ
▁በልጆች
▁ኣስመ
##ቀውም።
▁በጥሞና
▁የብላን
▁ሰምዑ፡
▁ረኺቦም
▁ክልቲኤን
▁ኣፍሪቃውያን
▁ኣቐዲሞም
▁ነጋዳይ
▁በዳዊት
▁ገምጋ
▁ዝምድናታት
▁ግርማይ
##rive
▁ዕዉር
▁ይካሄዳ
▁ጆንሰን
▁ምሥራች
▁ቬጋስ
▁ዄንካ፡
##ጻጸሮ
##ገቢው
▁ብምግላጽ
▁ሐሳቦች
▁ይደረጋል
▁ባእሲ
▁ድሉዋት
##ረቡ።
##ጸኦ
##ጠኞች
##ወም
##ሃነ
##ፉ፡
##ፓርት
▁እልካ
▁ኣፎም
▁በጠቅላላው
▁ዝስተ
▁ግበሩ።
▁ደሚ
▁ጥብ
▁አይቀ
▁ህመ
▁እንተልዩ
▁ክንሰ
▁ዋዜማ
##ቸውን?
▁ኢዩ!
▁ደግሞስ
▁ሎተሪ
▁9.
▁እምበር፣
▁ኔረ
▁በትዳር
▁ብኣሽሓት
▁ሙሴ፡
##:36
##ተኞችም
▁ሻምፒ
▁ብሕማም
▁ጸኒሓ
▁ቍሩብ
▁ተናግሬ
▁በዩክሬን
▁በዩኒቨርሲቲ
▁ምንቅስቓሳት
▁መኣዝን
▁ምዉት
▁"ሰባት
▁ከምዘለዎም
▁ማሕበራውን
▁ዝተመስረተ
▁ተገነዘብ
##ናታት
##ምጣቱ
##ስቱን
##ተሃል
##ቃንን
##ቴት
##ፆታ
##UM
##ሆሆ
##ቪን
▁በዞም
▁በቋሚ
▁ምኵ
▁ውርሻ
▁ከምኣ
▁ውስጥ።
▁ዚዀኑ
▁የመጽሐፉ
▁አስብ።
▁የሚያረጋግጥ
▁ምክሮችን
▁ክፍሎችን
▁ኣይትኽእልን።
▁ሴንት
▁74
▁ኣስዕብ
▁የማይፈልጉ
▁ዝኣመን
▁ዝኣተዉ
▁ተዋሂብ
##ነገራት
▁ግንኙነቶችን
▁ፈቃር
▁ኣትየ
##ናዮ፡
▁ምፍታ
▁እንደዚህ,
##ተዋል፤
▁ዓቕምና
▁አግኝቻለሁ
▁የልቦን፡
##ስተርዳም
##ንቀሳቀሱ
▁ተሪር
▁የተወሰኑትን
▁ይቀጥላል።
##ኮትላንድ
▁ይጨምራል
▁አንብቤ
▁ኣቀራርባ
##ስክሌት
▁ተኽእሎታት
▁ጕድጓድ
▁ብሕልፊ
▁ዕርክነት
▁ሟ
##ዝያ
##ዝግብ
##ይቱን
##ላለሁ።
##ዘርግ
##ኣዮ
##ሲት
##ጻው
##ማረው
##ጠልም
##ጥረው
##ቕሊ
##ጡም
▁በዐ
▁በወን
▁የጄ
▁ከገልግል
▁ብብዙ
▁ንዋ
▁ክረኽቦ
▁ደረስ
▁የሚፈራ
▁(20
▁ለመፈጸም
##ባትም
▁ሊሠራ
▁ሊመስል
▁ጸቢብ
▁በአባ
▁እያ!
##መልክተ
##ንዘቡ
▁ሐሙስ
▁መሆንን
▁ተወፋይ
▁ዝመረጽ
▁Al
##ገዝኡ
▁ወላጆቼ
▁መመዘኛ
▁ህግደፍ፡
▁መጺእ
▁ኣገዳሲ'ዩ።
▁ለእኔም
▁የሚቆይ
▁መምዘኒ
##ክቶር
▁ይነግራ
▁ታላላ
▁አደባባይ
▁ሰሪሖም
▁ፍለጥ።
##ያንዳንዳችን
▁ግጥሚያ
▁ብጥበብ
##ሰማምዑ
▁እምብዛም
▁ድኅሪ
▁ፍቓደኛታት
##|10|
▁እገምታለሁ
▁ራይ
##ይካ
##ፍሎ
##ገኝነት
##እንቲ
##ወራው
##ደንግ
##ራይን
##ሄዱት
▁እባብ
▁አሊ
▁አያት
▁የገቡ
▁ከሴቶች
▁ከጥንት
▁ብኮ
▁ምኾነ
▁ንዮሴፍ
▁ዝካ
▁ተጥ
▁ስፋት
▁ሓበረታ
▁ኣይቀ
▁ሁነታ
▁እንተን
▁እንተሎ፡
▁ዚፈር
##ገልጥ
▁ሞከር
▁ናቸው:
▁ቦትኡ
▁መስር
▁ካልቻሉ
▁ሥላሴ
##መለስም
▁ዶሮ
▁አይደለም;
▁ከፍሬ
▁ወርሃዊ
##ታውነት
##በብያ
▁የማይፈልግ
▁አቀፉ
▁አጋጥሞ
▁ስብሓት
▁ሃይማኖትን
▁ምጽናሕ
▁ዝሰዓ
▁ንርእሰይ
▁ኣለና"
▁እንቅፋት
▁አመጣጥ
▁ክድቅስ
▁አንብብ
▁ቆርበት
▁መባእታ
▁ስዉኣት
▁እስማማለሁ
##ምነቱ
##ክንያ
##ጋብር
##ህያ
##ድኣት
##ሉኒ
##w.
##ሯቸው።
▁በፖለቲካ
▁መጪ
▁መመልከ
▁ይሰብ
▁ይርድ
▁ብሳ
▁እንሰጥ
▁ዝፀ
▁ዝጐ
▁ተላል
▁ሰቡ
▁እናበልኩ
▁የሚባ
▁የሚገኘውን
##ግዚቢ
▁እንዲመለሱ
▁በአንደ
▁የመክ
▁ክንመ
▁መልሱን
▁ቢዝነስ
▁ያለበትን
▁እሱር
▁ከአንዱ
##ወሰደው
▁እዮም፤
▁እርሳቸው
▁ካልእን
▁ዘለዎ፡
▁እየተባለ
▁ኣሕዛብ
▁ተቀላቅ
##ምራቶች
▁ከባቢና
▁በኩል,
▁ያሳድራ
▁ነፍሲ-ወከፍ
▁ይመከራ
▁ጥንቃቐ
##-10
▁ረኺብካ
▁ቀልድ
▁ለልጆቹ
▁ለማስተዋወቅ
▁አሰቃቂ
▁ያየሁት
▁ንዑስ
▁ዘይብልና
▁ታያለህ
▁ስዕረት
▁ተኝቶ
▁መዐቀኒ
▁ምሕዝነት
▁ብጥንቃቐ
##'ላ።
##ብሮን
##ስዩ
##መኩም
##-9
##ሲል
##ፈተን
##ከነ
##ሏቸውን
##ሊዩ
▁በኸ
▁የሰይጣን
▁መፋ
▁ነህምያ
▁ምግልጋል
▁ንረክብ
▁ዝሞ
▁ዝዛረቡ
▁ያር
▁"ሳ
▁"ኢየሱስ
▁የሚለ
▁ቀዶ
▁ፍቱ
##ለምኑ
▁ሲገቡ
▁በአምስት
▁ክትምር
▁ሙታንን
##በለይ
▁የሚያዩ
##ገብሩ።
▁ያለብኝ
##ህንና
▁መሰረተ
##ያስፖ
▁ላቲን
▁ይጠራል
##ፈትሖ
▁ንግዳዊ
▁ብሎ,
▁ከሚገኙት
##ደግሞ
▁ምትሕግ
▁የቀሩት
▁ዘርጊ
▁ሓገዝን
##ንኩር
▁ኣደባባይ
▁ያደርጋል,
▁ቱሪስቶች
▁ንጹሃት
▁የለን"
▁ለእናንተም
▁ሓዲሩ
##ase
▁(ከዚህ
▁ርእሰ-
▁ኀጢአት
▁ዝብለካ
▁ኣወዳትን
▁ጥቃቶች
▁ዝጠፍኡ
▁]]>
▁እንሄዳለን
▁ፀብፃብ
▁ቧንቧ
##ታታት
##ክሙ
##ያየር
##ጨመሩ
##ጣቢ
##ጣትን
##ደን።
##ቤታዊ
##ቼም
▁ኣጠ
▁ኣፅ
▁የቤተሰ
▁ነክ
▁ይልካ
▁ይጎድ
▁ብዕሊ
▁ንዛ
▁ተዝ
▁ክማ
▁ዘፋ
▁ማቅ
▁ሓፂ
▁ጥገኛ
▁(H
▁ለመሳብ
▁ፈፂ
▁ዘይተሓ
▁በመካከላችን
▁ጽቡ
▁አስማ
▁አስነሣ
##ዓልን
▁የሚያመለክተው
▁ዝሓሰ
▁ንኣምን
▁ወርሕን
▁ሐረግ
▁ንግስት
▁ልብሱን
##ምለስን
▁አቀማመጥ
▁ወላዲት
##ተናል.
▁ተነስተ
▁ፎር
▁ዘላቶ
▁ሻሂ
▁ጾመ
▁የሌሎችን
▁ደጊምና
▁ፈረንጂ
▁ከውስጥ
▁ይቆዩ
▁ኣጸቢቐ
▁ኣፈወርቂ
▁ደልዮም
▁ዓሚቝ
▁መሆኗን
▁ምህናጽ
▁ብትኽክል
##ልሙ
##ውደ
##ፍኖ
##መሪ
##ተውም
##ጻጻ
##ሩህ
##ጡና
##ዞችን
##ፁፅ
▁አሪፍ
▁ይታይ
▁ክፈልጡ
▁ለቀጣ
▁"ሚ
▁ካደረጉ
▁አይፈልግም።
▁ምስ'ቲ
▁ዘይር
▁የምታውቁ
##መልጥ
##ልካዮ
▁ኣይትእ
▁ብርጭቆ
▁88
##ረንቶስ
▁አድርጋችሁ
▁ዝነበረን
##ንቀፍ
##ላማናውያን
##ሃብ።
▁በጥቂቱ
▁ብእኣ
▁ልምዓታዊ
▁ወሰለም
▁ወንጌልን
▁ዉሉ
▁ማስተዋ
▁አሸናፊዎች
▁ቀሪባ
▁ጠየቁ
▁ንመንእሰያት
▁ንኹልና
▁<br
▁ሆንግ
▁ትፈልጥዎ
▁ይከፈ
▁በሕይወታቸው
▁ጄምስ
▁ያደርገዋል.
▁አይፈቀድ
▁ስለእሱ
##ስብሰባው
▁ካምፓስ
▁ኣይነበሩን።
▁Amharic
▁መኾናቸውን
##ልሶ
##ፍጽ
##-ወደ
##ሲሕ
##ባሩ
##ጻወር
##ጨር
##ቶቻችንም
##ራክ
##ፃሕ
##ኅሣሥ
▁በሁሉ
▁የላት
▁ይዤ
▁ይስማ
▁ይገናኛ
▁ክዉን
▁ክወስዱ
▁ስውር
▁ሰከን
▁ዘሮች
▁"ጸ
▁"መልካም
▁ደነገ
▁ጥናቱ
▁የተገለ
▁ታይቶ
▁በመሰ
▁ርኅ
▁ዘሎዉ
▁እንዳየ
▁ነይርና
▁ከመጽሐፉ
▁ቅዱስነቶም
▁ያስገቡ
▁ድሕሪ'ዚ
##ንቀጽ
▁ምልልስ
▁በምታ
▁ዕድሎችን
▁ጭቆና
▁30%
▁በርሳችን
▁ንገሪ
▁በብሓደ
▁ይላል,
##ስተውዕ
▁ቆይቷል።
▁ንምፍጻም
▁አድርገዋል
▁የቱርክ
▁መብራቶች
▁ምድረበዳ
▁በዙሪያቸው
▁ምእንታና
##መጨረሻው
▁ይኑር
▁ጠውቑ።
▁ዘጋጠሞ
▁ዕግርግር
##ጻጽራ
▁አላደረገም
▁ማስተካከያ
##Read
▁ሱስ
##በዋል።
##ውዓ
##ረጅ
##ሱ"
##የአ
##ማሪያ
##ጽዳት
##ፋል.
##ጊም
##/ኺ
##ኙን
▁ኣዘው
▁በደረ
▁የራሳችን
▁ከኃጢአት
▁ብጎ
▁ዓርክ
▁ደኅ
▁የሚገልጽ
▁ገቡ
▁አይናገር
▁ዘይደሊ
▁በመጫወት
▁ዝተማ
▁ዝተብሃለ
▁በአደባባይ
▁እስላማዊ
▁ከእት
▁ቢን
▁ብቻ።
▁ዋሕስ
▁ሽኮ
▁ሥቃይ
##ወዳእታ
▁ጎማ
▁ፕረስ
##ወስደው
▁ሁኔታን
##ፈርዱ
▁አውቄ
▁አያቴ
##ነብርን
▁ወቅት,
▁በብሔራዊ
▁መጺኣ
▁የብሪታንያ
▁ኣይነበረትን።
▁እንተዘይኮነ
▁(በአ
▁ትችላላችሁ
##ash
▁ንበዓል
▁ተጓlersች
▁ወደፊትም
▁ፋይናን
▁ግብረ-
▁ክምችት
▁ፈላስፋ
▁እኽእል?
▁ዴሞክራሲያዊ
▁በልጅነቱ
▁ድሕንነት
▁የተቆራ
▁በፈቃደኝነት
▁በፍርሃት
▁አገናኞች
▁እግዜር
▁ኮከቦች
▁ዥ
##ላ፣
##ብባዕ
##መዛ
##-መንበር
##ሮይድ
##ኻስ
▁አነጋ
▁የዛሬው
▁መ:
▁ከሥ
▁እንካ
▁ንኸይድ
▁ንከይ
▁ተዉ
▁ለምር
▁ያቺ
▁እንደኔ
▁ገነቶች
▁ልቦች
▁ባጀት
▁ነገር,
##ፈልኩም
▁ነበር:
▁እንተቐ
▁ሰብዓ
▁አልፈለ
##ልና፣
##ርከብን
▁ጎር
▁ምድሓ
▁ኢኻ!
▁ልጆችና
▁9፤
##መራው
▁በምዕራብ
▁መለኸት
##ork
▁እየተናገረ
▁ምትዕር
##......
▁ብሕይወት
▁"ከመይ
▁ይበዝ
▁(በተ
▁crypt
▁ኣለዉ፣
▁ዘውታ
▁0.
▁ንበል።
▁በመካከላቸውም
▁ተላዒ
▁"ሰዎች
▁ናችሁ፤
▁ኣቀዲ
▁ጥቃቅን
▁ተናገሩ።
▁ዝሰርሖ
▁ቅዳሜና
▁ተኣኪቦም
##ሌክትሮኒክስ
##ቻቸው።
##ውዕ
##ፍፍ
##-201
##ህጉ
##ጥስ
##አና።
##ጣጠር
##ሌቶች
##ሜትን
##ኽሲ
##/0
##ጃዊ
##ጃቸው
▁እሠራ
▁በዘር
▁ከቆ
▁ብከምዚ
▁ምኸ
▁ንለውጢ
▁ተነሱ
▁ትመለሳ
▁ኢዚ
▁ኣይፈር
▁የሚበላ
▁ልዝብ
▁ጥና
▁ግን።
##ስተራት
▁ፈሩ።
▁በመመስረት
▁በአም
▁በአዕምሮ
▁ቦታውን
▁አብኡ
▁ከአባት
▁ንስደ
▁መሰላትን
▁መካከልም
▁ይጠንቀ
##ረዳቸው
▁98
▁ያልፋል
##ኩልቲ
▁ከሚታ
▁መሆኑን,
▁ሄኖክ
▁እዛው
▁ለሚገኙ
▁ክፉዎች
▁ኣልዩ
▁ይፈረድ
▁ምጽላይ
▁መታወቂያ
▁ጓደኛዎ
▁ስእለ
▁ዝስራሕ
▁ይጥቀ
▁ውልቀሰብ
▁ምቅላስ
▁ምቹእ
▁ራዕዲ
▁የለበትም.
▁ንገብር።
▁ይጀምራል።
▁ኣፍንጫን
▁ውይይቶች
▁ጎረባብቲ
▁ንሰበይቱ
▁ከመካከላቸው
▁የፈለጉትን
▁ምውህሃድ
##ዕኡ
##ት"
##ህ፡
##fli
##ሰጠን
##ማዝ
##ሉበት
##ወትን
##ዙዝ
##ሮቻችን
##ile
##ሣሪያ
▁በርና
▁በሙያ
▁የቫ
▁የዜና
▁ይሓትት
▁ንቃ
▁ለወንዶች
▁ማዓል
▁ትፈል
▁ገበሩ።
▁እንዲሰጥ
▁በመጠበቅ
▁ለማመልከት
▁ጸለየ
▁ቁሳዊ
▁ጨዋ
▁ኣይትጨነ
▁ሐ)
▁ዕድሉ
▁እኳ፡
##int
▁ሊያጠፋ
▁አምሳ
▁ዝኸደ
▁ንደቆም
##ዕንቅ
▁በዓይና
▁ኣማኢት
▁የበጎ
▁"ኣብቲ
▁ኒኮ
▁ሕይወቴ
▁ጥቅል
▁እንከሎና
▁ተምሃራይ
##orex
▁ከሆኑ,
▁ቀልጢፈ
▁ኻባታቶም
▁ዕድሚኦም
▁የግብርና
▁ጭብጢ
▁ባለስልጣናት
##ላኩ
##ልሰን
##በታል.
##ምቢ
##ገራት
##ፈታት
##ባሪዎች
##ጊያው
##ph
▁ኣጉ
▁በከባድ
▁መማረ
▁መያዣ
▁ተፈር
▁ክገልጾ
▁ወፈያ
▁ስሉ
▁ገንብ
▁ጥርስ
▁ቀጻል
▁(m
▁የተወሳ
▁የተዘረዘ
▁ሃለዋ
▁በእጄ
▁ለማፍ
▁ክትረኽቦ
▁ጠሚ
▁የመርከብ
▁ከእያንዳንዱ
▁ካልአይቲ
▁ከመላው
▁አይደለም...
▁ታሪኩን
▁አውሬ
▁ተወር
▁ሄዋንን
▁ሰማርያ
▁ኣምጽኡ
▁ስብዕና
▁ሩሌት
▁ምህሮ
▁1995
▁ዝነበርካ
##መስለኒ
▁የይለፍ
▁ዛንታታት
▁የገቢ
▁ፍጡራት
▁ሓሊፎም
▁ገርካ
▁ሓጥኣን
##እኛም
▁አድናቂዎች
▁ባህሪያትን
▁የቤተሰቡ
▁ብጹእ
▁ጠቕላላ
##ኻኸሪ
▁ይጠበቃል።
##ተባዕ
##ማርን
##ጣና
##ቅባ
##ሽ፣
##ኽካ
##ቡስ
##ፆች
##per
▁ኣድሕነ
▁የቲ
▁የኋላ
▁የኩባንያ
▁ከሊ
▁ከሸ
▁ዝፈተ
▁ለኤ
▁"ነቶም
▁በመውሰድ
▁ቢሊ
##ናል!
##ልካት
▁እትብሃል
▁86
▁ፖላንድ
▁ምእካብ
▁አውቶቡ
▁አባቴን
▁ኣስራ
▁ማሕተም
▁ተባለ
▁ትምህርቲ፡
▁የምትፈልገው
▁ለምት
▁ሰዓትን
▁ኲነታት
▁ደርፍታት
▁ተነሡ
▁IS
##itors
▁እወ፣
▁ዘበለ፡
▁ከምዘይት
▁ክህልው
▁ርዕሶች
▁አስቸኳይ
▁ንውሓት
▁ተከታዮችን
▁VPN
▁ኣረዲ
▁ጎዳናዎች
▁ድንጋዮች
▁ያለፈውን
##መለከታቸው
▁ኦርቶዶክስ
▁ገልጸዋል።
##ኩዎም
##ፍኑ
##መፀ
##-0
##ባል።
##ec
##ሳዩ
##ፊን
##ጅና
##ዶቻችን
▁አወድ
▁አክስ
▁መውስቦ
▁ዝፈጸ
▁ተከተሉ
▁ለሳ
▁ሓሰብ
▁ጥሎ
▁ቀፂ
▁(8
▁ለመምጣት
▁ፈተን
▁ጋርም
▁ዓመቴ
▁ዚሐ
▁ክትብሉ
▁ኪህሉ
▁ተመሃራይ
▁የአኗኗር
▁ቃል፡
▁ጨካን
▁ኣይትፍ
▁ሂቡ።
▁ኺድ
▁መሆን,
##ory
▁ፋስጋ
▁"የእ
▁ከምዘላ
▁የውኃ
▁ዓብይን
▁ጸሎትና
▁እንደተጠቀሰው
▁ኣደይን
##ተዋል,
▁ያስተምረ
▁ክስራሕ
▁ምዕባይ
▁ይጠቀማል
▁ኣስተዋ
▁ይሠራል።
▁ሄደ፤
▁ኣጋጢም
▁በትንሹ
▁መወያየት
▁ብማለት
▁በቤቴ
▁ዘካርያስ
##ከተማይቱ
▁ኢንተርናሽናል
▁ኽእ
##ዝዎ
##ልኛል
##ነዋል።
##ዓድ
##ካፈሉ
##ጠሪያ
##ቀደም
##ቀድም
##ቀረቡ
##ሃየ
##ቦታው
##ኳችሁ
▁የላይ
▁የዋህ
▁ከሙሴ
▁ዝምህ
▁ዝኾን
▁ተሃን
▁ለሐ
▁እናነ
▁እናቐ
▁ማጉ
▁ያከብራ
▁ኢም
##ነት፣
▁ሕብ
▁ጥቁ
▁(ዕ
▁(L
▁እንዲቆይ
▁ለመላው
▁ነበር...
▁ሊገኙ
##መስሎ
▁የሚያደር
▁ከመረ
▁ከመሬት
▁እንደሚል
▁4ይ
▁"እሺ
▁በማደግ
▁ክልላት
▁ኣይትቕ
▁ምኽኣል
▁ዝሓለፍ
▁ዲሞክራስያዊ
##ታል፥
##ጥርን
▁ሐይቅ
▁ንግድን
##ክርስትያ
▁ንኽልቲ
##ርናዮ
▁ማእሰር
▁አምሳል
##ክክለኛ
▁ተቀይ
▁ይሁን፤
▁Th
▁የስፔን
▁ህይወታቸውን
▁ብዘመን
▁(1-1
##ንትኖ
▁ይላል፤
▁ድልድል
▁ታውቃለህ።
▁እውነተኛውን
▁ምግባር።
▁የራሴ
▁ተጸሚ
▁አገኘ።
▁ወሰንኩ።
▁የዩኤስ
▁ዓንቀጻት
▁እጃም
▁ስኢኑ
▁ማብቂያ
▁ፖርቱጋል
▁ተዛማጅ
##በኽ
##በኩም
##ውነቱ
##ገበርካ
##ዓ.
##uro
##af
##ሰኩም
##ወጣም
##፡30
##ሊንግ
##ኛለሁ።
▁እማን
▁ከጣ
▁ከሁ
▁ይማሩ
▁ተት
▁ክዓቢ
▁ያጋጠ
▁ውክልና
##ነትም
▁ላይ፣
▁(ግ
▁ምስሕ
▁የተፈቀደ
▁ሃልዩ
▁እየተን
▁ዚፈልጥ
▁ክንእ
▁ክንጽሊ
▁'ታይ
▁ዋንነት
▁መስለኒ
▁የሚያገለግል
##ወዳት
##ዮም፣
▁ከተማን
▁ኢና፤
▁ያስከፍ
▁ዝበጽሑ
##ረዳኝ
▁በትምህር
▁አሳቢ
▁ብእንግሊዝኛ
▁ሃይማኖቶች
▁ምጽራይ
▁መጣጥ
▁ውሳኔታት
▁ዓቕሙ
▁ገዲፈ
▁ሹም
▁መላእክትም
▁ጄኔ
▁ኮምፒው
▁ንባዕለይ
▁መሳርሒታት
▁ዝፈትዋ
▁የኢየሱስን
▁(መዝ.
▁ንድሕነት
▁ብልሽውና
▁ድብልቅ
##ላሁ
##ክ?
##መፃ
##-ስ
##ካላት
##ህስ
##ለቁ
##ሌይ
##ሠቃ
##ኽር
##ሶምን
▁በሰንበት
▁አርብ
▁ይርዳ
▁ዝምለስ
▁ለሕይወት
▁ግላዊነት
▁ትች
▁ድሆች
▁ደምን
▁የተጠ
▁እንተኮ
▁ዚብሎ
▁መልኣ
▁የምኖረው
▁"እንተ
##ለይሂ
##ክትባት
▁አትርሳ
##መሰግን
##ክብሩ
▁ምልእቲ
▁"አባ
##ብለል
▁ቀዳዳ
##ወርዳ
##መረጥ
##ገብረሎም
▁ብድምር
▁መልሲ፡
▁ተኸፊቱ
▁የበዛ
▁"እኔም
▁ኣርኪ
▁ደንበኛው
▁pro
##ንቀሳቐስ
▁ረኣየ
▁ገዲፎም
##ሓድገ
▁መዘግ
▁ተለዊ
▁ስታዲ
▁70%
▁ካምፕ
##ደልየንን
▁(ኢሳ
▁በማንበብ
▁ደሴታት
▁ሳኦልም
▁አያምኑም።
▁ማእኸላይ
▁ውሽጥኻ
▁እፎይታ
▁የመግቢያ
##flix
##ይዩ
##-ፍ
##-ባ
##ርጽ
##አቱ
##ከንድ
##ቶር
##ቲ።
##ሊሱ
▁እሚ
▁አራዊት
▁ከቤ
▁ከክርስቶስ
▁ብደም
▁እንትን
▁እንጀምር
▁ዝጋ
▁ዝደረ
▁ተገናኘ
▁የሚሠሩ
▁ቀጽሪ
▁(6
▁ምስኪ
▁የተማረ
##ፈልገኝ
▁ለመምራት
▁ሃሎ
▁ታን
▁በመሬት
▁የመዳን
▁እስረኞች
##ለንን።
▁አስወግ
▁ዘለዋ።
▁ቤትትምህርቲ
▁ሆድ
▁ዋልታ
▁እንዳንተ
▁ንስር
▁እተሓ
▁የሆነን
▁ነፍሴን
▁መለኮት
▁ተሰሎንቄ
▁ጭን
▁ወንድና
▁ዋጋን
▁ፈቃዱ
▁ይፈጥር
▁ኣለዎ?
▁(በእ
▁ብቐረባ
▁ቀጥታዊ
▁ንጥዕና
▁መዋእለ
##፡10
▁መቐመ
▁በፈረንሣይ
▁የክፉ
▁ለማስተላለፍ
▁ለበዋ
▁አራተኛው
▁ትሆናለህ
▁የሶፍትዌር
▁ዓለማት
▁ሶርያውያን
▁ንኤርትራ
▁ስዕሎች
▁ሳዕቤኑ
▁ክነግረካ
▁ያስችላቸዋል
▁ሥርዓቶች
▁ዋሕዚ
▁ለሕዝቦቹ
▁°
##በሻ
##በዚህ
##ኣር
##ምነው
##ግሱ
##መረም
##-Fi
##ጎመ
▁በጻሕ
▁ይጽዕ
▁ብኩ
▁ምዝን
▁ንኪ
▁ዝብላዕ
▁ተድላ
▁ለኻዊ
▁"ጎ
▁ገስ
▁ልማኖ
▁የመማር
▁እያስተ
##ይንግ
▁ኽጸድቕ
▁ከይኮነ
##ርእዮ።
▁እተመ
▁ኦህ
▁Cont
▁ኬድካ
▁ነብዩ
##:37
▁ሮናል
##ምስክር
##oud
▁እድሎች
▁ተኸዲ
▁ጥንቁ
▁ኤልሳቤጥ
▁ሰሪሐ
▁የሚችሉበት
▁እብራይስጢ
▁ቅዳሕ
▁ያድርጉ።
▁የአሁኑን
▁ኣዛዚ
▁ቤተ-ክርስቲያን
▁ማጣሪያ
▁ገበነኛታት
▁ዝመስለኒ
▁እንተዘየ
▁አመሰግን
▁ዘሌዋውያን
##ሎሪዳ
##ኩ"
##ግዎ
##ያፍ
##ጨዋታ
##አቸውን
##ዲህም
##ሊድ
##ሂወት
▁የሉም።
▁የኩባንያው
▁ይቃወ
▁ይጎብ
▁ክሕግዝ
▁ለሶ
▁(ለመ
▁(መልካም
▁አይጠ
▁ዕጉ
▁ዓመፅ
▁በመግባት
▁ምንን
▁ዘለኣለማዊ
▁የአከባቢ
▁ናቸውና
▁ክፍተ
▁ከይጸንሐ
▁ሆነዋል።
▁ሕዝባዊ
▁ሸሹ
▁ደረጃታት
▁"አባቴ
##ድናዮ
##ገኙም።
▁እውነታዎች
▁ዝወጹ
▁ያሳያል.
▁ምግቦችን
▁***
##ውቅና
▁የነዳጅ
##ፖርቱ
▁መሓዛ
▁ይንገሩ
▁ህልሞች
▁ተዘርግ
▁ኣበይን
▁ሓተታ
##ጠነቅ
▁ምቅይ
▁ዝዝከር
▁ኣንብብ
##ውያኑ
▁በሞባይል
▁መሮጥ
▁አድነኝ
▁ሰውዬው
▁አያምኑም
▁ያለሁት
▁መግብን
▁ተጀሚሩ።
▁ምንቅጥቃጥ
##በአ
##መሪካ
##ካጎ
##ችና
##አኒ
##ከቡ።
##ኢልካ
##ዖል
▁ኣቆ
▁ኣእቲ
▁የዒ
▁የስም
▁ይፈልግ
▁ብኹ
▁ዝርእዮ
▁ሰመረ
▁ያሳስ
▁"ጥሩ
▁ኣይኽእልን
▁ባዓል
▁(ምን
▁በእስር
▁ዝተዳ
▁ኮንጎ
▁ክንርድኦ
▁6,
▁ስርሖም
##ብንም።
▁ደረጃዎችን
▁ዕድመይ
▁በቀኑ
▁ቡድና
▁አያፍር
▁ብኸመይን
▁ትምህርትታት
▁ይሁን,
##ማኖት
▁ክፉውን
##ated
▁ነጥቦችን
▁ይኸውል
▁ተሳዒ
▁ትምህርቶም
▁ለማሳወቅ
▁ኣቦይ፡
▁ዝሕብር
▁መሓዙት
▁ዝስመዓ
▁መዛሙርቱም
▁መበቆል
▁እኩብ
▁እኩለ
▁ንነፍስ
▁ንነፍሰይ
▁የተወለዱ
▁ማዕከላት
▁ኴንኩም
▁የሚሠራው
▁ደጋጊመ
▁ውሰዱ
##ments
##እነሱም
▁ራሕ
##ውዩ
##ፍቱ
##-ባህ
##ተሻ
##ተዋይ
##ሕያው
##uk
##ሰልካ
##ማች
##ራሔ
##/ሚ
##St
##ሶ፡
▁እመት
▁አኃ
▁ሰዶ
▁ትማ
▁ያበ
▁ካይ
▁ህቡብ
▁በመጽሐፉ
▁ክትሰምዕ
▁አስቦ
▁'እቲ
##ገድፎ
▁ነገም
##ርያዊ
▁እትደልዩ
▁ላክን
▁አትችሉም
▁አትጨነቅ
▁7_
▁ድረስ።
##መራን
▁ኦን
▁ንሓው
▁ዝመፀ
▁ለምለም
▁ኣትሪ
▁ብመጀመርታ
▁ታውቃላችሁ?
▁ማሳካት
▁በእውነቱ,
▁ብምባል፡
▁ትምህርቱን
▁በመስቀል
▁ክመጹ
▁የምድርን
▁ንልቢ
##ደነቅ
▁የሚያሳዝነው
▁በኮምፒ
▁መቁረጥ
▁ድያ?
▁አይደለህም
▁ወተሃደር
▁ዮውሃንስ
##ኩ!
##ኔር
##ሪጹ
##ዓላት
##ዳቤ
##ዳቸውን
##ዋለህ።
##አችን
##ቀረት
##ME
##cy
##ኡኒ
##ፋሉ።
##ሸው
##ቂያው
##ian
▁እፈልግ
▁በጤና
▁አወቁ
▁መጹ
▁ነዓ
▁ነናይ
▁ከላ፡
▁ይጭ
▁ይኽእላ
▁ንር
▁ዝሑል
▁ለጋ
▁ለጓደ
▁ዘረብ
▁ግራም
▁የሚጠቅ
▁ሕሰም
▁ገበል
▁ቀው
▁ባሮች
▁(t
▁(ቁ
▁የተያዙ
▁ወደ,
▁ፈቐ
▁ኸቢድ
▁ዝተወለ
▁ቃሎች
▁የምናገ
▁ቦታኡ
▁5)
▁ይችላሉ:
▁ሴትን
▁ነበሩት
▁መደቀሲ
▁ልብሶች
▁ኣባጊ
##ረምቲ
▁130
##ሕግዞ
##ውሰዱ
▁ክብሩን
▁ይብዛ
##ልእኽ
▁ጀመረት።
▁ምፍታሕ
▁ክብርታት
##ሻሻሉ
▁ስላሴ
▁ሰልፈ
▁ፌስቡ
▁1992
▁የዓለምን
▁ጥበባዊ
▁ፕረዝ
▁ቆይቷል.
▁ተወዳጅነት
▁ወለዶታት
▁ኣምላኸ
##ቀሳቐ
▁በዘመናዊ
▁ገንቢ
▁መሳሪያዎችን
▁ትኽክ
▁አልነበሩም።
▁ንምእታው
▁ኦሮሞ
▁እንወዳለን
▁ብምርኣይ
▁ወንድማማቾች
▁አንጀለስ
▁ምጽንናዕ
▁ዘውታሪዎች
▁ፈልግ
##ኝነትን
##4.
##ያና
##ዎቼን
##ራና
##ሩስ
##be
##ሾመ
▁ከድር
▁ይገኙ
▁ብክልተ
▁ክሕግዙ
▁ስዓ
▁ለደንበኞች
▁ሓለውቲ
▁ህቦ
▁የተወ
▁የተቀመጡ
▁ፈጥረ
##ቶችህ
▁በመክ
▁የመጡት
▁ክንራኸብ
▁አስደን
▁ከተለመደው
▁ዋኒን
▁ኣይትደልየንን
▁ይጠራል።
▁ኺብሃል
▁አንዳችን
▁ኣይተኣ
▁ትርፋ
▁ይኽእል'ዩ
▁ስለዝኾኑ
▁ዝኣምኑ
▁ሙሴና
▁የታሪክ
##ጠብቁት
▁እንዳለብዎ
▁ወረደ።
▁ከለና፡
▁ያሳድ
▁ቕዱሳት
##ርዳኖስ
##ፈለጉት
▁ተሸይ
▁ይሰጣሉ።
▁ዝፍጸ
▁አድርገዋል።
▁እንከለና
▁"ከምዚ
▁ክለዓል
▁ያረጋግጣል
##ክኒካዊ
▁ክግበረ
▁በከተማዋ
##መዘገቡ
▁ብምቕጻል
##ፓርታማ
▁ዓያሹ
##ብብር
##ሪቢያን
##ባሉ።
##ቀሚያ
##ኸር
##ፀል
##ሙ.
##/7
##ሯችን
▁እወቅ
▁እራስዎ
▁ከቻይና
▁ይረክብ
▁ይመጡ
▁ይደርስ
▁ብሽም
▁ወናኒ
▁ስ.
▁ትኪ
▁ገባር
▁ባሳ
▁የተገኙ
▁ታማ
▁እንተበለ
▁አለን?
▁በመልክ
▁ርኡይ
▁ክንሰምዕ
▁ክንጥቀመሉ
▁ሞቅ
▁ከመልክ
▁ሥዕል
##ግብሩ
▁ጎሳ
▁እትደልዮ
▁ፖስት
##ኣትዋ
##ሉን?
▁ኣስሚ
▁ገሊፁ።
##ላሉ፤
▁ውጤቱን
▁ልጆቼን
▁ተግባራትን
▁ከሰሜን
▁(እነሱ
▁ዀይና
▁ሰሚዕካ
▁ሕይወታችን
▁ተጻዊ
▁መዋጮ
▁ከዓመታት
▁ኡጋንዳ
##ጽኣኩም
▁አስተዋፅ
▁እላለሁ።
▁በርሱም
▁ዝፈትዎ
▁በማስገባት
▁እሙንን
▁ተኣሲሮም
▁የረድእ።
##ምራዊ
##ው,
##ኝም.
##ዓመ
##3.
##ማቶም
##ችኝ
##አቸውም
##ቃቕ
▁ኣከባቢ
▁አዕ
▁የቻል
▁ተምረ
▁ለጋስ
▁ማሸ
▁ካየ
▁ግንከ
▁(5)
▁ዝተባ
▁በአል
▁በአራ
▁ክትብሎ
▁የእነርሱ
▁ጽፌ
▁ሞሮ
▁እያለሁ
▁4:
▁"እንግዲህ
##ርከው
##ons
▁ገሊጾም
▁በረጅም
▁አልተቻ
##ግበሪያ
##str
▁ነብሶም
##:39
##ገደሉ
▁ዝነበሩ፡
▁እድሉን
▁ዕላማን
▁ብሩክ
▁ጨምሮ)
▁ሰባቱን
▁ሰበይተይ
▁ምንባሮም
▁ቤት-ኤል
▁ሰሙናዊ
##ስጥኤማውያን
▁ይይዛል
▁በሚያስደንቅ
▁ጣዖት
▁ለፍርድ
▁Wi-Fi
▁፧
##በሱ
##400
##ጻጸም
##ጥቃ
##ኖቻችን
##ቆምን
##ሆኗ
##ሹኽ
##ቄዶንያ
▁በቍ
▁በደም
▁የሪ
▁ይቐርብ
▁ብኻ
▁ንቃለስ
▁ተጌ
▁ተከፋ
▁ወገና
▁ዘኽእ
▁ድንግ
▁"ስም
▁የሚደረጉ
▁በመድረ
▁ኸቶ
▁ዚፍጸም
▁ሳታ
▁ሰው.
##ግባረ
▁የምስራ
▁አብራችሁ
▁ቤተይን
▁ውድባትን
##በራን።
▁ኣየንበብ
▁ከሚገኙ
▁ብትዕግ
##ጠናቀቀ
▁ተዋግ
▁ሮማውያን
▁ንገረን
▁ብዘለዎ
▁መደብሮች
▁ተንከባ
##ክሮ።
▁ንህዝብና
▁ዝውዳእ
▁ዝፈቱ
▁የሚከተለው
##ሮናቫይረስ
▁ግርጭት
▁ኾይኑ፡
▁ተማሂረ
▁ፍሽኽታ
▁ዝረኸብናዮ
▁ማምለክ
▁ይሰበሰባ
▁ዝዕድሚኦም
##ዝብቲ
##ናወ
##-ትምህርቲ
##ዓላ
##ህት
##300
##ሕዞ
##IC
▁እጣ
▁ኣርባዕ
▁በጽሑፍ
▁እንብሎ
▁ንረኽቦ።
▁ተገለ
▁ዘመልክት
▁ግዚ
▁"ኵ
▁ዓቃ
▁ቀሚ
▁መንዳት
▁ፈሳሽ
▁ለማካፈል
▁ጸጕ
▁ኮሙ
▁ኪብሉ
▁አልቀ
▁እስጢፋ
▁ከእስር
▁ቢቢ
▁ሙሐ
▁እንደሚሰማ
▁ክፍጽም
##ናንት
▁ስምኦን
##ልን"
##ስፋፋት
##ርካ፡
▁ከምዝነበሩ
▁ባለሀብ
▁ሥራ)
▁ባህታ
##ወደውን
▁ኣቦይን
▁ንሓያሎ
▁በቀድሞ
▁ሊያመጣ
▁ኣሕዲ
▁ነይሩ፧
▁ፍላጻ
▁እግዚኣብሄር፡
##ሰርሕን
▁ጐይታኡ
▁ዋላስ
▁Med
▁በቅርበት
▁በውጤ
▁ጀርመንኛ
▁ዘይምእ
##iden
▁ኮሚተ
▁ቀልጣፋ
▁ያስፈልጋቸዋል
##በዝሑ
##ቪዥን
▁ምዕባለን
▁ሚእታዊ
▁ይክኣል
##able
▁መሬትን
##ቃለሱ
▁ኣይፍቀደ
▁ንፉዓት
▁ተፈጸመ።
▁SEO
▁ተወካዮች
##ፕላኔቷ
▁ሰከንዶች
##ላግ
##ኮፕ
##ውጥ
##ዓተይ
##ሰፍ
##ሩክ
##port
##ሄት
▁ኣበው
▁ኣጻብ
▁በኖ
▁አሽከርካ
▁ይምልከ
▁ብዋጋ
▁ንቃል
▁ተሽ
▁ክፈልጦ
▁ወኢ
▁ለዋ
▁ማደ
▁ውዲ
▁ካታ
▁ካሌ
▁የሚቀርቡ
▁1:1
##ትንፋ
▁ይህቺ
▁እንዲሰራ
▁ሲመ
▁ምንዛሬ
▁አላስተዋ
▁ቀን፣
##ረብ።
▁አይደለም፣
▁ሸም
▁መጥፋት
▁185
▁"የማ
▁ኬፍ
▁ኣውስትራሊያ
▁ነንሓድሕ
▁ታሪኽን
▁IP
▁በብቃት
▁የብድር
▁የወረ
##ጻእ።
▁ማሳሰቢያ
##:42
##ስራዕ
▁ፈተናታት
▁አመቺ
▁መናፈሻ
▁ልንገር
▁ውጽኢታዊ
▁ኣይክእልን'ዩ።
▁ብድሕሪ'ዚ
▁ገዲፍ
▁መኣዝ
##ገልጸሉ
##ርኣየ
▁ፈለማ፡
▁are
▁ፈረቓን
▁ከካይድ
▁ጎደናታት
▁እንግሊዘኛ
▁በቡድን
▁ማካተት
▁post:
▁Netflix
▁እየሞከርኩ
▁ኽጸድቕዶ
##ዝገባ
##ልሃል።
##ንጥ
##ዕሉ።
##ፍሒ
##ረቱን
##45
##አቀፍ
##ጣለን
##ኬድ
##ኑ፤
##ሃሂ
##mm
##ቡ፣
##ቂው
##ቆቹ
##ዶ!
##ጾታ
##ፌታ
▁እዪ
▁ኣናብ
▁በነዚህ
▁ይሃሉ
▁ብሙ
▁ተስተ
▁ክሮ
▁ክውስ
▁ስጥ
▁ዘክ
▁ማመስገን
▁ልቤን
▁ጥርና
▁አለዎ።
▁ዝተማህ
▁ምንቕ
▁ኣሎ፤
▁ክንጥ
▁ቤትዎ
▁ከምዝኾ
▁አትክልት
▁ሸቀ
▁ኣይተራእ
▁ገይሩ።
▁ፋውን
▁እሞ፡+
##ይቶም።
##ሊዝም
▁ዜናዊ
##ቂያዎች
▁"ከዚህ
▁የሚቆጠር
▁ጓደኛው
▁ዘይምዃ
▁ስእነት
▁ብወገኑ
▁ጥቅሞችን
▁ገዲፍና
▁ይለዋል።
▁መለያዎች
▁ተርጓሚ
▁ኪዳንን
▁ማስረጃዎች
▁ንጸሊ።
▁ሞይቱ።
▁የሀገር
▁ወብሳይት
▁ተዘራሪ
▁ንያእቆብ
▁ይዅን
##ጋደል
##ህቲ
##ጻፉ
##ዳኣ
##ጽሮ
##ኬል
##ኋቸው።
##ጐል
##ጴጥ
▁እቆ
▁ኣማን
▁ኣጠንቂ
▁በወጣ
▁አርት
▁ከዝ
▁ዝስምዓ
▁ክሳተፍ
▁ለጀ
▁ሰደደ
▁ኣብዙይ
▁ዘስተ
▁ድሀ
▁የሚገድ
▁ባለን
▁ህብረተሰብ
▁የተጋ
▁የተሳሳቱ
##ምላኬ
▁ሓደ፡
▁አልለ።
▁ከእርስዋ
▁እግዚአብሔርንም
##ሰብ።
▁ናቸው፣
##ልና.
▁ኣነ፡
##ርእዩን
▁ይጠፍ
##ቦችም
▁ኣይተረኽበ
▁140
##ገዛው
▁ወለደ።
▁ኣልኮል
▁መንጎይን
▁ትኽእል፧
▁የወጣት
▁(እ.
▁ውሳኔዎችን
▁ስላላ
▁እንደሚያደርግ
▁ጅግንነት
▁ቀርበው
▁ይውላል
▁ንውግእ
▁ሁለተኛውን
▁አንቺም
▁ቤተሰቦቹ
▁በሙዚቃ
▁ሰጪዎች
▁ስለሆንኩ
▁ቁጽጽር
▁ፓትርያ
▁ምዝርራብ
▁እንቆቅል
▁ይጎብኙ
##ሓጥ
##-ኤ
##ሪዎችን
##ፈኑ
##ካቸው
##ችቶ
##ወየ
##ሞያ
▁በቒ
▁በነበሩ
▁ከኦ
▁ንልም
▁ንገብሮ
▁ክጠፍእ
▁ስበ
▁ለች
▁እናበለት
▁ደለየ።
▁(V
▁(ቁር
▁የተገናኙ
▁የተነገረ
▁ለማምረት
▁ዝተወደ
▁ጠጡ
▁ተመርዕ
▁ምርካ
##ልና"
##ለይዎ
▁ጎዲ
▁ለአዲሱ
▁የመጀመሪያዋ
▁የምትኖር
▁ከምዘለና
▁መሆኑን.
##እንታይ
▁ዝወረ
▁ልምም
▁በብእ
▁ሲያዩ
▁ክህቦም
▁(እኔ
▁ሰምተናል
▁ድልዋት
▁ጉባኤታት
▁ዝሰራሕ
▁የተሰወረ
▁ካርዲ
▁ሰፊሩ
▁pl
▁በቁጥር
▁ኣጸቢቕካ
▁አዘነ
▁አታውቁምን?
▁ጸንቶ
▁ዝሃብዎ
▁ሓዳሽ
▁ሰማእታትና
▁ለማዳመጥ
▁ይስሃቅን
▁ዝግለጽ
▁ግሉጽ
▁ተዓዘብቲ
▁በመደበኛነት
##ቪዬሽን
##ይሮም
##በኛው
##ምጽኣ
##ክበት
##ረህ
##ዓወ
##ካዮም
##ሰቱ
##ዳውን
##ዋለሁ.
##ሀር
##ጉዓዝ
▁በባሕ
▁ይቻል
▁ይምነ
▁ብ200
▁ዘቃል
▁የሚደርሱ
▁ጥሮታ
▁እንተዄ
▁ዝተመደ
▁ኮሎምቢያ
▁ቢመጣ
▁ሰዎችንም
▁ቤትካን
▁አይደለንም።
▁ሞትና
▁እያልኩ
##ህልዎ
##ላችሁ፥
▁ተጠቃ
▁ፖል
▁አስተምረ
▁ኣፍካ
▁ዝመና
▁መጥባሕቲ
▁ብኣቦ
▁የምንፈልገው
▁ምትኬ
##ark
▁ከለኻ፡
▁በእግዚአብሔርም
▁ህይወቴ
▁ዞን
##ጸልና።
▁ኣይኰነን፣
▁የባህል
▁ሰሚዕኩም
▁ጓደኛሞች
▁ድርጅቱ
▁መዋዕል
##ፈረሰ
##ጽናዕ
##ስካር
▁ፈለጉ
▁የተቀረ
▁ፊልሚ
▁ደሊኹም
▁እብል።
▁እንከለኻ
▁ፈራዲ
▁ጠፍቷል
▁በሀገሪቱ
▁ኮሌጆች
▁የሚያሳዩ
▁ይመለሳሉ
▁vis
▁በቴክኖሎጂ
▁ዓወታት
##ሰቃዩ
▁ሄሮድስ
▁ዚቝጸሩ
▁ጐንኺ
▁ጸጋማይ?
##ዘበ
##ጺሉ
##ፈሽ
##4,
##4_
##ለፎ
##ለፊያ
##ቀ፤
##ሙ፤
##ቡላ
##ሮሮ
##TC
▁የኖር
▁የጋጥም
▁ከመስግ
▁እናወሰኸ
▁ያብ
▁ያዛ
▁ያቃጥ
▁ድግም
▁ድህነት
▁"ዓለም
▁የሚመለከቱ
▁ልዕለ
▁ባሕቲ
▁መንከ
▁2:1
▁ይህሉ
▁ጊዜያቸውን
▁የተጠራ
##ስተይ
▁በእርሻ
▁ዘይኮይኑ
▁የአመጋገብ
▁ሽሕን
▁ቦታ፡
##ቱን፡
##ገባኝ
▁አብዮት
##ርከቦ
▁ለአራት
▁መለወ
▁መጥቀስ
▁ኢንዳ
##ens
▁ሠላሳ
▁ነህ.
▁ትዕዝብቲ
##ልቁል
▁ክብርቲ
▁አለኝ.
▁ውሃው
▁ትውልዶች
▁ብሰንበት
▁ንገረኒ።
▁መብዛሕትና
▁ተኣሲሩ
▁ክውንነት
▁1xbet
▁የድንጋይ
▁ጨካኝ
##ሰ-ሀሳብ
▁ኣዘውቲ
##ዩዎ
##-ኮ
##የደ
##ጽኦም
##ራባ
##ሞ፡
##ቱት
##ሮቻቸውን
##ሺያ
##ጢት
▁በሆን
▁አረብ
▁የላችሁ
▁የህዝ
▁የዮሴፍ
▁የባሕር
▁መክብብ
▁ምዓልቲ
▁ዝሰማዕና
▁ያመ
▁ያበራ
▁ውፉ
▁ኢስታንቡል
▁እንዲጠቀሙ
▁ለመቆ
▁ኩን።
▁ዚዝ
▁ጽዩፍ
▁ጠጣ
▁ኪሕግዘካ
▁ኤፕሪል
▁እኛንም
▁ንስምካ
▁ከምዝኸ
##ሃልቲ
▁ስርናይ
▁ተስፋታት
▁ሸፋቱ
##ለች፥
▁ንዓሰርተ
▁ሓበን
##ማዕ።
▁ዙፋ
▁አምባሳ
▁ወቅቶች
▁ፍልይቲ
▁ከፍተኛውን
▁ድንቂ
##ሳንደር
▁ይመጣሉ።
▁ኣተዓ
▁ዘፍቅር
##ሕልላፍ
▁ተጻፈ
▁የለንም።
##ace
##ዕብራይስጥ
▁ሓውኻ
▁'እዚ
##urren
▁ንጸላእ
▁በሃላይ
▁ምግባርን
▁ንምዕዋት
▁እናያለን።
▁በረከቶች
▁በማግኘ
▁እጠይቃለሁ
▁በትዕግሥት
##ጀንቲና
##ንኩም፡
##ምጥ
##ምጣ
##ውዕል
##ፈቲ
##ዮ"
##ጠች
##ያኑ
##ዋጉ
##ዋን።
##ric
##ከላዊ
##ጽድቅ
##ጡር
##ሙዝ
##/200
▁እቤት
▁በገና
▁አኑ
▁ዝከ
▁ማባ
▁ቀላይ
▁(i)
▁2:4
▁ምስ'ዚ
▁የተጣ
▁ዝተርፍ
▁የመጠጥ
##ማይካ
▁አይደላችሁም
##ገድፍ
▁ሞቃት
▁ጌር
▁እትመጽእ
▁ንኣብርሃም
▁76
▁መርጦ
▁ሐዲድ
##ግራፍ
▁እንደሆነች
▁በቀላል
▁እንዲያገኝ
▁የለም?
▁ነገራት፡
▁መወዳእት
##ሕግዛ
▁በረሃ
▁መሳፍን
##ራሳችሁን
▁ዝወርድ
▁በስውር
##ጸልታ
▁ቅርበት
▁መሊስካ
▁አለመኖር
▁ኣተኣ
▁ገብተው
▁ይመለሳል
▁መለሰለት።
▁ክንድቲ
▁ይሓልፍ
##ክሲዮን
▁ርስቱ
▁ዝተሓላለ
▁ንባዕል
▁ሂወትና
##ime
##ሞክራስን
▁ዝሰማዕኩምዎ
##ርጂያ
▁ኣይደልን።
▁"ንምንታይ
▁CBD
▁ስጳኛ
##ቻርድ
##ሕዋት
##ጠሩ።
##ሜናዊ
##ኪዎች
##ሊቲ
##ሊፎርኒያ
##ዔ።
▁በጊ
▁የጠየ
▁ንዳ
▁ዝትን
▁ትቀ
▁"ገና
▁ኣይጽ
▁የሚጠጣ
▁የሚቀበል
▁ሕፍረት
▁ላይክ
▁አይበ
▁የተደገፈ
▁ወደሆነው
▁ዕቑ
▁ጋር።
▁ክትፈልጦ
##ደርጉም
▁ቆጠራ
▁ነበረበት።
▁ጎጆ
▁ልጅቷ
▁ሸክ
▁ኺገብሩ
▁አስፈላጊውን
▁ጭቃ
##ችኋለሁ.
▁ዝኣዘዞ
▁ፋኩልቲ
▁ኢንች
▁ይሁን.
▁ኩነታትን
##ፈራው
▁ይበልጽ
##ቸዋለህ።
▁የሕዋት
▁ምፍታን
▁አውቃለሁ.
▁ይሕብሩ።
##ams
▁ቁርዓን
▁ኣእምሮይ
▁ርእሲ:
##ስታውሱ
▁አምላካቸው
▁ጸላእቱ
▁ንነብሰይ
▁ሊኖርዎት
▁ትኽክል
▁ማብሰል
▁ኣምጺኡ
▁እናስባ
▁ኣይኰንኩን
▁ንምክያድ
▁ምትእኽኻብ
##ውራት
##ኔዥያ
##ባም
##ባብራ
##እኻ
##ዚኖ
##ዋሳ
##ፅዳት
##ቕዑ
##❤️
▁እፅ
▁ኣዉ
▁የኖረ
▁መዘዝ
▁ከልክ
▁ብይን
▁ንበር
▁ዝወሰድ
▁ክሕዝ
▁ኢ.
▁"ኩ
▁"ኩሉ
▁ሓቒ
▁ሓብቲ
▁የሚከናወነው
▁ዕቡ
▁በአጋጣሚ
▁ዓመት።
▁ጀብሃ
▁በኋላ.
▁መሰሎም
▁ምኽርን
▁ብዝዀነ
▁ጓይላ
▁87
##inue
##ነርሱም
▁"የሰው
▁በእውቀት
▁"በጃ
##ጠናቀ
▁ወለዶም
▁ዜናዎች
▁ያውቃሉ.
▁ኣትዩ።
▁ሻድ
▁ቈረንቶስ
▁ዘተኮረ
▁ሓዲግ
▁ዘዴዎችን
▁ይላል.
▁እህቴ
▁በበጎ
▁ብዘይካ'ዚ
▁መመሪያዎችን
▁ከበፊቱ
▁ተርፎም
▁ዘምጽኦ
##ጽሓና
▁ነግሬ
▁በመንግሥ
▁ሽልማቶችን
▁ይወስድ።
▁የበረራ
▁ልዕሌና
▁እስራኤላዊ
▁ታዛዥ
▁ብኽብረትኩም
##ላዎች
##ታእ
##ፍሪቃ
##ገቤ
##ዓምራ
##ድቂ
##ሰጠኝ
##ዋ፣
##ወና።
##ወገዱ
##ደሪ
##ከየ
##ቲዩብ
##IT
##ጮኽ
##ዀና
▁በቻ
▁አደገ
▁መሥራ
▁ከንብ
▁ይቆጣ
▁ተረባ
▁ተቀመጥ
▁ለዛሬ
▁ለራሳችን
▁እናመ
▁ማዘጋጃ
▁ትሠሩት
▁ኢዳ
▁ኢኩም
▁ሓታቲ
▁የሚፈል
▁አይሰጥ
▁ለመመዝገብ
▁ዕጣን
▁አለቀሰ
▁በመካከል
▁ከእሳት
▁ብቻቸውን
▁ቀን)
▁"እግዚኣብሄር
▁ክልተን
▁ብሓሳብ
##ቀርብል
▁83
▁ዝመሃ
▁"አን
##ክእል።
▁ብስለት
▁በስድስት
▁አገሩ
##ችሁን?
##ጠቀምባቸው
▁ወሲድካ
▁ሩስ
▁ዝነበሩን
▁ንደቁ
▁ዘመዶች
▁**
▁ዕድሜኻ
▁ከእኔም
▁ማሳወቂያ
▁ይወዱ
▁ኃይሉ
▁40%
▁ኢንዱስትሪው
▁ውልቀሰባት
▁ኣይኰኑን
▁ነበራችሁ
▁ዲሞክራሲያዊ
▁ዘግይቶ
▁እራስህን
▁ስለእርስዎ
▁አይደለችም
##ተኞቹም
▁ምቁጽጻር
▁ቻርተር
▁ሳኦልን
▁የአውስትራሊያ
▁ይገልጻል።
▁በቱርክ
▁ትላንት
▁በአንጻራዊ
##ልኩም።
##ስረ
##ሕታ
##loud
##ለመን
##ዳትን
##ቸዉን
##ኺሩ
##ቲክስ
##ዐን።
▁የጠፉ
▁ከበሳ
▁ይቀድ
▁ምግን
▁ንሚ
▁ንወደ
▁ተለያዩ
▁ክነፍ
▁ዘክር።
▁ውለታ
▁"ድሕሪ
▁ካሮ
##ታት'ውን
▁የሚበል
▁የሚመለከት
▁መንዩ
▁አይዞ
▁እዚውን
▁የተረገ
##ፈልቲ
▁ሲደርሱ
▁ሲስተም
▁ለማድረስ
▁ጠባብ
▁ሳሕል
▁እያሰቡ
▁ዳህ
▁የማነይቲ
##ስታግራም
##ከተሞች
▁ልጅህ
##ሠራበት
▁ውድባዊ
▁ተወግ
▁መጥቷል
▁በታህሳስ
##ከራከራ
##ብራራት
▁እየተጠቀሙ
▁ኣእጋሩ
##ማልኡ
▁ነብሰ
▁በሕጋዊ
▁ኣቢልኩም
▁ምኽንያት፡
▁ኢትዮጵያ፡
▁ካብዚኣቶም
▁ለተወሰኑ
##ood
##-17)
▁ዘተስፈ
▁እዝጊ
▁ኣተሓሳሲ
▁አደርጋለሁ.
##ክተሩ
▁በጺሓ
▁ክኸፍል
▁ግደፍ
▁ንእሽቶይ
##ቀሳቐስ
▁ኣዴኻን
▁መሬቱ
▁ዝህቡ
▁ጁባ
##ጥበባዊ
▁የሚከፈል
▁እንመለከታለን
▁የዝግ
▁ልጥፎች
▁ነበሮም።
▁ተሓታትነት
▁ረዲኤት
##ና'
##ላሚ
##ምግባር
##ነዚ
##ብዩ
##ግፍ
##ሪም
##ለዓ
##ያነ
##ወገ
##ቤተይ
##ሽታው
##ሜዳ
##ቆዲ
▁አከ
▁መሀል
▁ከች
▁ይደረግ
▁ይቀርባ
▁ስፍር
▁ለራሳችሁ
▁ግሩ
▁ቀሊ
▁ቀንን
▁(ሕዝ
▁አይሻ
▁እንዲሰሩ
▁ለመመስረት
▁ሃኒ
▁የሚያገኙ
##ይንሳዊ
▁ዜገርም
▁ኩሉኹም
##ፈርዖንም
▁ዛሬ,
▁ኦሎምፒክ
▁አባቷ
▁ተፈጻሚ
▁ዝበለ።
▁ኢንዶ
▁መዓዛ
##በኛታት
▁ያሳውቁ
▁Rad
▁ተማህ
##ሰበስባ
▁ብመጠኑ
▁ክብርና
▁እንስሳን
▁ቪዲዮውን
▁ከልባቸው
▁የካቶሊክ
▁አሸዋ
##ምዕብል
▁ወድኻ
▁ጻዕርታት
▁ለልጆቻቸው
▁ዝሃቦም
▁Re:
▁"ምንም
▁ቸል
▁ኣይመስለንን
▁ታስቦ
##ነርጂ
▁አይታወቅም
▁የአንተን
▁ሂወተይ
▁ይዛመ
▁አሥርተ
▁መድሃኒቶች
▁አዝናለሁ
▁ረቂቕ
▁ዜድልየና
▁እተዋህበ
##ጭበርበር
▁መድሓኒት
▁ኣይፍቀድን
▁አያስደንቅም
##ታመን
##መዳን
##ገፉ
##ገሮም
##-ካ
##ሪ፡
##ማኢት
##ኤች
##ጃት
▁አርአ
▁አሌክ
▁መረጋጋት
▁ይቈ
▁ብቴ
▁ንሰን
▁"ጐይታይ፡
▁ዓሦ
##በር፡
▁ስለያ
▁ዕጹ
▁ነበር)
▁ክትባቶች
▁ጽብቅ
▁እስካል
▁ክፍኣት
▁እትብሎ
▁ጓጉ
▁እዮም'
▁ጌታው
▁ሐውል
▁አስተማሪዎች
▁ተገም
▁በምሽት
▁ኣይተረፈ
▁ዝኸበደ
▁የውድድር
▁ነብስና
▁"ንጉ
▁ዘይተቐ
▁ይመጣል.
##ame
##ጠቅላይ
##ድግፉ
▁ምዃንኩም
▁ይፍጸም
▁ፖሊሲዎች
▁ዝንባለ
▁አሳልፌ
▁1989
▁ምኞቶች
▁አይሆንም.
▁ተደርጓል,
▁ልዕለይ
▁ጽምብል
▁ኢልዎም
▁ኣይትፍርሁ።
▁መዝናናት
▁ዕምባባ
▁በኃላ
▁ውላድካ
▁ኽፍሊ
▁የለባቸውም።
▁ሲኖዶስ
▁ትርፋማ
##"በ
##ታላችሁ።
##ስያስ
##ረዲ
##ዛብን
##ደክም
##ሚና
##ሳሰር
##ኒያት
##ሽተን
##ቃለል
##ቦቹን
##9_
##ሑር
▁እጥ
▁ኣሜ
▁ኣሳል
▁በኣ
▁የጻፍ
▁የኒው
▁ክና
▁ኣብዞም
▁ዘንግ
▁ማጫወት
▁ትወድ
▁"ወይ
▁ኣይክን
▁ልበል
▁(ሓ
▁(ሐ
▁በአላህም
▁አንታይ
▁የመላ
##ስትር
▁መልከ
▁አስገባ
##ምህረት
▁እያደረግ
▁ክልኩል
##ህልወ
▁መሰረዝ
▁እተዳለወ
▁ጓሉ
▁የምትኖረው
▁‹‹እኔ
##መረጡ
▁ፖለቲካን
##ገደድ
##ጠይቕ
##ሰባሰብ
▁አልነበረም፤
▁ይቀየ
▁ወሰዱ
▁ተደፍ
▁አታስ
▁ቀጥሎም
▁ኣመሪካ፡
▁አመነ
▁ዝበልዎ
##መነዳ
▁እንስሳትን
▁ብርግፅ
▁ውጽኢ
▁ንመንፈስ
▁ሰበይቱን
▁የቆዩ
▁ለጥያቄ
##ስተንትን
▁ቊጽሪ
▁ዓለባ
▁ስዉእ
▁የዳሰሳ
▁ዚምባብ
▁እንደሚያሳየው
▁አላየሁም
▁ፋውንዴ
▁ዎች
##በሮች
##ግድን
##መዚ
##-ደረጃ
##ፈፍ
##ለናል።
##ዳሮች
##ጁ።
##ሠረቱ
##ቃለሁ
##ቕጽል
##ሮቢ
##ዶክተር
##ዴና
##ዷል.
▁ይውስ
▁ብዅ
▁ብቃል
▁ስመ
▁ስካ
▁ስዑ
▁ያያሉ
▁"በል
▁እዩ)
▁(ድ
▁ፍቁ
▁ጋና
▁ዕማማት
▁እንተኮይኑ
▁ዝተጀመረ
▁ሙጋ
▁የሚያይ
▁በማግኘት
▁ተጠመ
▁ሸርፊ
▁የሆነች
##መናችን
▁ሰለማዊ
▁"የእግዚአብሔር
▁መረጃው
▁ለሚቆጠሩ
##ተሓሳስባ
▁ሜላታት
▁መግለፅ
▁ቐሊል
▁መዓርግ
▁ከነኣን
▁መጋባ
▁ቍጠባዊ
▁ብለሽ
▁ኣርእዩ
▁ፍቅሩ
▁ንቕሓት
▁የማያቋርጥ
▁ለማንሳት
▁ማዕከን
▁በሀገር
##ላፍነት
▁የድልዮ።
▁ኣማራጺታት
▁ተጽሒፉ
▁ንምቕራብ
▁ኻባኻትኩም
▁ውድድሮች
▁ንናጽነት
▁ወጻእተኛታት
▁ህግደፍን
▁የተሞሉ
▁ኮኾብ
##ያስፖራ
▁ፈልጉ
##ናችን
##ዘቦ
##ነን።
##ግማ
##ስኩም
##ትኻን
##ፈጽሙ
##ካተት
##ጥያት
##ሙላ
##ሙቕ
##ሴቲቱ
##ፔዲያ
##ሔም
##ጧት
▁በይኖም
▁በቤተሰ
▁አለሁ
▁መጨ
▁ምሸ
▁ምዓል
▁ዘሰን
▁እናሃለወ
▁የሚጠበቅ
▁የሚጠይቅ
▁(ፍ
▁ነገር.
▁በመያዝ
▁ሰብሳቢ
▁የመጓጓዣ
▁ኪዱ
▁ሳስብ
▁ኤድስ
▁ሞራል
▁ሽጉ
▁አላወቀ
▁አላምንም
▁ብምጽ
▁ደቂቅ
##ባርኸ
##ስንት
▁ንሕናን
▁ሁለቴ
▁ኣባላቱ
▁ተቀብሎ
##ጠቃለያ
▁ደንቦችን
▁ለማግኘት,
▁ልጆቻችሁን
▁"ንዓ
▁ደገፍን
▁ዘየሎ
▁ጸኒሕና
##ነዚያም
▁ቀሪቦም
▁የጥራት
▁ሰባቱ
▁ሚስጢር
▁አድርገዋል,
▁ማታለል
▁ወንድሞቹን
▁ለብዙዎች
▁ዘልኣለማዊ
▁ከዋክብ
##ከማቸት
▁ሰበስልጣን
▁ተቐቢሎም
▁ስማቸውን
▁ፈላሚ
▁ያስፈልግዎታል.
▁የገባው
▁ኣለኻ?
▁ልዕልና
▁በንቃት
▁ተሞል
▁ተቆጣጣሪ
▁አይሰጥም
##ትንስኡ
##ፖሊሲ
▁ዝተኣሳሰር
##ዝ።
##ዝሙር
##ዘቅ
##ፍሩ።
##lo
##ኒቑ
##ቡካ
##ዉና
##Pl
##_8
▁ነየናይ
▁ዝክእል
▁ለ.
▁ሰደድ
▁ትረክብ
▁ውሏል
▁"ቅ
▁ኣይፈልጦን
▁ሕ/
▁አይገኝም
▁የተማር
▁ሃሰስ
▁አለባችሁ
▁ሊን
▁ጽግ
▁'ቶም
▁እንደሚሄድ
▁ኽኢ
▁"እም
##መልኩ
▁እዮም!
▁ታሪኹ
▁አባታቸው
▁ተሰጣቸው።
##ማርኛ
▁ይሰበስ
▁ሓድነትን
##ፈልጉበት
▁ብትኾኑ
##በላ።
▁ተኣማንነት
▁ተደራ
▁ወከፍኩም
▁ብወገና
▁ብቕጽበት
▁የሚታዩ
▁ፍቅረኛ
▁ሓጺን
▁እይታዎች
▁ባሉበት
▁ጸወታታት
▁ይኸይድ።
▁እንድናደርግ
▁ኮለጅ
▁የጎደለው
##ስካሕክሕ
▁ኋ
▁፮
##ክልን
##ገቡ።
##ዓኩም
##ያችንን
##ዋቲ
##ጣሉ.
##ጽሔ
##ሁዳም
##ሻሻለ
##ሆልም
##ፃፉ
##ዖ፡
##ሶፍት
##ጐዓዝ
▁ከሁለቱም
▁ይመለስ
▁ይርከቡ
▁ዝግባ
▁ሰገደ
▁ሰፈሩ
▁ዘተን
▁ኣይእ
▁ገጣሚ
▁ገበሮ።
▁ናይጀርያ
▁ባክ
▁አይጠበቅ
▁አይወዱ
▁ጊዜ:
##ስተላል
▁ለማቋቋም
▁ዝተረኸበ
▁በአከባቢው
▁ዚፈት
▁ርኵ
▁ኣሎኻ።
▁መልሓስ
▁'ያ
▁እያገኘ
▁ሙሁ
▁ሙቐት
▁ሙሳም
▁እንደሚያውቁ
▁ዜብሉ
▁መዓልቱ
▁መካበብያ
▁84
▁ትርፊ
##ችኋል?
▁ዝግበረሉ
▁ብኣን
▁ጻማ
▁ተራራው
##ባብላ
▁የኢንተርኔት
##ገቡም
##ገደደ
▁ጳውሎስን
▁ሳዕስ
▁አየ።
▁ከብቅዕ
▁በመስራት
▁የይዘት
##ሃደራት
▁ተገሊፁ
▁መዛሙርቱ፡
▁ዀነ።
▁ንብረትን
▁(ኤፌ
▁ያካትታል.
▁ዘድልየና
▁ውዳበ
▁የአካባቢው
▁ብምጥቃም
▁የሚሰጡዋቸውን
▁ጽብቕ
▁ሃለዋት
▁ይቀመጣል።
▁እናቀርባለን
##ጥቋጥ
##ና'ውን
##ንሲ
##ክሳይ
##ብታ
##ብን።
##ተብ
##ጠኒ
##ቶን።
##ራችንን
##ጀክት
##ፅሉ
##ቕሮ
##we
▁ኣጻ
▁በፎቶ
▁አጥር
▁አቤት
▁የዜ
▁ብድም
▁እንዘ
▁ተፎካ
▁ለጠ
▁ትንን
▁ያበቃ
▁ኢቲ
▁ድራይ
▁ሓለፍ
▁የሚወጣ
▁ህድእ
▁ቅነ
▁ቅጣቱ
▁ለመዝ
▁ታዳጊ
▁ኩኑ።
▁የእናት
▁ዘሎዎም
##ያትል
##ክብሮት
▁ንጉሆ
▁ኺመጽእ
▁የመጀመሪያዎቹን
▁የማይረሳ
▁ስለዝዀነ
▁ጻፍ
##ጠናቸው
##ሰትዩ
▁ኽትገብሮ
##ምረቻ
▁ምውሳን
##ዳል፤
▁ነህ,
▁የቀኝ
▁ኪኸውን፡
##:43
▁ንክኸውን
▁ጉድለ
▁ዘውጽኦ
▁ፈሪሳዊ
##በረታታት
▁ኣእምሮኣዊ
▁ክመፅእ
▁ስጉምትታት
▁ብኢንተርነት
▁ገርና
▁ብቑዓት
▁በሐምሌ
▁ብማሕ
▁የድልዮም
▁ዓሌታት
▁ሕመረት
▁ባልንጀራ
##ኣዝያን
▁መርሆዎች
##ታ፣
##ክና
##ነቀ
##ሪቱን
##ርፉ
##ተኒ
##ning
##ge
##ማቲክ
##ጽኢ
##ሜሽን
##ቃና
##ቃቸው።
##ጫነ
##ሑዳት
##P)
##ጮህ
▁የኩ
▁የጨለማ
▁ይድና
▁ይጫኑ
▁ይዀኑ።
▁ብሎም
▁ክስር
▁ለሙሴ
▁ሓሶ
▁ደሪ
▁ሕልፍ
▁ላይ)
▁ካብዘን
▁፣...
▁አይመጣም
▁የተበ
▁ቅናት
##ስተብህ
▁ሃልሃል
▁አለፈ
▁ዝተሸ
▁በአደጋ
▁ክንሓስብ
▁በተና
▁ቢት
▁የአጭር
▁እንዳሳ
##ርግዝና
▁ከአይ
▁ራድዮ
▁ንሱ'ዩ
##ስታፍ
▁ወዲቑ
▁ኢሉኒ።
▁ለአጭር
▁ስልኩን
▁በየነ
▁ማሕላ
▁ምዃኑ፡
▁ዘለዎም።
▁በትጋት
▁ተቐመጥ
▁SS
▁ባዕላቶም
##ብኝም
▁የሚያስደስት
##ደግፉ
▁ብስራሕ
▁ኣይንደልን
▁ይፈጥራ
▁መታገል
▁ተቓላ
▁ሥርዓተ
▁የተሰጡ
▁በውስጤ
▁የተመካ
▁ወጪዎችን
▁ዝብገስ
▁በቁጥጥር
▁ይብለኒ
▁በድንጋይ
▁የራስዎን
▁መራኸቢታት
▁ብሃገር
##ጽፍበት
▁የተጠቀሰው
▁ውድድራት
▁ዝምልከቶ
▁ፀሐፊ
▁ተፈጢሩ።
##uck
▁ረቛሒ
▁ለመጠጣት
▁ተመዝጊቡ
▁ክመሓየሽ
▁በቋሚነት
▁★
##ታዕ
##ንቴ
##ክለ
##ኦሎጂ
##ነተ
##ለህን
##ዳጋ
##ሌም
##ጽሮም
##ቅሶ
##ኡት
##ሃባ
##ሃልን?
##ሊሎም
##man
##ዖምን
##ቭየት
▁እገ
▁በፋ
▁አዘን
▁አጽናፈ
▁ከቻ
▁ይገነዘ
▁ተች
▁ክረ
▁ክሰምዑ
▁ለሱ
▁ለቀው
▁ሰቡን
▁ማጎ
▁ትሆን
▁ያገ
▁ቅያ
▁ኩርናዕ
▁ዝተጠቐ
▁ጠቁ
▁ክንፈልጦ
▁'ት
▁ረዚን
##ገብሩን
▁ከአብ
##ሰማት
##ልንም።
▁ብሓሶት
##ኞችም
▁እንዲሁ።
▁ይጠቕ
▁ዮኣብ
▁ኮይኑ፣
▁በልዎ
▁ጭንቂ
▁መጻወቲ
▁ሊያደርጉ
▁ሄዋን
▁በሰኔ
▁ምዕተ
▁ተራኸ
▁ተዋስ
▁ልምዓትን
▁ዳዊት፡
▁ከማና
▁ለተጨማሪ
▁ፎርም
▁ይታያሉ
##ሰበ።
▁ክርስቲያንን
▁አመጸ
▁ዓቕሊ
##ደራጀት
##ንቀሳቐ
▁ግለሰቡ
▁በክፍል
▁በድፍረት
▁ንጉሡን
▁ጎንፂ
##:9)
▁ብጽኑዕ
▁ዘይሕሰብ
▁አልቻልኩም።
▁የተሰጠውን
▁ኣየድልን
▁ስለሌለ
▁ያመለክታል።
▁ግማሹ
▁ኣዒንትኻ
▁ስድራ-ቤት
▁ሕጅስ
▁አስኪያጅ
▁ኣመለኻኽ
▁ቐልጢ
##ስና።
##ፍርና
##AM
##ያዩ
##ጥሪ
##ዛወር
##ደይን
##ጅምሮ
##ሂሉ
▁የፈርዖ
▁ይሮ
▁ኣብቂ
▁ትሠራ
▁በመጪው
▁ዚግብኣ
▁ክትርእዩ
▁ሳይወ
▁መልስታት
▁'አንተ
▁የሚያደርገውን
##ህንፃ
##ድልኝ
▁ዶክተሮች
▁ጨም
▁ችሮታ
▁ለአባቱ
▁ይመስላችኋ
▁ጣቶች
##ern
##ጠናቀቁ
##ራስህ
##ከለከ
▁ግልጺ
▁ተግባሩ
▁ክህሎ
##ound
▁ኣይኰነን፡
▁ይወጽእ
▁እንዳልሆኑ
▁ገብሩ
▁ይመለከቱ
▁ክወርድ
▁ደብዳብ
##ንጎል
▁ክሕደት
▁ያስፈልጋል.
▁ውሕጅ
▁ዝነብር።
▁እንደመሆናችን
▁ኣሰራር
▁ተፈጺሙ።
▁ህውከት
▁ይባርክ
▁አርቲስት
▁ሆስፒታሎች
▁የቅንጦት
▁ብዂሉ
▁ትኽክለኛ
##ሓም
##ስሉ
##ርዩ
##31
##ለዓል
##ጸርቲ
##ቤቶች
##ሃ፡
##ሥረት
##ኚህ
▁በሴት
▁ይመረ
▁ይናፍ
▁ዝዉ
▁ክሳድ
▁ዘፈር
▁ውጡ
▁ኣይሞ
▁ኣይፈልጡ
▁የሚፈሩ
##በርያ
▁ቀን።
▁አይመስ
▁አይጠቀሙ
▁ቅንያት
▁ወይንን
▁በእንተ
▁እንተነ
▁ኸተው
▁ዝተራእየ
▁ሰብአይ
▁ክትዝ
▁ጽጌ
▁ተመስር
▁ቢችልም
▁ነይርካ
##ደንታዊ
##ኣይዎ
▁አባቶቻቸው
▁ፀወታ
▁110
▁"የእኔ
▁Top
▁ብስሙ
▁ስለምንታይ፧
▁ያውቃል.
##ሜትር
▁የሌላውን
▁ቍጥዓ
##ቋቋሙ
▁ጅቡቲ
▁ዝበልኩ
▁ፈሊጥና
▁ስለዘየ
▁ገልጿል።
▁ቀጺሉ፡
##ዋጋእ
▁ብላዕ
▁የሚገኙትን
▁በአላህና
▁በፊታቸው
▁ጦርነቶች
▁ይርከባ።
▁ሰብኡትን
▁ይጫወታል
▁ቖልዓ
▁ተበጊሱ
##ዘገይ
▁ነንሕድሕዶም
##ታሚ
##ታዘዙ
##ኣሎም
##ክንያት
##ው"
##መጃ
##ዳማ
##ጣኒ
##ሳውያንን
##ሞቹን
##/ኣ
▁ኣጓ
▁አጥፍ
▁የኃጢአ
▁መዘን
▁ንፈት
▁ተወስደ
▁ለኮ
▁ለሁላችንም
▁ያሸን
▁ሕም
▁ጥቆማ
▁ባባ
▁የተማሩ
▁ሁሉ።
▁ሃር
▁ዘይመ
▁ኪሩ
▁አስቀ
▁ነገሮም።
▁ደግነት
##ንግዳ
▁ነበረባቸው
▁እትኸ
▁ዓመታትን
▁ዝነግ
▁እተመር
▁ባለጠ
▁ተጠባባ
▁አትበል
▁8፤
▁ሆነ፥
##ሕዝቤ
▁ኣስቴር
▁189
▁እስራኤልም
##ቻልኩ
##ኛል"
▁ይቀራል
▁የበዓል
▁ሉዓ
▁ኣለኹ!
▁ተጻብኦ
▁እርዳኝ
▁ክወሃብ
▁ይላቸዋል።
##ነጋገርን
▁ሰጥቼ
▁ከበደ
▁ሓጥእ
▁ክለቦች
▁ዝፈልጥ።
▁መስፈርቶችን
▁ዘይብለይ
▁ማሕበራትን
▁"እርሱም
▁ባረከው
▁የሂሳብ
▁ረስኒ
▁እንጠብቃለን
▁ተያይዞ
▁መባእታዊ
##ቁርኣን)
▁አምባገነ
▁an
##በጀት
##ረኩ
##DF
▁የጨረ
▁መከተ
▁ነቀ
▁ከበሮ
▁ዘበር
▁ትድ
▁የሚጠራው
▁ህፁፅ
▁የተወረደው
▁ቅፅ
▁በእግዚአብሄር
▁በመር
▁ሲፈልጉ
▁ዚከኣ
▁ጽሁ
▁ቢኾን
##ንን፣
▁አላመኑ
▁እንደሚሆኑ
##ህልን
▁ከይሁዳ
▁ቆጣቢ
##ዎንታዊ
▁ስልት
▁ስልቶች
##ትም፣
▁ጭም
▁ሌሎችንም
▁በሎ፦
▁ውሽጥን
##ቅስ።
▁ተቀላቀ
▁ሮዝ
▁ዘይተኣ
▁ዝነበሩ።
▁ዑቅባ
▁ፌዴራል
▁መሥሪያ
##ላፊዎች
▁ወስደው
▁ዱካ
▁ምርመራዎች
▁ሾሞንተ
▁ማእከሎም
▁አፈጻጸም
▁ተብሏል።
▁ይወድቃሉ
▁ኣይደለየ
▁ተሰጥኦ
▁ታውቋ
▁ኣጆኹም
▁ብምልኡ
▁ይጀምራል.
▁ሰይጣንም
▁ንምትግባር
▁የእነዚህን
▁ብየማ
▁ያያሉ።
▁አዘዘ።
▁የድምጽ
▁በማግስቱ
▁ያጠቃልላል
▁ተኳሃኝ
▁አስደንጋጭ
▁፱
##-ዓ
##ፈል።
##s,
##ድሮስ
##ዳብ
##ዋግኡ
##ሚየር
##ሳቅ
##ቅሉ
##ቤላ
##ሽ፡
##ፊያው
##ጵያ
▁ከኃ
▁ብትን
▁እንሰ
▁ንጽል
▁"ብለዋል
▁ሓቁ
▁የሚነካ
▁እንደቀ
▁1፡1
▁(ካ
▁ጊዜኡ
▁የተያዘ
##ስተዳ
▁በእኩል
▁ዕብራውያን
▁ዘይኽእል
▁ዝተወሰኑ
##ይወቴ
▁ክንሓትት
▁ዋል
▁ሞልቶ
▁የምዕራብ
▁ከመጀመሩ
▁ዜርኢ
▁መጠራ
▁መጠኖች
▁ክልልና
##ላቸው፥
▁መሰረቱ
##ስፋፋ
##ንስኻ
▁ሕቶታትን
▁ፊቱ
▁ተቐመጡ።
▁መረጃውን
▁ዝገደ
##መው።
▁በሌለበት
##ጸንዕ
▁ግንኙነትን
▁ምውታት
##ረጋግጡ
▁ይፈጽ
▁ኣይኰነን"
▁ጓደኛህ
▁መረጠ
▁እንደሚያገኙ
▁ስለሚያስ
##መንግስታዊ
##ሄዱበት
▁ሓዊሱ
▁የሚችሉትን
##ፍቅሮ
▁ሓሊፉ።
##ዘጋጀው
▁ጥምየት
▁ባሕሩ
▁በዝቅተኛ
▁ብጥሜት
▁ብጾት
▁ርግጸኛታት
▁ካህናቱ
▁አስቀድሜ
▁ኣይትረስዑ።
▁ተዘርዚ
▁ፈጢሩ።
▁ተዓጽዩ
▁ያስታውሰ
▁ሐኪሞች
▁ብዓቢኡ
▁ከጌታው
▁ብምብጋስ
##ሓፊ
##ላንቲ
##ልኹም
##ታና
##ንናን
##ንሕና
##ኣለይ
##ክዎን
##ፍዩ
##-ኣልቦ
##ፈትን
##ካን፡
##ቢቡ
##ቓስ
##ሮጌ
##2_
##de
▁በ20
▁አዶ
▁የኽእ
▁ይፅ
▁ይዘጋ
▁ብዓለም
▁ዝጓ
▁ዝጥቀም
▁ካሜ
▁ቀባ
▁የተከሰተው
▁እንዲመጡ
▁ዘይፍት
▁አለቀ
▁እኔ,
▁ክትህብ
▁ጽፏል
▁የመመ
▁ክንመሃር
▁በተገቢው
▁ተመሳሰል
▁ኣምላኽሲ
▁ሞይቶም።
▁እንዳገኘ
▁ኽትም
##መልከው
▁ከአብርሃም
▁ራሷን
▁በሚታ
▁1930
▁አያዩ
▁የምትፈልገውን
▁ከሎኹ
▁ኣእማን
▁ያውቃል፤
▁መራራ
▁ፕሮግራሞችን
▁ይዘህ
▁ኣሜሪካውያን
▁ንኸተ
▁ብንሆን
##መዝገቡ
▁ህልቂት
▁በጺሕና
▁፲፩
▁እኩልነት
▁ኣቲና
▁ተጠንቀቁ
▁ጥበበኛታት
▁አህጉር
▁የጠቓል
##____
▁ያገለግላል
▁ቖልዑ
▁ማሻሻያዎች
▁ከእንቅል
▁እገብር።
▁ኣይከውንን
▁እወደዋለሁ
▁ዞም
##ሓለ
##ክረው
##ክራል
##ፍጽሞ
##ገሠ
##-ክ
##ሰን።
##ዚክስ
##አምን
##TM
##ዞት
##ሣጽ
##ሬም
##ዴስ
##ዀን
▁ኣዕና
▁የኽ
▁የፈለ
▁የዳዊ
▁ብየሱስ
▁ምጥን
▁ክሎ
▁ክገዝ
▁ወፊ
▁ነውር
▁ትመር
▁ትወል
▁ድላዩ
▁ፈንድ
##በት.
▁እየ?
▁እየሮ
▁ርጉም
▁ህዝቅያስ
▁እያልን
##ወስን
##ምልክት
▁ዩኒ
##ትዮም።
##erg
▁አምስቱ
▁ብልጥ
▁ምምዕባል
▁ይብጻሕ
▁ተኣዚ
▁በደለኛ
▁ይብል፡
▁መምሃሪ
##ስልምና
▁ካርቦን
##ነግረኝ
▁ያልተለመዱ
▁አድኖ
▁እባክህን
##ሕግዘኒ
##ትርጉ
▁ሕብረተሰብና
##መልክት።
▁ስነ-ስርዓት
▁ዝረኣዩ
##ነበሮም
▁ዘይንኽእል
▁ብደቂ
▁ክሊኒክ
▁CO2
##-ተኮር
▁ለቤተሰቡ
▁ይገርመ
▁በችግር
▁አይወድም።
▁ርኽሰት
▁ከጨለማዎች
▁ንምምሕያሽ
▁የምሥራች
▁ዓጋመ
▁ኣገላልጻ
##ዝርና
##ኩና
##ነፋ
##ነታችሁ
##ስናን
##ፈህ
##ሱትን
##ሕኩም
##ድታት
##ሰሮች
##ሰጥም
##ያሉ.
##ዛሪ
##ደልና
##rc
##ከረው
##ሞቼ
##ሞናውያን
##ፂሩ
##NUM
▁በብሉይ
▁የትንሣኤ
▁ከገንዘብ
▁ከርሷ
▁ይቃ
▁ይድረ
▁ምጕ
▁ንሐ
▁ዝዘር
▁ተበላ
▁ያብራራ
▁ኢለን።
▁ድላ
▁ዓርብ
▁ሕተት
▁የተወለድ
▁ታዲያስ
##ሪያል
▁ዝተወልደ
▁ኪዀነ
##መንገድ
▁እግዚአብሔር፤
▁4፤
▁ዳዕ
▁ዜሕዝን
▁5G
##ርከባ
▁ምድቦች
▁ላባን
▁6፡
▁ኣንበጣ
▁ኢየሱስ፣
▁ንኣታቶም
▁ስራሕ፡
▁ሐሴት
▁አምላክ፣
▁ቋሕ
▁የምትፈልግ
▁ዝርኤ
▁13፤
##ድምጽ
▁ተጋግ
##ረጋገጡ
▁ፍትሓ
##ጽሕና
▁መንጎና
##ክኖሎ
▁መጀመሪያው
▁ወትሃደራዊ
▁ክፋል)
▁ብቕድ
▁ተጓዥ
▁ውሉድካ
▁ክንምር
▁ዝሓዘት
▁ጭንቀትን
▁አሳይቶ
##ዎታለሁ
▁ዌስት
▁ንፈጣሪ
▁ብምትሕብባር
▁ዓወትን
▁ዓሌታዊ
▁ቤተ-ክርስትያን
▁ለአንዳን
▁የጣሊያን
▁ጠንክሮ
##ገለጹት
▁ዓማጺ
▁እንነጋገራለን
##ፕረዚደንት
##ሓሒ
##ትህ
##ርቻ
##የቴ
##ህፍት
##ሰሎም
##፤የ
##ኒካ
##ኑስ
##ሃለን
##box
▁አቀርባ
▁ብዳ
▁ተሌ
▁ተከራ
▁ስፔ
▁ለግል
▁ናህሪ
▁ያያል
▁ውዴ
▁(ባ
▁አይነቱ
▁ጊዜ፤
▁ለመተው
▁ታስታውሳ
▁ሊለወጥ
▁ዚቐርብ
▁ዚበልጽ
▁ሳተ
▁'ዛ
▁አላደረገ
▁ያለህን
▁ያለብዎ
▁እተው
##ሰው።
▁ድሕሪ'ቲ
▁ይጠሩ
▁ልጆችህ
▁ነበሩት።
▁ዋጋታት
▁ከሚለው
▁ቴሌፎን
▁ኣእጋር
▁አልተሳ
▁ምርጫው
▁በስሙ
▁ኣይኮነን፣
▁ምፍጣ
▁ወዳለው
▁ንደገ
▁መጣ,
▁መላዕ
▁ትችላለች
▁ኣኽሊል
▁ተሸካሚ
▁አጥብቆ
▁ንርእሶም
▁ቅንዕና
▁book
▁"ይሄ
▁ይጠብቃ
##ፈጠርና
▁ንትምህርቲ
▁በዝሒ
▁ያውቁታል።
▁ፈሊጥካ
▁ንዂሎም
▁ይቀበላሉ
▁እደሊ።
##ነግራችሁ
▁ብብርቱዕ
##ድነጻር
▁በህይወቴ
▁ሥዕሎች
##ነዱ
##ስላ
##ስሩ
##ረሕ
##ባውን
##ዓና።
##la
##ዮምን
##ጸላ
##ወቀም
##ከሪያ
##ፋትን
##ኋት
##ሙኒ።
##ሬቱ
##bout
▁ኣንቲ
▁በዮ
▁አቋር
▁የዐ
▁ከከ
▁ከቡ
▁ምጽን
▁ዝዛረብ።
▁ክርድኦ
▁ክህበኩም
▁ለጎ
▁ሰበር
▁ማቋቋም
▁ውህበ
▁ድለ
▁ኣይሐ
##ስጥር
▁2_
▁እንዲወጡ
▁ታቦ
▁ዝተነ
▁በአንቺ
▁ክትጥቀም
▁የመጠቀም
▁የመጀመርያ
▁ኪሓ
▁ዘሎናዮ
##ኹምዎ
▁ጀግ
▁ከተማዋን
▁ሸር
▁ማድረግን
▁ጣኦ
▁መጥም
▁በታማኝነት
▁ሓበሬ
▁ምምራ
▁አልተደረ
▁ጀሚራ።
▁ጥራሕ'ዩ
▁NW
▁ንገረና
▁ፎቅ
▁ወሰኑ
▁ችግረኛ
▁ማለቂያ
▁ፈጺምና
##ክቶሪያ
▁እንደማይችሉ
▁with
##own
▁ለእርሱም
##ቀይር
▁ትሆናለች
▁ንብረቶች
▁ውሸታም
▁መዝሙረ
▁ኣእዳዉ
▁ነቦኡ
▁ሙዚቀኛ
▁ይመለከታል
▁የሕይወትን
▁ያነጋግሩ
▁ሱዳንን
##ሓተ
##ላ)
##ልምን
##ዕወት
##ፍታሕ
##sc
##ሞቻቸው
##ቓዕቲ
##ኽና
##ዊው
##ዊዘርላንድ
##ጓይ
##SS
##ሄድን
▁በሩቅ
▁የትን
▁የፈርዖን
▁ምባሉ
▁ንኻ
▁ዝገል
▁ዝውሰ
▁ዝጅምር።
▁ስጠን
▁ዘወ
▁ትሻ
▁ዓጺ
▁ሕውነት
▁(7
▁ህዳሰ
▁የተጋለጡ
##ምላኸይ
##ንተናዊ
▁ታገሱ
##ብርህ
▁ዝተጻሕ
▁ክትጅምር
▁ሳለን
▁እስላም
▁መልሓ
▁ብቻህን
▁እያደረግን
▁1950
▁ንኣገልግሎት
▁10,
▁10)
##ለችው
▁ኣፍጋኒስታን
▁ሕቶን
##ግንቦት
▁የልጁ
▁የልጆ
##ነግረው
▁ህዝብናን
##ጌታህ
##att
▁መጣሁ
▁ይበጽሕ
▁እንከን
##ዝናናት
▁siden
▁ከእነዚህም
##መስለኒ።
▁ኣይነበራን።
▁ተለፎን
▁የክብር
▁ዝገበርናዮ
▁ዝገበርካዮ
##ሰድድ
▁ንሃገራዊ
##thi
▁ሰማዕታት
▁ፈላማይ
▁ትደሊ?
##ዎታለን።
##ሃይማኖታዊ
▁ተማሂርና
▁ስምዒታዊ
▁አህያ
▁ስለ'ዚ፡
▁ዘቕረቦ
▁ሣራ
▁ኣእዳዎም
▁ስፖርታዊ
▁በፀሐይ
▁ይግበኣና።
▁የነበራችሁት
▁ህውሓት
##ሽየጥ
▁ጠቢባን
▁ተከላካይ
▁ሞገስን
▁ለአብዛኞቹ
▁የርቀት
▁መዓሙቝ
▁እምብአር
▁ቅርጸቶች
▁መቐመጢ
▁Continue
##ናኸ
##ዘሚ
##ታለ
##ዕቢት
##ህባ
##ች፣
##ኸኒ
##ኪዮ
##ፃት
▁ኣቤል
▁አጽ
▁የህል
▁የፆታ
▁መዕለ
▁መኮን
▁ከሠ
▁ዝይ
▁ተኺ
▁ተጸን
▁ትጽበ
▁ያህሉ
▁"ነገር
▁ኣይብልን።
▁ልከ
▁ፍኖ
▁እንዲወስዱ
▁እንዲቆዩ
▁ዘይዓ
▁ዘይርአ
▁ብዙሓን
▁በመናገር
▁ዝተፈጠረ
▁የመናገር
▁የሚያቀርቡ
▁ረክ
▁እንደሚኖሩ
▁እንደሚጠቀሙ
##ድልዎ
▁የማና
▁ነበረት
▁ብሓጐስ
▁ከምዝኽእሉ
##ባይቶ
▁"አባት
▁ፀላኢ
▁ተባህ
##ብለሉ
▁ዝኣመነ
▁አምነ
▁አምነው
▁ይታያል.
▁ብዓቕ
▁He
##-18
▁የተቀየ
▁ሰበይትኻ
▁በጎዳና
▁ለበጎ
▁ዝተዋህቦም
▁በህንድ
▁ተባዕትዮን
▁ነዎት.
▁አድርግ.
▁መርገጽ
▁አልቻልንም
▁መልእኽቱ
▁ዝዓበየት
▁ታውቃላችሁ.
▁ሰራዊትን
▁መድኃኒቶች
##ሃረሉ
▁የተጠቀሱት
▁ካህኑ
▁ቤተመቅደስ
▁ሪፓብሊክ
▁ድኳናት
▁መመልከቲ
▁ቢቢሲ፡
##በታዊ
##ንዶን
##ገየ
##የረ።
##:.
##ሕው
##ድያን
##ዎ!
##ወክ
##ove
##ኒስት
##ዲ፡
##ሽካ
##ሩባት
##ቒሉ
##HC
##I)
##ዬው
▁እከለ
▁ኣጀ
▁ኣፀ
▁መናገ
▁ከበርካታ
▁ብታሕ
▁እንሸ
▁ንተሓ
▁ዝማዕ
▁ዝጠቕ
▁ክወስደ
▁ወጡ።
▁ሰጠው።
▁ማድሪድ
▁"ሙ
▁አይኖሩ
▁እንዲገባ
▁ፈጢር
▁ሲንጋፖር
##ብርቲ
▁ዚጸል
▁የእውቀት
▁አልፈጠር
▁ምንጩ
##ለን፡
▁ብቻ.
▁ሞል
▁እንዳለህ
▁አላጠፋ
▁በማንም
▁ቆሜ
▁ጎኑ
▁ተስፋና
▁ስራሕና
▁ሸን
▁ሸቃ
▁ይጠናቀ
▁ኺው
▁ተገዙ
▁ምልው
▁ምልኣት
▁ሕይወትካ
##ጠራቸው
▁ማዕድ
##ለማመዱ
▁ኻብዚ
##ሜትሮ
▁(10
▁ሻይ
▁እስኪመጣ
▁መቀላቀል
▁ሓሳበይ
▁ተመሊስካ
▁ዕውሮች
▁ከፊቴ
▁አድርገናል
##ኒያቱ
▁bl
▁ባለቤቷ
▁የፀጉር
▁ካሊፎርኒያ
▁ምግባሩ
▁ያገለግላሉ
▁ኣንቢበ
▁ዝተበገሰ
▁አድራጊዎች
▁ስፖርቶች
▁ጸልዩ።
▁የሚወዱትን
▁ቅኑዓት
▁ናእሽቱ
▁ተግዳሮቶች
▁የጎንዮሽ
▁ፋውንዴሽን
▁ቨ
##ኣውን
##ብባ
##ዕዲ
##ተስ
##ተሰ
##ዓተን
##እኩ
##እነሆ
##ech
##ማና
##ደዋል
##rad
##ፋጥ
##ሊ፡
##ሙ፣
##TO
##ሂን
##CO
##ሷል.
▁እሽ
▁የፎቶ
▁ይርኢ
▁ይስማማ
▁ብሬ
▁ብጠቕ
▁ዝጽሕ
▁ዝስር
▁ክበልዕ
▁ወጹ።
▁ለየ
▁ለፀ
▁ለጎን
▁ማጠናቀቅ
▁ያነሱ
▁ደንግ
▁የሚሻ
▁የሚዲያ
▁ስለዙይ
▁ሃም
▁ታድ
▁ሊጎዳ
▁ኩር
▁ኪእ
▁ሳምራ
▁ከመሆኑ
▁ግዜይ
▁ግዜኻ
▁መጽሃፍ
▁በሚገኝ
##ስታል
##ትናገ
▁ከምዝወ
▁ብዙሕነት
▁ሆነ,
▁ኣቦሓጎ
▁ወንዞች
▁[1]
▁ታላቅነት
▁እንደተለመደው
##ደገፉ
▁ይመላለ
▁ለምሳሌ፣
▁ኣለዎ፣
▁በተመሳሳይ,
▁ንህዝበይ
▁ኣለዉ"
▁በውስጣችሁ
▁ጊል
▁ይንገር።
▁ኤውሮጳን
▁ግምባር
▁ይኖራቸዋል
▁ክርስቲያናዊ
▁ዘምጽእ
▁ዊኪ
▁ዓይንኻ
▁ንምስክር
▁ኣረጋውያን
▁አያውቅም.
▁ሂወቶም
▁ማድረጋ
##ዴንማርክ
▁ንኢትዮጵያ
▁የጽድ
▁እንመልከት.
▁መጻምድትኻ
▁የበረዶ
##ዘገበው
▁እግዚኣአብሔር
▁ፌዴሬሽን
▁ተሸክመው
▁ወርቃማ
▁ፌስቡክን
##ልዕል
##""
##'ኣ
##48
##እምነት
##AB
##ዋኽብቲ
##አት።
##ከሩ።
##oh
##ሑቕ
##ሆችን
##ኗቸው
▁በቫ
▁በነበረ
▁አቻ
▁አጥንት
▁የጀመረ
▁የቅድመ
▁መሙላት
▁ብሌን
▁እንጋ
▁ተኹ
▁ለዳዊት
▁ሰኒ
▁ሰረት
▁ናታቶም
▁እናሳ
▁እናረኣ
▁የሚጓዙ
▁ስለት
▁ቀላ
▁ቀውዒ
▁ቅና
▁ለመንግ
▁ታዝ
▁ታለን
▁ዕውቅና
▁እየሰጠ
##ብር፡
▁ዝተሰር
▁ዚዀነ
▁ከእውነት
▁ኣምላኽ"
▁እያ'
▁እያሰብኩ
##ግባርን
▁እንደሚሰጥ
##ርከት
▁ንስሙ
▁ባለስልጣን
▁ዝሓጸረ
▁ዲኺ
▁ጥራይ።
▁89
##ጣት)
▁ንጉሱ
▁ዝበሃል።
##ግራሙ
▁900
▁ነፍስና
##ረኽቡ።
▁ሓበራዊ
##ጌታዬ
##ህዝባዊ
▁ኣካላትና
▁መሠረ
##ምረሉ
▁ልምድን
▁መዓርፎ
▁ምህንድስና
▁ትዕዝብ
▁የወጡ
▁WW
▁ተኸፊ
▁ጸጋታት
▁ንጥል
##ሓርኛ
▁መቕደ
▁አድጓል
▁ኣዚዙ
▁ይግቡ
▁ሽወደን፡
▁አክለውም
##ገዙት
▁ይዝከረ
▁ሒዝዎ
▁ፈትን።
▁በጽዮን
▁ዓድኻ
▁ጥልመት
##ቸዋለሁ፥
▁Youtube
▁መዕረፊ
▁ኣወዳድባ
▁ፕሬዝደንት
▁ያቀፈ
▁ክመርሕ
▁ግጥምታት
▁ሽልማቶች
▁ዝቖመ
##ብርትዕ
▁ኤለክትሪክ
▁ስሪቶች
▁ተግሳጽ
##ዘጉ
##ገሐ
##ገሳ
##ገቱ
##ሕጺ
##ደኩም
##ራህ
##ሽሕ
##ሽ፤
##ሁና
##ሃና
##ዖንና
▁ኣስፋ
▁የዱ
▁የጠላ
▁ከፓ
▁ከኾነ
▁ይበር
▁ምጣ
▁እንሠራ
▁እንበል።
▁ንፍል
▁ንርኣ
▁ዝድር
▁ወለን
▁ለቤት
▁ግሎ
▁ግዱ
▁ትጠ
▁ትሰምዕ
▁"ክን
▁የሚመስሉ
▁ሕፅ
▁ሕ.
##ምላእ
▁---
▁ኩሩ
▁ለማግባት
▁ዚወጽእ
▁ክትከፍል
▁ጽውጽ
▁መልቀቅ
▁ቢታ
▁ሙዃኑ
▁ከመጥ
▁እኛው
▁ዳኞች
##በይዎ
▁ከይዳ
##ርድእዎ
▁ኵነት
▁አትሁን
▁ያስነሳ
▁ጌታችሁ
▁ንዓበይቲ
▁ዝግበረ
▁ማዕቀፍ
▁ቀዳመ
▁ዝኣዘዝ
##ማዕብል
▁ምውላድ
▁ከሌለው
▁ጣቢያዎችን
##ፈስስ
▁ወንጌላዊ
▁መጋቢ
▁ማሳወቅ
▁ንህዝብ
▁ክወጹ
▁አልቻለች
▁መፅሐ
▁መፅሃፍ
##ክሲዮ
▁ፊልሙ
▁፲፮
▁ይሰጣል,
▁ዚህብ
▁ይቀጥሉ
▁ቀልጢፎም
▁ዝተዋህቦ
▁ቀጠለ።
▁ወግዒ
▁ገንቢዎች
▁በሃሊ
▁ብምንባር
##ቨስትመንት
▁ይሁኑ.
▁መቆጠብ
▁መዳረሻዎች
▁ኣዲኡን
▁አውጥቶ
▁ገላጭ
▁እነግራችኋለሁ
▁ዝግብኦም
▁አጥብቀው
##ideo
##ritre
▁የአምላካችንን
▁እስከዚያው
▁(ሙሳም)
▁ሮናልዶ
▁ኣይተረኽበን።
▁al
##ሪፕ
##ፈሰ
##ርደት
##ተታ
##ሕም
##form
##ለኞቹ
##ዳታ
##ጥኣን
##ደሚ
##ሳ፡
##ኑድ
##ፋታት
##ፋለሁ
##ሆይ
##ቛም
▁በፖር
▁አሜን
▁አሰና
▁ይስዕ
▁ብድራ
▁ዝውሰድ
▁ዘሳ
▁ትግደ
▁ውዑይ
▁ድኳን
▁ድግምት
▁የሚከሰቱ
▁ስለነበሩ
##ጊዜኡ
▁የተዛመዱ
▁እንዲጠብቁ
##ስተምራ
▁ዕዱ
▁ሲጨ
▁ጸለየ።
▁አንበ
▁ክትመሃር
▁አስበህ
▁ኤፌ
▁ሽበራ
##ቱንና
▁ክፍፍል
▁ዜድልዮ
##ለይ፣
▁5፡
##ሉም፤
▁6:4
▁እተመስ
▁ሃገራውያን
##ፈልጋቸውን
▁ከምዚኣ
▁ጉዳይና
▁15,
##ችኋለሁ"
##ማዕን
▁ይሄዳሉ።
▁ቴማ
▁30,000
▁መንገደኞች
▁ኣድሂ
▁የተሻለውን
##ዋዕለ
▁ዘየድሊ
##በየ።
▁መጣ.
▁Dis
##ብናል.
▁ማስተዋወቅ
▁አለኝ,
▁ለማስደሰት
▁የለን!
▁ኣፍሪቃን
▁እንዳልሆን
▁አሸነፈ
▁እንተኾንካ
##ስለዙይ
▁06
▁ዝኾንካ
▁ቅልጥፍ
▁ዅላቶም
▁ናባታቶም
▁ዓሰርተታት
▁ኣስተብ
▁ዝገበርክዎ
▁ጠንቃቃ
▁ተጠቒሙ
▁ንነብሱ
▁ንምምጻእ
▁የከበረ
▁መልእክቲ
▁መዕቆ
##tern
##ocurren
▁ላከ።
▁ስህተቶችን
▁ብምልኣት
▁ፈጥኖ
▁ተለይተው
▁ጨርሶ
▁መጠንቀቅ
▁ምስታፍ
▁ምሓሸ
▁ሪኢቶ
▁ኣይነበርኩን።
▁Comments
▁ንግዜኡ
▁ዕላምኡ
▁ግህሰት
##ናድ
##ልክል
##ዘሩ
##ምራን
##3,
##ለኻ
##ሠረት
##ሁላችሁም
##ቦቻችን
##In
▁አደር
▁የፈራ
▁የንብ
▁ከሰይጣን
▁ብደገ
▁ምፍር
▁ዝጭ
▁ክጅመር
▁ለጦርነት
▁ሰዎቹም
▁ዘቤታዊ
▁ማተ
▁ትረክብ።
▁ኢሮ
▁ዓጸ
▁ደዪ
▁ደዌ
▁እንደው
▁ቀም
▁(R
▁(p
▁በመሆኔ
▁ዝተፈለ
▁ሓደሓደ
▁የመር
▁ክንሕግዘኩም
▁ዘለኻ።
##ድረው
▁ዋኒ
▁መስማማት
▁ካልኣይን
##ላልን
▁የማየት
▁መንገድም
▁መካነ
▁ምድቃስ
##ፈለግን
▁69
##ኖም፡
▁ለአለም
▁ገለፃ
▁በልዎም።
▁መጽሓፍ፡
▁ፀጥታ
▁ኣስላም
▁ሳይሆኑ
▁ለምን?
▁ይሆናል፥
▁እርሱም፦
▁እውነተኞች
▁ብልቡ
▁ስንክልና
##መረምር
▁በሕክምና
##ጥፍኦም
##ኣንስትዮን
▁ኣምሊ
▁ከባቢኻ
##ction
##ጠፍእን
▁ሰብኣውነት
▁እምበኣርሲ
▁ለማስገባት
▁መተግበሪያዎችን
▁ብመንፈሳዊ
▁ፒራሚ
▁እንደሌላቸው
▁ይተኣ
▁ለካስ
##ጥቀመሎም
▁የድልየኒ
▁ተመዝግበ
▁ንዑኡ
▁"ጌታዬ
▁ኢንቨስትመን
▁ስለእነሱ
▁የምስጋና
▁ንሃገርና
##ይህን
##ላተይ
##ገጠ
##ገን።
##3_
##ማችንን
##አዴግ
##ከ?
##ቝረ
▁በለው
▁ከድሕ
▁ከድሊ
▁ከንብብ
▁ብሕቲ
▁ምበለ
▁ንጀ
▁ወሎ
▁ለኢየሱስ
▁ሰማን
▁ያድና
▁ኣይፈት
▁የሚሻውን
▁1:2
▁መንነቱ
▁ሃሌ
▁እንተኸ
▁በመፍራት
▁ሲወጡ
##ኽእለሉ
▁ሰውየውም
▁ተመኘ
▁'ይህ
##ናትካ
▁እያለች
▁4:1
▁ኣነጺ
▁በማዕ
##ገናኛው
▁ጎልማ
##ብሉን
##ትና፡
▁ኢሉና
▁ለአስር
▁ገዛው
▁ፋርማ
##ነብሮ
##ከናውኑ
▁በኢን
▁አገራቸው
▁ተግባሩን
▁አልነበረውም።
▁ዘመዶ
▁እዩ"።
▁ዕላማኡ
▁ቍጥር
▁አነሣ
##eth
▁ኣርኣ
▁ጀሚሩ፡
▁ወድሰብ
▁መሸከም
▁መበቆ
▁ዝጸንሕ
▁ይፈልጥ።
▁ዘንበብ
▁<li>
▁ንህቢ
▁መስተጋብር
▁እስራኤላውያንን
▁ፈረሶች
▁ሓጢኣትን
▁መርገምን
▁ያገኘሁት
▁ዝመርሕ
##hare
▁"መንፈስ
▁ትርጉሙ፡
▁አይደለህም።
▁ኣቃሊ
▁ብጻይካ
▁ኮይኖም።
▁ይጨምራል።
▁ኣዘዘ።
▁የስደተኞች
▁ምትሕግጋዝ
▁ተመሳሰልቲ
##ክኽ
##ዕዙ
##ግልና
##ባው
##ካድ
##ህ,
##ft
##ለማት
##ሰንግ
##ደውን
##ጭዋ
##ፋለች
##EL
##ዑቕ
▁እቶን
▁ኣዶ
▁በልና
▁በግለሰብ
▁አኳ
▁የራሳችንን
▁ይኺ
▁ይረሳ
▁ምኳ
▁ምበር
▁እንገኛ
▁ንወድ
▁ዝኃ
▁ለሞ
▁ሰዐ
▁ሰከንድ
▁ማጨ
▁ትዓ
▁ያወረድነው
▁የተከሰተ
##ስተካከ
▁አለ፥
▁በተሰ
▁አስፈራሪ
▁ቢስ
▁ቦት
▁ዜግ
##ገናል.
▁በሚከተሉት
▁ሐዘን
▁ኦፍ
▁ተወለድ
▁መለለይ
##ወጣቸው
▁ሰለሙን
▁ከምዘለዋ
##ለማመ
▁ሄዳ
▁መልእክቶች
##ደርግም።
▁ሠላም
▁በመጨረሻም,
▁ዘይትፈልጥ
▁ይቀን
▁መራኽብ
▁ብመጀመርያ
▁ሰምዑ
▁ይመሳሰ
▁አንዳንዶቹን
▁በተመሳሳይም
▁ተጫዋቹ
▁ፈረንሳዊ
▁ክቕፅል
##ስፒታል
▁ለሰባት
▁ዝዀንኩ
▁ህግዲፍ
▁ንዝተወሰነ
▁ይግባኝ
▁የሚያሳየው
##ርሽር
▁ዘብጽሕ
▁ክግበረሉ
##ult
▁አስታወቀ
▁ውዳሰ
▁ዲፕሎማስ
▁ይምረጡ.
##ግዜኡ
▁ይደረጋል።
▁ንምጥፋእ
▁ሃናጺ
▁በመሠዊ
▁አላስፈላጊ
▁በሰባተኛውም
▁ግማሹን
▁ዕጥቂ
▁</li>
▁ኣይተርፍን
▁እንቀጥላለን
▁መስለኒ።
##ዘቡ
##ረዩ
##-ዘ
##ቀች
##ru
##ጽጽር
##ሳና
▁እልም
▁ኣተንስ
▁የሁለቱ
▁ከወን
▁ይረኣ
▁ብግብ
▁ተነጋ
▁ተክኖሎጂ
▁ክዉ
▁ክተርፍ
▁ትሩ
▁ትላለች።
▁"ቤት
##ታት)
▁የሚመስ
▁ጥቡቕ
▁ጥገኝነት
▁(ል
▁ዚምር
▁ሰብሲ
▁ሳሕቲ
▁ኣሎኹም።
▁ክንኣቱ
▁3:
▁ቤትጽሕፈት
▁ኤሪ
##ሰብክ
▁እኛስ
▁ኢዩ፣
▁ከአሥር
▁ክልቴና
##ሰማኝ
▁ጎድ
▁ጎዶ
▁ላቦራ
▁ሴራ
▁ስርቂ
▁ለአንዱ
▁ይጠፋል።
▁96
▁97
##ከፍለው
▁የእግዚአብሔርንም
▁SAR
▁ተቀብለ
▁ብልህነት
▁ምምራሕ
▁ስንኩ
▁መሠረተ
▁ሠራዊ
▁ይስራሕ
▁ጦማር
▁መውለድ
▁መላኪያ
▁ስለሚችል
▁ይኖርበታል።
▁እንቅስቃሴዎችን
▁ንጽህና
▁04
▁ተከታዮ
▁ረኣዩ
▁ብዕቱብ
▁"እንዲህ
▁ክፍያዎችን
▁መዘከር
▁አመሰግናለሁ!
##ower
##ውነተኛው
▁አህጉ
▁ኣሚኑ
▁ንኤርት
▁ደጋግሞ
▁ይይዛሉ
▁ብምንባሩ
▁የተመዘገቡ
▁ንህይወተይ
##ህበረሰቡ
▁አደርገዋለሁ
##ንቀጾቻችን
##"?
##በሰብ
##ኣኒ።
##ክዎም።
##ጣሊያ
##ጭሮ
##ጀም
##ኡና
##ቦል
##ዌል
##ጐም
▁እቀጥ
▁እሓስብ
▁እመለከታ
▁በና
▁በሮ
▁የነፍስ
▁ከራ
▁እንረኽቦ
▁ንሰማ
▁ዝረክብ
▁ዝጠመ
▁ሰሊ
▁ትረ
▁ትተ
▁ያየሁ
▁ውእቱ
▁"ጉ
▁ዓለት
▁ደሌ
▁ግን:
▁((
▁ይህችም
▁የተትረፈ
▁ለመልካም
▁በእድሜ
▁በመከተል
▁ጸዋዕታ
▁ዚርአ
▁ሳባ
▁መልሶች
▁ኤግዚቢ
▁የሚያስብ
▁ዜናን
▁ቆሮ
▁ከምዝበሉ
▁ዘንድ።
▁ያስፈልጉ
▁ትንፋ
##ባርን
▁አንዳችሁ
▁ተፈቒዱ
▁ወንድምህ
▁አካሂ
▁እንደገና,
##ነግሮም
▁ሴትየዋ
▁ሪቻርድ
▁እግዚኣብሄር፣
▁ተማሪው
##ሰባትን
##ረጋግጹ
▁አልነበረም,
▁ይቀንሳ
##ረፈ።
▁ጥርዓ
▁ይበዛ
▁ኰይኑ፡
▁አየሁ።
▁ኣዚዮም
▁ታዋቂው
▁ዕለታት
▁አስታውስ።
##ልልቲ
▁መለያየት
▁ሄደ.
▁ዝደለኻዮ
▁በሺህ
▁ንማንም
▁ዝማኔ
▁ይግብኣና።
▁አልገባኝም
▁ኣእዳውካ
▁ኮይና።
##ገሪቱን
▁ለመሸፈን
▁ስቶክ
▁አይመስልም።
▁ተሰበሰቡ
▁የተወሳሰበ
▁በብእዋኑ
##ግት
##ግሕ
##ግሬሽን
##ረሙ
##ጋሪዎች
##ተን።
##8,
##ህኒ
##ሕጂ
##ለአ
##ለቅስ
##ጸያፊ
##ማመ
##ችኝ።
##MS
##ጽምና
##ጡ,
##ጓለ
##ዞሩ
▁እዬ
▁አጠራ
▁አእም
▁ይቸ
▁ምሃ
▁ዝምን
▁ዝፈለ
▁ተላኢ
▁ክሕግዘካ
▁ኣብጺ
▁ትክ
▁ያንብ
▁ጥለው
▁አይኖች
▁ጊዜ)
▁የተዛ
▁የተሰበ
▁ወደላይ
▁ታዕሊ
▁እየሰ
▁እየጠበቅ
▁ክትባ
▁ክትዓ
▁የመያዝ
▁አልሉ።
##ጀመረ።
##ስትያት
▁ርኩ
▁ዋት
▁ሞስኮ
▁ምርቱን
▁ጀምር
▁ዳታ
▁አብሮት
##ላችሁ...
##ክልቱ
▁የለዎትም
▁ጌታህም
▁10_
▁መርየም
##ንቀጠቀ
▁በልባችን
##ገምጋም
##ዶም፡
▁ጻፈ
▁ቴለ
▁ብፍቕ
▁ብልሹ
##ፈራህ
▁ንሳቶም፡
##ልኩም፡
▁ይኸብ
▁ተኸታተልቲ
▁Li
▁ኣህጉር
##ጠባበቂያ
▁05
▁የጥፋት
▁ኣሕዋተይን
▁ቅንኢ
▁ይግዙ
▁ምዕባሌ
▁ሹማምን
##ጠነቀ
▁ስእሊ,
▁ይቀጥላሉ
▁ሓይልኻ
▁ተሰምቶ
##ገናኘው
▁ቘልዑ
▁ወኪሎች
▁ተጠቅሞ
▁አደረግን
▁ያስፈልገኛ
▁ተቐሚጦም
▁ሃሳቦች
▁የበላይነት
▁MP3
▁ሙሳንም
▁ግብፃውያን
▁ፓትርያርክ
##ልሄም
##ነሽ
##ግጽ
##ሕኩ
##ኢትዮጵያ
##ራለሁ
##ቤቷ
##ዲሽ
##ዲቑ
##ሁዶች
##ጂየም
##ጅህ
##ቁሙ
##ቬምበር
##ሦር
▁እዃ
▁እሰጠ
▁ኣቝ
▁በሠራ
▁በግም
▁በብራዚል
▁መሽ
▁ነሮም።
▁ብ201
▁ንሲ
▁ስግር
▁ለሁሉ
▁ዘረጋግጽ
▁ያሰብ
▁ውደ
▁"-
▁ቀኖ
▁ውስጥ፣
▁(፫
▁ፈታው
▁በመጠየቅ
▁ዝተጋ
▁'ዝ
▁የአዲሱ
▁ቀን.
▁ከመከራ
▁ቦታ,
▁ጀማሪ
▁"እዛ
##ግብን
▁ኣይትም
▁ሴቶቹ
##ሉት.
▁ስርሓ
▁ንኣቦይ
▁71
▁አሉ!
▁ኺፍጸም
▁ግብጽን
▁ገለጸ።
▁አንዱም
▁አንዳችም
▁"አንቺ
▁ኔር
##ህም?
▁አምስተኛ
▁ኢንስቲ
##ፍርህ
▁ይቀላቀ
##ical
##ool
▁ሕይወተይ
▁እንተኾይኖም
##ays
▁ዝፈቱ።
▁ኸይተ
##በስረኩም
▁ተፈጥሮን
▁ሰጠነው፤
##ዎቻቸውም
▁ተማሂረ።
▁ዘብዐኛ
▁ረሲእ
▁ማልቀስ
▁በቤተክርስቲያን
▁እንዲሰማቸው
▁ድርጣቢያዎች
▁እመርጣለሁ
▁ፕረዝደንት
▁የፈርዖንን
▁ታውቋቸዋ
##ርቻሮ
▁፯
▁ፐር
##በሎ።
##'ወን
##ዘኑ
##ብኛል
##መዐ
##ረበት
##ካሄዱ
##ጨበ
##ቖም።
##ጽዋት
##ሳባት
##oy
##ሥታት
##ጢያ
▁ኣቤሴሎም
▁ብቤት
▁ብድምጺ
▁ንሰምዕ
▁ንጳውሎስ
▁ዝገለጸ
▁ዝሰምዖ
▁ዝሕግዙ
▁ወጽ
▁ለነፍ
▁ለኣኾ
▁ግመ
▁ናፃ
▁ማወቁ
▁ነው፡
▁ትቆ
▁ያደግ
▁ኣይብልን
▁ቀለብ
▁ውስጥ)
▁አይተናል
▁ወደታች
▁ዘይፈልጦ
▁ሊወሰድ
▁ሊኖረን
▁ጸጊ
▁በአብ
##ብልና
▁ሞይታ
▁መስኖ
▁"እምነት
▁ዜድልዮም
##ልን፡
##ለህ"
▁ደቂሰባት
▁ከፍቶ
▁ያስቸ
▁ያስገባ
▁ተገንብ
▁ንስኻስ
▁ተሰሊ
##በራ።
▁እየተናገር
##ፈልጉም።
▁Se
▁ነይሩ፤
▁ኣውጽእ
▁ናት?
▁ሓሳብን
▁ፍሉጣት
▁ሰሚዔ
▁መውደቅ
▁ዘፍቅሮ
▁ዘይምፍላጥ
▁ኣቕሑ
▁ንስኻትኩምውን
▁በውስጣችን
▁ወያናይ
▁ተቃር
##ለብሱ
▁መዛሙርቱን
▁ፒሲ
▁ደብዳቤዎች
▁የኮሌጅ
▁ተጠንቀቁ።
▁የቱሪስት
▁የንባብ
▁ብህይወ
▁ሓጢኣትና
##ሰምዓኒ
▁ቑጽሪ
▁ይጠቀሙ.
▁ኣየድልዮን
▁ተዛረብቲ
▁መሰናክ
▁ለምንድነው?
▁ውግእን
▁ሼር
▁ብርታዐ
▁ይጓዛ
▁ያብራራል
▁መሰለኝ።
▁እንተዀይኑ
▁ኣይትኹኑ።
▁visitors
##ይዘው
##በኪ
##ንኪ
##ብቦ
##ፍናን
##ረቢ
##ባችንን
##6,
##ዛዥ
##ጨዋታው
##ዋይን
##ሚክ
##ሊንግተን
##CD
▁የቡና
▁መገናኛ
▁ከ20
▁ከድሕን
▁ይገበር
▁ንርኢ።
▁ተጭ
▁ተሰው
▁ክገ
▁ክጎ
▁ክኾና
▁ወጥታ
▁ሰሞ
▁ማፍራት
▁ትቅ
▁ያመለ
▁ሕጕ
▁ገፋ
▁ፍሎ
▁የተረ
▁የተተ
▁ዕልዋ
▁ዘይረኣ
▁ዘይነበሮ
▁በመመ
▁ሲጀምር
▁ለማጠናከር
▁ዚመር
▁አንጎል
▁መልሼ
▁አስነሳ
▁ቢመስልም
##ዳንቱ
▁ኤሪት
▁ናቸው;
##ናን"
▁ጎልቶ
▁እትው
▁ዝነው
▁እዋንዚ
▁ንኣምን።
▁ወርዶ
▁ለአሁኑ
▁መርሳት
▁ድምፄ
▁ፀረ
▁መጥራት
▁ተባህለ
▁አሳያ
▁ኬን
▁ከምዘለው
##ህበኒ
▁ሕጊ፡
##:3)
▁ፈቃዱን
▁በርቀት
##ገደለ
▁ኣይንረስ
▁ወሲኑ
▁ስፍራው
▁ብመዓል
##rote
▁የሌሊት
▁ዅሉ፡
▁ሓሳባትን
▁መዋጋት
▁ኣእምሮና
▁ንተኣ
▁ይወዳሉ።
▁ይኣምን።
▁ንነብስኻ
▁የከተማዋ
▁ሳምራዊ
▁እንደምናውቀው
▁ንጎይታ
▁እንተደሊኻ
▁ናዝሬት
▁ዒራቕ
##ቀመዛሙር
▁የተቆራኘ
##ቆዲሞስ
##ቻለሁ፤
##ል፥
##'ወ
##ዘግ
##-ወ
##የኩም
##እሽቶ
##ዋቸው።
##ከ።
##ቓዊ
##ኾናችሁ
##ዶት
▁ኣቓ
▁መሬታ
▁መወሰድ
▁ከጽን
▁ከሞቱ
▁ይግለጽ
▁ተደን
▁ሰት
▁ኣብዘይ
▁ዘጉ
▁ናዓ
▁ዓፋር
▁ከም-ዝ
▁ገመ
▁መንጽር
▁2፤
▁2,000
▁ቤ/
▁ታኅሣሥ
▁እየን፣
▁እንተኢ
▁ዚዓቢ
▁ጽንኩር
▁የመድኃኒት
▁3,000
▁ከተንብብ
▁ሞሮኒ
▁ከመታ
▁4፡
▁ፕላን
▁ኃያላን
▁እተወ
▁ብዝለዓለ
▁እግዚእ
##ብረና
▁ዝነበረና
▁ንዓኻን
▁መብዝ
▁ተገዛ
▁ደኣ'ምበር
▁ይሆናል"
▁ዝኸዶ
▁መዓዝ
##ick
▁ኾይኖም
▁ቀሪቡ።
▁ለዘላለምም
##iss
▁አይደሉም,
▁ብኽያት
##ትርፍ
▁መዘኻኸሪ
▁የተሻሻለ
▁ንኻልኣይ
##ጠነቀቁ
▁ማኅበረሰብ
##ከማቹ
▁ነው;.
▁ስቕታ
▁ማስታወቂያዎችን
▁ፈቲነ
▁ቤተሰቦቻቸውን
##ነግርዎ
▁በቀጣዮቹ
▁"ኣይት
▁የዲጂታል
▁ለነሱም
▁የማይወድ
▁በለኒ፦
▁እስጢፋኖስ
▁ሄር
##'ም
##ምሉ
##ነቷን
##ብትና
##ው)
##ረቕ
##ካ፧
##6_
##ዳራዊ
##ዋዕቲ
##rd
##ሳሳት
##፣.
##ፖች
##ቲና
##/20
▁በብርሃን
▁የጋ
▁ከቅ
▁ከሆ
▁ከሰማ
▁ብኻል
▁እንወስዳ
▁ንይ
▁ንራኸብ
▁ተቀመጡ
▁ዘብቅ
▁እናዓበየ
▁ውሃን
▁ሓላው
▁ዓቂ
▁ከምተ
▁ኣይኬ
▁ቀረቡ
▁ህንዳ
▁ሁሉ.
##ስተካከለ
▁ታጥ
▁በእርሳ
▁እንተበልና
▁ዓመፀ
▁ጸለ
▁በአር
▁እስትንፋ
▁የአንድን
▁ሞግዚ
▁ሞቱ።
▁የምሄድ
▁ራሄል
##ተንስእ
▁በሚሆኑ
##ወዳደሩ
▁ጎኖች
▁ምእን
▁ችሏል።
▁ይጠፋሉ
▁ኺእ
▁አስተምራ
▁ፕሮፖ
##ግምቶ
▁ንሳልሳይ
▁"አዎን
▁ንዝነበረ
▁ብሎኛል።
##ረድኦ
▁ቴሌቪዥ
▁ተዋሕዶ
▁ሱፐር
▁መጺኡ፡
▁(15
▁ጆር
▁ስላስ
##-14
##ካከለኛ
▁የልቦን"
▁ኢድኩም
▁ተጻሒ
▁ሓዲኦም
▁ኣይከኣለትን።
▁ሚዲያዎች
▁ኣምላኾም
▁ትፈልጥዶ፧
▁ሕፃኑ
##ደረጋችሁ
▁ደሊኻ፡
▁ዘለውዎ
▁ስኬቶች
▁ይጽዋዕ።
▁መሐላ
▁የቤተክርስቲያን
▁ተዛረበ።
▁በነፃነት
▁ዝማሬ
##ጋዜጣ
▁"ፍቕሪ
▁የሚወስደው
▁(እርሱም)
▁በዱባይ
▁ኣግራብ
▁ሰንጠረዥ
##ቡካድነጻር
▁ቭ
▁un
##ዩ"
##ል-
##ለዱ
##ዳችን
##ዛቸው
##ዋትና
##ሃሉ።
##ሊኮፕ
▁በንጻሩ
▁ከዚ
▁ያበረታ
▁ያሻሽ
▁ውዕሎ
▁"ኮ
▁ኣይዕ
▁ኣይጸን
▁ገ/
▁ገደለ
▁አይሰሙ
▁የተናገረ
▁እንተሃለወ
▁በመግለጽ
▁ኩቡር
▁ዝተኻየ
▁የእርሻ
▁አልቀረ
▁ኣሎና፡
▁ክንግ
▁አስበ
▁ከተወሰነ
▁ዘሎኹ።
##ምህሩ
▁መስካሪ
▁እንታይነት
▁ቁን
▁በማመን
▁የማያስ
▁ብሓገዝ
▁እተወልደ
▁10፤
▁ለአደጋ
##ገለገል
▁ፀዋታ
▁ይኽእል፧
##ህም"
▁ዝኸድ
##ዛረቢ
▁ሰማንያ
▁የታቀደ
##ረጋግጸ
▁ብዘረባ
▁ወሰደ።
▁ይፈርድ
▁ምጽኣት
▁ኣማኻሪ
▁መጋባት
▁ሉተር
▁ይኖርበታል
▁ይኖርብናል.
##ምነሉ
▁ነይሮም፣
▁እናውቃለን፤
▁፳፬
▁ምምላእ
▁ቅድሜኹም
▁ብጻዩ
▁ስለመሆኑ
▁ብቀሊሉ
▁ዘካይድ
▁ተጠናቀቀ
▁ያስባሉ?
▁ትእዛዛቱ
▁የአስተዳደር
▁የበለፀ
▁ጽላሎት
▁ትንንሽ
##NUMX
▁en
##ዘለ
##ዘፍቲ
##ነበው
##ዓ፡
##ህብዎ
##ale
##ጻሜ
##ዋለች።
##ቀም።
##ጽዋ
##ፋጠን
##ቆመው
##RO
##ዴላ
▁እሸ
▁ኣቤት
▁በድረ
▁የግለ
▁ከኽ
▁ብራን
▁እንገነዘባ
▁እንጀምራ
▁ንሞ
▁ንውሰድ።
▁ዝለመ
▁ተጎድ
▁ክበልዑ
▁ስቃ
▁ማመቻቸት
▁ትሁት
▁"ክት
##በርና
▁መንበረ
▁(ቀ
▁(9
▁አይስ
▁የተናገሩ
▁እየመጡ
▁ዝተመረ
▁ምንጻ
▁3D
▁ከተከሰተ
▁ቤት,
▁ብቻችንን
▁ዋው
▁ኤማ
▁እንዳደረጉ
▁ነይረን
▁አላሳ
▁እንደሚሠራ
##መልሶ
▁በሚመለከት
▁ቆሪ
▁ጎድኒ
▁ንሕግ
▁ኣፍቃ
▁ተወጢ
▁ክርስቶስ፡
▁ንዝመጽእ
▁እንጂ፣
▁ማዕድን
▁አሳወቀ
▁ለሚኖሩ
##ችሉበት
▁ለማግኘት.
▁በሕልም
▁በኢኮኖሚ
▁ያሳዝ
▁ዘይትፈልጦ
▁የሚሰጠውን
▁Fre
▁በመጀመሪያ,
##ጠፍአ
▁ዕላማና
▁ከልጁ
▁ያስተዋ
▁ቆልዑን
▁የተቀበለ
▁ጸገምና
##ስሊሞች
▁ኸይዱ
##ስታውሰው
▁አለብን?
▁የማያምኑ
▁ዝረኸቦ
▁ኀይ
▁በፊታችሁ
▁ጋዜጣታት
▁ንምውጻእ
▁(ምንም
▁ዝመልአ
▁ያድጋ
▁ንደሊ።
▁የተካሄደው
▁ባለሥልጣን
▁የማይታወቅ
▁ይደርሳል
▁የእናንተን
▁ከእንቅልፉ
▁አቆየ
▁ኩኪዎች
▁ኮርፖሬሽን
▁ይደውሉ
▁ብዕምቆት
▁ድኹማት
▁ህቦብላ
▁Radio
▁ድራይቭ
##ላካ
##ስ"
##መቶች
##ጋግባ
##ተንን
##ger
##ቀላቀል
##ከፈለ
##ቅሩ
##ቤታት
##ዲ።
##ጡት።
##ጤንነት
##ቪድዮ
##NA
##ሔ።
▁የገልግል
▁ከትን
▁ከጀመረ
▁ከደረሰ
▁እንሰሳ
▁ዝዛረቦ
▁ተበላሽ
▁ክቆ
▁ያዘጋጃ
▁ዓድን
▁ኣይገደ
▁የሚናገሩት
▁ካብዝ
▁ወደተ
▁ፈቅ
##ኩምኒ
▁በአገልግሎት
▁ዚሰምዕ
▁ኮሜ
▁ጉራ
▁ርቀው
▁ኤውሮፓ
▁ቆላሕታ
##ትናገሩ
▁ወዲሰብ
▁በፊት.
▁ለአብርሃም
▁መርበ
▁ማድረግ,
##ግራችሁ
▁12፤
▁ተፈቅዶ
##ላእታ
▁ንዝበለ
##orn
▁186
▁ንሕናስ
▁ብኸንቱ
▁መዝነት
▁ከሎ፣
▁የታመመ
##ፈጠሩት
▁የውሸት
▁ሕዝብም
▁ሻዕ
▁ER
▁እግሮ
▁ኣማሓ
▁ካርታዎች
▁አምላኽና
▁ሓዲጉ
▁ምጥቃ
▁ሳምንታዊ
▁በቤትዎ
▁ተብሏል
▁ሰሙን፡
##እናንተም
▁ጥቂቶቹ
##ኣምኑን
▁መዕቈ
▁እሳትን
▁ማድረጉን
▁መርሃግብር
▁ሕተት።
▁ሙሽራ
▁ፈለገ።
▁በማስተማር
▁ከሌለዎት
▁ተዛዚሙ
▁በቶሎ
▁ወነንቲ
##ያያዥ
▁የሬዲዮ
▁ኣጠማም
▁ብጠቕላላ
▁ኂ
##ፈሎም
##ሱፍ
##ተራት
##ዓይን
##የው።
##ዮርጊ
##ደልካ
##MA
##ሽኝ
##ቲሽ
##ሃው
##ቁርና
##ሦስተኛ
▁በህል
▁መፃኢ
▁ይፍጠር
▁ይሕግዘ
▁ይያዙ
▁ዝስዕ
▁ክውስኽ
▁ለህዝቡ
▁ዘለው።
▁ማነ
▁ኢደ
▁"ክርስቶስ
▁ኣይተርፍ
▁የሚጋ
▁እንደገባ
▁ልኬ
▁ጥንታ
##ችሁ፣
▁ሲመለስ
▁በአጠ
▁አልመጣም
▁'ሓ
▁ቦይንግ
▁ነገራቸው
##ላልዩ
▁እንደሚቻለው
▁ዜመልክት
##ልካቸው
##ርድዌር
▁ዲዳ
▁ንኣን
▁7,
##ተርፉ
▁ባህሎች
##ናገኝ
▁እንደሆነም
▁ዝመጽኡ
▁መጥታ
##orld
##ፍራም
▁ፓኪስታን
▁ገሊአን
▁"በመ
▁Sams
##ጠቀሱት
▁ኲለን
▁ከለኹም
▁ዓብዩ
▁ነህ"
▁ወሲደ
▁እንደተናገረው
▁Forex
▁ከምዘይተ
##ነግረኒ
▁ልትሆን
▁ፒተር
▁ያስፈልጋቸዋል።
▁ተጓዓዝ
▁ንኹላትና
▁አስታውሱ
▁በሊሕ
▁ግንዛበ
▁ሳለ,
▁ያምናሉ.
▁አሕዛብም
▁ከንፈ
##-የተ
##ነበብኩት
▁እማዬ
▁ብሓንሳእ
▁ደጋግሜ
▁ተይዞ
▁ደድሕሪኡ
▁ያያሉ.
▁የአልኮል
▁ያልታወቀ
▁ብሕልሚ
▁አርቲስቶች
▁አምጡልኝ
▁ያዕቆብን
▁(src
▁ከፈለግን
▁እንሰጣለን።
▁የፈለገውን
▁ትምክሕቲ
▁በአሥራዎቹ
▁ታካሚዎች
▁ዥረት
▁ኣርባዕተን
▁Media
▁(src)
##ናቱን
##ንቆ
##ብሉ።
##ዕት
##መሳ
##-ጥ
##ባረክ
##ካነ
##land
##ቢል
##ያ?
##ኤ)
##ፋለን
##ኳል
##ጅማር
##ቈረ
▁እጠቀማ
▁በያ
▁በድል
▁አጫ
▁አኗኗር
▁ከዲ
▁ከግራ
▁ከወንዶች
▁ክብራ
▁ለዉ
▁እናተሓ
▁"ሽ
##ቸው፣
▁1:4
▁(ሰለ
▁የተፃፈ
▁ወይድማ
▁እንዲሰጡ
▁ሊቅ
▁አንስ
▁ክትሳተፍ
▁የእት
▁አልወደ
▁350
▁ቃልን
▁ዜብ
##ምርዖ
##ረብን
▁ከአዲሱ
▁ጨፍ
▁6)
##ክብሪ
▁በዚች
##መራር
▁አባዬ
▁ዝበለፀ
##ርሕን
▁የውይይት
▁ቐን
##oug
▁ይቀጣ
▁ጃንዳ
▁ኣደታት
▁ኣመሪካውያን
▁100,000
▁አለኝ፤
▁ጥበባት
▁ማእከልኩም
▁የራኽ
▁ካለኦት
▁ሰባተኛውን
▁ክገብርዎ
▁ይለናል።
▁ባሪያዬ
▁፲፰
▁ዚህቦ
▁በዘመኑ
▁ሒዝናዮ
▁አሮንም
▁ማቴ.
▁አዛውን
▁ሂወቱ
▁ብሃንቀውታ
▁ይኖረዋል።
▁የክርስቶስን
▁ዝሰርሓ
▁ፎቶግራፎች
▁ሞክሬ
▁ፖለቲከኛታት
▁አልተገኘም
##ዘዋዋሪ
▁ሴቲቱም
▁እግዚአብሄርን
▁ዓማዊል
▁ስብስቦች
▁መወዳእትኡ
##ታሙ
##ዕዎም
##8.
##ካላ
##ህዶ
##ለማን
##ማለን
##ያኖ
##ወይቲ
##ከትን
##ሳሙ
##ራዩ
##ኛለች
##mak
##ዑኒ
▁ኣመት
▁ከነው
▁ከሺህ
▁ምናዳ
▁እንገናኝ
▁ወጻእን
▁ዘኢ
▁ማድ
▁ትጸ
▁ትገባ
▁ትሰራ
▁ትኸፍ
▁ድክመ
▁"ዎ
▁ከምይ
▁ኣይገብርን
▁የሚሰበሰቡ
▁የሚናገረውን
▁(ሱ.
▁ህሊና
▁ጊዜዬን
▁ሃቦ
▁ኩለ
▁የእውነተኛ
▁አልጠ
▁3፤
▁2030
##ዚያዊ
▁እምበ
▁ቁርባን
▁ግዜ።
##መልከተ
▁አንተው
##ሰማን
▁ሎስ
▁19፤
##ብረካ
##ብሎን
▁እጅግም
▁ንስኻውን
▁‹የ
▁ተሰጠው
▁ምድሪቱ
▁ድርሰት
▁አካሉ
##ሰምዕን
▁ዕድልን
##ከለክል
▁ኣገዳስ
▁ዘለዉ፡
▁ዋላ'ውን
▁ዘመሓ
▁ተኸታታሊ
▁ሓላቑ
▁ንድፊ
▁ማስተናገ
##ett
##ንቅል
▁የተባለውን
▁ኣተሓሳስ
▁የፈጠር
▁ንነጀው
▁ህልዊ
##አል፥
▁ወሰንኩ
▁ሹድሽተ
▁ውልቀ-
▁ዝብኢ
▁ዕንባባ
##ፈለገውን
▁no
##ቀረበው
▁ብምስጢር
▁ሓሲበ
▁ምናሴ
▁ዘጸግም
▁በራስ-ሰር
▁ኣግኣዝያን
▁ይብሎ።
▁ገዢዎች
▁አደረገው።
▁እንሆናለን
▁እንቁላል
▁ናጽነትን
▁ሚያዚያ
▁መትከላት
▁በአንፃራዊነት
▁መጋባእያ
##ላቸዋል፤
##ምኽ
##ምታት
##ነዝ
##ነዚያን
##ስሎ
##ጋታ
##ፈሪያ
##ሕሲ
##ሉዕ
##ያታት
##ዛርን
##ች፥
##ወይን
##ቀየረ
##ፕሊ
##ቃታማ
##ሊሕ
##mer
##ዒንት
##ጫለሁ
##ix
▁ኣርኢ
▁የዮ
▁የነገረ
▁መህ
▁ከፈጠረው
▁ተለያይ
▁ክቑ
▁ክኣምን
▁ወጭ
▁ስመለከት
▁ኣይፈተ
▁የሚጠሩ
▁ግን...
##ንም?
▁ባገኘ
▁ምስትም
▁ቅንብ
▁ታንዛ
▁እንተበል
▁በመረ
▁ዚብላዕ
▁ጠጋ
▁የመሳ
▁ክንህብ
▁ቢባል
▁እምነታት
▁መስሪያ
▁ሥጋዊ
▁ኽገብረ
##የት፡
▁"እዞም
##ለይም
▁5፡1
▁በማናቸውም
▁ዶር.
▁እተዛረብ
##ዎን፡
▁ደቂተባዕ
▁8,
▁ጌታቸውን
▁መርሐ
▁ንሕጂ
▁መንፈሳ
▁ፕሮቲን
▁የሱስን
▁"አሊፍ
▁ሲሆን፣
▁ለሚያስ
▁ዝኸበርካ
▁ኢንቴ
▁በረሃብ
▁ብተፈጥሮ
▁መሪነት
▁ኢለ።
▁ሠረገ
▁ሓሳብካ
▁መዛዘሚ
▁ምጽዋዕ
▁ዉድ
▁ምዕራፋት
▁ደጊምካ
##ፈተኑ
▁የተሰበረ
▁ብቸኝነት
▁ኣለዉ?
##ሰጥህ
##ጠባበቁ
▁ክቕበል
▁ወስዳ
##ism
▁ተጸበ
▁03
▁ከበድ
▁፲፱
▁ዘሕፍር
##ከታተሎ
▁ይሸፍ
▁ኖርዌይ
##ርኣዩ
▁has
▁ተራእዩ።
▁'ንታይ
▁ነጊሩ
▁ሓቲቶም
##ርእየኒ
▁የዕሩኽ
▁ፈጥነው
##ክርስቲያኖች
▁ተጠናቅ
▁ክምልስ
▁የፕሮግራም
##ቀዝቀ
▁ሕሰቡ።
▁ህገ-
▁ዝፀንሐ
▁መዕቆቢ
##ኮሌት
##ግሉ
##ስ)
##ረዋል።
##ረዱን
##text
##ድገም
##ጥሉ
##ቸገር
##rans
##kk
##ከሱ
##ሽከረ
##ፀር
##ፅሪ
##ጎ።
##ሆን።
##ጓጓዝ
##ሬና
▁ነት
▁ምሻ
▁እንሰማ
▁ንጭ
▁ንጥፍ
▁ለወጣ
▁ሰሞን
▁ኣብ...
▁ዘጓ
▁ዘንብ
▁እናቴን
▁"ብዙሕ
▁ደክ
▁የሚመሩ
▁ቀሲ
▁የተንቀሳቃሽ
▁ጋል
▁እንዲማሩ
▁ቤቱም
▁ታወጣበት
▁እየን፡
▁ሊለው
▁ሲቀር
▁ኮለል
▁ጽሓፍ
▁ሽፍታ
▁ግና፥
▁ሰባት።
▁"እባክ
▁መጠይቕ
##ርያምን
▁ነበረኝ።
##ርካት
▁እተባህለ
##ብረር
▁ያለውም
▁መሆንህን
▁ነኝ፣
▁ኻባይ
▁እምበር፥
▁APS
##ንናን።
▁TV
▁ናት"
▁እንተኾነ፣
▁ኣገዳስን
▁ኣምጽኣ
▁ምውራድ
▁ልጆቹም
▁ይመሓ
▁ተሳፋሪ
##መንግሥት
▁ንኽእል?
▁ፕሬስ
▁ይመለሱ
▁ፈሊጦም
▁ተከታይ
▁ቀጺሎም
▁ይመስለኛል.
▁ስነ-ኣእምሮ
▁የምድርም
▁ጠብቁ
▁እናደርጋለን.
▁አደርጋለሁ!
▁ያድርጉ.
▁ስምምዕነት
▁ምስጢራት
##መሓየሸ
▁ኣረጋዊ
▁ዝርዝሮችን
▁አደረግን።
▁ኣመንዝራ
▁ዮርዳኖስን
▁ብዚምልከት
▁ሃንደበታዊ
▁አሰልጣ
▁ዝህልዎ
▁ተታሒዞም
▁የነበራችሁትን
▁አላችሁ?
▁ያስችልዎታል
▁ከተማይቱን
▁አስከትሎ
▁ታዳሚዎች
▁ለማጣራት
##ይሕ
##ትረፍ
##ተርስ
##የነ
##ህዛብ
##600
##እዋ
##ጸሓ
##ማለት
##ጠረ።
##ዳህ
##ዋግ
##ከፈተ
##ኳት።
##Cloud
##ጐጕ
▁አመልክ
▁መነሳ
▁ከዱ
▁ይረኽቡ
▁ምደባ
▁ንጸሎት
▁ንጡፍ
▁ዝሰምዑ
▁ዝጅመር
▁ተገር
▁ተጀመረ።
▁ክጻወት
▁ወሽ
▁ሰፍ
▁ትፈር
▁ያዘጋጁ
▁"ግ
##ነትህ
▁ኣይነብርን
▁እንደወደ
▁ሁኑ።
▁ገፊሕ
▁1:8
▁ቅረቡ
##ምላኩ
▁ቤታቸውን
▁ሃውስ
##ባትሪ
▁ሲሰራ
▁ክንጥቀም
▁በተባበሩት
##ላትም
▁ህዝቦም
▁ሚክ
##ደረሽን
▁ቦምብ
▁4:2
▁ጌራ
##ባልደረ
▁መሰረ
▁ሀዘን
##ርእየና
▁እንዴት?
▁የለብንም።
▁እነሱንም
▁እዮም፣+
▁ለአሕዛብ
▁ሂቡና
▁ኮይኑ'ዩ
▁ንዓመታ
▁ኦሪ
▁ንስኻኸ
▁ብዘይተ
▁በታላቁ
▁ቋንቋዎችን
▁አሳው
▁ብኣፍ
▁አምስተኛው
▁ተመልሼ
▁ተሓሲ
##'የ"
▁የታተመ
▁ይብላ።
▁ምትር
▁አጋዥ
▁(አሁን
▁ያሳለፍ
▁ዘላቒ
##ሮንቶ
▁ተረፈ
▁ኳስን
##ich
##ልዓድ
▁ጥንዶች
▁ሕልውና
▁ዝውለድ
▁መነኮ
▁ሰርጥ
▁ስድብ
▁ኮንኩም
##ጸር።
▁ዝደየ
▁አዎን,
▁Rep
▁ተፈጥሮኣዊ
▁በቁጣ
▁ልጃቸውን
▁በዝቶ
▁ተገቢውን
▁አስተዋፅኦ
▁ኣዴና
##hai
▁ሓልዮትን
▁ሁላችንንም
▁በሂደት
▁ዝምልከቱ
▁ሰፈሩ።
▁እንሰራለን
▁ተጻዋታይ
▁በለንደን
##ቀዝቀዣ
▁ፈልገ
##ኣላ
##ክሬ
##ቐና
##ave
##ለፋ
##ለሎም
##ዳዲ
##ጨፍ
##ዋዊ
##ሚቱ
##ier
##ዉር
##ኼባ
##ጕድ
##ሟት
##ዷቸውን
▁ኣጣ
▁በኩባንያው
▁ይፋዊ
▁ስስ
▁ግምጃ
▁እናበ
▁"ቃል
▁ኣይበለን።
▁የሚጠላ
▁ገባሪ
▁1%
▁ቀተ
▁ባሌ
▁ህጂ
##ለሁ፣
▁ለመግለ
▁እየጠበቀ
▁ዓመጽን
▁ለማብራራት
▁ጸልይ
▁ክትፍጽም
▁አስፈራ
▁ከእጄ
▁ዘሎ!
▁ዘሎኩም
▁ሽሙ
▁አላስብ
##መለሱም
▁ቃልም
▁በማየት
▁ዝነብረሉ
▁ስርጭ
▁ሥራዬ
▁በምስራቅ
▁በየነይቲ
▁ጐድኒ
▁"አስ
##ችኋልና
▁ታላቅና
▁ኣውቶቡ
▁24/7
▁እንዳለብህ
▁ወረቀቶች
▁በኢሜል
▁ዋላኳ
▁ወዳጆቹ
▁ብሕቡእ
▁ጸኒዑ
▁ኽንነብር
▁ጊዴ
▁ሞተ፡
▁ጉዕዞና
▁የይሖዋን
▁አመሰግናለሁ.
▁መቐበሊ
▁ንሰብኣያ
▁ሕጉስቲ
▁ቡድኑን
▁ቀጣዩን
▁ውሕስ
▁ኣጽዋ
▁እራሷን
##ክምናን
▁ተናግራ
##:11)
▁ስግግር
▁ኣካይዱ
▁ብጥይት
▁ንባዕሎም
▁የድርጅት
##ፀንሕ
▁ያስፈልግዎታል።
##ፕሬስ
##ቀሰቀሱ
▁እንደሚያስፈልግ
▁ኣገልግሎትን
▁ያመኑት
▁ኣሃዝ
▁መሲሉኒ
▁ትዕዛዛት
▁በርግጥም
▁ንታሪኽ
▁እንደሚታወቀው
▁ለመመገብ
▁ርትዓዊ
▁ንቆልዑ
▁ጥርናፈ
▁መለወጫ
##ላቹ
##'ዘን
##ግራት
##ትኩምን
##ርኒ
##ተኩር
##እና።
##ዳዋ
##ቸገሩ
##ቖ።
##ሜላ
##ሁ፡
##ቲንግ
##ሞንን
##ኛለህ?
##ሸጉ
##ቂቃ
▁ኣርቲ
▁የኒ።
▁የውስ
▁መወገድ
▁ነርስ
▁ነናቶም
▁ከድን
▁ይጐ
▁ተሠ
▁ተያያዥ
▁ለቡ
▁ዘጽን
▁ውደባ
▁ደክሞ
▁የሚው
▁ሕሱ
▁አይገኝ
▁አይጠፋ
▁ድማ'ዩ
▁ምስለ
▁ህትመት
▁እንዲመለስ
▁ኸየ
▁ለማመስገን
▁ዚወስድ
▁መልስን
▁በተሞላ
##ገድድ
▁ቃልህ
▁በሚጽፍበት
▁ቆረ
▁ዓመታት.
##ጥርጥር
▁ሸሽ
▁አድርጐ
▁ንሓጺር
▁ተፈጠረ
▁ጭካኔ
▁መንግስቲ፡
▁ሓበሻ
▁አሳሽ
##ረምራ
##en)
▁ሠርግ
▁ኣይንፈልጥን።
▁ንገጽ
▁መራቅ
▁(እዚ
▁ቀዳማይ፡
▁ዝቐጸለ
▁ቈጥቋጥ
▁ምዝካር
▁ክህልዋ
##ቁርአን
▁የብልግና
▁ክእለትን
▁ይኖራሉ.
▁ኣእምሮኻ
▁ዅላ
▁ፍለጡ።
▁እችላለሁን?
▁የዘኻኽ
▁(ዘጸ
▁ክታበታት
▁ዓረብን
##ስክራይ
▁እሳቱ
▁መስመራት
##ክታር
▁ተወሲዱ
▁ዘይከኣለ
▁ተልከ
▁በአስቸኳይ
▁አያስፈልገንም
▁እፈራለሁ
▁ኪቐትልዎ
▁ቀጸለ።
▁ጋህዲ
▁እንኖራለን
▁በነበራችሁት
▁ብትዕግስቲ
##ላጎት
##በል.
##ግዛት
##ውጅ
##ፈቱ።
##ርጦ
##ተቲ
##ተኑ
##ተሩ
##ጠጣት
##ዋ.
##ዋልና
##ወ።
##ወርስ
##ፕረስ
##ኬራ
##ቴንም
##ሆም።
##ጓዘ
##ጾታዊ
▁በኅ
▁በህዝብ
▁መመር
▁ይቅረ
▁እንነጋገር
▁ዝፈለጥ
▁ተለወጠ
▁ስማቸው
▁ኣብራም
▁ዘቑ
▁ማቲ
▁"ኖ
▁ካውንቲ
##ነት"
▁ምስዓብ
▁እዚኤን
▁ህጉ
▁ነገር፣
▁ወደምት
▁ለመነ
▁ታር
▁እየ.
▁ሲሰ
▁ሲመለከት
▁የእው
▁አልሰራ
▁መልሳ
▁አስጸያፊ
▁እያዩ
▁ንምርግጋ
##ላል፤
▁ቁ.
▁ከይተሓ
##ወስኑ
▁ምኽኒያቱ
▁እተኸ
▁ኣንባቢ
▁ኵላትኩም
▁ሂብና
▁ዩኤስ
▁በልጅነት
▁ሁለገብ
▁የትርፍ
▁ተሰይ
▁ገሊጻ።
▁እንዲያምኑ
▁ለሚቀጥለው
▁ኣእተ
##ሶም፡
##ኖራቸውም
##ቅድሜ
▁25%
▁መዓላ
▁ወሲኑ።
▁አላቸው:-
▁ዙሪያውን
▁ኣገዳሲት
▁መኪናውን
▁እወቁ
▁ሰምተህ
▁አሜሪካኖች
▁የካይድ
##-17
▁ንኸንቱ
##ዘራር
▁መብዛሕትአን
▁ሓዲኡ
▁ንጽቡቕ
▁የመስማት
##ጽሐፍት
▁ተምሬ
▁ሕዝቦችም
##ild
▁ሾፌ
##ሃድሙ
▁ዚህሉ
▁ዘይንቡር
▁ህያባት
##አቸው፤
▁ተመስሪቱ
▁ኒውዮርክ
▁ያእቆብ፡
▁ዳይረ
▁የተከበሩ
▁ለመንገር
##ነበብኩ
▁ይመጽእ።
▁የሰጠውን
▁ብሂወት
▁ፈተነታት
▁በጣቢያው
▁ካፒታል
▁ምፍራስ
▁ተቀመጠ።
▁ተመልክተናል
▁ከግብጽ
▁የገልግል።
▁አርአያ
##ፍርናሆም
▁ኸተውጽኣኩም
▁Ø
##ዝግ
##ል)
##ትሪክ
##-30
##የይን
##ቢና
##ማሕ
##ጨምሩ
##አለሁ፤
##ወከል
##ወዷቸው
##ሐልፍ
##ሌቅ
##ቅሱ
##TA
##y)
▁በሉ፡
▁የቼ
▁ነበራት
▁ይቑ
▁ይጥም
▁ለሶስት
▁ኣብያ
▁ዘቕርብ
▁ግሲ
▁ያኢ
▁ደጆች
▁ሁከት
▁ልቡን
▁ቀጽ
▁ባረካ
▁(ጣ
▁ምስታይ
▁ወደ.
##ምንም።
▁እንዲወጣ
▁ቤላ
▁ለመዳን
▁ዘይትን
##ርሱን
▁ሊል
▁ሲጀምሩ
▁በአውሮፕላን
▁ክትህ
▁መልከፍ
▁የአከባቢው
▁እንዳበሉ
▁ከአማ
##ላችሁ፣
▁ባለጠጋ
▁ሴቲቱ
▁ሃገራዊት
▁ሕዝቅኤል
##ምልጥ
▁በልባችሁ
▁ንሓሙሽተ
▁Co
▁ኣይተዓ
▁መደወል
▁ምድርና
▁187
▁11.
▁ምሕላ
▁ዘመን፡
▁ከሚገኘው
▁ኬክ
▁በሰላ
▁ነይሩዎ።
▁የታመሙ
##ደግነት
##atch
▁የስነ
▁(አንድ
▁ያሳዩ
▁ሚኒስተራት
▁We
▁ተኸላ
▁ተጠቃሚዎችን
##rop
▁መታመን
▁ንጥቕ
##-10)
▁ሕይወታቸውን
▁ክህልወኩም
▁አግኝቷል.
▁ካርቱም
▁ክበጽሑ
##ሞክራሲያዊ
▁ሰርቷል
▁ወልዱ
▁ወልድን
▁ይኖራል.
▁ዝፍጽም
▁ዝሃቡ
▁ሊቀመንበር
▁በማድረግ,
▁ዝደለኹ
▁ብጾቱ
▁ያዕቆብም
▁ትእዛዛትካ
▁ለብዒ
▁ህንጻታት
▁ሳምሰንግ
▁መብዛሕተን
▁ብምልእታ
▁እንተዀነ፡
▁ዓይነቶችን
▁ወረርሽኙ
▁ይብሎም።
▁ለአንባቢ
▁አልነበራቸውም።
▁መማህራን
▁ጅማሬ
▁አመልካቾች
▁ኣይሁዳዊ
▁ባለትዳሮች
▁መሠዊያ
▁ለመቆጠብ
##ናዮን
##ይዎ።
##ልዓል
##ነሪንግ
##ቐኒ
##ረሩ
##ጋ።
##ጋታት
##ገንዘ
##-ን
##ቢሎስ
##ሰቦችን
##ችን።
##ጽኢት
##ሽቱን
##ሠል
##ቃይት
##ሻር
##ኪንግ
##ሃሮን
##ጡ፡
##ጡበት
##ዑም
▁እጮ
▁አኖራ
▁ይዕድ
▁ብጃ
▁ብዘጋ
▁እንገብር
▁ንጊ
▁ዝፅ
▁ዝስማ
▁ዘገድስ
▁ትገረ
▁ካወቁ
▁ደመይ
##ዎችንም
▁አይጥ
▁እየሆኑ
▁ጽር
##ድርና
▁ጉጅ
▁ከኣ።
▁በተካሄደው
▁ቢሻ
▁ብቻዋን
▁እንዳላችሁ
▁መስዋዕት
▁የምናገረው
▁የሚያመለክት
▁ምርቶቻችን
▁ዝሓዝ
▁ኵነ
▁እግዚብሔር
▁79
##ኣትዎ
▁አንዱ,
▁ፓይ
▁Apr
▁ኣየድልዮ
##ዛረብን
▁ምዕቃብ
▁መሳልል
▁ተኣምራ
▁ኣምሲ
▁(አስ
▁ተነጺ
▁ነህ!
