<pad>	0
<unk>	-1
<s>	-2
</s>	-3
!	-4
"	-5
#	-6
$	-7
%	-8
&	-9
'	-10
(	-11
)	-12
*	-13
+	-14
,	-15
-	-16
.	-17
/	-18
0	-19
1	-20
2	-21
3	-22
4	-23
5	-24
6	-25
7	-26
8	-27
9	-28
:	-29
;	-30
<	-31
=	-32
>	-33
?	-34
@	-35
A	-36
B	-37
C	-38
D	-39
E	-40
F	-41
G	-42
H	-43
I	-44
J	-45
K	-46
L	-47
M	-48
N	-49
O	-50
P	-51
Q	-52
R	-53
S	-54
T	-55
U	-56
V	-57
W	-58
X	-59
Y	-60
Z	-61
[	-62
\	-63
]	-64
^	-65
_	-66
a	-67
b	-68
c	-69
d	-70
e	-71
f	-72
g	-73
h	-74
i	-75
j	-76
k	-77
l	-78
m	-79
n	-80
o	-81
p	-82
q	-83
r	-84
s	-85
t	-86
u	-87
v	-88
w	-89
x	-90
y	-91
z	-92
{	-93
|	-94
}	-95
~	-96
£	-97
¥	-98
§	-99
©	-100
¬	-101
®	-102
°	-103
¶	-104
·	-105
Â	-106
Ã	-107
Ö	-108
×	-109
Ø	-110
Ü	-111
ß	-112
ä	-113
å	-114
è	-115
ê	-116
ë	-117
í	-118
ï	-119
ñ	-120
ö	-121
÷	-122
ü	-123
Ā	-124
ā	-125
ı	-126
Ş	-127
ş	-128
ū	-129
Ÿ	-130
ǝ	-131
ʼ	-132
̈	-133
̋	-134
̕	-135
Α	-136
Ω	-137
Т	-138
г	-139
и	-140
н	-141
о	-142
р	-143
т	-144
ь	-145
я	-146
҉	-147
א	-148
ב	-149
ג	-150
ד	-151
ה	-152
ו	-153
ח	-154
י	-155
כ	-156
ל	-157
ם	-158
מ	-159
נ	-160
ס	-161
פ	-162
ק	-163
ר	-164
ש	-165
؟	-166
أ	-167
ؤ	-168
ا	-169
ب	-170
ة	-171
ت	-172
ر	-173
س	-174
ش	-175
ع	-176
غ	-177
ق	-178
ل	-179
م	-180
ن	-181
ه	-182
و	-183
ي	-184
گ	-185
ی	-186
ख	-187
त	-188
न	-189
भ	-190
र	-191
़	-192
ा	-193
စ	-194
ဒ	-195
ပ	-196
ာ	-197
ိ	-198
ု	-199
်	-200
၊	-201
ვ	-202
თ	-203
ი	-204
ნ	-205
ს	-206
წ	-207
ሀ	-208
ሁ	-209
ሂ	-210
ሃ	-211
ሄ	-212
ህ	-213
ሆ	-214
ሇ	-215
ለ	-216
ሉ	-217
ሊ	-218
ላ	-219
ሌ	-220
ል	-221
ሎ	-222
ሏ	-223
ሐ	-224
ሑ	-225
ሒ	-226
ሓ	-227
ሔ	-228
ሕ	-229
ሖ	-230
ሗ	-231
መ	-232
ሙ	-233
ሚ	-234
ማ	-235
ሜ	-236
ም	-237
ሞ	-238
ሟ	-239
ሠ	-240
ሡ	-241
ሢ	-242
ሣ	-243
ሤ	-244
ሥ	-245
ሦ	-246
ረ	-247
ሩ	-248
ሪ	-249
ራ	-250
ሬ	-251
ር	-252
ሮ	-253
ሯ	-254
ሰ	-255
ሱ	-256
ሲ	-257
ሳ	-258
ሴ	-259
ስ	-260
ሶ	-261
ሷ	-262
ሸ	-263
ሹ	-264
ሺ	-265
ሻ	-266
ሼ	-267
ሽ	-268
ሾ	-269
ቀ	-270
ቁ	-271
ቂ	-272
ቃ	-273
ቄ	-274
ቅ	-275
ቆ	-276
ቈ	-277
ቊ	-278
ቋ	-279
ቌ	-280
ቍ	-281
ቐ	-282
ቑ	-283
ቒ	-284
ቓ	-285
ቔ	-286
ቕ	-287
ቖ	-288
ቘ	-289
ቚ	-290
ቛ	-291
ቜ	-292
ቝ	-293
በ	-294
ቡ	-295
ቢ	-296
ባ	-297
ቤ	-298
ብ	-299
ቦ	-300
ቧ	-301
ቨ	-302
ቩ	-303
ቪ	-304
ቫ	-305
ቬ	-306
ቭ	-307
ቮ	-308
ቯ	-309
ተ	-310
ቱ	-311
ቲ	-312
ታ	-313
ቴ	-314
ት	-315
ቶ	-316
ቷ	-317
ቸ	-318
ቹ	-319
ቺ	-320
ቻ	-321
ቼ	-322
ች	-323
ቾ	-324
ቿ	-325
ኀ	-326
ኁ	-327
ኂ	-328
ኃ	-329
ኄ	-330
ኅ	-331
ኆ	-332
ኋ	-333
ነ	-334
ኑ	-335
ኒ	-336
ና	-337
ኔ	-338
ን	-339
ኖ	-340
ኗ	-341
ኘ	-342
ኙ	-343
ኚ	-344
ኛ	-345
ኜ	-346
ኝ	-347
ኞ	-348
ኟ	-349
አ	-350
ኡ	-351
ኢ	-352
ኣ	-353
ኤ	-354
እ	-355
ኦ	-356
ኧ	-357
ከ	-358
ኩ	-359
ኪ	-360
ካ	-361
ኬ	-362
ክ	-363
ኮ	-364
ኯ	-365
ኰ	-366
ኲ	-367
ኳ	-368
ኴ	-369
ኵ	-370
ኸ	-371
ኹ	-372
ኺ	-373
ኻ	-374
ኼ	-375
ኽ	-376
ኾ	-377
ዀ	-378
ዂ	-379
ዃ	-380
ዄ	-381
ዅ	-382
ወ	-383
ዉ	-384
ዊ	-385
ዋ	-386
ዌ	-387
ው	-388
ዎ	-389
ዐ	-390
ዑ	-391
ዒ	-392
ዓ	-393
ዔ	-394
ዕ	-395
ዖ	-396
ዘ	-397
ዙ	-398
ዚ	-399
ዛ	-400
ዜ	-401
ዝ	-402
ዞ	-403
ዟ	-404
ዠ	-405
ዡ	-406
ዢ	-407
ዣ	-408
ዤ	-409
ዥ	-410
የ	-411
ዩ	-412
ዪ	-413
ያ	-414
ዬ	-415
ይ	-416
ዮ	-417
ዯ	-418
ደ	-419
ዱ	-420
ዲ	-421
ዳ	-422
ዴ	-423
ድ	-424
ዶ	-425
ዷ	-426
ዻ	-427
ዼ	-428
ዽ	-429
ዾ	-430
ጀ	-431
ጁ	-432
ጂ	-433
ጃ	-434
ጄ	-435
ጅ	-436
ጆ	-437
ገ	-438
ጉ	-439
ጊ	-440
ጋ	-441
ጌ	-442
ግ	-443
ጎ	-444
ጏ	-445
ጐ	-446
ጒ	-447
ጓ	-448
ጔ	-449
ጕ	-450
ጙ	-451
ጛ	-452
ጟ	-453
ጠ	-454
ጡ	-455
ጢ	-456
ጣ	-457
ጤ	-458
ጥ	-459
ጦ	-460
ጧ	-461
ጨ	-462
ጩ	-463
ጪ	-464
ጫ	-465
ጬ	-466
ጭ	-467
ጮ	-468
ጰ	-469
ጱ	-470
ጲ	-471
ጳ	-472
ጴ	-473
ጵ	-474
ጶ	-475
ጸ	-476
ጹ	-477
ጺ	-478
ጻ	-479
ጼ	-480
ጽ	-481
ጾ	-482
ጿ	-483
ፀ	-484
ፁ	-485
ፂ	-486
ፃ	-487
ፄ	-488
ፅ	-489
ፆ	-490
ፇ	-491
ፈ	-492
ፉ	-493
ፊ	-494
ፋ	-495
ፌ	-496
ፍ	-497
ፎ	-498
ፏ	-499
ፐ	-500
ፑ	-501
ፒ	-502
ፓ	-503
ፔ	-504
ፕ	-505
ፖ	-506
ፗ	-507
፠	-508
፡	-509
።	-510
፣	-511
፤	-512
፥	-513
፦	-514
፧	-515
፨	-516
፩	-517
፪	-518
፫	-519
፬	-520
፭	-521
፮	-522
፯	-523
፰	-524
፱	-525
፲	-526
፳	-527
፴	-528
፵	-529
፶	-530
፷	-531
፻	-532
᎐	-533
᎒	-534
᎓	-535
†	-536
•	-537
′	-538
‹	-539
›	-540
⁄	-541
€	-542
←	-543
→	-544
⇒	-545
√	-546
∶	-547
≤	-548
⋮	-549
▁!	-550
▁"	-551
▁#	-552
▁$	-553
▁%	-554
▁&	-555
▁'	-556
▁(	-557
▁)	-558
▁*	-559
▁+	-560
▁,	-561
▁-	-562
▁.	-563
▁/	-564
▁0	-565
▁1	-566
▁2	-567
▁3	-568
▁4	-569
▁5	-570
▁6	-571
▁7	-572
▁8	-573
▁9	-574
▁:	-575
▁;	-576
▁<	-577
▁=	-578
▁>	-579
▁?	-580
▁@	-581
▁A	-582
▁B	-583
▁C	-584
▁D	-585
▁E	-586
▁F	-587
▁G	-588
▁H	-589
▁I	-590
▁J	-591
▁K	-592
▁L	-593
▁M	-594
▁N	-595
▁O	-596
▁P	-597
▁Q	-598
▁R	-599
▁S	-600
▁T	-601
▁U	-602
▁V	-603
▁W	-604
▁X	-605
▁Y	-606
▁Z	-607
▁[	-608
▁\	-609
▁]	-610
▁^	-611
▁_	-612
▁a	-613
▁b	-614
▁c	-615
▁d	-616
▁e	-617
▁f	-618
▁g	-619
▁h	-620
▁i	-621
▁j	-622
▁k	-623
▁l	-624
▁m	-625
▁n	-626
▁o	-627
▁p	-628
▁q	-629
▁r	-630
▁s	-631
▁t	-632
▁u	-633
▁v	-634
▁w	-635
▁x	-636
▁y	-637
▁z	-638
▁{	-639
▁|	-640
▁}	-641
▁~	-642
▁£	-643
▁§	-644
▁©	-645
▁¬	-646
▁°	-647
▁¶	-648
▁·	-649
▁Ö	-650
▁Ø	-651
▁ä	-652
▁ï	-653
▁ö	-654
▁÷	-655
▁ü	-656
▁Ā	-657
▁ǝ	-658
▁̈	-659
▁̋	-660
▁Α	-661
▁Ω	-662
▁Т	-663
▁и	-664
▁о	-665
▁ב	-666
▁ו	-667
▁ח	-668
▁י	-669
▁כ	-670
▁ל	-671
▁מ	-672
▁ס	-673
▁ק	-674
▁ר	-675
▁أ	-676
▁ا	-677
▁ت	-678
▁س	-679
▁ق	-680
▁و	-681
▁ي	-682
▁ख	-683
▁भ	-684
▁စ	-685
▁თ	-686
▁წ	-687
▁ሀ	-688
▁ሁ	-689
▁ሂ	-690
▁ሃ	-691
▁ሄ	-692
▁ህ	-693
▁ሆ	-694
▁ሇ	-695
▁ለ	-696
▁ሉ	-697
▁ሊ	-698
▁ላ	-699
▁ሌ	-700
▁ል	-701
▁ሎ	-702
▁ሐ	-703
▁ሑ	-704
▁ሒ	-705
▁ሓ	-706
▁ሔ	-707
▁ሕ	-708
▁ሖ	-709
▁መ	-710
▁ሙ	-711
▁ሚ	-712
▁ማ	-713
▁ሜ	-714
▁ም	-715
▁ሞ	-716
▁ሟ	-717
▁ሠ	-718
▁ሡ	-719
▁ሢ	-720
▁ሣ	-721
▁ሥ	-722
▁ረ	-723
▁ሩ	-724
▁ሪ	-725
▁ራ	-726
▁ሬ	-727
▁ር	-728
▁ሮ	-729
▁ሰ	-730
▁ሱ	-731
▁ሲ	-732
▁ሳ	-733
▁ሴ	-734
▁ስ	-735
▁ሶ	-736
▁ሸ	-737
▁ሹ	-738
▁ሺ	-739
▁ሻ	-740
▁ሼ	-741
▁ሽ	-742
▁ሾ	-743
▁ቀ	-744
▁ቁ	-745
▁ቂ	-746
▁ቃ	-747
▁ቄ	-748
▁ቅ	-749
▁ቆ	-750
▁ቈ	-751
▁ቊ	-752
▁ቋ	-753
▁ቌ	-754
▁ቍ	-755
▁ቐ	-756
▁ቑ	-757
▁ቒ	-758
▁ቓ	-759
▁ቔ	-760
▁ቕ	-761
▁ቖ	-762
▁ቘ	-763
▁ቚ	-764
▁ቛ	-765
▁ቜ	-766
▁ቝ	-767
▁በ	-768
▁ቡ	-769
▁ቢ	-770
▁ባ	-771
▁ቤ	-772
▁ብ	-773
▁ቦ	-774
▁ቨ	-775
▁ቩ	-776
▁ቪ	-777
▁ቫ	-778
▁ቬ	-779
▁ቭ	-780
▁ቮ	-781
▁ተ	-782
▁ቱ	-783
▁ቲ	-784
▁ታ	-785
▁ቴ	-786
▁ት	-787
▁ቶ	-788
▁ቸ	-789
▁ቹ	-790
▁ቺ	-791
▁ቻ	-792
▁ቼ	-793
▁ች	-794
▁ቾ	-795
▁ቿ	-796
▁ኀ	-797
▁ኂ	-798
▁ኃ	-799
▁ኄ	-800
▁ኅ	-801
▁ኆ	-802
▁ኋ	-803
▁ነ	-804
▁ኑ	-805
▁ኒ	-806
▁ና	-807
▁ኔ	-808
▁ን	-809
▁ኖ	-810
▁ኛ	-811
▁አ	-812
▁ኡ	-813
▁ኢ	-814
▁ኣ	-815
▁ኤ	-816
▁እ	-817
▁ኦ	-818
▁ኧ	-819
▁ከ	-820
▁ኩ	-821
▁ኪ	-822
▁ካ	-823
▁ኬ	-824
▁ክ	-825
▁ኮ	-826
▁ኯ	-827
▁ኰ	-828
▁ኲ	-829
▁ኳ	-830
▁ኴ	-831
▁ኵ	-832
▁ኸ	-833
▁ኹ	-834
▁ኺ	-835
▁ኻ	-836
▁ኼ	-837
▁ኽ	-838
▁ኾ	-839
▁ዀ	-840
▁ዂ	-841
▁ዃ	-842
▁ዄ	-843
▁ዅ	-844
▁ወ	-845
▁ዉ	-846
▁ዊ	-847
▁ዋ	-848
▁ዌ	-849
▁ው	-850
▁ዎ	-851
▁ዐ	-852
▁ዑ	-853
▁ዒ	-854
▁ዓ	-855
▁ዔ	-856
▁ዕ	-857
▁ዖ	-858
▁ዘ	-859
▁ዙ	-860
▁ዚ	-861
▁ዛ	-862
▁ዜ	-863
▁ዝ	-864
▁ዞ	-865
▁ዢ	-866
▁ዣ	-867
▁የ	-868
▁ዩ	-869
▁ዪ	-870
▁ያ	-871
▁ዬ	-872
▁ይ	-873
▁ዮ	-874
▁ዯ	-875
▁ደ	-876
▁ዱ	-877
▁ዲ	-878
▁ዳ	-879
▁ዴ	-880
▁ድ	-881
▁ዶ	-882
▁ዾ	-883
▁ጀ	-884
▁ጁ	-885
▁ጂ	-886
▁ጃ	-887
▁ጄ	-888
▁ጅ	-889
▁ጆ	-890
▁ገ	-891
▁ጉ	-892
▁ጊ	-893
▁ጋ	-894
▁ጌ	-895
▁ግ	-896
▁ጎ	-897
▁ጏ	-898
▁ጐ	-899
▁ጒ	-900
▁ጓ	-901
▁ጕ	-902
▁ጛ	-903
▁ጠ	-904
▁ጡ	-905
▁ጢ	-906
▁ጣ	-907
▁ጤ	-908
▁ጥ	-909
▁ጦ	-910
▁ጧ	-911
▁ጨ	-912
▁ጩ	-913
▁ጪ	-914
▁ጫ	-915
▁ጭ	-916
▁ጮ	-917
▁ጰ	-918
▁ጱ	-919
▁ጲ	-920
▁ጳ	-921
▁ጴ	-922
▁ጵ	-923
▁ጶ	-924
▁ጸ	-925
▁ጹ	-926
▁ጺ	-927
▁ጻ	-928
▁ጼ	-929
▁ጽ	-930
▁ጾ	-931
▁ፀ	-932
▁ፁ	-933
▁ፂ	-934
▁ፃ	-935
▁ፅ	-936
▁ፆ	-937
▁ፈ	-938
▁ፉ	-939
▁ፊ	-940
▁ፋ	-941
▁ፌ	-942
▁ፍ	-943
▁ፎ	-944
▁ፐ	-945
▁ፑ	-946
▁ፒ	-947
▁ፓ	-948
▁ፔ	-949
▁ፕ	-950
▁ፖ	-951
▁፠	-952
▁፡	-953
▁።	-954
▁፣	-955
▁፤	-956
▁፥	-957
▁፦	-958
▁፧	-959
▁፨	-960
▁፩	-961
▁፪	-962
▁፫	-963
▁፬	-964
▁፭	-965
▁፮	-966
▁፯	-967
▁፰	-968
▁፱	-969
▁፲	-970
▁፳	-971
▁፴	-972
▁፵	-973
▁፷	-974
▁፻	-975
▁᎒	-976
▁†	-977
▁•	-978
▁‹	-979
▁›	-980
▁€	-981
▁←	-982
▁→	-983
▁⇒	-984
▁√	-985
▁≤	-986
▁▢	-987
▁►	-988
▁▼	-989
▁●	-990
▁★	-991
▁☆	-992
▁☞	-993
▁♂	-994
▁♥	-995
▁♫	-996
▁✈	-997
▁✔	-998
▁❤	-999
▁➜	-1000
▁➤	-1001
▁ⵗ	-1002
▁ⶁ	-1003
▁。	-1004
▁か	-1005
▁で	-1006
▁ど	-1007
▁ア	-1008
▁幫	-1009
▁彼	-1010
▁我	-1011
▁私	-1012
▁評	-1013
▁香	-1014
▁ꗺ	-1015
▁이	-1016
▁﷽	-1017
▁�	-1018
▁🇪	-1019
▁🇻	-1020
▁👉	-1021
▁👌	-1022
▁👍	-1023
▁👎	-1024
▁💕	-1025
▁💘	-1026
▁💯	-1027
▁📖	-1028
▁🔥	-1029
▁😀	-1030
▁😁	-1031
▁😂	-1032
▁😃	-1033
▁😆	-1034
▁😉	-1035
▁😏	-1036
▁😘	-1037
▁😡	-1038
▁😢	-1039
▁😥	-1040
▁😭	-1041
▁🙂	-1042
▁🙄	-1043
▁🙏	-1044
▁🚴	-1045
▁🤔	-1046
▁🤙	-1047
▁🤣	-1048
▁🥺	-1049
▁🧑	-1050
▢	-1051
►	-1052
▼	-1053
●	-1054
★	-1055
☆	-1056
☞	-1057
♂	-1058
♡	-1059
♥	-1060
♫	-1061
✈	-1062
✌	-1063
✔	-1064
❤	-1065
➜	-1066
➤	-1067
⭐	-1068
ⵗ	-1069
ⶁ	-1070
。	-1071
か	-1072
で	-1073
と	-1074
ど	-1075
ア	-1076
ハ	-1077
ム	-1078
ラ	-1079
吗	-1080
小	-1081
幫	-1082
彼	-1083
想	-1084
我	-1085
港	-1086
發	-1087
私	-1088
者	-1089
製	-1090
評	-1091
語	-1092
論	-1093
達	-1094
錄	-1095
音	-1096
香	-1097
ꗺ	-1098
ꬂ	-1099
ꬃ	-1100
ꬄ	-1101
ꬅ	-1102
ꬆ	-1103
ꬊ	-1104
ꬋ	-1105
ꬑ	-1106
이	-1107
해	-1108
﷽	-1109
️	-1110
�	-1111
🇪	-1112
🇳	-1113
🇷	-1114
🇹	-1115
🇻	-1116
🎵	-1117
🏻	-1118
🏽	-1119
👇	-1120
👈	-1121
👉	-1122
👌	-1123
👍	-1124
👎	-1125
💕	-1126
💘	-1127
💛	-1128
💝	-1129
💞	-1130
💯	-1131
📖	-1132
🔥	-1133
😀	-1134
😁	-1135
😂	-1136
😃	-1137
😄	-1138
😆	-1139
😉	-1140
😍	-1141
😏	-1142
😘	-1143
😡	-1144
😢	-1145
😥	-1146
😭	-1147
🙂	-1148
🙄	-1149
🙉	-1150
🙏	-1151
🚴	-1152
🤔	-1153
🤗	-1154
🤙	-1155
🤣	-1156
🤦	-1157
🥺	-1158
🧑	-1159
▁ኣብ	-1160
▁እዩ	-1161
▁ከም	-1162
▁ኣይ	-1163
▁እን	-1164
ውን	-1165
▁እዩ።	-1166
▁ድማ	-1167
▁እቲ	-1168
ታት	-1169
▁ካብ	-1170
▁ናይ	-1171
▁እዚ	-1172
ን።	-1173
ቶም	-1174
▁ምስ	-1175
ም።	-1176
ምላ	-1177
ምላኽ	-1178
ኩም	-1179
▁ናብ	-1180
ነት	-1181
▁እንተ	-1182
▁ስለ	-1183
▁ኣምላኽ	-1184
▁ከኣ	-1185
▁ኣለ	-1186
▁ሰብ	-1187
▁መን	-1188
ኽእ	-1189
ታይ	-1190
▁ዘይ	-1191
▁ሓደ	-1192
▁እየ	-1193
በር	-1194
▁ኣሎ	-1195
ብል	-1196
በረ	-1197
ና።	-1198
ሎም	-1199
▁እዮ	-1200
ገር	-1201
▁ክን	-1202
ኽእል	-1203
ዓል	-1204
ብር	-1205
▁ክት	-1206
▁ዘለ	-1207
▁እውን	-1208
ባት	-1209
ፈል	-1210
▁ነይ	-1211
▁ነቲ	-1212
ኹም	-1213
▁ግን	-1214
ትን	-1215
ኣብ	-1216
▁ወይ	-1217
ግዚ	-1218
▁ዘሎ	-1219
ኸውን	-1220
ዩ።	-1221
▁ዝተ	-1222
▁ኸኣ	-1223
▁እንታይ	-1224
ምን	-1225
▁ኣነ	-1226
ንቲ	-1227
መይ	-1228
▁ግዜ	-1229
ዕባ	-1230
▁እግዚ	-1231
▁እም	-1232
ራት	-1233
▁ዝነ	-1234
▁ብዙ	-1235
▁ዓመ	-1236
በይ	-1237
▁መዓል	-1238
▁ህዝ	-1239
ኦም	-1240
ለት	-1241
ሩ።	-1242
▁ንሱ	-1243
ዛዕባ	-1244
▁እሞ	-1245
ለም	-1246
ራይ	-1247
ያት	-1248
ራሕ	-1249
ኾነ	-1250
ያን	-1251
▁ሰባት	-1252
▁ካል	-1253
▁እቶም	-1254
▁ኩሉ	-1255
▁እያ	-1256
ወት	-1257
ርስ	-1258
▁ነገር	-1259
▁ዝበ	-1260
▁ንስ	-1261
ሔር	-1262
ዎ።	-1263
▁እዮም።	-1264
ሱስ	-1265
ሕሪ	-1266
ይኑ	-1267
▁ምድ	-1268
▁ኢኻ	-1269
▁ነዚ	-1270
▁ቅድ	-1271
ገብ	-1272
ገል	-1273
ተይ	-1274
ኮነ	-1275
▁እተ	-1276
መን	-1277
▁እግዚኣብ	-1278
▁መዓልቲ	-1279
ላት	-1280
ዕሊ	-1281
▁ሕጂ	-1282
▁ኣይት	-1283
▁ክሳ	-1284
▁እዮም	-1285
መስ	-1286
ሓት	-1287
ፈልጥ	-1288
ርእ	-1289
'ውን	-1290
ኣይ	-1291
ረት	-1292
▁ኢሉ	-1293
▁ዓመት	-1294
ስቲ	-1295
ዋን	-1296
▁እታ	-1297
ገብር	-1298
▁ኣሎ።	-1299
▁ህዝቢ	-1300
ዛረ	-1301
▁ቤት	-1302
..	-1303
ልካ	-1304
▁ጥራይ	-1305
▁ኢና	-1306
▁ኸም	-1307
ስተ	-1308
▁ብዙሕ	-1309
ዘይ	-1310
ይወት	-1311
ሓፍ	-1312
▁ንኣ	-1313
▁ክል	-1314
▁እየ።	-1315
▁እት	-1316
▁ዓለም	-1317
▁መጽ	-1318
ለይ	-1319
ግባ	-1320
መር	-1321
ዓት	-1322
▁ቅዱ	-1323
ሰር	-1324
ምህ	-1325
▁ምዃ	-1326
ብሉ	-1327
▁ሎሚ	-1328
▁ንስኻ	-1329
▁ኣቦ	-1330
▁ኣን	-1331
▁እስ	-1332
▁ማለት	-1333
▁ርእ	-1334
▁ኢና።	-1335
▁ምእ	-1336
ኤል	-1337
ሮም	-1338
▁ተመ	-1339
ዮም	-1340
▁ምኽ	-1341
▁ቅድሚ	-1342
▁እዋን	-1343
ልና	-1344
ዎም	-1345
ርከ	-1346
'ዩ	-1347
ድል	-1348
▁ክርስ	-1349
ኒ።	-1350
▁ነበረ	-1351
ምር	-1352
ናት	-1353
ገራት	-1354
ደይ	-1355
▁ምድሪ	-1356
▁ከይ	-1357
ታዊ	-1358
▁20	-1359
▁እና	-1360
ጽእ	-1361
▁ኣይኮነ	-1362
ናይ	-1363
▁ቅዱስ	-1364
▁መል	-1365
▁የሱስ	-1366
ውያን	-1367
▁ድሕሪ	-1368
ትኩም	-1369
በል	-1370
▁ዝሓ	-1371
▁ኢዩ።	-1372
▁ከመይ	-1373
▁ንዓ	-1374
▁ንሳ	-1375
ና፡	-1376
▁ሰማ	-1377
ደል	-1378
▁መጽሓፍ	-1379
'ዚ	-1380
ይታ	-1381
▁ንሕ	-1382
ገዲ	-1383
ተን	-1384
▁ድማ፡	-1385
ርያ	-1386
▁ምሳ	-1387
ናን	-1388
▁ብም	-1389
▁በሎ	-1390
ሉ።	-1391
ራዊ	-1392
ይን	-1393
ምህር	-1394
ኣት	-1395
'ዩ።	-1396
▁መንግ	-1397
▁ዝኾነ	-1398
▁"እ	-1399
▁ደቂ	-1400
ዳእ	-1401
▁ሃገር	-1402
▁እምበር	-1403
▁በለ	-1404
▁መሰ	-1405
▁ወዲ	-1406
ሰብ	-1407
ምንታይ	-1408
▁ካልእ	-1409
▁ዝነበረ	-1410
ቡቕ	-1411
▁ልዕሊ	-1412
▁ብር	-1413
▁ንሓ	-1414
▁ነይሩ።	-1415
▁ኣዝ	-1416
▁ኣባ	-1417
▁ንም	-1418
▁ስም	-1419
ዞም	-1420
ለን	-1421
▁እግዚኣብሔር	-1422
▁ዝብል	-1423
▁ከተ	-1424
▁ገለ	-1425
▁ስራሕ	-1426
▁ንእ	-1427
▁ክልተ	-1428
▁ዓይ	-1429
▁ምኽን	-1430
▁ቦታ	-1431
ን፡	-1432
▁ምን	-1433
▁ሓቂ	-1434
▁እስራ	-1435
ሃል	-1436
▁ምእንቲ	-1437
ኦት	-1438
▁ክሳብ	-1439
▁ሽዑ	-1440
▁እያ።	-1441
ብኡ	-1442
▁ህይወት	-1443
▁እዚኣ	-1444
ላም	-1445
▁መስ	-1446
▁ገዛ	-1447
▁ሓንቲ	-1448
▁እሞ፡	-1449
ሰም	-1450
ሄር	-1451
ዳይ	-1452
▁ኮይኑ	-1453
▁ቃል	-1454
ኹን	-1455
▁በዚ	-1456
ሆዋ	-1457
ንስ	-1458
ላይ	-1459
ጉስ	-1460
▁ኵሉ	-1461
ረኽ	-1462
▁ዝመ	-1463
▁ኣፍ	-1464
ድሕ	-1465
በሩ	-1466
ጣን	-1467
ከኣ	-1468
ኹ።	-1469
ክብ	-1470
▁ነቶም	-1471
▁ዝዀ	-1472
▁ግብ	-1473
▁ኻብ	-1474
▁ጽቡቕ	-1475
▁ንሕና	-1476
ሉእ	-1477
ርከብ	-1478
▁ብዘይ	-1479
▁ገይ	-1480
▁ከምዝ	-1481
በለ	-1482
ንን	-1483
አብ	-1484
▁ደኣ	-1485
ላለ	-1486
ሎት	-1487
ቦም	-1488
▁ነበረ።	-1489
ደሊ	-1490
▁እስራኤል	-1491
▁ክኸውን	-1492
▁ኣየ	-1493
▁ኣገ	-1494
ርኢ	-1495
አብሔር	-1496
ማት	-1497
▁ብዝ	-1498
ቶስ	-1499
▁ኢዩ	-1500
▁ትምህር	-1501
▁ምዃኑ	-1502
ንዘ	-1503
▁ኢኻ።	-1504
▁ኢየ	-1505
ሰይ	-1506
▁ኽት	-1507
▁ብሓ	-1508
ርን	-1509
▁ኣይነ	-1510
ምል	-1511
▁ኣይተ	-1512
ዛረብ	-1513
▁ነገራት	-1514
▁ዘለዎ	-1515
▁ነፍ	-1516
▁ኣሕ	-1517
▁ምር	-1518
▁የሆዋ	-1519
ኖም	-1520
▁ኣይኮነን።	-1521
ስፋ	-1522
ነታት	-1523
▁ብዙሓት	-1524
▁ዝበለ	-1525
▁ሕቶ	-1526
ርት	-1527
ልን	-1528
▁ነይሩ	-1529
▁ኣለዉ	-1530
ነብር	-1531
ፈት	-1532
▁ብኸ	-1533
ድን	-1534
▁መወ	-1535
▁ዓይነት	-1536
ረ።	-1537
▁ቤተ	-1538
▁ክፍ	-1539
▁ባህ	-1540
ባር	-1541
▁ኣይክ	-1542
▁ዝገ	-1543
ላእ	-1544
ዳእታ	-1545
▁ባዕ	-1546
ማይ	-1547
ትና	-1548
ርና	-1549
▁ዝኣ	-1550
ልክ	-1551
▁ንኽ	-1552
▁ፍር	-1553
በይቲ	-1554
በት	-1555
ድራ	-1556
ኸይ	-1557
ስ፡	-1558
▁ተስፋ	-1559
ፈር	-1560
▁ፍቕ	-1561
▁እግዚኣብሄር	-1562
ካን	-1563
▁ግና፡	-1564
▁ክህ	-1565
▁ኣእ	-1566
ዊት	-1567
ኽቲ	-1568
ንዘብ	-1569
▁ውሽ	-1570
▁መንግስቲ	-1571
▁ኣስ	-1572
▁ተቐ	-1573
▁ሰላም	-1574
▁"ኣ	-1575
▁ኢኹም	-1576
▁ሓድ	-1577
ኰነ	-1578
ሳብ	-1579
▁ድዩ	-1580
ማዕ	-1581
▁ንጉስ	-1582
▁በቲ	-1583
▁ገሊ	-1584
ገልግ	-1585
▁ከሎ	-1586
ባይ	-1587
ሕቲ	-1588
ካል	-1589
▁መንፈ	-1590
ባል	-1591
▁መወዳእታ	-1592
ኹም።	-1593
▁እግዚአብሔር	-1594
▁ኣለዎ።	-1595
ብለ	-1596
▁ካልኦት	-1597
ባዕ	-1598
▁ብእ	-1599
▁ንሳቶም	-1600
ብሎ	-1601
ለስተ	-1602
▁10	-1603
ዳን	-1604
ይቲ	-1605
ት።	-1606
ለስ	-1607
▁ክርስቶስ	-1608
▁ዝወ	-1609
▁ጊዜ	-1610
ደን	-1611
▁ትምህርቲ	-1612
▁ተወ	-1613
ትዮ	-1614
ፈልጦ	-1615
▁ዝዀነ	-1616
▁ምሕ	-1617
▁ስለምንታይ	-1618
▁ጐይታ	-1619
ግባር	-1620
▁ወር	-1621
ዶም	-1622
▁ኣመ	-1623
ከፍ	-1624
▁በል	-1625
ባብ	-1626
▁ቀዳ	-1627
▁መር	-1628
በሮ	-1629
ኻትኩም	-1630
▁19	-1631
▁ፍል	-1632
ሬታ	-1633
▁ብኣ	-1634
▁መገዲ	-1635
ከውን	-1636
ግብ	-1637
▁ከተማ	-1638
▁ክሳዕ	-1639
▁ማእ	-1640
▁ንዝ	-1641
ዘለ	-1642
ል።	-1643
▁ማሕ	-1644
ገብሮ	-1645
▁ሓይ	-1646
መጽእ	-1647
▁ገንዘብ	-1648
ንቋ	-1649
▁ኣር	-1650
▁ኣው	-1651
ተር	-1652
▁ሕማ	-1653
ልቦ	-1654
▁ሰብኣይ	-1655
ዚ፡	-1656
ካ።	-1657
ነብ	-1658
▁ትኽእል	-1659
▁ሞት	-1660
ላ።	-1661
▁መብ	-1662
በብ	-1663
ሪካ	-1664
ገድ	-1665
▁ዘለዉ	-1666
'ቲ	-1667
ጻኢ	-1668
ሙን	-1669
▁ሓበ	-1670
በሉ	-1671
▁ኸኣ፡	-1672
▁ኢሎም	-1673
▁ብስ	-1674
▁ኢለ	-1675
ኛታት	-1676
ስዕ	-1677
▁ስር	-1678
▁ጽሑ	-1679
ጀመር	-1680
▁ዓመታት	-1681
▁ብኸመይ	-1682
ካብ	-1683
ልእ	-1684
▁ጉዳይ	-1685
▁ክንደይ	-1686
▁ውን	-1687
ንካ	-1688
▁ኪኸውን	-1689
ጠን	-1690
ገም	-1691
ዎም።	-1692
ኩ።	-1693
00	-1694
▁በሎ።	-1695
ዘን	-1696
ገዝ	-1697
ሕግ	-1698
▁ጀሚ	-1699
▁ኢል	-1700
ሶም	-1701
ሓቂ	-1702
ሃብ	-1703
እቲ	-1704
▁ሰለስተ	-1705
▁ዓብ	-1706
▁ማይ	-1707
▁እዩ፣	-1708
ክል	-1709
▁እዩ፡	-1710
▁ንመ	-1711
▁ብፍ	-1712
ግር	-1713
▁ስድራ	-1714
ርብ	-1715
▁ከኣ፡	-1716
▁በለ።	-1717
▁አብ	-1718
ለጥ	-1719
ሮም።	-1720
ምቲ	-1721
▁ሓበሬታ	-1722
ብል።	-1723
ስን	-1724
ፈላለ	-1725
▁ስለዝ	-1726
▁ኣቢ	-1727
▁ምኽንያ	-1728
▁ነታ	-1729
▁"ን	-1730
ያዳ	-1731
ሰን	-1732
ወስ	-1733
ለን።	-1734
ናኸ	-1735
▁ፍቕሪ	-1736
▁ከለ	-1737
▁ንገ	-1738
ድልየ	-1739
በሩ።	-1740
ግበር	-1741
▁ኢኹም።	-1742
▁መደ	-1743
ረኸ	-1744
ኣር	-1745
...	-1746
▁ክብ	-1747
ሃን	-1748
▁ታሪ	-1749
▁ምሉእ	-1750
ፈልጡ	-1751
▁ተፈ	-1752
ግባእ	-1753
ግደ	-1754
▁እምነት	-1755
▁ኣገዳ	-1756
▁201	-1757
▁ዝኸ	-1758
▁መንጎ	-1759
ርድ	-1760
▁እዩ"	-1761
▁ተኣ	-1762
▁ዅሉ	-1763
▁ስል	-1764
▁ኢየሱስ	-1765
▁ጥራሕ	-1766
'የ	-1767
▁ይኽእል	-1768
ርካ	-1769
▁መግ	-1770
▁ሃገራት	-1771
▁ሙሴ	-1772
ምስ	-1773
▁ንኣምላኽ	-1774
▁ኢድ	-1775
▁ምኽንያት	-1776
ታትን	-1777
▁ኢልካ	-1778
ብና	-1779
ዙይ	-1780
▁ኣይነበረ	-1781
ማን	-1782
▁ወለ	-1783
ነይ	-1784
ቡ።	-1785
ኾኑ	-1786
▁ተሓ	-1787
▁ይኸውን	-1788
▁ሓድሽ	-1789
▁በሎም።	-1790
ደት	-1791
▁ሕጊ	-1792
▁ነብ	-1793
ክር	-1794
▁12	-1795
ይወ	-1796
▁ኣጋ	-1797
▁ኣይን	-1798
▁መጺ	-1799
▁ዝዓ	-1800
▁ኽን	-1801
▁ዋላ	-1802
ዕና	-1803
▁እንሆ	-1804
▁ነፍሲ	-1805
ሓይ	-1806
▁ኤርት	-1807
ንታ	-1808
ዋር	-1809
▁ኣይኮ	-1810
ጸን	-1811
ግጽ	-1812
ረክብ	-1813
▁እንተኾነ	-1814
ሕት	-1815
ዮም።	-1816
▁ዝሓለ	-1817
▁ሰበይቲ	-1818
ረን	-1819
▁ዕድ	-1820
ተወ	-1821
ሰርሕ	-1822
ረኣ	-1823
▁ወይስ	-1824
ፍቲ	-1825
▁ኣለዉ።	-1826
▁እወ	-1827
▁15	-1828
ትካ	-1829
ሲ፡	-1830
▁ክርስት	-1831
ስት	-1832
▁ኣይኰነ	-1833
▁ምስኡ	-1834
▁ኮይ	-1835
ልም	-1836
▁ዝነበሩ	-1837
ታቶም	-1838
:1	-1839
ዕቲ	-1840
▁ዓቢ	-1841
▁ተባ	-1842
ነግ	-1843
ራን	-1844
ባቢ	-1845
ሙር	-1846
▁ሃገ	-1847
▁ኩነታት	-1848
▁መዓ	-1849
▁ድም	-1850
▁መለ	-1851
መሰ	-1852
ዋ።	-1853
▁ግናኸ	-1854
ዓተ	-1855
▁ውሽጢ	-1856
ሳት	-1857
ሎም።	-1858
ሓደ	-1859
ፍር	-1860
ድሕሪ	-1861
ጻእ	-1862
ረብ	-1863
▁ኣገዳሲ	-1864
▁ቋንቋ	-1865
▁ተሰ	-1866
▁የብሉ	-1867
▁ኣሕዋ	-1868
▁መጀመር	-1869
▁ኣይኮነን	-1870
▁ወከፍ	-1871
ሳይ	-1872
ልዑ	-1873
ኻን	-1874
ዕል	-1875
▁ክብል	-1876
▁ኣድ	-1877
▁ንዕ	-1878
ሓን	-1879
ደለ	-1880
▁ሃብ	-1881
▁መብዛ	-1882
▁ደቀ	-1883
▁የልቦ	-1884
ፍቅ	-1885
▁ወርሒ	-1886
▁ሰዓት	-1887
ብረ	-1888
ኽእሉ	-1889
ላማ	-1890
ጽሕ	-1891
ጥቀ	-1892
▁ንሰ	-1893
▁ነገ	-1894
▁ደው	-1895
ገብሩ	-1896
▁ኣት	-1897
▁ኤርትራ	-1898
ቱን	-1899
ጻሕ	-1900
ተሓ	-1901
ሽተ	-1902
▁መንፈስ	-1903
▁እምበር፡	-1904
▁ከምኡ	-1905
▁ትር	-1906
▁14	-1907
ራ።	-1908
▁ኣበይ	-1909
፧"	-1910
ብን	-1911
ድና	-1912
▁ዳዊት	-1913
▁ውድ	-1914
ዮ።	-1915
ልኩም	-1916
ህበ	-1917
▁ዝኽእል	-1918
▁የብ	-1919
▁ኣም	-1920
▁ነበሩ።	-1921
ረባ	-1922
▁ንዅ	-1923
▁ሰይ	-1924
ዮን	-1925
▁ምፍ	-1926
ዊሕ	-1927
▁18	-1928
▁ተገ	-1929
▁ብመ	-1930
▁ገና	-1931
▁ዘበለ	-1932
▁11	-1933
▁ስለዚ፡	-1934
ሓስ	-1935
▁ንስኻትኩም	-1936
ጢኣት	-1937
▁ትን	-1938
ላዕሊ	-1939
ኑዕ	-1940
▁መላእ	-1941
ዘሎ	-1942
▁ዓብዪ	-1943
▁ኣማ	-1944
ከኣል	-1945
▁ደገ	-1946
ንኩ	-1947
▁የለን።	-1948
▁ታሪኽ	-1949
▁ካብዚ	-1950
▁እምበ	-1951
▁በዓል	-1952
ላዕ	-1953
▁ማእከ	-1954
▁መንገዲ	-1955
ያ።	-1956
▁ጸሎት	-1957
▁ምግ	-1958
▁ምም	-1959
ስም	-1960
ለማ	-1961
▁ዝሰ	-1962
▁ሓይሊ	-1963
▁"ኣብ	-1964
▁ኣለኹ	-1965
▁ኣካ	-1966
ናል	-1967
▁ፍቓ	-1968
▁ደጊ	-1969
▁ወሲ	-1970
ደም	-1971
▁ጸኒ	-1972
ከት	-1973
ልወ	-1974
በየ	-1975
▁ሓሳብ	-1976
ባዊ	-1977
▁ኣለኹ።	-1978
ጽል	-1979
ክርስ	-1980
ንዲ	-1981
ልዓ	-1982
ጠፍ	-1983
▁ኣገልግ	-1984
ፋል	-1985
▁ተዋ	-1986
▁ምው	-1987
እል	-1988
▁ማዕ	-1989
▁መልሲ	-1990
ገልጽ	-1991
▁ምዕ	-1992
ቡር	-1993
▁ትእ	-1994
▁አሎ	-1995
▁መዝ	-1996
ገብረ	-1997
ህዝ	-1998
▁ብዛዕባ	-1999
▁ኰይኑ	-2000
▁መንእ	-2001
ብረት	-2002
ታን	-2003
ኣን	-2004
▁ካብኡ	-2005
ሕዝ	-2006
ላን	-2007
▁ሳዕ	-2008
ዳም	-2009
▁ፍሉ	-2010
▁ዘሎ።	-2011
ብሃል	-2012
'ዶ	-2013
▁ንግ	-2014
▁ትሕቲ	-2015
ምና	-2016
ክን	-2017
ኹሉ	-2018
▁ይቕ	-2019
▁ሓላ	-2020
▁ተባሂ	-2021
ቢት	-2022
▁ኣል	-2023
ባሕ	-2024
▁ዝፈ	-2025
ርእዮ	-2026
▁ይመስ	-2027
▁ተጠ	-2028
▁ስርዓት	-2029
ኣቶም	-2030
ስና	-2031
ዎን	-2032
ሞም	-2033
▁እንከ	-2034
▁እተን	-2035
▁ዓዲ	-2036
▁ኸተ	-2037
▁ጽሑፍ	-2038
▁ኵሎም	-2039
▁ድሕ	-2040
ትታት	-2041
▁ሓገዝ	-2042
▁ሰሚ	-2043
ቲካ	-2044
▁መሊ	-2045
▁ዕለት	-2046
▁እንዳ	-2047
ንቀ	-2048
▁እዩ፧	-2049
ሃር	-2050
▁ገይሩ	-2051
ያስ	-2052
ልፍ	-2053
▁ስጋ	-2054
▁ተረ	-2055
▁ሰዓ	-2056
ኑ።	-2057
ዳር	-2058
▁አምላኽ	-2059
▁በታ	-2060
ኸይድ	-2061
ራብ	-2062
ሳዕ	-2063
▁ከባቢ	-2064
▁ዘየ	-2065
▁ርክብ	-2066
ረጃ	-2067
▁እምበኣር	-2068
ግእ	-2069
ክዕ	-2070
▁ካባ	-2071
▁እቲኣ	-2072
ሉን	-2073
▁ጸጋ	-2074
ተኛታት	-2075
▁ኣለዎ	-2076
▁ተማ	-2077
▁ብተ	-2078
▁ንነ	-2079
ድሊ	-2080
▁መድ	-2081
▁17	-2082
ኩም፡	-2083
እን	-2084
▁ጓል	-2085
ቱ።	-2086
▁ዝሓለፈ	-2087
▁ዝያዳ	-2088
▁ንደ	-2089
▁ግብጺ	-2090
ልዎ	-2091
▁ዘይኮነ	-2092
▁መልእ	-2093
▁"ብ	-2094
ክት	-2095
▁መጠን	-2096
ኣብነት	-2097
▁ኣዕ	-2098
ይቶ	-2099
ወይ	-2100
▁ሰይጣን	-2101
ርአ	-2102
▁ኣይነበረን።	-2103
ደልዩ	-2104
▁ሃይ	-2105
▁ካልኣይ	-2106
▁ጸገም	-2107
▁ልቢ	-2108
ባዕተ	-2109
ምለስ	-2110
▁ዝኸውን	-2111
ቢድ	-2112
▁16	-2113
▁ሰሙን	-2114
▁ኣሜ	-2115
▁አይ	-2116
▁ስልጣን	-2117
▁ለው	-2118
ለቲካ	-2119
ኣም	-2120
▁ሓያ	-2121
▁ጌር	-2122
▁ወት	-2123
ሳስ	-2124
▁ቀዳማይ	-2125
▁ነይረ።	-2126
▁ምጽ	-2127
ሳዊ	-2128
▁13	-2129
▁ምናል	-2130
▁...	-2131
ግዚኣብ	-2132
▁ኣቦይ	-2133
▁ይብል።	-2134
ኣለም	-2135
▁ክፍሊ	-2136
▁ብል	-2137
▁ተራ	-2138
▁ባሕሪ	-2139
ቤት	-2140
▁ነበር	-2141
ተት	-2142
ፍት	-2143
ይና	-2144
▁መብዛሕት	-2145
▁ብግ	-2146
▁መሰል	-2147
ዉን	-2148
▁ኣህ	-2149
ሩብ	-2150
ማኖ	-2151
▁ፈተ	-2152
ሳኺ	-2153
▁ቀረ	-2154
▁መዛ	-2155
▁ሕዚ	-2156
▁ገጽ	-2157
ድካ	-2158
ሳሌ	-2159
ኩም።	-2160
ምሮ	-2161
ርሕ	-2162
▁ኣደ	-2163
ሰምዕ	-2164
▁ንዘለ	-2165
▁ዘላ	-2166
▁ህያ	-2167
ግደፍ	-2168
ን፣	-2169
▁ወጻኢ	-2170
▁ኣጸ	-2171
ፋት	-2172
▁መቕ	-2173
ድር	-2174
▁ኣሎና።	-2175
▁ኣይክእ	-2176
▁ኣቐ	-2177
ላዊ	-2178
ህብ	-2179
ያዊ	-2180
ረጋ	-2181
ረይ	-2182
ኼባ	-2183
ምለ	-2184
▁ኣምላ	-2185
ፉእ	-2186
ዱ።	-2187
▁የብሉን።	-2188
ስኻ	-2189
▁ብምባል	-2190
ቶ።	-2191
መራ	-2192
▁ፍልጠ	-2193
ኡን	-2194
▁ኣገልግሎት	-2195
▁ትእዛ	-2196
ናዮ	-2197
ንግ	-2198
▁ዘመ	-2199
▁ረኣ	-2200
▁ሕይወት	-2201
▁ዝለ	-2202
ኒ፡	-2203
ራር	-2204
▁ፖለቲካ	-2205
ዋይ	-2206
▁ወረ	-2207
▁ግብሪ	-2208
▁ረኺ	-2209
ጋጥ	-2210
ሴፍ	-2211
▁እዩ?	-2212
▁ዝተፈላለ	-2213
▁ዕድል	-2214
▁ንብ	-2215
ጥፍ	-2216
▁ተዛ	-2217
ስታት	-2218
▁ዘመን	-2219
መስል	-2220
መል	-2221
▁ምብ	-2222
ኻል	-2223
▁"እዚ	-2224
ኡ፡	-2225
ሰርተ	-2226
▁ኣኼባ	-2227
▁ክልቲ	-2228
▁ከነ	-2229
▁ነዊሕ	-2230
ጽበ	-2231
▁ዕዮ	-2232
ቱም	-2233
ዛብ	-2234
▁ኣዒ	-2235
▁ወትሩ	-2236
ረስ	-2237
▁ትርጉ	-2238
ኩምን	-2239
ነ።	-2240
▁ንሓደ	-2241
▁ኣርባዕተ	-2242
ንብ	-2243
▁መጀመርታ	-2244
የ።	-2245
ሬት	-2246
ቐት	-2247
▁ብርሃን	-2248
▁ሰናይ	-2249
▁ዕላማ	-2250
ሃበ	-2251
ላትና	-2252
▁ፍት	-2253
▁ዘይተ	-2254
▁ንዓይ	-2255
▁እዝ	-2256
▁ተኸ	-2257
▁ብርግጽ	-2258
ራዊት	-2259
ረድ	-2260
▁ኣይኰነን።	-2261
▁ህይወ	-2262
ግም	-2263
መስግ	-2264
▁ከቢድ	-2265
ሓር	-2266
ነብሩ	-2267
▁ብፍላይ	-2268
ከይ	-2269
ኣኽ	-2270
ራኸ	-2271
▁ናባ	-2272
ኦን	-2273
▁ኣታ	-2274
▁ዘለዎም	-2275
▁ብት	-2276
ከም	-2277
▁ጌጋ	-2278
▁ሓለ	-2279
▁ኣበ	-2280
ጽን	-2281
▁ኸተማ	-2282
▁ሓዲ	-2283
ናዊ	-2284
ርያም	-2285
▁ምት	-2286
ደስ	-2287
▁ምሳይ	-2288
▁እየን።	-2289
ናብ	-2290
▁ፈጺ	-2291
▁ምህ	-2292
▁ነዛ	-2293
▁23	-2294
▁ንርእ	-2295
ርሃ	-2296
ሞን	-2297
ውት	-2298
▁ድዩ?	-2299
▁ህዝብ	-2300
ጣዕ	-2301
ደገ	-2302
▁ህግደፍ	-2303
▁በብ	-2304
▁ሓቢ	-2305
▁ሓሙ	-2306
▁ጀር	-2307
▁ኣኽ	-2308
ወል	-2309
▁ሓሳ	-2310
▁"እቲ	-2311
ካዮ	-2312
re	-2313
▁ክርስትያን	-2314
▁ሓጢኣት	-2315
▁ይኽእል።	-2316
▁ደረጃ	-2317
▁ምናልባት	-2318
ውሎ	-2319
▁ኪዳን	-2320
▁(1	-2321
ህቦ	-2322
▁ይኸውን።	-2323
▁ትግ	-2324
▁ዝር	-2325
▁ለይቲ	-2326
ሩሳሌ	-2327
▁ዋጋ	-2328
▁ዘይት	-2329
▁ኣዚ	-2330
▁ሕማም	-2331
▁ይስ	-2332
ፎም	-2333
▁ዘረባ	-2334
▁ኣባላት	-2335
ጥሮ	-2336
▁ኣካል	-2337
▁ኣለና።	-2338
ቆብ	-2339
ዖም	-2340
ናን።	-2341
▁የልቦን።	-2342
▁ዝፍ	-2343
▁ኣንስ	-2344
ጠር	-2345
ሞት	-2346
ሳን	-2347
ሕል	-2348
▁ደጊም	-2349
ካ፡	-2350
▁ፈር	-2351
ዝር	-2352
ሳሳ	-2353
▁ውሳ	-2354
▁ውግእ	-2355
▁ስነ	-2356
ስዕብ	-2357
▁የለን	-2358
▁ፍሉይ	-2359
የሱስ	-2360
ህይወት	-2361
▁እንተኾ	-2362
አን	-2363
ቡእ	-2364
ምልከት	-2365
ደ።	-2366
▁ዝጸ	-2367
▁ንጽ	-2368
▁መደብ	-2369
▁ገዛእ	-2370
▁ዀይኑ	-2371
▁ምልክ	-2372
ጻር	-2373
ኽን	-2374
ክዎ	-2375
▁ኣሜሪካ	-2376
▁ተዓ	-2377
ድ።	-2378
▁ድምጺ	-2379
▁ዘይብሉ	-2380
▁ኣብርሃ	-2381
▁ልክዕ	-2382
ውዕ	-2383
▁ክገብር	-2384
ድቕ	-2385
ዳት	-2386
ቅስ	-2387
ላጥ	-2388
▁ቃላት	-2389
▁ሰበይ	-2390
▁ዲኻ	-2391
▁ወን	-2392
ዕዞ	-2393
▁ሽዑ፡	-2394
▁ጸል	-2395
▁ኢን	-2396
ዋት	-2397
ሮጳ	-2398
▁ድኣ	-2399
▁ጥቕ	-2400
▁ደም	-2401
▁ሳል	-2402
በሃል	-2403
መት	-2404
▁ጀመ	-2405
▁እንሆ፡	-2406
▁ኣዋ	-2407
ሓድ	-2408
▁ሃይማኖ	-2409
▁ሽሕ	-2410
ላው	-2411
▁ጥዕና	-2412
▁ዓሰርተ	-2413
▁ኢትዮ	-2414
▁ነይሮም።	-2415
▁የብል	-2416
▁ንዓኻ	-2417
▁በጃ	-2418
▁ፍረ	-2419
ድም	-2420
▁ይግባእ	-2421
▁ለውጢ	-2422
ፈልጥን	-2423
ካየ	-2424
▁ሕዝ	-2425
በራ	-2426
ሊፉ	-2427
▁ብዘ	-2428
▁ብዓ	-2429
ጹ።	-2430
ክሮ	-2431
ስነት	-2432
▁ተጋ	-2433
▁ምዃን	-2434
ፍን	-2435
ጹም	-2436
ኣቱ	-2437
ጥቃ	-2438
▁ኣለው	-2439
ቡራት	-2440
ጽሪ	-2441
ግለ	-2442
ኻ።	-2443
▁ጽባሕ	-2444
▁ደር	-2445
ጵያ	-2446
▁ደስ	-2447
▁ልዑ	-2448
ጣዕሚ	-2449
ሳሳሊ	-2450
▁ጽድ	-2451
ዘር	-2452
▁ብዘይካ	-2453
▁ሓደጋ	-2454
▁ፍርዲ	-2455
▁ዮሴፍ	-2456
▁ይፈልጥ	-2457
▁ዝም	-2458
▁መዛሙር	-2459
▁24	-2460
ገን	-2461
ምት	-2462
▁ዝነበር	-2463
▁ጥበብ	-2464
ልየ	-2465
▁እንተዘይ	-2466
▁ናብኡ	-2467
▁ምግባር	-2468
ነቱ	-2469
▁ኲሉ	-2470
ህን	-2471
ድሚ	-2472
ኣምን	-2473
ልቲ	-2474
▁ክፋል	-2475
▁ኣመሪካ	-2476
▁ተመሊ	-2477
ባን	-2478
▁ይሕ	-2479
ቱ፡	-2480
▁ቅኑዕ	-2481
ደር	-2482
ዛረቦ	-2483
▁መሬት	-2484
▁ኹሉ	-2485
▁ምርጫ	-2486
▁መሳ	-2487
▁ሕማቕ	-2488
ሩሳሌም	-2489
▁ዘለና	-2490
▁ኣቐዲ	-2491
▁እዚ፡	-2492
▁ብጣዕሚ	-2493
▁ኣይኪ	-2494
▁ሰማያት	-2495
▁መጸ	-2496
▁ዝበሎ	-2497
▁ዳር	-2498
ሉ፡	-2499
▁መግለ	-2500
▁ክቕ	-2501
ጥረት	-2502
ሕግዘ	-2503
ረኽቡ	-2504
ላቶም	-2505
▁ግድን	-2506
▁ሓን	-2507
▁ጳውሎ	-2508
ጥር	-2509
ዎ፡	-2510
▁ዕድመ	-2511
ኻ፡	-2512
ጐስ	-2513
▁ዘሎና	-2514
ለዉ	-2515
▁ይኹ	-2516
▁ብእኡ	-2517
ዋርያት	-2518
▁ዓበይቲ	-2519
ሸት	-2520
▁እየ"	-2521
▁መልእኽቲ	-2522
▁ኣይከኣ	-2523
ልተ	-2524
▁እየ፡	-2525
ዓልቲ	-2526
▁እዙይ	-2527
▁ኣይክእልን	-2528
ነግረ	-2529
▁ፍቓድ	-2530
▁እዩ!	-2531
▁200	-2532
ስሳ	-2533
▁25	-2534
ዒት	-2535
ቲያን	-2536
ሎ።	-2537
▁ኣቕ	-2538
▁መጻኢ	-2539
ኢት	-2540
ረፈ	-2541
ሃንስ	-2542
▁ማእከል	-2543
ሮን	-2544
▁ዚብል	-2545
▁ስደ	-2546
▁ንእሽ	-2547
ነትን	-2548
ብዙ	-2549
▁ልብ	-2550
ዓለም	-2551
ሊል	-2552
▁ሰብኣ	-2553
ፈለ	-2554
▁ዚኽእል	-2555
▁ሓዊ	-2556
▁መለሰ	-2557
▁ሕቶታት	-2558
ልያ	-2559
▁ፍልጠት	-2560
▁ስለዝኾነ	-2561
▁ኢኺ	-2562
ቅን	-2563
▁ምሕረት	-2564
ክእል	-2565
ሖም	-2566
▁ዓቕ	-2567
▁ኢትዮጵያ	-2568
▁ንው	-2569
▁ቀደም	-2570
▁30	-2571
ወጽእ	-2572
▁መላእኽቲ	-2573
ኽብ	-2574
▁ኸይ	-2575
ኩን።	-2576
ርቲ	-2577
▁ክመ	-2578
▁ቓል	-2579
ርከብ።	-2580
ነበረ	-2581
▁እንከሎ	-2582
▁ፈሊ	-2583
▁ተጻ	-2584
ኩዎ	-2585
ቃስ	-2586
▁ግበር	-2587
▁ምሳኻ	-2588
▁ወንጌ	-2589
▁ንወ	-2590
▁ገበር	-2591
▁ንጹ	-2592
ዛእ	-2593
ሱ።	-2594
▁ተበ	-2595
ጸም	-2596
▁ብቐ	-2597
ረኽቦ	-2598
ሶት	-2599
▁ወላ	-2600
▁እግ	-2601
▁ኣተ	-2602
ሁድ	-2603
▁ንመን	-2604
ዳያት	-2605
▁ኣርእ	-2606
በ።	-2607
▁ውል	-2608
▁ቀንዲ	-2609
ልጢ	-2610
▁ንዕኡ	-2611
ራም	-2612
ላል	-2613
▁ይግባእ።	-2614
▁ምዝ	-2615
ሙ።	-2616
▁ይፍ	-2617
:2	-2618
▁ውሉ	-2619
፣+	-2620
ብሎም	-2621
ሕን	-2622
ሓስብ	-2623
▁መዓስ	-2624
ዀነ	-2625
▁ክብሪ	-2626
▁ከዓ	-2627
ድሪ	-2628
ሎን	-2629
▁ጀሚሩ	-2630
▁ሰን	-2631
▁ዜና	-2632
▁ፊልም	-2633
▁ህጻ	-2634
▁መሪ	-2635
▁ኣፍሪ	-2636
▁ኣስተ	-2637
▁መዓልታት	-2638
▁ሓው	-2639
ባህ	-2640
ጣሚ	-2641
ጅለ	-2642
ሁዳ	-2643
▁ሕል	-2644
ውስ	-2645
▁ኣዘ	-2646
▁ንእግዚኣብ	-2647
▁ልዑል	-2648
በን	-2649
▁ክንዲ	-2650
▁እዋ	-2651
▁ኸምዚ	-2652
▁ምል	-2653
▁"ስ	-2654
ድኣ	-2655
ይታይ	-2656
ምካ	-2657
▁ኣለና	-2658
▁ብሓደ	-2659
ውዓተ	-2660
▁ተዛሪ	-2661
▁ተባሂሉ	-2662
ጅምር	-2663
ሪት	-2664
▁ዝቐ	-2665
▁ሓላፍ	-2666
▁ክነ	-2667
▁ንዅሉ	-2668
▁ኢላ	-2669
▁ነይር	-2670
▁መዓልትታት	-2671
▁21	-2672
ዋዕ	-2673
ሱን	-2674
▁ዶ?	-2675
▁ንዘ	-2676
▁ብሕ	-2677
እቆብ	-2678
▁በልዎ።	-2679
::	-2680
▁ዝተወ	-2681
▁"ኣነ	-2682
ላውያን	-2683
ሃሮ	-2684
▁ወይ፡	-2685
▁ኤው	-2686
▁ገሊኦም	-2687
▁ዚኸውን	-2688
▁ውድብ	-2689
▁ኣእምሮ	-2690
▁ምባል	-2691
ውቲ	-2692
ሓባር	-2693
▁ንኽት	-2694
▁ተን	-2695
▁ብመን	-2696
ርክ	-2697
▁መግለጺ	-2698
▁ጎይታ	-2699
▁ኣዒን	-2700
ወን	-2701
መድ	-2702
▁ወሰ	-2703
▁ኣገባብ	-2704
የ፡	-2705
▁ኣይኰ	-2706
ኻኽ	-2707
▁ኣገል	-2708
▁መከ	-2709
ሰት	-2710
▁ዝኣመሰ	-2711
▁ኣላ።	-2712
ጢር	-2713
ወስድ	-2714
ታሕ	-2715
▁በይ	-2716
ምድ	-2717
▁ማርያም	-2718
ህሉ	-2719
ንና	-2720
▁ዘይኰነ	-2721
ዀኑ	-2722
▁ምሳና	-2723
▁ትብል	-2724
▁ቆልዑ	-2725
▁ዘለኹ	-2726
▁ተመል	-2727
▁ኽሳዕ	-2728
በሪ	-2729
ለኒ	-2730
▁ኣህዛብ	-2731
ይዎ	-2732
▁ዝበዝ	-2733
▁ኣብርሃም	-2734
▁ናተይ	-2735
ኽእልን	-2736
▁"ካብ	-2737
▁እስከ	-2738
ድዮ	-2739
ክርስት	-2740
ባኤ	-2741
ምነት	-2742
▁ዘተ	-2743
▁ምኻ	-2744
ሊዝ	-2745
▁ኣለዋ።	-2746
ሳእ	-2747
▁22	-2748
▁ዝኾ	-2749
▁ኮነ	-2750
▁ከመይሲ፡	-2751
▁ንዓና	-2752
ዛረቡ	-2753
▁ዝደሊ	-2754
▁ማሕበ	-2755
ኩሉ	-2756
ሰያት	-2757
▁እምብ	-2758
ኡ።	-2759
▁ኣላ	-2760
▁ትርጉም	-2761
▁ሓሙሽተ	-2762
▁ጳውሎስ	-2763
▁"ነ	-2764
ስራ	-2765
▁ከምዘለ	-2766
▁ነጻ	-2767
ትኻ	-2768
▁እዚኣቶም	-2769
▁እኮ	-2770
▁ንጥ	-2771
▁ዘለዋ	-2772
▁ነይሮም	-2773
ወር	-2774
ምበር	-2775
▁ትማ	-2776
▁ቀጺ	-2777
▁ነይረ	-2778
ኪና	-2779
▁ክፉእ	-2780
▁ሞይ	-2781
ሕና	-2782
▁ፕሮ	-2783
ልድ	-2784
▁ብቕ	-2785
ረም	-2786
ካይ	-2787
ር።	-2788
▁እንስሳ	-2789
▁ኣፍሪቃ	-2790
▁ኣቢሉ	-2791
▁ምሸት	-2792
▁ዝመጽእ	-2793
▁መሲ	-2794
▁ሓቀ	-2795
ቦም።	-2796
▁ክርስትያ	-2797
▁ዝገብር	-2798
▁ዕዳ	-2799
ጽኣ	-2800
ራህ	-2801
ልው	-2802
▁ሕብረት	-2803
ዓለ	-2804
▁ተደ	-2805
▁በረ	-2806
▁ላዕሊ	-2807
▁ድኻ	-2808
▁በጺ	-2809
ኻልኦት	-2810
ለድ	-2811
ደቂ	-2812
ዑ።	-2813
▁ዝስ	-2814
▁ትም	-2815
▁ምዕራ	-2816
▁መሓ	-2817
ጠመ	-2818
▁ዝኾኑ	-2819
▁ኣጋጣሚ	-2820
▁ኣሎኹ።	-2821
▁ዝበሃል	-2822
▁ወጺ	-2823
▁ገይረ	-2824
▁ዝው	-2825
▁ሕቡራት	-2826
የት	-2827
ዕን	-2828
ቦት	-2829
▁ዝደለ	-2830
▁ኣብነት	-2831
▁ምቕ	-2832
ብሪ	-2833
▁ጉዕዞ	-2834
▁ሰም	-2835
▁ኰነ	-2836
ዋርያ	-2837
▁ኤውሮጳ	-2838
▁ምስጋ	-2839
ዓዝ	-2840
ህዝቢ	-2841
▁ድን	-2842
▁ሸውዓተ	-2843
▁መግቢ	-2844
▁ዝርከብ	-2845
▁ኣብ'ዚ	-2846
▁ትግራይ	-2847
▁ንሓድሕ	-2848
ጸል	-2849
ደንት	-2850
▁ፈርኦን	-2851
ሑ።	-2852
▁ክንድ	-2853
▁ፍጹም	-2854
▁ዝኽ	-2855
▁ነጥ	-2856
ኤላውያን	-2857
ምግባር	-2858
▁ከምዘይ	-2859
▁ንድ	-2860
▁ኔሩ።	-2861
ቢይ	-2862
2)	-2863
▁ዝገበር	-2864
▁ተቓ	-2865
▁ገነት	-2866
▁ዝመስ	-2867
▁ሂወት	-2868
ሮት	-2869
20	-2870
▁ይመ	-2871
▁ብሉ	-2872
▁ይጽ	-2873
▁ተመሳሳሊ	-2874
ታቱ	-2875
▁ኣጸቢ	-2876
▁ሰራዊት	-2877
ጥን	-2878
ክራ	-2879
ላኢ	-2880
▁ክሕ	-2881
▁እየን	-2882
▁ኣምላኽ፡	-2883
▁መብዛሕትኡ	-2884
▁የሩሳሌም	-2885
▁እየ፣	-2886
▁ኣብኣ	-2887
▁ኣሕዋት	-2888
▁ንቕ	-2889
▁መንእሰይ	-2890
▁"እን	-2891
ምሉእ	-2892
▁ናትካ	-2893
▁ሰዓታት	-2894
▁ፈሪ	-2895
መሉ	-2896
▁ፖሊ	-2897
▁ብዝተ	-2898
ፍል	-2899
ጠቕ	-2900
የይ	-2901
▁ወለዶ	-2902
ቀት	-2903
ልኻ	-2904
▁ፍጻ	-2905
▁ብሩ	-2906
▁ጉባኤ	-2907
▁ይቕረ	-2908
▁እንግ	-2909
▁መስዋ	-2910
▁ጸብ	-2911
▁ኣለዎም።	-2912
▁ሃገራዊ	-2913
ኹ፡	-2914
ታው	-2915
ርነት	-2916
▁ወንጌል	-2917
▁እነ	-2918
▁ቀልጢ	-2919
▁መጽና	-2920
ድሕን	-2921
▁የድልየ	-2922
▁ክርስቲያን	-2923
▁ኢዮም።	-2924
▁ክእ	-2925
▁ጸገ	-2926
▁ነይራ።	-2927
▁መልኣኽ	-2928
ዓይ	-2929
▁ጻዕ	-2930
▁ደቅ	-2931
ኑን	-2932
ተኛ	-2933
ስካ	-2934
▁ዝገበረ	-2935
ክርስትያን	-2936
ልዮ	-2937
ለ።	-2938
▁ንእሽቶ	-2939
▁የብለይ	-2940
▁ኣይሁድ	-2941
ጠፍእ	-2942
ማም	-2943
▁ዝረኣ	-2944
▁ኣሰ	-2945
▁ብድሕሪ	-2946
▁ብሰ	-2947
▁(ዘ	-2948
ታል	-2949
▁ውጽ	-2950
▁ተግባ	-2951
ዘራ	-2952
▁ገበረ	-2953
▁እወ፡	-2954
▁ተጸ	-2955
▁ባርያ	-2956
▁ምዉ	-2957
▁ኣባል	-2958
▁ንነፍ	-2959
▁መሰረት	-2960
ደና	-2961
ዱ፡	-2962
ኦል	-2963
ቱዕ	-2964
ምፍ	-2965
▁ከይተ	-2966
▁መቕደስ	-2967
እት	-2968
ሓዊ	-2969
ዕድ	-2970
ሽን	-2971
ሰምዑ	-2972
▁ጽን	-2973
▁ትማሊ	-2974
ፈሻ	-2975
ኩ፡	-2976
ስምዓ	-2977
▁ኣእዳ	-2978
▁ምስክር	-2979
ካየድ	-2980
▁ጥዑ	-2981
▁ዜጋ	-2982
ብሩ	-2983
ብላ	-2984
ልፊ	-2985
▁ደሊ	-2986
▁ዓር	-2987
▁ከምኡ'ውን	-2988
▁ንግሆ	-2989
▁ርእሲ	-2990
▁ርኢ	-2991
ብ።	-2992
ለይ።	-2993
ለካ	-2994
ልዩ	-2995
▁ኣቱም	-2996
▁ሓሶት	-2997
ሃቦ	-2998
▁ያእቆብ	-2999
▁ሰራሕ	-3000
ብካ	-3001
ቡቅ	-3002
▁ጽድቂ	-3003
▁ይግ	-3004
▁ስእ	-3005
▁ሓተ	-3006
ርእዩ	-3007
▁ግናኸ፡	-3008
▁ተሳ	-3009
▁ሓላፍነት	-3010
ጐይታ	-3011
▁ኢያ	-3012
▁ማሕበር	-3013
▁26	-3014
ስ።	-3015
▁ሰብ፡	-3016
▁ምኽሪ	-3017
'ሞ	-3018
▁ትኽእሉ	-3019
▁ከአ	-3020
▁ከብ	-3021
▁እብለ	-3022
ቀል	-3023
እይ	-3024
▁ይሁዳ	-3025
ዝያዳ	-3026
ብረተ	-3027
ሰንኪ	-3028
ሰድ	-3029
▁ፖለቲካዊ	-3030
ዎስ	-3031
▁ዝዓበየ	-3032
▁ዝሕ	-3033
▁ኣይመስ	-3034
▁መንእሰያት	-3035
ጋሚ	-3036
▁ዝገበሮ	-3037
▁ብኽ	-3038
▁ኣይፈ	-3039
ግርኛ	-3040
በዝ	-3041
▁ፍቅ	-3042
▁ንኹ	-3043
ጽም	-3044
▁ደቡ	-3045
▁ፕረ	-3046
▁ጸላእ	-3047
▁ዝበለጸ	-3048
▁ርእይቶ	-3049
▁ሚኒ	-3050
ዳስ	-3051
▁ይብለ	-3052
▁ዝቕ	-3053
▁ኣወ	-3054
▁ንኣብነት	-3055
▁ትኸውን	-3056
ጠራ	-3057
ን"	-3058
'የ።	-3059
▁ቀሊል	-3060
ሰላም	-3061
▁እናተ	-3062
▁እፈልጥ	-3063
ምዕ	-3064
▁ኣይም	-3065
▁ኣደይ	-3066
▁ቅድሜ	-3067
ጽነት	-3068
ሳኤ	-3069
▁ኮይኖም	-3070
ጥሮስ	-3071
ኹም፡	-3072
▁ኣምላኽና	-3073
ዲኡ	-3074
ለወ	-3075
▁ጸሓይ	-3076
▁ዘርኢ	-3077
▁ብናይ	-3078
▁ብው	-3079
▁በሉ።	-3080
▁መስርሕ	-3081
▁[.	-3082
▁ውሑ	-3083
▁ልበይ	-3084
የሆዋ	-3085
ሃት	-3086
▁የሎ	-3087
▁ኩልና	-3088
ጽር	-3089
ያትን	-3090
▁ዓው	-3091
▁ክኸ	-3092
▁ክቡር	-3093
ጎስ	-3094
▁ንን	-3095
▁መከራ	-3096
ደገና	-3097
▁ጽሕ	-3098
▁እዮም፣	-3099
ዓቢ	-3100
ተሓሳስ	-3101
▁ከቶ	-3102
▁ኣንስትዮ	-3103
▁ሰነ	-3104
▁ዘር	-3105
▁ኦም	-3106
▁ቀሪ	-3107
ተወሳኺ	-3108
▁ከምዘሎ	-3109
▁ምልክት	-3110
▁ልም	-3111
ሰነ	-3112
ሓይሽ	-3113
ሓትት	-3114
ለና	-3115
▁ይሓ	-3116
▁በሉ	-3117
ዛረበ	-3118
▁እንድ	-3119
▁28	-3120
ኒት	-3121
ራቕ	-3122
ሞክራ	-3123
▁ግን፡	-3124
▁ዛንታ	-3125
▁ከሎ፡	-3126
▁ተግባር	-3127
▁ተሪ	-3128
▁በሎም	-3129
ኻኽር	-3130
በልዕ	-3131
ረሉ	-3132
▁ጥን	-3133
▁ዀነ	-3134
▁ማሕበራዊ	-3135
▁መበል	-3136
▁መረ	-3137
▁(ማ	-3138
ፈስ	-3139
ገርም	-3140
▁ገዲ	-3141
▁ዓባይ	-3142
▁ምድርን	-3143
▁መዝሙር	-3144
አ።	-3145
ሜን	-3146
▁ግዝ	-3147
የን	-3148
▁ግደ	-3149
▁ክወ	-3150
▁ክስ	-3151
▁እኩ	-3152
▁ኸዓ	-3153
▁ሕያ	-3154
ህናት	-3155
▁ኣዳ	-3156
▁ኢሉ።	-3157
▁ንጸ	-3158
▁ብጸ	-3159
▁ስደተኛታት	-3160
▁መንፈሳዊ	-3161
▁መራሕ	-3162
ዕር	-3163
▁ጽሑፋት	-3164
▁ተነ	-3165
▁ሕዝቢ	-3166
▁ሕብረተ	-3167
ያብሎ	-3168
ህልወ	-3169
▁ሓጥ	-3170
ቃን	-3171
▁ፍጥረት	-3172
▁ኣነን	-3173
▁ትካ	-3174
▁ዝደ	-3175
▁ርግ	-3176
ጥታ	-3177
▁ይከኣል	-3178
▁ዘጋ	-3179
▁ተወሳኺ	-3180
▁ሰሪ	-3181
"።	-3182
▁እንጌ	-3183
▁ሃይማኖት	-3184
ገለ	-3185
▁ሒዝ	-3186
ወታ	-3187
ዃኑ	-3188
▁ይኸ	-3189
▁ክልቲኦም	-3190
ኹል	-3191
ታትና	-3192
ታም	-3193
▁ትጽ	-3194
▁እንደገና	-3195
ክእ	-3196
▁ኮን	-3197
▁ንኽእል	-3198
▁ነዞም	-3199
▁ረኸ	-3200
▁ሓጺ	-3201
ፍቕ	-3202
ክክ	-3203
▁ርሑ	-3204
▁መዓልታዊ	-3205
19	-3206
ሰርሑ	-3207
▁መበ	-3208
▁ክንከውን	-3209
▁እዘን	-3210
▁ሓራ	-3211
ቓይ	-3212
ቓል	-3213
▁ፍትሒ	-3214
▁የድሊ	-3215
▁ዞባ	-3216
▁ኢዮም	-3217
▁ትዕ	-3218
▁ክህሉ	-3219
▁ሕልሚ	-3220
ጽሑ	-3221
ጻብ	-3222
ታተ	-3223
በሎ	-3224
▁ዝኸፍ	-3225
▁ዝኣመሰለ	-3226
▁ዝሓዘ	-3227
▁ክው	-3228
▁እናበለ	-3229
▁ኣሎና	-3230
▁መጽናዕቲ	-3231
▁መቐ	-3232
ርኩም	-3233
ልዋ	-3234
▁ሰባት፡	-3235
ዛት	-3236
ኣክል	-3237
▁ዝመጸ	-3238
ኽእሉ።	-3239
ቦ።	-3240
▁ጸልማት	-3241
▁ድሮ	-3242
▁ይው	-3243
▁መገ	-3244
ደልዮ	-3245
▁ኣለው።	-3246
▁ንክ	-3247
▁ሓያል	-3248
ፋስ	-3249
ሞ።	-3250
'ዮም	-3251
▁ዝነበሮ	-3252
▁ንህዝ	-3253
▁ናትና	-3254
▁በለት	-3255
▁ሓሳባት	-3256
ፈቱ	-3257
▁እንተኾይኑ	-3258
▁ቤቱ	-3259
ግስቲ	-3260
ዕለ	-3261
▁ዝተፈ	-3262
▁ሳልሳይ	-3263
ኻልእ	-3264
ኣነ	-3265
ታትካ	-3266
በበ	-3267
▁ዂሉ	-3268
▁ምግቢ	-3269
ድልዮ	-3270
መና	-3271
▁ጉጅለ	-3272
▁ኣቲ	-3273
▁ብኸም	-3274
ጣሪ	-3275
ጀመ	-3276
ዶ?	-3277
ይኖም	-3278
ላንድ	-3279
▁ድሕሪኡ	-3280
'ኳ	-3281
▁ዮሃንስ	-3282
▁ናቱ	-3283
ያብሎስ	-3284
ቕቲ	-3285
▁ኣስታት	-3286
▁ንዘለኣለም	-3287
▁መጻሕ	-3288
ገበር	-3289
▁ክነብር	-3290
▁ትብል።	-3291
▁ቻይና	-3292
▁ባይቶ	-3293
ንያ	-3294
▁ዓወት	-3295
▁ቆልዓ	-3296
▁ስብ	-3297
ዝን	-3298
ተይን	-3299
ልዮን	-3300
ሃደ	-3301
▁ኸአ	-3302
▁ኸሎ	-3303
▁ኮይና	-3304
▁እሙን	-3305
▁ብድ	-3306
▁ብኡ	-3307
ፍካ	-3308
▁ዝነብር	-3309
▁ዝብሉ	-3310
▁ኾይኑ	-3311
▁እኹል	-3312
▁ብርቱዕ	-3313
▁መገድ	-3314
ጽ።	-3315
ዓን	-3316
▁ዝበል	-3317
▁ዘይም	-3318
▁ትደሊ	-3319
ጻሊ	-3320
ጥረ	-3321
ንጻ	-3322
ደልን	-3323
መይቲ	-3324
ልይ	-3325
▁ጸላኢ	-3326
▁ህዝበይ	-3327
▁መሰኻኽር	-3328
▁መኣ	-3329
▁ዕረ	-3330
▁ከምዘ	-3331
▁ናበይ	-3332
▁ብወ	-3333
▁ማእሰር	-3334
▁መራ	-3335
፡2	-3336
▁ዓ.	-3337
መጥ	-3338
▁ፈረን	-3339
▁ትሕዝ	-3340
ጡ።	-3341
▁ጌርና	-3342
▁ኣንጻር	-3343
▁መንበሪ	-3344
▁መሰረ	-3345
▁መጀመርያ	-3346
▁ሓቲ	-3347
ንቱ	-3348
▁ኮፍ	-3349
000	-3350
▁ጸሎ	-3351
▁ኣንስቲ	-3352
▁ምስቶም	-3353
▁ሒደት	-3354
ግን	-3355
ርእየ	-3356
▁ዝሓሸ	-3357
▁ከምኡውን	-3358
▁ኣዋር	-3359
▁ንኣብነት፡	-3360
▁ቁሩብ	-3361
ጋዊ	-3362
ደሉ	-3363
ረና	-3364
▁ፈለማ	-3365
▁ሽወ	-3366
▁'ን	-3367
ጾም	-3368
ግብኣ	-3369
ግና	-3370
በጽሕ	-3371
በሮም	-3372
ሰምዓ	-3373
▁ድሕር	-3374
▁ክብሉ	-3375
ርከቡ	-3376
▁ጽቡቅ	-3377
▁ዝግበር	-3378
▁ዘፍ	-3379
▁ውሳነ	-3380
▁ንዅሎም	-3381
እያ	-3382
መውት	-3383
ኖስ	-3384
ራትን	-3385
▁ደብ	-3386
▁በረኸ	-3387
▁(ዮ	-3388
ገስ	-3389
ሌት	-3390
▁ንኸ	-3391
▁መና	-3392
▁ሓዳር	-3393
ኹምን	-3394
ሞቱ	-3395
▁ገይሮም	-3396
▁ኻል	-3397
▁ትካል	-3398
▁ረሲ	-3399
▁መኪና	-3400
▁ጥር	-3401
▁ይብሉ	-3402
▁ኣማል	-3403
▁ትንሳኤ	-3404
▁ትግርኛ	-3405
ea	-3406
▁ክሓ	-3407
▁ኣይፈልጥን	-3408
▁ትፈልጥ	-3409
▁ተም	-3410
▁ስፍ	-3411
በና	-3412
ላዉ	-3413
▁ከማ	-3414
▁ምስጋና	-3415
መሰረት	-3416
▁ዝግ	-3417
▁ዝረኸ	-3418
▁ሞተ	-3419
▁መንግስ	-3420
▁መርዓ	-3421
ገልጸ	-3422
ዩ፡	-3423
መዝ	-3424
▁ነበረት።	-3425
▁ህዝብታት	-3426
ክምና	-3427
ሩን	-3428
▁ንበይ	-3429
▁ትእዛዝ	-3430
▁ባን	-3431
ሙሴ	-3432
▁ስቕ	-3433
▁ሰብኣዊ	-3434
▁ሓጢ	-3435
ፈልጡን	-3436
ጋጥም	-3437
ኣል	-3438
▁ሽግር	-3439
▁ምምሕ	-3440
▁ህያው	-3441
▁"ንስ	-3442
ጽኡ	-3443
ላሽ	-3444
ህል	-3445
'ያ	-3446
▁ምንም	-3447
▁መሊሱ	-3448
ኣምኑ	-3449
▁ይርከብ።	-3450
▁ዝተፈላለዩ	-3451
▁ብዕ	-3452
ሰምዖ	-3453
▁ዘለኻ	-3454
▁ኽልተ	-3455
▁ብስም	-3456
▁ሰንበት	-3457
▁ምንባር	-3458
ቕር	-3459
ረበ	-3460
ሙናት	-3461
ዚደንት	-3462
▁ደቡብ	-3463
▁መምህር	-3464
መልክ	-3465
ለይቲ	-3466
▁ዕን	-3467
▁ክንገብር	-3468
▁ክርስትያናት	-3469
▁መጺኡ	-3470
▁መስከ	-3471
▁መዳይ	-3472
ለማዊ	-3473
▁ጴጥሮስ	-3474
▁እንግሊዝ	-3475
▁እንጌራ	-3476
▁ኔሩ	-3477
▁እስራኤላውያን	-3478
▁ሃዋርያት	-3479
ይነ	-3480
▁ፈተና	-3481
▁ይደሊ	-3482
▁ዘለው	-3483
▁ዘይን	-3484
▁ፍቅሪ	-3485
▁ዝምልከት	-3486
▁ንሰባት	-3487
▁ሓቀኛ	-3488
ቴዎስ	-3489
▁ይወ	-3490
▁ዝነበረት	-3491
▁ኣዋርሕ	-3492
▁ንፈልጥ	-3493
▁ዝፈልጦ	-3494
▁ዚርከብ	-3495
▁ዕለ	-3496
▁ኪቕ	-3497
▁27	-3498
ግዚአብሔር	-3499
'ዶ?	-3500
▁የብሎም	-3501
▁ኣብያ	-3502
ጊዕ	-3503
▁ጋዜ	-3504
▁ዝገብሮ	-3505
▁ንተ	-3506
ጸመ	-3507
▁ኣጽ	-3508
ፈላለየ	-3509
ከይድ	-3510
▁ኣጋጢ	-3511
▁መዛሙርቱ	-3512
▁መስዋእቲ	-3513
▁መጻ	-3514
ዘዝ	-3515
▁ዳሕ	-3516
▁ዝተፈላለየ	-3517
▁ኣዳም	-3518
▁ንል	-3519
▁ናባይ	-3520
▁ሓጐስ	-3521
▁ህዝባዊ	-3522
▁ኣይኮንኩ	-3523
▁ናጽነት	-3524
▁ነጊ	-3525
▁ስጉ	-3526
ኳን	-3527
ለኒ።	-3528
:3	-3529
▁ጠፊ	-3530
▁ኤል	-3531
▁ቦታታት	-3532
▁ማን	-3533
ፍለጥ	-3534
en	-3535
▁የሎን።	-3536
▁ዝረ	-3537
▁ዓንቀ	-3538
▁ወድ	-3539
▁ክዛረብ	-3540
ታዊት	-3541
▁ወደ	-3542
▁ብኢ	-3543
ርዎ	-3544
ሕግዝ	-3545
ig	-3546
▁ክህልወ	-3547
▁ተለ	-3548
▁ጀመረ።	-3549
▁ዝድ	-3550
▁ምዕራፍ	-3551
ውነት	-3552
ንስትዮ	-3553
ርሒ	-3554
4)	-3555
▁ጥቓ	-3556
▁ንእግዚኣብሔር	-3557
▁ቀይ	-3558
▁ማዕረ	-3559
አት	-3560
ረኒ	-3561
▁ውላ	-3562
▁ኲናት	-3563
▁ተማሂ	-3564
ዉ።	-3565
ወከፍ	-3566
ሮ።	-3567
ርሲ	-3568
▁ፍርቂ	-3569
▁ይነብር	-3570
▁ምንቅስ	-3571
▁ሙሉእ	-3572
▁ወያ	-3573
▁ኢድካ	-3574
▁ምሳኻትኩም	-3575
ፎን	-3576
ደልየ	-3577
ዋም	-3578
ነቶም	-3579
-1	-3580
▁ተኻ	-3581
፡1	-3582
ሓዝ	-3583
▁ፈጺሙ	-3584
▁ጸዊ	-3585
▁ኣቦኡ	-3586
ዱሽተ	-3587
ማር	-3588
▁ክታ	-3589
▁ረአ	-3590
▁መጋ	-3591
▁ኣባይ	-3592
▁ነቦ	-3593
▁ሰልፊ	-3594
▁ርእስኻ	-3595
ግብኦ	-3596
ገብር።	-3597
በካ	-3598
ርድኦ	-3599
▁ጸገማት	-3600
▁ኣብ'ቲ	-3601
▁ንጉ	-3602
▁ትሕዝቶ	-3603
▁ሰሎ	-3604
ጥም	-3605
ባእ	-3606
▁ይብል	-3607
▁ውሕ	-3608
▁ኢሎም።	-3609
ድኩም	-3610
ዑ፡	-3611
▁ጸኒሑ	-3612
▁ከተማታት	-3613
▁ተዋሂ	-3614
▁ቤተክርስትያን	-3615
▁ሕክምና	-3616
ፈልየ	-3617
▁ብጹ	-3618
ወሓት	-3619
ሰ።	-3620
ሒፉ	-3621
▁ኣለኻ	-3622
▁ተዳ	-3623
ኻዊ	-3624
ብዎ	-3625
▁ዘለና።	-3626
▁እንት	-3627
▁ሾብ	-3628
▁'ውን	-3629
ብዙሕ	-3630
▁ክኢ	-3631
▁ንምር	-3632
ከል	-3633
▁ክንብል	-3634
▁በረኻ	-3635
▁ምዕባ	-3636
▁የማ	-3637
▁ዕዳጋ	-3638
▁32	-3639
ሩ፡	-3640
▁ይኹን	-3641
▁ኮይን	-3642
▁ማእሰርቲ	-3643
▁እብለኩም	-3644
▁ራእይ	-3645
ዱስ	-3646
ትሪ	-3647
ቆም	-3648
▁ዳግ	-3649
▁ኪዀኑ	-3650
▁ኣብያተ	-3651
▁ትፈልጡ	-3652
▁ትሕ	-3653
▁መስተ	-3654
ዛረብ።	-3655
ክርስቶስ	-3656
▁ክድ	-3657
▁ካብ'ቲ	-3658
▁ኢንተር	-3659
▁ንኣይ	-3660
▁ሙዚ	-3661
ጸንሕ	-3662
ዕብ	-3663
ውዓ	-3664
ሰል	-3665
▁ክተ	-3666
▁ቪድዮ	-3667
▁ምዃኖም	-3668
ምልኾ	-3669
▁ዝስዕብ	-3670
▁ካባይ	-3671
▁እንኽእል	-3672
▁ስምዒት	-3673
ሳተ	-3674
ራውያን	-3675
▁እምበኣር፡	-3676
▁ኣማልኽቲ	-3677
▁ናብራ	-3678
▁ቐዳ	-3679
▁መድረኽ	-3680
ምለሱ	-3681
ሉን።	-3682
▁ጉድ	-3683
▁ዝተዋ	-3684
▁ኮም	-3685
▁ክኣ	-3686
▁ኣይክት	-3687
▁ኣረጋ	-3688
▁ቅዱስ፡	-3689
፡-	-3690
ጠረ	-3691
ሩኽ	-3692
ቡን	-3693
▁ንዚ	-3694
ፈልጥን።	-3695
▁ደሓን	-3696
▁ተቐቢ	-3697
▁40	-3698
ከር	-3699
ብቲ	-3700
ባ።	-3701
▁ዉን	-3702
▁ክመጽእ	-3703
▁ብዓል	-3704
ደኣ	-3705
ኒቨ	-3706
ነን	-3707
▁ዚመጽእ	-3708
▁እናበሉ	-3709
▁ኣይመስለን	-3710
▁ሚልዮን	-3711
▁መፍት	-3712
ልጡ	-3713
▁ፍልስ	-3714
▁ውልቀ	-3715
▁እሱ	-3716
▁ኣፈ	-3717
▁ኢሳ	-3718
ፍና	-3719
ምሕ	-3720
▁ንናይ	-3721
ገልግል	-3722
▁ጐይታይ	-3723
▁ግብር	-3724
▁ኣርእስቲ	-3725
▁በደ	-3726
▁በሊ	-3727
▁ሾብዓተ	-3728
▁ሰሜን	-3729
▁ማር	-3730
▁ሕብረተሰብ	-3731
▁ሓሊፉ	-3732
ኩን	-3733
ነዊሕ	-3734
▁ዝሰማዕ	-3735
▁እዋን፡	-3736
▁ተገሊ	-3737
▁199	-3738
▁ዓሻ	-3739
▁ነበሩ	-3740
▁ሰማይን	-3741
▁ምርኣይ	-3742
▁ሓጺር	-3743
▁ሒዙ	-3744
▁ኣለካ።	-3745
▁ትንቢት	-3746
▁ብእምነት	-3747
▁መምር	-3748
▁ህ.	-3749
ውር	-3750
ቃል	-3751
▁ተጠን	-3752
▁ቅድም	-3753
▁መብዛሕትኦም	-3754
▁31	-3755
ጥቀም	-3756
ኣኸ	-3757
▁ጻድ	-3758
▁ዝበሉ	-3759
▁ስእሊ	-3760
▁ምስጢር	-3761
ብሓ	-3762
ርም	-3763
on	-3764
'ምበር	-3765
▁ግምት	-3766
▁ዝብሎ	-3767
▁ክግ	-3768
▁ኣረኣ	-3769
▁ተራእ	-3770
▁ህዝብና	-3771
▁ደቁ	-3772
▁ኣቶ	-3773
▁ንኺ	-3774
▁29	-3775
ገበረ	-3776
ኾም	-3777
ንዳ	-3778
ለል	-3779
▁ዘም	-3780
▁ነተን	-3781
▁ባህሊ	-3782
▁መራሕቲ	-3783
እካ	-3784
▁ፈጣሪ	-3785
▁ዘሕ	-3786
▁ሕጻ	-3787
ore	-3788
▁ጸወታ	-3789
▁የሱስ፡	-3790
▁እንተዝ	-3791
▁ተጠቒ	-3792
▁ምፍላጥ	-3793
▁መጻሕፍቲ	-3794
▁ሃብቲ	-3795
ጸር	-3796
መላለ	-3797
ሃይ	-3798
▁ክብር	-3799
▁ተንሲ	-3800
▁ባህር	-3801
ልክዕ	-3802
ou	-3803
'ዮም።	-3804
▁እዮም፡	-3805
▁ንነብ	-3806
igr	-3807
,000	-3808
▁ክምለስ	-3809
▁ኣንታ	-3810
▁መዋ	-3811
▁ይበል	-3812
▁ዘል	-3813
▁ወደይ	-3814
▁ክኾኑ	-3815
▁እኽእል	-3816
▁ብርሃ	-3817
▁ሐዚ	-3818
ኑን።	-3819
8)	-3820
▁ግዜ፡	-3821
▁ደለ	-3822
▁ዓስ	-3823
▁ውሉድ	-3824
▁ወተ	-3825
▁ወሪ	-3826
▁ሓያሎ	-3827
ራእ	-3828
ሓቕ	-3829
▁ድቃስ	-3830
▁ዝብ	-3831
▁ኣቦና	-3832
▁ኣረ	-3833
▁ንሶም	-3834
▁ናባኻ	-3835
▁ሽወደን	-3836
▁ሕግ	-3837
ፈትዎ	-3838
ናትን	-3839
▁ኣብዚ	-3840
▁ዙርያ	-3841
▁ዘሎካ	-3842
▁ኣይኰነን	-3843
▁ኣለዎም	-3844
▁ቤት-	-3845
▁ህወሓት	-3846
▁ሃዋርያ	-3847
ደግ	-3848
ይት	-3849
▁ንየሱስ	-3850
▁ታሕ	-3851
▁ሕጉስ	-3852
ፈተ	-3853
ጋጊ	-3854
በሮ።	-3855
▁ይኹን።	-3856
▁ወለዲ	-3857
▁ኔር	-3858
▁ብድሕሪኡ	-3859
▁ብጾ	-3860
▁ሞያ	-3861
ኖ።	-3862
ልታት	-3863
▁ጸብጻብ	-3864
▁ጥፍ	-3865
▁ንኣቦ	-3866
er	-3867
▁ደን	-3868
▁ትካላት	-3869
▁ቃለ	-3870
ሳውያን	-3871
▁ደብዳ	-3872
▁ዝኸፍአ	-3873
▁ኣየር	-3874
▁Tigr	-3875
ጦም	-3876
ኮኑ	-3877
እም	-3878
ተል	-3879
ቐን	-3880
▁ገም	-3881
▁ዩኒቨ	-3882
▁ዘን	-3883
▁ነን	-3884
▁ብሓድ	-3885
ያቱ	-3886
የር	-3887
ናግ	-3888
ስታ	-3889
▁ኣነስ	-3890
▁ኣሎ፡	-3891
▁ምሳሌ	-3892
▁መራሒ	-3893
▁ኣለካ	-3894
▁ኣተሓሳስ	-3895
ለሉ	-3896
▁ዘፍቅ	-3897
▁መጥቃ	-3898
▁ልኡ	-3899
ዓብ	-3900
ዃን	-3901
ኩምዎ	-3902
▁ጻድቕ	-3903
▁ድሕነት	-3904
▁ኢያ።	-3905
ቑ።	-3906
ስእ	-3907
ሒዙ	-3908
3)	-3909
▁ፖሊስ	-3910
▁ዓሳ	-3911
▁እውን፡	-3912
▁እንተሎ	-3913
▁ኣሎ፣	-3914
▁ናጻ	-3915
▁ሰለ	-3916
▁"መ	-3917
▁ግዳ	-3918
▁ኣይረኸ	-3919
▁ነፍስ	-3920
▁ብስራት	-3921
▁ርእሰ	-3922
▁ሙዚቃ	-3923
▁ልዕ	-3924
▁50	-3925
ኤን	-3926
ሕታ	-3927
▁ዋና	-3928
▁ንገዛእ	-3929
▁ባዕልኻ	-3930
▁ባይታ	-3931
▁ምምላ	-3932
ቶም።	-3933
or	-3934
▁ሽዱሽተ	-3935
ስያ	-3936
▁ይን	-3937
▁ሰብኡ	-3938
▁መሰላት	-3939
▁ሕይወ	-3940
ጸራ	-3941
ርአ።	-3942
▁ዝምድና	-3943
▁ዘለኹ።	-3944
▁እብ	-3945
ደራ	-3946
▁ይሓይሽ	-3947
▁ኣረኣእያ	-3948
▁ንሙሴ	-3949
▁ልዕል	-3950
▁ህይወተይ	-3951
ታ።	-3952
ስተር	-3953
ርዳ	-3954
▁ዝተሓ	-3955
▁ከለኹ	-3956
▁ኣካላት	-3957
▁ንት	-3958
▁ተባዕ	-3959
▁ምዉታት	-3960
▁ምንጪ	-3961
ይሩ	-3962
ኻዮ	-3963
ቕርብ	-3964
ሜት	-3965
ልና።	-3966
▁ደሓር	-3967
▁የብለይን።	-3968
▁ኣምላኽን	-3969
▁ቅዱሳን	-3970
▁ቁጽሪ	-3971
▁መስከረም	-3972
ጽዓ	-3973
ዓመ	-3974
ቖም	-3975
ርኣ	-3976
▁ጥበበ	-3977
▁ገሊኡ	-3978
▁ካበይ	-3979
▁እዩ፤	-3980
▁ኣዋልድ	-3981
▁ተኣም	-3982
▁ሰሎሞን	-3983
▁ሓወይ	-3984
▁ልሙ	-3985
ካኤል	-3986
ሳይያስ	-3987
:-	-3988
▁ፈቲ	-3989
▁ግቡእ	-3990
▁ዓቕሚ	-3991
▁ክኽ	-3992
▁እምብኣር	-3993
▁ኢኻ፡	-3994
▁ብደ	-3995
▁ስጉምቲ	-3996
▁ርግጸ	-3997
▁ሚእ	-3998
ማውያን	-3999
▁ፕረዚደንት	-4000
▁ፍልልይ	-4001
▁ከምዝኾነ	-4002
▁ኣይከኣል	-4003
▁በይን	-4004
▁ሰማዕ	-4005
▁መቓ	-4006
ንኩም	-4007
ረኩም	-4008
5)	-4009
▁ጥዑም	-4010
▁ዝጠ	-4011
▁ከፊ	-4012
▁ቈልዑ	-4013
▁ር.	-4014
ዶ፧	-4015
ሃሉ	-4016
▁ዲኹም	-4017
▁የብልናን።	-4018
▁ዘው	-4019
▁ወገን	-4020
▁ኻባ	-4021
▁ኣለዋ	-4022
▁መምርሒ	-4023
ድሕር	-4024
እለ	-4025
በልና	-4026
ሰማ	-4027
ምልከ	-4028
መዓ	-4029
▁ጸሓ	-4030
▁ግም	-4031
▁ዝፈልጥ	-4032
▁ዓይኒ	-4033
▁ከይት	-4034
▁ትኽእል።	-4035
▁ተወሊ	-4036
▁በላ።	-4037
▁ምሃብ	-4038
ውዓል	-4039
ልል	-4040
ለኹ	-4041
▁ዶላ	-4042
▁ኸመይ	-4043
▁ብፁ	-4044
▁ምንቅስቓ	-4045
ፋእ	-4046
▁ንጥፈ	-4047
▁ንአ	-4048
▁ንህ	-4049
ፋን	-4050
ጽሊ	-4051
ጥቀመሉ	-4052
ኦ።	-4053
ንት	-4054
ሽሓት	-4055
'ያ።	-4056
▁ዝኣክል	-4057
▁ኣይትፍር	-4058
▁ንስኺ	-4059
▁በጃኻ	-4060
▁ሰፊ	-4061
ጠ።	-4062
ቀቕ	-4063
om	-4064
▁ዲኻ?	-4065
▁ዝን	-4066
▁ዓንቀጽ	-4067
▁ንስኻን	-4068
▁ብኸምዚ	-4069
▁ቅር	-4070
ገልጽ።	-4071
ኒ?	-4072
ምርካብ	-4073
▁ግንቦት	-4074
▁ይከኣ	-4075
▁ይም	-4076
▁ኣምላኸይ	-4077
▁ንቡር	-4078
▁ሓሊ	-4079
በባ	-4080
በልካ	-4081
'ኸ	-4082
▁ጽሕፈት	-4083
▁ዝዀኑ	-4084
▁ዝተረ	-4085
▁ዝብለ	-4086
▁ሓኪ	-4087
ደጋ	-4088
ነይቲ	-4089
▁ዝሃበ	-4090
▁ክዳ	-4091
▁ቁጠ	-4092
▁"ሕ	-4093
ነካ	-4094
▁እትኽእል	-4095
▁ይብ	-4096
▁ረብሓ	-4097
▁መስቀል	-4098
▁ህጻናት	-4099
ጢሩ	-4100
ልጣን	-4101
ለጥ።	-4102
▁ጉዳያት	-4103
ቃዊ	-4104
ራኸብ	-4105
ልኪ	-4106
▁የልቦን	-4107
▁ክፍለ	-4108
▁ኣቐዲሙ	-4109
▁ብዝኾነ	-4110
▁ብ19	-4111
ጻት	-4112
ሃሩ	-4113
▁ገጹ	-4114
▁ዮና	-4115
▁ውጽኢት	-4116
▁ኮይነ	-4117
▁ኣየድልየ	-4118
▁ቀዳሞት	-4119
እዝ	-4120
ብርሃ	-4121
በጽ	-4122
▁ዘጋጠመ	-4123
▁ዘብ	-4124
▁ኻልእ	-4125
▁ኢና"	-4126
▁ቅን	-4127
▁ሳኦል	-4128
▁ምዃና	-4129
▁ሓድነት	-4130
ኮይኑ	-4131
▁ድልየ	-4132
▁ካህናት	-4133
▁ኩላትና	-4134
▁ኣገልጋ	-4135
▁ኣምልኾ	-4136
▁ሰላ	-4137
▁ርሑቕ	-4138
▁33	-4139
ጠይ	-4140
በኹ	-4141
▁ዚሕ	-4142
▁ክታበት	-4143
▁ተቐመ	-4144
▁ብኻልእ	-4145
ቡ፡	-4146
መንግስቲ	-4147
▁ዳን	-4148
▁ብዙኅ	-4149
▁ምስሊ	-4150
ኻት	-4151
ሰይቲ	-4152
መካ	-4153
▁ይዝ	-4154
▁ዕዉ	-4155
▁ተሰም	-4156
ብታት	-4157
ረር	-4158
▁ፍጻመ	-4159
▁ፈለ	-4160
▁ዕረፍቲ	-4161
▁ወላዲ	-4162
▁ታሕቲ	-4163
▁ሓሲ	-4164
ፖርት	-4165
ጹር	-4166
ደበት	-4167
▁ኮሚ	-4168
▁'ዩ	-4169
▁"በ	-4170
ኽእሎ	-4171
ረኽበ	-4172
ሎሚ	-4173
▁ዝብሃል	-4174
▁ኣየናይ	-4175
▁ኣግ	-4176
▁ኢኹም፡	-4177
▁መጥቃዕቲ	-4178
ሞክራሲ	-4179
▁ዝለዓለ	-4180
▁እያ፡	-4181
▁"ናብ	-4182
ገጽ	-4183
እተ	-4184
ሳቐ	-4185
▁ዕር	-4186
▁ንእኡ	-4187
▁በጽ	-4188
▁ሽማ	-4189
ትር	-4190
ልጡፍ	-4191
▁ዳግም	-4192
▁ዘለኹም	-4193
▁ኣይትፍ	-4194
▁ንድሕሪ	-4195
▁ንዂ	-4196
▁ምንታይ	-4197
ታተይ	-4198
ሒቱ	-4199
-ኣ	-4200
▁ዝዛረብ	-4201
▁ነጥቢ	-4202
ፅእ	-4203
ጥና	-4204
እከ	-4205
7)	-4206
▁ጕዳይ	-4207
▁ዶላር	-4208
▁ኣዴ	-4209
▁መንነት	-4210
▁ሕጉ	-4211
▁ልብና	-4212
ዩን	-4213
በሳ	-4214
ሃድ	-4215
▁ዚነብሩ	-4216
▁ክዕ	-4217
▁ከው	-4218
▁እንተድኣ	-4219
▁ኢየ።	-4220
▁ብዘየ	-4221
▁ሚካኤል	-4222
▁መዘ	-4223
▁ሃብታም	-4224
ዅሉ	-4225
ኽንያት	-4226
ካልእ	-4227
ተባህ	-4228
ሞንተ	-4229
ለው	-4230
ለኩም	-4231
ti	-4232
▁ፈት	-4233
▁ዘይብል	-4234
▁ዋዕ	-4235
▁ክገብሮ	-4236
▁እምኒ	-4237
▁ኣዚዩ	-4238
▁ኣቦታት	-4239
ገብርዎ	-4240
ደደ	-4241
ኢየሱስ	-4242
ብዙሓት	-4243
በላ	-4244
▁ፍጡ	-4245
▁ደገፍ	-4246
▁ይመጽእ	-4247
▁ዘድልየ	-4248
▁ውህ	-4249
▁ብምን	-4250
ጥዓ	-4251
ንቂ	-4252
▁ድዮም	-4253
▁ክሰ	-4254
▁ንነፍሲ	-4255
▁ብጽ	-4256
▁ስምዒ	-4257
ጠና	-4258
ኽሊ	-4259
ባትን	-4260
ቐርብ	-4261
ማዊ	-4262
....	-4263
▁ጥቅ	-4264
▁ዝመል	-4265
▁ኣተሓሳስባ	-4266
▁ሰራሕተኛታት	-4267
ኒ"	-4268
ስዕቡ	-4269
▁ዘይብሎም	-4270
▁ካባና	-4271
▁ኣይሰ	-4272
▁ኣበር	-4273
▁ትብሉ	-4274
▁በረኸት	-4275
▁በለት።	-4276
▁ምቅ	-4277
▁ልብኻ	-4278
ግስ	-4279
ኾን	-4280
▁ንየሆዋ	-4281
ፍቕሪ	-4282
ጽሕፍ	-4283
ተኣ	-4284
ሱ፡	-4285
▁ዕሽ	-4286
▁ወርቂ	-4287
▁ክፍሊት	-4288
▁ኣዝየ	-4289
▁ኣንብ	-4290
▁ብና	-4291
▁ቋንቋታት	-4292
▁ስመይ	-4293
ግጋ	-4294
ሽቱ	-4295
▁ዝርዝር	-4296
▁ዓሚ	-4297
▁ወሰን	-4298
▁ንዳ	-4299
ፍራ	-4300
ህቦም	-4301
▁ደይ	-4302
▁ምብራቕ	-4303
▁ልቦም	-4304
ፉ።	-4305
▁ግል	-4306
▁ንደቀ	-4307
▁ንሓድሕዶም	-4308
▁ብመንፈስ	-4309
▁ቀዳመይቲ	-4310
ኽዎ	-4311
▁የብሉን	-4312
▁ሓኪም	-4313
ምሳ	-4314
▁ኻብቲ	-4315
▁ኣሎ"	-4316
▁ኖር	-4317
▁ንጹር	-4318
▁ንፋስ	-4319
▁መብዛሕ	-4320
▁ሕር	-4321
▁"ከ	-4322
ናውያን	-4323
ሩይ	-4324
▁ዅሎም	-4325
▁ኲሎም	-4326
▁ቅድሜኻ	-4327
▁ሂቡ	-4328
ረፍ	-4329
መርሕ	-4330
▁ዝተዛረቦ	-4331
▁ኢኹም"	-4332
▁ተቐሚ	-4333
▁ተሰሚ	-4334
▁ብዛዕባኡ	-4335
▁ብሉጽ	-4336
▁ብነ	-4337
▁ሕጂ'ውን	-4338
ና፣	-4339
▁ዘርእ	-4340
▁ኣሕሊፉ	-4341
▁ናቶም	-4342
▁መጺኦም	-4343
ይረስ	-4344
በልዑ	-4345
▁ኸምኡ	-4346
▁ኣድላ	-4347
▁ኣይነበረን	-4348
▁ንድሕሪት	-4349
▁ብሓድሽ	-4350
▁ብህ	-4351
▁መዓልቲ፡	-4352
ስፒ	-4353
ሞተ	-4354
ሕግዘካ	-4355
ሊእ	-4356
▁ኣእጋ	-4357
▁ነብዪ	-4358
▁ተንስ	-4359
▁ተሸ	-4360
▁100	-4361
ድልዮም	-4362
▁ኵነታት	-4363
▁ብዘየገድ	-4364
▁ብቑ	-4365
▁ብሪ	-4366
▁ማንም	-4367
ፍትን	-4368
ጋገ	-4369
ብዓ	-4370
▁ፈረንሳ	-4371
▁እትብል	-4372
▁ኢደይ	-4373
▁ንእግዚኣብሄር	-4374
▁ነቢ	-4375
▁ባቢ	-4376
▁ምርካብ	-4377
▁ኣገልጋሊ	-4378
▁ንደሊ	-4379
▁ስለ'ዚ	-4380
ዮ፡	-4381
ዕ።	-4382
:4	-4383
▁ዮሓ	-4384
▁ዝተኣ	-4385
▁እግሪ	-4386
▁እሞ፣	-4387
▁ኣይክሓድ	-4388
▁ንንጉስ	-4389
▁ብጻ	-4390
▁ለይ	-4391
ግዲ	-4392
ክተር	-4393
ለብ	-4394
▁ፍሽ	-4395
▁ደቒ	-4396
▁ወተሃደ	-4397
▁ወገ	-4398
▁እከይ	-4399
▁ቤትካ	-4400
▁ርሕ	-4401
▁ምእንታ	-4402
▁ላዕለ	-4403
▁ሆስፒ	-4404
▁ሃገረ	-4405
▁Ne	-4406
ንብብ	-4407
ሰባት	-4408
ead	-4409
▁ጋንታ	-4410
▁ክሰርሕ	-4411
▁ኣሎ?	-4412
▁ተመለስ	-4413
▁ብብ	-4414
▁ልቡ	-4415
መ።	-4416
'ታ	-4417
▁ጥሪ	-4418
▁ይፈ	-4419
▁ዝበሎ፡	-4420
▁እባ	-4421
▁ኣካይ	-4422
▁ነገስታት	-4423
▁ነው	-4424
▁በለቶ።	-4425
▁መሪሕ	-4426
ጸ።	-4427
ጠፍኡ	-4428
ኖት	-4429
ሙኤል	-4430
ላ፡	-4431
▁ኢንተርነት	-4432
▁ሓዳስ	-4433
▁ሓር	-4434
▁ህጻን	-4435
▁2020	-4436
▁"ኣምላኽ	-4437
ጊት	-4438
ኪ።	-4439
▁ድሕሪኡ፡	-4440
▁ውሕስነት	-4441
▁ኮይኑ።	-4442
▁"ወ	-4443
ፍሪ	-4444
ይሽ	-4445
ሊ።	-4446
▁ኣይትፈልጡን	-4447
▁ኣይመ	-4448
▁ኢኻ"	-4449
▁ንምድሪ	-4450
▁ነቢይ	-4451
▁ቅድመይ	-4452
▁ምላሽ	-4453
ኒ፣	-4454
ተርፍ	-4455
ህበካ	-4456
▁ዘይኰነስ፡	-4457
▁ወሲዱ	-4458
▁ኰን	-4459
▁ክልቲኡ	-4460
ኻየ	-4461
ኵሉ	-4462
ኣትዉ	-4463
ረደ	-4464
▁ዝነብሩ	-4465
▁ንኽእል።	-4466
▁ትርኢ	-4467
▁ስለዘይ	-4468
▁መሰረታዊ	-4469
▁ህያብ	-4470
▁ጽብ	-4471
▁ዳግማይ	-4472
▁ይበሃል	-4473
▁ክትቅ	-4474
▁እንኮ	-4475
▁ማለ	-4476
ሪኽ	-4477
▁የብሎምን።	-4478
▁ዜጋታት	-4479
▁ዄንካ	-4480
▁እዮም"	-4481
▁ኣሎኹ	-4482
▁ኣከ	-4483
▁ተጓ	-4484
▁መርከብ	-4485
▁"ስለ	-4486
ገልጾ	-4487
ዛዝ	-4488
ቅዕ	-4489
▁ዘለዎ።	-4490
▁ወያነ	-4491
▁ክፉ	-4492
▁ትደልዩ	-4493
▁ምዝራብ	-4494
▁ማዕጾ	-4495
▁ሓደገ	-4496
ዓር	-4497
እዎ	-4498
ሠር	-4499
▁ግጥ	-4500
▁ይብሉ።	-4501
▁ዘለኣለም	-4502
▁ውሳኔ	-4503
▁ኣንቢ	-4504
▁ኣለኹም	-4505
▁መስመር	-4506
▁'ኣ	-4507
ደንቕ	-4508
ኽእልን።	-4509
ት፡	-4510
▁ፀገም	-4511
▁ዶብ	-4512
▁ዓቢይ	-4513
▁ኮር	-4514
▁ኣይወ	-4515
▁ነብያት	-4516
▁መዓልትን	-4517
ነቕ	-4518
ስራኤል	-4519
ሪያ	-4520
▁ዘለካ	-4521
▁ክዳን	-4522
▁ከምዚ	-4523
▁ኣሮን	-4524
▁ንኽብሪ	-4525
▁ንዑ	-4526
▁ማሕበረ	-4527
▁መጓ	-4528
ሐ።	-4529
▁ይድ	-4530
▁ዝጽ	-4531
▁ኣይመስለንን።	-4532
▁ኣይፈልጥን።	-4533
▁ንባዕ	-4534
▁ብግቡእ	-4535
▁ብዝሒ	-4536
እና	-4537
ኣለ	-4538
ምዃን	-4539
ሕብ	-4540
'ሎ።	-4541
▁ጾታዊ	-4542
▁ጥቕሚ	-4543
▁ኣዲ	-4544
▁ትጽቢት	-4545
▁ሳዕቤ	-4546
▁ማለት፡	-4547
▁መሲሉ	-4548
ፍጸም	-4549
ዱን	-4550
እታ	-4551
ኑ፡	-4552
ላትን	-4553
▁የግ	-4554
▁ክዝ	-4555
▁ካኣ	-4556
▁ከለኻ	-4557
▁ኣይነበሮ	-4558
▁ኣሎካ።	-4559
▁ንርእሱ	-4560
▁ብምስ	-4561
▁ቐሪ	-4562
▁ምጥ	-4563
▁መን'ዩ	-4564
▁መርበብ	-4565
▁መዕ	-4566
ጻሕፈ	-4567
ልቢ	-4568
▁ወግ	-4569
▁እዩ'	-4570
▁ንስድራ	-4571
▁ተመስ	-4572
▁ስግ	-4573
▁መቓብር	-4574
ምኽንያት	-4575
ሎጂ	-4576
ላጽ	-4577
ሊም	-4578
ሁ።	-4579
▁ይኽ	-4580
▁ክረክብ	-4581
▁ከረን	-4582
▁ስድራቤ	-4583
ጻወ	-4584
ጸይ	-4585
ጋም	-4586
ረቱ	-4587
ሕጊ	-4588
▁ይመስል።	-4589
▁ዘይክእል	-4590
▁ዘዳ	-4591
▁ኣይትኽእልን	-4592
▁ኣይከ	-4593
▁ኣነውን	-4594
▁ኣለኒ።	-4595
▁ተፈጺ	-4596
▁ሽማግለ	-4597
▁ሰሚዕ	-4598
▁ሓጋ	-4599
▁ልሙድ	-4600
'ከ	-4601
▁ጌርኩም	-4602
▁ይከኣል።	-4603
▁የድሊ።	-4604
▁ዝፈር	-4605
▁ባህሪ	-4606
▁ቀጻሊ	-4607
▁ምምሕዳር	-4608
▁መት	-4609
ፍቀ	-4610
ሽዑ	-4611
▁ጌሩ	-4612
▁ክረ	-4613
▁ካባኻትኩም	-4614
▁ኪድ	-4615
▁እቲ፡	-4616
▁ኣይደልን	-4617
▁ኣህጉ	-4618
▁ኖህ	-4619
▁ንጥፈታት	-4620
▁ንሓዋ	-4621
ኩኹም	-4622
ቶምን	-4623
ማል	-4624
6)	-4625
▁ድዩ፧	-4626
▁ዝነበርኩ	-4627
▁ዝኽእሉ	-4628
▁ኣሚ	-4629
▁ኢኺ።	-4630
▁ንሰብ	-4631
▁ነበረ፡	-4632
▁ባቢሎን	-4633
▁ሰፈር	-4634
ድሕነ	-4635
ስር	-4636
ሰርሓ	-4637
ምህርቲ	-4638
▁ፈረ	-4639
▁ዓረብ	-4640
▁ኣዒንቲ	-4641
▁ኣጥ	-4642
▁አሎ።	-4643
▁ንርአ።	-4644
▁ነበርኩ።	-4645
▁ብቀ	-4646
▁ሕተ	-4647
▁ሓዲሽ	-4648
ፈሻዊ	-4649
ፈልጠ	-4650
ጸሩ	-4651
ቕካ	-4652
ሰሉ	-4653
ረጽ	-4654
▁ጥፍኣት	-4655
▁ኸለዉ	-4656
▁ኣምላኽካ	-4657
▁ኣጆ	-4658
▁ንዮ	-4659
▁መንግሥ	-4660
▁ህይወትና	-4661
ቅድሚ	-4662
ምእ	-4663
ሓትን	-4664
▁ዝነበራ	-4665
▁እቶ	-4666
▁ኣፍል	-4667
▁ንኽን	-4668
▁ሓጎስ	-4669
ጥኤ	-4670
ታቲ	-4671
▁ደቀይ	-4672
▁ዝነበረ።	-4673
▁ዚገልጽ	-4674
▁ወሳ	-4675
▁ከለዉ	-4676
▁ንምስ	-4677
▁ሓቅ	-4678
ሶን	-4679
▁ኣይኮን	-4680
▁ርእየ	-4681
▁ሚእቲ	-4682
▁"ስመይ	-4683
▁"'	-4684
መሃር	-4685
▁ፍጻሜ	-4686
▁ኣገልገል	-4687
▁ንኣኻ	-4688
▁ንነቢይ	-4689
▁ምዕባለ	-4690
▁መንግስት	-4691
▁ሃን	-4692
ክስ	-4693
ረካ	-4694
▁ፈጠ	-4695
▁ድያብሎስ	-4696
▁ኣሎኒ።	-4697
▁አለ	-4698
▁ብግዜ	-4699
▁መልእኽ	-4700
▁ሕሉ	-4701
ውል	-4702
ተፈ	-4703
ረገ	-4704
ላትኩም	-4705
▁ፍሉጥ	-4706
▁ጥሜት	-4707
▁ድማ፣	-4708
▁ውህበት	-4709
▁ክም	-4710
▁ከም'ዚ	-4711
▁እንቋ	-4712
▁ኃጢኣት	-4713
▁ብን	-4714
ውዕል	-4715
ታት፡	-4716
ባሪ	-4717
መሓ	-4718
ay	-4719
▁ገሊጹ	-4720
▁ዕብ	-4721
▁ኣሉ	-4722
▁ትኸውን።	-4723
▁ቓላት	-4724
▁ሳሙኤል	-4725
▁መንግስታት	-4726
▁ሆስፒታል	-4727
▁"ከም	-4728
ጕም	-4729
ዛን	-4730
ከታተ	-4731
ነኽ	-4732
ቤተ	-4733
ስቡ	-4734
ልዮናት	-4735
'ቶም	-4736
▁ዘለዉ።	-4737
▁ኢሳይያስ	-4738
▁ተዘ	-4739
▁ባሮት	-4740
▁(2	-4741
ድእ	-4742
ክፍ	-4743
ኦም።	-4744
ረ፡	-4745
ረተ	-4746
▁ድኽ	-4747
▁ዝግባእ	-4748
▁ዑቕ	-4749
▁ካር	-4750
▁ኣጋጢሙ	-4751
▁ኣይንኽእልን	-4752
▁ባዕለይ	-4753
▁ስራ	-4754
▁ምክን	-4755
ጣዊ	-4756
ድኡ	-4757
ዚኦም	-4758
መጹ	-4759
ልዉ	-4760
an	-4761
▁ድሌት	-4762
▁ዘድሊ	-4763
▁ኪኸ	-4764
▁ኤርትራውያን	-4765
▁ርእስና	-4766
▁ርግጽ	-4767
▁ርኣ	-4768
▁ምኽንያቱ፡	-4769
▁መልክዕ	-4770
ርእይ	-4771
▁ጻድቃን	-4772
▁ዝባ	-4773
▁ዘይፈልጥ	-4774
▁ክንድዚ	-4775
▁ንኹሎም	-4776
▁ንፍ	-4777
▁ቤተይ	-4778
ውንቲ	-4779
ወስዶ	-4780
ርእይዎ	-4781
ሕካ	-4782
in	-4783
▁ዝበልካ	-4784
▁ወል	-4785
▁ዀነ፡	-4786
▁እቲኣ፡	-4787
▁ኣይሓ	-4788
ጽቡቕ	-4789
በኣ	-4790
▁ፍልስጥኤ	-4791
▁ይኽእሉ።	-4792
▁ክፈልጥ	-4793
▁እንተዀነ	-4794
▁በደልካ	-4795
▁ስለዚ	-4796
▁ስማዕ	-4797
▁ምዃነይ	-4798
▁ሚኒስት	-4799
▁ሓደገኛ	-4800
▁ህይወትካ	-4801
▁"ናይ	-4802
ፈለማ	-4803
ዖም።	-4804
ክኖ	-4805
ኣዊ	-4806
ቕጽል	-4807
▁ጀመር	-4808
▁ዝኾነት	-4809
▁ተረኺ	-4810
▁ቅዱሳት	-4811
▁ርግጸኛ	-4812
▁መንግስተ	-4813
▁ሓርነት	-4814
▁(ዘጽ	-4815
ሕዋ	-4816
▁ዝርከቡ	-4817
▁ኣእዳው	-4818
▁ምንቅስቓስ	-4819
▁ምስራሕ	-4820
▁ምሳታቶም	-4821
▁ሕልና	-4822
▁ሓዘን	-4823
ንጹር	-4824
ቐር	-4825
ህና	-4826
▁ይኽእል'ዩ።	-4827
▁ዘይኰ	-4828
▁ዓድ	-4829
▁ክግበር	-4830
▁ክገብሩ	-4831
▁ክበሃል	-4832
▁ኣሕሊ	-4833
▁ምዃንካ	-4834
▁መደባት	-4835
ሳድ	-4836
ራጽ	-4837
▁ግዘ	-4838
▁ግር	-4839
▁ኣቦኹም	-4840
▁ትኽ	-4841
▁ተሰምዩ	-4842
፡22)	-4843
ገት	-4844
ዐ።	-4845
ኖም።	-4846
ሻይ	-4847
ላኸ	-4848
▁ገበ	-4849
▁ኣድላዪ	-4850
▁ኣምላክ	-4851
▁ብገ	-4852
▁ምንባብ	-4853
▁መሳርሒ	-4854
▁መነ	-4855
▁ሓንሳብ	-4856
ፃኢ	-4857
ጣር	-4858
ቕን	-4859
ሕዝን	-4860
xt	-4861
▁እምብኣርሲ	-4862
▁ኣልዒ	-4863
▁ትሑ	-4864
▁በለኒ።	-4865
▁ቆጸራ	-4866
▁ስምካ	-4867
▁ሳላ	-4868
▁ሱዳን	-4869
▁ማህ	-4870
ጥቀሙ	-4871
ኦምን	-4872
ሽቲ	-4873
ምግ	-4874
ሐጕ	-4875
ህቡ	-4876
▁ዘይከኣ	-4877
▁ኣይክሓድገል	-4878
▁ኣይክሓድገልካን	-4879
▁ንእግዚአብሔር	-4880
▁ንጐይታ	-4881
▁ስምምዕ	-4882
▁ምስት	-4883
▁መፍትሒ	-4884
▁መዓት	-4885
▁23፡22)	-4886
ፍለ	-4887
ጥፍእ	-4888
ዓታት	-4889
▁ፈላ	-4890
▁ጻዕሪ	-4891
▁ገንዘ	-4892
▁ዋዕላ	-4893
▁ከምኡ።	-4894
▁አነ	-4895
▁ሓጢኣ	-4896
▁ልደት	-4897
▁38	-4898
▁"ኣቦ	-4899
ያ፡	-4900
ባሩ	-4901
ምፍላጥ	-4902
▁ድል	-4903
▁እመ	-4904
▁ኣኽራን	-4905
▁መፅ	-4906
▁"እንታይ	-4907
ግብሪ	-4908
ርከይ	-4909
▁ፕሮግ	-4910
▁ዝሃቦ	-4911
▁ዘገርም	-4912
▁ክህልዎ	-4913
▁ስዊ	-4914
▁ረኺበ	-4915
ንጫ	-4916
ራጺ	-4917
▁ደርፊ	-4918
▁ትእዛዛት	-4919
▁ሥጋ	-4920
▁ምድሓን	-4921
▁መገድታት	-4922
ውራ	-4923
ሎምን	-4924
▁ፕሮጀ	-4925
▁ጾም	-4926
▁ጽልዋ	-4927
▁ዮሃ	-4928
▁ዝጀመ	-4929
▁ዚነብር	-4930
▁እደሊ	-4931
▁አብዚ	-4932
▁ንእስራኤል	-4933
▁ስልጠና	-4934
▁መሸ	-4935
▁ለይትን	-4936
▁ለባ	-4937
ጹጽ	-4938
ድድ	-4939
ሓልፍ	-4940
ለፈ	-4941
st	-4942
▁ንስኹም	-4943
▁ብዘሎ	-4944
▁ሃበ	-4945
ገብረሉ	-4946
ጅምር።	-4947
ውም	-4948
ኻየደ	-4949
ብር።	-4950
▁ንሃ	-4951
▁ትእዛዛ	-4952
▁ተግባራት	-4953
▁ቕዱስ	-4954
▁ማቴ	-4955
▁ሓፈሻዊ	-4956
ጺሩ	-4957
ግለጽ	-4958
ዕድመ	-4959
ቐሊ	-4960
ሰብ።	-4961
ላታት	-4962
ሃራይ	-4963
▁ገበን	-4964
▁ዝዕ	-4965
▁ኣዕሩኽ	-4966
▁ኣውስት	-4967
▁ብሪጣን	-4968
▁ርአ።	-4969
▁ሓጥያት	-4970
▁1.	-4971
ጻል	-4972
ናዳ	-4973
ረቡ	-4974
-ሰብ	-4975
▁ዘሎኹ	-4976
▁ዘላ።	-4977
▁እንተተ	-4978
▁ኖርወይ	-4979
▁ተመር	-4980
▁ብዘይካዚ፡	-4981
▁ቀጺሉ	-4982
▁ልዕሊኡ	-4983
ደብ	-4984
ተይቲ	-4985
ቢሩ	-4986
▁ጽም	-4987
▁ደድሕሪ	-4988
▁ዮሓንስ	-4989
▁ዝተወለድ	-4990
▁ዝመስል	-4991
▁ዝሃ	-4992
▁ዚስ	-4993
▁ኩነት	-4994
▁ንፉ	-4995
▁ነጋ	-4996
▁ብሓን	-4997
▁ሰብኡት	-4998
▁ሕራይ	-4999
▁ሓድሓደ	-5000
▁(መዝ	-5001
ጎም	-5002
ድያ	-5003
▁ግብረ	-5004
▁ኽፉእ	-5005
▁ነይራ	-5006
▁ሮሜ	-5007
▁ምኻድ	-5008
▁መማ	-5009
ውሞ	-5010
ወን።	-5011
ትምህርቲ	-5012
ሓኒ	-5013
9)	-5014
▁ይብሎ	-5015
▁ዘይሕ	-5016
▁ኣይከኣለን።	-5017
▁ሓተት	-5018
ጋዝ	-5019
ኻ?	-5020
ናዕ	-5021
1)	-5022
▁ክርኢ	-5023
▁ሞይቱ	-5024
▁ህል	-5025
ጽኦ	-5026
ጸት	-5027
ጥዕ	-5028
ወስደ	-5029
ሮና	-5030
▁ፍርሃት	-5031
▁ዝተረፈ	-5032
▁ዝና	-5033
▁ዚው	-5034
▁ኣለኒ	-5035
▁ታይ	-5036
▁ተዛሪቡ	-5037
▁ባህርያ	-5038
▁ሸቶ	-5039
▁ስዒ	-5040
▁ርእሰይ	-5041
▁መብጽዓ	-5042
▁ሓዋርያት	-5043
▁2017	-5044
▁(ማቴ	-5045
ፈልጦን	-5046
ዝሒ	-5047
ክልተ	-5048
ማትን	-5049
▁ዲዩ	-5050
▁ይስሃ	-5051
▁ይኾኑ	-5052
▁እስራኤል፡	-5053
▁ነጥብታት	-5054
▁ብቐጥታ	-5055
▁ሸሞንተ	-5056
▁ማለት'ዩ።	-5057
▁ሓፍ	-5058
▁(እ	-5059
ጠቅ	-5060
ክኖሎጂ	-5061
ኤት	-5062
ኣያ	-5063
ስኹም	-5064
ልዎም	-5065
▁ጐይታና	-5066
▁ኣዋል	-5067
▁ኣመና	-5068
▁ንሓዋሩ	-5069
▁ናባኻትኩም	-5070
▁ብብዙሕ	-5071
▁መዛሙርቲ	-5072
▁ሕጉሳት	-5073
▁ሕጋዊ	-5074
ይር	-5075
ላፍ	-5076
▁ደል	-5077
▁ዝወስ	-5078
▁ዑቕባ	-5079
▁ኻብቶም	-5080
▁እስኪ	-5081
▁ንገለ	-5082
▁ንኸውን	-5083
▁ብኣምላኽ	-5084
▁ምስኣ	-5085
▁ሓጊ	-5086
▁ልብኹም	-5087
ጽሓፍ	-5088
ተሉ	-5089
ላስ	-5090
▁ፍቓደ	-5091
▁ደቓይ	-5092
▁ወረቐት	-5093
▁ኾነ	-5094
▁ክንዳ	-5095
▁ኣይትሕ	-5096
▁ኣይፋ	-5097
▁ኣሽሓት	-5098
▁ኔርና።	-5099
▁ሰብነት	-5100
▁ሕሉፍ	-5101
▁2018	-5102
ጠው	-5103
ዓዊ	-5104
ንጎ	-5105
ሙ፡	-5106
▁ጥበበኛ	-5107
▁ግበርዎ።	-5108
▁ይርከ	-5109
▁ኵላትና	-5110
▁እዋናት	-5111
▁በየ	-5112
▁መጻእ	-5113
▁"ሓ	-5114
ፈልጣ	-5115
መስግን	-5116
ሓይሊ	-5117
ሊት	-5118
▁ጋዜጠ	-5119
▁ደጋጊ	-5120
▁ይሰ	-5121
▁ዝሃብ	-5122
▁ኵለን	-5123
▁ክእለት	-5124
▁ከለና	-5125
▁ንባብ	-5126
▁ተዛረ	-5127
▁ተኽእሎ	-5128
▁መታን	-5129
ድኅ	-5130
ደ፡	-5131
ሳሰ	-5132
ልዕ	-5133
▁ፍሽኽ	-5134
▁ጥንቲ	-5135
▁ይቅ	-5136
▁ዝመጹ	-5137
▁ውጽኢ	-5138
▁ወከፍና	-5139
▁እንታይ'ዩ	-5140
▁ተመሊሱ	-5141
▁በይንኻ	-5142
▁በደል	-5143
▁ለካ	-5144
ገልግሉ	-5145
ገረ	-5146
ካልኦት	-5147
ላን።	-5148
ሃለ	-5149
▁ፈሪሳውያን	-5150
▁ፈሊጥ	-5151
▁ገበረ።	-5152
▁ጀሚሩ።	-5153
▁ዝደሊ።	-5154
▁እየ'	-5155
▁ኢና፡	-5156
▁ንዳዊት	-5157
▁ቕድሚ	-5158
▁ስን	-5159
▁ሕሰ	-5160
▁ሕሙ	-5161
▁"ምስ	-5162
ዓሉ	-5163
ዋእ	-5164
ራምፕ	-5165
▁ፍርሒ	-5166
▁ፅቡቕ	-5167
▁ድንኳን	-5168
▁ዝዓበኹ	-5169
▁ዝዝ	-5170
▁ዝሰርሕ	-5171
▁ዓሰርተው	-5172
▁ክፈ	-5173
▁ክጽ	-5174
▁ክወስድ	-5175
▁ኣባጊዕ	-5176
▁ተወል	-5177
▁ብጹኣን	-5178
▁ስነ-	-5179
▁መድሃ	-5180
▁መጠ	-5181
ዋኽብ	-5182
ክሩ	-5183
ኢሉ	-5184
ትኹም	-5185
ተንስ	-5186
ብያ	-5187
ምሃር	-5188
ማስ	-5189
መነ	-5190
ልያን	-5191
ag	-5192
▁ፍልስጥኤማውያን	-5193
▁ደራ	-5194
▁ዝስዕቡ	-5195
▁ኢኻ?	-5196
▁ብማ	-5197
▁ባሕ	-5198
▁ምስማዕ	-5199
▁መቸ	-5200
የን።	-5201
ቡል	-5202
ስብ	-5203
▁ጠፊኡ	-5204
▁ደሞ	-5205
▁ዝበዝሕ	-5206
▁ወዘ	-5207
▁ኰይኖም	-5208
▁ኣይክእል	-5209
▁ኣተወ	-5210
▁ተኣምራት	-5211
▁ሰበ	-5212
▁ማእከላይ	-5213
▁መላ	-5214
▁ሕጻን	-5215
ንሳ	-5216
ምባ	-5217
▁ዳንኤል	-5218
▁ወሳኒ	-5219
▁ኪዳ	-5220
▁ኣጸጋሚ	-5221
▁ሶርያ	-5222
▁ርስቲ	-5223
ብልን	-5224
ርግ	-5225
መላለስ	-5226
መጡ	-5227
ሓፈሻ	-5228
▁ድራር	-5229
▁ዲና	-5230
▁ዝተቐ	-5231
▁ውሑዳት	-5232
▁ውልቃዊ	-5233
▁ካቶ	-5234
▁ትገብር	-5235
▁ቫይረስ	-5236
▁34	-5237
ዒቡ	-5238
ዎም፡	-5239
ኻብ	-5240
ናሕ	-5241
ነፍ	-5242
ቡስ	-5243
ረኒ።	-5244
ምዎ	-5245
ሕግዙ	-5246
▁ግጥሚ	-5247
▁ግዲ	-5248
▁የሆዋ፡	-5249
▁ዝዓበኹዎን	-5250
▁ዝተወለድኩዎ	-5251
▁ዝከኣል	-5252
▁ዚግበር	-5253
▁ክንርኢ	-5254
▁ክትው	-5255
▁ክትረኽቡ	-5256
▁ንድኻ	-5257
▁ንኩ	-5258
▁ኔሮም።	-5259
▁ኃጢ	-5260
▁ብወገ	-5261
▁ቐዳማይ	-5262
▁ምኻኑ	-5263
▁መቐለ	-5264
▁Next	-5265
ፈን	-5266
ጋኑ	-5267
ርሑ	-5268
-2	-5269
▁ከየ	-5270
▁እኩያት	-5271
▁ኣቢል	-5272
▁ኢኻ፣	-5273
▁ንዘይ	-5274
▁ተመክሮ	-5275
▁ምጥቃ	-5276
ፈለጥ	-5277
ጋል	-5278
ኦም፡	-5279
ትኡ	-5280
በል።	-5281
ሓዘ	-5282
ሓና	-5283
▁ፍታሕ	-5284
▁ዶክተር	-5285
▁ደቓይቕ	-5286
▁ዝፈት	-5287
▁ክነግረ	-5288
▁ኣይኮንኩን።	-5289
▁ኣውጺ	-5290
▁ማል	-5291
▁መጻምድ	-5292
ፈ።	-5293
ሆ፡	-5294
ሃህ	-5295
▁ድየ	-5296
▁ዘክር	-5297
▁እንተደኣ	-5298
▁ኣነ'ውን	-5299
▁ትራምፕ	-5300
▁ተዋሂቡ	-5301
▁ተቀ	-5302
▁ተመን	-5303
▁ብኡብኡ	-5304
▁ብሙ	-5305
▁ሰማያዊ	-5306
▁ሃቦም።	-5307
ዘራረብ	-5308
ሰደ	-5309
ርዕ	-5310
ሌፎን	-5311
le	-5312
0)	-5313
▁ፋሕ	-5314
▁ድያ	-5315
▁ደሴ	-5316
▁ዝጸን	-5317
▁ውድድር	-5318
▁ኩባን	-5319
▁ኣይነበሮን።	-5320
▁ብመዓልቲ	-5321
▁ስደት	-5322
▁ሩስያ	-5323
▁ሕግታት	-5324
▁ሓደስቲ	-5325
ፍጽም	-5326
▁ድኅ	-5327
▁ካቶሊ	-5328
▁እዚኣ፡	-5329
▁35	-5330
ወግ	-5331
ራሽ	-5332
▁ዝርርብ	-5333
▁ዘሎኒ	-5334
▁ዓሌ	-5335
▁ኻልኣይ	-5336
▁ኣጸቢቑ	-5337
▁ተቓውሞ	-5338
▁ምልክታት	-5339
▁ህዝቢ፡	-5340
ፈሪ	-5341
ተገብ	-5342
ምነ	-5343
መኒ	-5344
▁ኣውስትራ	-5345
▁ብቓ	-5346
▁መካ	-5347
▁ልዕሌ	-5348
▁"ም	-5349
ጻዕቲ	-5350
ግዜ	-5351
ደድ	-5352
ነጽ	-5353
በልኩ	-5354
▁ድንግ	-5355
▁ይመስለኒ።	-5356
▁ውር	-5357
▁ኵላቶም	-5358
▁ካባኻ	-5359
▁ከመይሲ	-5360
▁ንምሕ	-5361
▁ናይ'ቲ	-5362
▁ተመሃሮ	-5363
▁ብሽ	-5364
▁ቈልዓ	-5365
▁(ሉ	-5366
ፋይ	-5367
ዱእ	-5368
ዐን	-5369
ኣኒ	-5370
ሳል	-5371
ማንነት	-5372
ሓሰ	-5373
ለፍ	-5374
▁ጥቅምቲ	-5375
▁ግራት	-5376
▁ገላዉ	-5377
▁ይግብኣ	-5378
▁ኵላ	-5379
▁ክር	-5380
▁ከይተረፈ	-5381
▁እዩ፥	-5382
▁ኣወዳ	-5383
▁ኣመንቲ	-5384
▁ትኸ	-5385
▁ብተመ	-5386
▁ቡን	-5387
▁ሞንጎ	-5388
▁ማያት	-5389
▁መበገ	-5390
▁42	-5391
▁"ዝ	-5392
ጸናን	-5393
ድስ	-5394
ዝኡ	-5395
ኩም?	-5396
ነበር	-5397
ብዓት	-5398
ሉው	-5399
▁ይፈልጦ	-5400
▁ዓርቢ	-5401
▁ዓን	-5402
▁ኰነ።	-5403
▁ኣሎካ	-5404
▁ብምሕ	-5405
▁በዓ	-5406
▁ቘልዓ	-5407
▁መተ	-5408
▁"ነቲ	-5409
ግኡ	-5410
ዘርላንድ	-5411
ዓዪ	-5412
ኣስ	-5413
አይ	-5414
ታታ	-5415
በዩ	-5416
ምጽእ	-5417
መርጽ	-5418
ለዋ	-5419
'ዛ	-5420
▁ያዕ	-5421
▁ዝተኸ	-5422
▁ወጋ	-5423
▁ዅነታት	-5424
▁እንስሳታት	-5425
▁ኣገልግሎ	-5426
▁ኣይኣ	-5427
▁ትፈልጦ	-5428
▁ስፖርት	-5429
▁ሰፊሕ	-5430
▁ሰበይትን	-5431
▁መመ	-5432
ዲስ	-5433
ደጋጋሚ	-5434
ማድ	-5435
ህበና	-5436
▁ጸበባ	-5437
▁ዝገለ	-5438
▁ዝወጸ	-5439
▁ዕላ	-5440
▁እንቋዕ	-5441
▁እሙናት	-5442
▁ኢና፣	-5443
▁ኢና!	-5444
▁ብድሆ	-5445
▁ብዝበለ	-5446
▁ብልክዕ	-5447
▁በር	-5448
▁ምስጢ	-5449
▁መዝገብ	-5450
▁2016	-5451
ዎት	-5452
ራዕ	-5453
ሪኡ	-5454
▁ጥቕሲ	-5455
▁ገበርኩም፡	-5456
▁ይጽበ	-5457
▁ዝሓለፉ	-5458
▁ዓርከይ	-5459
▁ወከ	-5460
▁ኽኣ	-5461
▁ከይዱ	-5462
▁ኣይኮኑን።	-5463
▁ኣቤ	-5464
▁ብሩር	-5465
▁ቅል	-5466
▁Read	-5467
▁48	-5468
ፍቅር	-5469
ገዳ	-5470
መልክት	-5471
▁ጥም	-5472
▁ዚገብር	-5473
▁ውዕል	-5474
▁ክገብረ	-5475
▁ኣሕዋቱ	-5476
▁ብዛ	-5477
▁ብዚ	-5478
▁መሪሕነት	-5479
ፈይ	-5480
ኻእለ	-5481
ብርን	-5482
▁ግዚ	-5483
▁ይጸ	-5484
▁ወዘተ	-5485
▁እዩ፧"	-5486
▁እተወ	-5487
▁ኣይክእልን።	-5488
▁አሎኹ።	-5489
▁ብጥ	-5490
▁ባህርያት	-5491
▁ስምዑ	-5492
▁ምምላስ	-5493
▁መጸ።	-5494
▁መም	-5495
▁more	-5496
ፈርህ	-5497
ገጺ	-5498
ጅም	-5499
ጀካ	-5500
ክልኻል	-5501
ቡኡ	-5502
▁ግብጻ	-5503
▁ዝተመ	-5504
▁ዘብል	-5505
▁ዓስቢ	-5506
▁ኣባኻትኩም	-5507
▁ኣምጺ	-5508
▁ኣሃ	-5509
▁ነፋ	-5510
▁በላዕ	-5511
▁ሰራ	-5512
▁ምኽንያታት	-5513
▁ሓረስ	-5514
▁ላዕለዋይ	-5515
ጻወት	-5516
ገብራ	-5517
ውና	-5518
ክረ	-5519
ንዛ	-5520
ብላዕ	-5521
ስተውዕ	-5522
ሩዕ	-5523
መጸ	-5524
▁ግበሩ	-5525
▁ዘይኣ	-5526
▁ኣድላይ	-5527
▁ኣማራጺ	-5528
▁ኣቀ	-5529
▁ብተደጋጋሚ	-5530
▁ሓንሳእ	-5531
ፎ።	-5532
ዖን	-5533
ነበሩ	-5534
ረግ	-5535
ላሊ	-5536
▁ጠጠው	-5537
▁ደየ	-5538
▁ደሃይ	-5539
▁ዝናብ	-5540
▁ዛዕባ	-5541
▁ኸደ።	-5542
▁ከመ	-5543
▁ኣዒንቶም	-5544
▁ተፈጺሙ	-5545
▁ቛንቋ	-5546
▁መራኸ	-5547
ፈኒ	-5548
ነትን።	-5549
ቶን	-5550
▁ፕሮግራም	-5551
▁ድኻታት	-5552
▁ዕጽ	-5553
▁ክትሕ	-5554
▁ክፋ	-5555
▁ኣውራ	-5556
▁ንቤተ	-5557
▁ንቓ	-5558
▁ስጕ	-5559
▁ሚእታዊት	-5560
▁ሚኢ	-5561
▁መንበር	-5562
▁መሰው	-5563
▁ለበ	-5564
ጠቓል	-5565
ኸት	-5566
በራ።	-5567
ቃለስ	-5568
ም፡	-5569
▁ጠመ	-5570
▁ግዴ	-5571
▁ዝፈጠ	-5572
▁ዝመጻእ	-5573
▁ውድባት	-5574
▁ውላድ	-5575
▁ኣንበሳ	-5576
▁ሞተ።	-5577
▁ምሁ	-5578
▁መበገሲ	-5579
▁ልምዓት	-5580
▁39	-5581
ገደ	-5582
ይሮ	-5583
ውሕ	-5584
ኹን።	-5585
▁ጽኑዕ	-5586
▁ዚስዕብ	-5587
▁ኩባንያ	-5588
▁ከከም	-5589
▁እንድሕር	-5590
▁ኣሸ	-5591
▁ብዝብል	-5592
▁በይነይ	-5593
▁ቀይሕ	-5594
▁ሕድሪ	-5595
▁ሓሰ	-5596
▁ህንጻ	-5597
▁"ንስኻትኩም	-5598
▁"ኦ	-5599
▁"መን	-5600
ኮር	-5601
ቃወ	-5602
ረስዕ	-5603
▁ፕሮጀክት	-5604
▁ጸለ	-5605
▁ይኸውን?	-5606
▁ዝካየድ	-5607
▁ዘሎ፡	-5608
▁ክብለ	-5609
▁ካሊእ	-5610
▁እዝስ	-5611
▁ንገብር	-5612
▁ብተመሳሳሊ	-5613
▁ብሓቂ	-5614
▁ማእኸ	-5615
▁መጋቢት	-5616
▁መምህ	-5617
▁ሓለቓ	-5618
ስሕ	-5619
መኑ	-5620
▁ፍርድ	-5621
▁ገን	-5622
▁ጀጋኑ	-5623
▁ድልየት	-5624
▁እንተኾነ፡	-5625
▁ኣውቶ	-5626
▁ተፈጥ	-5627
▁ተንሲኡ	-5628
▁ብሪጣንያ	-5629
▁ቃሉ	-5630
▁መልክ	-5631
▁ህላ	-5632
▁'እ	-5633
ጦስ	-5634
ውስኽ	-5635
ክእሉ	-5636
id	-5637
▁ጠው	-5638
▁ይስምዓ	-5639
▁ዕድሚ	-5640
▁ዕላል	-5641
▁ኣለኩም።	-5642
▁ታሕሳስ	-5643
▁በጺሑ	-5644
▁ስኢ	-5645
ጀሚ	-5646
ተው	-5647
ብህ	-5648
▁ግንባር	-5649
▁ድሕርዚ	-5650
▁ደብዳበ	-5651
▁ይዓቢ	-5652
▁ካብኣ	-5653
▁ከምት	-5654
▁እንበር	-5655
▁ንኡ	-5656
▁ብምዃኑ	-5657
▁ብኣይ	-5658
▁ባርነት	-5659
▁ቅዋም	-5660
▁መለሰሉ።	-5661
▁"ንስኻ	-5662
ጀመርታ	-5663
ስለ	-5664
ምም	-5665
▁ዮርዳ	-5666
▁ዩኒቨርሲ	-5667
▁ዓለ	-5668
▁ውዳ	-5669
▁ካብዞም	-5670
▁ኣራዊት	-5671
▁ታቦት	-5672
▁ሰር	-5673
▁ራብ	-5674
▁ህንዲ	-5675
▁'ቲ	-5676
ኣሉ	-5677
ቋር	-5678
ቅድ	-5679
ስፈ	-5680
ሰና	-5681
ምው	-5682
▁ጸን	-5683
▁ወጋሕታ	-5684
▁ክትርኢ	-5685
▁ኣፉ	-5686
▁ኣመስ	-5687
▁ንፈ	-5688
▁ብራ	-5689
▁ቀሪቡ	-5690
▁ርኤ	-5691
▁መሮ	-5692
ፍሉ	-5693
በሎም	-5694
መገዲ	-5695
ሉኡ	-5696
ሉስ	-5697
▁ደቀንስትዮ	-5698
▁ይት	-5699
▁ዝሞተ	-5700
▁ዜድልየ	-5701
▁ኽትከውን	-5702
▁ካብዛ	-5703
▁ነበርቲ	-5704
▁ቍጽሪ	-5705
▁ቅሩብ	-5706
▁ስድራቤት	-5707
▁ሠናይ	-5708
▁ሓይልታት	-5709
▁"እቶም	-5710
▁"ገ	-5711
ጥቀመ	-5712
ድዎ	-5713
ደስቲ	-5714
ዘየ	-5715
ውሑ	-5716
ሰማማዕ	-5717
ምቕ	-5718
መስግነካ	-5719
▁ዝተኻየደ	-5720
▁ዘቕ	-5721
▁ዓለምለ	-5722
▁ወብ	-5723
▁ኪመጽእ	-5724
▁ኣፍሊ	-5725
▁ኣይግባእ	-5726
▁ሰቴ	-5727
ጥበብ	-5728
ዘብ	-5729
ንጻሩ	-5730
ረና።	-5731
ልውላው	-5732
ልኹም	-5733
it	-5734
'ዩ፡	-5735
▁ድንግል	-5736
▁ይብሃል	-5737
▁ዘድልዮ	-5738
▁ውሽጣዊ	-5739
▁ክትፈልጥ	-5740
▁ኣቡ	-5741
▁ንኣኻትኩም	-5742
▁ንማ	-5743
▁ተጋዳ	-5744
▁ተገሊጹ	-5745
▁ብጐይታ	-5746
▁ባዕልና	-5747
▁ማሕበረሰብ	-5748
▁ሓቢርና	-5749
▁ሂወ	-5750
▁Me	-5751
▁43	-5752
ገዝእ	-5753
ዋጋ	-5754
ሮንን	-5755
ርትዖ	-5756
ላማዊ	-5757
▁ፍራን	-5758
▁ይእ	-5759
▁ዓርኪ	-5760
▁እንተወ	-5761
▁ኣይከኣልኩን።	-5762
▁ኣልቦ	-5763
▁ንጽብ	-5764
▁ንብዘሎ	-5765
▁ተሰሚዑ	-5766
▁ተመለ	-5767
▁ብከ	-5768
▁በላዕኩም፡	-5769
▁በቃ	-5770
▁ስጕምቲ	-5771
▁ሲኦል	-5772
▁ሰቴኹም፡	-5773
▁ርስ	-5774
▁36	-5775
▁'ዩ።	-5776
ፍጽ	-5777
ዛእቲ	-5778
ኸይድ።	-5779
ቕና	-5780
▁ፍጡር	-5781
▁ጌረ	-5782
▁ካህን	-5783
▁ከይደ	-5784
▁ኣይኮንኩን	-5785
▁አን	-5786
▁ትዝ	-5787
▁ተጋሩ	-5788
▁ተመራ	-5789
▁ብኣኻ	-5790
▁ሕገ	-5791
▁[...	-5792
▁[...]	-5793
▁(ኣብ	-5794
ጋራ	-5795
ድሕኑ	-5796
ዋውያን	-5797
ካኒ	-5798
ተወሰነ	-5799
ረጋግጽ	-5800
መርቲ	-5801
▁ግዳይ	-5802
▁ደቒቕ	-5803
▁ይቀ	-5804
▁የሕ	-5805
▁ዝተሰ	-5806
▁ዝህብ	-5807
▁ዓ/	-5808
▁ክንክን	-5809
▁ኪቐት	-5810
▁ኢኻ፧"	-5811
▁ንባ	-5812
▁ትእምር	-5813
▁ተበጊ	-5814
▁ቅዳ	-5815
▁ቀትሪ	-5816
▁መራኸቢ	-5817
▁ሕዳር	-5818
ቲት	-5819
በርቲ	-5820
ልባ	-5821
▁ጽሒ	-5822
▁ዝፍለጥ	-5823
▁ዘሎ?	-5824
▁ክትወ	-5825
▁ክልል	-5826
▁ክኣቱ	-5827
▁ኣለኹ"	-5828
▁ንዝኾነ	-5829
▁ተ.	-5830
▁ብሚ	-5831
▁ምዕራብ	-5832
▁መለስ	-5833
▁2015	-5834
▁198	-5835
ዙሕ	-5836
ስኮ	-5837
▁ይፈልጡ	-5838
▁ይዛረብ።	-5839
▁ይዕ	-5840
▁ዜደንቕ	-5841
▁ኢና፧	-5842
▁ተጻሒፉ	-5843
▁ተዛረብ	-5844
▁ብዘላ	-5845
▁በዛ	-5846
▁ሰሙናት	-5847
▁ምስኦም	-5848
▁ምርዳእ	-5849
▁መርትዖ	-5850
▁(ዮሓ	-5851
▁(ሮ	-5852
ዳዲ	-5853
ርኢ።	-5854
ህልዎ	-5855
▁ዘበ	-5856
▁ኮነ።	-5857
▁እዋን'ዚ	-5858
▁እተዋ	-5859
▁እምብዛ	-5860
▁ኣይሕ	-5861
▁ኣዋጅ	-5862
▁ኣባና	-5863
▁ንጹህ	-5864
▁ንዓኻትኩም	-5865
▁ንምዃኑ	-5866
▁ንካልእ	-5867
▁ተኣሲ	-5868
▁ተባዕትዮ	-5869
▁ሽግ	-5870
▁ሬሳ	-5871
▁ሕርሻ	-5872
▁ሓላፊ	-5873
▁ሓሚ	-5874
▁ህዝብኻ	-5875
ጀመርያ	-5876
ዝያ	-5877
ክርስቲያን	-5878
እቱ	-5879
ትለት	-5880
ራርባ	-5881
መናን	-5882
ለለ	-5883
▁የድል	-5884
▁ዝበዝሐ	-5885
▁ወፃኢ	-5886
▁ክትዕ	-5887
▁እተፈላለየ	-5888
▁እፈልጦ	-5889
▁ኣገደስቲ	-5890
▁ኣሎኒ	-5891
▁ኢኹም?	-5892
▁ነይርና።	-5893
▁ተፈጢ	-5894
▁ባህርያዊ	-5895
▁ምትእ	-5896
▁ሚያ	-5897
▁መቸም	-5898
▁መሰውኢ	-5899
▁መእተ	-5900
▁ሓምለ	-5901
▁80	-5902
ግበር።	-5903
ነታ	-5904
በዝሕ	-5905
ረን።	-5906
at	-5907
▁ግድ	-5908
▁ይቕሬታ	-5909
▁ይገብሩ	-5910
▁ዚቕ	-5911
▁ዘይብ	-5912
▁ዓመተ	-5913
▁ኮይንካ	-5914
▁ክወጽእ	-5915
▁ኣይበ	-5916
▁ኢኻ፧	-5917
▁ንበይኑ	-5918
▁ተኣኪ	-5919
▁ተታ	-5920
▁ብወገነይ	-5921
▁ሳልሰይቲ	-5922
▁ሰሚዐ	-5923
▁ምሽ	-5924
ይሊ	-5925
ዑን	-5926
ዋኽብቲ	-5927
ዋፍ	-5928
ንሱ	-5929
ኃት	-5930
ታትኩም	-5931
ቅር	-5932
ራስ	-5933
ሙሽተ	-5934
▁ይበ	-5935
▁ዝከኣ	-5936
▁ዝሐ	-5937
▁ዓመት፡	-5938
▁ካን	-5939
▁እያ፣	-5940
▁እያ"	-5941
▁ኣየድል	-5942
▁ኣባኻ	-5943
▁ንውሉ	-5944
▁ስቓይ	-5945
▁1:1	-5946
ግሪ	-5947
ክለ	-5948
ርእያ	-5949
ሕግዘና	-5950
▁ዚብሃል	-5951
▁ዘጸ	-5952
▁እተቐ	-5953
▁ንብዓት	-5954
▁ንክት	-5955
▁ሚኒስተር	-5956
▁"ደ	-5957
▁"ሓደ	-5958
ግዚኣብሄር	-5959
ውዒ	-5960
ኦትን	-5961
▁ፈራ	-5962
▁ይግበረ	-5963
▁ዝዀነ፡	-5964
▁ዘሎና።	-5965
▁ዓሠር	-5966
▁እዮብ	-5967
▁እያሱ	-5968
▁ኣባይቲ	-5969
▁ንልዕሊ	-5970
▁ነፋሪት	-5971
▁ተወከ	-5972
▁ተመላለ	-5973
▁ብዛዕባ'ዚ	-5974
▁ቀዳም	-5975
▁ሰዲ	-5976
▁መቕጻዕቲ	-5977
▁ሓደራ	-5978
▁'ኣብ	-5979
ፋር	-5980
ዶ።	-5981
ዶም።	-5982
ዲት	-5983
ኣምላኽ	-5984
▁ጀመሩ።	-5985
▁ዘይኮ	-5986
▁ዘርእስታ	-5987
▁ኸነ	-5988
▁ክትገብሮ	-5989
▁ክትነብር	-5990
▁እየ!	-5991
▁ኣህጉራዊ	-5992
▁ንእስ	-5993
▁ንህዝቡ	-5994
▁ትሽ	-5995
▁ቐሪቡ	-5996
▁ሓባር	-5997
▁"ኣይ	-5998
፧'	-5999
ያይ	-6000
ዛር	-6001
ቛንቋ	-6002
ሰይጣን	-6003
▁ዮርዳኖስ	-6004
▁ይፍለጥ።	-6005
▁ዚዛረብ	-6006
▁ዓ/ም	-6007
▁ከንቱ	-6008
▁ኣይትፍራህ	-6009
▁ኣቕሪ	-6010
▁በላ	-6011
▁ሰራሕተኛ	-6012
▁መብራህ	-6013
▁ህን	-6014
▁2014	-6015
▁"ኣቱም	-6016
▁"ጋ	-6017
ፈለየ	-6018
ፁ።	-6019
ጻም	-6020
ብሊ	-6021
ል፡	-6022
ለይ፡	-6023
ለ፡	-6024
▁ጾር	-6025
▁ጽሩይ	-6026
▁ገሊኣቶም	-6027
▁ዝሰምዕ	-6028
▁ዝርከ	-6029
▁ኣይረኣ	-6030
▁ኣንበብ	-6031
▁ትኽእሉ።	-6032
▁ብጸሎት	-6033
▁በተን	-6034
▁ሞገስ	-6035
▁ሓደሽቲ	-6036
▁ሓዋርያ	-6037
ጽዕ	-6038
ጋን	-6039
ውትን	-6040
ታ፡	-6041
ርከስ	-6042
ሕድሕ	-6043
ሐይ	-6044
ልጠ	-6045
▁ጽል	-6046
▁ዝኣም	-6047
▁ዓመጽ	-6048
▁ኣልኮ	-6049
▁ኣድራ	-6050
▁ንኽልተ	-6051
▁ንሓንቲ	-6052
▁ሰነድ	-6053
▁ሜዳ	-6054
▁ህጹጽ	-6055
ግዚኣብሔር	-6056
ኽልቲ	-6057
ሐን	-6058
▁ጽዮን	-6059
▁ዓይን	-6060
▁ወገናት	-6061
▁ከምታ	-6062
▁እንክ	-6063
▁ቴክኖሎጂ	-6064
▁ብፍጹም	-6065
▁ብፁዕ	-6066
▁ብዘየገድስ	-6067
▁ብሰሪ	-6068
▁ብክርስቶስ	-6069
▁ቅድመ	-6070
▁ስዉ	-6071
▁ሰራዊ	-6072
▁ሓመድ	-6073
▁ሊቀ	-6074
▁44	-6075
▁2.	-6076
ጨረ	-6077
ዱሳት	-6078
ደሙ	-6079
ይይ	-6080
እምማን	-6081
ቅኻ	-6082
ct	-6083
▁ፈጠረ።	-6084
▁ጓሳ	-6085
▁ድሌ	-6086
▁ይገልጽ።	-6087
▁ዩኒቨርሲቲ	-6088
▁ዘይከኣል	-6089
▁ኽፍ	-6090
▁ኮይኑ፡	-6091
▁ኣይደለ	-6092
▁ናይዛ	-6093
▁ብዝምልከት	-6094
▁ብዓይ	-6095
▁ብብዝሒ	-6096
▁ብኹሉ	-6097
▁ቀስ	-6098
▁መሃ	-6099
▁ለመ	-6100
▁2013	-6101
ነት።	-6102
he	-6103
▁ፈተነ	-6104
▁ጸሓፍ	-6105
▁ጭንቀ	-6106
▁ግበር።	-6107
▁ዝወረደ	-6108
▁ዝኽሪ	-6109
▁ዝነበሮም	-6110
▁ውሑድ	-6111
▁ዀይኑ፡	-6112
▁ክትገብሩ	-6113
▁ክፈት	-6114
▁ካብኦም	-6115
▁ከይን	-6116
▁እኳ	-6117
▁ንአምላኽ	-6118
▁ናብኣ	-6119
▁ሽጋራ	-6120
▁ስልጣ	-6121
▁ምክንያቱ	-6122
▁መባእ	-6123
▁ሓቅን	-6124
▁37	-6125
▁(ሮሜ	-6126
ገብሮም	-6127
ገሩ	-6128
የኒ	-6129
ዛይ	-6130
ዋህ	-6131
ቋንቋ	-6132
ቃር	-6133
ርኻ	-6134
ሞም።	-6135
ምልስ	-6136
ሕድ	-6137
▁ጠቓ	-6138
▁ጎረ	-6139
▁ገጽካ	-6140
▁ዝዓቢ	-6141
▁ዝኣዘ	-6142
▁ብቕዓት	-6143
▁ብብር	-6144
▁ባንክ	-6145
▁ሠለስተ	-6146
▁መኽ	-6147
▁(ዘፍ	-6148
ጠቓ	-6149
ጓስ	-6150
ግዘ	-6151
ኣትን	-6152
ሶ።	-6153
መዓልቲ	-6154
ልጋል	-6155
▁ድሓር	-6156
▁እዚኣተን	-6157
▁እንታ	-6158
▁ኣና	-6159
▁ናይ'ዚ	-6160
▁ነፍሰይ	-6161
▁ተላ	-6162
▁ሸነኽ	-6163
▁መናፍ	-6164
▁2019	-6165
ያር	-6166
ሳው	-6167
ረአ	-6168
ህበኒ	-6169
/ር	-6170
▁ፍልይ	-6171
▁ግበረ	-6172
▁ገዛኢ	-6173
▁ጅግና	-6174
▁ዘሎኻ	-6175
▁እትርከብ	-6176
▁እሞ።	-6177
▁ኣይበል	-6178
▁ኢኹም፣	-6179
▁ብምንታይ	-6180
▁በልኩ	-6181
▁ቃልካ	-6182
▁ረኣይ	-6183
▁ሒዞም	-6184
ገበ	-6185
ውድ	-6186
ዋስ	-6187
እመን	-6188
ንፈር	-6189
ትንስ	-6190
:7	-6191
▁ግዝኣት	-6192
▁ይር	-6193
▁ዕድሜ	-6194
▁ኸምቲ	-6195
▁ኮሮና	-6196
▁ኣይኮኑን	-6197
▁ኣውሮጳ	-6198
▁ኣለኻ።	-6199
▁ንቑ	-6200
▁ነበረ፣	-6201
▁ተቐቲ	-6202
▁ተሰሪ	-6203
▁ተሓጒ	-6204
▁ብሓንሳብ	-6205
▁ምእታው	-6206
▁ሕሱ	-6207
▁2ይ	-6208
▁....	-6209
▁(ማቴዎስ	-6210
▁"እወ	-6211
▁"ክ	-6212
ፈላለዩ	-6213
ጥታት	-6214
ጐይታይ	-6215
ኮኖ	-6216
ክቲ	-6217
ኔት	-6218
ቦም፡	-6219
ቀር	-6220
ልሚ	-6221
ሉ፣	-6222
ሃህላ	-6223
-መን	-6224
▁ጃፓ	-6225
▁ዓውዲ	-6226
▁ዓሠርተ	-6227
▁ውዒ	-6228
▁ወጺኡ	-6229
▁ክንነብር	-6230
▁ኪብሃል	-6231
▁ከደ።	-6232
▁እኽሊ	-6233
▁ኣይክእሉን	-6234
▁ንዂሉ	-6235
▁ነባሪ	-6236
▁ምስትውዓል	-6237
▁3:1	-6238
▁202	-6239
▁"ብዛዕባ	-6240
ዎን።	-6241
ነታዊ	-6242
ነቲ	-6243
ት)	-6244
ቓት	-6245
ሩኒ	-6246
al	-6247
▁ደቆም	-6248
▁ይደልዩ	-6249
▁ዝደልዮ	-6250
▁ኸሎ፡	-6251
▁እማ	-6252
▁ኣገልገልቲ	-6253
▁ኣቢሎም	-6254
▁ኣቢለ	-6255
▁ኣኅ	-6256
▁ንጽባ	-6257
▁ንዘል	-6258
▁ንእሽተይ	-6259
▁ንፈልጦ	-6260
▁ነገድ	-6261
▁ርኢና	-6262
▁ምጅ	-6263
▁'ኣነ	-6264
▁"ንሕና	-6265
ዳ።	-6266
ደበ	-6267
ንግሊዝ	-6268
ርእዮም	-6269
ረጋግ	-6270
ልካ።	-6271
ለኻ	-6272
ic	-6273
-መ	-6274
▁ፈጢ	-6275
▁ይክ	-6276
▁ዝወሃብ	-6277
▁ኤርትራዊ	-6278
▁ኣለኩም	-6279
▁ብእተ	-6280
▁ርእሳ	-6281
▁ራብዓይ	-6282
▁ሞይቶም	-6283
▁መሓዙ	-6284
▁ሓንጎ	-6285
▁60	-6286
ፈርቲ	-6287
ጋንን	-6288
ጉይ	-6289
ውጽ	-6290
ነተይ	-6291
ስራኤላውያን	-6292
ሳተፉ	-6293
ሕግዞም	-6294
ህበኩም	-6295
'ኮ	-6296
▁ግዜን	-6297
▁ዳሕሮት	-6298
▁ይኽእል?	-6299
▁ወዮ	-6300
▁ወሊ	-6301
▁ክብረት	-6302
▁ክርስትና	-6303
▁ከምዘለዎ	-6304
▁እኩይ	-6305
▁አሎና።	-6306
▁ንኣሽቱ	-6307
▁ትዊ	-6308
▁ተሪፉ	-6309
▁ተገዲ	-6310
▁ተር	-6311
▁ቤተሰብ	-6312
▁ስድ	-6313
▁ርእዮም	-6314
▁ምብጻሕ	-6315
▁ሓቀይ	-6316
▁ህዝቡ	-6317
▁(ዮሃንስ	-6318
ጸግ	-6319
ዥን	-6320
ባሽ	-6321
ሮፓ	-6322
ራሪ	-6323
ረትን	-6324
▁ጥንሲ	-6325
▁ይመር	-6326
▁ዩኒቨርስ	-6327
▁ዝገልጽ	-6328
▁ዘገድ	-6329
▁ዓመታዊ	-6330
▁ዓም	-6331
▁ክትዛረብ	-6332
▁ክነግ	-6333
▁ኣይትፈልጥን	-6334
▁አይኮነ	-6335
▁ንሰበይ	-6336
▁ተጋዳላይ	-6337
▁ተሓቢ	-6338
▁ተጀሚ	-6339
▁ተልእ	-6340
▁ብሰይ	-6341
▁በጃኹም	-6342
▁በለ፦	-6343
▁ቁጠባዊ	-6344
▁ቀልጢፉ	-6345
▁ርኹ	-6346
▁ምሥ	-6347
▁መድሃኒት	-6348
▁መንደ	-6349
▁ሓለዋ	-6350
▁ሒዝካ	-6351
ጽሑፍ	-6352
ዳዊ	-6353
ኰኑ	-6354
▁ገሊጹ።	-6355
▁ገብረ	-6356
▁ደረት	-6357
▁ይገል	-6358
▁ዓብይ	-6359
▁ዓገብ	-6360
▁ክንቅ	-6361
▁ክመል	-6362
▁እዮም፧	-6363
▁እንድዩ	-6364
▁እትገብሮ	-6365
▁እምን	-6366
▁ኣድራሻ	-6367
▁ኣኺ	-6368
▁ንስሓ	-6369
▁ንነብር	-6370
▁ነዝ	-6371
▁ትርጕም	-6372
▁ትምኒት	-6373
▁ተመስገን	-6374
▁ተሓጐ	-6375
▁ብሂ	-6376
▁በዓልቲ	-6377
▁መሮር	-6378
ግሶ	-6379
ኣ።	-6380
ኣና	-6381
ሰን።	-6382
ምርዓ	-6383
▁ፍለ	-6384
▁ድር	-6385
▁ይምህ	-6386
▁ዝዀነት	-6387
▁ዝበዝሑ	-6388
▁ወጻእ	-6389
▁ክህብ	-6390
▁ክውን	-6391
▁ኪወ	-6392
▁ኣንፈት	-6393
▁ኢላ።	-6394
▁ነጻነት	-6395
▁ነንሕድሕ	-6396
▁ትኽእ	-6397
▁ተኣከ	-6398
▁ብቕን	-6399
▁ብቑዕ	-6400
▁ብሕል	-6401
▁ሽም	-6402
▁ስራሕቲ	-6403
▁ረኣየ	-6404
▁ረድ	-6405
▁ሚስ	-6406
▁ሓብ	-6407
▁ሃንደበት	-6408
▁70	-6409
ገብርን	-6410
ድማ	-6411
ውጽእ	-6412
ካዊ	-6413
በኩም	-6414
ስቡክ	-6415
ማሚ	-6416
ar	-6417
▁ፍቃ	-6418
▁ፈታዊ	-6419
▁ጋዜጣ	-6420
▁ይነግረ	-6421
▁ዝበጽ	-6422
▁ዝቕጽል	-6423
▁ዓሊ	-6424
▁ከላ	-6425
▁ኣቦኻ	-6426
▁ኣመል	-6427
▁ንዘልኣለም	-6428
▁ንሓቂ	-6429
▁ንኤ	-6430
▁ነዘን	-6431
▁ትብሎ	-6432
▁ተጋደል	-6433
▁ተገረ	-6434
▁ተረዲ	-6435
▁ብኣካል	-6436
▁ሰይፊ	-6437
▁ርእዩ	-6438
▁መለሰሎም።	-6439
ፈጠር	-6440
ፃእ	-6441
ወልደ	-6442
ኛን	-6443
ትን።	-6444
በስ	-6445
ሰስ	-6446
ሖም።	-6447
▁ፍቓደኛ	-6448
▁ጕጅለ	-6449
▁ዝአ	-6450
▁ዝርአ	-6451
▁ዕቤት	-6452
▁ወጸ	-6453
▁ክንዛረብ	-6454
▁ክትከይድ	-6455
▁እከ	-6456
▁ናትኩም	-6457
▁ብሄ	-6458
▁ሰውራ	-6459
▁መጠንቀቕ	-6460
▁መእተዊ	-6461
▁ሕያዋይ	-6462
▁ሃብታ	-6463
▁(አ	-6464
ፈርሁ	-6465
ፈለጠ	-6466
ኩ፣	-6467
ትንስእ	-6468
ትዕ	-6469
ስተን	-6470
ርኪ	-6471
ምን"	-6472
ላላ	-6473
ለየ	-6474
▁ጎን	-6475
▁ግዴታ	-6476
▁ድሕርዚ፡	-6477
▁ይዛረብ	-6478
▁ዝፈጠረ	-6479
▁ዝነግ	-6480
▁ዝተዓ	-6481
▁ዘየለ	-6482
▁ዘፍር	-6483
▁ክሓልፍ	-6484
▁ከማኻ	-6485
▁ኣገዳስነት	-6486
▁ኣኼባታት	-6487
▁ኣለኹም።	-6488
▁ንበ	-6489
▁ብመልክ	-6490
▁በጊዕ	-6491
▁ምርምር	-6492
▁መንገድ	-6493
▁ሓድሕ	-6494
▁ሊቃ	-6495
ፍቅሮ	-6496
ጓድ	-6497
ድሽተ	-6498
ወሰ	-6499
እንተ	-6500
እምሮ	-6501
አይቲ	-6502
ንጋ	-6503
ተንብ	-6504
ር.	-6505
ረታ	-6506
ምሃብ	-6507
ሓሸ	-6508
ሊኦም	-6509
ሃድም	-6510
▁ጌርካ	-6511
▁ገዛና	-6512
▁ይግብኦ	-6513
▁የግዳ	-6514
▁የብልናን	-6515
▁ውሽጥ	-6516
▁ኴንና	-6517
▁እሱራት	-6518
▁እምባ	-6519
▁ኣይነበር	-6520
▁ኣትሒ	-6521
▁ኣታኽልቲ	-6522
▁ኣረጋጊ	-6523
▁ኢዩ?	-6524
▁ንቕድሚ	-6525
▁ንኻልእ	-6526
▁ተጠንቀ	-6527
▁ብዅሉ	-6528
▁በቶም	-6529
▁ሰብኣይ፡	-6530
▁ምግባ	-6531
▁መኣዲ	-6532
▁ሓጊዙ	-6533
▁ሒዘ	-6534
▁"ጋኔ	-6535
ፈሉ	-6536
ጸበ	-6537
ጠርና	-6538
ግዝ	-6539
ዳለወ	-6540
ይ፡	-6541
ከተ	-6542
ኣካ	-6543
ናፍ	-6544
ተብ	-6545
ባልነት	-6546
ሰርሖ	-6547
ምብ	-6548
ልብ	-6549
'ዉን	-6550
▁ጠቓሚ	-6551
▁ጎቦ	-6552
▁ገዛይ	-6553
▁ገዳም	-6554
▁ዝኽእል።	-6555
▁ዝለኣኸ	-6556
▁ዝደል	-6557
▁ኺዳን	-6558
▁ክመር	-6559
▁ከምዝነበረ	-6560
▁ንፈር	-6561
▁ተፈሊ	-6562
▁ተኣምር	-6563
▁በሎም፦	-6564
▁ሥልጣን	-6565
▁ማቴዎስ	-6566
▁መንግስትታት	-6567
▁መጹ።	-6568
▁ሕያው	-6569
▁ልቦ	-6570
ፀን	-6571
ዱሽ	-6572
ዖ።	-6573
ን?	-6574
ሓትት።	-6575
ሃሃ	-6576
30	-6577
▁ፍቑ	-6578
▁ግዳያት	-6579
▁ገዝ	-6580
▁ይገብር።	-6581
▁ዝኸውን።	-6582
▁ዝተረፉ	-6583
▁ዘይነበረ	-6584
▁ኸረን	-6585
▁ክንርእዮ	-6586
▁ክህልወና	-6587
▁ኪነግ	-6588
▁እንተዘይኮይኑ	-6589
▁ነበራ።	-6590
▁ተወሲ	-6591
▁ተባሂላ	-6592
▁ተዛረቦ	-6593
▁ብተኣ	-6594
▁ሚሊ	-6595
▁መሕ	-6596
▁ሓም	-6597
▁Cor	-6598
ጊዜ	-6599
ገብሮ።	-6600
ገዱ	-6601
ድቁ	-6602
ዕሶ	-6603
ታተን	-6604
▁ጸዊዑ	-6605
▁ጠንቂ	-6606
▁ግብጻውያን	-6607
▁ዲሞክራሲ	-6608
▁ደልየ	-6609
▁ይግደ	-6610
▁የዕ	-6611
▁ዝሰርሑ	-6612
▁ዕሽነት	-6613
▁ዋይ	-6614
▁ኽንደይ	-6615
▁ኽገብር	-6616
▁ክቐት	-6617
▁ካናዳ	-6618
▁ንፉዕ	-6619
▁ንምብ	-6620
▁ነይሩ፣	-6621
▁ትሰርሕ	-6622
▁ተሳተ	-6623
▁ብነጻ	-6624
▁ብስመይ	-6625
▁ብቛንቋ	-6626
▁በሃ	-6627
▁ቁጠባ	-6628
▁ምሕሳብ	-6629
▁ምሂ	-6630
▁ሕይወትና	-6631
ዝና	-6632
ዕካ	-6633
ኣለማዊ	-6634
▁ጸው	-6635
▁ይነ	-6636
▁ዝመር	-6637
▁ዘፍቀ	-6638
▁ዕለተ	-6639
▁ወሓደ	-6640
▁ወልድ	-6641
▁ዂሎም	-6642
▁ኻብኡ	-6643
▁ኰይነ	-6644
▁ኣካላዊ	-6645
▁ኣድል	-6646
▁ኣሳ	-6647
▁ኒው	-6648
▁ብሩኽ	-6649
▁ብርእ	-6650
▁ምንባ	-6651
▁ምናልባሽ	-6652
▁መጨረ	-6653
▁3.	-6654
▁"ኣታ	-6655
ፊት	-6656
ጸብ	-6657
ጉም	-6658
ዳምነት	-6659
ዛረቡ።	-6660
ዋ፡	-6661
ዋሕ	-6662
ንድ	-6663
ብድ	-6664
ርኒ	-6665
ራል	-6666
ለመ	-6667
▁ፈጢሩ	-6668
▁ጕድ	-6669
▁ግምቢ	-6670
▁ግፍ	-6671
▁ጀመርኩ።	-6672
▁ጀነ	-6673
▁ደራሲ	-6674
▁ክብሎ	-6675
▁እሞኸ	-6676
▁እሙ	-6677
▁ኣዳራሽ	-6678
▁ኣልኣ	-6679
▁ንዓታቶም	-6680
▁ንመር	-6681
▁ብርታ	-6682
▁ብዘለ	-6683
▁በሎ፡	-6684
▁ስለዘለ	-6685
▁ሕድ	-6686
▁ሓዳ	-6687
▁Corre	-6688
▁Correct	-6689
▁197	-6690
ሊና	-6691
▁ጸቕ	-6692
▁ጠቕ	-6693
▁ዝኣተ	-6694
▁ዝግብኦ	-6695
▁ዘጋጠ	-6696
▁ወስ	-6697
▁ካብኣቶም	-6698
▁ከምዝኽእል	-6699
▁ኣበባ	-6700
▁ኣሕዋትን	-6701
▁ንወለ	-6702
▁ንመጻኢ	-6703
▁ትንሣ	-6704
▁ተቐሚጡ	-6705
▁በለኒ	-6706
▁ቅልውላው	-6707
▁ስግኣት	-6708
▁ምውጻእ	-6709
▁ሓጋዚ	-6710
▁ሓደኳ	-6711
ፕሎ	-6712
ግፍ	-6713
ደረ	-6714
ኩሮ	-6715
ተም	-6716
ብና።	-6717
ቕልጡፍ	-6718
ሆም	-6719
▁ፖሊሲ	-6720
▁ፕሬ	-6721
▁ፋይ	-6722
▁ጥርጣ	-6723
▁የለ	-6724
▁ዓሪ	-6725
▁ክህበካ	-6726
▁ክጅምር	-6727
▁እዚአን	-6728
▁ኣሰራር	-6729
▁ንጎ	-6730
▁ነናብ	-6731
▁ብግብሪ	-6732
▁ህያዋን	-6733
▁41	-6734
ጽሎ	-6735
ጠቐ	-6736
ግድ	-6737
ካን።	-6738
እቶም	-6739
ቶ፡	-6740
ቡዕ	-6741
ሓድሕ	-6742
ሓየ	-6743
ሊኡ	-6744
ህወ	-6745
▁ጽሑፋ	-6746
▁ደሞዝ	-6747
▁የድልየና	-6748
▁ዛጊት	-6749
▁ዚወ	-6750
▁ዓመጻ	-6751
▁እንተደሊ	-6752
▁እነሆ	-6753
▁ንኢየሱስ	-6754
▁ኔረ።	-6755
▁ትሕትና	-6756
▁ብዝተፈላለየ	-6757
▁ስሚ	-6758
▁ርዱእ	-6759
▁መጠንቀቕታ	-6760
▁ሃገረይ	-6761
▁"ስለምንታይ	-6762
ግበረ	-6763
ያሽ	-6764
ዕዎ	-6765
ውን።	-6766
ስትሪ	-6767
ሰድ።	-6768
ምርምር	-6769
ሎም፡	-6770
ሃቦም	-6771
▁ፍጥረ	-6772
▁ደኺ	-6773
▁ይብለና።	-6774
▁የግዳስ፡	-6775
▁ዝኣመሰሉ	-6776
▁ዝገርም	-6777
▁ዝቑ	-6778
▁ዘለናዮ	-6779
▁ዓባ	-6780
▁ኺድ	-6781
▁ክትሓ	-6782
▁ክሊ	-6783
▁ኣዒንቱ	-6784
▁ንጽብሒቱ	-6785
▁ንጉሥ	-6786
▁ንሎሚ	-6787
▁ኔርካ	-6788
▁ናባና	-6789
▁ትው	-6790
▁ብኢድ	-6791
▁ቆልዑት	-6792
▁ሉቃ	-6793
▁"እታ	-6794
ከላኸ	-6795
ተ።	-6796
ብዎም	-6797
በልኩም	-6798
በኣር	-6799
ስስ	-6800
ርፍ	-6801
ራታት	-6802
ልናን	-6803
ሃንደበት	-6804
ed	-6805
▁ይበሃል።	-6806
▁ዓራት	-6807
▁ኻህናት	-6808
▁ክሳተ	-6809
▁ከምዝተ	-6810
▁እንዲ	-6811
▁እኒ	-6812
▁ኣንስተይቲ	-6813
▁ተራኺ	-6814
▁ብዝበለጸ	-6815
▁ብሉይ	-6816
▁በለ፡	-6817
▁ሰሙ	-6818
▁ርክ	-6819
▁ርአ	-6820
▁ራእ	-6821
▁መረዳእታ	-6822
▁More	-6823
▁"ከምቲ	-6824
▁"እንሆ፡	-6825
▁"ኵሉ	-6826
ፍንቲ	-6827
ግብአ	-6828
ውታ	-6829
ወስዱ	-6830
አለም	-6831
ንዱ	-6832
ብኩም	-6833
በኒ	-6834
ሽጢ	-6835
ሰ፡	-6836
ርምያስ	-6837
▁ፓርቲ	-6838
▁ጓለይ	-6839
▁ዝተፈልየ	-6840
▁ዝሞቱ	-6841
▁ዚደሊ	-6842
▁ወፈ	-6843
▁ክክክ	-6844
▁እተገብረ	-6845
▁ኣቦታትና	-6846
▁ኣጀ	-6847
▁ኢሳያስ	-6848
▁ኢጣ	-6849
▁ንዓኺ	-6850
▁ንምድ	-6851
▁ብኣንጻሩ	-6852
▁ሳም	-6853
▁"ሰብ	-6854
ጾም።	-6855
ደረጃ	-6856
ካ?	-6857
ትሮ	-6858
በኽ	-6859
ስራሕ	-6860
ሮም፡	-6861
ረክብ።	-6862
መዓል	-6863
ልምና	-6864
▁ጽብቕቲ	-6865
▁ይነብር።	-6866
▁ይፈት	-6867
▁ይግባ	-6868
▁ዝጠፍ	-6869
▁ውሽጠይ	-6870
▁ክፉት	-6871
▁ክንዳኡ	-6872
▁ክቡራት	-6873
▁ከም'ቲ	-6874
▁እንዶ	-6875
▁ኣውቶቡስ	-6876
▁ኣበርክ	-6877
▁ኣዛ	-6878
▁ተርእዮ	-6879
▁ብደሓን	-6880
▁ብናጻ	-6881
▁ብሓንቲ	-6882
▁ቤታ	-6883
▁ቃንዛ	-6884
▁ምውሳድ	-6885
▁ምሕታት	-6886
▁ሚያዝያ	-6887
▁ሓዲስ	-6888
▁ሓልዮ	-6889
ጽና	-6890
ጹ፡	-6891
ዳሪ	-6892
ዲሙ	-6893
ንበብ	-6894
ቝጸሩ	-6895
ቆጻ	-6896
:8	-6897
▁ጻዕዳ	-6898
▁ጌና	-6899
▁ዝገበሩ	-6900
▁ዝኾና	-6901
▁ዝሰማዕኩምዎ	-6902
▁ዝምልከ	-6903
▁ክካየድ	-6904
▁ከለኹ፡	-6905
▁እዋናዊ	-6906
▁ኣሎኻ	-6907
▁ኣበየ	-6908
▁ኣቋ	-6909
▁ኢኹም፧	-6910
▁ንጓ	-6911
▁ነብስኻ	-6912
▁ነበሮ።	-6913
▁ብዝተኻእለ	-6914
▁ብመንፈ	-6915
▁ምጥቃም	-6916
▁ምትእምማን	-6917
▁ሕሰብ።	-6918
ድኻ	-6919
ውዒት	-6920
እሰይ	-6921
ንሳቶም	-6922
መስል።	-6923
▁ጐይታይ፡	-6924
▁ገምጋም	-6925
▁ዚኸ	-6926
▁ክቕጽል	-6927
▁ከይጸን	-6928
▁ኣይፈለጥ	-6929
▁ኣይፍቀ	-6930
▁ንደቁ	-6931
▁ንቕድሚት	-6932
▁ተጠቐ	-6933
▁ተዛሪቡ።	-6934
▁ብጻይ	-6935
▁ብጀካ	-6936
▁ባንኪ	-6937
▁ምክ	-6938
▁ሙሴን	-6939
▁መዝሙ	-6940
▁መናፍስቲ	-6941
ፉን	-6942
ዶን	-6943
ዝም	-6944
ኻኸ	-6945
ኩዎምን"	-6946
ብርሃም	-6947
▁ጽቡቕን	-6948
▁ድሒ	-6949
▁ደሊኻ	-6950
▁ይኹን'ምበር	-6951
▁ይመስለካ	-6952
▁የማናይ	-6953
▁ዝገብርዎ	-6954
▁ዝብልዎ	-6955
▁ዘበን	-6956
▁ኪገብር	-6957
▁ኪኸይድ	-6958
▁እንተወሓደ	-6959
▁እምበር።	-6960
▁ኣቦታቶም	-6961
▁ኣቓ	-6962
▁ኣሮንን	-6963
▁ኣሞ	-6964
▁ንርእስኻ	-6965
▁ተኻይ	-6966
▁ብመልክዑ	-6967
▁ብምር	-6968
▁ባር	-6969
▁ቅ.	-6970
▁ሰብኣያ	-6971
▁ረኣኹ	-6972
▁ሄዋን	-6973
▁(ብ	-6974
▁(2)	-6975
ጋስ	-6976
ዓና	-6977
ኮት	-6978
ሳተፍ	-6979
▁ዝኸበር	-6980
▁ዝኮነ	-6981
▁ዝህቦ	-6982
▁ዜግ	-6983
▁ዘይነ	-6984
▁ወረዳ	-6985
▁ክግዙ	-6986
▁ካብ'ዚ	-6987
▁እለይ	-6988
▁ኤልያስ	-6989
▁ኣጽዋር	-6990
▁ኣለኹ፣	-6991
▁ኣተሓ	-6992
▁አይፈጠር	-6993
▁አይፈጠርኩዎምን"	-6994
▁ንጽባሒቱ	-6995
▁ንስም	-6996
▁ንያ	-6997
▁ትብለ	-6998
▁ተስፋይ	-6999
▁ተዛረበ	-7000
▁ቤተ-	-7001
▁ሞቱ	-7002
▁ሞባይ	-7003
▁ምክት	-7004
▁ማለተይ	-7005
▁መገሻ	-7006
▁(አጋንን	-7007
▁(አጋንንት)	-7008
▁"ጋኔንን	-7009
▁"ጋኔንንና	-7010
ወልድ	-7011
ኸውንን	-7012
ርእየካ	-7013
ርፊ	-7014
ሥእ	-7015
ሓጎ	-7016
ላቱ	-7017
ህብ።	-7018
▁ፈለጥ	-7019
▁ጸቕጢ	-7020
▁ወሪዱ	-7021
▁ኽንገብር	-7022
▁እዉን	-7023
▁ኣይረኸብ	-7024
▁ኢለን	-7025
▁ንዘለዓለም	-7026
▁ንዓኹም	-7027
▁ንምግ	-7028
▁ነይረን።	-7029
▁ትኸይድ	-7030
▁ተጠቀ	-7031
▁ተጋደልቲ	-7032
▁ተዋሳ	-7033
▁ተቐመጠ።	-7034
▁ተቖ	-7035
▁ቅብ	-7036
▁ምሳኹም	-7037
▁መጓሰ	-7038
▁ሕጅ	-7039
▁ሊባ	-7040
ጭነቕ	-7041
ውያንን	-7042
ካር	-7043
ከስ	-7044
ብኻ	-7045
በሮምን።	-7046
ቆብን	-7047
ስያዊ	-7048
መስግነ	-7049
ሓስቡ	-7050
ሒት	-7051
ልምን	-7052
▁ፍልጠትን	-7053
▁ጳጳ	-7054
▁ገዚ	-7055
▁ጀሚሮም	-7056
▁ድኽነት	-7057
▁ዲፕሎ	-7058
▁ይርከቡ።	-7059
▁ዝቐረበ	-7060
▁ዝመስል።	-7061
▁ዚገብሮ	-7062
▁ዚስምዓ	-7063
▁ዓድና	-7064
▁ዓለማዊ	-7065
▁ውሉዳት	-7066
▁ክትድ	-7067
▁ከድ	-7068
▁እተጻሕፈ	-7069
▁ኣጽኒ	-7070
▁ኣይንፈልጥን	-7071
▁አቦ	-7072
▁ተዘር	-7073
▁ብሩህ	-7074
▁ብመልክዕ	-7075
▁ብንያ	-7076
▁በሎም፡	-7077
▁ቅድስቲ	-7078
▁መዓሙ	-7079
▁ሓባ	-7080
▁ለኣኸ	-7081
▁"ወዲ	-7082
ፍረ	-7083
ጠም	-7084
ደዱ፡	-7085
ይሩ።	-7086
ክዎም	-7087
ኩምን።	-7088
ሳሲ	-7089
ራኽ	-7090
ረጽ።	-7091
ማ።	-7092
መቕ	-7093
vi	-7094
▁ጽዋእ	-7095
▁ደብረ	-7096
▁ይደሊ።	-7097
▁የሎን	-7098
▁ዝጽበ	-7099
▁ዚደልዩ	-7100
▁ክረኽቡ	-7101
▁ካርድ	-7102
▁እትኸውን	-7103
▁እኔ	-7104
▁እልል	-7105
▁ኣምላኽ፣	-7106
▁ኣሓትን	-7107
▁ኢዮ	-7108
▁ንድኻታት	-7109
▁ንክርስቶስ	-7110
▁ነይሩኒ።	-7111
▁ብጸጋ	-7112
▁ብምዃ	-7113
▁ቕኑዕ	-7114
▁ቀጸ	-7115
▁ስእል	-7116
▁ምጽሓፍ	-7117
▁ሙስ	-7118
▁መጽሓፍቲ	-7119
▁መጽሔ	-7120
▁መሠ	-7121
ጽጻር	-7122
ወምቲ	-7123
ክዎ።	-7124
ትስ	-7125
ተየ፡	-7126
ተና	-7127
ምርዖ	-7128
መልክት።	-7129
ሕትና	-7130
ሊሉ	-7131
'ሎ	-7132
▁ጽልኢ	-7133
▁ጐደና	-7134
▁ጌጋታት	-7135
▁ደቃ	-7136
▁ዝናም	-7137
▁ዜፍቅ	-7138
▁ዓያ	-7139
▁ወተሃደራዊ	-7140
▁ወሲኹ	-7141
▁ወለደይ	-7142
▁ዀይኖም	-7143
▁ኻልኦት	-7144
▁ክዳውን	-7145
▁እየ፧	-7146
▁ኣቐዲም	-7147
▁ንየ	-7148
▁ነይርዎ።	-7149
▁ተዘራ	-7150
▁ቐረባ	-7151
▁መግዛእቲ	-7152
▁ሓጐ	-7153
▁"ሕጂ	-7154
ጋፍ	-7155
ዓመታት	-7156
ዒሉ	-7157
ኽእሉን	-7158
ንኩ፡	-7159
ኑይ	-7160
ብዛ	-7161
ቐል	-7162
ቃቐ	-7163
ራቱ	-7164
ምስክር	-7165
ሓሉ	-7166
ልወጥ	-7167
ለስ።	-7168
ለሰ	-7169
▁ደልዩ	-7170
▁ይደል	-7171
▁ያእ	-7172
▁ዝወደ	-7173
▁ዝረኣየ	-7174
▁ዘይክ	-7175
▁ዘለኒ	-7176
▁ዓይነታት	-7177
▁ኺወ	-7178
▁ኩል	-7179
▁ኣይኮነትን።	-7180
▁ኣይነበሮምን።	-7181
▁ንወዲ	-7182
▁ንብል	-7183
▁ነቒ	-7184
▁ትዊተር	-7185
▁ተገይሩ	-7186
▁ተሃ	-7187
▁ብውል	-7188
▁ሰረገ	-7189
▁ረሲኣን	-7190
▁መዳያት	-7191
▁ሕጂ፡	-7192
▁ሕነ	-7193
▁ሕብሪ	-7194
▁2:1	-7195
▁(ኢ	-7196
ያየ	-7197
ያል	-7198
ዩኒ	-7199
ዋሚ	-7200
እዳ	-7201
ኣምኖ	-7202
በጽሑ	-7203
ሳ።	-7204
ሰቲ	-7205
ምዝ	-7206
ሓላለ	-7207
▁ፈሊጠ	-7208
▁ጸጥታ	-7209
▁ጠን	-7210
▁ግብሩ	-7211
▁ገይርካ	-7212
▁ጃልባ	-7213
▁ዶ/ር	-7214
▁ዲኺ	-7215
▁ይኹነ	-7216
▁ይህ	-7217
▁የብለይን	-7218
▁ዝደለዮ	-7219
▁ዜሐጕ	-7220
▁ዚኣክል	-7221
▁ወፍሪ	-7222
▁ከምዙይ	-7223
▁ከን	-7224
▁እምበኣ	-7225
▁ኤፍ	-7226
▁ኣጥፊ	-7227
▁ኣበሃህላ	-7228
▁ኣርብዓ	-7229
▁አረ	-7230
▁ንዝብል	-7231
▁ንዓኣ	-7232
▁ንኺድ	-7233
▁ንፍር	-7234
▁ነዳዲ	-7235
▁ተጠንቀቕ	-7236
▁ተባሂሎም	-7237
▁ተመራመርቲ	-7238
▁ቀን	-7239
▁ምድላይ	-7240
▁ምልእ	-7241
▁ማሕበራት	-7242
▁ማርያ	-7243
▁ሃየ	-7244
ፌሶን	-7245
ፈልጥዎ	-7246
ጠቓልል	-7247
ዎ"	-7248
ከብ	-7249
እስራኤላውያን	-7250
ቴና	-7251
ሕዱ	-7252
ልኣ	-7253
▁ፍቕርን	-7254
▁ጥራ	-7255
▁ዘመነ	-7256
▁ዕጽፊ	-7257
▁ዕብየት	-7258
▁ኤልሳእ	-7259
▁ኢልኪ	-7260
▁ተገዳ	-7261
▁ተበግሶ	-7262
▁ተመሪ	-7263
▁ተሞ	-7264
▁በዲ	-7265
▁ምብላዕ	-7266
▁መብራህቲ	-7267
▁መጥ	-7268
ግጋጽ	-7269
ውዐ	-7270
ኣማ	-7271
ና!	-7272
ሰያስ	-7273
s:	-7274
▁ግለ	-7275
▁ዮናስ	-7276
▁ይሕሸ	-7277
▁ዝብል።	-7278
▁ዝገብሩ	-7279
▁ዘይብላ	-7280
▁ዘኽ	-7281
▁ዓቅ	-7282
▁ውሽጡ	-7283
▁ወኪ	-7284
▁ክለ	-7285
▁እግዚኣ	-7286
▁ኣይኰንኩ	-7287
▁ኣይተረድ	-7288
▁ኣይፋል	-7289
▁ኣየድልየካን	-7290
▁ኣውራጃ	-7291
▁ኣቐዲመ	-7292
▁ኣሉታዊ	-7293
▁ኣለም	-7294
▁ትሑት	-7295
▁ተሳተፍቲ	-7296
▁ብትዕ	-7297
▁ብስምካ	-7298
▁ባቡር	-7299
▁ስለዝነበረ	-7300
▁ምክልኻል	-7301
▁ማኪና	-7302
▁ሕደ	-7303
▁ሓላዊ	-7304
▁ሓዱሽ	-7305
▁ሃረር	-7306
▁45	-7307
ፍኩም	-7308
ጀው	-7309
ሰካ	-7310
ሕስ	-7311
ላውን	-7312
ke	-7313
▁ጥርጣረ	-7314
▁ድራ	-7315
▁ዘይቅ	-7316
▁ዕድላት	-7317
▁ውራይ	-7318
▁ክትኮኑ	-7319
▁ኤውሮጳዊ	-7320
▁ኣመን	-7321
▁ትምኒ	-7322
▁ተፈጢሩ	-7323
▁ተመለስ።	-7324
▁ብሰይፊ	-7325
▁ሸለል	-7326
▁ስ.	-7327
▁ምእመናን	-7328
▁ምቁ	-7329
▁መጺኡ።	-7330
▁መደም	-7331
▁ሓቢሮም	-7332
▁ሓወ	-7333
▁ለባም	-7334
▁2008	-7335
▁"ሎሚ	-7336
ወገ	-7337
ዅሪ	-7338
ኩኻ	-7339
ኩሞ	-7340
ኤ።	-7341
ኣየ	-7342
በር።	-7343
በሉ።	-7344
ስተውዕል	-7345
ሪስ	-7346
ምር።	-7347
ent	-7348
▁ፀሓይ	-7349
▁ጸብጻ	-7350
▁ጸረ	-7351
▁ዝግበ	-7352
▁ዝሰዓ	-7353
▁ዘሕዝን	-7354
▁ኸለ	-7355
▁ክንሕ	-7356
▁ኩናት	-7357
▁እዩ፦	-7358
▁እዩ.	-7359
▁እጃ	-7360
▁ኣፍንጫ	-7361
▁ኣይኮንካን	-7362
▁ኣይትረስዕ	-7363
▁ኣዒንተይ	-7364
▁ኣኽብ	-7365
▁ኣምላኽኩም	-7366
▁ኣሎ!	-7367
▁ኢጣልያ	-7368
▁አብቲ	-7369
▁ንመጀመርያ	-7370
▁ንምን	-7371
▁ትንሣኤ	-7372
▁ተጨ	-7373
▁ተስ	-7374
▁ብፍር	-7375
▁ብዛዕባኻ	-7376
▁ብዛዕ	-7377
▁ብኣቦ	-7378
▁ብቐጻሊ	-7379
▁በዳ	-7380
▁ሸይ	-7381
▁ስብከት	-7382
▁ስምዓ	-7383
▁ሰልፍ	-7384
▁ሚኒስትር	-7385
▁መጠን፡	-7386
▁ሓጎ	-7387
▁ሒዛ	-7388
▁ሃደ	-7389
▁2009	-7390
ፈርድ	-7391
ጋር	-7392
ዳል	-7393
ክሲ	-7394
ኒን	-7395
ቸስኮ	-7396
ተባብ	-7397
ቦን	-7398
በ፡	-7399
ቓሕ	-7400
ራይስ	-7401
ሩም	-7402
ሐት	-7403
ህልወና	-7404
▁ጨው	-7405
▁ጨንፈር	-7406
▁ገበነ	-7407
▁ድሙ	-7408
▁ይፈቱ	-7409
▁ይጠፍእ	-7410
▁የማን	-7411
▁ዝነበረ፡	-7412
▁ዝነበረኒ	-7413
▁ዘመናዊ	-7414
▁ክቅ	-7415
▁እዮም?	-7416
▁ኤሳው	-7417
▁ኣይፈልጡን	-7418
▁ኣሎዎ።	-7419
▁ንደሓር	-7420
▁ንሱ፡	-7421
▁ነፍስወከፍ	-7422
▁ነገረ	-7423
▁ነቢያት	-7424
▁ትግራ	-7425
▁ተቘ	-7426
▁ቤቶም	-7427
▁ስለዝኾነ።	-7428
▁ስለዘሎ	-7429
▁ምድላው	-7430
▁ምምሃር	-7431
▁li	-7432
ፋሽ	-7433
ጌጋ	-7434
ይንካ	-7435
ዘ።	-7436
ዕቢ	-7437
ኳኑ	-7438
ታፍ	-7439
ተፈጥ	-7440
ቤል	-7441
ቕርቦ	-7442
ርዳእ	-7443
ራ፡	-7444
ራረብ	-7445
ምጥ	-7446
ሕልፍ	-7447
14	-7448
▁ጎደና	-7449
▁ግጥም	-7450
▁ጃፓን	-7451
▁ዚምልከት	-7452
▁ዘሎን	-7453
▁ዘለኩም	-7454
▁ዘበሉ	-7455
▁ዓደይ	-7456
▁ኵናት	-7457
▁ክንምለስ	-7458
▁ከሎና	-7459
▁እግዝ	-7460
▁ኣይነበሩ	-7461
▁ኣይሰማዕ	-7462
▁ኣካይዳ	-7463
▁ኣለዉ፣	-7464
▁ኢዩ፡	-7465
▁ነሓሰ	-7466
▁ታሪኻዊ	-7467
▁ተኸፊ	-7468
▁ተኽ	-7469
▁ብተኣማንነት	-7470
▁ብስጋ	-7471
▁ብሙሉእ	-7472
▁በበይ	-7473
▁ቀልጢፍካ	-7474
▁ስሩዕ	-7475
▁ርኽ	-7476
▁ሪኢ	-7477
▁ምስላ	-7478
▁መደምደም	-7479
▁መሸፈኒ	-7480
▁ሕጽ	-7481
▁ሕልም	-7482
▁ሓቢሩ።	-7483
▁ለም	-7484
▁ሃቡ	-7485
▁2012	-7486
ጠቅም	-7487
ይ።	-7488
ና"	-7489
ነብረሉ	-7490
ነቑ	-7491
ቶት	-7492
ቴር	-7493
ታውን	-7494
በዝሑ	-7495
ቆሮ	-7496
ሪክ	-7497
ሃነ	-7498
▁ፍራንቸስኮ	-7499
▁ጋሻ	-7500
▁ጊልያ	-7501
▁ዳሕረ	-7502
▁ይስሃቅ	-7503
▁ዝተፈጸመ	-7504
▁ኴንካ	-7505
▁ክህልወካ	-7506
▁ኣድማ	-7507
▁ኣይከኣሉን።	-7508
▁ኣይተቐ	-7509
▁ኣይደ	-7510
▁ንብጻ	-7511
▁ነገር፡	-7512
▁ነፈርቲ	-7513
▁ትቕ	-7514
▁ተሳት	-7515
▁ብዛዕባይ	-7516
▁ብሰብ	-7517
▁ስርዓተ	-7518
▁መንግሥቲ	-7519
▁ለበዳ	-7520
▁ti	-7521
▁<<	-7522
▁46	-7523
▁'ብ	-7524
፡+	-7525
ጽካ	-7526
ጸን።	-7527
ዱብ	-7528
ውለ	-7529
ተቱ	-7530
ቪዥን	-7531
ስታን	-7532
-መንበር	-7533
▁ፕላ	-7534
▁ጸሎትን	-7535
▁ግጉይ	-7536
▁ድማ።	-7537
▁ድሉው	-7538
▁ደቅኻ	-7539
▁ደቅኹም	-7540
▁ይገልጽ	-7541
▁የፍቅ	-7542
▁ዝሃበና	-7543
▁ዘይሰ	-7544
▁ካልኦትን	-7545
▁ካህ	-7546
▁ኪገብሩ	-7547
▁ኪሰ	-7548
▁እዝኒ	-7549
▁ኣይትረስ	-7550
▁ኢየሩሳሌም	-7551
▁ንሳተን	-7552
▁ንሰይጣን	-7553
▁ኔርና	-7554
▁ነይርዎ	-7555
▁ትንቢ	-7556
▁ተወሰ	-7557
▁ብተወሳኺ	-7558
▁ሰምዑ፡	-7559
▁ምድሪ፡	-7560
▁መድሓኒ	-7561
▁መፂ	-7562
▁መዐ	-7563
▁ለውጥታት	-7564
▁1)	-7565
▁(ሉቃ	-7566
▁"ተ	-7567
ፈቱ።	-7568
ጠባዊ	-7569
ዓም	-7570
ውዎ	-7571
ኽብሪ	-7572
ንስኻትኩም	-7573
ንኻ	-7574
ንንቲ	-7575
ኔን	-7576
ብራ	-7577
ሰኒ	-7578
ረቕ	-7579
መን።	-7580
ሃንጽ	-7581
-ኣንስትዮ	-7582
▁ጀሚረ	-7583
▁ዲኹም?	-7584
▁ደበና	-7585
▁ይቕረታ	-7586
▁ይሁ	-7587
▁ያዕቆብ	-7588
▁ዝተጸ	-7589
▁ዜጋጥ	-7590
▁ዚስደዱ፡	-7591
▁ዘለወን	-7592
▁ወተሃደራት	-7593
▁እተመ	-7594
▁ኣቕሓ	-7595
▁ንዘለአለም	-7596
▁ነበሩ፡	-7597
▁ተመዝ	-7598
▁ስርዓታት	-7599
▁ስለቲ	-7600
▁ምባ	-7601
▁ሜላ	-7602
▁ሕይወትን	-7603
▁ሕጋ	-7604
▁ላዕ	-7605
▁"ሰ	-7606
ፍእ	-7607
ጸረ	-7608
ጠራጠር	-7609
ጅመር	-7610
ራቢ	-7611
ረት።	-7612
ማቱ	-7613
ልካ፡	-7614
ላዕለ	-7615
ሃገር	-7616
e:	-7617
▁ደብዳቤ	-7618
▁ይነብሩ	-7619
▁ዝፈጠሮ	-7620
▁ዝተወሰነ	-7621
▁ዜብል	-7622
▁ዓይነይ	-7623
▁ዓለምለኻዊ	-7624
▁ኪብል	-7625
▁ከደ	-7626
▁እግዚኦ	-7627
▁እንተላይ	-7628
▁እናሰ	-7629
▁ንቓል	-7630
▁ነገሮ።	-7631
▁ነይሩ፡	-7632
▁ተዋህቦ	-7633
▁ተቐባልነት	-7634
▁ተመሊሶም	-7635
▁ብዓይኒ	-7636
▁ብርሃነ	-7637
▁ቤትካን	-7638
▁በልኩ።	-7639
▁በርት	-7640
▁ርብ	-7641
▁ምህላው	-7642
▁ምምስ	-7643
▁መፍትሕ	-7644
▁መንጎይን	-7645
▁መሓሪ	-7646
▁መዚ	-7647
▁ሓተቶ።	-7648
ዛረቦም	-7649
ዓዝያ	-7650
ወልዱ	-7651
ኮኖሚ	-7652
ኣሰ	-7653
ርዓት	-7654
ረኽቦ።	-7655
ማሪ	-7656
ሓ።	-7657
ልማት	-7658
ላህ	-7659
ህሉን	-7660
nd	-7661
▁ፈሊጡ	-7662
▁ጸልዩ	-7663
▁ዲኻ፧	-7664
▁ዲያብሎስ	-7665
▁ይሓይሽ።	-7666
▁ዝደልዩ	-7667
▁ዚኽእሉ	-7668
▁ዘኽእል	-7669
▁ኩላቶም	-7670
▁ኣዚና	-7671
▁ኣዕዋፍ	-7672
▁ኣንብብ።	-7673
▁ኣረጊት	-7674
▁ንዮሴፍ	-7675
▁ንዝተ	-7676
▁ንሱውን	-7677
▁ተዓጽ	-7678
▁ተጽ	-7679
▁ተኽሊ	-7680
▁ባህጊ	-7681
▁ስደተኛ	-7682
▁ረድኤት	-7683
▁ምሃ	-7684
▁ሙሴ፡	-7685
▁መዓር	-7686
▁ልኡኽ	-7687
▁90	-7688
ጥሩ	-7689
ጠራጥር	-7690
ጋብ	-7691
ዝራ	-7692
ዕዝ	-7693
ውዑ	-7694
ወንታዊ	-7695
ኪን	-7696
ኣኾ	-7697
ተይ፡	-7698
ሸል	-7699
ራቶም	-7700
ሕልፎ	-7701
ሐፍ	-7702
ous	-7703
10	-7704
▁ዳሕራይ	-7705
▁የጋጥ	-7706
▁ዝነበርና	-7707
▁ወከፎም	-7708
▁ክፋላት	-7709
▁ክጸ	-7710
▁ከምዛ	-7711
▁ንሱ'ውን	-7712
▁ንከ	-7713
▁ተወሊዱ	-7714
▁ብፁዓን	-7715
▁ብእኣ	-7716
▁ስጋዊ	-7717
▁ምትእስሳ	-7718
▁ምዝር	-7719
▁መገዱ	-7720
▁ሊብያ	-7721
▁ለካቲት	-7722
▁ሃይለ	-7723
▁com	-7724
ፈረ	-7725
ጓዓዝ	-7726
ድቃን	-7727
ዳድ	-7728
እንታይ	-7729
ንነት	-7730
ምህሮ	-7731
ምባል	-7732
ሕትት	-7733
ሓድገ	-7734
▁ፍን	-7735
▁ደዊ	-7736
▁ይኣኽ	-7737
▁ዝኣተወ	-7738
▁ዝተፈለየ	-7739
▁ዘድ	-7740
▁ክጸንሕ	-7741
▁ኬንያ	-7742
▁ከቢ	-7743
▁ኣይኰን	-7744
▁ኣወዳት	-7745
▁ኣበሳ	-7746
▁ኣምላኹ	-7747
▁ኣለወን።	-7748
▁አይት	-7749
▁ንኣዳም	-7750
▁ንታ	-7751
▁ተገዳስነት	-7752
▁ተኸታተ	-7753
▁ተማሃሮ	-7754
▁ተጣ	-7755
▁ተአ	-7756
▁ብከመይ	-7757
▁ብንያም	-7758
▁ብልዒ	-7759
▁ስሒ	-7760
▁ሳዕቤን	-7761
▁መስፍን	-7762
ዋዕታ	-7763
ኽሪ	-7764
ካይድ	-7765
ሪኣ	-7766
ማርያም	-7767
ሕግዘኩም	-7768
ሕ።	-7769
ሒዞም	-7770
ለዉ።	-7771
▁ጻውዒት	-7772
▁ግና	-7773
▁ደጋ	-7774
▁ይክእል	-7775
▁ይሰምዕ	-7776
▁ዝጸሓ	-7777
▁ዝበልካዮ	-7778
▁ዝእ	-7779
▁ውጹ	-7780
▁ወይለ	-7781
▁ዀይነ	-7782
▁ክረምቲ	-7783
▁ክህልዎም	-7784
▁ኪው	-7785
▁ከንብ	-7786
▁እንገብሮ	-7787
▁ኣይረ	-7788
▁ኣሎ፧	-7789
▁ንግበር	-7790
▁ተፋ	-7791
▁ብኽብረት	-7792
▁ብርኪ	-7793
▁ብድሕር	-7794
▁ስምዑ።	-7795
▁ስሕ	-7796
▁መደምደምታ	-7797
▁መዋቲ	-7798
▁መናእሰይ	-7799
▁መኸ	-7800
▁ሕሳብ	-7801
▁ሃና	-7802
▁47	-7803
▁"ንዅሉ	-7804
▁"ንሱ	-7805
ጥቅ	-7806
ግሥ	-7807
ግል	-7808
ደካ	-7809
ቲን	-7810
ስጋ	-7811
ሰንበት	-7812
ሓሳብ	-7813
ልና፡	-7814
▁ድሓን	-7815
▁ደቅና	-7816
▁ይመስለኩም	-7817
▁ዝተበ	-7818
▁ዝጎ	-7819
▁ኸባቢ	-7820
▁ክኾነ	-7821
▁ክምስ	-7822
▁ከይዲ	-7823
▁እዙ	-7824
▁ኣይትኹ	-7825
▁ኣሓት	-7826
▁ንሰለስተ	-7827
▁ነገርዚ	-7828
▁ነበሮ	-7829
▁ነህ	-7830
▁ትመ	-7831
▁ብ2	-7832
▁ስው	-7833
▁ረኺቡ	-7834
▁ምሳሕ	-7835
▁መንጎኦም	-7836
▁መቕደ	-7837
▁ሊባኖስ	-7838
ግረ	-7839
እታት	-7840
ቆስ	-7841
ስምዖ	-7842
ረኸበ	-7843
ምግላጽ	-7844
መረ	-7845
revi	-7846
ro	-7847
el	-7848
__	-7849
▁ዝወሰ	-7850
▁ዝለኣኸኒ	-7851
▁ዚፍለጥ	-7852
▁ዚግባእ	-7853
▁ዓመታት፡	-7854
▁ዓሌት	-7855
▁ክንከይድ	-7856
▁ክንረክብ	-7857
▁ክሰምዕ	-7858
▁እተጠቕ	-7859
▁ኣጋይሽ	-7860
▁ንርኢ	-7861
▁ንምንታይ	-7862
▁ኔራ።	-7863
▁ነብሱ	-7864
▁ነብሰይ	-7865
▁ብሓጺሩ	-7866
▁ብከም	-7867
▁ስማ	-7868
▁ሳራ	-7869
▁ረኺብና	-7870
▁ምሕደራ	-7871
▁ምርኢ	-7872
▁መደረ	-7873
▁ሓሳባ	-7874
▁"የሆዋ	-7875
ፈለጡ	-7876
ጻዕ	-7877
ጹን	-7878
ጋሪ	-7879
ደኒ	-7880
ዓዙ	-7881
ኑዓት	-7882
ሳር	-7883
ራኸቡ	-7884
ልኡ	-7885
ህልወካ	-7886
▁ጥዑይ	-7887
▁ጥበበኛታት	-7888
▁ጠቒ	-7889
▁ጓኖት	-7890
▁ጓና	-7891
▁ግዜና	-7892
▁ግዳም	-7893
▁ድምጽ	-7894
▁ድማ፥	-7895
▁ይመስል	-7896
▁ይኣም	-7897
▁ያእቆብን	-7898
▁ዝገደደ	-7899
▁ዝህ	-7900
▁ዚጽ	-7901
▁ዘይወ	-7902
▁ውሳነታት	-7903
▁ወግዓዊ	-7904
▁ክትመ	-7905
▁ክህቦ	-7906
▁ክስዕ	-7907
▁ክሲ	-7908
▁ክምል	-7909
▁ኪነብሩ	-7910
▁እየ፣+	-7911
▁እንግሊዝኛ	-7912
▁እካ	-7913
▁ኣብዝ	-7914
▁ኣሕመድ	-7915
▁ኣሎኹ፡	-7916
▁ኣሰር	-7917
▁ንርእሰይ	-7918
▁ነይሩ"	-7919
▁ነሩ።	-7920
▁ብድሕ	-7921
▁ሰምዐ	-7922
▁ሰሜ	-7923
▁ረኣየ።	-7924
▁ምሳኺ	-7925
▁መበለት	-7926
▁ሐደ	-7927
▁(መ	-7928
ጻወቱ	-7929
የናይ	-7930
ዐኛ	-7931
ኣ፡	-7932
ን!	-7933
በለት	-7934
ቕበል	-7935
ርበት	-7936
ረኽባ	-7937
ምጽኣ	-7938
ሙኒ	-7939
መጀመርታ	-7940
ሊን	-7941
▁ጸላእቲ	-7942
▁ጋዜጠኛ	-7943
▁የብላን።	-7944
▁ዝፍጸም	-7945
▁ዝድለ	-7946
▁ዝሓተ	-7947
▁ዘገል	-7948
▁ክኸዉን	-7949
▁ክትኰኑ	-7950
▁ክብርን	-7951
▁እግሩ	-7952
▁እዩ፣+	-7953
▁ኣይደል	-7954
▁ኣዘራርባ	-7955
▁ኣውጽ	-7956
▁ኣብሊ	-7957
▁ኣወንታዊ	-7958
▁ኣታዊ	-7959
▁ንኡስ	-7960
▁ንመጽሓፍ	-7961
▁ንይ	-7962
▁ትርኢት	-7963
▁ብገዛእ	-7964
▁ብሚልዮናት	-7965
▁ብትን	-7966
▁ሳይ	-7967
▁ሰኣን	-7968
▁ምርኻብ	-7969
▁መነባብ	-7970
▁ሕማቅ	-7971
▁ሓቢሩ	-7972
▁ሓዘ	-7973
▁ልኡኻት	-7974
▁ህው	-7975
▁ሃይማኖታዊ	-7976
▁"ኢ	-7977
ዚኣቶም	-7978
ኖን	-7979
በልጽ	-7980
ራቅ	-7981
መዓልቱ	-7982
ሓቱ	-7983
ሓል	-7984
ሎ፡	-7985
ልጥ	-7986
ሀብ	-7987
revious	-7988
▁ፈጺመ	-7989
▁ፈው	-7990
▁ጭንቀት	-7991
▁ጥራይ'ዩ	-7992
▁ጕዕዞ	-7993
▁ገሊላ	-7994
▁ጆን	-7995
▁ደፊ	-7996
▁ዝበሎም	-7997
▁ዓለም፡	-7998
▁ዓጽ	-7999
▁ክኾ	-8000
▁ካባታቶም	-8001
▁እየ፤	-8002
▁እትደሊ	-8003
▁እተፈልየ	-8004
▁እር	-8005
▁ኣይሁዳ	-8006
▁ኣዕሩ	-8007
▁ኣንጻ	-8008
▁ኣመሓ	-8009
▁ኢህወ	-8010
▁ንሱስ	-8011
▁ንገር	-8012
▁ትኽእሊ	-8013
▁ትእምርቲ	-8014
▁ተፈጸመ	-8015
▁ተጓዒ	-8016
▁ተሳትፎ	-8017
▁ብኣቦ-መንበር	-8018
▁በዅሪ	-8019
▁ቃለይ	-8020
▁ስለዝኾ	-8021
▁ሰኣ	-8022
▁ምትእስሳር	-8023
▁መጺአ	-8024
▁ልቦና	-8025
▁ልኢ	-8026
▁ሃብትን	-8027
▁Tag	-8028
▁(ኤ	-8029
▁'ካብ	-8030
▁"ኣብዚ	-8031
ፍረት	-8032
ጀት	-8033
ይብ	-8034
የና	-8035
ኣተ	-8036
አር	-8037
ንዚ	-8038
ቐደ	-8039
ሳቐስ	-8040
ርና።	-8041
ሞክራስያዊ	-8042
ማዕረ	-8043
ለምቲ	-8044
ሃቢ	-8045
ch	-8046
▁ይኹን፡	-8047
▁ይሁዳን	-8048
▁ዘይዕ	-8049
▁ዕማም	-8050
▁ውሽጥና	-8051
▁ውፅ	-8052
▁ክኸዱ	-8053
▁ኪሕ	-8054
▁ከድልየ	-8055
▁እገብር	-8056
▁ኣጀንዳ	-8057
▁ኣይግባእን።	-8058
▁ኣእዛ	-8059
▁ንደቅ	-8060
▁ንሽዑ	-8061
▁ነበርና።	-8062
▁ተጽሒፉ	-8063
▁ተጠቃ	-8064
▁ብምሉኡ	-8065
▁ቅትለት	-8066
▁ቅቡል	-8067
▁ምርመራ	-8068
▁ምምጻእ	-8069
▁ሕማማት	-8070
▁ሓባራዊ	-8071
▁ሓለፍቲ	-8072
▁ልዕሊኦም	-8073
▁1ይ	-8074
ፍሕ	-8075
ጽልዩ	-8076
ይል	-8077
ና?	-8078
ተግባር	-8079
ህዋ	-8080
tion	-8081
:5	-8082
--	-8083
▁ፍሬ	-8084
▁ገይራ	-8085
▁ይግበኣ	-8086
▁ዘስ	-8087
▁ክንዝ	-8088
▁ክትፈልጡ	-8089
▁ክኽእል	-8090
▁ክበጽሕ	-8091
▁ኩዕሶ	-8092
▁እተፈ	-8093
▁ኤርምያስ	-8094
▁ኣጋንንቲ	-8095
▁ኣንስትን	-8096
▁ኣለኹ፡	-8097
▁ኣቃ	-8098
▁ንምርኣይ	-8099
▁ትሽዓተ	-8100
▁ተባዕታይ	-8101
▁ተሓታቲ	-8102
▁ብዙኃት	-8103
▁ብውሕዱ	-8104
▁ብዓልቲ	-8105
▁ቤትና	-8106
▁በለስ	-8107
▁ቁፅ	-8108
▁ሲሶ	-8109
▁ሰማይ	-8110
▁ረስ	-8111
▁ምሕረቱ	-8112
▁መጽሓ	-8113
▁መወዳእታኡ	-8114
▁መሲሕ	-8115
▁መርገም	-8116
▁ሌዋውያን	-8117
▁say	-8118
▁196	-8119
▁(1)	-8120
ፍተ	-8121
ጭት	-8122
ዶምን	-8123
ድዩ	-8124
ክልቲ	-8125
ነር	-8126
ባባ	-8127
ቡጥ	-8128
ቕኩም	-8129
ቃዕ	-8130
ሽታ	-8131
ማህ	-8132
ሒታት	-8133
ልጣ	-8134
is	-8135
▁ግሪኽ	-8136
▁ደጊመ	-8137
▁ይገብረ	-8138
▁ዝፋን	-8139
▁ዚህበኒ	-8140
▁እትነብር	-8141
▁ኣፍሪካ	-8142
▁ኣይኮነን፡	-8143
▁ኣይከኣልን	-8144
▁ኣይጸ	-8145
▁ኣይቀ	-8146
▁ኣውስትራልያ	-8147
▁ኣብርሃምን	-8148
▁ኣቡነ	-8149
▁ኣስዒ	-8150
▁ኣሕዋተየ፡	-8151
▁ንምሉእ	-8152
▁ንሓድሕድና	-8153
▁ንዛረብ	-8154
▁ተዛሪበ	-8155
▁ተመሊሰ	-8156
▁ብኽልተ	-8157
▁በጺሕ	-8158
▁ቕዱሳት	-8159
▁ስድራይ	-8160
▁ሰዓብ	-8161
▁ሰሚዑ	-8162
▁ረኸብ	-8163
▁ምድረ	-8164
▁ምጉ	-8165
▁ምትካ	-8166
▁መለኸት	-8167
▁መሬ	-8168
▁ሉቃስ	-8169
▁2011	-8170
▁'ኳ	-8171
ፃን	-8172
ግሕ	-8173
የማ	-8174
የሉ	-8175
ኮታዊ	-8176
ናቱ	-8177
ሪካን	-8178
ሪኦ	-8179
ሩና	-8180
ላለስ	-8181
ላድ	-8182
-ወከፍ	-8183
▁ጲላ	-8184
▁ጥምቀት	-8185
▁ግርም	-8186
▁ገይርና	-8187
▁ገድሊ	-8188
▁ጀርመን	-8189
▁ዮናታን	-8190
▁ይዝከ	-8191
▁ዝገብር።	-8192
▁ዚመስል	-8193
▁ዘመናት	-8194
▁ዘጋጥም	-8195
▁ወሲዶም	-8196
▁ኽትገብር	-8197
▁ክንፈልጥ	-8198
▁ክንዕ	-8199
▁ከሎኻ	-8200
▁እናበልና	-8201
▁ኣይትፍራህ።	-8202
▁ኣይሂ	-8203
▁ኣኪ	-8204
▁አዚ	-8205
▁ነብሲ	-8206
▁ትኾኑ	-8207
▁ትሓስብ	-8208
▁ተረኺቡ	-8209
▁ባዶ	-8210
▁ቀልጢፈ	-8211
▁ሽልማት	-8212
▁ስቅ	-8213
▁ሰደ	-8214
▁ምሩ	-8215
▁መንግስቱ	-8216
▁መሳፍንቲ	-8217
▁ሓሳዊ	-8218
▁ልምዲ	-8219
ፎም።	-8220
ፍልጠ	-8221
ጽሓ	-8222
ጋሕ	-8223
ንካ፡	-8224
ብሃ	-8225
በልዎ	-8226
ስምዕ	-8227
ሳሰል	-8228
መንቲ	-8229
ልዮም	-8230
ላሴ	-8231
ሊስ	-8232
▁ፍጥረታት	-8233
▁ጠለብ	-8234
▁ግቡ	-8235
▁ደርብ	-8236
▁ይወስ	-8237
▁ዝኣምን	-8238
▁ዝተዋህበ	-8239
▁ዘድል	-8240
▁ኺብሃል	-8241
▁ኰይና	-8242
▁ከምዘየ	-8243
▁ኢካ	-8244
▁ንኸውን።	-8245
▁ነፍሲወከፍ	-8246
▁ትርከብ።	-8247
▁ታሪክ	-8248
▁ተቐመጡ።	-8249
▁ተሰዊ	-8250
▁ባህላዊ	-8251
▁ስእልታት	-8252
▁ሎሚ፡	-8253
▁ህዝባ	-8254
ጽንዕ	-8255
ጸድቕ	-8256
ዘኒ	-8257
ዓካ	-8258
ኒ!	-8259
ረክ	-8260
ሚት	-8261
መሰረ	-8262
ሕብባር	-8263
ሃነም	-8264
▁ፍጻመታት	-8265
▁ፍቃድ	-8266
▁ገረብ	-8267
▁ዲፕሎማ	-8268
▁ይዛረቡ	-8269
▁ይሓስብ	-8270
▁ይሃብ	-8271
▁ዝተጠቕ	-8272
▁ዚገብሩ	-8273
▁ዓብይን	-8274
▁ወታ	-8275
▁ክርከብ	-8276
▁እውን።	-8277
▁ኤረ	-8278
▁ኣእዋም	-8279
▁ኣእት	-8280
▁ኣያ	-8281
▁ንምፍ	-8282
▁ንምዝ	-8283
▁ንኸይ	-8284
▁ነበረት	-8285
▁ትብዓት	-8286
▁ቢቢ	-8287
▁ቀዳምነት	-8288
▁ሰላማዊ	-8289
▁ርባ	-8290
▁ምድራዊ	-8291
▁ሚእትን	-8292
▁መንደቕ	-8293
▁1:2	-8294
▁"ነዚ	-8295
ፖር	-8296
ጸባር	-8297
ጠቀ	-8298
ዳኢ	-8299
ደሎ	-8300
ያድ	-8301
ውጽኣ	-8302
ወካ	-8303
ዀኑ።	-8304
ትራ	-8305
ሶም።	-8306
ሮ፡	-8307
ሮስ	-8308
ርዎ።	-8309
ረድእ	-8310
ምእታው	-8311
ልናዮ	-8312
ላይን	-8313
▁ፌስቡክ	-8314
▁ገጸይ	-8315
▁ድሕረ	-8316
▁ደሴት	-8317
▁ዝዓይ	-8318
▁ዝነበርካ	-8319
▁ዘልኣለም	-8320
▁ዘለዓ	-8321
▁ዕርቂ	-8322
▁ዄንካ፡	-8323
▁ክትመጽእ	-8324
▁ኪመ	-8325
▁ከውሒ	-8326
▁እንድዒ	-8327
▁እንተይ	-8328
▁እብራይስ	-8329
▁ኣይኰኑን።	-8330
▁ኣይፈልጥ	-8331
▁ኣምባ	-8332
▁ኣሕዛብ	-8333
▁ኣሶ	-8334
▁አቲ	-8335
▁ናብዛ	-8336
▁ነይሩ?	-8337
▁ኃይሊ	-8338
▁ትራ	-8339
▁ተጠቀምቲ	-8340
▁ተሰማሚ	-8341
▁ብዂ	-8342
▁ቀቅድሚ	-8343
▁ስዊዘርላንድ	-8344
▁ስለምንታይከ	-8345
▁ሱር	-8346
▁ረቡዕ	-8347
▁ምቕራብ	-8348
▁መወዳእታ፡	-8349
▁2021	-8350
ፍዎ	-8351
ፋፍ	-8352
ፅል	-8353
ጊቡ	-8354
ድመ	-8355
የካ	-8356
ዙሓት	-8357
ዘዙ	-8358
ኽእላ	-8359
ኻእ	-8360
ንኪ	-8361
በርት	-8362
ቀኒ	-8363
ሰምዖም	-8364
ርሕቕ	-8365
መም	-8366
ሓቅ	-8367
ልናን።	-8368
ልከ	-8369
-3	-8370
'ሲ	-8371
▁ጸጋማይ	-8372
▁ጸኒሑ።	-8373
▁ጭር	-8374
▁ጌሮም	-8375
▁ይውስኽ	-8376
▁የመልክት።	-8377
▁ዝደለየ	-8378
▁ዝረኸብ	-8379
▁ዝግብኣ	-8380
▁ዝቖ	-8381
▁ዚገብርዎ	-8382
▁ዓበይ	-8383
▁ወይ'ውን	-8384
▁ወጸ።	-8385
▁ክሰርሑ	-8386
▁ኪነብር	-8387
▁ከባቢታት	-8388
▁እንነብር	-8389
▁እተዛረቦ	-8390
▁እምበኣርከስ	-8391
▁እምነቶም	-8392
▁ኤር	-8393
▁ኣይኮናን	-8394
▁ኣይትጨ	-8395
▁ኣይሞ	-8396
▁ኣሻ	-8397
▁ኢኮኖሚ	-8398
▁ንሓው	-8399
▁ናት	-8400
▁ተሐ	-8401
▁ቤተክርስቲያን	-8402
▁ርክባት	-8403
▁ምርኮ	-8404
▁ሕታም	-8405
ፈና	-8406
ጽል።	-8407
ዛረበሉ	-8408
ነግር	-8409
በጽሖ	-8410
ርታት	-8411
ረኽበሉ	-8412
ሕልዉ	-8413
ሑን	-8414
ome	-8415
▁ጽንዓት	-8416
▁ጸሓፊ	-8417
▁ጫፍ	-8418
▁ጥበ	-8419
▁ጎይታይ	-8420
▁ይብሃል።	-8421
▁የልቦን፡	-8422
▁ዝጀመረ	-8423
▁ዝዓይነቱ	-8424
▁ዝኸኣለ	-8425
▁ዝተሓተ	-8426
▁ዝመሰ	-8427
▁ዓወ	-8428
▁ኺብሎም	-8429
▁ክንሰርሕ	-8430
▁ክገልጽ	-8431
▁ኦሪት	-8432
▁እዋይ	-8433
▁ኣድሒ	-8434
▁ኣስማት	-8435
▁ኣለዉ፡	-8436
▁ኣሲ	-8437
▁ትፈልጥዎ	-8438
▁ብሕታዊ	-8439
▁ሳይት	-8440
▁ሚሊዮን	-8441
▁ሓጥኣን	-8442
▁ሓረስታይ	-8443
ጸሉ	-8444
ይወተይ	-8445
ኻውን	-8446
ኸ?	-8447
ንቀፍ	-8448
ናዊት	-8449
ቒዱ	-8450
ቃለ	-8451
ቀስ	-8452
ረዳ	-8453
መስግኖ	-8454
ልካን	-8455
ልያት	-8456
ልዕል	-8457
▁ፈተውቲ	-8458
▁ፈተው	-8459
▁ጭፍራ	-8460
▁ዝበለት	-8461
▁ዜግነት	-8462
▁ዚኣምኑ	-8463
▁ዘይከውን	-8464
▁ዘካ	-8465
▁ዓዱ	-8466
▁ዓማ	-8467
▁ውሰ	-8468
▁ክፍጸም	-8469
▁ካሕ	-8470
▁እንክብሉ	-8471
▁እናኣ	-8472
▁እኸይድ	-8473
▁ንሰማ	-8474
▁ትመጽእ	-8475
▁ተመልሱ።	-8476
▁ብዛዕባና	-8477
▁ብኃ	-8478
▁ቁጽ	-8479
▁ምጽንና	-8480
▁ሕጻናት	-8481
▁ሓፋሽ	-8482
▁ሒዝና	-8483
▁ሃቦ።	-8484
▁Previous	-8485
▁(ለ	-8486
▁(3	-8487
▁"ና	-8488
ፈጥር	-8489
ጐድ	-8490
ዓመቱ	-8491
ኽብሮ	-8492
ኹም?	-8493
ክር።	-8494
ክም	-8495
አል	-8496
ንና፡	-8497
es	-8498
▁ፕረሲ	-8499
▁ጢሞ	-8500
▁ድዮም?	-8501
▁ይኽእሉ	-8502
▁ዝፋ	-8503
▁ዘፍጥረት	-8504
▁ዘሎዎ	-8505
▁ዘሰ	-8506
▁ዓውደ	-8507
▁ዓዋ	-8508
▁ዋላ'ኳ	-8509
▁ኸይት	-8510
▁ኲላቶም	-8511
▁ከብዲ	-8512
▁እያ፧	-8513
▁እንድሕሪ	-8514
▁ኣይትግ	-8515
▁ኣይትኽእሉን	-8516
▁ኣይቅ	-8517
▁ኣውጽኣ	-8518
▁ኣምላኽሲ	-8519
▁ኣምጽኡ	-8520
▁ኣሃዱ	-8521
▁ንእስነት	-8522
▁ንሓድሕድኩም	-8523
▁ንብረ	-8524
▁ንሰርሕ	-8525
▁ብግል	-8526
▁ብኸምኡ	-8527
▁ብሥ	-8528
▁ብ1	-8529
▁ባህርይ	-8530
▁በብመዓልቱ	-8531
▁ስማዕ።	-8532
▁ርሒ	-8533
▁ምፍል	-8534
▁ምግላጽ	-8535
▁ማዕበል	-8536
▁መገዲ፡	-8537
▁መረጻ	-8538
▁ሓገ	-8539
▁ሃዲ	-8540
▁(መዝሙር	-8541
ጽብ	-8542
ዮም፡	-8543
ይዋ	-8544
ንተ	-8545
ነድድ	-8546
ሳትን	-8547
ሱ፣	-8548
ሩት	-8549
ምርኮ	-8550
ሎም፣	-8551
ላላይ	-8552
ሊዘ	-8553
'ዩ?	-8554
▁‹‹	-8555
▁ፍለጥ።	-8556
▁ጸኒሖም	-8557
▁ጉዳይ'ዚ	-8558
▁ድላይ	-8559
▁ደኣ፡	-8560
▁ደቁን	-8561
▁ደርፍ	-8562
▁ይኾኑ።	-8563
▁የመን	-8564
▁ዝተፈላለያ	-8565
▁ዝት	-8566
▁ዘለዓለም	-8567
▁ዘኪ	-8568
▁ዕንቅ	-8569
▁ዕርክ	-8570
▁ውጽኢቱ	-8571
▁ውሰድ	-8572
▁ኸምዚ፡	-8573
▁ክብረ	-8574
▁ክርአ	-8575
▁ክምለሱ	-8576
▁ከዋኽብቲ	-8577
▁ከማይ	-8578
▁እዚአ	-8579
▁እተዘር	-8580
▁እገዳ	-8581
▁ኣየኖት	-8582
▁ኣማኒ	-8583
▁ንያእቆብ	-8584
▁ንመብዛ	-8585
▁ባይ	-8586
▁ባእ	-8587
▁ቐዳመይቲ	-8588
▁ቅኑዕን	-8589
▁ቅልጡፍ	-8590
▁ቀጥ	-8591
▁ስርዓ	-8592
▁ርኹስ	-8593
▁ሥራሕ	-8594
▁ሞኣብ	-8595
▁ምጅማር	-8596
▁መንገድታት	-8597
▁ሆቴ	-8598
▁ህሞት	-8599
▁4.	-8600
▁"ነፍ	-8601
፡3	-8602
ጽበዮ	-8603
ጻ።	-8604
ጸልእ	-8605
ገማት	-8606
ዩተር	-8607
የ፣	-8608
ወርዱ	-8609
ወዲ	-8610
ኣትው	-8611
ናስ	-8612
በረሉ	-8613
በደ	-8614
መስግን።	-8615
ህልዎም	-8616
w.	-8617
:9	-8618
▁ጽዩ	-8619
▁ጠበ	-8620
▁ግብርታት	-8621
▁ጀሚረ።	-8622
▁ዜድሊ	-8623
▁ዚኽ	-8624
▁ዘይኮኑ	-8625
▁ወለዱ	-8626
▁ኻህን	-8627
▁ክልቲአን	-8628
▁እዮም፤	-8629
▁እዝን	-8630
▁እብራውያን	-8631
▁እምነትና	-8632
▁ኣይኮናን።	-8633
▁ኣይንኽእልን።	-8634
▁ትነብር	-8635
▁ተፈጺሙ"	-8636
▁ተገሪ	-8637
▁ተንስእ	-8638
▁ተመልሰ።	-8639
▁ተፍቅ	-8640
▁ብትሕትና	-8641
▁ብምቕ	-8642
▁ብሉጻት	-8643
▁ብአ	-8644
▁ስሞም	-8645
▁ሳይን	-8646
▁ሰላምታ	-8647
▁ሰፈ	-8648
▁ርእስ	-8649
▁ረኺብ	-8650
▁ምጽባይ	-8651
▁ማእኸል	-8652
▁ማራ	-8653
▁መጺእ	-8654
▁መለሰ።	-8655
▁ሕን	-8656
▁ሓይልን	-8657
▁"ጐይታይ	-8658
ዩና	-8659
ዩም	-8660
እከቡ	-8661
ታውያን	-8662
ቲ፡	-8663
ቱር	-8664
ቀርብ	-8665
ርስዕ	-8666
ሓየሽ	-8667
ሓብ	-8668
ሓሰብ	-8669
▁ፊደ	-8670
▁ጽሒፉ	-8671
▁ጨና	-8672
▁ጉድኣት	-8673
▁ድምጹ	-8674
▁ደጊሙ	-8675
▁ይከ	-8676
▁የድልየካ	-8677
▁ዝኸዱ	-8678
▁ዝነገር	-8679
▁ዝሓለፋ	-8680
▁ዝሓስ	-8681
▁ዝሓሰ	-8682
▁ዝገብረ	-8683
▁ዜሐጕስ	-8684
▁ዚቝጸሩ	-8685
▁ዘመልክ	-8686
▁ዘራ	-8687
▁ዑደት	-8688
▁ኽፋል	-8689
▁ክነብሩ	-8690
▁ክሓስብ	-8691
▁ኪኸዱ	-8692
▁ኩላ	-8693
▁እንተሃል	-8694
▁እምነ	-8695
▁እብል	-8696
▁ኤፍሬ	-8697
▁ኣይከኣልን።	-8698
▁ኣስዕብ	-8699
▁ኣድሕነ	-8700
▁ንግስቲ	-8701
▁ንዒ	-8702
▁ንቐ	-8703
▁ነፍሱ	-8704
▁ቲቪ	-8705
▁ብርክት	-8706
▁ብጭ	-8707
▁ብታ	-8708
▁በየናይ	-8709
▁ቅድሜኹም	-8710
▁ቅዱስን	-8711
▁ሰራቒ	-8712
▁ምሕጋዝ	-8713
▁መብር	-8714
▁ሑጻ	-8715
ጽበት	-8716
ድነ	-8717
ዘካ	-8718
ዎ፣	-8719
እዛ	-8720
ባህለ	-8721
ቡኣት	-8722
በት።	-8723
ሮምን	-8724
ርባ	-8725
ረኽቦም	-8726
ሎምን።	-8727
0ታት	-8728
▁ፍሪኣ	-8729
▁ፈረስ	-8730
▁ጽርግ	-8731
▁ጥልያን	-8732
▁ጠለ	-8733
▁ደለይቲ	-8734
▁ይብለና	-8735
▁ይቐ	-8736
▁ዝገበርክዎ	-8737
▁ዝሰርሓ	-8738
▁ዚዀኑ	-8739
▁ዚን	-8740
▁ዚሐ	-8741
▁ዘጋጥ	-8742
▁ወለድና	-8743
▁ወዳ	-8744
▁ኻባኻትኩም	-8745
▁ክትኣቱ	-8746
▁ኪኸውን፡	-8747
▁ኪን	-8748
▁ከይከውን	-8749
▁ከተንብ	-8750
▁እተወሰነ	-8751
▁ኣፈይ	-8752
▁ኣይነበረትን።	-8753
▁ኣዝማ	-8754
▁ኢራን	-8755
▁ንጸሊ።	-8756
▁ንብረት	-8757
▁ትዛረብ	-8758
▁ትመስል	-8759
▁ቱርኪ	-8760
▁ተባሂሉ።	-8761
▁ብእንግሊዝ	-8762
▁ብጽሑፍ	-8763
▁ብረ	-8764
▁ቐንዲ	-8765
▁ቀዲ	-8766
▁ሰረገላ	-8767
▁ሰሉስ	-8768
▁ምትካኽ	-8769
▁ምኵ	-8770
▁መዓሙቝ	-8771
▁መዳ	-8772
▁ሓይሉ	-8773
▁ሓተተ	-8774
▁ህዝቢውን	-8775
▁55	-8776
▁2)	-8777
▁."	-8778
ጽዎ	-8779
ገሰ	-8780
ይላ	-8781
ዞም።	-8782
ዎ?	-8783
ተኽ	-8784
ረጹ	-8785
መንገዲ	-8786
ሓለፈ	-8787
ሉል	-8788
ህልዉ	-8789
ሃበካ	-8790
na	-8791
/ኪ	-8792
▁ጸጋም	-8793
▁ጳውሎስ፡	-8794
▁ጭብ	-8795
▁ጊዜኡ	-8796
▁ገበርቲ	-8797
▁ዳዊ	-8798
▁ዝኸኣ	-8799
▁ዝሀ	-8800
▁ዘተስፈ	-8801
▁ኽትፈልጥ	-8802
▁ክንፈልጦ	-8803
▁ክርእዮ	-8804
▁ከይጸንሐ	-8805
▁ከምእት	-8806
▁እዩሞ።	-8807
▁እብለካ	-8808
▁እሙንን	-8809
▁እቱ	-8810
▁ኣጋጣሚታት	-8811
▁ኣይትእ	-8812
▁ኣዘዝ	-8813
▁ኢሰያስ	-8814
▁ንኽእል፧	-8815
▁ንኸም	-8816
▁ነብያትን	-8817
▁ብሰለስተ	-8818
▁ሽኮር	-8819
▁ሰብ።	-8820
▁ምስተ	-8821
▁መረፃ	-8822
▁መምህራን	-8823
▁መረጋ	-8824
▁ሓውና	-8825
▁ልምምድ	-8826
▁'ተ	-8827
▁"በጃ	-8828
ፋሕ	-8829
ወቲ	-8830
ረንቶስ	-8831
ህለ	-8832
op	-8833
oo	-8834
'ዞም	-8835
▁ጽርግያ	-8836
▁ጐን	-8837
▁ጎረባብ	-8838
▁ግዙ	-8839
▁ዳኣ	-8840
▁ይስሃቅን	-8841
▁ይወጽእ	-8842
▁ይዅ	-8843
▁የድልዮ	-8844
▁ዝረአ	-8845
▁ዚሕብር	-8846
▁ዘድልዮም	-8847
▁ዕስራ	-8848
▁ወፂ	-8849
▁ኸለዉ፡	-8850
▁ኮሚቴ	-8851
▁ክእለ	-8852
▁ክመውት	-8853
▁ኪሎ	-8854
▁እያ!	-8855
▁እዚ'ዩ	-8856
▁ኤደን	-8857
▁ኣይከውን	-8858
▁ኣብዚኣ	-8859
▁ኣብኡ	-8860
▁ኣርባዕ	-8861
▁ንኩሎም	-8862
▁ንሕና'ውን	-8863
▁ንኣብ	-8864
▁ኃጢአት	-8865
▁ተመልከ	-8866
▁ተመኩሮ	-8867
▁ብዛዕብኡ	-8868
▁ብቕንዕና	-8869
▁ብርታዐ	-8870
▁ቤቱን	-8871
▁ሰብ፣	-8872
▁ሰበይቲ፡	-8873
▁መጽሔት	-8874
▁መኣዝ	-8875
▁መማህ	-8876
▁መለሱ	-8877
▁ሓቀይ?	-8878
▁ሓለፋ	-8879
▁ሃገርካ	-8880
▁ti>	-8881
ፍታ	-8882
ጸንሑ	-8883
ግብኦም	-8884
ገንዘብ	-8885
ደልየንን	-8886
ይዎ።	-8887
ዓትን	-8888
በኪ	-8889
ርቶ	-8890
:10	-8891
▁ፓር	-8892
▁ፍቓድካ	-8893
▁ፊልምታት	-8894
▁ጽባ	-8895
▁ጣዕ	-8896
▁ደቂ-ኣንስትዮ	-8897
▁ደናግ	-8898
▁ይግበር።	-8899
▁ዝኣዘዞ	-8900
▁ዝተወለ	-8901
▁ዜማ	-8902
▁ዘክሮ	-8903
▁ዕግ	-8904
▁ውሱን	-8905
▁ወይውን	-8906
▁ወሃቢ	-8907
▁ኽጸድቕ	-8908
▁ኺገብር	-8909
▁ኸቶ	-8910
▁ክርስቶስን	-8911
▁ከዳ	-8912
▁እናሃ	-8913
▁ኣይነበረንን።	-8914
▁ኣይፈር	-8915
▁ኣየንበብ	-8916
▁ኣተወ።	-8917
▁ኣምባሳ	-8918
▁ኣሕሊፈ	-8919
▁ንጉስ፡	-8920
▁ንጉስን	-8921
▁ንኣና	-8922
▁ንበል	-8923
▁ነውሪ	-8924
▁ተው	-8925
▁ብቐዳምነት	-8926
▁ብቅ	-8927
▁ብረት	-8928
▁ቅዳሴ	-8929
▁ሰበይተይ	-8930
▁ምእማን	-8931
▁መድኃ	-8932
▁መነባብሮ	-8933
▁መብርሂ	-8934
▁መሪር	-8935
▁ሓያላት	-8936
▁ላባን	-8937
▁ህላወ	-8938
▁says:	-8939
▁(ን	-8940
▁(ሀ	-8941
▁"ዓ	-8942
ፍሉይ	-8943
ጽአ	-8944
ጸሙ	-8945
ገልግሎ	-8946
ዩ?	-8947
ዝብ	-8948
ውው	-8949
ዋላ	-8950
ኸኣ	-8951
ከረ	-8952
ናኒ	-8953
ቪድ	-8954
ብናዮ	-8955
ሽየ	-8956
ሴሎም	-8957
ርካዮ	-8958
ር፡	-8959
ርባን	-8960
ረፉ	-8961
ረበሉ	-8962
ሓስቦ	-8963
ሌክ	-8964
ሊኻ	-8965
ing	-8966
▁ፈጺምካ	-8967
▁ፈጢሩ።	-8968
▁ጾታ	-8969
▁ጥንታዊ	-8970
▁ጐድ	-8971
▁ገበሩ።	-8972
▁ይነግረና።	-8973
▁ይስመዓ	-8974
▁ይደልየ	-8975
▁ይርአ	-8976
▁የግዳስ	-8977
▁ዝግብአ	-8978
▁ዚሰ	-8979
▁ዘንብ	-8980
▁ዓሚቝ	-8981
▁ውርደት	-8982
▁ወጻኢታት	-8983
▁ወሃብ	-8984
▁ኽቡር	-8985
▁ኰነ፡	-8986
▁ክፍትን	-8987
▁ክንዳኡስ፡	-8988
▁እንተዝኸውን	-8989
▁እብራይስጢ	-8990
▁እግር	-8991
▁እኖ	-8992
▁ኣይትፍርሁ።	-8993
▁ኣይትደልየንን	-8994
▁ኣሜሪካን	-8995
▁ኣጠቓ	-8996
▁ብጥን	-8997
▁ሚኢታዊት	-8998
▁መንግስታዊ	-8999
▁መን'ዩ?	-9000
▁ሎም	-9001
▁you	-9002
▁Home	-9003
▁(3)	-9004
ፈቕ	-9005
ጹማት	-9006
ጸላ	-9007
ገልግሎት	-9008
ድቂ	-9009
ዳደር	-9010
ዮስ	-9011
ውስቦ	-9012
እሰያት	-9013
ኣዩ	-9014
ነወ	-9015
ተሰር	-9016
ስምዖም	-9017
ስክ	-9018
ሓተ	-9019
ሑፍ	-9020
▁ግሩም	-9021
▁ዲዩ?	-9022
▁ዲግሪ	-9023
▁ደቂሱ	-9024
▁ይብል፦	-9025
▁ይግለ	-9026
▁ይዛረቡ።	-9027
▁ዝብለካ	-9028
▁ዚብሉ	-9029
▁ዘክር።	-9030
▁ዘለዎን	-9031
▁ዉሉ	-9032
▁ኽጸድቕዶ	-9033
▁ኮሚሽን	-9034
▁ክርስትያናዊ	-9035
▁ክህልዉ	-9036
▁ኪዀነ	-9037
▁ኩን።	-9038
▁ከማን	-9039
▁ከልቢ	-9040
▁እግዝኣብ	-9041
▁እፈቱ።	-9042
▁ኤፌሶን	-9043
▁ኣይገበረ	-9044
▁ኣኺሉ	-9045
▁ኣንበ	-9046
▁ኣባታቶም	-9047
▁ኣሰና	-9048
▁ኣምጽእ	-9049
▁ኣለዎ፡	-9050
▁ኢድና	-9051
▁ንታሕቲ	-9052
▁ንጴ	-9053
▁ንበል።	-9054
▁ናብ'ቲ	-9055
▁ነቐ	-9056
▁ተዳልዩ	-9057
▁ተዘክሮ	-9058
▁ተረፍ	-9059
▁ተመልሰ	-9060
▁ብባህ	-9061
▁በሪ	-9062
▁ቀሪባ	-9063
▁ሲቪ	-9064
▁ሱቕ	-9065
▁ምፍጣር	-9066
▁ምደለ	-9067
▁ማለቱ	-9068
▁ሚዛን	-9069
▁መፈ	-9070
▁መቅ	-9071
▁ሕሙማት	-9072
▁ሓበሬታታት	-9073
▁ሎጥ	-9074
▁ልብን	-9075
▁ህዝቅ	-9076
▁'ሞ	-9077
ገቡ	-9078
ዛዘ	-9079
ዕዎ።	-9080
ዋዕ።	-9081
ኩዎን።	-9082
ኤ፡	-9083
ኣዘዝ	-9084
በን።	-9085
ሰብኽ	-9086
ርድኣ	-9087
ሐድ	-9088
▁ጲላጦስ	-9089
▁ግበሩ።	-9090
▁ገጾም	-9091
▁ጀሚርካ	-9092
▁ድላ	-9093
▁ይትረፍ	-9094
▁ይገብሮ።	-9095
▁ይምስ	-9096
▁ዝዕድሚ	-9097
▁ዓንዲ	-9098
▁ክንራኸብ	-9099
▁ክብሃል	-9100
▁ክርእዩ	-9101
▁ክራይ	-9102
▁ኣጸቢቐ	-9103
▁ኣንበብቲ	-9104
▁ኣቦን	-9105
▁ንምርግጋጽ	-9106
▁ንምም	-9107
▁ንፋ	-9108
▁ትድ	-9109
▁ተጸዊ	-9110
▁ተና	-9111
▁ብዂሉ	-9112
▁ብትብዓት	-9113
▁ብተስፋ	-9114
▁ብቓል	-9115
▁ሰሚዖም	-9116
▁ርእስኹም	-9117
▁ርሕቀት	-9118
▁ምተ	-9119
▁መጺኣ	-9120
▁መትከ	-9121
▁መብዛሕትና	-9122
▁መጀመ	-9123
▁ልደ	-9124
▁ሃገራት፡	-9125
ደሰ	-9126
ዮም፣	-9127
ያሎ	-9128
ኩር	-9129
ንኩም፡	-9130
ነሉ	-9131
ቡብ	-9132
ቕል	-9133
ስዕቦ	-9134
ስሃ	-9135
ምነገር	-9136
መስልን።	-9137
ሊዘኛ	-9138
ሊያ	-9139
ሃበኩም	-9140
'ዚኣ	-9141
▁ፈርሁ።	-9142
▁ጸባ	-9143
▁ጋኔን	-9144
▁ገምገም	-9145
▁ድኅነት	-9146
▁ድምፂ	-9147
▁ድሕሪት	-9148
▁ዝገበርካዮ	-9149
▁ዝረኣዮ	-9150
▁ዝምስ	-9151
▁ዘይኰነስ	-9152
▁ዓቐን	-9153
▁ክንጽበ	-9154
▁ክጥ	-9155
▁ክምህ	-9156
▁ካቶሊካ	-9157
▁ኩነ	-9158
▁ከኣ፣	-9159
▁እናበልካ	-9160
▁ኤሊ	-9161
▁ኣይትስ	-9162
▁ኣይብል	-9163
▁ኣወዳትን	-9164
▁ኣብይ	-9165
▁ኣምላኽ።	-9166
▁ንስኻስ	-9167
▁ንምብጻሕ	-9168
▁ንኻል	-9169
▁ኔርኩም	-9170
▁ነዚኣ	-9171
▁ነዲ	-9172
▁ተፈጥሮ	-9173
▁ተግባራዊ	-9174
▁ተደፊ	-9175
▁ተዓዊ	-9176
▁ተረዲኡ	-9177
▁ተማሃራይ	-9178
▁ተተ	-9179
▁ብዘመን	-9180
▁በብዓመቱ	-9181
▁ስጳ	-9182
▁ሲና	-9183
▁ሰኑይ	-9184
▁ሮማ	-9185
▁ረኺብካ	-9186
▁ረቛ	-9187
▁ምፍልላይ	-9188
▁ምሓዝ	-9189
▁መፅሓፍ	-9190
▁መብዛሕቲ	-9191
▁መልሲ፡	-9192
▁ሓረስቶት	-9193
ፈልኩም	-9194
ግራ	-9195
ድምጺ	-9196
ዳማይ	-9197
ዐት	-9198
ዋሪ	-9199
ናጽ	-9200
ኅን	-9201
ብሊክ	-9202
ቋርጽ	-9203
ረኽብዎ	-9204
go	-9205
:6	-9206
▁ፍርያት	-9207
▁ፊደላት	-9208
▁ጥሪት	-9209
▁ጉዳ	-9210
▁ገንዘባዊ	-9211
▁ገደብ	-9212
▁ድለ	-9213
▁ደገፍቲ	-9214
▁ዝወለ	-9215
▁ዝተጻሕፈ	-9216
▁ዝበለ።	-9217
▁ዝስሙ	-9218
▁ዘይምር	-9219
▁ዘዕ	-9220
▁ዕርክነት	-9221
▁ዕለታዊ	-9222
▁ዓቕም	-9223
▁ኸው	-9224
▁ክዳውንቲ	-9225
▁ክትወጽእ	-9226
▁ክብለካ	-9227
▁ክመሃር	-9228
▁ክገዝ	-9229
▁ኪኢ	-9230
▁ከምዘለዉ	-9231
▁እንከሎ፡	-9232
▁እቶት	-9233
▁እለ	-9234
▁ኣፍደገ	-9235
▁ኣይትረስዕ።	-9236
▁ኣንጊ	-9237
▁ኣበው	-9238
▁ኣስተብህ	-9239
▁ኣስፊ	-9240
▁ኣርኣያ	-9241
▁ኣምለ	-9242
▁ኢና፤	-9243
▁ኢሉ፡	-9244
▁ንምዕ	-9245
▁ንግብ	-9246
▁ንጀ	-9247
▁ንህይወት	-9248
▁ናዝ	-9249
▁ትግራዋይ	-9250
▁ተጠቒሱ	-9251
▁ብነብ	-9252
▁ብሄር	-9253
▁በዝ	-9254
▁ምድላ	-9255
▁ምውዳ	-9256
▁ምርኢት	-9257
▁ማዓልቲ	-9258
▁መጸ፡	-9259
▁መወዳእ	-9260
▁መሊሰ	-9261
▁መአ	-9262
▁ሓቅታት	-9263
▁ሓሰብ	-9264
▁ሓረግ	-9265
▁ህላዌ	-9266
▁2010	-9267
▁"እግዚኣብሄር	-9268
▁"ኵ	-9269
ጨን	-9270
ጋዕ	-9271
ጊሑ	-9272
ይቡ	-9273
ይረ	-9274
ወዳእታ	-9275
ቈጻ	-9276
ስፍ	-9277
ሳይት	-9278
ማኒ	-9279
ሙና	-9280
መርዓ	-9281
▁ፕረሲደንት	-9282
▁ጐይታኡ	-9283
▁ገዛውቲ	-9284
▁ደለየ።	-9285
▁ደአ	-9286
▁ደሞክራሲ	-9287
▁ይብለኒ።	-9288
▁ይህብ።	-9289
▁ዝበጽሕ	-9290
▁ዝመልኦ	-9291
▁ዝቅ	-9292
▁ዝቀ	-9293
▁ዚፍጸም	-9294
▁ዚፈልጥ	-9295
▁ዚከኣ	-9296
▁ዓርክ	-9297
▁ውሑስ	-9298
▁ክፍለጥ	-9299
▁ክድቅስ	-9300
▁ክትርእዮ	-9301
▁ክከውን	-9302
▁ኪሕግዘካ	-9303
▁እዚ'ውን	-9304
▁እንፈልጦ	-9305
▁እስልምና	-9306
▁ኣቦይ፡	-9307
▁ኣቓልቦ	-9308
▁ኢንዱ	-9309
▁ኢንዱስትሪ	-9310
▁ንዘለዉ	-9311
▁ንሚ	-9312
▁ትገብሮ	-9313
▁ተነጊ	-9314
▁ተማሂረ	-9315
▁ብዝግባእ	-9316
▁ብካልእ	-9317
▁በሎ፦	-9318
▁ቈረንቶስ	-9319
▁ቀዋሚ	-9320
▁ቀረብ	-9321
▁ሰሚዕና	-9322
▁ርኢቶ	-9323
▁ምይይ	-9324
▁ማዕከ	-9325
▁ሚልዮናት	-9326
▁መረጋገጺ	-9327
▁መብል	-9328
▁ለመን	-9329
▁(ሀ)	-9330
▁"አ	-9331
ፊል	-9332
ጥፍኣ	-9333
ገብሩ።	-9334
ዒን	-9335
ኻድ	-9336
ኸስ	-9337
ክሕ	-9338
ካ፧	-9339
እዛዝ	-9340
ኑኤል	-9341
ቶም፡	-9342
ተኣማ	-9343
ብሔር	-9344
ባውያን	-9345
ራንን	-9346
ምላስ	-9347
መጠ	-9348
ሑል	-9349
ሎትን	-9350
ለትን።	-9351
ሃር።	-9352
▁ፍቕርኻ	-9353
▁ፈውሲ	-9354
▁ጥብ	-9355
▁ጠፈር	-9356
▁ጐይ	-9357
▁ግዜ'ዚ	-9358
▁ገጻት	-9359
▁ገሩ	-9360
▁ገሃነም	-9361
▁ይኣ	-9362
▁ዝነበሩን	-9363
▁ዝሓትት	-9364
▁ዘለኻ።	-9365
▁ዘረ	-9366
▁ዘማ	-9367
▁ዕዉት	-9368
▁ዕጫ	-9369
▁ወከፍኩም	-9370
▁ወርሕን	-9371
▁ክትን	-9372
▁ክረኽቦ	-9373
▁ካቶሊክ	-9374
▁ኩን	-9375
▁ኩኑ	-9376
▁ከምጽእ	-9377
▁እዮም፣+	-9378
▁እየ?	-9379
▁እኽእል?	-9380
▁እንተዘየ	-9381
▁እንተት	-9382
▁ኣጆኻ	-9383
▁ኣድጊ	-9384
▁ኣይኮነትን	-9385
▁ኣይኽእልን።	-9386
▁ኣንቱም	-9387
▁ኣብነታት	-9388
▁ኣመሓዳሪ	-9389
▁ኣለኺ	-9390
▁ንጹሃት	-9391
▁ንኣታቶም	-9392
▁ንኢ	-9393
▁ተሞክሮ	-9394
▁ብድሆታት	-9395
▁ብርሃንን	-9396
▁ብሕይወት	-9397
▁ቐልጢ	-9398
▁ቅርጺ	-9399
▁ስለዙይ	-9400
▁ሳሚ	-9401
▁ሰረ	-9402
▁ርሑስ	-9403
▁ምግልጋል	-9404
▁መዛሙርቱ፡	-9405
▁መንፈስን	-9406
▁መርዓት	-9407
▁መሊሶም	-9408
▁ሕክምናዊ	-9409
▁ላይ	-9410
▁(ማቴ.	-9411
▁'ዶ	-9412
ጦ።	-9413
ጊድ	-9414
ገልጹ	-9415
ገጥ	-9416
ዲዮ	-9417
ያስ፡	-9418
ዞ።	-9419
ዘመን	-9420
ውን፡	-9421
ኹዎ	-9422
ከምቲ	-9423
ንቛ	-9424
ቱብ	-9425
ተትን።	-9426
ቀይ	-9427
ምሩ	-9428
il	-9429
▁ፈጻ	-9430
▁ጸጋማይ?	-9431
▁ጸብጻባት	-9432
▁ጐንኺ	-9433
▁ጀሚሮም።	-9434
▁ድ.	-9435
▁ዳዊትን	-9436
▁ደናግል	-9437
▁ይርከብ	-9438
▁የድልየና።	-9439
▁ዝተፈጠርና	-9440
▁ዜሕዝን	-9441
▁ዚትንስ	-9442
▁ዚም	-9443
▁ዘፍቅሮ	-9444
▁ዘይብልካ	-9445
▁ወጹ።	-9446
▁ወቕቲ	-9447
▁ኵላትኩም	-9448
▁ክፍልታት	-9449
▁ክንሰምዕ	-9450
▁ከስ	-9451
▁እኳ፡	-9452
▁ንፈርኦን	-9453
▁ንዕኦም	-9454
▁ንርእዮ	-9455
▁ናእ	-9456
▁ነሩ	-9457
▁ኃጥ	-9458
▁ትርጉሙ፡	-9459
▁ትደል	-9460
▁ትመስል።	-9461
▁ተኸዲ	-9462
▁ተሌፎን	-9463
▁ብሃ	-9464
▁ባዕል	-9465
▁ሶማ	-9466
▁ስክፍ	-9467
▁ሳልሕ	-9468
▁ሳምን	-9469
▁ሰል	-9470
▁ምምራጽ	-9471
▁ምሁራት	-9472
▁ማሕደር	-9473
▁ሚኒስትሪ	-9474
▁መስቀ	-9475
▁መውስቦ	-9476
▁ሕጽረት	-9477
▁ለሚ	-9478
▁to	-9479
▁53	-9480
▁195	-9481
▁194	-9482
▁"እሞ	-9483
ፍታሕ	-9484
ፍቓ	-9485
ጥዒ	-9486
ጥቋ	-9487
ደመ	-9488
ይዎም	-9489
ዓበየ	-9490
ኳዕ	-9491
ክልና	-9492
እዘዝ	-9493
አብሄር	-9494
ትኺ	-9495
ቆት	-9496
ሳሕ	-9497
ምን፡	-9498
ልታ	-9499
/ኺ	-9500
'ዩ"	-9501
▁ፓስ	-9502
▁ጥቕስታት	-9503
▁ጥዕ	-9504
▁ጋዜጠኛታት	-9505
▁ገንሸል	-9506
▁ገበሮ።	-9507
▁ይጅምር።	-9508
▁ይህሉ	-9509
▁የብሎምን	-9510
▁የልቦን"	-9511
▁ዝኣቱ	-9512
▁ዜገርም	-9513
▁ዚድ	-9514
▁ዚብሎ	-9515
▁ዚብ	-9516
▁ዘይንኽእል	-9517
▁ዘይርአ	-9518
▁ዕስ	-9519
▁ውሽጥኻ	-9520
▁ኽትገብሮ	-9521
▁ኽብሪ	-9522
▁ክትድሕኑ	-9523
▁ክትከ	-9524
▁ካም	-9525
▁ኩኑ።	-9526
▁ከምኣ	-9527
▁ከር	-9528
▁እንተሃ	-9529
▁ኣጸቢቕካ	-9530
▁ኣንቢበ	-9531
▁ኣሶር	-9532
▁ኣሎዎ	-9533
▁ኣፕ	-9534
▁ኣምር	-9535
▁ኢሉኒ	-9536
▁ንሕናውን	-9537
▁ንሽ	-9538
▁ኔረ	-9539
▁ትበሃል	-9540
▁ተሰሚዑኒ።	-9541
▁ተልእኾ	-9542
▁ብጹእ	-9543
▁ብዘየገድስ፡	-9544
▁ቤተይን	-9545
▁በጽሐ	-9546
▁በትሪ	-9547
▁ሽማግለታት	-9548
▁ስብከ	-9549
▁ሰሚዔ	-9550
▁ሩባ	-9551
▁ምዉት	-9552
▁ምሥጢር	-9553
▁ሚድያ	-9554
▁መሊኡ	-9555
▁ሓቲተ	-9556
▁ሓብቲ	-9557
▁ልማኖ	-9558
▁'እቲ	-9559
▁"ይ	-9560
ፍርዲ	-9561
ፈትው	-9562
ፈጥሮ	-9563
ግሳ	-9564
ጋድ	-9565
ገር።	-9566
ገፍ	-9567
ዐር	-9568
ንታይ	-9569
ናን፡	-9570
ተንስእ	-9571
ተሓሓዘ	-9572
በረ።	-9573
በትን	-9574
ቕ።	-9575
ላሕታ	-9576
ለይን	-9577
▁ፈረቓ	-9578
▁ፈቃር	-9579
▁ጥራይ።	-9580
▁ጣልያን	-9581
▁ግፍዒ	-9582
▁ግልጽ	-9583
▁ይበልጽ	-9584
▁ይመጹ	-9585
▁ይካ	-9586
▁ይነግ	-9587
▁ይሐ	-9588
▁ዝኾነሉ	-9589
▁ዝመጻ	-9590
▁ዘይዕንቀፍ	-9591
▁ዘይከ	-9592
▁ውጥን	-9593
▁ክክክክክ	-9594
▁ካልአይቲ	-9595
▁እግዚኣአብሔር	-9596
▁ኣገዳሲ'ዩ።	-9597
▁ኣዳምን	-9598
▁ኣይትጸ	-9599
▁ኣይኽእልን	-9600
▁ኣይስ	-9601
▁ኣይር	-9602
▁ኣይሀ	-9603
▁ኣውሮፓ	-9604
▁ኣቦኣ	-9605
▁ኣመስገ	-9606
▁ኣፋ	-9607
▁ኣኻ	-9608
▁አይኮነን።	-9609
▁ናታ	-9610
▁ነዙይ	-9611
▁ትልሚ	-9612
▁ተቐበል	-9613
▁ቍጥዓ	-9614
▁ቅድስት	-9615
▁ቀደ	-9616
▁ሳዕቤናት	-9617
▁ምስኣቶም	-9618
▁ምዱብ	-9619
▁ምምል	-9620
▁ሙስሊም	-9621
▁መስዋእ	-9622
▁መልክዑ	-9623
▁ሓካይ	-9624
▁ሄን	-9625
▁ሃብታማት	-9626
▁ago	-9627
▁(ራ	-9628
▁"ገና	-9629
▁"ከመይ	-9630
▁"ፍቕሪ	-9631
ፍኡ	-9632
ፈካ	-9633
ጸሮ	-9634
ጥቋጥ	-9635
ጥካ	-9636
ዝነት	-9637
ዛም	-9638
ዓስ	-9639
ዋታ	-9640
ኽብር	-9641
ንኳዕ	-9642
ትኩምን	-9643
በዓል	-9644
ቅጥቃ	-9645
ርኽ	-9646
ረኣዩ	-9647
ምሕጋዝ	-9648
ምን።	-9649
ማዕ።	-9650
መንት	-9651
ሓንቲ	-9652
ለክት	-9653
ve	-9654
▁ፍልልያት	-9655
▁ፊል	-9656
▁ጸሓፍቲ	-9657
▁ጎድ	-9658
▁ጀነራል	-9659
▁ጀሚራ	-9660
▁ይጠፍእ።	-9661
▁ይስሕ	-9662
▁ይርኣ	-9663
▁ይምልከ	-9664
▁ዝኾነ።	-9665
▁ዝተረኽበ	-9666
▁ዝጠፍኡ	-9667
▁ዝዘ	-9668
▁ዘሎኹም	-9669
▁ዕዉር	-9670
▁ውዕ	-9671
▁ወድኻ	-9672
▁ወርሓዊ	-9673
▁ኽኢ	-9674
▁ኮምፕ	-9675
▁ክፍጽ	-9676
▁ክፍጠር	-9677
▁ክነግረካ	-9678
▁ክሓትት	-9679
▁ኪዱ	-9680
▁ከጋጥም	-9681
▁እንተኾይኑ፡	-9682
▁ኣፍጋ	-9683
▁ኣይትኹኑ።	-9684
▁ኣብራ	-9685
▁ኣቐዲምና	-9686
▁ኣለኩ	-9687
▁ንዂሎም	-9688
▁ንኽልቲ	-9689
▁ንሰላም	-9690
▁ንሓጥ	-9691
▁ንጻ	-9692
▁ነነ	-9693
▁ተጻረ	-9694
▁ተጀሚሩ	-9695
▁ተቐቢሉ	-9696
▁ብማይ	-9697
▁ብ20	-9698
▁በረድ	-9699
▁ቍሩብ	-9700
▁ቀተ	-9701
▁ምጽንናዕ	-9702
▁ምስክርነት	-9703
▁መንጐ	-9704
▁መልሱ	-9705
▁ሕጂውን	-9706
▁ሓጋይ	-9707
▁ሓለውቲ	-9708
▁ሓሪ	-9709
▁ሃለ	-9710
▁(ዘፍጥረት	-9711
▁(ለ)	-9712
ጊም	-9713
ገባ	-9714
ያናት	-9715
ዛሕ	-9716
ዕልል	-9717
ክቶ	-9718
እከብ	-9719
ኣዝ	-9720
ንስኻ	-9721
ትዩ	-9722
ብለካ	-9723
ብለኒ	-9724
ብሩ።	-9725
ርድእዎ	-9726
ምፍጣር	-9727
ምላኸይ	-9728
ማይን	-9729
መት።	-9730
ሓካ	-9731
ላውነት	-9732
ላተይ	-9733
ሉጽ	-9734
ሃቡ	-9735
th	-9736
▁ፓርላማ	-9737
▁ጽዒ	-9738
▁ጸሎትና	-9739
▁ግእዝ	-9740
▁ግራ	-9741
▁ጀሚርና	-9742
▁ይባ	-9743
▁ዝፈትዎ	-9744
▁ዝእዝ	-9745
▁ዝርከብ።	-9746
▁ዘይሕጋዊ	-9747
▁ዓበይትን	-9748
▁ዅሉ፡	-9749
▁ኮንካ	-9750
▁ክትፈልጦ	-9751
▁ክጽሕፍ	-9752
▁ካብ'ቶም	-9753
▁ካርታ	-9754
▁እናኸ	-9755
▁እሞ፡+	-9756
▁እምበይ	-9757
▁ኣፈላላይ	-9758
▁ኣይድ	-9759
▁ኣስመ	-9760
▁ኣሕዋትና	-9761
▁ኣሕዋተይ	-9762
▁ኣልኣዛር	-9763
▁አዩ	-9764
▁ንገዛ	-9765
▁ንና	-9766
▁ነዚኦም	-9767
▁ትእዛዛትካ	-9768
▁ተኣኪቦም	-9769
▁ብሓጎስ	-9770
▁ብልጽ	-9771
▁ብጉ	-9772
▁ባእታ	-9773
▁በበይኑ	-9774
▁በይና	-9775
▁ቀጽል	-9776
▁ሽድሽተ	-9777
▁ሳን	-9778
▁ርኢኻ	-9779
▁ርኸ	-9780
▁ረኣዩ	-9781
▁ረሲእ	-9782
▁ምና	-9783
▁መበቆ	-9784
▁መርዓዊ	-9785
▁መለኮታዊ	-9786
▁ሓጻር	-9787
▁ሓምሳ	-9788
▁ለባማት	-9789
▁ሆይ	-9790
▁500	-9791
▁3፡1	-9792
▁"ካ	-9793
ፅ።	-9794
ጽባሕ	-9795
ጽሉ	-9796
ጳውሎ	-9797
ጥዕም	-9798
ገብሪ	-9799
ድዳእ	-9800
የት።	-9801
ዘራረቡ	-9802
ዕድግ	-9803
ዕኡ	-9804
ቱ፣	-9805
ብዩ	-9806
ባርን	-9807
ርባዕተ	-9808
ራውን	-9809
ረቡ።	-9810
ምኩም	-9811
መልከ	-9812
መውትን	-9813
ሕትኡ	-9814
ip	-9815
:17	-9816
-?	-9817
▁ፈለግ	-9818
▁ጭርሖ	-9819
▁ጋህ	-9820
▁ድኹም	-9821
▁ደቀየ፡	-9822
▁ደምበ	-9823
▁ደረ	-9824
▁ይወስድ	-9825
▁ዝጸሓፍ	-9826
▁ዝኣመን	-9827
▁ዝርዝ	-9828
▁ዝሓሰብ	-9829
▁ዘድልየና	-9830
▁ዘይብልና	-9831
▁ዓያሹ	-9832
▁ኽፍሊ	-9833
▁ኪቐትልዎ	-9834
▁ከዱ።	-9835
▁እዩ"።	-9836
▁እከዮም	-9837
▁እትገብር	-9838
▁እትደልዮ	-9839
▁እሕ	-9840
▁ኣደይን	-9841
▁ኣይኮነን!	-9842
▁ኣቲኻ	-9843
▁ኣብ'ዛ	-9844
▁ኣበየናይ	-9845
▁ኣምላኸ	-9846
▁ኣሎኻ።	-9847
▁ኣቑ	-9848
▁ኣላት	-9849
▁ኢየን።	-9850
▁ንገሊኦም	-9851
▁ንእኡን	-9852
▁ንክልተ	-9853
▁ንሸ	-9854
▁ንላዕሊ	-9855
▁ነቦኡ	-9856
▁ተገሊፁ።	-9857
▁ተገይሩ።	-9858
▁ተቓወምቲ	-9859
▁ተቓሊ	-9860
▁ተበራ	-9861
▁ብትግርኛ	-9862
▁ብተወሳኺ፡	-9863
▁በየነይቲ	-9864
▁በኸ	-9865
▁በልክ	-9866
▁ቅድስና	-9867
▁ቀጺሉ፡	-9868
▁ረኣዩ፡	-9869
▁ሞያዊ	-9870
▁መድረ	-9871
▁መካይን	-9872
▁መርገ	-9873
▁መልኣ	-9874
▁መላእኽ	-9875
▁መለሰሎም	-9876
▁ሓዲግ	-9877
▁ሎምስ	-9878
▁ልዕለይ	-9879
▁ለኣኸ፡	-9880
▁ሃፍቲ	-9881
▁ሂብካ	-9882
▁3ይ	-9883
▁00	-9884
▁(ሉቃስ	-9885
▁'ዚ	-9886
ጽዋዕ	-9887
ካ፣	-9888
ካእታ	-9889
ከፍል	-9890
እስ	-9891
ኣምንን	-9892
ቱውን	-9893
በልዖ	-9894
በሊ	-9895
ሳሰር	-9896
ሰርሐ	-9897
ምላክ	-9898
ማቕ	-9899
ሓቐ	-9900
ሑት	-9901
ሉዋት	-9902
be	-9903
TV	-9904
:18	-9905
▁ፍቕሩ	-9906
▁ጸኒሐ	-9907
▁ጭንቂ	-9908
▁ጠፍ	-9909
▁ድርብ	-9910
▁ደሊኻ፡	-9911
▁ይጸል	-9912
▁ይጥ	-9913
▁ይባር	-9914
▁የብልካን።	-9915
▁የብልካን	-9916
▁ዝደለኻዮ	-9917
▁ዝንባ	-9918
▁ዝተገልጸ	-9919
▁ዝመስለኒ	-9920
▁ዚዓቢ	-9921
▁ዘይኰነ፡	-9922
▁ዘይተርፍ	-9923
▁ውፅኢት	-9924
▁ወሰድ	-9925
▁ወለድ	-9926
▁ኺገብሩ	-9927
▁ኮምፒ	-9928
▁ክትሰምዕ	-9929
▁ክህበኩም	-9930
▁ክቐርብ	-9931
▁ክስተ	-9932
▁ከኣ፥	-9933
▁እግዚኣብሄር፡	-9934
▁እዮም'	-9935
▁እዮም!	-9936
▁ኣፍቅ	-9937
▁ኣይኰነን፣	-9938
▁ኣእዳዉ	-9939
▁ኣብ'ታ	-9940
▁ኣሸጋሪ	-9941
▁ኣጕ	-9942
▁ንጸላእ	-9943
▁ንርእስና	-9944
▁ነገሮም።	-9945
▁ትዕቢት	-9946
▁ትሕት	-9947
▁ተፈል	-9948
▁ቦታኡ	-9949
▁ብትኽ	-9950
▁ብመዓል	-9951
▁ብሕጂ	-9952
▁ብዋጋ	-9953
▁ብላዕ	-9954
▁ቤት-ትምህርቲ	-9955
▁በጻሕ	-9956
▁ሰይጣንን	-9957
▁ሰብኡትን	-9958
▁ሰማያትን	-9959
▁ምይይጥ	-9960
▁ምቹ	-9961
▁መደበር	-9962
▁መትከል	-9963
▁መሳልል	-9964
▁መዲ	-9965
▁መሥ	-9966
▁ሕሙም	-9967
▁ሓዝ	-9968
▁ልምድ	-9969
▁ለን	-9970
▁more:	-9971
▁49	-9972
ፍርህ	-9973
ጦም።	-9974
ጥቀሙሉ	-9975
ጥነት	-9976
ጡን	-9977
ጠይቕ	-9978
ግብር	-9979
ገጸ	-9980
ዳግ	-9981
ኦታት	-9982
ተሓሓዝ	-9983
ቕርቡ	-9984
ሰትዩ	-9985
ርር	-9986
ረኸብ	-9987
ምለስን	-9988
ማንም	-9989
ሓራ	-9990
ሓለ	-9991
ሌፎ	-9992
▁ፈለማ፡	-9993
▁ጸኒሕና	-9994
▁ጎኒ	-9995
▁ገበሩ	-9996
▁ድራማ	-9997
▁ደገታት	-9998
▁ደሴታት	-9999
▁ይኸዱ	-10000
▁ዩ።	-10001
▁ዝበላ	-10002
▁ዝሓመ	-10003
▁ዝሸ	-10004
▁ዜጋጥም	-10005
▁ዘጋጠሞ	-10006
▁ዘይኽእል	-10007
▁ዘብዐኛ	-10008
▁ዘደን	-10009
▁ዘቐ	-10010
▁ዕድሚኡ	-10011
▁ዕስራን	-10012
▁ውህበ	-10013
▁ወልደ	-10014
▁ክንድቲ	-10015
▁ክዓ	-10016
▁ክበልዑ	-10017
▁ክመስል	-10018
▁ከቕርብ	-10019
▁ከሕ	-10020
▁እዋን'ቲ	-10021
▁እንርእዮ	-10022
▁እናበልኩ	-10023
▁እትኸ	-10024
▁ኤለክት	-10025
▁ኣይሞተትን።	-10026
▁ኣዒንትኻ	-10027
▁ኣኽብሮት	-10028
▁ኣእዳውካ	-10029
▁ኣቕር	-10030
▁ኣምላኽ"	-10031
▁ኣፎም	-10032
▁ኢልዎ	-10033
▁ንዕኡን	-10034
▁ንባዕለይ	-10035
▁ንሕናን	-10036
▁ንጽበ	-10037
▁ነበሮም።	-10038
▁ትገልጽ።	-10039
▁ተስፋታት	-10040
▁ብዕለት	-10041
▁ብከምዚ	-10042
▁በለኒ፦	-10043
▁ቅንኢ	-10044
▁ቀቲ	-10045
▁ሶማል	-10046
▁ስለምንታይ፧	-10047
▁ሰብዓ	-10048
▁ሰበይትኻ	-10049
▁ሰሪሑ	-10050
▁ሰምዔ	-10051
▁ሰላሳ	-10052
▁ሰቡን	-10053
▁ረቢ	-10054
▁ሞባይል	-10055
▁ምቕባል	-10056
▁ምስዝ	-10057
▁ምስናይ	-10058
▁ማሕላ	-10059
▁መዓልት	-10060
▁መስለኒ	-10061
▁ሓወል	-10062
▁ህሉው	-10063
▁ሂበ	-10064
▁2000	-10065
ፃፅ	-10066
ጻእ።	-10067
ጥፍኦም	-10068
ጥፍኦ	-10069
ግሥቲ	-10070
ገርመኒ	-10071
ዝርዝር	-10072
ዕ፡	-10073
ወግዒ	-10074
ኸሉ	-10075
ኬት	-10076
ኣሽቱ	-10077
ብር፡	-10078
ባስ	-10079
በየ።	-10080
በሎ።	-10081
ርድኣኒ	-10082
ራርሓ	-10083
ምኡ	-10084
ልሳይ	-10085
ህብዎ	-10086
ህብን	-10087
▁ፍትሓዊ	-10088
▁ፍርዱ	-10089
▁ጽዩፍ	-10090
▁ጽዮ	-10091
▁ጽላ	-10092
▁ጸሎተ	-10093
▁ጸርፊ	-10094
▁ጨካን	-10095
▁ገሊፆ	-10096
▁ዮው	-10097
▁ይዀኑ።	-10098
▁ይሓትት።	-10099
▁ዝገበርካ	-10100
▁ዝገደ	-10101
▁ዝብላ	-10102
▁ዚህቦ	-10103
▁ዘመድ	-10104
▁ውዲት	-10105
▁ወለን	-10106
▁ኻባይ	-10107
▁ኮታ	-10108
▁ክትክእል	-10109
▁ክትክ	-10110
▁ክርድኦ	-10111
▁ክራ	-10112
▁ኪኽ	-10113
▁እሱር	-10114
▁እሳት	-10115
▁ኤስ	-10116
▁ኣገባ	-10117
▁ኣይኮነን?	-10118
▁ኣይክኣ	-10119
▁ኣይመስልን።	-10120
▁ኢኻ!	-10121
▁ንገረኒ።	-10122
▁ንገብር።	-10123
▁ንብሎ	-10124
▁ንምህ	-10125
▁ንመስ	-10126
▁ትዕግስቲ	-10127
▁ትኹ	-10128
▁ተዋሳእቲ	-10129
▁ተቐቲሎም	-10130
▁ተቐማ	-10131
▁ተመርዓ	-10132
▁ተሰምዓ	-10133
▁ብዓቢ	-10134
▁ብውሽ	-10135
▁ብኸንቱ	-10136
▁ብብርቱዕ	-10137
▁ብህይወ	-10138
▁ብቝ	-10139
▁ሹማ	-10140
▁ሸቶታት	-10141
▁ሳብ	-10142
▁ሰልፍታት	-10143
▁ሰጊ	-10144
▁ርድ	-10145
▁ምልእቲ	-10146
▁ማእከሎም	-10147
▁መድሕን	-10148
▁ሕጅስ	-10149
▁ሕሱም	-10150
▁ሕሰቡ።	-10151
▁ሕሰብ	-10152
▁ሃዋህ	-10153
▁'ታ	-10154
ፋ።	-10155
ፋዕ	-10156
ጣት	-10157
ድሕኖም	-10158
ዋን።	-10159
ክብብ	-10160
ኖክ	-10161
ኒክ	-10162
ታቱን	-10163
በብያ	-10164
ቐንየ	-10165
ሰኩም	-10166
ርድኡ	-10167
ርእዮ።	-10168
ርእዮን	-10169
ርሓ	-10170
ረየ	-10171
ላዎም	-10172
ሉኒ	-10173
ለጡ	-10174
ost	-10175
-19	-10176
▁ፍጡራት	-10177
▁ፈጺሞም	-10178
▁ፈትን።	-10179
▁ፃዕ	-10180
▁ጴጥሮ	-10181
▁ጠቢ	-10182
▁ጕዳያት	-10183
▁ገዝኦም	-10184
▁ገፊ	-10185
▁ጀመረት።	-10186
▁ደልዮም	-10187
▁ይጠ	-10188
▁የን	-10189
▁ዝፈልጦ።	-10190
▁ዝብላዕ	-10191
▁ዝስሕ	-10192
▁ዚግብኣ	-10193
▁ዘክ	-10194
▁ዕሽሽ	-10195
▁ዓዋተ	-10196
▁ወኪል	-10197
▁ክንክእል	-10198
▁ክህቦም	-10199
▁ኪህሉ	-10200
▁ከጋጥ	-10201
▁እፈቱ	-10202
▁ኣድላይነት	-10203
▁ኣይፈልጡ	-10204
▁ኣይገበር	-10205
▁ኣይርስ	-10206
▁ኣየንበብኩምን	-10207
▁ኣእዳዎም	-10208
▁ኣእተ	-10209
▁ኢዩ"	-10210
▁አይክ	-10211
▁ኃሙሽተ	-10212
▁ተፈሊጡ	-10213
▁ተወዲ	-10214
▁ተቐመጥ	-10215
▁ተማሂረ።	-10216
▁ተመሃራይ	-10217
▁ብግዲ	-10218
▁ብቻ	-10219
▁ቤት-ኤል	-10220
▁ቁምነገር	-10221
▁ሻዕብ	-10222
▁ስጋብ	-10223
▁ስራሕካ	-10224
▁ስራሓት	-10225
▁ስለዘ	-10226
▁ሰሚና	-10227
▁ማርቲ	-10228
▁መጽናዕ	-10229
▁መንእሰ	-10230
▁መተካእታ	-10231
▁መብዛሕተን	-10232
▁መልሓስ	-10233
▁ሓድሕድ	-10234
▁ሓካይም	-10235
▁ሓልዮት	-10236
▁ሂቦም	-10237
▁on	-10238
▁like	-10239
▁'የ	-10240
▁'ምበር	-10241
▁"ነቶም	-10242
፡"	-10243
ፈልየና	-10244
ጽሕፎ	-10245
ጸለ	-10246
ጡብ	-10247
ግዕ	-10248
ገብረሎም	-10249
ደራል	-10250
ደልኩም	-10251
ዋግኡ	-10252
ወና	-10253
ንሕና	-10254
ናልድ	-10255
ቕማ	-10256
ስልጣን	-10257
ምላእ	-10258
ሁን	-10259
▁ጢሞቴዎስ	-10260
▁ገዚፍ	-10261
▁ደጋጊመ	-10262
▁ይሃበ	-10263
▁ዝበልኩ	-10264
▁ዝፈልጡ	-10265
▁ዝከ	-10266
▁ዝል	-10267
▁ዜገድ	-10268
▁ዜመልክት	-10269
▁ዚደል	-10270
▁ውድቀት	-10271
▁ውዳሰ	-10272
▁ወጺኦም	-10273
▁ኽንነብር	-10274
▁ኻባታቶም	-10275
▁ኺፍጸም	-10276
▁ኺመጽእ	-10277
▁ክኢላ	-10278
▁ክንመ	-10279
▁ክህቡ	-10280
▁ክዛረቡ	-10281
▁ክሸ	-10282
▁ኪብሉ	-10283
▁እንደሊ	-10284
▁ኤልሳ	-10285
▁ኣይክን	-10286
▁ኣኽቢ	-10287
▁ኣልዒሉ	-10288
▁ንሳን	-10289
▁ንምስክር	-10290
▁ንምው	-10291
▁ንፖ	-10292
▁ን1	-10293
▁ነፍስኻ	-10294
▁ነገራት፡	-10295
▁ነገሩ	-10296
▁ነንሓድሕ	-10297
▁ትገብሩ	-10298
▁ተሓቢሩ።	-10299
▁ብዛዕባ'ቲ	-10300
▁ብሕልፊ	-10301
▁ቡዙሕ	-10302
▁ሻቕ	-10303
▁ሰማርያ	-10304
▁ሰለስቲ	-10305
▁ምፍጻም	-10306
▁ምእንታና	-10307
▁ምንቅጥቃ	-10308
▁ምንቅጥቃጥ	-10309
▁ምህሮ	-10310
▁ሎሚውን	-10311
▁ሆቴል	-10312
▁of	-10313
▁>>	-10314
▁5.	-10315
ፈልጢ	-10316
ጻረር	-10317
ጥሕ	-10318
ጠሩ	-10319
ግደስ	-10320
ግድን	-10321
ጊዜኡ	-10322
ዶ፡	-10323
ወገን	-10324
ክዒ	-10325
ክዋ	-10326
ካልኣይ	-10327
ኪቱ	-10328
ኩል	-10329
ከርታ	-10330
ኣኩም	-10331
አኸ	-10332
ንተር	-10333
ነግረካ	-10334
ቫይረስ	-10335
ስኩም	-10336
ርጓ	-10337
ራድ	-10338
ምለሱን።	-10339
ማማት	-10340
መሓየ	-10341
ሓድግ	-10342
ሓዚ	-10343
ልእኽ	-10344
ለንን	-10345
ለዮ	-10346
TV:	-10347
▁ጽላል	-10348
▁ጸላእቱ	-10349
▁ድሕሪ'ዚ	-10350
▁ዳግመ	-10351
▁ይኹኑ	-10352
▁ይሓልየ	-10353
▁ይፍት	-10354
▁ዝደየ	-10355
▁ዝኸደ	-10356
▁ዝነበረሉ	-10357
▁ዝነብረ	-10358
▁ዝተኣሳሰ	-10359
▁ዝሞ	-10360
▁ዜብሉ	-10361
▁ዘይፈልጡ	-10362
▁ዘበለ፡	-10363
▁ውሉድካ	-10364
▁ዋሕ	-10365
▁ዀነ።	-10366
▁ኴንኩም	-10367
▁ክፍኣት	-10368
▁ክንብሎ	-10369
▁ካባኹም	-10370
▁ካልኣይቲ	-10371
▁ከነኣን	-10372
▁እየን፣	-10373
▁እወ፣	-10374
▁እንከለኹ	-10375
▁ኣይመስለንን	-10376
▁ኣትየ	-10377
▁ኣቤሴሎም	-10378
▁ኣቢሜ	-10379
▁ኣበይን	-10380
▁ኣስተውዓል	-10381
▁ኣስቴር	-10382
▁ኣልኮላዊ	-10383
▁ኣተን	-10384
▁ኣሪ	-10385
▁ንገረና	-10386
▁ንኣብርሃም	-10387
▁ንምእ	-10388
▁ንድሕ	-10389
▁ንበረ	-10390
▁ንቆ	-10391
▁ናይዞም	-10392
▁ትምህርትታት	-10393
▁ተጠቂ	-10394
▁ተራኸ	-10395
▁ብጥንቃቐ	-10396
▁ብሽክለ	-10397
▁ብፅ	-10398
▁ቤተሰ	-10399
▁ባዕልኹም	-10400
▁በጺሓ	-10401
▁በዚሑ	-10402
▁በብሓደ	-10403
▁በቢ	-10404
▁ቕድ	-10405
▁ቈጥቋጥ	-10406
▁ቀደሙ	-10407
▁ቀኒ	-10408
▁ቀርኒ	-10409
▁ስእለ	-10410
▁ርግጸኛታት	-10411
▁ርጉ	-10412
▁መዓስከር	-10413
▁መወዳእታን	-10414
▁መላእክቲ	-10415
▁መላኺ	-10416
▁ሕሩ	-10417
▁ሓቢሮም።	-10418
▁ሓቅነት	-10419
▁ሄሮ	-10420
▁ሃይማኖታት	-10421
▁(ናይ	-10422
▁(ም	-10423
▁"ኣብቲ	-10424
▁"ኩሉ	-10425
▁"ሰላም	-10426
ፍጽሞ	-10427
ያን።	-10428
ዕሉ	-10429
ካስ	-10430
ከሲ	-10431
ናይት	-10432
ቶ፣	-10433
ታት።	-10434
በስረኩም	-10435
ቐሉ	-10436
ስርዓት	-10437
ራኡ	-10438
ሩኒ።	-10439
ሕዋቱ	-10440
ሕዛ	-10441
ልዎ።	-10442
ሉይ	-10443
ለንት	-10444
ሃይማኖ	-10445
▁ፋስጋ	-10446
▁ጸሊም	-10447
▁ዮኣብ	-10448
▁ይዅን	-10449
▁ይኽእል'ዩ	-10450
▁ይኣምኑ	-10451
▁ይበዝሕ	-10452
▁ይሰርሕ	-10453
▁የሩሳሌ	-10454
▁ዝወስድ	-10455
▁ዝርኢ	-10456
▁ዚመ	-10457
▁ዘልኣለማዊ	-10458
▁ዘሐ	-10459
▁ዕረፍ	-10460
▁ወርቅን	-10461
▁ክልቴና	-10462
▁ክገብራ	-10463
▁ክቐ	-10464
▁ክምለ	-10465
▁ኬፍ	-10466
▁ከለና፡	-10467
▁እናመሰ	-10468
▁እምበር፣	-10469
▁ኣድሓ	-10470
▁ኣይኰነን"	-10471
▁ኣቦታትኩም	-10472
▁ኣምላኽ!	-10473
▁ኣሎዉ።	-10474
▁ኢልዎም	-10475
▁ንፉዓት	-10476
▁ንዓሰርተ	-10477
▁ንሰበይቱ	-10478
▁ንረክብ	-10479
▁ትጽቢ	-10480
▁ተጠንቂ	-10481
▁ተኾ	-10482
▁ቦታ፡	-10483
▁ብምጥ	-10484
▁ብምግባ	-10485
▁ብሓጐስ	-10486
▁ብልቡ	-10487
▁ብቁ	-10488
▁በዓላት	-10489
▁በልዎም።	-10490
▁ቃል፡	-10491
▁ቀለ	-10492
▁ስዑ	-10493
▁ሰዓብቲ	-10494
▁ምድር	-10495
▁ምሕላፍ	-10496
▁መጻምድትኻ	-10497
▁መዕቈ	-10498
▁መዓስን	-10499
▁መሊስካ	-10500
▁ሕዝቡ	-10501
▁ሓቲቱ	-10502
▁ሓርበ	-10503
▁ሓግዘ	-10504
▁100%	-10505
▁'እዚ	-10506
▁"ጐይታይ፡	-10507
▁"ጸ	-10508
ጽዋት	-10509
ጦን	-10510
ጥፍኡ	-10511
ደ፣	-10512
ዐይቲ	-10513
ክእልን	-10514
ናዕቲ	-10515
ናሉ	-10516
ነኩም	-10517
በቅዕ	-10518
ቕፋ	-10519
ቅቲ	-10520
ቀን	-10521
ስዕር	-10522
ሰድ፡	-10523
ረዮ	-10524
ሕዎ	-10525
ሓድሽ	-10526
ልስ	-10527
ለዎ	-10528
ለኛ	-10529
tic	-10530
ow	-10531
▁ፒኖ	-10532
▁ፅባሕ	-10533
▁ጽድቅን	-10534
▁ጽሕፍቲ	-10535
▁ጸጉ	-10536
▁ጠባይ	-10537
▁ግንከ	-10538
▁ግርማ	-10539
▁ጌታ	-10540
▁ጉል	-10541
▁ገበረ፡	-10542
▁ገሊጾም።	-10543
▁ገጢ	-10544
▁ደርጊ	-10545
▁ይፈልጥ።	-10546
▁ይገብር	-10547
▁ይርኢ	-10548
▁የድልየኒ	-10549
▁ዝጸንሑ	-10550
▁ዝነበሩ፡	-10551
▁ዝተባህ	-10552
▁ዝመፅእ	-10553
▁ዝቘ	-10554
▁ዝሰምዖ	-10555
▁ዚብላዕ	-10556
▁ዚመጹ	-10557
▁ዚመስ	-10558
▁ዘድልየካ	-10559
▁ዘይፍ	-10560
▁ዘይደሊ	-10561
▁ዘቕረብ	-10562
▁ዕድመይ	-10563
▁ዕጡ	-10564
▁ዕም	-10565
▁ኵነ	-10566
▁ኰኑ።	-10567
▁ክንጽሊ	-10568
▁ክትርእዩ	-10569
▁ክብሩ	-10570
▁ክህነት	-10571
▁ክጎ	-10572
▁ከምዘለና	-10573
▁ከፍር	-10574
▁እንሰ	-10575
▁እትመጽእ	-10576
▁እገብር።	-10577
▁ኤፍሬም	-10578
▁ኣፍሊጡ።	-10579
▁ኣድልዎ	-10580
▁ኣዴኻን	-10581
▁ኣይፈልጦን	-10582
▁ኣርሒ	-10583
▁ንውሰድ።	-10584
▁ንሕዝ	-10585
▁ንቅ	-10586
▁ኔራ	-10587
▁ነይሩ፧	-10588
▁ትሓ	-10589
▁ተዋህቦም።	-10590
▁ተዋጋ	-10591
▁ተዋህ	-10592
▁ተወሰኽቲ	-10593
▁ተኣሚ	-10594
▁ተሳቲ	-10595
▁ብጐይታና	-10596
▁ብርግ	-10597
▁ብምኽ	-10598
▁በጻ	-10599
▁ቁፅሪ	-10600
▁ቀረባ	-10601
▁ሰብአይ	-10602
▁ሰምዑ	-10603
▁ሰሜናዊ	-10604
▁ምጽኣት	-10605
▁መስርዕ	-10606
▁መርገጺ	-10607
▁መሠረት	-10608
▁መምሃ	-10609
▁ሓሳበይ	-10610
▁ልዕሌና	-10611
▁(ካብ	-10612
▁(4)	-10613
፡00	-10614
ጣይ	-10615
ጉዓዝ	-10616
ገሮም	-10617
ይሉ	-10618
ዙ።	-10619
ዖምን	-10620
ውዕል።	-10621
ውዓሊ	-10622
ዋጥ	-10623
ኡይ	-10624
ኒካዊ	-10625
ተላዕ	-10626
ምፍታሕ	-10627
ሜትን	-10628
ሕማም	-10629
aid	-10630
'ስ	-10631
▁ፍሽኽታ	-10632
▁ፈረንጂ	-10633
▁ፀገማት	-10634
▁ጥቕል	-10635
▁ጥቕልልቲ	-10636
▁ጠበቓ	-10637
▁ጠሚ	-10638
▁ድንቂ	-10639
▁ዳኛ	-10640
▁ደጊምና	-10641
▁ይፍቀ	-10642
▁ይግበ	-10643
▁ይኺ	-10644
▁ይነብ	-10645
▁ዝረኸበ	-10646
▁ዝጐ	-10647
▁ዝርእዮ	-10648
▁ዚበልጽ	-10649
▁ዘይክእሉ	-10650
▁ዘምሩ	-10651
▁ዓደ	-10652
▁ዅላቶም	-10653
▁ኺው	-10654
▁ኸቢድ	-10655
▁ክፍጽም	-10656
▁ክትጥቀም	-10657
▁ክትርድኦ	-10658
▁ክቕየር	-10659
▁ክፈልጦ	-10660
▁ክጽበ	-10661
▁እግዚአብሄር	-10662
▁እንታይ'ዩ?	-10663
▁እንተስ	-10664
▁እንተልዩ	-10665
▁ኤረይ	-10666
▁ኣፍካ	-10667
▁ኣፍን	-10668
▁ኣይንፈልጥን።	-10669
▁ኣይነበሩን።	-10670
▁ኣይትበል	-10671
▁ኣይትቕ	-10672
▁ኣይተረፈ	-10673
▁ኣምላኾም	-10674
▁አሎኹ	-10675
▁አባ	-10676
▁ንውሓት	-10677
▁ንሱ'ዩ	-10678
▁ንፕ	-10679
▁ንላ	-10680
▁ነፍሰ	-10681
▁ተጠራ	-10682
▁ብቐንዱ	-10683
▁ብምት	-10684
▁ብምብ	-10685
▁ብሸ	-10686
▁ባሮ	-10687
▁ሽግራት	-10688
▁ስዕ	-10689
▁ሰሌ	-10690
▁ምጽላይ	-10691
▁ምዃኑን	-10692
▁ምኽኒ	-10693
▁ምስታይ	-10694
▁ምጭ	-10695
▁ማርቆስ	-10696
▁መፅናዕቲ	-10697
▁መጨረሽታ	-10698
▁መግለፂ	-10699
▁መዘናግ	-10700
▁መኣስ	-10701
▁መንግሥተ	-10702
▁መንሽ	-10703
▁ሕይወተይ	-10704
▁ሕቶ፡	-10705
▁ሕቡእ	-10706
▁ሓፍተይ	-10707
▁ሓውካ	-10708
▁ሓዚ	-10709
▁ሃቦ	-10710
▁the	-10711
▁6ብ	-10712
ጽሩ	-10713
ጻረ	-10714
ጀራ	-10715
ድኅን	-10716
ዴራ	-10717
ይድ	-10718
ዕናን	-10719
ዋል	-10720
ወየ	-10721
ኮን	-10722
ክዮ	-10723
ኪዳን	-10724
ኣምኑን	-10725
ነ፡	-10726
ቫል	-10727
በርህ	-10728
ቕርብ።	-10729
ቀብ	-10730
ስተንትን	-10731
ርትራ	-10732
ምቕራብ	-10733
ምሃ	-10734
ማሕ	-10735
ልኩም።	-10736
ለይ"	-10737
em	-10738
ac	-10739
:19	-10740
,5	-10741
▁ፍቁ	-10742
▁ፈራዲ	-10743
▁ጸላእተይ	-10744
▁ጸጕ	-10745
▁ጭቡጥ	-10746
▁ጒዕዞ	-10747
▁ገዲፍካ	-10748
▁ድኻም	-10749
▁ደርሆ	-10750
▁ይደ	-10751
▁ያእቆብ፡	-10752
▁ዩኒቨርስቲ	-10753
▁የማነ	-10754
▁ዝወጽእ	-10755
▁ዝቐርብ	-10756
▁ዝሃቦም	-10757
▁ዕንቅፋት	-10758
▁ዕቝ	-10759
▁ወይንን	-10760
▁ኻባኻ	-10761
▁ኸውሒ	-10762
▁ኮቪድ	-10763
▁ክኸፍ	-10764
▁ክንርድኦ	-10765
▁ክትብሉ	-10766
▁ኬድካ	-10767
▁ከይዱ።	-10768
▁ከለኻ፡	-10769
▁ከንብብ	-10770
▁ከበ	-10771
▁ከረ	-10772
▁እያ'	-10773
▁እንዳበለ	-10774
▁እናወሰ	-10775
▁ኣፍቂ	-10776
▁ኣገልጋሊኹም	-10777
▁ኣይኮነን"	-10778
▁ኣይኣመን	-10779
▁ኣይነበርኩን።	-10780
▁ኣይትኽእልን።	-10781
▁ኣለዎ፣	-10782
▁ኣኸ	-10783
▁ኣሓ	-10784
▁ንጽባሕ	-10785
▁ንነፍሰይ	-10786
▁ንቕሑ።	-10787
▁ንስኻኸ	-10788
▁ንምዝራብ	-10789
▁ንማንም	-10790
▁ተዓዘ	-10791
▁ብየሱስ	-10792
▁ባህልና	-10793
▁በይኖም	-10794
▁ቅዲ	-10795
▁ቅሳ	-10796
▁ስድራ-	-10797
▁ስምዒታት	-10798
▁ሩት	-10799
▁ምትሕብባር	-10800
▁መሳርሕ	-10801
▁መለክዒ	-10802
▁ሕተት	-10803
▁ሎሚ'ውን	-10804
▁ሊቃውንቲ	-10805
▁"ኣሜን	-10806
▁"ኣሜን!	-10807
▁"ዎ	-10808
▁"ካልኦት	-10809
▁"ት	-10810
ፍጠር	-10811
ጽሕፈት	-10812
ጽሮም	-10813
ጠኑ	-10814
ጎም።	-10815
ድኩ	-10816
ዳደ	-10817
ደባ	-10818
ዝጊ	-10819
ዝኾነ	-10820
ዑይ	-10821
ወድቕ	-10822
ኻኸሪ	-10823
ከቡ	-10824
እሰር	-10825
ነገር	-10826
ተካ	-10827
ተራ	-10828
በታት	-10829
ቅል	-10830
ሻብ	-10831
ርእን	-10832
ሕግዞ	-10833
ለዓል	-10834
:15	-10835
▁ፈሊጥና	-10836
▁ፈይ	-10837
▁ጽሑፈይ	-10838
▁ጽቡ	-10839
▁ጸሎተይ	-10840
▁ጸዓ	-10841
▁ጠውቑ።	-10842
▁ገለጸ	-10843
▁ገፅ	-10844
▁ዶናልድ	-10845
▁ድሉዋት	-10846
▁ደሓ	-10847
▁ይብሎም።	-10848
▁ይሳ	-10849
▁ይምለስ	-10850
▁የቐንየ	-10851
▁ዞባታት	-10852
▁ዝባሃል	-10853
▁ዝጀመር	-10854
▁ዘለዋ።	-10855
▁ዉሽ	-10856
▁ኽነ	-10857
▁ክሳራ	-10858
▁ክፈልጡ	-10859
▁ክጠፍእ	-10860
▁ኪት	-10861
▁ከባብ	-10862
▁እዚኦም፡	-10863
▁እተዋህበ	-10864
▁እተዛረብ	-10865
▁እሞ፥	-10866
▁እማመ	-10867
▁እመት	-10868
▁ኣይገብርን	-10869
▁ኣይምለሱን።	-10870
▁ኣብዙይ	-10871
▁ኣቢልኩም	-10872
▁ኣቐዲሞም	-10873
▁ኣምጽኣ	-10874
▁ኣመራርሓ	-10875
▁ኣለዎ"	-10876
▁ኣለኹ!	-10877
▁ኣጠን	-10878
▁ኣሊ	-10879
▁አየ	-10880
▁ንስምካ	-10881
▁ንስለ	-10882
▁ንሳቶም፡	-10883
▁ንሓያሎ	-10884
▁ንህይወተይ	-10885
▁ንሃገር	-10886
▁ንኖ	-10887
▁ን2	-10888
▁ነይርና	-10889
▁ትፈልጥዶ፧	-10890
▁ትፈልጥ?	-10891
▁ተዓዚ	-10892
▁ተደር	-10893
▁ብምንባ	-10894
▁ብልቢ	-10895
▁ብ199	-10896
▁በልዎ	-10897
▁በጥ	-10898
▁ቕን	-10899
▁ቋሕ	-10900
▁ቅኑዓት	-10901
▁ስኽ	-10902
▁ስታ	-10903
▁ሰበይቱን	-10904
▁ሰመ	-10905
▁ርኣዩ።	-10906
▁ራዕ	-10907
▁ምጽዋት	-10908
▁ምርጫታት	-10909
▁ምልኪ	-10910
▁ምህላ	-10911
▁ምሒ	-10912
▁ማርያምን	-10913
▁መዛግብ	-10914
▁መንእሰያትን	-10915
▁ሓደን	-10916
▁ሓወልቲ	-10917
▁ህጻናትን	-10918
▁ሄዋንን	-10919
▁ሃገር፡	-10920
▁ሃል	-10921
▁ATV:	-10922
▁75	-10923
▁65	-10924
ፈሊ	-10925
ጎ።	-10926
ግዱ	-10927
ዩን።	-10928
ዓወት	-10929
ኳናት	-10930
ኩዎ።	-10931
እዚ	-10932
ንክ	-10933
ብርህ	-10934
በና።	-10935
ቓቕ	-10936
ቅድሜ	-10937
ሽፍ	-10938
ርዎም	-10939
ረብሕ	-10940
ምልሰ	-10941
መይል	-10942
ሖ።	-10943
ሓዙ	-10944
ሒሩ	-10945
ለቲ	-10946
'ዚ፡	-10947
▁ፍቓደኛታት	-10948
▁ፍለጥ	-10949
▁ጸወታታት	-10950
▁ግብራዊ	-10951
▁ግበሮ።	-10952
▁ጉጅለታት	-10953
▁ገዲፉ	-10954
▁ገሊጾም	-10955
▁ደቆ	-10956
▁ደማስ	-10957
▁ይፍጸም	-10958
▁ይስማዕ	-10959
▁የማነይቲ	-10960
▁ዝጠቐ	-10961
▁ዝግበኦ	-10962
▁ዝስመዓ	-10963
▁ዝርከባ	-10964
▁ዝሰርሖ	-10965
▁ዝሕግዝ	-10966
▁ዜድልዮ	-10967
▁ዚጸል	-10968
▁ዘይኮይኑ	-10969
▁ዕንወት	-10970
▁ዓሞ	-10971
▁ክሳተፉ	-10972
▁ክለብ	-10973
▁ኬብ	-10974
▁ኪነግሱ	-10975
▁ኪጠፍኡ	-10976
▁ከምዝኸውን	-10977
▁ከላ፡	-10978
▁እግዝኣብሄር	-10979
▁እቲአ	-10980
▁ኣፍጋኒ	-10981
▁ኣዲኡን	-10982
▁ኣይተወ	-10983
▁ኣይተራእ	-10984
▁ኣይርከብ	-10985
▁ኣእጋሩ	-10986
▁ኣለኻ?	-10987
▁ኢዩ!	-10988
▁ንደቆም	-10989
▁ንመንፈ	-10990
▁ንዜ	-10991
▁ናቕፋ	-10992
▁ነይርካ	-10993
▁ትንፋስ	-10994
▁ትኪ	-10995
▁ተገረሙ።	-10996
▁ተደሪ	-10997
▁ተለዊ	-10998
▁ብኣታቶም	-10999
▁ብቀጥታ	-11000
▁ብራዚ	-11001
▁ብዅ	-11002
▁ብሱ	-11003
▁በዓቲ	-11004
▁ሰብነቱ	-11005
▁ሰማእታት	-11006
▁ርብዒ	-11007
▁ራኢ	-11008
▁ምድረበ	-11009
▁ማእከልኩም	-11010
▁ሚኢታዊ	-11011
▁መዓልቲ)	-11012
▁ሓጢኣተይ	-11013
▁ሓውኻ	-11014
▁ሓላቑ	-11015
▁ሃዋህው	-11016
ጭታት	-11017
ጥንቀ	-11018
ዳሉ	-11019
ደርዝ	-11020
ዘርግ	-11021
ዋታይ	-11022
ክእል።	-11023
ክታ	-11024
ኦ፡	-11025
ኣባ	-11026
ናይትድ	-11027
ኒ፧	-11028
ታንን	-11029
ታሊ	-11030
ብርትዕ	-11031
ብራሂ	-11032
ባባይ	-11033
በጥ	-11034
ቅያ	-11035
ርስተይ	-11036
ረፊ	-11037
መለ	-11038
ለሁ	-11039
ሃደር	-11040
EA	-11041
-4	-11042
▁ፍርያ	-11043
▁ፈተናታት	-11044
▁ጸጋን	-11045
▁ጸኒሓ	-11046
▁ግልጋ	-11047
▁ገላ	-11048
▁ድሕንነት	-11049
▁ድጋፍ	-11050
▁ደድሕሪኡ	-11051
▁ደርፍታት	-11052
▁ደሌ	-11053
▁ይክኣል	-11054
▁ይከታተ	-11055
▁ይሕግዝ	-11056
▁ዝኣመነ	-11057
▁ዝተዳለወ	-11058
▁ዝተወስደ	-11059
▁ዝተለ	-11060
▁ዝጅምር።	-11061
▁ዚሰምዕ	-11062
▁ዘዳግም	-11063
▁ዘይምዃ	-11064
▁ዘለኣለማዊ	-11065
▁ዘዘ	-11066
▁ዘሌ	-11067
▁ዕድሚኦም	-11068
▁ዕለቱ	-11069
▁ዀይና	-11070
▁ክፍት	-11071
▁ክንድኡ	-11072
▁ክርስቶስ፡	-11073
▁ኪዳነይ	-11074
▁ኪዀኑ፡	-11075
▁እንከሎና	-11076
▁እትቕ	-11077
▁እተጸ	-11078
▁እመጽእ	-11079
▁ኣይትግበር	-11080
▁ኣይብልን።	-11081
▁ኣይትን	-11082
▁ኣይብ	-11083
▁ኣንስትዮን	-11084
▁ኣኅዋ	-11085
▁ኣቦይን	-11086
▁ኣቦሓጎ	-11087
▁ኣሻዅ	-11088
▁ኣምጺኡ	-11089
▁ኣምላኽናስ	-11090
▁ኣለዎ?	-11091
▁ኣክ	-11092
▁ኢትዮጵያውያን	-11093
▁አብኡ	-11094
▁አበስረኩም	-11095
▁ንዚፈሪ	-11096
▁ንቃል	-11097
▁ንረኽቦ።	-11098
▁ንሙ	-11099
▁ነይሩ!	-11100
▁ነቦይ	-11101
▁ትኽእል፧	-11102
▁ትስ	-11103
▁ተዓዲ	-11104
▁ተሓቲ	-11105
▁ብኽብረትኩም	-11106
▁ብመጀመርታ	-11107
▁ብመስ	-11108
▁ቁር	-11109
▁ሸዉ	-11110
▁ሸዉዓተ	-11111
▁ስጳኛ	-11112
▁ስድራቤታት	-11113
▁ሰሚዕካ	-11114
▁ሰው	-11115
▁ምጥፋእ	-11116
▁ምህርቲ	-11117
▁ምሁር	-11118
▁መንገ	-11119
▁መስለኒ።	-11120
▁መፋር	-11121
▁ሕድገት	-11122
▁ሓጊዙኒ	-11123
▁ሓይሎም	-11124
▁ሓሲበ	-11125
▁ሓላው	-11126
▁ልባ	-11127
▁ህልው	-11128
▁'ቶም	-11129
▁'ታይ	-11130
▁"ከምዚ	-11131
ፍ።	-11132
ፈርሆ	-11133
ጻናት	-11134
ጺኡ	-11135
ጸልና።	-11136
ጨይቲ	-11137
ጠባ	-11138
ገራዊ	-11139
ጀርያ	-11140
ዴል	-11141
ደለየ	-11142
ያዊት	-11143
ዝክሮ	-11144
ዉታት	-11145
ኽሉ	-11146
እዙይ	-11147
ኣታት	-11148
ናታት	-11149
ቦይ	-11150
ቤጥ	-11151
ቖት	-11152
ቅድሚት	-11153
ቃሕ	-11154
ሰምዓካ	-11155
ሰላ	-11156
ርያስ	-11157
ርሖም	-11158
ሩና።	-11159
ምድሓን	-11160
ምርዳእ	-11161
ሕሊ	-11162
ልዓድ	-11163
ልሲ	-11164
ለና።	-11165
ህዝበይ	-11166
et	-11167
'ዮ	-11168
▁ፍትሕ	-11169
▁ጓሂ	-11170
▁ጀመረ	-11171
▁ድኅሪ	-11172
▁ድቃ	-11173
▁ዳዊት፡	-11174
▁ይኸብ	-11175
▁ይመስል?	-11176
▁ዜድልየና	-11177
▁ዚርአ	-11178
▁ዘይብለይ	-11179
▁ዘክሮ።	-11180
▁ዌብ	-11181
▁ወቕ	-11182
▁ክትረኽቦ	-11183
▁ክመጹ	-11184
▁ክኾን	-11185
▁ከሎኹ	-11186
▁እንተዘይተ	-11187
▁እተገልጸ	-11188
▁እስመ	-11189
▁ኣይኰኑን	-11190
▁ኣይክእልን'ዩ።	-11191
▁ኣይተር	-11192
▁ኣዚዮም	-11193
▁ኣዘዞም	-11194
▁ኣቢሉ፡	-11195
▁ኣሎና፡	-11196
▁ንግዜ	-11197
▁ንዓኻን	-11198
▁ንእሽቶይ	-11199
▁ንኣቦይ	-11200
▁ነሮም።	-11201
▁ተጠቃሚ	-11202
▁ተመዲ	-11203
▁ተግሳ	-11204
▁ብግልጺ	-11205
▁ብእንግሊዝኛ	-11206
▁ብእግዚአብሔር	-11207
▁ብምግ	-11208
▁ብምዕ	-11209
▁ብምው	-11210
▁ብምእ	-11211
▁ብሕልሚ	-11212
▁ቤት፡	-11213
▁ባረ	-11214
▁ቢልዮን	-11215
▁ቛንቋታት	-11216
▁ቐሊል	-11217
▁ቅድሜና	-11218
▁ስክፍታ	-11219
▁ሰገ	-11220
▁ሰቡ	-11221
▁ርእይቶታት	-11222
▁ምድረበዳ	-11223
▁ምውሳ	-11224
▁ምቹእ	-11225
▁ምምሕያሽ	-11226
▁ምዓልቲ	-11227
▁መገድኻ	-11228
▁መወከሲ	-11229
▁መንከ	-11230
▁መሓመድ	-11231
▁ሕስብ	-11232
▁ሓይለይ	-11233
▁ሓሸ	-11234
▁6ብኣይ	-11235
▁"እዞም	-11236
▁"ድሕሪ	-11237
ዝክር	-11238
ዘዞ	-11239
ዓኒ።	-11240
ዋኑ	-11241
ወት።	-11242
ካዮ፡	-11243
ካየድ።	-11244
እኩም	-11245
እሽ	-11246
ቅና	-11247
ስምዓካ	-11248
ሱ"	-11249
ሰምዐ	-11250
ርኩ	-11251
ራፍ	-11252
ሪ።	-11253
መላእ	-11254
ላ)	-11255
ation	-11256
]>	-11257
▁ፈጻሚ	-11258
▁ጥርዓን	-11259
▁ጠንቁ	-11260
▁ገበነኛ	-11261
▁ገጠር	-11262
▁ደማስቆ	-11263
▁ደሊኹም	-11264
▁ይብሎ።	-11265
▁ይሙ	-11266
▁ይህበ	-11267
▁የድልዮም	-11268
▁የንብ	-11269
▁ዝወረ	-11270
▁ዝተዋህቦም	-11271
▁ዝሓደ	-11272
▁ዚወጽእ	-11273
▁ዚኸይድ	-11274
▁ዚምህር	-11275
▁ዘይምእ	-11276
▁ዘይረኣ	-11277
▁ዘሎኹ።	-11278
▁ዘለዎ፡	-11279
▁ዕግበት	-11280
▁ውሒ	-11281
▁ወሰኽ	-11282
▁ኽትፈልጡ	-11283
▁ኺሕ	-11284
▁ክትውሰድ፡	-11285
▁ክትሰ	-11286
▁ክትሓትት	-11287
▁ከምዘይኮነ	-11288
▁እንተሎ፡	-11289
▁እንተዀ	-11290
▁እንሃ	-11291
▁ኣገልግሎታት	-11292
▁ኣጆኹም	-11293
▁ኣዲኣ	-11294
▁ኣይተረኽበ	-11295
▁ኣይደልዩ	-11296
▁ኣእምሮይ	-11297
▁ኣብዘ	-11298
▁ኣቢላ	-11299
▁ኣስራ	-11300
▁ኣርኣ	-11301
▁ኣምባሳደር	-11302
▁ኣማኑኤል	-11303
▁ኣልዩ	-11304
▁ኣለኹ፦	-11305
▁ኣጻ	-11306
▁ኢህወደግ	-11307
▁አላህ	-11308
▁ንውግእ	-11309
▁ንስኻትኩምውን	-11310
▁ንስኻውን	-11311
▁ነፍሲ-ወከፍ	-11312
▁ነገርዎ።	-11313
▁ነበሩ፣	-11314
▁ትዛረብ።	-11315
▁ቦርድ	-11316
▁ብኢንተር	-11317
▁ብሽክለታ	-11318
▁ብስሙ	-11319
▁ብመዓልትታት	-11320
▁ብየማ	-11321
▁ብቃ	-11322
▁ብልዑ	-11323
▁ቛንቛ	-11324
▁ቘልዑ	-11325
▁ቅጥዒ	-11326
▁ቀሺ	-11327
▁ስውኣት	-11328
▁ስልኪ	-11329
▁ስለዘየ	-11330
▁ስቓ	-11331
▁ሰነዳት	-11332
▁ሰሚዕኩም	-11333
▁ረስኒ	-11334
▁ምትን	-11335
▁መፋርቕ	-11336
▁መጽሓፍ፡	-11337
▁መጓዓዝያ	-11338
▁መዓርን	-11339
▁መንፈሳ	-11340
▁መንቀ	-11341
▁መርኣያ	-11342
▁መልሲ፥	-11343
▁መጎ	-11344
▁ሃብተ	-11345
▁ሃሰስ	-11346
▁ሂብ	-11347
▁400	-11348
▁(1-	-11349
ፋፊ	-11350
ፉት	-11351
ጣል	-11352
ጡ፡	-11353
ጐል	-11354
ግናኸ	-11355
ዝዩ	-11356
ዛረባ	-11357
ዓጽ	-11358
ዓኒ	-11359
ትን፡	-11360
ተዉ	-11361
ብእ	-11362
ቐ።	-11363
ቁል	-11364
ሰርሓሉ	-11365
ሰኑ	-11366
ራሲ	-11367
ምምሕ	-11368
ሜሪካ	-11369
ሕዶ	-11370
ሎቲካ	-11371
ላትካ	-11372
ላኽ	-11373
ለይን።	-11374
ህራ	-11375
ሄም	-11376
▁ፍቕረይ	-11377
▁ጸዊዐ	-11378
▁ጸባን	-11379
▁ጸላም	-11380
▁ግና፣	-11381
▁ጉባኤታት	-11382
▁ገሊፆም።	-11383
▁ዳህ	-11384
▁ደቂሰባት	-11385
▁ደስታ	-11386
▁ደግ	-11387
▁ደመና	-11388
▁ይጎ	-11389
▁የገልግ	-11390
▁ዝጸል	-11391
▁ዝኸዶ	-11392
▁ዝነበሩ።	-11393
▁ዝመረጽ	-11394
▁ዝውስ	-11395
▁ዝስተ	-11396
▁ዜድልዮም	-11397
▁ዚዀነ	-11398
▁ዚቐርብ	-11399
▁ዘይሓ	-11400
▁ዘት	-11401
▁ዕድሜኻ	-11402
▁ዓርኩ	-11403
▁ዓሌታት	-11404
▁ዓላማ	-11405
▁ውራይና	-11406
▁ኽገብሮ	-11407
▁ኲለን	-11408
▁ክትወሀብ	-11409
▁ክትመሃር	-11410
▁ክጥቀም	-11411
▁ኪዱ፡	-11412
▁ኪደርዝ	-11413
▁ኪዀ	-11414
▁እግዚብሔር	-11415
▁እየን፡	-11416
▁እንከለዉ	-11417
▁እንተኮ	-11418
▁እንጀራ	-11419
▁እትገብርዎ	-11420
▁ኣይንደልን	-11421
▁ኣይሰምዑ	-11422
▁ኣዘውቲ	-11423
▁ኣውጽእ	-11424
▁ኣቐሚ	-11425
▁ኣቀዲ	-11426
▁ኣምጽ	-11427
▁ኣመኑ።	-11428
▁ኣልኮል	-11429
▁ኢለ።	-11430
▁አይኮነን	-11431
▁አለዎ።	-11432
▁ንዝተወሰነ	-11433
▁ንነፍስ	-11434
▁ንስካ	-11435
▁ንሓድ	-11436
▁ንህዝበይ	-11437
▁ንጡ	-11438
▁ነገስ	-11439
▁ተፈቲ	-11440
▁ተዘራሪ	-11441
▁ተመስሪ	-11442
▁ተመርዕ	-11443
▁ብዛዕባኹም	-11444
▁ብትኽክል	-11445
▁ብማዕ	-11446
▁ቃለ-መ	-11447
▁ስኒ	-11448
▁ራሄ	-11449
▁ሞተ፡	-11450
▁ምዕባይ	-11451
▁ምስክ	-11452
▁ምሕላው	-11453
▁ምለ	-11454
▁ማሕበራ	-11455
▁ሚዛ	-11456
▁መጺእካ	-11457
▁መሰና	-11458
▁መርሓ	-11459
▁መልአ	-11460
▁መጹ	-11461
▁ሕድሕ	-11462
▁ሓጥእ	-11463
▁ሓሳቡ	-11464
▁3)	-11465
▁2006	-11466
▁1፡	-11467
▁"እዚኣቶም	-11468
▁"እዚኣ	-11469
▁"ንምንታይ	-11470
ፈትዉ	-11471
ጠፍእን	-11472
ጋንዳ	-11473
ገርመ	-11474
ገበሩ	-11475
ጅምሩ	-11476
ዳኣ	-11477
ደን።	-11478
ያታት	-11479
ዝካ	-11480
ውዩ	-11481
ወጥ	-11482
ወሉ	-11483
ካን፡	-11484
ኦልን	-11485
ትለ	-11486
ቤቱ	-11487
ሱም	-11488
ርማ	-11489
ረላ	-11490
መልሰ	-11491
ሊፎም	-11492
ሉ?	-11493
ህኤ	-11494
ss	-11495
'ዩ!	-11496
'ባ	-11497
▁ፈረሰ	-11498
▁ጠመተ	-11499
▁ጠመት	-11500
▁ድያ?	-11501
▁ድኳን	-11502
▁ደቀባት	-11503
▁ይፈልጥ?	-11504
▁ይግበኣና።	-11505
▁ይሃል	-11506
▁የብላን	-11507
▁የለን"	-11508
▁ዝቑጸሩ	-11509
▁ዝጥ	-11510
▁ዝምለስ	-11511
▁ዘለዉ፡	-11512
▁ዓጋ	-11513
▁ወጸ፡	-11514
▁ወላዲት	-11515
▁ዅሉን	-11516
▁ዅላ	-11517
▁ኻብዚ	-11518
▁ኸምዙይ	-11519
▁ኮምፕዩተር	-11520
▁ኮኾ	-11521
▁ክፈጥር	-11522
▁ክንደ	-11523
▁ክትወስድ	-11524
▁ክትሰምዑ	-11525
▁ክኣትዉ	-11526
▁ክሰምዑ	-11527
▁ክሕግዝ	-11528
▁ከም-	-11529
▁እዚውን	-11530
▁እዚኤን	-11531
▁እተኸ	-11532
▁እተሰ	-11533
▁እምበር፥	-11534
▁እማን	-11535
▁እሓስብ	-11536
▁ኣይኰነን፡	-11537
▁ኣይኪኸውንን	-11538
▁ኣይትፍርህ	-11539
▁ኣይበለ	-11540
▁ኣቤል	-11541
▁ኣሕዋተይን	-11542
▁ኣሎዉ	-11543
▁ኣሽ	-11544
▁ኢዩ፣	-11545
▁ኢኺ፡	-11546
▁ኢብራሂ	-11547
▁ንፈጣሪ	-11548
▁ንዝዀነ	-11549
▁ንኣስታት	-11550
▁ንጋ	-11551
▁ንኃ	-11552
▁ትኣምን	-11553
▁ትሰምዕ	-11554
▁ትረክብ	-11555
▁ተገንዚ	-11556
▁ተሓታት	-11557
▁ተሓቢሩ	-11558
▁ተዛረቡ	-11559
▁ተተሓ	-11560
▁ብትዕግስቲ	-11561
▁ብመንፈሳዊ	-11562
▁በጃኻ፡	-11563
▁ቅድሚት	-11564
▁ቀጥታዊ	-11565
▁ሻዕብያ	-11566
▁ሶፍት	-11567
▁ስጋን	-11568
▁ሰዓትን	-11569
▁ርጉም	-11570
▁ምዝርራብ	-11571
▁ምክትታል	-11572
▁ምሸ	-11573
▁ምሓሸ	-11574
▁ማኅ	-11575
▁መንፈሱ	-11576
▁መሓዙት	-11577
▁መይ	-11578
▁መታ	-11579
▁መሕትት	-11580
▁ሓታቲ	-11581
▁ልዕሌኻ	-11582
▁ልማድ	-11583
▁You	-11584
▁52	-11585
▁2007	-11586
▁2005	-11587
▁'ኣምላኽ	-11588
▁"ሽዑ	-11589
ፍልጥ	-11590
ጺር	-11591
ጳውሎስ	-11592
ጠን።	-11593
ግርግር	-11594
ጉ።	-11595
ገበሮ	-11596
ዳሎ	-11597
ደሎም	-11598
ዝደንት	-11599
ውዕሉ	-11600
ውንን	-11601
ወቱ	-11602
ካይዱ	-11603
ካያ	-11604
ኩላ	-11605
ኣትዋ	-11606
ንስሳ	-11607
ኒኑ	-11608
ነብዕ	-11609
ነስ	-11610
ተባዕ	-11611
ባብራ	-11612
በቲ	-11613
ስተውዕሉን	-11614
ርቂ	-11615
ምውጻእ	-11616
ምርዓዉ	-11617
ምክልኻል	-11618
መለስ	-11619
ሓገዝ	-11620
ልምነካ	-11621
ህይወ	-11622
ህዛብ	-11623
:13	-11624
▁ፋብ	-11625
▁ፈተን	-11626
▁ጡብ	-11627
▁ግድነት	-11628
▁ገጻ	-11629
▁ዮሴፍን	-11630
▁ይጽዕ	-11631
▁የድልየኩም	-11632
▁የሱስን	-11633
▁ዝፈልጥ።	-11634
▁ዝፈጸ	-11635
▁ዝውለድ	-11636
▁ዝወሰደ	-11637
▁ዝዀንኩ	-11638
▁ዝኣምኑ	-11639
▁ዝመጽእ።	-11640
▁ዘይሕሰብ	-11641
▁ዘተስፈዎ	-11642
▁ዘላቶ	-11643
▁ዘለዓለማዊ	-11644
▁ዋላስ	-11645
▁ወራር	-11646
▁ኸተማታት	-11647
▁ክንሕግዘኩም	-11648
▁ክብርቲ	-11649
▁ክገልጾ	-11650
▁ክኣምን	-11651
▁እግዚኣብሄር።	-11652
▁እደሊ።	-11653
▁እዝጊ	-11654
▁እንተደሊኻ	-11655
▁እንተሃልዩ	-11656
▁እምበኣርሲ	-11657
▁እሺ	-11658
▁ኤዶም	-11659
▁ኣይሸ	-11660
▁ኣየድልየኩምን	-11661
▁ኣውሪ	-11662
▁ኣእማን	-11663
▁ኣተሓሕዛ	-11664
▁ኣቋሪ	-11665
▁ኣሜሪካዊ	-11666
▁ኣሎ፤	-11667
▁ኢድኩም	-11668
▁ኢኹም!	-11669
▁ንምጽ	-11670
▁ንሕናስ	-11671
▁ናጽ	-11672
▁ነነዌ	-11673
▁ነናይ	-11674
▁ታለንት	-11675
▁ተፈጸመ።	-11676
▁ተፈጢሩ።	-11677
▁ተጠንቀቑ።	-11678
▁ተጠንቀቑ	-11679
▁ተሸይ	-11680
▁ተሰኪ	-11681
▁ብኢንተርነት	-11682
▁ብርግፅ	-11683
▁ብምንባር	-11684
▁ብሓንሳእ	-11685
▁ብቃል	-11686
▁ብሰን	-11687
▁ቤትን	-11688
▁በጻሕቲ	-11689
▁ቃልስና	-11690
▁ቀያ	-11691
▁ምዃኑ፡	-11692
▁ምስትን	-11693
▁ምልስ	-11694
▁ማሪያ	-11695
▁ሙዃኑ	-11696
▁መዘናግዒ	-11697
▁ሓዲሩ	-11698
▁ልቓሕ	-11699
▁(1-1	-11700
▁"እንተ	-11701
ፈሩ	-11702
ፈላ	-11703
ጽዕር	-11704
ግዙ	-11705
ግሮ	-11706
ጋት	-11707
ጋህ	-11708
ገዝኡ	-11709
ገና	-11710
ገላ	-11711
ድኣት	-11712
ድላ	-11713
ደልካ	-11714
ዝርጋሕ	-11715
ዘዘ	-11716
ዕታ	-11717
ዐይ	-11718
ዋእቲ	-11719
እትታው	-11720
ኡት	-11721
ኔር	-11722
ኒና	-11723
ባርኸ	-11724
ቃውያን	-11725
ረቦ	-11726
ምጥቃ	-11727
ምኽ	-11728
ሕግዘኒ	-11729
ሓደር	-11730
ሊሱ	-11731
▁ፈታው	-11732
▁ጸለየ።	-11733
▁ግብርታቱ	-11734
▁ጊልያኻ	-11735
▁ገብር	-11736
▁ድየ?	-11737
▁ደየበ።	-11738
▁ይኹን"	-11739
▁ይህቦ	-11740
▁ዩናይትድ	-11741
▁የፍር	-11742
▁ዝፈለጥ	-11743
▁ዝደየበ	-11744
▁ዝተወልደ	-11745
▁ዝበሃሉ	-11746
▁ዝቐተ	-11747
▁ዝሓልፍ	-11748
▁ዝሑል	-11749
▁ዚርከቡ	-11750
▁ዘይከኣለ	-11751
▁ውጺ	-11752
▁ዋጋታት	-11753
▁ዋንጫ	-11754
▁ዉሉድ	-11755
▁ወሰኸ	-11756
▁ኽገብረ	-11757
▁ክንቀ	-11758
▁ክህልወኩም	-11759
▁ክሕግዙ	-11760
▁ኪርኢ	-11761
▁እዩ::	-11762
▁እዚኣስ	-11763
▁እናመሰግና	-11764
▁እምብአር	-11765
▁እፈትዎ	-11766
▁ኣግሂ	-11767
▁ኣዚኻ	-11768
▁ኣዘዘ።	-11769
▁ኣነ፡	-11770
▁ኣቦኡን	-11771
▁ኣሎኻ?	-11772
▁ኣለዉ"	-11773
▁ኣተንስ	-11774
▁ኢሉኒ።	-11775
▁ንድሕነት	-11776
▁ንዓመ	-11777
▁ንዅለን	-11778
▁ንስሙ	-11779
▁ንምስማዕ	-11780
▁ንብል።	-11781
▁ንራኸብ	-11782
▁ኔዘርላንድ	-11783
▁ናባታቶም	-11784
▁ትንታ	-11785
▁ብስሩ	-11786
▁ብምም	-11787
▁ብልቦም	-11788
▁ብሃን	-11789
▁ስራሕና	-11790
▁ስትራ	-11791
▁ሰባት።	-11792
▁ርኢኹም	-11793
▁ምቕያር	-11794
▁ምስግጋ	-11795
▁ምስ'ዚ	-11796
▁ምሰ	-11797
▁ማርቲን	-11798
▁መዓዝ	-11799
▁መዐቀኒ	-11800
▁መከላኸ	-11801
▁መምዘኒ	-11802
▁መሓዛ	-11803
▁መእ	-11804
▁ሓዲኦም	-11805
▁ህቦ	-11806
▁ሄኖክ	-11807
▁ሂወተይ	-11808
▁]]>	-11809
▁"ቅ	-11810
ፋቐ	-11811
ጽውዕ	-11812
ጽምቲ	-11813
ጥቀም።	-11814
ደላ	-11815
ዚኡ	-11816
ዘላ	-11817
ው።	-11818
ዋይን	-11819
እክ	-11820
ነግሮም	-11821
ትዎ	-11822
ታታሊ	-11823
ታሪኽ	-11824
በቡ	-11825
ሲሉ	-11826
ሰድድ	-11827
ርስዖ	-11828
ሞተን	-11829
ምታት	-11830
መስለኒ	-11831
ላግ	-11832
ለዪ	-11833
ሃብ።	-11834
ww.	-11835
eb	-11836
'።	-11837
▁ፖሎቲካ	-11838
▁ፖለቲ	-11839
▁ፍርድታትካ	-11840
▁ፍልይቲ	-11841
▁ፋብሪካ	-11842
▁ጸውዓ	-11843
▁ጳጳሳት	-11844
▁ግልጋሎት	-11845
▁ጉያ	-11846
▁ገዲፈ	-11847
▁ገይሩ።	-11848
▁ገሪ	-11849
▁ድልዱ	-11850
▁ደርበ	-11851
▁ይኽእል፧	-11852
▁ይብለኒ	-11853
▁ይጐ	-11854
▁ይህልወ	-11855
▁ዝግበኣ	-11856
▁ዝኣዘዝ	-11857
▁ዝስማ	-11858
▁ዝዛረቦ	-11859
▁ዝምርኮ	-11860
▁ዝህሉ	-11861
▁ዛንታ፡	-11862
▁ዘጠራጥር	-11863
▁ዘከ	-11864
▁ዕላማኡ	-11865
▁ዓርክኻ	-11866
▁ውላድካ	-11867
▁ወከልቲ	-11868
▁ወርሒ፡	-11869
▁ኽንፈልጥ	-11870
▁ኽትመጽእ	-11871
▁ክንጥቀመሉ	-11872
▁ክትስ	-11873
▁ክገድ	-11874
▁ክቡ	-11875
▁ካቶሊካዊት	-11876
▁ኪኸብር፡	-11877
▁ኪስ	-11878
▁ከምዘለዎም	-11879
▁እዩ:	-11880
▁እንከለ	-11881
▁እትደልዩ	-11882
▁እተዳለወ	-11883
▁እተወልደ	-11884
▁እተራእ	-11885
▁እምነትን	-11886
▁እምነቱ	-11887
▁ኣይደልን።	-11888
▁ኣይኮነን፣	-11889
▁ኣይተረፈን።	-11890
▁ኣኽሊል	-11891
▁ኣለዎም፡	-11892
▁ኣለኪ	-11893
▁ኣዘን	-11894
▁ኢንቨ	-11895
▁ኢሉና	-11896
▁ኢኩም	-11897
▁አዩ።	-11898
▁ንኸምዚ	-11899
▁ንነብሰይ	-11900
▁ንርእሶም	-11901
▁ኔሮም	-11902
▁ነብስና	-11903
▁ተጨኒ	-11904
▁ተኸቲ	-11905
▁ተኣዚ	-11906
▁ተቐይሩ	-11907
▁ተሰዲ	-11908
▁ተማህ	-11909
▁ተፃ	-11910
▁ተጎ	-11911
▁ተዐ	-11912
▁ተሃን	-11913
▁ቪዛ	-11914
▁ብፍርሂ	-11915
▁ብጸሎትን	-11916
▁ብዓብ	-11917
▁በጀት	-11918
▁ቀልጢፎም	-11919
▁ሻቕሎት	-11920
▁ሻድ	-11921
▁ሹድሽተ	-11922
▁ስዉኣት	-11923
▁ስዓት	-11924
▁ሳዕሪ	-11925
▁ሰማዒ	-11926
▁ርት	-11927
▁ምዕራባዊ	-11928
▁ምምሕዳ	-11929
▁ሕርሲ	-11930
▁ህዝበ	-11931
▁Tag:	-11932
▁(ኢሳይያስ	-11933
▁'ኣይ	-11934
▁"ኪ	-11935
▁"ብር	-11936
ፈትሖ	-11937
ጾሙ	-11938
ደኩም	-11939
ዕርፍ	-11940
ወስዶ።	-11941
ዀን	-11942
ኺ፡	-11943
ኮም	-11944
ኣሽሓት	-11945
ኒያ	-11946
ነግረኩም	-11947
በራን።	-11948
ቝሩብ	-11949
ቂቕ	-11950
ስለዙይ	-11951
ሰፊ	-11952
ርቶዶ	-11953
ርኹም	-11954
ራብን	-11955
ረኺ	-11956
ምፍጻም	-11957
ምስራሕ	-11958
ምልኣት	-11959
መልሱ	-11960
ልኩም፡	-11961
ልዓል	-11962
ለላ	-11963
ሃበና	-11964
se	-11965
ha	-11966
:11	-11967
▁ፍልስፍና	-11968
▁ፋይናን	-11969
▁ፈተውት	-11970
▁ፈጢር	-11971
▁ፈስቲ	-11972
▁ጽብቕ	-11973
▁ጽላሎት	-11974
▁ጸሓፈ።	-11975
▁ጠም	-11976
▁ግድብ	-11977
▁ግዝያዊ	-11978
▁ግጭት	-11979
▁ግላዊ	-11980
▁ግህ	-11981
▁ዲያ	-11982
▁ደኣ።	-11983
▁ደቂ-	-11984
▁ይግባይ	-11985
▁ይግለጽ።	-11986
▁ይኸፍ	-11987
▁ይሕብር።	-11988
▁ይኩን	-11989
▁ይሃሉ	-11990
▁የጋጥም	-11991
▁ዝፈትዋ	-11992
▁ዝዕድሚኦም	-11993
▁ዝነኣ	-11994
▁ዝመሃ	-11995
▁ዝጅምር	-11996
▁ዓማዊ	-11997
▁ኽዳ	-11998
▁ኻልአይቲ	-11999
▁ኸዱ።	-12000
▁ኮለ	-12001
▁ክትጸንሕ	-12002
▁ክትነብሩ	-12003
▁ክጠ	-12004
▁ኪህልወና	-12005
▁ከምዝኾኑ	-12006
▁ከካ	-12007
▁እየ.	-12008
▁እንተዘይኮነ	-12009
▁እምነትካ	-12010
▁እስቲ	-12011
▁እመን	-12012
▁ኣጠቓቕማ	-12013
▁ኣደባባይ	-12014
▁ኣይምሞተን	-12015
▁ኣይጠ	-12016
▁ኣይርእዩ	-12017
▁ኣእዳወይ	-12018
▁ኣብራሃ	-12019
▁ኣብዪ	-12020
▁ኣባጊ	-12021
▁ኣ.	-12022
▁ኢኽ	-12023
▁ንፍርዱ	-12024
▁ንጎይታ	-12025
▁ንመገዲ	-12026
▁ንልበይ	-12027
▁ንበር	-12028
▁ንቀ	-12029
▁ንረብ	-12030
▁ነጊረኩም	-12031
▁ነይረ፣	-12032
▁ነበርኩ፡	-12033
▁ታሪኹ	-12034
▁ተዛረበ።	-12035
▁ተነበ	-12036
▁ተቐሚጦም	-12037
▁ተቀቢ	-12038
▁ተኪ	-12039
▁ብዕራይ	-12040
▁ብርኽቲ	-12041
▁ባዕላቶም	-12042
▁ባእሲ	-12043
▁ባንዴራ	-12044
▁በረኸትን	-12045
▁በረከት	-12046
▁ቅርሺ	-12047
▁ቀው	-12048
▁ሽወደ	-12049
▁ሽኮ	-12050
▁ስምረት	-12051
▁ስረ	-12052
▁ሰይጣ	-12053
▁ምፍላ	-12054
▁ምዕራባውያን	-12055
▁ምኾነ	-12056
▁ማህጸን	-12057
▁ማዓል	-12058
▁መጀመሪያ	-12059
▁መካበብያ	-12060
▁መሊኣ	-12061
▁መው	-12062
▁መሐ	-12063
▁ሓይልኻ	-12064
▁ለኣኾ	-12065
▁ሂወትና	-12066
▁300	-12067
ፅሕ	-12068
ጸም።	-12069
ጥቀመሎም	-12070
ጅምሮ	-12071
ድነጻር	-12072
ድአ	-12073
ይና፡	-12074
ዕኩም	-12075
ዓር።	-12076
እጋ	-12077
ንከ	-12078
ናዮ፡	-12079
ናዮን	-12080
ተሓባ	-12081
ቦምን	-12082
ቐደሉ	-12083
ራና	-12084
ረምቲ	-12085
ምንባር	-12086
ምክ	-12087
ማምዑ	-12088
መኑ።	-12089
ልካ"	-12090
ልና!	-12091
ልኻትኩም	-12092
ላትያ	-12093
ሊጡ	-12094
ሃደራዊ	-12095
ws	-12096
▁ፊልሚ	-12097
▁ጽምዋ	-12098
▁ጸጋኡ	-12099
▁ጸኒሕ	-12100
▁ጠቕላላ	-12101
▁ጐረ	-12102
▁ገባር	-12103
▁ይፈር	-12104
▁ይኸይድ።	-12105
▁ይና	-12106
▁ይረክብ	-12107
▁ይሓትት	-12108
▁የሕዋት	-12109
▁የው	-12110
▁ዝገዝ	-12111
▁ዝወሰድ	-12112
▁ዝኽፈል	-12113
▁ዝተመር	-12114
▁ዝበልዎ	-12115
▁ዝበልክ	-12116
▁ዝስዕባ	-12117
▁ዝፍት	-12118
▁ዝክ	-12119
▁ዜብ	-12120
▁ዚህብ	-12121
▁ዕውት	-12122
▁ዓድታት	-12123
▁ውግ	-12124
▁ወ/	-12125
▁ኽትገብሩ	-12126
▁ኸኣ፥	-12127
▁ኰንኩ፡	-12128
▁ኮኾብ	-12129
▁ክትብሎ	-12130
▁ክትሓስብ	-12131
▁ክመሓየሽ	-12132
▁ክወስ	-12133
▁ክሕግዘካ	-12134
▁ካሕሳ	-12135
▁ኪገብሮ	-12136
▁ኩሉኹም	-12137
▁ከለኹም	-12138
▁ኦርቶዶ	-12139
▁እንከለና	-12140
▁እንሆ፣	-12141
▁እተመስ	-12142
▁እዪ	-12143
▁ኣገባባት	-12144
▁ኣይፈልጡን።	-12145
▁ኣይኰንኩን	-12146
▁ኣይከኣለን	-12147
▁ኣይተኣዘዝ	-12148
▁ኣይኽእሉ	-12149
▁ኣዛዚ	-12150
▁ኣስተብ	-12151
▁ኣለና"	-12152
▁ኢንተርኔት	-12153
▁አሎኹ፡	-12154
▁ንገረኒ	-12155
▁ንዝያዳ	-12156
▁ንዕጽዋት	-12157
▁ንኹልና	-12158
▁ንነብስኻ	-12159
▁ንተኣ	-12160
▁ንመንፈስ	-12161
▁ንመገድ	-12162
▁ንኸይድ	-12163
▁ንርኣ	-12164
▁ነጋዳይ	-12165
▁ነበርኩ	-12166
▁ነፃ	-12167
▁ቶም	-12168
▁ትኽክል	-12169
▁ትፅ	-12170
▁ትሰ	-12171
▁ቴሌፎን	-12172
▁ተጠንቀቕ።	-12173
▁ተኸፊቱ	-12174
▁ተታሒዙ	-12175
▁ተሰሎን	-12176
▁ተሰሎንቄ	-12177
▁ተድልየ	-12178
▁ተቃ	-12179
▁ብፍቕ	-12180
▁ብድሕሪ'ዚ	-12181
▁ብሓቂ፡	-12182
▁ብልሽ	-12183
▁ብክልተ	-12184
▁ቐን	-12185
▁ቊጽሪ	-12186
▁ቀረጽ	-12187
▁ቀቅድሜ	-12188
▁ሹም	-12189
▁ሰማዕኩ።	-12190
▁ራህዋ	-12191
▁ረሲዖም።	-12192
▁ምብራ	-12193
▁ምስዓብ	-12194
▁ማዕርነት	-12195
▁መዋእል	-12196
▁መከላኸሊ	-12197
▁መሳርሒታት	-12198
▁ሕተት።	-12199
▁ሕጕ	-12200
▁ሕሰም	-12201
▁ሓጢኣትን	-12202
▁ሓሰብኩ።	-12203
▁ሓዋ	-12204
▁ልግ	-12205
▁ሌዊ	-12206
▁6.	-12207
▁51	-12208
▁"ጽቡቕ	-12209
▁"ቀ	-12210
ፊክ	-12211
ጽራ	-12212
ጸባርቕ	-12213
ጸርቲ	-12214
ጥፋእ	-12215
ጌል	-12216
ዶንያ	-12217
ዳውያን	-12218
ዲጉ	-12219
ዓመት	-12220
ዋግ	-12221
ኻሪ	-12222
ኺ።	-12223
ኦንን	-12224
ነግረኒ	-12225
ነገ	-12226
ተኩም	-12227
ባሕቲ	-12228
ቀውታ	-12229
ሽተን	-12230
ሲሱ	-12231
ምያ	-12232
ሕግዛ	-12233
ሒዛ	-12234
ሊፍካ	-12235
ለቲካዊ	-12236
ለሊ	-12237
ሀር	-12238
'የን	-12239
▁ጸሊ	-12240
▁ጥል	-12241
▁ጓሉ	-12242
▁ግዜይ	-12243
▁ግሪ	-12244
▁ጉድጓድ	-12245
▁ጉድለት	-12246
▁ገበነኛታት	-12247
▁ድልዋት	-12248
▁ድኹ	-12249
▁ዲፕሎማሲ	-12250
▁ይቅረ	-12251
▁ይመስገን	-12252
▁ይፈላለ	-12253
▁ይረ	-12254
▁ዝገለጽ	-12255
▁ዝኾንካ	-12256
▁ዝኾንኩ	-12257
▁ዝተራእ	-12258
▁ዝሃበኒ	-12259
▁ዝዛረቡ	-12260
▁ዝላ	-12261
▁ዜፍርህ	-12262
▁ዚወስድ	-12263
▁ዚርከ	-12264
▁ዘፍቅር	-12265
▁ዘገድስ	-12266
▁ዘንበብ	-12267
▁ዘቤ	-12268
▁ዓምዲ	-12269
▁ክገብረልካ	-12270
▁ክንው	-12271
▁ክወስዱ	-12272
▁ኪጐ	-12273
▁ኪም	-12274
▁ከይዳ	-12275
▁ከምዚኣ	-12276
▁እተዛረበ	-12277
▁ኣይደልዩን	-12278
▁ኣይኰነትን።	-12279
▁ኣይተስተውዕሉን	-12280
▁ኣይሁዳዊ	-12281
▁ኣይፍለጥ	-12282
▁ኣይኬ	-12283
▁ኣየድልየናን	-12284
▁ኣውያት	-12285
▁ኢና'	-12286
▁አንታይ	-12287
▁አሎኹም።	-12288
▁ንዑኡ	-12289
▁ንብዙ	-12290
▁ንመንእሰያት	-12291
▁ንሕጂ	-12292
▁ንክን	-12293
▁ንሰን	-12294
▁ናዕቢ	-12295
▁ነዚኣቶም	-12296
▁ትምህርቲ፡	-12297
▁ትብሃል	-12298
▁ተጀሚሩ።	-12299
▁ተሪር	-12300
▁ተለፎን	-12301
▁ተብ	-12302
▁ቦትኡ	-12303
▁ብጻይካ	-12304
▁ብድሕሬ	-12305
▁ብወዱ	-12306
▁ብሰማይ	-12307
▁ብሕቡእ	-12308
▁ብሂል	-12309
▁በጺሕና	-12310
▁በሃላይ	-12311
▁በጽሑ	-12312
▁ቅዱሳ	-12313
▁ስብሓት	-12314
▁ስለ'ዚ፡	-12315
▁ሱዳ	-12316
▁ሰብሲ	-12317
▁ረኣኹ፣+	-12318
▁ረዲ	-12319
▁ምጅማ	-12320
▁ምድሓ	-12321
▁ምዃንኩም	-12322
▁ምእዛዝ	-12323
▁ምንቅስቃስ	-12324
▁ምልኣት	-12325
▁ምልላይ	-12326
▁ምረጽ።	-12327
▁ሜትሮ	-12328
▁ማዕዶ	-12329
▁ማና	-12330
▁መጨረሻ	-12331
▁መዘከርታ	-12332
▁መወዳእትኡ	-12333
▁መለለዪ	-12334
▁መበለ	-12335
▁ሓጢኣትና	-12336
▁ሓደጋታት	-12337
▁ህዋ	-12338
▁99	-12339
▁"ሓንቲ	-12340
▁"ጐይታ	-12341
▁"ስም	-12342
▁"ማርያም	-12343
ፃናት	-12344
ፃሊ	-12345
ጻወር	-12346
ጥፈ	-12347
ጐስ።	-12348
ግንነት	-12349
ጋእ	-12350
ድና።	-12351
ድታት	-12352
ዩ፣	-12353
የይን	-12354
የረ	-12355
ዛብን	-12356
ዎም፣	-12357
ኽካ	-12358
ከላኸል	-12359
ኣለይ	-12360
ንቀሳቐስ	-12361
ኒዶ	-12362
ነው	-12363
ትነት	-12364
ቢ።	-12365
ቢብ	-12366
በይዎ	-12367
ቅሱ	-12368
ቃብ	-12369
ቀሲ	-12370
ስምዑ	-12371
ስና።	-12372
ሰናይ	-12373
ረድኣ	-12374
ምእንቲ	-12375
ምባሲ	-12376
ምምሕያሽ	-12377
ምምላስ	-12378
ማቶም	-12379
ሚን	-12380
መሰለ	-12381
መልሶ	-12382
ሕተት	-12383
ሕሉ	-12384
ልሄም	-12385
ላታ	-12386
ለይዎ	-12387
ለት።	-12388
ለዶም	-12389
ለያ	-12390
rg	-12391
🇪🇷	-12392
▁ፍለጡ።	-12393
▁ፊደል	-12394
▁ጻድቅ	-12395
▁ጸኒሑ፡	-12396
▁ጥርጥር	-12397
▁ጠነ	-12398
▁ጕድጓድ	-12399
▁ጎይታና	-12400
▁ግዜኻ	-12401
▁ጋንታታት	-12402
▁ደጋፊ	-12403
▁የብልኩምን።	-12404
▁የኽእ	-12405
▁የመ	-12406
▁ዝፍጠር	-12407
▁ዝውዳእ	-12408
▁ዝወጹ	-12409
▁ዝሰኣ	-12410
▁ዝረኸቦ	-12411
▁ዜርኢ	-12412
▁ዚኣምን	-12413
▁ዘስተ	-12414
▁ዕዮኡ	-12415
▁ዕቝባ	-12416
▁ዕጹ	-12417
▁ዓቕምና	-12418
▁ዓሰርተታት	-12419
▁ውረድ	-12420
▁ወለዶታት	-12421
▁ኮሮናቫይረስ	-12422
▁ኮድ	-12423
▁ክንዮ	-12424
▁ክህልው	-12425
▁ክዉን	-12426
▁ኪዛረብ	-12427
▁ከባቢኻ	-12428
▁ከምዘየለ	-12429
▁ከድሕን	-12430
▁እጃም	-12431
▁እዩ...	-12432
▁እናመሰግናለን	-12433
▁እትብሃል	-12434
▁እቲኣተን	-12435
▁ኣፍንጫን	-12436
▁ኣፍሪቃውያን	-12437
▁ኣይግባእን	-12438
▁ኣውስትራሊያ	-12439
▁ኣንተ	-12440
▁ኣስተውዓልን	-12441
▁ኣሜሪካውያን	-12442
▁ኣስፋ	-12443
▁ኢና?	-12444
▁ንዝነበሩ	-12445
▁ንብዓ	-12446
▁ንቕሑ	-12447
▁ንመሰ	-12448
▁ነይሩዎ።	-12449
▁ነብሶም	-12450
▁ኃጢአ	-12451
▁ቻር	-12452
▁ትንቢታት	-12453
▁ትፈልጢ	-12454
▁ትኣ	-12455
▁ቴክ	-12456
▁ታሪኽና	-12457
▁ተጠቒም	-12458
▁ተዛረቡ።	-12459
▁ተወዲኡ	-12460
▁ተመሳሰ	-12461
▁ብጥሜት	-12462
▁ብዝዀነ	-12463
▁ብምስጢር	-12464
▁ብምግባር	-12465
▁ብመንጽር	-12466
▁ብዜ	-12467
▁ባርዕ	-12468
▁ቢቢሲ	-12469
▁በረራ	-12470
▁በሃሊ	-12471
▁በዞም	-12472
▁ቅጫ	-12473
▁ቀል	-12474
▁ሺሕ	-12475
▁ስለዝኾነ፡	-12476
▁ስተ	-12477
▁ሰዲህኤ	-12478
▁ሰሪሐ	-12479
▁ረብሓታት	-12480
▁ምኽንያት፡	-12481
▁ምስኡውን	-12482
▁ምረ	-12483
▁መድሓ	-12484
▁ሕይወትካ	-12485
▁ሓጺን	-12486
▁ሓቒ	-12487
▁ሊቃነ	-12488
▁ሀቦ።	-12489
▁54	-12490
▁(ሕ	-12491
▁"ደጊም	-12492
▁"እዛ	-12493
▁"በታ	-12494
ፋኖስ	-12495
ጸመሉ	-12496
ድገት	-12497
ዘቦ	-12498
ወርቂ	-12499
ኽንያቱ	-12500
ኩስ	-12501
ኛ)	-12502
ንኩር	-12503
ነት፡	-12504
ነብሮ	-12505
ትኻን	-12506
ታማት	-12507
ተባዕትዮ	-12508
ተሎ	-12509
ብዓም	-12510
ባትና	-12511
ቕለ	-12512
ቓዕ	-12513
ሰለ	-12514
ርበ	-12515
ረኸቡ	-12516
ረጸ	-12517
ምልኽ	-12518
መላለሱ	-12519
ሕሕ	-12520
ሉ፤	-12521
ህሪ	-12522
RE	-12523
:12	-12524
20)	-12525
▁ፈጽ	-12526
▁ጽባቐ	-12527
▁ጸሓይን	-12528
▁ጸጥ	-12529
▁ጠባ	-12530
▁ግና፥	-12531
▁ግሉጽ	-12532
▁ጋራ	-12533
▁ዶኾን	-12534
▁ደጊምሲ	-12535
▁ደቡባዊ	-12536
▁ይገልጾ	-12537
▁ይረኽቡ	-12538
▁የዘ	-12539
▁ዝፈጥር	-12540
▁ዝፈቱ።	-12541
▁ዝኣምን።	-12542
▁ዝኣመንካዮ	-12543
▁ዝነብር።	-12544
▁ዝተዘር	-12545
▁ዝሰራሕ	-12546
▁ዝጸንሕ	-12547
▁ዙርያና	-12548
▁ዘይምኽ	-12549
▁ዘለዎም።	-12550
▁ዘንብብ	-12551
▁ዕጉ	-12552
▁ዓጸ	-12553
▁ዉሑ	-12554
▁ወልፊ	-12555
▁ኽህበካ	-12556
▁ኺብል	-12557
▁ክዕወት	-12558
▁ክኢላታት	-12559
▁ክንመሃር	-12560
▁ክነግረኩም	-12561
▁ክግለጽ	-12562
▁ክመርሕ	-12563
▁ኪመር	-12564
▁ከድኩ።	-12565
▁እግዚኣብሄር፣	-12566
▁እዮም፥	-12567
▁እንሰሳ	-12568
▁እስራኤ	-12569
▁እው	-12570
▁ኤሌ	-12571
▁ኤሌክት	-12572
▁ኣድና	-12573
▁ኣይፈቱን	-12574
▁ኣይከውንን	-12575
▁ኣይተፈ	-12576
▁ኣይፈለጡ	-12577
▁ኣዝማድ	-12578
▁ኣማልኽ	-12579
▁ኣመልኪ	-12580
▁ኣሎኩም	-12581
▁ኣጠ	-12582
▁ኢየን	-12583
▁ንጸሎት	-12584
▁ንጴጥሮስ	-12585
▁ንኸንቱ	-12586
▁ንቑጽ	-12587
▁ንሰዓብ	-12588
▁ንሓጢኣት	-12589
▁ንፅ	-12590
▁ንኹን	-12591
▁ንቃ	-12592
▁ኔረ፡	-12593
▁ነፍሳት	-12594
▁ነገዳት	-12595
▁ነይረ፡	-12596
▁ትደሊ?	-12597
▁ትንፋ	-12598
▁ትምህርተይ	-12599
▁ተቐበለ	-12600
▁ተረጋጊ	-12601
▁ብእግዚኣብሔር	-12602
▁ብቕጽበት	-12603
▁ብምባል፡	-12604
▁ብግብ	-12605
▁በጽሐ።	-12606
▁በይንና	-12607
▁ቝጥዓ	-12608
▁ቁስ	-12609
▁ቀላይ	-12610
▁ስዓ	-12611
▁ሰናይን	-12612
▁ሰብ'ዩ	-12613
▁ሰማይ'ውን	-12614
▁ሰሚር	-12615
▁ሰሙናዊ	-12616
▁ሰደደ	-12617
▁ረኣየ፡	-12618
▁ሞይታ	-12619
▁ሞትና	-12620
▁ምድሪውን	-12621
▁ምውታት	-12622
▁ምትእኽ	-12623
▁ምስጢራዊ	-12624
▁መገደይ	-12625
▁መሰሉ	-12626
▁ሕግኻ	-12627
▁ሕይወቱ	-12628
▁ሓቢርካ	-12629
▁ሓለመ	-12630
▁ሓበረ	-12631
▁ሆላንድ	-12632
▁ህድእ	-12633
▁post	-12634
▁REA	-12635
▁MO	-12636
▁8.	-12637
▁193	-12638
▁(ያ	-12639
▁"እግዚአብሔር	-12640
▁"[	-12641
ፍልጠት	-12642
ፋቱ	-12643
ጾ።	-12644
ጸግብ	-12645
ጋጠመ	-12646
ጋና	-12647
ገልጸሉ	-12648
ገልገል	-12649
ድሕነና	-12650
ዳንት	-12651
ዳግም	-12652
ዝዎ	-12653
ወተ	-12654
ካይዶ	-12655
ኩሎም	-12656
ከምኡ	-12657
ኢኹ	-12658
ንስሓ	-12659
ነግሮ	-12660
ነቱን	-12661
ትንክ	-12662
ቲ።	-12663
ቤተይ	-12664
ቑ፡	-12665
ሰብኩ	-12666
ርእየኩም	-12667
ረኽብ	-12668
ረክብን	-12669
ረዱ	-12670
ምለስ፡	-12671
ምህሮም	-12672
ሓፍርን	-12673
ልፉ	-12674
ህባ	-12675
ate	-12676
;;	-12677
-"	-12678
▁ፓስፖርት	-12679
▁ፈን	-12680
▁ፈነወ	-12681
▁ፅሕ	-12682
▁ጸኒሐ።	-12683
▁ጥቡቕ	-12684
▁ጠሊ	-12685
▁ግዜ።	-12686
▁ገረ	-12687
▁ይጽበዩ	-12688
▁ይጽውዕ	-12689
▁ይኣምን።	-12690
▁የጠቓል	-12691
▁ዝኸበርኩም	-12692
▁ዝነገርኩኹም	-12693
▁ዝነገ	-12694
▁ዝተገበረ	-12695
▁ዝበሎዶ	-12696
▁ዝመልአ	-12697
▁ዜናታት	-12698
▁ዚኣ	-12699
▁ዘይኰይኑ	-12700
▁ዘይኮነስ፡	-12701
▁ዘይትፈልጦ	-12702
▁ዘይፈልጦ	-12703
▁ዘየልቦ	-12704
▁ዘሎኻ።	-12705
▁ዘሎ"	-12706
▁ዓቕሊ	-12707
▁ዋልታ	-12708
▁ወደየ፡	-12709
▁ወጥ	-12710
▁ወነ	-12711
▁ኽትቅ	-12712
▁ኸዋኽብቲ	-12713
▁ኮይኖም።	-12714
▁ክልቲኤን	-12715
▁ክባ	-12716
▁ከነኣ	-12717
▁እዩ)	-12718
▁እንጌራን	-12719
▁እምቢ	-12720
▁እኽ	-12721
▁እሰ	-12722
▁ኤረት	-12723
▁ኣይተኣዘዝኩዎን።	-12724
▁ኣይተረኽበን።	-12725
▁ኣዕሩኸይ	-12726
▁ኣዕይን	-12727
▁ኣእጋር	-12728
▁ኣትዩ።	-12729
▁ኣቦኻን	-12730
▁ኣባኺ	-12731
▁ኣርእየ	-12732
▁ኣረጋግጽ	-12733
▁ኣመንዝራ	-12734
▁ኣለዉ?	-12735
▁ኣለኹ፤	-12736
▁ኣዊ	-12737
▁ኢኹም፧"	-12738
▁ኢሎ	-12739
▁አምላኽና	-12740
▁ንደቅኻ	-12741
▁ንኹን።	-12742
▁ንእንስሳ	-12743
▁ንኣምላኽና	-12744
▁ንኣምን።	-12745
▁ንበይንኻ	-12746
▁ንሓዉ	-12747
▁ንግደ	-12748
▁ንኻ	-12749
▁ንኤል	-12750
▁ንሄ	-12751
▁ናፍ	-12752
▁ትኸውን?	-12753
▁ትኣም	-12754
▁ተጠም	-12755
▁ተኣማንነት	-12756
▁ተመሳሰልቲ	-12757
▁ብዝተፈላለዩ	-12758
▁ብኸመይን	-12759
▁ብቑዓት	-12760
▁ብርግጽ፡	-12761
▁ብራእይ	-12762
▁ብምህ	-12763
▁ባባ	-12764
▁በርሀ	-12765
▁በል።	-12766
▁ቖልዓ	-12767
▁ቀጺሎም	-12768
▁ሶፍትዌ	-12769
▁ሳንቲ	-12770
▁ርኽሰት	-12771
▁ረኺቦም	-12772
▁ምግባር።	-12773
▁ምኽርን	-12774
▁ምእንት	-12775
▁ምበለ	-12776
▁ማቴ.	-12777
▁መጋረጃ	-12778
▁መንጎኻን	-12779
▁መንዩ	-12780
▁ሕጉስቲ	-12781
▁ልበ	-12782
▁ሃልሃል	-12783
▁ሂወትካ	-12784
▁ሀብ	-12785
▁10.	-12786
▁'እንታይ	-12787
▁'እን	-12788
▁"ኣቦይ	-12789
▁"ብዙሕ	-12790
▁"ዘይ	-12791
ፈሎ	-12792
ጥብ	-12793
ጠንቅ	-12794
ጐሱ	-12795
ግብሮ	-12796
ጋገር	-12797
ድካዮ	-12798
ዴግ	-12799
ደት።	-12800
ይሮም	-12801
ዘከ	-12802
ዓ።	-12803
እምበኣር	-12804
ኣንስትዮ	-12805
ንቀሳ	-12806
ነኒ	-12807
ትዮጵያ	-12808
ቤትካ	-12809
በጽሓ	-12810
ስለምንታይ	-12811
ራንስ	-12812
ሎስ	-12813
ልካት	-12814
ልቀ	-12815
ሊሕ	-12816
ሃሩ።	-12817
am	-12818
▁ፈለጠ።	-12819
▁ፈጸ	-12820
▁ፅሑፍ	-12821
▁ጸዓት	-12822
▁ጥረ	-12823
▁ጎደናታት	-12824
▁ግሁድ	-12825
▁ገዛእቲ	-12826
▁ገመድ	-12827
▁ዶባት	-12828
▁ድልድል	-12829
▁ደገፍን	-12830
▁ደቆምን	-12831
▁ይድይቡ	-12832
▁ይወስድ።	-12833
▁ይኹነልካ"	-12834
▁ይስምዓኒ	-12835
▁ይገብሩ።	-12836
▁ይወርዱ	-12837
▁ይኽእላ	-12838
▁ይህል	-12839
▁የኒ።	-12840
▁ዝፍጽም	-12841
▁ዝነበርኩ፡	-12842
▁ዝካ	-12843
▁ዝባን	-12844
▁ዝማ	-12845
▁ዚአ	-12846
▁ዚሓ	-12847
▁ዘይተቐ	-12848
▁ዘይፍት	-12849
▁ዘይገበር	-12850
▁ዘየሎ	-12851
▁ዘሕለ	-12852
▁ዘሎኩም	-12853
▁ዘእ	-12854
▁ዘህ	-12855
▁ዕዱ	-12856
▁ዓይንኻ	-12857
▁ዋዛ	-12858
▁ዄንካስ፡	-12859
▁ኸቢ	-12860
▁ኮሚተ	-12861
▁ክንግ	-12862
▁ክብደት	-12863
▁ክድሕን	-12864
▁ኪጠፍእ	-12865
▁ኩርና	-12866
▁ከይወ	-12867
▁ከምዝወ	-12868
▁ከፍ	-12869
▁እንግሊ	-12870
▁እንተኾንኩ	-12871
▁እተወልዱ	-12872
▁እይ	-12873
▁እመስ	-12874
▁ኣፍጋኒስታን	-12875
▁ኣይከኣለትን።	-12876
▁ኣይትብል	-12877
▁ኣይምሰ	-12878
▁ኣይዓ	-12879
▁ኣይካ	-12880
▁ኣይብልን	-12881
▁ኣትሒዙ	-12882
▁ኣስተንት	-12883
▁ኣምሪ	-12884
▁ኣለኒ?	-12885
▁ኣናብ	-12886
▁ኢኻ፤	-12887
▁ኢብራሂም	-12888
▁ንይስሃ	-12889
▁ንውሉድ	-12890
▁ንኹላትና	-12891
▁ንእተወሰነ	-12892
▁ንስድራቤት	-12893
▁ንመለስ።	-12894
▁ንገብሮ	-12895
▁ናታቶም	-12896
▁ነገር።	-12897
▁ነይርዎም።	-12898
▁ነንሕድሕዶም	-12899
▁ነበራ	-12900
▁ትምህርቶም	-12901
▁ተጸበ	-12902
▁ተጠቒሙ	-12903
▁ተመሊስካ	-12904
▁ተዘይ	-12905
▁ተተር	-12906
▁ቫቲ	-12907
▁ቫቲካን	-12908
▁ብቐረባ	-12909
▁ብምፍ	-12910
▁ብማለት	-12911
▁ብ200	-12912
▁ቤዛ	-12913
▁በሊዖም	-12914
▁በለታ።	-12915
▁ቕድም	-12916
▁ቅልጥፍ	-12917
▁ሸጥ	-12918
▁ስጋኡ	-12919
▁ሳዕስ	-12920
▁ሰዐ	-12921
▁ርድኢት	-12922
▁ርእሰ-	-12923
▁ሬድዮ	-12924
▁ረኣይዎ፡	-12925
▁ምውህ	-12926
▁ምኽኒያቱ	-12927
▁ምእላይ	-12928
▁ምስግጋር	-12929
▁ምሕዝነት	-12930
▁ምልካ	-12931
▁ማእከላት	-12932
▁መከራን	-12933
▁መኣዝን	-12934
▁መሰረታት	-12935
▁መራኸቢታት	-12936
▁መምርሒታት	-12937
▁ሕውነት	-12938
▁ሓደሓደ	-12939
▁ለንደን	-12940
▁ለመንዎ።	-12941
▁ህዝበይ፡	-12942
▁ህንጸት	-12943
▁READ	-12944
▁MORE	-12945
▁De	-12946
▁4ይ	-12947
▁000	-12948
▁(ዮሃ	-12949
▁(5)	-12950
▁"እንሆ	-12951
▁"ንዓ	-12952
▁"ብጀካ	-12953
ፈርህዎ	-12954
ጽኦም	-12955
ጥምት	-12956
ጠፍአ	-12957
ገሱ	-12958
ገማ	-12959
ድናዮ	-12960
ድሎ	-12961
ዳሕ	-12962
የይቲ	-12963
ዝርግ	-12964
ውዕሎ	-12965
ውኡ	-12966
ወዳ	-12967
ኸይድን	-12968
ኩዋ	-12969
ከውን፡	-12970
እግዚኣብሔር	-12971
ኢልካ	-12972
ን'ዩ።	-12973
ናን"	-12974
ነትና	-12975
ቨር	-12976
ብባዕ	-12977
በጽሕን	-12978
ቐውም	-12979
ሹኽ	-12980
ርእየኒ	-12981
ራሕ።	-12982
ሞና	-12983
ምውሳድ	-12984
ምራ	-12985
መጣ	-12986
መሪካ	-12987
ሕዋት	-12988
ሓስበሉ	-12989
ልፎ	-12990
Read	-12991
:14	-12992
▁ፕላኔት	-12993
▁ፍቱ	-12994
▁ጳጳስ	-12995
▁ጎል	-12996
▁ገዲፍና	-12997
▁ጀሚራ።	-12998
▁ድማ'ዩ	-12999
▁ደኣስ፡	-13000
▁ይመስለኩም?	-13001
▁ይሓልፍ	-13002
▁ይኾ	-13003
▁ይተኣ	-13004
▁ይመርሕ	-13005
▁የዕሩኽ	-13006
▁ዝኾነ፡	-13007
▁ዝሳ	-13008
▁ዚህሉ	-13009
▁ዘይኰኑ	-13010
▁ዘሎዉ	-13011
▁ዕለታት	-13012
▁ዓሞናውያን	-13013
▁ዓዳ	-13014
▁ውጽኢታዊ	-13015
▁ውፉ	-13016
▁ኸለኹ	-13017
▁ክውዕል	-13018
▁ክንሓስብ	-13019
▁ክትጅምር	-13020
▁ክቕይር	-13021
▁ክስራሕ	-13022
▁ክበልዕ	-13023
▁ክበ	-13024
▁ክሽ	-13025
▁ኪመውት	-13026
▁ከማና	-13027
▁ኦሮ	-13028
▁እዚ።	-13029
▁እንተበለ	-13030
▁ኣጥፊኡ	-13031
▁ኣጋጢሙ።	-13032
▁ኣይትኹን።	-13033
▁ኣይትም	-13034
▁ኣይመስልን	-13035
▁ኣይጽ	-13036
▁ኣዒንትኹም	-13037
▁ኣእምሮኣዊ	-13038
▁ኣእዛን	-13039
▁ኣንሆ	-13040
▁ኣብዚኣቶም	-13041
▁ኣስተምህሮ	-13042
▁ኣርእዩ	-13043
▁ኣምላኸይን	-13044
▁ኣዩ።	-13045
▁ኢንቨስት	-13046
▁ንኣይሁድ	-13047
▁ንስኻዶ	-13048
▁ንሳቶምሲ	-13049
▁ንረብሓ	-13050
▁ንሓሙሽተ	-13051
▁ንህግደፍ	-13052
▁ንወልድ	-13053
▁ናዓ	-13054
▁ነባ	-13055
▁ነቡ	-13056
▁ትኹረት	-13057
▁ተገሊጹ።	-13058
▁ተዛረቦም።	-13059
▁ተዛረቦም	-13060
▁ተዋግ	-13061
▁ተወሊዱ።	-13062
▁ተማሕ	-13063
▁ተመልክ	-13064
▁ተለቪዥን	-13065
▁ብግህ	-13066
▁ብዝተረፈ	-13067
▁ብኣና	-13068
▁ብምኻድ	-13069
▁ብሃንቀውታ	-13070
▁ብዉ	-13071
▁ብኤ	-13072
▁ቤተ-ክርስትያን	-13073
▁በሃል	-13074
▁ቆርበት	-13075
▁ቅሳነት	-13076
▁ቅዋ	-13077
▁ቁም	-13078
▁ሸነ	-13079
▁ስጋይ	-13080
▁ስራሕኩም	-13081
▁ስዩም	-13082
▁ሳንቲም	-13083
▁ሳሕቲ	-13084
▁ሰሌዳ	-13085
▁ሰላማት	-13086
▁ረቛሒታት	-13087
▁ሞይቱ።	-13088
▁ምጽናሕ	-13089
▁ምእካብ	-13090
▁ምስጋናይ	-13091
▁ምምስራት	-13092
▁ምምዝ	-13093
▁ምበር	-13094
▁ሜተር	-13095
▁መዘኻኸሪ	-13096
▁መንፈሰይ	-13097
▁መልእኽቱ	-13098
▁መጹ፡	-13099
▁ሕፃን	-13100
▁ሓጐስን	-13101
▁ሓዳሽ	-13102
▁ሓማ	-13103
▁ላዕለዎት	-13104
▁ህይወት፡	-13105
▁ሃብዎ።	-13106
▁66	-13107
▁56	-13108
▁(ማር	-13109
▁"ብዙሓት	-13110
▁"ህዝበይ	-13111
ጸግቡ	-13112
ጸናንዕ	-13113
ጶስ	-13114
ድ፡	-13115
ድሶ	-13116
ድምር	-13117
ዛርን	-13118
ኽእለሉ	-13119
ካየዱ	-13120
ኣትዎ	-13121
ኣንን	-13122
ኡኒ	-13123
አቱ	-13124
ንብቦ	-13125
ንጣ	-13126
ናዮም	-13127
ናቶም	-13128
ነቑ።	-13129
ብ፡	-13130
ቅም	-13131
ስምዕ።	-13132
ራተይ	-13133
ረኣየ	-13134
ረብ።	-13135
ረኹ	-13136
ሞስ	-13137
ማዲ	-13138
ሙኒ።	-13139
ላለሱ	-13140
ላልፍ	-13141
ለካ።	-13142
'የን።	-13143
▁ፓሪስ	-13144
▁ፍቕሪ፡	-13145
▁ፈፂ	-13146
▁ፀኒ	-13147
▁ጥይት	-13148
▁ጣኦታት	-13149
▁ጠንቁሩ	-13150
▁ጠለባት	-13151
▁ግለጽ።	-13152
▁ገፊሕ	-13153
▁ገለጸ።	-13154
▁ገባ	-13155
▁ገበል	-13156
▁ገርና	-13157
▁ጆር	-13158
▁ድምጽኻ	-13159
▁ድምጸይ	-13160
▁ድሩት	-13161
▁ዳስ	-13162
▁ደሎ	-13163
▁ይጽበየ	-13164
▁ይድይቡላን	-13165
▁ይዝከር።	-13166
▁ይወርዱላን	-13167
▁ይተ	-13168
▁የድልየካ።	-13169
▁የለን!	-13170
▁ዝውዕል	-13171
▁ዝንባለ	-13172
▁ዝፈል	-13173
▁ዜምል	-13174
▁ዚፈቱ	-13175
▁ዘይኮነ፡	-13176
▁ዘብጽሕ	-13177
▁ዘርጊ	-13178
▁ዘሎናዮ	-13179
▁ዘለኹ፡	-13180
▁ዘለካ!	-13181
▁ዘጽ	-13182
▁ዕድለኛ	-13183
▁ዓማጺ	-13184
▁ዓመት።	-13185
▁ውስተ	-13186
▁ወሲድካ	-13187
▁ወሲዱ፡	-13188
▁ወጽዓ	-13189
▁ኽንረክብ	-13190
▁ኽትበልዕ	-13191
▁ኸይዱ	-13192
▁ክገብርዎ	-13193
▁ክንሓትት	-13194
▁ክትዓ	-13195
▁ክትር	-13196
▁ክብላ	-13197
▁ክረአ	-13198
▁ክልተን	-13199
▁ክህበና	-13200
▁ክወስደ	-13201
▁ክምርዖ	-13202
▁ክሃድም	-13203
▁ኪወጽእ	-13204
▁ኪህብዎ	-13205
▁ከባቢና	-13206
▁ከምይ	-13207
▁ከፈተ	-13208
▁እንተኾንካ	-13209
▁እርኢ	-13210
▁ኣጋጢም	-13211
▁ኣገዳሲት	-13212
▁ኣይፍቀድን	-13213
▁ኣይትሸ	-13214
▁ኣይተርፍ	-13215
▁ኣይሀልዉ	-13216
▁ኣይሀልዉኻ።	-13217
▁ኣዕጽም	-13218
▁ኣከባቢ	-13219
▁ኣእቲ	-13220
▁ኣንብብ	-13221
▁ኣተዉ።	-13222
▁ኣብ...	-13223
▁ኣቢይ	-13224
▁ኣርዑ	-13225
▁ኣርሕ	-13226
▁ኣሜን	-13227
▁ኣመሪካ፡	-13228
▁ኣሎኹም።	-13229
▁ኣቅ	-13230
▁ኢላት	-13231
▁ንገረ	-13232
▁ንእስነ	-13233
▁ንኣቦኡ	-13234
▁ንኣምላኽን	-13235
▁ንበይነይ	-13236
▁ንሓውካ	-13237
▁ንህዝብኻ	-13238
▁ንፈት	-13239
▁ንጽል	-13240
▁ንኹሉ	-13241
▁ናውቲ	-13242
▁ነፍስና	-13243
▁ነይሮም፣	-13244
▁ነጺ	-13245
▁ነየናይ	-13246
▁ነዓ	-13247
▁ኃይ	-13248
▁ትእዛዛቱ	-13249
▁ተፈሊጡ።	-13250
▁ተፈቒዱ	-13251
▁ተባህ	-13252
▁ተቐቢሎም	-13253
▁ቪዲዮ	-13254
▁ብፍልጠ	-13255
▁ብጾምን	-13256
▁ብጽኑዕ	-13257
▁ብብርሃን	-13258
▁ብምርኣይ	-13259
▁ብምድ	-13260
▁ብምልኡ	-13261
▁ብሓሶት	-13262
▁ብሳል	-13263
▁ብመር	-13264
▁ባዕላትኩም	-13265
▁ቅንዕና	-13266
▁ቀብሪ	-13267
▁ሽሕን	-13268
▁ስኢኑ	-13269
▁ስማዕ፡	-13270
▁ሳዋ	-13271
▁ሰሙን፡	-13272
▁ሰዱ	-13273
▁ሰት	-13274
▁ረዳእ	-13275
▁ምኽኣል	-13276
▁ምህዞ	-13277
▁መደቀሲ	-13278
▁መዕቆ	-13279
▁መዕረፊ	-13280
▁መሲሉኒ	-13281
▁መሰሎም	-13282
▁መክብብ	-13283
▁መክ	-13284
▁ሕጹ	-13285
▁ሓወይን	-13286
▁ሓንጎል	-13287
▁ሓሓ	-13288
▁ህያባት	-13289
▁ህዝብኹም	-13290
▁ህቦብላ	-13291
▁ህጂ	-13292
▁se	-13293
▁News	-13294
▁3፡	-13295
▁2፡	-13296
▁(ኢሳ	-13297
▁(መዝ.	-13298
▁(ኣ	-13299
▁(E	-13300
▁'ከ	-13301
▁'ናይ	-13302
▁'ናብ	-13303
▁'ና	-13304
ፈረን	-13305
ጸንዕ	-13306
ጥዐ	-13307
ጢኣትካ	-13308
ጠላ	-13309
ጐጕ	-13310
ግዜኡ	-13311
ዶም፡	-13312
ድሕኖ	-13313
ደቐ	-13314
የል	-13315
ዘከር	-13316
ዓብዪ	-13317
ወትቲ	-13318
ወ።	-13319
ኻስ	-13320
ኺ?	-13321
ኹምዎ	-13322
ኮነን	-13323
ከለ	-13324
ኣገልግሎት	-13325
ነጀው	-13326
ነየ	-13327
ነበ	-13328
ተባህለ	-13329
ብለኩም	-13330
ቡና	-13331
በያ	-13332
በኒ።	-13333
ቐም	-13334
ቅስ።	-13335
ቅባ	-13336
ቅቕ	-13337
ቃይ	-13338
ሾም	-13339
ርስዋ	-13340
ረፍዎ	-13341
ረዲ	-13342
ምህሩ	-13343
ማማዕ	-13344
መጢ	-13345
መደብ	-13346
ልኩምን	-13347
ላዲ	-13348
ለንን።	-13349
ሃትን	-13350
ሂሉ	-13351
ticle	-13352
rticle	-13353
ment	-13354
art	-13355
:16	-13356
'ተን	-13357
▁ፍንፉን	-13358
▁ፊሊ	-13359
▁ጽድቅኻ	-13360
▁ጻማ	-13361
▁ጸጕሪ	-13362
▁ጸዊዖም	-13363
▁ጴጥሮስን	-13364
▁ጭብጢ	-13365
▁ጥቕሲ፡	-13366
▁ጥራሕ'ዩ	-13367
▁ጓሶት	-13368
▁ጐይታኻ	-13369
▁ግን:	-13370
▁ጊልዓድ	-13371
▁ጉዕዞና	-13372
▁ገዲፍ	-13373
▁ድምጾም	-13374
▁ዳኒ	-13375
▁ዱር	-13376
▁ደወል	-13377
▁ይግብኣና።	-13378
▁ይዕድ	-13379
▁ይዀኑ	-13380
▁ይተሓ	-13381
▁ይብላ	-13382
▁ይቐርብ	-13383
▁የሱ	-13384
▁ዝፍጽ	-13385
▁ዝፍቀ	-13386
▁ዝወጻእ	-13387
▁ዝተዋህቦ	-13388
▁ዝረኣዩ	-13389
▁ዝዋ	-13390
▁ዝኽእሉ።	-13391
▁ዜልቦ	-13392
▁ዚትንስኡ፡	-13393
▁ዚግብኦ	-13394
▁ዚመር	-13395
▁ዘይንፈልጦ	-13396
▁ዘይብሎም፡	-13397
▁ዘይኣምኑ	-13398
▁ዘመን፡	-13399
▁ዘደንቕ	-13400
▁ዓይንና	-13401
▁ዓንቀጻት	-13402
▁ወደብ	-13403
▁ክፍታሕ	-13404
▁ክንሰ	-13405
▁ክንምሃር	-13406
▁ክንመውት	-13407
▁ክትመርጽ	-13408
▁ክብርኻ	-13409
▁ክብርታት	-13410
▁ክሳተፍ	-13411
▁ክዓቢ	-13412
▁ክቐር	-13413
▁ክስዕብ	-13414
▁ካድር	-13415
▁ኪሰምዑ	-13416
▁ከይፈለጥ	-13417
▁ከለው	-13418
▁ከዘ	-13419
▁እንተነበረ	-13420
▁እናበለት	-13421
▁ኣይነብርን	-13422
▁ኣይትፍርሁ	-13423
▁ኣይበለን።	-13424
▁ኣይረኸብኩን።	-13425
▁ኣይገደ	-13426
▁ኣየድልዮን	-13427
▁ኣትሒዘ	-13428
▁ኣርባዕተን	-13429
▁ኣማኢት	-13430
▁ኣለዎም፣	-13431
▁ኣለዎ!	-13432
▁ኣለካ?	-13433
▁ኢዳ	-13434
▁ንፕረ	-13435
▁ንደቁን	-13436
▁ንውሉድካ	-13437
▁ንኣመንቲ	-13438
▁ንበይኖም	-13439
▁ንምኽ	-13440
▁ንሰምዕ	-13441
▁ነብይ	-13442
▁ነህምያ	-13443
▁ነባር	-13444
▁ትወ	-13445
▁ትህ	-13446
▁ተፈጺሙ።	-13447
▁ተጻዋታይ	-13448
▁ተዛራ	-13449
▁ተኻይዱ።	-13450
▁ተኣከቡ።	-13451
▁ተቐማጦ	-13452
▁ተመሊሳ	-13453
▁ተልእኮ	-13454
▁ብፍሪኡ	-13455
▁ብግህዶ	-13456
▁ብዓቕ	-13457
▁ብኣኺ	-13458
▁ብሄራት	-13459
▁ብኅ	-13460
▁ብሳ	-13461
▁ቤተ-ክርስቲያን	-13462
▁ባህታ	-13463
▁ባጽዕ	-13464
▁ቢሮ	-13465
▁በእንተ	-13466
▁ስዕረት	-13467
▁ሳይንስ	-13468
▁ሳምንታት	-13469
▁ሰሪሕ	-13470
▁ሰለስቲኦም	-13471
▁ሰገዱ	-13472
▁ሰሓቕ	-13473
▁ርእሲ:	-13474
▁ሪፓ	-13475
▁ረኸበ።	-13476
▁ረጊ	-13477
▁ምውሳን	-13478
▁ምኵራብ	-13479
▁ምክያድ	-13480
▁ምንባብን	-13481
▁ምስታፍ	-13482
▁ምፅ	-13483
▁ምናዳ	-13484
▁ማማ	-13485
▁መዕቈቢ	-13486
▁መርሚ	-13487
▁ሕብረተ-ሰብ	-13488
▁ሓቂ፡	-13489
▁ሓሊፉ።	-13490
▁ሓሊፎም	-13491
▁ልማ	-13492
▁ለቢ	-13493
▁ሄን።	-13494
▁ሂቡና	-13495
▁ሂብዎም	-13496
▁and	-13497
▁Said	-13498
▁Said፣	-13499
▁2:2	-13500
▁1,000	-13501
▁-ኣብ	-13502
▁(ምሳሌ	-13503
▁"ዘ	-13504
▁"ሃ	-13505
ፍስ	-13506
ፀንሕ	-13507
ጠፈ	-13508
ደይን	-13509
ደልይዎ	-13510
ዘሮ	-13511
ውዖ	-13512
ውት።	-13513
ወልዲ	-13514
ኲሉ	-13515
ኮል	-13516
ከ?	-13517
እግሪ	-13518
ናትና	-13519
ናኦ	-13520
ናማ	-13521
ኃን	-13522
ቦታ	-13523
ብኹም	-13524
ባ፡	-13525
በጽሐ	-13526
ቕውም	-13527
ርጽ	-13528
ረጋገጽ	-13529
ረረ	-13530
ምኑ	-13531
ልፋ	-13532
ለውጢ	-13533
ለመን	-13534
ሃሃሉ።	-13535
▁ፍቑር	-13536
▁ፈቲነ	-13537
▁ጸዋዕታ	-13538
▁ጫማ	-13539
▁ጨናፍር	-13540
▁ጎዲ	-13541
▁ጌራ	-13542
▁ገበናት	-13543
▁ገደ	-13544
▁ገርካ	-13545
▁ድምጻ	-13546
▁ድግስ	-13547
▁ዲናር	-13548
▁ዮርክ	-13549
▁ይፍጽ	-13550
▁የልቦን፣	-13551
▁የገልግል	-13552
▁ዝገበርናዮ	-13553
▁ዝዀና	-13554
▁ዝበጽሑ	-13555
▁ዝቐር	-13556
▁ዝፈልጣ	-13557
▁ዝሰምዑ	-13558
▁ዚፈርሁ	-13559
▁ዚዝ	-13560
▁ዚእ	-13561
▁ዚተ	-13562
▁ዘይፈ	-13563
▁ዘሎ!	-13564
▁ዘዝ	-13565
▁ውልቀሰብ	-13566
▁ውዑይ	-13567
▁ወያኔ	-13568
▁ክንወ	-13569
▁ክንስ	-13570
▁ክትመውት	-13571
▁ክርስትያናት፡	-13572
▁ክማ	-13573
▁ከይኮነ	-13574
▁ከይመስ	-13575
▁ከውጽእ	-13576
▁ከምኣቶም	-13577
▁ከብል	-13578
▁እዚኣን	-13579
▁እዋን።	-13580
▁እንተኮይኑ	-13581
▁እንተለኹ	-13582
▁እትፈልጥ	-13583
▁ኤልሳቤጥ	-13584
▁ኤች	-13585
▁ኣገልገልቱ	-13586
▁ኣዴኻ	-13587
▁ኣይትረስዑ።	-13588
▁ኣይትፈልጦን	-13589
▁ኣይበልጽን	-13590
▁ኣይሁድ፡	-13591
▁ኣካላትና	-13592
▁ኣከኣብ	-13593
▁ኣእላ	-13594
▁ኣእላፋት	-13595
▁ኣንበጣ	-13596
▁ኣስተብህል።	-13597
▁ኣረጋዊ	-13598
▁ኣምላኸይ፡	-13599
▁ኣማሌ	-13600
▁ኣሎ፦	-13601
▁ኣላ፡	-13602
▁ኣራ	-13603
▁ኖህን	-13604
▁ንጸሊ	-13605
▁ንዝመጽእ	-13606
▁ንባዕልኻ	-13607
▁ንባርያ	-13608
▁ንቓለይ	-13609
▁ንቆልዑ	-13610
▁ንመብዛሕትኡ	-13611
▁ናይጀርያ	-13612
▁ናፃ	-13613
▁ትጽበ	-13614
▁ትህቡ	-13615
▁ቴሌ	-13616
▁ተዛረቦ።	-13617
▁ተኽእሎታት	-13618
▁ተበጊሱ	-13619
▁ተሰምዓኒ።	-13620
▁ተማሂርና	-13621
▁ብጾት	-13622
▁ብድሕርዚ	-13623
▁ብዚምልከት	-13624
▁ብዓመ	-13625
▁ብኸፊል	-13626
▁ብተፈጥሮ	-13627
▁ብቓሉ	-13628
▁ብ201	-13629
▁ብቴ	-13630
▁ባርያይ	-13631
▁በዘን	-13632
▁በት	-13633
▁ቖልዑ	-13634
▁ቆሮን	-13635
▁ቆል	-13636
▁ቁጽጽር	-13637
▁ቀሪቡ።	-13638
▁ሾሞንተ	-13639
▁ስዑዲ	-13640
▁ስርሓት	-13641
▁ስማት	-13642
▁ስሉ	-13643
▁ሰረት	-13644
▁ርእየ።	-13645
▁ረዳኢ	-13646
▁ምግላ	-13647
▁ምንጋር	-13648
▁ምትዕር	-13649
▁ሙሉ	-13650
▁መንነቱ	-13651
▁መኪ	-13652
▁መሶ	-13653
▁ሕብ	-13654
▁ሔዋን	-13655
▁ሓገዛት	-13656
▁ሓሙሽተን	-13657
▁ህቡብ	-13658
▁ሃዋ	-13659
▁ሃማን	-13660
▁ሃለዋ	-13661
▁--	-13662
▁(ግብ	-13663
▁"ነፍሲ	-13664
፧+	-13665
ፍያ	-13666
ፀም	-13667
ጸኒ	-13668
ጥሪ	-13669
ገይሽ	-13670
የኩም	-13671
ዝክ	-13672
ዋጋእ	-13673
ኵር።	-13674
ኵር	-13675
ኮሰ	-13676
ክንደይ	-13677
ከራ	-13678
እትዎ	-13679
ነበረን	-13680
ቴኹም	-13681
ተዋይ	-13682
ቈል	-13683
ሸባ	-13684
ስካሕ	-13685
ስዎ	-13686
ስትን	-13687
ሴት	-13688
ሰንብ	-13689
ሰርሕን	-13690
ሰሰ	-13691
ርኡ	-13692
ምሳል	-13693
ሙድ	-13694
ሒደት	-13695
ላእታ	-13696
ላዊት	-13697
ver	-13698
tu	-13699
-መንግስቲ	-13700
▁ፍቕዲ	-13701
▁ፍቑራት	-13702
▁ፈጺምና	-13703
▁ፈቒዱ	-13704
▁ፅሕፈት	-13705
▁ፀወታ	-13706
▁ጫካ	-13707
▁ጥንቃቐ	-13708
▁ጥሜትን	-13709
▁ጕድኣት	-13710
▁ገማ	-13711
▁ድምር	-13712
▁ዲኺ?	-13713
▁ደኣምበር	-13714
▁ይደልዩ።	-13715
▁ይብጻሕ	-13716
▁ይቕጽል።	-13717
▁የድልዮ።	-13718
▁የካይ	-13719
▁ዝፈቱ	-13720
▁ዝዓለመ	-13721
▁ዝዀነ፣	-13722
▁ዝተኣሳሰር	-13723
▁ዝተማ	-13724
▁ዝሓጸረ	-13725
▁ዝለኣኾ	-13726
▁ዘገልገል	-13727
▁ዘይእ	-13728
▁ዘቤታዊ	-13729
▁ዘለው።	-13730
▁ዘላትና	-13731
▁ዕምባ	-13732
▁ዓቅሚ	-13733
▁ዓለምለኸ	-13734
▁ውድድ	-13735
▁ዉሽጢ	-13736
▁ወጻእተኛታት	-13737
▁ወግሐ	-13738
▁ወድሰብ	-13739
▁ወዲቑ	-13740
▁ወረደ።	-13741
▁ኾን	-13742
▁ኸኣ፣	-13743
▁ኸተማን	-13744
▁ኮይና።	-13745
▁ኮይነን	-13746
▁ክትከፍ	-13747
▁ክመሃሩ	-13748
▁ክተርፍ	-13749
▁ካባኺ	-13750
▁ኪዛረቡ	-13751
▁ከምዝበሉ	-13752
▁ከምዘይት	-13753
▁ከምዘይብሉ	-13754
▁ከምተን	-13755
▁ከገልግል	-13756
▁ከሐ	-13757
▁እያ?	-13758
▁እንሃ፡	-13759
▁እንኸውን	-13760
▁እንካ	-13761
▁እንሀ	-13762
▁እነብር	-13763
▁እብል።	-13764
▁ኤውሮፓ	-13765
▁ኣዕብ	-13766
▁ኣወዳድ	-13767
▁ኣእምሮና	-13768
▁ኣተወ፡	-13769
▁ኣብርሃም፡	-13770
▁ኣብኦም	-13771
▁ኣብሪ	-13772
▁ኣሕሊፎም	-13773
▁ኣልኣዛርን	-13774
▁ኣጉ	-13775
▁ኣማዕ	-13776
▁ኢለዮ።	-13777
▁ኢለካ	-13778
▁ኢታ	-13779
▁ንፈልጥ?	-13780
▁ንዘርእ	-13781
▁ንወለዲ	-13782
▁ንወደይ	-13783
▁ንሳልሳይ	-13784
▁ንሰብኣያ	-13785
▁ንማርያም	-13786
▁ንሕይወት	-13787
▁ንሓድሕዱ	-13788
▁ንካ	-13789
▁ናዝሬት	-13790
▁ነገርዎም።	-13791
▁ነበር።	-13792
▁ትፅቢት	-13793
▁ተፈጠርና	-13794
▁ተግሳጽ	-13795
▁ተጋግ	-13796
▁ተምሃራይ	-13797
▁ተመልከት	-13798
▁ተሓጐሱ።	-13799
▁ብጾተይ	-13800
▁ብእተፈላለየ	-13801
▁ብእንግ	-13802
▁ብራዚል	-13803
▁ብምጽ	-13804
▁ብመጠኑ	-13805
▁ብሓፈሻ	-13806
▁ብልጫ	-13807
▁ብዕሊ	-13808
▁ብኹ	-13809
▁በሊሕ	-13810
▁ቋንቋን	-13811
▁ቅዳሕ	-13812
▁ቅዱስነቶም	-13813
▁ቀጺልና	-13814
▁ቀጸለ።	-13815
▁ቀጽሪ	-13816
▁ቀሊ	-13817
▁ሻውዐ	-13818
▁ሻውዐይቲ	-13819
▁ስርናይ	-13820
▁ስፖር	-13821
▁ስጕም	-13822
▁ሳዕቤኑ	-13823
▁ሰብኣየይ	-13824
▁ሰሓ	-13825
▁ሮም	-13826
▁ሮማውያን	-13827
▁ርስቱ	-13828
▁ረኺበ።	-13829
▁ሞይተ	-13830
▁ምንጻ	-13831
▁ምስኡ፡	-13832
▁ምስትውዓልን	-13833
▁ምምልላስ	-13834
▁ምኸ	-13835
▁ማእለያ	-13836
▁መጻምድቲ	-13837
▁መጥባሕቲ	-13838
▁መገዶም	-13839
▁መዳይ፡	-13840
▁መዓልትታት፡	-13841
▁መወዳ	-13842
▁ሕጊ፡	-13843
▁ሕዝበ	-13844
▁ሓጢያት	-13845
▁ሓተቶም።	-13846
▁ሓሲብ	-13847
▁ሓሰኻ	-13848
▁ሓርበኛ	-13849
▁ሌላ	-13850
▁ሃቦም	-13851
▁120	-13852
▁(እብ	-13853
▁'ወ	-13854
▁'I	-13855
▁"ገለ	-13856
▁"ሰባት	-13857
ፍቅሮም	-13858
ፈልየት	-13859
ፃሕ	-13860
ጽሕፈልኩም	-13861
ጥራ	-13862
ግቢ	-13863
ገርመካ	-13864
ገዛእ	-13865
ዶ!	-13866
የድ	-13867
ዉን።	-13868
ኛታትን	-13869
ትክ	-13870
ትል	-13871
ተጂ	-13872
ተሰ	-13873
ብርኻ	-13874
በሰ	-13875
ቐካ	-13876
ቁ።	-13877
ሽየጥ	-13878
ሶምን	-13879
ሪን	-13880
ሩባት	-13881
ምጥቃም	-13882
ልና፣	-13883
ህዮ	-13884
ሃድሙ	-13885
ሃብኩም	-13886
ሃሉ።	-13887
ሁል	-13888
'ለ	-13889
▁ፈስቲቫል	-13890
▁ፈሊጥካ	-13891
▁ጽዓር።	-13892
▁ጽውጽ	-13893
▁ጸዊዑ፡	-13894
▁ጸኒሖም።	-13895
▁ጸልማትን	-13896
▁ጸላእትኻ	-13897
▁ጥንታ	-13898
▁ግደፍ	-13899
▁ግን፣	-13900
▁ጊዜ፡	-13901
▁ገበርካ	-13902
▁ገጠ	-13903
▁ጀሚሩ፡	-13904
▁ድኽመ	-13905
▁ዲሞክራ	-13906
▁ደቂኣንስትዮ	-13907
▁ደቂቅ	-13908
▁ደላይ	-13909
▁ይገልጹ።	-13910
▁ይብል፡	-13911
▁ይምስክሩ	-13912
▁ይምህረና	-13913
▁ይምህር	-13914
▁ይሓስቡ	-13915
▁ዝኸበርካ	-13916
▁ዝተባ	-13917
▁ዝተርፍ	-13918
▁ዝተማህ	-13919
▁ዝብለና	-13920
▁ዝበሃል።	-13921
▁ዝግባ	-13922
▁ዝሰር	-13923
▁ዛዕባታት	-13924
▁ዛጊድ	-13925
▁ዘይፍጹማት	-13926
▁ዘርኡ	-13927
▁ዘሎ፣	-13928
▁ዘለውዎ	-13929
▁ዘተሓሳስ	-13930
▁ዕንባባ	-13931
▁ዕግርግር	-13932
▁ዓሌታዊ	-13933
▁ዒራቕ	-13934
▁ዋእ	-13935
▁ወጺአ	-13936
▁ወሰንኩ።	-13937
▁ወፊ	-13938
▁ዂላቶም	-13939
▁ዀን	-13940
▁ኽጽ	-13941
▁ኺዛረብ	-13942
▁ኸየ	-13943
▁ኮይንኩም	-13944
▁ኮንኩ	-13945
▁ክገዝኡ፡	-13946
▁ክዝክር	-13947
▁ክውንነት	-13948
▁ክንጥቀም	-13949
▁ክንህብ	-13950
▁ክትጠፍእ	-13951
▁ክትገብሪ	-13952
▁ክታበታት	-13953
▁ክስተት	-13954
▁ክርስቲ	-13955
▁ክለዓል	-13956
▁ካለ	-13957
▁ኪኣቱ	-13958
▁ኪሓ	-13959
▁ከፊቱ	-13960
▁ከምዝኾ	-13961
▁ከምዝኸ	-13962
▁ከምዝነበሩ	-13963
▁ከምዘለካ	-13964
▁እግርኻ	-13965
▁እዩ፧'	-13966
▁እየ፥	-13967
▁እንተለ	-13968
▁እናነ	-13969
▁እትኸይድ	-13970
▁እቲአን፡	-13971
▁እቕ	-13972
▁ኣፍቀ	-13973
▁ኣፈፃፅ	-13974
▁ኣገላል	-13975
▁ኣይኰንኩን።	-13976
▁ኣይከኣልናን።	-13977
▁ኣይነበራን።	-13978
▁ኣይትኺ	-13979
▁ኣይፈልጦ	-13980
▁ኣይጸን	-13981
▁ኣየድልዮ	-13982
▁ኣየስተ	-13983
▁ኣእምሮኦም	-13984
▁ኣንቀ	-13985
▁ኣተዉ	-13986
▁ኣብር	-13987
▁ኣባልነት	-13988
▁ኣበርቲ	-13989
▁ኣቐምጥ	-13990
▁ኣርኪ	-13991
▁ኣረጋውያን	-13992
▁ኣሕዲ	-13993
▁ኣጥር	-13994
▁አሎ፡	-13995
▁ንጥፈት	-13996
▁ንዘለዎ	-13997
▁ንኽትገብር	-13998
▁ንእምነት	-13999
▁ንጳውሎስ	-14000
▁ነገስታትን	-14001
▁ነዘ	-14002
▁ነንብ	-14003
▁ቶማስ	-14004
▁ትኾኑ።	-14005
▁ትዓቢ	-14006
▁ተዘርዚ	-14007
▁ተነቢሩ	-14008
▁ተዝ	-14009
▁ብጾቱ	-14010
▁ብዛዕብ	-14011
▁ቢራ	-14012
▁በሉ፡	-14013
▁ስርሒት	-14014
▁ስሕተት	-14015
▁ስቴ	-14016
▁ስላሴ	-14017
▁ሳኦልን	-14018
▁ሰብ'ውን	-14019
▁ሰለስተን	-14020
▁ረአይዎ	-14021
▁ረዚ	-14022
▁ሞይቶም።	-14023
▁ምድላዋት	-14024
▁ምድቃስ	-14025
▁ምዕራፋት	-14026
▁ምውህሃድ	-14027
▁ምውላድ	-14028
▁ምትእትታው	-14029
▁ምርድዳእ	-14030
▁ማዕከናት	-14031
▁ማስክ	-14032
▁መንጎኹምን	-14033
▁መብልዕ	-14034
▁መሸጣ	-14035
▁መስኪ	-14036
▁መመላእታ	-14037
▁ሓፍተይን	-14038
▁ሓደ፡	-14039
▁ሓበን	-14040
▁ልባዊ	-14041
▁ልሳ	-14042
▁ሃሌ	-14043
▁150	-14044
▁'ምስ	-14045
▁"ል	-14046
፡*	-14047
ፒክ	-14048
ፍትሒ	-14049
ፈርዶም	-14050
ፈራ	-14051
ፆም	-14052
ጸልማት	-14053
ጸር።	-14054
ጠሩ።	-14055
ጋጣሚ	-14056
ጋገዝ	-14057
ገስ።	-14058
ጀመረ	-14059
ድኦ	-14060
ዳእ።	-14061
ዲቑ	-14062
ዮርክ	-14063
ያብ	-14064
ዘና	-14065
ዓቕ	-14066
ዉስ	-14067
ኰነን	-14068
ኣባላት	-14069
አ፡	-14070
ተፈጥረ	-14071
ተወል	-14072
በት፡	-14073
ቖም።	-14074
ቅብ	-14075
ቃንን	-14076
ሻዕ	-14077
ስኪ	-14078
ሰለት	-14079
ርድኦም	-14080
ርትግ	-14081
ርስተይዋ	-14082
ርፎ	-14083
ርታ	-14084
ረኽቡ።	-14085
ምርማር	-14086
መስሎ	-14087
መሉ።	-14088
ሕልላፍ	-14089
ሓዘት	-14090
ልካዮ	-14091
ልእከ	-14092
ሌና	-14093
ላእከ	-14094
ook	-14095
ng	-14096
-17)	-14097
▁ፕሬዚደንት	-14098
▁ፌደራል	-14099
▁ጽምኢ	-14100
▁ጸብጻብ፡	-14101
▁ጥዒ	-14102
▁ጠፊኡ።	-14103
▁ጐይታ፡	-14104
▁ግዜያት	-14105
▁ገዲፎም	-14106
▁ገይሮም።	-14107
▁ገማግም	-14108
▁ገጸ	-14109
▁ዶር.	-14110
▁ደረጃታት	-14111
▁ደኾን	-14112
▁ዮሐ	-14113
▁ይነብሩ።	-14114
▁ይርከባ።	-14115
▁ይመጽእ።	-14116
▁ይጥቀም	-14117
▁ይጅምር	-14118
▁ይዓዪ	-14119
▁ይዋ	-14120
▁ይበልዕ	-14121
▁ይል	-14122
▁የብልኩምን	-14123
▁የሩሳሌም፡	-14124
▁የለዉ	-14125
▁ዝደለኹ	-14126
▁ዝወርድ	-14127
▁ዝኸበደ	-14128
▁ዝተሰር	-14129
▁ዝሰማዕናዮ	-14130
▁ዝመስለኒ።	-14131
▁ዝሓስብ	-14132
▁ዝመርሕ	-14133
▁ዚመውት	-14134
▁ዙር	-14135
▁ዘይው	-14136
▁ዘርግ	-14137
▁ዘምጽእ	-14138
▁ዘሕለፍ	-14139
▁ዘገልግል	-14140
▁ዘወ	-14141
▁ዘተሓ	-14142
▁ዘረጋግጽ	-14143
▁ዕቡ	-14144
▁ዓድዋ	-14145
▁ዓየይቲ	-14146
▁ዓረ	-14147
▁ውሳኔታት	-14148
▁ውጻእ	-14149
▁ዋሕስ	-14150
▁ወአ	-14151
▁ወራሲ	-14152
▁ኻብታ	-14153
▁ኸደ፡	-14154
▁ክንድ'ዚ	-14155
▁ክነግር	-14156
▁ክትቅበል	-14157
▁ክምዝ	-14158
▁ክሕደት	-14159
▁ክዛረበ	-14160
▁ክዋ	-14161
▁ክርእይዎ	-14162
▁ኬድሕን	-14163
▁ኪሰፍን	-14164
▁ከይፈ	-14165
▁ከኣ።	-14166
▁ከካብ	-14167
▁ከርእየካ	-14168
▁እንኽእል።	-14169
▁እንብሎ	-14170
▁እናወሰኸ	-14171
▁እናጠመ	-14172
▁እናዓበየ	-14173
▁እትብሎ	-14174
▁እተው	-14175
▁እመስለኒ።	-14176
▁እሾ	-14177
▁ኤርትራ፡	-14178
▁ኣዴታት	-14179
▁ኣይትግበሩ	-14180
▁ኣይትረስዑ	-14181
▁ኣይፈለ	-14182
▁ኣይግደ	-14183
▁ኣይው	-14184
▁ኣዚዙ	-14185
▁ኣቦታቱ	-14186
▁ኣብሊጹ	-14187
▁ኣብቂ	-14188
▁ኣሚንካ	-14189
▁ኣሎ'	-14190
▁ኣለና?	-14191
▁ኣቤት	-14192
▁ኣማን	-14193
▁ኢኽን።	-14194
▁ኢዚ	-14195
▁አይክአ	-14196
▁አሎና	-14197
▁ንጽህና	-14198
▁ንጓል	-14199
▁ንድኅ	-14200
▁ንደገ	-14201
▁ንውሉዳ	-14202
▁ንእኩ	-14203
▁ንነገራት	-14204
▁ንመላእ	-14205
▁ንህይወትካ	-14206
▁ንጥፍ	-14207
▁ንጕ	-14208
▁ንጊ	-14209
▁ነይሩ፤	-14210
▁ትብለኒ	-14211
▁ትገብር።	-14212
▁ትክእል	-14213
▁ትብ	-14214
▁ትርእዮ	-14215
▁ተግባራቶም	-14216
▁ተኽለ	-14217
▁ተሪፉ።	-14218
▁ተረፈ።	-14219
▁ተሌፎ	-14220
▁ብጽድቂ	-14221
▁ብድኅ	-14222
▁ብዓብዪ	-14223
▁ብኣፍ	-14224
▁ብኢዱ	-14225
▁ብረታዊ	-14226
▁ቤት-ልሄም	-14227
▁ቢቢሲ፡	-14228
▁ቢሉ	-14229
▁ቕድስቲ	-14230
▁ቍጠባዊ	-14231
▁ስምዒታዊ	-14232
▁ስሚዒ	-14233
▁ስለዝኾኑ	-14234
▁ስዋ	-14235
▁ሰባት'ውን	-14236
▁ሰሚር።	-14237
▁ሰላማ	-14238
▁ምፍታን	-14239
▁ምሽት	-14240
▁ምስ'ቲ	-14241
▁ምህላወይ	-14242
▁ምጥር	-14243
▁ምኻን	-14244
▁ምኳኑ	-14245
▁ሙቐት	-14246
▁መጺኤ	-14247
▁መዕቆቢ	-14248
▁መንፈሳውያን	-14249
▁መን'ዮም	-14250
▁መርሃ	-14251
▁መራኽብ	-14252
▁መልስታት	-14253
▁መሻ	-14254
▁ሓሳብካ	-14255
▁ሓመ	-14256
▁ልዑላዊ	-14257
▁ለብ	-14258
▁ህዝቅያስ	-14259
▁ህውከት	-14260
▁ህግደ	-14261
▁ሃም	-14262
▁www.	-14263
▁(እዚ	-14264
▁(ግ	-14265
▁(እን	-14266
▁"ካብዚ	-14267
▁"ሓቂ	-14268
፣"	-14269
ፈትሓ	-14270
ፈተልኩም	-14271
ጭሮ	-14272
ጠብ	-14273
ጠል	-14274
ድሕንን	-14275
ዳፍ	-14276
ዳኡ	-14277
ዲሽ	-14278
ደዱ	-14279
ዮብ	-14280
ይኡ	-14281
ያነ	-14282
ዓዮ።	-14283
ዓረ	-14284
ኻዮን	-14285
ክዎ፡	-14286
ክል።	-14287
ካድነጻር	-14288
እንተኾነ	-14289
ኣል።	-14290
ኣልና	-14291
አን።	-14292
ንያን	-14293
ቶሪ	-14294
ትያት	-14295
ተትቲ	-14296
ተኒ	-14297
ተመስ	-14298
ብርሃን	-14299
ቢሲ	-14300
ቃወም	-14301
ሸይ	-14302
ስ፣	-14303
ሲካ	-14304
ሰምዓኒ	-14305
ሰዱ	-14306
ርዙይ	-14307
ረያ	-14308
ማንን	-14309
ሙስ	-14310
መሓየሸ	-14311
ሓቕ።	-14312
ሉ፦	-14313
ለፎን	-14314
ለድን	-14315
ሃቦ።	-14316
ሂወት	-14317
ri	-14318
ere	-14319
as	-14320
▁ፍሉያት	-14321
▁ፀዋታ	-14322
▁ፀብ	-14323
▁ጽዮን፡	-14324
▁ጸጋታት	-14325
▁ጨረ	-14326
▁ጊዴ	-14327
▁ገበረሉ።	-14328
▁ድኹማት	-14329
▁ደጋጊሙ	-14330
▁ደልየ።	-14331
▁ደጌ	-14332
▁ደመይ	-14333
▁ይፍጠር	-14334
▁ይኹን፣	-14335
▁ይኣምኑ።	-14336
▁ይመለስ።	-14337
▁ይጠቕ	-14338
▁ይገድ	-14339
▁ይርእዮ	-14340
▁ይምሕ	-14341
▁የኽ	-14342
▁ዝወደቐ	-14343
▁ዝተሓላለ	-14344
▁ዝተነግረ	-14345
▁ዝተቀ	-14346
▁ዝስራሕ	-14347
▁ዝርኤ	-14348
▁ዝሃብካኒ	-14349
▁ዝጠመ	-14350
▁ዝግደ	-14351
▁ዝህበካ	-14352
▁ዘጸግም	-14353
▁ዘይከኣሉ	-14354
▁ዘይር	-14355
▁ዕምባባ	-14356
▁ዕላማታት	-14357
▁ዕላማን	-14358
▁ዕላዊ	-14359
▁ዓለባ	-14360
▁ዓበየ	-14361
▁ውቅያ	-14362
▁ወሲድ	-14363
▁ወሊድ	-14364
▁ወርትግ	-14365
▁ኽርኢ	-14366
▁ኻብዞም	-14367
▁ኰንኩ	-14368
▁ኮይኑ'ዩ	-14369
▁ኮንኩም	-14370
▁ኮለል	-14371
▁ክንሕግዘካ	-14372
▁ክትበልዕ	-14373
▁ክደ	-14374
▁ክውስ	-14375
▁ክዀኑ	-14376
▁ክላ	-14377
▁ኪኾነ	-14378
▁ኩሉና	-14379
▁ከጽን	-14380
▁ከናፍ	-14381
▁እዋእ	-14382
▁እንከለኻ	-14383
▁እንተዄ	-14384
▁እንተቐ	-14385
▁እንረኽቦ	-14386
▁እተመር	-14387
▁እተላዕለ	-14388
▁እስራኤል፣	-14389
▁እስያ	-14390
▁ኤን	-14391
▁ኤምባሲ	-14392
▁ኣጽኒዑ	-14393
▁ኣጸቢቖም	-14394
▁ኣጋጢምዎ	-14395
▁ኣጋጠ	-14396
▁ኣጋንን	-14397
▁ኣዴና	-14398
▁ኣይፋሉን	-14399
▁ኣይተራእየን።	-14400
▁ኣውጺኡ	-14401
▁ኣእምሮኻ	-14402
▁ኣትየ።	-14403
▁ኣቲና	-14404
▁ኣቀራርባ	-14405
▁ኣስማቱ	-14406
▁ኣምላኻዊ	-14407
▁ኣለዉና።	-14408
▁ኣሃዝ	-14409
▁ኢኹም'	-14410
▁ኢልዎ።	-14411
▁ኢልና	-14412
▁ንኻልኣይ	-14413
▁ንሳቶምውን	-14414
▁ንሰብኣይ	-14415
▁ንሙሴ፡	-14416
▁ንመወዳእታ	-14417
▁ንሕግ	-14418
▁ንሕቶ	-14419
▁ንቁ	-14420
▁ንሲ	-14421
▁ናይ'ታ	-14422
▁ናሕ	-14423
▁ነቢያትን	-14424
▁ነፊ	-14425
▁ትግረ	-14426
▁ትሑታት	-14427
▁ታሕጓስ	-14428
▁ተፈጢሮም።	-14429
▁ተፈሪ	-14430
▁ተጓዓዝ	-14431
▁ተደፍ	-14432
▁ተዛዚ	-14433
▁ተዋሂቡኒ	-14434
▁ተኣሲሮም	-14435
▁ተንሲኦም	-14436
▁ተባዕትዮን	-14437
▁ተሪፋ	-14438
▁ተነግ	-14439
▁ብዛዕባዚ	-14440
▁ብዙሕ'ዮ	-14441
▁ብዕም	-14442
▁ብስነ	-14443
▁ብመገድ	-14444
▁ብሄራዊ	-14445
▁ባይደን	-14446
▁ቃላቱ	-14447
▁ስጉም	-14448
▁ርሕራ	-14449
▁ርሑቅ	-14450
▁ረዚን	-14451
▁ረኣኹ።	-14452
▁ምጽሓፍን	-14453
▁ምድብ	-14454
▁ምዕባለታት	-14455
▁ምኽባር	-14456
▁ምንባሮም	-14457
▁ምሕረትካ	-14458
▁ምሕረትን	-14459
▁ማእኸላይ	-14460
▁ማለትካ	-14461
▁መጺኦም።	-14462
▁መበቆል	-14463
▁መለሱሉ።	-14464
▁ሕው	-14465
▁ሓተታ	-14466
▁ሓቁ	-14467
▁ህንጻታት	-14468
▁ሂወቶም	-14469
▁[1	-14470
▁No	-14471
▁1998	-14472
▁1:3	-14473
▁"ክሳዕ	-14474
▁"ቤት	-14475
ፍርን	-14476
ፍሒ	-14477
ፅኡ	-14478
ፃር	-14479
ጽውዓ	-14480
ጽህ	-14481
ጥቀመሉ።	-14482
ጥቀስ	-14483
ጋይ	-14484
ጀር	-14485
ድም።	-14486
የሎም	-14487
ዕወት	-14488
ውሑድ	-14489
ዋቲ	-14490
ኻር	-14491
ኵሮ	-14492
ትም	-14493
ብዝ	-14494
ብሮ	-14495
በረሎም	-14496
ሽኡ	-14497
ርእየና	-14498
ሬን	-14499
ራትካ	-14500
ምርምሮ	-14501
ምጽኡ	-14502
ምታይ	-14503
ማኑ	-14504
ሙ፣	-14505
መስገ	-14506
ሕትኦም	-14507
ሑ፡	-14508
ልምኖ	-14509
ላዕለዋይ	-14510
ላምን	-14511
ለክ	-14512
ለታት	-14513
ሃራ	-14514
en:	-14515
-ሓ	-14516
-5	-14517
'ኡ	-14518
▁ፕረዚ	-14519
▁ፎቶ	-14520
▁ፈደራ	-14521
▁ጸላእትና	-14522
▁ጸግ	-14523
▁ጸር	-14524
▁ጭካ	-14525
▁ጥራይ፡	-14526
▁ጠውቑ	-14527
▁ጎንጺ	-14528
▁ግዜ'ቲ	-14529
▁ግልፂ	-14530
▁ደሊኻ?	-14531
▁ደለኹ።	-14532
▁ደዪ	-14533
▁ደበ	-14534
▁ዮውሃንስ	-14535
▁ይፈትዎ	-14536
▁ይወስዶ።	-14537
▁ይምዕ	-14538
▁የሩሳሌምን	-14539
▁ዞባዊ	-14540
▁ዝነብረሉ	-14541
▁ዝነው	-14542
▁ዝመፀ	-14543
▁ዝግለ	-14544
▁ዝዛረብ።	-14545
▁ዛንታታት	-14546
▁ዚፈልጦ	-14547
▁ዚከኣል	-14548
▁ዚኣቱ	-14549
▁ዚቕጽል	-14550
▁ዚህ	-14551
▁ዙፋን	-14552
▁ዘድልየኒ	-14553
▁ዘመልክት	-14554
▁ዕዉራት	-14555
▁ዓብየ።	-14556
▁ወዲ-ሰብ	-14557
▁ወሲነ።	-14558
▁ወረደ	-14559
▁ወ/ሮ	-14560
▁ኽትከይድ	-14561
▁ኽትረኽቡ	-14562
▁ኺመውት	-14563
▁ኸንቱ	-14564
▁ኸ?	-14565
▁ኮሌ	-14566
▁ክኸውን።	-14567
▁ክትፍጽም	-14568
▁ክትግ	-14569
▁ክትመላለስ	-14570
▁ክልው	-14571
▁ክገልጸ	-14572
▁ከምዝገብሩ	-14573
▁ከምእ	-14574
▁ከምን	-14575
▁ከዱ	-14576
▁እግዚኣብሔርን	-14577
▁እኩብ	-14578
▁እንድያ	-14579
▁እንዳበሉ	-14580
▁እንተኾንኩ'ውን	-14581
▁እንተው	-14582
▁እናመ	-14583
▁እትርእዮ	-14584
▁እተባህለ	-14585
▁እስራኤላዊ	-14586
▁እምነትኩም	-14587
▁እምብኣ	-14588
▁እዃ	-14589
▁ኣጋጢሙ?	-14590
▁ኣይኪህሉን	-14591
▁ኣይትር	-14592
▁ኣተንሲ	-14593
▁ኣብኔር	-14594
▁ኣቓሑ	-14595
▁ኣማራጺታት	-14596
▁ኣሕዋትና፡	-14597
▁ኣሕወ	-14598
▁ኣሎኹም	-14599
▁ኢኩም።	-14600
▁ኢሜ	-14601
▁ንጥቕ	-14602
▁ንግዳዊ	-14603
▁ንገሮም።	-14604
▁ንዝደለ	-14605
▁ንዕድመ	-14606
▁ንዓኣቶም	-14607
▁ንዓበይቲ	-14608
▁ንኽንደይ	-14609
▁ንእስነቱ	-14610
▁ንስመይ	-14611
▁ንሳኦል	-14612
▁ንሰማያት	-14613
▁ንምት	-14614
▁ንፈተ	-14615
▁ነይረ"	-14616
▁ነንሕድሕድና	-14617
▁ነዓይ	-14618
▁ኃጥኣን	-14619
▁ትብል?	-14620
▁ትኹን።	-14621
▁ተፈጥሮኣዊ	-14622
▁ተኣሲሩ	-14623
▁ተነጺ	-14624
▁ተመለሱ	-14625
▁ተገልጸ	-14626
▁ብጹዓን	-14627
▁ብኽያት	-14628
▁ብምድሪ	-14629
▁ብድን	-14630
▁ባጤ	-14631
▁በዓለ	-14632
▁ቍርባን	-14633
▁ሽቶ	-14634
▁ሶርያውያን	-14635
▁ስንክልና	-14636
▁ስቕታ	-14637
▁ስምኦን	-14638
▁ሲም	-14639
▁ሰሚናር	-14640
▁ሰሎሞ	-14641
▁ሰላሳን	-14642
▁ሰተ	-14643
▁ርኤኹ።	-14644
▁ርኣዩ	-14645
▁ሩሲ	-14646
▁ረኽ	-14647
▁ምድሮም	-14648
▁ምትርጓ	-14649
▁ምስጢራት	-14650
▁ምሩጻት	-14651
▁ማሪያም	-14652
▁ማሕተም	-14653
▁መጺኡ፡	-14654
▁መድሃኒ	-14655
▁መኽሰብ	-14656
▁መብዛሕቶም	-14657
▁መልሰ	-14658
▁ሕጂስ	-14659
▁ሓጥያ	-14660
▁ሓሳቦም	-14661
▁ሓሲቡ	-14662
▁ሓለፈ	-14663
▁ሓሶ	-14664
▁ሒዝዎ	-14665
▁ልሳን	-14666
▁ለመኖ።	-14667
▁ለኣ	-14668
▁ህግደፋ	-14669
▁ሃገርኩም	-14670
▁ሂብና	-14671
▁sid	-14672
▁7.	-14673
▁1991	-14674
▁..."	-14675
▁"እግዚኣብሔር	-14676
▁"ነታ	-14677
ፈንጠራ	-14678
ፈትሐ	-14679
ፈርሕ	-14680
ጣ።	-14681
ጠጥ	-14682
ጎኒ	-14683
ጋግ	-14684
ዶኸ	-14685
ድኡና	-14686
ድርኸ	-14687
ድዮም	-14688
ዳእቲ	-14689
ዲያ	-14690
ዪ።	-14691
ዛረብን	-14692
ዒንቲ	-14693
ኽል	-14694
ኩን"	-14695
ከታተሎ	-14696
እትወ	-14697
እዎን	-14698
ኣንን።	-14699
ኣርግ	-14700
ነዚ	-14701
ነበሮ	-14702
ትዮም።	-14703
ትንሥእ	-14704
ታሕጓስ	-14705
ተኣማመን	-14706
ቡን።	-14707
ሰተ	-14708
ርናዮ	-14709
ረልካ	-14710
መረት	-14711
መላ	-14712
ሕልፉ	-14713
ሓፍር	-14714
ሎሴ	-14715
ለቱ	-14716
so	-14717
rit	-14718
di	-14719
ber	-14720
,500	-14721
,,	-14722
▁ፈለጠ	-14723
▁ፈቃ	-14724
▁ፈራህ	-14725
▁ፃዕሪ	-14726
▁ጸብሒ	-14727
▁ጣብያ	-14728
▁ጠነሰት	-14729
▁ጓይላ	-14730
▁ጐይታኹም	-14731
▁ግብጻዊ	-14732
▁ግብሮም	-14733
▁ግሲ	-14734
▁ደጊማ	-14735
▁ደድሕሪኦም	-14736
▁ደዀን	-14737
▁ይፈልጥዎ	-14738
▁ይጽው	-14739
▁ይጽዋዕ።	-14740
▁ይነግረና	-14741
▁ይነድድ	-14742
▁ይጭ	-14743
▁ይጥም	-14744
▁ይብሎም	-14745
▁ይበጽሕ	-14746
▁ይላ	-14747
▁ያኢ	-14748
▁የብሉን፡	-14749
▁ዝዓበየት	-14750
▁ዝኸፍእ	-14751
▁ዝኣመኑ	-14752
▁ዝተወሰኑ	-14753
▁ዝተኣሳሰረ	-14754
▁ዝበጽሐ	-14755
▁ዝቖመ	-14756
▁ዝረኣይ	-14757
▁ዝመጻእካ	-14758
▁ዝገርመኒ	-14759
▁ዝሕግዙ	-14760
▁ዜጠቓልል	-14761
▁ዘይግ	-14762
▁ዘመኑ	-14763
▁ዓይነ	-14764
▁ውርሻ	-14765
▁ውልቀሰባት	-14766
▁ውሉዳ	-14767
▁ዋላ'ውን	-14768
▁ዋኒን	-14769
▁ወይዘሮ	-14770
▁ወተሃደር	-14771
▁ወብሳይት	-14772
▁ወሲነ	-14773
▁ወሰነ።	-14774
▁ወኢ	-14775
▁ወበ	-14776
▁ኽወ	-14777
▁ኻህ	-14778
▁ኵልና	-14779
▁ኲነታት	-14780
▁ኰይኑ፡	-14781
▁ክወርድ	-14782
▁ክኽፈት	-14783
▁ክንዕወት	-14784
▁ክንድሕን	-14785
▁ክሳድ	-14786
▁ክጸንሑ	-14787
▁ክጥቀመሉ	-14788
▁ኬጋጥ	-14789
▁ካልኣይን	-14790
▁ካሜ	-14791
▁ኩባ	-14792
▁ከተለ	-14793
▁እፈልጦም	-14794
▁እንከላ	-14795
▁እንተኾኑ	-14796
▁እናገበር	-14797
▁እተመስረተ	-14798
▁እተሓት	-14799
▁እስማ	-14800
▁እምነታት	-14801
▁እኸውን	-14802
▁ኣገልጊ	-14803
▁ኣይክኣል	-14804
▁ኣይክህሉን	-14805
▁ኣይትፍርሂ	-14806
▁ኣይትጸውዕ	-14807
▁ኣይትሕተ	-14808
▁ኣይፍ	-14809
▁ኣንባቢ	-14810
▁ኣትሪ	-14811
▁ኣረዲ	-14812
▁ኣሞራውያን	-14813
▁ኣሕዋቶም	-14814
▁ኣሎ፧"	-14815
▁ኣለኻ፧"	-14816
▁ኣጻብ	-14817
▁ኢሎም፡	-14818
▁ኢለ፡	-14819
▁ኢንግ	-14820
▁ኢመይል	-14821
▁አለኹ	-14822
▁ንጽቡቕ	-14823
▁ንገላዉ	-14824
▁ንድኅሪት	-14825
▁ንዅላቶም	-14826
▁ንኣኡ	-14827
▁ንስማዕ።	-14828
▁ንሰበይቲ	-14829
▁ንምቕ	-14830
▁ንመርምር።	-14831
▁ንመዓል	-14832
▁ንሕሰብ።	-14833
▁ንካልኣይ	-14834
▁ንረክብ።	-14835
▁ንሞ	-14836
▁ናእሽቱ	-14837
▁ነፍቅ	-14838
▁ነጋዶ	-14839
▁ነገር'ዩ።	-14840
▁ትፈልጡ?	-14841
▁ትዕቢ	-14842
▁ትርፊ	-14843
▁ትምህርቱ	-14844
▁ትርእይዎ	-14845
▁ተጠቒሶም	-14846
▁ተዋሒ	-14847
▁ተወፋይ	-14848
▁ተሳኢ	-14849
▁ተሓተትቲ	-14850
▁ተካ	-14851
▁ብጾትና	-14852
▁ብእንግሊዘኛ	-14853
▁ብእም	-14854
▁ብቓላት	-14855
▁ብምሕሳብ	-14856
▁ብሓያል	-14857
▁ብሓሳ	-14858
▁ባሕረ	-14859
▁ባሕቲ	-14860
▁ቓልሲ	-14861
▁ቐደም	-14862
▁ቅቡኣት	-14863
▁ሽበራ	-14864
▁ሻድሻይ	-14865
▁ስነጥ	-14866
▁ስለዝተ	-14867
▁ስለምንታይ'ዩ	-14868
▁ስለምታይ	-14869
▁ሳጹን	-14870
▁ሰባ	-14871
▁ርእያ	-14872
▁ርድኣ	-14873
▁ርኡይ	-14874
▁ራሄል	-14875
▁ረኸበ	-14876
▁ሞሳ	-14877
▁ምፍታሕ	-14878
▁ምእንታይ	-14879
▁ምንቅስቓሳት	-14880
▁ምቅይ	-14881
▁ምሥጢ	-14882
▁ምኳ	-14883
▁ምሓ	-14884
▁መጻወቲ	-14885
▁መጸዋዕታ	-14886
▁መዝሙሩ	-14887
▁ሕድሕድ	-14888
▁ሕ.	-14889
▁ሓያልን	-14890
▁ሓሊፈ	-14891
▁ሎምን	-14892
▁ላይክ	-14893
▁ለምን	-14894
▁ህር	-14895
▁ሃዋርያትን	-14896
▁ሃበ።	-14897
▁ሃሎ	-14898
▁ሃልዩ	-14899
▁[1]	-14900
▁Con	-14901
▁Com	-14902
▁600	-14903
▁4:2	-14904
▁4)	-14905
▁2002	-14906
▁(ራእይ	-14907
▁"እም	-14908
▁"መንፈስ	-14909
▁"ክርስቶስ	-14910
ፍቅሪ	-14911
ፁም	-14912
ጢፋኖስ	-14913
ጐዓዝ	-14914
ግዚኡ	-14915
ግፉ	-14916
ጌራ	-14917
ጊሙ	-14918
ገዛ	-14919
ዶካይ	-14920
ዳንኤል	-14921
ዳሰ	-14922
ይካ	-14923
ዝስ	-14924
ዛተ	-14925
ዓለ።	-14926
ዓተን	-14927
ውድሰካ	-14928
ውዕሉ።	-14929
ውተር	-14930
ወጽእን	-14931
ኸፍ	-14932
ክብሪ	-14933
ክሲኮ	-14934
ክዎን	-14935
ከተማ	-14936
ኣተን	-14937
ንጥ	-14938
ን-	-14939
ናውያንን	-14940
ናትካ	-14941
ኒውን	-14942
ነግረና	-14943
ነበርኩ	-14944
ትንስኡ	-14945
ባራ	-14946
ቕ፡	-14947
ቐትሉ	-14948
ሻት	-14949
ስካሕክሕ	-14950
ሴን	-14951
ሰሩ	-14952
ሮኒካዊ	-14953
ርድኦን	-14954
ርትኻ	-14955
ርዎም።	-14956
ርሐይ	-14957
ራማት	-14958
ሪሕ	-14959
ምዝገብ	-14960
ምርዓው	-14961
ማዕብል	-14962
ማጥ	-14963
ሓላለፍ	-14964
ሓንስ	-14965
ላንድን	-14966
ሊዩ	-14967
ለባ	-14968
ሃገራዊ	-14969
ll	-14970
/ት	-14971
'ሞ፡	-14972
'ምበር፡	-14973
'ሉ	-14974
▁ፖለቲከ	-14975
▁ፍርድን	-14976
▁ፍጹማት	-14977
▁ፍጹ	-14978
▁ፈረደ።	-14979
▁ፈላሚ	-14980
▁ጸኒዑ	-14981
▁ጸሊ።	-14982
▁ጨደ	-14983
▁ጥብቂ	-14984
▁ጐይታየ፣	-14985
▁ግብርታትካ	-14986
▁ድንኳ	-14987
▁ድሕሪ'ቲ	-14988
▁ዳሕረይቲ	-14989
▁ደይኰነን	-14990
▁ደርበዮም።	-14991
▁ደሊና	-14992
▁ደሞክራስያዊ	-14993
▁ይኽእሉ'ዮም።	-14994
▁ይሐይሽ	-14995
▁ይኣክል	-14996
▁ይምል	-14997
▁የጠቓልል።	-14998
▁የካ	-14999
▁የምጽእ	-15000
▁የሐጕ	-15001
▁ዝኣኽሉ	-15002
▁ዝተጠቐ	-15003
▁ዝበለጸት	-15004
▁ዝምድናታት	-15005
▁ዝጥቀም	-15006
▁ዝጠፍእ	-15007
▁ዝጠቕ	-15008
▁ዝገል	-15009
▁ዝረክብ	-15010
▁ዝህበና	-15011
▁ዜፍቅር	-15012
▁ዜኽእ	-15013
▁ዛዚ	-15014
▁ዚፍ	-15015
▁ዚግለ	-15016
▁ዚኣም	-15017
▁ዘፍርሕ	-15018
▁ዘይነበሮ	-15019
▁ዘይጠቅም	-15020
▁ዘየድሊ	-15021
▁ዘካርያስ	-15022
▁ዘገልግ	-15023
▁ዕጡቓት	-15024
▁ዕላማና	-15025
▁ዓጽሚ	-15026
▁ዓረገ	-15027
▁ዋንነት	-15028
▁ዋህዮ	-15029
▁ወግዒ	-15030
▁ወይድማ	-15031
▁ዀኑ፡	-15032
▁ኾይኑ፡	-15033
▁ኽልቲ	-15034
▁ኺረክብ	-15035
▁ኸተውጽኣ	-15036
▁ኵነት	-15037
▁ኰንካ	-15038
▁ኮንግ	-15039
▁ክኾና	-15040
▁ክንእ	-15041
▁ክትባት	-15042
▁ክትቀ	-15043
▁ክመልሰ	-15044
▁ክጻወት	-15045
▁ክበር	-15046
▁ክሰምዖ	-15047
▁ኬብሮን	-15048
▁ካብዘን	-15049
▁ኪዳኑ	-15050
▁ኩቡር	-15051
▁ከፊሉ	-15052
▁ከምዘሎና	-15053
▁ከበሮ	-15054
▁ኦሆ	-15055
▁እዋንዚ	-15056
▁እንግሊዘኛ	-15057
▁እንተን	-15058
▁እንተለዉ	-15059
▁እትህቦ	-15060
▁እተኣ	-15061
▁እእመን	-15062
▁ኤለክትሪክ	-15063
▁ኣግራብ	-15064
▁ኣይትጨነቑ	-15065
▁ኣይትው	-15066
▁ኣይተፈጥሩ	-15067
▁ኣይተፈጥሩን።	-15068
▁ኣይተቐየ	-15069
▁ኣትዩ	-15070
▁ኣቦ፡	-15071
▁ኣቕሑ	-15072
▁ኣረጋግጽ።	-15073
▁ኣሎዶ?	-15074
▁ኣወል	-15075
▁ኢዮብ	-15076
▁ኢደ	-15077
▁አደ	-15078
▁ንጻድቃን	-15079
▁ንገበርቲ	-15080
▁ንዓመታ	-15081
▁ንክኸውን	-15082
▁ንእት	-15083
▁ንትእዛ	-15084
▁ንቕሓት	-15085
▁ንስሪ	-15086
▁ንሃገርና	-15087
▁ንቢ	-15088
▁ናብኦም	-15089
▁ናባኺ	-15090
▁ነገሥ	-15091
▁ነይሮም?	-15092
▁ነይረን	-15093
▁ትመር	-15094
▁ተወድኣ	-15095
▁ተነበበር	-15096
▁ተነበበር.	-15097
▁ተመሊሱ።	-15098
▁ተኲ	-15099
▁ተክኖሎጂ	-15100
▁ብገጹ	-15101
▁ብዘረባ	-15102
▁ብትንሳኤ	-15103
▁ብሓቅን	-15104
▁ብህይወቱ	-15105
▁ቤትኩም	-15106
▁ቤታት	-15107
▁ቅሬታ	-15108
▁ቀዳመ	-15109
▁ቀጠ	-15110
▁ሳእ	-15111
▁ሰረቕቲ	-15112
▁ርኹሳት	-15113
▁ርስቶም	-15114
▁ርኣይ	-15115
▁ምዝገባ	-15116
▁ምኽፋል	-15117
▁ሜላታት	-15118
▁ሙታን	-15119
▁መዓልቲ።	-15120
▁መዓጹ	-15121
▁መንኮር	-15122
▁መባእታዊ	-15123
▁መሰጋገ	-15124
▁መሰልን	-15125
▁መርመራ	-15126
▁መማህራን	-15127
▁መማረ	-15128
▁ሕጕስቲ	-15129
▁ሓዲጉ	-15130
▁ሓተተ።	-15131
▁ሓሽ	-15132
▁siden	-15133
▁lif	-15134
▁[ea	-15135
▁[each	-15136
▁[each]	-15137
▁(፲	-15138
▁'ዮም	-15139
▁"ገንዘብ	-15140
ፍቓድ	-15141
ፍ፡	-15142
ፅር	-15143
ጽልን	-15144
ጻው	-15145
ጸውር	-15146
ጥዕና	-15147
ጠንቀቕ	-15148
ጠረን።	-15149
ጋጋ	-15150
ደቡ	-15151
ደሚ	-15152
ይሕ	-15153
የረ።	-15154
ዛዊ	-15155
ዘት	-15156
ዎምን	-15157
ክቶር	-15158
ካዮም	-15159
ኩምዎን።	-15160
ከበ	-15161
ኣሎ	-15162
ናዲ	-15163
ናና	-15164
ነና	-15165
ታይን	-15166
ታን፡	-15167
ተ-	-15168
ብረ።	-15169
ቤን	-15170
ባርነት	-15171
ቓዊ	-15172
ቅርብ	-15173
ስኬ	-15174
ስል	-15175
ሳቐዩ	-15176
ርናፈ	-15177
ሩሉ	-15178
መንፈስ	-15179
ሕፋ	-15180
ሕዞ	-15181
ሕው	-15182
ለኪ	-15183
ለሎም	-15184
rea	-15185
lo	-15186
:8)	-15187
-ኤ	-15188
▁ፖለቲካውን	-15189
▁ፕሮፌ	-15190
▁ፓኪ	-15191
▁ፍርያታ	-15192
▁ፋሲካ	-15193
▁ፈቲኖም	-15194
▁ፈኸ	-15195
▁ጽግ	-15196
▁ጽላት	-15197
▁ጸሎትኩም	-15198
▁ጸበ	-15199
▁ጥበባዊ	-15200
▁ጐድን	-15201
▁ግበሪ	-15202
▁ጌርካዮ	-15203
▁ጉን	-15204
▁ገንዘቡ	-15205
▁ገንዘበይ	-15206
▁ገሊአን	-15207
▁ድየን	-15208
▁ደጊምካ	-15209
▁ደንበ	-15210
▁ደሃ	-15211
▁ይፈቱ።	-15212
▁ይውስኽ።	-15213
▁ይወድቕ	-15214
▁ይከኣሎ	-15215
▁ይመስለካ?	-15216
▁ይግበር	-15217
▁ይገበር	-15218
▁የለዉን።	-15219
▁ዝፍለ	-15220
▁ዝውሃብ	-15221
▁ዝነበረና	-15222
▁ዝተፈለ	-15223
▁ዝበልና	-15224
▁ዝበሃ	-15225
▁ዝሰርሕ።	-15226
▁ዝርኣ	-15227
▁ዝረኣኽዎ	-15228
▁ዝመልኣ	-15229
▁ዝሓለፍ	-15230
▁ዝጓ	-15231
▁ዝዉ	-15232
▁ዚተሓሓዝ	-15233
▁ዚረክብ	-15234
▁ዘገልገ	-15235
▁ዘይምፍላጥ	-15236
▁ዘይመ	-15237
▁ዘለኹም?	-15238
▁ዘነ	-15239
▁ዕዉታት	-15240
▁ዕጥ	-15241
▁ዕጣን	-15242
▁ዓባይን	-15243
▁ዓጺ	-15244
▁ዓቃ	-15245
▁ውድድራት	-15246
▁ውላደይ	-15247
▁ወጺእካ	-15248
▁ወዲሰብ	-15249
▁ወሰድዎ።	-15250
▁ኻኣ	-15251
▁ኻበይ	-15252
▁ኺነብሩ	-15253
▁ክውሰድ	-15254
▁ክንዳይ	-15255
▁ክንረኽቦ	-15256
▁ክትምሃር	-15257
▁ክትሕግዝ	-15258
▁ክርዳእ	-15259
▁ክመፅእ	-15260
▁ክልኩል	-15261
▁ክባር	-15262
▁ኪፍጸም	-15263
▁ከይዱ፡	-15264
▁ከይከ	-15265
▁ከይህሉ	-15266
▁ከለዉ፡	-15267
▁እቶን	-15268
▁እትወ	-15269
▁እስላማዊ	-15270
▁እምንቶ	-15271
▁ኣፕሊ	-15272
▁ኣግሂዱ	-15273
▁ኣድህቦ	-15274
▁ኣይኽእሉን፣	-15275
▁ኣይትቝ	-15276
▁ኣይሰማዕካን	-15277
▁ኣይርከብን	-15278
▁ኣይምተ	-15279
▁ኣየለ	-15280
▁ኣውጺእ	-15281
▁ኣንድ	-15282
▁ኣነ።	-15283
▁ኣስሚ	-15284
▁ኣምላኽና።	-15285
▁ኣምሊ	-15286
▁ኣሕዋትካ	-15287
▁ኣለውዎ።	-15288
▁ኣለና፣	-15289
▁ኢቲ	-15290
▁ኢ-	-15291
▁ንዘለኣለ	-15292
▁ንኽእል?	-15293
▁ንኣባ	-15294
▁ንኣሕዋ	-15295
▁ንህዝብታት	-15296
▁ንርኢ።	-15297
▁ነግ	-15298
▁ነዳ	-15299
▁ነናቱ	-15300
▁ትኽእል?	-15301
▁ትበሃል።	-15302
▁ትምህርት	-15303
▁ትሕቲኡ	-15304
▁ትሪ	-15305
▁ታሪኽን	-15306
▁ተርጓ	-15307
▁ተመልሰ፡	-15308
▁ተመለሱ።	-15309
▁ተከ	-15310
▁ብዘይተ	-15311
▁ብውሽጢ	-15312
▁ብመጀመርያ	-15313
▁ባላ	-15314
▁በጺሑ።	-15315
▁በርና	-15316
▁በረኽ	-15317
▁በሓቂ	-15318
▁ሻሂ	-15319
▁ሸፋቱ	-15320
▁ስጉምትታት	-15321
▁ስዊድን	-15322
▁ስንኩ	-15323
▁ሰምዔ፡	-15324
▁ሰቲ	-15325
▁ረብ	-15326
▁ሥርዓት	-15327
▁ሞራ	-15328
▁ምለሰ	-15329
▁ማይክል	-15330
▁ሚኒስተ	-15331
▁መዛግብቲ	-15332
▁መንነትካ	-15333
▁መሰናድዎ	-15334
▁መርበ	-15335
▁መረጸ።	-15336
▁መልከፍ	-15337
▁መፍ	-15338
▁መኻ	-15339
▁ሕጂኸ	-15340
▁ሕማቕን	-15341
▁ሕደገ	-15342
▁ሕሹኽ	-15343
▁ሓጢኣቶም	-15344
▁ሓይልና	-15345
▁ሓሚሙ	-15346
▁ሒዝኩም	-15347
▁ለዋህ	-15348
▁ህልቂ	-15349
▁ሃዋርያቱ	-15350
▁ሂቡ።	-15351
▁ሀ)	-15352
▁Ass	-15353
▁5:2	-15354
▁2001	-15355
▁1997	-15356
▁1994	-15357
▁1993	-15358
▁(ንኣብነት	-15359
▁'ዞም	-15360
▁"ንኣ	-15361
▁"ንሓድሕ	-15362
▁"በቲ	-15363
▁"ክት	-15364
▁"ቀል	-15365
▁"ሳ	-15366
ፍጽሙ	-15367
ፊቱ	-15368
ፈኩም	-15369
ጽኣሉ	-15370
ጠርዕ	-15371
ጅማር	-15372
ድሮ	-15373
ድሩ	-15374
ደተኛታት	-15375
የም	-15376
ዝምር	-15377
ዕዳ	-15378
ዓቱ	-15379
ዋዕቲ	-15380
ዉያን	-15381
ወይቲ	-15382
ወኒ	-15383
ኩምኒ	-15384
ከልከል	-15385
ኣማመን	-15386
ንካን።	-15387
ኑድ	-15388
ቶን።	-15389
ተንስኦም	-15390
ተልቲ	-15391
ባስን	-15392
ባሕሪ	-15393
በዝሐ	-15394
በርዎ	-15395
በለጸ	-15396
በሎም።	-15397
ቒሉ	-15398
ሶ፡	-15399
ስተንት	-15400
ስምዖም።	-15401
ስቱ	-15402
ሱኒ	-15403
ርካኒ	-15404
ርያን	-15405
ራሕቲ	-15406
ረበ።	-15407
ማዝ	-15408
መልሲ	-15409
ላቶ	-15410
ሄት	-15411
x)	-15412
ue	-15413
li	-15414
ft	-15415
BC	-15416
🇪🇷🇪🇷	-15417
▁ፖሎቲካዊ	-15418
▁ፍጻሜታት	-15419
▁ፍርሓት	-15420
▁ፍጥነት	-15421
▁ፈሪሕካ	-15422
▁ፈጠረ	-15423
▁ፈታ	-15424
▁ፈቐ	-15425
▁ጽንኩር	-15426
▁ጸገምና	-15427
▁ጸም	-15428
▁ጥዕናኻ	-15429
▁ጥንታውያን	-15430
▁ጥንቁ	-15431
▁ጥራየይ	-15432
▁ጐድኒ	-15433
▁ግጥምታት	-15434
▁ግርጭት	-15435
▁ገሊጽዎ	-15436
▁ገበሮ	-15437
▁ገር	-15438
▁ዶስ	-15439
▁ድቂ	-15440
▁ዴሞክራሲ	-15441
▁ይቕበል	-15442
▁ይጻወት	-15443
▁ይዘራረብ	-15444
▁ይሞ	-15445
▁የብሉን፣	-15446
▁የሆዋ።	-15447
▁ዝፈልጦም	-15448
▁ዝገለጸ	-15449
▁ዝድኅ	-15450
▁ዝኸውን፡	-15451
▁ዝኣተዎ	-15452
▁ዝነግረካ	-15453
▁ዝተገለ	-15454
▁ዝበልጽ	-15455
▁ዝረኣናዮ	-15456
▁ዝጽሕፍ	-15457
▁ዝስምዓ	-15458
▁ዜድልየካ	-15459
▁ዚግለጸላ	-15460
▁ዚዛረቡ	-15461
▁ዘይገብር	-15462
▁ዘየድልየ	-15463
▁ዘሎኒ።	-15464
▁ዘለኻ፡	-15465
▁ዘዋ	-15466
▁ዘካየ	-15467
▁ዓወትን	-15468
▁ዓሣ	-15469
▁ዒላ	-15470
▁ውግኣት	-15471
▁ውሕጅ	-15472
▁ውላድኩም	-15473
▁ውህደት	-15474
▁ውዲ	-15475
▁ዋላኳ	-15476
▁ወፂኡ	-15477
▁ወንበር	-15478
▁ወርኂ	-15479
▁ወልዱ	-15480
▁ወጽ	-15481
▁ወናኒ	-15482
▁ኽትረክብ	-15483
▁ኺስ	-15484
▁ኸተውጽኣኩም	-15485
▁ክግበረሉ	-15486
▁ክዝክሮ	-15487
▁ክንደየናይ	-15488
▁ክንፍትን	-15489
▁ክነሱ	-15490
▁ክትጽበ	-15491
▁ክትቕ	-15492
▁ክትምስ	-15493
▁ክብሎም	-15494
▁ክቕይሮ	-15495
▁ክስሕ	-15496
▁ክጅመር	-15497
▁ክተሓ	-15498
▁ክራኸብ	-15499
▁ክምልስ	-15500
▁ካድር]	-15501
▁ካብኣተን	-15502
▁ኪመጻ	-15503
▁ኪግበር	-15504
▁ኪሕግዘና	-15505
▁ከድልየና	-15506
▁ከብቲ	-15507
▁ከምዘላ	-15508
▁ከም-ዝ	-15509
▁ከምኦም	-15510
▁ከጥፍእ	-15511
▁ኦባ	-15512
▁እዝነይ	-15513
▁እንትኸውን	-15514
▁እንተውሓደ	-15515
▁እንተደለ	-15516
▁እንስሳታትን	-15517
▁እናሠ	-15518
▁እተዘርኤ	-15519
▁እተዘርኣ	-15520
▁እተሓ	-15521
▁እመኑ	-15522
▁እኹም	-15523
▁ኤረትራ	-15524
▁ኤልያ	-15525
▁ኣግኣዝ	-15526
▁ኣይገበረን።	-15527
▁ኣይተርፍን።	-15528
▁ኣይሓሰ	-15529
▁ኣይፈለጠ	-15530
▁ኣዚየ	-15531
▁ኣብራም	-15532
▁ኣቐምጥዎም	-15533
▁ኣስኣ	-15534
▁ኣሎኒ፡	-15535
▁ኢለን።	-15536
▁አይማ	-15537
▁አይማሃለ	-15538
▁አይማሃለናን።	-15539
▁አምላክ	-15540
▁ንጉሆ	-15541
▁ንደሊ።	-15542
▁ንይስሃቅ	-15543
▁ንብጻዩ	-15544
▁ንብዘላ	-15545
▁ንቢቢሲ	-15546
▁ንስኻ፡	-15547
▁ንሳ'ውን	-15548
▁ንርእስኹም	-15549
▁ንጣ	-15550
▁ንጐይታይ	-15551
▁ንበሩ	-15552
▁ንር	-15553
▁ንሐ	-15554
▁ን4	-15555
▁ናባኹም	-15556
▁ናዳ	-15557
▁ኒቆ	-15558
▁ኒል	-15559
▁ነይርዎም	-15560
▁ነብሰ	-15561
▁ነበረት፡	-15562
▁ትእዛዛተይ	-15563
▁ትምክ	-15564
▁ትኣምኑ	-15565
▁ትበል	-15566
▁ተጻረርዎ	-15567
▁ተጻይ	-15568
▁ተዛሪቦም።	-15569
▁ተወስ	-15570
▁ተኣምራትን	-15571
▁ተኣጊ	-15572
▁ተባህለ	-15573
▁ተቐቢለ	-15574
▁ተራእዩ።	-15575
▁ተሓባ	-15576
▁ተረኽ	-15577
▁ብዘይም	-15578
▁ብዘለዎ	-15579
▁ብእግዚኣብሄር	-15580
▁ብእኡን	-15581
▁ብምንባሩ	-15582
▁ብምቕጻል	-15583
▁ብምልእ	-15584
▁ብምልእታ	-15585
▁ብሓድነት	-15586
▁ብጎ	-15587
▁ብደም	-15588
▁ብታሕጓስ	-15589
▁ቤትትምህርቲ	-15590
▁በብቝሩብ	-15591
▁በሊዑ	-15592
▁በዝሒ	-15593
▁በንጻሩ	-15594
▁ቕትለት	-15595
▁ቅፍ	-15596
▁ቁርሲ	-15597
▁ቀጺሉ።	-15598
▁ቀልጢፍኩም	-15599
▁ቀቢ	-15600
▁ስዉር	-15601
▁ስትራተጂ	-15602
▁ስራሕ።	-15603
▁ስራሕ፡	-15604
▁ስሚዒት	-15605
▁ስየ	-15606
▁ስሎ	-15607
▁ሰማንያን	-15608
▁ሰላምኩም	-15609
▁ራድዮ	-15610
▁ረዲኤት	-15611
▁ረኣይዎ	-15612
▁ረቂቕ	-15613
▁ሞት፡	-15614
▁ምፍቃር	-15615
▁ምዕባሌ	-15616
▁ምክትል	-15617
▁ምትእኽኻብ	-15618
▁ምስጢረ	-15619
▁ሚስዮ	-15620
▁መጻእኩም	-15621
▁መድሓኒት	-15622
▁መፃኢ	-15623
▁ሓተትዎ።	-15624
▁ሐቢ	-15625
▁ላዕላይ	-15626
▁ህይወትኩም	-15627
▁ህዝቢ።	-15628
▁post:	-15629
▁life:	-15630
▁[ላዕለዋይ	-15631
▁700	-15632
▁57	-15633
▁(ሰ	-15634
▁'ዛ	-15635
▁'ስለምንታይ	-15636
▁"ካብቲ	-15637
▁"ንድ	-15638
ፍልጦ	-15639
ፈቲ	-15640
ጻጸር	-15641
ጻን	-15642
ጻምድ	-15643
ጣርን	-15644
ድኅርዙይ	-15645
ይንና	-15646
የው	-15647
ዝርና	-15648
ዛራ	-15649
ዕሽ	-15650
ዓይነቱ	-15651
ዓ.	-15652
ዒሎም	-15653
ውሉ	-15654
ዋኽብትን	-15655
ዋዊ	-15656
ኻኺ	-15657
ኻኑ	-15658
ክርስትያናት	-15659
ካሚ	-15660
ኪስ	-15661
ከታተል	-15662
እሽቶ	-15663
ንስተይቲ	-15664
ነን።	-15665
ኅዋ	-15666
ት፣	-15667
ታንያ	-15668
ብርቲ	-15669
ቤታት	-15670
ባሉ	-15671
በላሸ	-15672
በራዊ	-15673
ቃለሱ	-15674
ቀዳማይ	-15675
ስቴር	-15676
ሲ።	-15677
ሰው	-15678
ርዞ	-15679
ርኩ።	-15680
ርቱ	-15681
ሩ፣	-15682
ምልሱ	-15683
ምጽኦ	-15684
ምማዕ	-15685
መስግኑ	-15686
ሕልፎ።	-15687
ሔ፡	-15688
ልውጥ	-15689
ልክን	-15690
ልካ?	-15691
ide	-15692
ideo	-15693
▁ፕሮፌሰር	-15694
▁ፍሬኣ	-15695
▁ፀጋ	-15696
▁ጣኦት	-15697
▁ጐይተት	-15698
▁ግዝረት	-15699
▁ግልጺ	-15700
▁ጋህዲ	-15701
▁ጋል	-15702
▁ዳይ	-15703
▁ይጽሊ	-15704
▁ይወድቁ	-15705
▁ይኾኑ?	-15706
▁ይኽእል'ዶ?	-15707
▁ይክፈተልኩም	-15708
▁ይኣቱ።	-15709
▁ይንበር	-15710
▁ይበልጽ።	-15711
▁ይህበና።	-15712
▁ዝፈተ	-15713
▁ዝጸልእ	-15714
▁ዝገበረቶ	-15715
▁ዝተዛረብ	-15716
▁ዝበለፀ	-15717
▁ዝበደለ	-15718
▁ዝሰምዕዎ	-15719
▁ዝረኣያ	-15720
▁ዝምልከቶም	-15721
▁ዝምራሕ	-15722
▁ዝመጻእኩ	-15723
▁ዝመውት	-15724
▁ዝለመ	-15725
▁ዝሃበካ	-15726
▁ዝክእል	-15727
▁ዝረኽቦ	-15728
▁ዚጻረር	-15729
▁ዚዐ	-15730
▁ዘጋጠመኒ	-15731
▁ዘይምህ	-15732
▁ዘሎ፧	-15733
▁ዘለኹ?	-15734
▁ዕንጨይቲ	-15735
▁ዓመት'ዚ	-15736
▁ዓመጸ	-15737
▁ዓሰብ	-15738
▁ውራይና፦	-15739
▁ውጥ	-15740
▁ወይን	-15741
▁ወይል	-15742
▁ኾይንካ	-15743
▁ኮሙን	-15744
▁ክትጽ	-15745
▁ክገዝእ	-15746
▁ክደሊ	-15747
▁ክውስኽ	-15748
▁ካልእን	-15749
▁ኪወስድ	-15750
▁ኪሞቱ	-15751
▁ከብቅዕ	-15752
▁ከደ፡	-15753
▁ከበሳ	-15754
▁እግዚኣብሀር	-15755
▁እያ፣+	-15756
▁እዚ'ዩ።	-15757
▁እንኽእል፧	-15758
▁እንተኾይኖም	-15759
▁እተጠቕሰ	-15760
▁እተፈላለዩ	-15761
▁እስትን	-15762
▁እምስ	-15763
▁ኤም	-15764
▁ኣፍቃ	-15765
▁ኣፈፃፅማ	-15766
▁ኣጸቢቕኩም	-15767
▁ኣይኰነትን	-15768
▁ኣይክእሉን።	-15769
▁ኣይንረስዕ	-15770
▁ኣየድልን።	-15771
▁ኣየድልን	-15772
▁ኣኪቦም	-15773
▁ኣተስፍ	-15774
▁ኣቦታተይ	-15775
▁ኣቕል	-15776
▁ኣስላም	-15777
▁ኣሚኑ	-15778
▁ኣሕሉ	-15779
▁ኣመስግነካ	-15780
▁ንፕረዚደንት	-15781
▁ንጥዕና	-15782
▁ንገንዘብ	-15783
▁ንዘለኣለመ	-15784
▁ንክምልስ	-15785
▁ንኣን	-15786
▁ንኣማኒ	-15787
▁ንኣህዛብ	-15788
▁ንነብሱ	-15789
▁ንብረትና	-15790
▁ንበሎ።	-15791
▁ንስኻትኩምን	-15792
▁ንምቅ	-15793
▁ንከይ	-15794
▁ንረኽቦ	-15795
▁ናብራና	-15796
▁ናብ'ዚ	-15797
▁ናሕሲ	-15798
▁ነንሓድሕዶም	-15799
▁ነደ	-15800
▁ትኽክለ	-15801
▁ትራፊክ	-15802
▁ትፈቱ	-15803
▁ትና	-15804
▁ትህቦ	-15805
▁ትሃብኩም	-15806
▁ታክሲ	-15807
▁ተጻዊ	-15808
▁ተወልደ።	-15809
▁ተኸታተልቲ	-15810
▁ተንስኡ	-15811
▁ተሰማም	-15812
▁ተጌ	-15813
▁ተቛ	-15814
▁ብዓይነይ	-15815
▁ብኣን	-15816
▁ብተግባ	-15817
▁ብሳልሰይቲ	-15818
▁ብምዝ	-15819
▁ብሓፈ	-15820
▁ብልዕሊ	-15821
▁ብሄረ	-15822
▁ብደገ	-15823
▁ብደቂ	-15824
▁ብላዕሊ	-15825
▁ብለው	-15826
▁በብኃ	-15827
▁በጊ	-15828
▁ቀጽሎ	-15829
▁ቀላ	-15830
▁ስዉእ	-15831
▁ስንጭሮ	-15832
▁ስለዚህ	-15833
▁ሲኢ	-15834
▁ሰንከልከል	-15835
▁ሰማንያ	-15836
▁ሰለሙን	-15837
▁ርትዓዊ	-15838
▁ርብቃ	-15839
▁ረኺቡ።	-15840
▁ረኣኹ፣	-15841
▁ሥድራ	-15842
▁ሞተር	-15843
▁ምጽዋዕ	-15844
▁ምግቦም	-15845
▁ምድርኩም	-15846
▁ምድም	-15847
▁ምዕ.	-15848
▁ምውራድ	-15849
▁ምክንያት	-15850
▁ምልካዊ	-15851
▁ምዓል	-15852
▁መጻሕፍትን	-15853
▁መዛሙ	-15854
▁መዓርግ	-15855
▁መብዛሕቲኦም	-15856
▁መቐመጢ	-15857
▁መርገምን	-15858
▁መሓዛይ	-15859
▁መተሓ	-15860
▁መ.	-15861
▁ሕያዋን	-15862
▁ሕተቱ።	-15863
▁ሓጊዙኒ።	-15864
▁ሓቲት	-15865
▁ሓብተይ	-15866
▁ሓፂ	-15867
▁ሐ)	-15868
▁ልምድታት	-15869
▁ሃብዎም።	-15870
▁ሃለዋት	-15871
▁ሃንቀ	-15872
▁ሀቦም።	-15873
▁Top	-15874
▁Assen	-15875
▁Assenna	-15876
▁33ንሳቶም	-15877
▁1,	-15878
▁(እክ	-15879
▁(እክላ)	-15880
▁(ግብሪ	-15881
▁(C	-15882
▁(7)	-15883
▁'ነቲ	-15884
▁"ገናዶ	-15885
▁"ብሓቂ	-15886
▁"ቀልጥ	-15887
፡4	-15888
ፊ!	-15889
ፈትዎን	-15890
ፈል።	-15891
ፈጸመ	-15892
ጽሕፉ	-15893
ጽሮ	-15894
ጽላ	-15895
ጸናንዑ	-15896
ጸልታ	-15897
ጸና	-15898
ጎል	-15899
ግበረሉ	-15900
ጋጠ	-15901
ገምጋም	-15902
ገቢ	-15903
ጅምረሉ	-15904
ጀን	-15905
ድልን	-15906
ድረ	-15907
ደግሞ	-15908
ደበታዊ	-15909
ይቕ	-15910
ያየጥ	-15911
ዞም፡	-15912
ዝሕ	-15913
ዛረቢ	-15914
ዛቢ	-15915
ዕባል	-15916
ዕነት	-15917
ዔ።	-15918
ዓ፡	-15919
ዒንት	-15920
ዎምን።	-15921
ውያን።	-15922
ወርሒ	-15923
ወትን	-15924
ኽብሩ	-15925
ኸ።	-15926
ክን።	-15927
ኩኹም።	-15928
ኣታ	-15929
ኢዩ	-15930
ንግተን	-15931
ንና።	-15932
ብሉ።	-15933
ቡኒ	-15934
በልዑን	-15935
ቝጸር	-15936
ቁር	-15937
ርዳድ	-15938
ሪኢ	-15939
ሩኻት	-15940
ረሲ	-15941
ሠርዐ	-15942
ምሓዝ	-15943
መሓላል	-15944
መ፡	-15945
ሕቶ	-15946
ሕር	-15947
ሓፍ።	-15948
ሓሳስ	-15949
ልይዎም	-15950
ልዑል	-15951
ለጠ	-15952
ህልወኩም	-15953
ህልወሉ	-15954
ሃቦም።	-15955
'ውን፡	-15956
▁ፕሮጀክ	-15957
▁ፈላማይ	-15958
▁ፈላሚት	-15959
▁ፀላኢ	-15960
▁ጽዑ	-15961
▁ጸኒዕና	-15962
▁ጸልዩ።	-15963
▁ጥራሕ'ዩ።	-15964
▁ጥርናፈ	-15965
▁ጣል	-15966
▁ጠፊኦም	-15967
▁ጓልካ	-15968
▁ጊልጋል	-15969
▁ገንዘብ፡	-15970
▁ገሊፁ።	-15971
▁ገዳ	-15972
▁ገቢ	-15973
▁ገላትያ	-15974
▁ድላዩ	-15975
▁ዳሕረዋይ	-15976
▁ዳኅ	-15977
▁ዮናታንን	-15978
▁ዮሃና	-15979
▁ይግብኣና	-15980
▁ይኹን'ምበር፡	-15981
▁ይጸን	-15982
▁ይእዝ	-15983
▁ይቐር	-15984
▁ይረአ	-15985
▁ይሕግዘ	-15986
▁ይሓት	-15987
▁ይህብ	-15988
▁የድ	-15989
▁የተሓሳስ	-15990
▁የተ	-15991
▁የቕር	-15992
▁ዝፋኑ	-15993
▁ዝግባእ።	-15994
▁ዝደቀ	-15995
▁ዝወሓደ	-15996
▁ዝከኣለና	-15997
▁ዝእዝዘካ	-15998
▁ዝነበሩ፤	-15999
▁ዝነኣሰ	-16000
▁ዝበልዑ	-16001
▁ዝመስሉ።	-16002
▁ዝመደ	-16003
▁ዝሓዞ	-16004
▁ዝለመን	-16005
▁ዝኸይድ።	-16006
▁ዚኸውን፡	-16007
▁ዚፈልጡ	-16008
▁ዚግ	-16009
▁ዚብል።	-16010
▁ዚበዝሑ	-16011
▁ዚሕል	-16012
▁ዘይገበረ	-16013
▁ዘቕረቦ	-16014
▁ዘረባኡ	-16015
▁ዘእተ	-16016
▁ዕልዋ	-16017
▁ዓብዩ።	-16018
▁ዋን	-16019
▁ወጺኡ፡	-16020
▁ኼጋጥ	-16021
▁ኻብተን	-16022
▁ኺወድቁ	-16023
▁ኺፈልጥ	-16024
▁ኸኣ።	-16025
▁ኵል	-16026
▁ኳሕ	-16027
▁ክፉእን	-16028
▁ክገብረካ	-16029
▁ክንወስድ	-16030
▁ክትራኸብ	-16031
▁ካና	-16032
▁ኪፈልጡ	-16033
▁ኪግለጽ	-16034
▁ኪረኽቡ	-16035
▁ከተመልክት	-16036
▁ከምዝኽእሉ	-16037
▁ከበር	-16038
▁ኦባማ	-16039
▁እግዚአብሔርን	-16040
▁እዚ፣	-16041
▁እዋንን	-16042
▁እትፈትዎ	-16043
▁እተውሕዝ	-16044
▁እርጋን	-16045
▁እምበር:	-16046
▁እጽሊ	-16047
▁እሴ	-16048
▁ኣይፍቀደ	-16049
▁ኣይፈርህን	-16050
▁ኣይትደን	-16051
▁ኣይተርፍን	-16052
▁ኣይሕሸ	-16053
▁ኣይሓድገ	-16054
▁ኣውሊ	-16055
▁ኣቢሜሌክ	-16056
▁ኣርዑት	-16057
▁ኣረጋጊጽ	-16058
▁ኣውን	-16059
▁ኢንቨስትመንት	-16060
▁አበ	-16061
▁አመስግነ	-16062
▁ንጽብሒ	-16063
▁ንግስነት	-16064
▁ንእስነትካ	-16065
▁ንትእዛዛ	-16066
▁ንብዙኃት	-16067
▁ንቤተክርስትያን	-16068
▁ንመጻምድ	-16069
▁ንልብና	-16070
▁ንጭ	-16071
▁ንርከብ	-16072
▁ኔርካ።	-16073
▁ናዳብን	-16074
▁ነፍስን	-16075
▁ነበርዎ።	-16076
▁ነዲኡ	-16077
▁ነኣ	-16078
▁ትምክሕቲ	-16079
▁ቱሪ	-16080
▁ተጸሚ	-16081
▁ተዛረብቲ	-16082
▁ተዋፊ	-16083
▁ተበላሽ	-16084
▁ተሳዒ	-16085
▁ተመልከት።	-16086
▁ተሓጐሱ	-16087
▁ተገብ	-16088
▁ተዛረብ።	-16089
▁ብድሕር'ዚ	-16090
▁ብኣካ	-16091
▁ብናተይ	-16092
▁ብስራሕ	-16093
▁ብርእሱ	-16094
▁ብምስማዕ	-16095
▁ብሂወት	-16096
▁ብጸልማት	-16097
▁ብሞ	-16098
▁ብሎ	-16099
▁ባጤራ	-16100
▁ቡዙሓት	-16101
▁በዚኣ	-16102
▁በብዓመቱ'የ	-16103
▁በብእ	-16104
▁በቒ	-16105
▁ቕቡኣት	-16106
▁ቕሩብ	-16107
▁ቑጽሪ	-16108
▁ቊጥዓ	-16109
▁ቄሳር	-16110
▁ቃን	-16111
▁ቀጠልያ	-16112
▁ቀጻል	-16113
▁ቀድ	-16114
▁ቀር	-16115
▁ሹማምን	-16116
▁ስለያ	-16117
▁ሰሪሕና	-16118
▁ሰመረ	-16119
▁ርህራ	-16120
▁ሬሳታት	-16121
▁ሪፓብሊክ	-16122
▁ሪኢቶ	-16123
▁ምኽፋት	-16124
▁ምንጻል	-16125
▁ምብራቓዊ	-16126
▁ምስጋናን	-16127
▁ምወ	-16128
▁ምሉ	-16129
▁ሜሪ	-16130
▁ማርዶካይ	-16131
▁ሚዛናዊ	-16132
▁መገድታቱ	-16133
▁መገድን	-16134
▁መዋእለ	-16135
▁መብዛሕትአን	-16136
▁መቕሠ	-16137
▁መሰጋገሪ	-16138
▁መለኽቲ	-16139
▁ሕፍረት	-16140
▁ሓበሬታ፡	-16141
▁ሓሰር	-16142
▁ላም	-16143
▁ሊንክ	-16144
▁ለበዋ	-16145
▁ለኸ	-16146
▁ህፃናት	-16147
▁ሄሮድስ	-16148
▁ሂበካ	-16149
▁(ት	-16150
▁(8)	-16151
▁"ደቂ	-16152
፣-	-16153
ፈት።	-16154
ፈን።	-16155
ፀር	-16156
ጥንቀቕ	-16157
ጥሕሱ	-16158
ጣራ	-16159
ጠንቅቖም	-16160
ግር።	-16161
ግቲ	-16162
ግስት	-16163
ጉን	-16164
ገዳስነት	-16165
ገይ	-16166
ዳ፡	-16167
ደድኩ	-16168
ደልዮም	-16169
ደቕ	-16170
ደመ።	-16171
ዝሓ	-16172
ዘንት	-16173
ዕብዮ	-16174
ዕሎ	-16175
ኻ፣	-16176
ኖምን	-16177
ናገ	-16178
ነል	-16179
ትርጉ	-16180
ታዕ	-16181
ብረኩም	-16182
ብሎን	-16183
ቆን	-16184
ሽቱን	-16185
ሹራንስ	-16186
ሳገር	-16187
ሰትዩን	-16188
ሰማዕ	-16189
ራዩ	-16190
ረ፣	-16191
ሙኡ	-16192
ሕጂ	-16193
ሔ።	-16194
ሓድጎ	-16195
ሓትዎ	-16196
ላጻ	-16197
ላጢ	-16198
ሊሑ	-16199
ሉ!	-16200
ሃና	-16201
ሃሂ	-16202
ot	-16203
]።	-16204
>>	-16205
'ኸ?	-16206
▁ፎርም	-16207
▁ፈላጥ	-16208
▁ጸጉሪ	-16209
▁ጳውሎስን	-16210
▁ጭን	-16211
▁ጨካ	-16212
▁ጠፊኡኒ	-16213
▁ጐል	-16214
▁ግርማይ	-16215
▁ግዱ	-16216
▁ገይርዎ	-16217
▁ገብርኤል	-16218
▁ገምጋ	-16219
▁ገላዉኻ	-16220
▁ጁባ	-16221
▁ጀመረ፡	-16222
▁ድማ፤	-16223
▁ድኳናት	-16224
▁ዳህሳስ	-16225
▁ዳታ	-16226
▁ደጋፊት	-16227
▁ደቀን	-16228
▁ደዉ	-16229
▁ይፈጥረ	-16230
▁ይግመት።	-16231
▁ይጥቀሙ	-16232
▁ይምለሱ	-16233
▁ይምለ	-16234
▁የዳ	-16235
▁ዝጠፍአ	-16236
▁ዝገለጾ	-16237
▁ዝወደይ	-16238
▁ዝኽልክ	-16239
▁ዝተነ	-16240
▁ዝበልኩኻ	-16241
▁ዝበለቶ	-16242
▁ዝሰምዕዎን	-16243
▁ዝሰማዕክዎ	-16244
▁ዝመስሉ	-16245
▁ዝዛረቡ።	-16246
▁ዝህቡ	-16247
▁ዜዕ	-16248
▁ዚፍለጥ።	-16249
▁ዚወርድ	-16250
▁ዚፈልየና	-16251
▁ዚጐ	-16252
▁ዚደልየ	-16253
▁ዚዕ	-16254
▁ዚበልዕ	-16255
▁ዚርእዮ	-16256
▁ዙርያኡ	-16257
▁ዘጓ	-16258
▁ዘገ	-16259
▁ዘኽእ	-16260
▁ዕሽር	-16261
▁ዑፍ	-16262
▁ወፈያ	-16263
▁ወንጌላት	-16264
▁ወሰደ	-16265
▁ወለደ።	-16266
▁ወለደት	-16267
▁ኾይነ	-16268
▁ኽቕበል	-16269
▁ኺፈልጡ	-16270
▁ኺበልዕ	-16271
▁ኸይተ	-16272
▁ኸዚ	-16273
▁ኵሉን	-16274
▁ኮይኑ፣	-16275
▁ኮምዩን	-16276
▁ኮምሽን	-16277
▁ኮለጅ	-16278
▁ክኸፍል	-16279
▁ክኢለ	-16280
▁ክንጅምር	-16281
▁ክንከ	-16282
▁ክንኣቱ	-16283
▁ክንሓ	-16284
▁ክትቅበሎ	-16285
▁ክትረኽ	-16286
▁ክትሕዝ	-16287
▁ክትህሉ	-16288
▁ክቕመጥ	-16289
▁ክፈላለ	-16290
▁ክራኸቡ	-16291
▁ክረኽባ	-16292
▁ክምዕ	-16293
▁ክሕዝ	-16294
▁ካልኣይ፡	-16295
▁ኪኾነኒ፡	-16296
▁ኩሎም	-16297
▁ከይተረፉ	-16298
▁ከሲ	-16299
▁ከ?	-16300
▁እግዚኣብሔር፣	-16301
▁እንተኮነ	-16302
▁እንተበልና	-16303
▁እናቐ	-16304
▁እትኽእሉ	-16305
▁እትረኽቦ	-16306
▁እተተሓሓዘ	-16307
▁እምበአር	-16308
▁እሕጐስ	-16309
▁እልምነካ	-16310
▁ኣፍራስ	-16311
▁ኣጽዋ	-16312
▁ኣድለየ	-16313
▁ኣይደለየን።	-16314
▁ኣይትበል።	-16315
▁ኣይተዛረበ	-16316
▁ኣይጠቕ	-16317
▁ኣይኾነ	-16318
▁ኣይኹን	-16319
▁ኣእጋረይ	-16320
▁ኣትሒዙ፡	-16321
▁ኣቢሁ	-16322
▁ኣቢሁርን	-16323
▁ኣቕርቦም።	-16324
▁ኣስተዋ	-16325
▁ኣምላኽና፡	-16326
▁ኣማኻሪ	-16327
▁ኣሕዋትናን	-16328
▁ኣሎዋ።	-16329
▁ኣጓ	-16330
▁ኣዕና	-16331
▁ኣዉ	-16332
▁ኣቶም	-16333
▁ኢታምር	-16334
▁ኢታምርን፡	-16335
▁አእ	-16336
▁ንጡፍ	-16337
▁ንጉሰይ	-16338
▁ንብረቶም	-16339
▁ንሳውን	-16340
▁ንርእስ	-16341
▁ንመሃር	-16342
▁ንሓጢ	-16343
▁ንግበር።	-16344
▁ንበሎ	-16345
▁ንቃለስ	-16346
▁ናብዘን	-16347
▁ትደሊ።	-16348
▁ትደሊዶ፧	-16349
▁ትዕዝ	-16350
▁ትዕዝብቲ	-16351
▁ትነብር።	-16352
▁ትብሉ?	-16353
▁ትምኒተይ	-16354
▁ትፈትዎ	-16355
▁ተጓዕ	-16356
▁ተደጋሚ	-16357
▁ተዛራቢ	-16358
▁ተዋሂቡና	-16359
▁ተዋስ	-16360
▁ተኸሲ	-16361
▁ተራእይ	-16362
▁ተነብ	-16363
▁ተሻ	-16364
▁ብዝቐ	-16365
▁ብዙሓን	-16366
▁ብዘለዉ	-16367
▁ብእሲ	-16368
▁ብተመሳሳሊ፡	-16369
▁ብሰንክ	-16370
▁ብሰናይ	-16371
▁ብማዕዶ	-16372
▁ብልሓት	-16373
▁ብፖ	-16374
▁ብጊዜ	-16375
▁ብጃ	-16376
▁ብየ	-16377
▁ቤተመ	-16378
▁ባድመ	-16379
▁በርቲ	-16380
▁በልና	-16381
▁ቐዳማይን	-16382
▁ቅፍርና	-16383
▁ቅነ	-16384
▁ቀቅድሜኻ	-16385
▁ቀታሊ	-16386
▁ሶማልያ	-16387
▁ሳዕስዒት	-16388
▁ሳብዐይቲ	-16389
▁ሰብእ	-16390
▁ሰለዚ	-16391
▁ረኺበዮ።	-16392
▁ሞቱ።	-16393
▁ምድሪ፣	-16394
▁ምንቕ	-16395
▁ምህናጽ	-16396
▁መጻኢና	-16397
▁መጺእና	-16398
▁መደብና	-16399
▁መዝነት	-16400
▁መብዛሕቲኡ	-16401
▁መባእታ	-16402
▁መስኮት	-16403
▁መልእክቲ	-16404
▁መኖም	-16405
▁ሕቶ፥	-16406
▁ሕብረተሰብና	-16407
▁ሕደግ	-16408
▁ሕመረት	-16409
▁ሕልፍ	-16410
▁ሓምሻይ	-16411
▁ሓሊፋ	-16412
▁ሓጸርቲ	-16413
▁ልዕሌኹም	-16414
▁ልምዓ	-16415
▁ላቲን	-16416
▁ለምለም	-16417
▁ሃገራውያን	-16418
▁ሃበኒ።	-16419
▁ti>en:	-16420
▁article	-16421
▁BBC	-16422
▁2003	-16423
▁1914	-16424
▁1000	-16425
▁'ዝ	-16426
▁'ንብ	-16427
▁"ደሓን	-16428
▁"ኵሎም	-16429
▁"ፍ	-16430
▁"ቅድሚ	-16431
ፍርስ	-16432
ፍሎ	-16433
ፌታ	-16434
ፈኒ።	-16435
ፀኛ	-16436
ጽረ	-16437
ጻወሮ	-16438
ጸሓ	-16439
ግራይ	-16440
ድሕኖ።	-16441
ደንጎ	-16442
ይራ	-16443
የት፡	-16444
ዘንግ	-16445
ዓና።	-16446
ዓባብ	-16447
ውንኖ	-16448
ኽ።	-16449
ኲሮ	-16450
ኪ?	-16451
ኣምኖም	-16452
ነብረላ	-16453
ነነ	-16454
ኃር	-16455
ትክን	-16456
ብኦ	-16457
ብኣ	-16458
ቡ፣	-16459
በድ	-16460
ቅጽል	-16461
ቅዕን	-16462
ቃወሞ	-16463
ቁርና	-16464
ሽ።	-16465
ሶዶ	-16466
ሲ፣	-16467
ሰባ	-16468
ርያምን	-16469
ርካ፡	-16470
ርሳ	-16471
ረቐ	-16472
ምርኰ	-16473
ምኖ	-16474
መስግኖ።	-16475
መኩም	-16476
መቱ	-16477
መተ	-16478
ሕብር	-16479
ሑታት	-16480
ሎ!	-16481
ልጡፍን	-16482
ልዓለም	-16483
ልእን	-16484
ልዒ	-16485
ሃበኒ	-16486
ሃርን	-16487
ሃረሉ	-16488
tin	-16489
ly	-16490
han	-16491
e)	-16492
▁ፕሬዝደንት	-16493
▁ፈትየ	-16494
▁ፈሪሳውያንን	-16495
▁ፈጸመ	-16496
▁ጽውጽዋይ	-16497
▁ጽንሕ	-16498
▁ጽቡቕ፡	-16499
▁ጭራ	-16500
▁ጥቓይ	-16501
▁ጤለ	-16502
▁ጎረባብቲ	-16503
▁ግብጺ፡	-16504
▁ግብረ-	-16505
▁ገባሪ	-16506
▁ጀርመንኛ	-16507
▁ጀብሃ	-16508
▁ድኽመት	-16509
▁ዲሞክራስያዊ	-16510
▁ደጊምኩም	-16511
▁ይኸውን፣	-16512
▁ይኸዉን	-16513
▁ይሕብሩ።	-16514
▁ይግብአ	-16515
▁ይዓ	-16516
▁ይሽ	-16517
▁ይረኣ	-16518
▁የብሉን"	-16519
▁የተባብ	-16520
▁የራኽ	-16521
▁ዝፈልጥዎ	-16522
▁ዝገበርኩም	-16523
▁ዝድኅኑ	-16524
▁ዝወስዶ	-16525
▁ዝኣተዉ	-16526
▁ዝነውሐ	-16527
▁ዝተወልዱ	-16528
▁ዝበልዕ	-16529
▁ዝበልናዮ	-16530
▁ዝስሕቦ	-16531
▁ዝዛ	-16532
▁ዝኣትዉ	-16533
▁ዘርኣ	-16534
▁ዘምጽኦ	-16535
▁ዘመንና	-16536
▁ዘሎዎም	-16537
▁ዘለኻ?	-16538
▁ዓቕምኻ	-16539
▁ወይከኣ	-16540
▁ወድን	-16541
▁ወዳእ	-16542
▁ወሓዚ	-16543
▁ኾፍ	-16544
▁ኽትርኢ	-16545
▁ኽብል	-16546
▁ኻህናትን	-16547
▁ኺገብሮ	-16548
▁ኺርእዩ	-16549
▁ኹሎም	-16550
▁ኸለኹም፡	-16551
▁ክፍለ-	-16552
▁ክፋል)	-16553
▁ክዳውንቶም	-16554
▁ክዳኑ	-16555
▁ክዝምር	-16556
▁ክወሃቦ	-16557
▁ክእክ	-16558
▁ክትዝ	-16559
▁ክትህቡ	-16560
▁ክብሮም	-16561
▁ክህልዋ	-16562
▁ክበጽሑ	-16563
▁ክሰምዓ	-16564
▁ክርእ	-16565
▁ኪቕበል	-16566
▁ኪዲ	-16567
▁ኪንግ	-16568
▁ኪበልዕ	-16569
▁ኪሃድም	-16570
▁እንተበልካ	-16571
▁እንገብር	-16572
▁እናሠራዕ	-16573
▁እናሠራዕኹም	-16574
▁እናረኣ	-16575
▁ኣግኣዝያን	-16576
▁ኣይኮንኩምን	-16577
▁ኣይትቝረጽ።	-16578
▁ኣይትሕተሞ።	-16579
▁ኣይትበሉ	-16580
▁ኣይሕሱን	-16581
▁ኣይብሉ	-16582
▁ኣይምልከ	-16583
▁ኣዚዝ	-16584
▁ኣውቶቡ	-16585
▁ኣንጻሩ	-16586
▁ኣንስት	-16587
▁ኣነባብራ	-16588
▁ኣብያተ-	-16589
▁ኣብሊጽካ	-16590
▁ኣስመራ	-16591
▁ኣመት	-16592
▁ኣላ"	-16593
▁ኣለኹም?	-16594
▁ኣዶ	-16595
▁ኢህወዴግ	-16596
▁ኢይ	-16597
▁አንተ	-16598
▁ንጸላኢ	-16599
▁ንግድ	-16600
▁ንድያብሎስ	-16601
▁ንድሓር	-16602
▁ንዝኣምን	-16603
▁ንውድ	-16604
▁ንዅላትና	-16605
▁ንኣዳ	-16606
▁ንኣዕ	-16607
▁ንኣርባዕተ	-16608
▁ንኣማል	-16609
▁ንስኻትኩምሲ	-16610
▁ንስኽን	-16611
▁ንምሕታት	-16612
▁ንምሸ	-16613
▁ንሕግዘ	-16614
▁ንዲ	-16615
▁ንኲ	-16616
▁ነቡካድነጻር	-16617
▁ነበረት፣	-16618
▁ትወጽእ	-16619
▁ትረክብ።	-16620
▁ታሕትን	-16621
▁ተጠሚ	-16622
▁ተኸታታሊ	-16623
▁ተቐብረ።	-16624
▁ተሰና	-16625
▁ተማሂሩ	-16626
▁ተመልሱ	-16627
▁ብዓሰርተ	-16628
▁ብኽፉት	-16629
▁ብእተኻእለ	-16630
▁ብትዕቢት	-16631
▁ብማእ	-16632
▁ብሓቂዶ	-16633
▁ብልጽቲ	-16634
▁ብልበይ	-16635
▁ብድምጺ	-16636
▁ብባዕ	-16637
▁ብሕቲ	-16638
▁ባርያኡ	-16639
▁ባጀት	-16640
▁በብኃምሳ	-16641
▁ቐጺ	-16642
▁ቈርበት	-16643
▁ቀዳማይን	-16644
▁ቀሪቦም	-16645
▁ቀሪብና	-16646
▁ሽዕኡ	-16647
▁ስምዒቶም	-16648
▁ስምን	-16649
▁ሰብኣውነት	-16650
▁ሰማዕኩ	-16651
▁ረኣዩ።	-16652
▁ምፍታ	-16653
▁ምግናን	-16654
▁ምድቃ	-16655
▁ምኵራ	-16656
▁ምንጭታት	-16657
▁ምትብባዕ	-16658
▁ምስተን	-16659
▁ምጕ	-16660
▁ማስኬ	-16661
▁ሚድ	-16662
▁ሙማት	-16663
▁መጺኦም፡	-16664
▁መጸናን	-16665
▁መስመ	-16666
▁መሥዋዕቲ	-16667
▁መልሓ	-16668
▁መዕለ	-16669
▁መመልከ	-16670
▁ሕጋጋ	-16671
▁ሕዚ'ውን	-16672
▁ሕልምታት	-16673
▁ሕት	-16674
▁ሓግዘኒ	-16675
▁ሓዲኡ	-16676
▁ሓልዮትን	-16677
▁ልኢኹ	-16678
▁ላዕልን	-16679
▁ህይወት።	-16680
▁ሃብ።	-16681
▁ሃረርታ	-16682
▁in	-16683
▁Re:	-16684
▁Assenna.	-16685
▁95	-16686
▁14ኣ	-16687
▁14ኣስታት	-16688
▁1፡1	-16689
▁'ንታይ	-16690
▁"ንድያብሎስ	-16691
▁"ስለዚ፡	-16692
ፈድዮ	-16693
ፈርስ	-16694
ፃል	-16695
ጽድ	-16696
ጸኦ	-16697
ጴጥ	-16698
ጥቲ	-16699
ጥስ	-16700
ጥርን	-16701
ጡር	-16702
ጠርን	-16703
ግምት	-16704
ገባብ	-16705
ጅማ	-16706
ድር።	-16707
ዮሃ	-16708
ዝ።	-16709
ዘንቱ	-16710
ዖ፡	-16711
ዓኩም	-16712
ዑል	-16713
ዐን።	-16714
ውየ	-16715
ዋሪያት	-16716
ዋጅ	-16717
ዉዑ	-16718
ዉር	-16719
ኻኽታ	-16720
ኰሰ	-16721
ካዮን	-16722
ካውን	-16723
ካና	-16724
ካላት	-16725
ከየ	-16726
ከመ	-16727
ኣማኢት	-16728
ኢታት	-16729
ንኮ	-16730
ቸው	-16731
ቲኦም	-16732
ቲቭ	-16733
ተወ።	-16734
ተተ	-16735
ተሪ	-16736
ተማ	-16737
ብረና	-16738
ብሎ።	-16739
በልዕን	-16740
ቈጻጸሮ	-16741
ስተብህ	-16742
ሳኔ	-16743
ሰምዕዎ	-16744
ርእዩ።	-16745
ራቕን	-16746
ረድኦ	-16747
ረጸን።	-16748
ምሃሮ	-16749
ማጽ	-16750
ሙት	-16751
መጥ።	-16752
መሓላለ	-16753
ሓቲ	-16754
ላእኩ	-16755
ላዋ	-16756
ላሳይ	-16757
ሉ"	-16758
ለይ፣	-16759
ለማመ	-16760
ሃደራት	-16761
ሀል	-16762
-ሓደ	-16763
▁ፍሉጣት	-16764
▁ጾመ	-16765
▁ጽዑቕ	-16766
▁ጻድቕን	-16767
▁ጸንሑ።	-16768
▁ጸውዕ	-16769
▁ጸረፍዎ	-16770
▁ጥሒ	-16771
▁ግንዛ	-16772
▁ግበር፡	-16773
▁ግህሰት	-16774
▁ግበሮ	-16775
▁ገዛኹም	-16776
▁ገላው	-16777
▁ድልዱል	-16778
▁ዲና?	-16779
▁ደርቢ	-16780
▁ደሚ	-16781
▁ዮሃንስን	-16782
▁ይጽዕሩ	-16783
▁ይግብኦ።	-16784
▁ይዝክር	-16785
▁ይንገር።	-16786
▁ይቕመጡ	-16787
▁ይስራሕ	-16788
▁ይሰርሕ።	-16789
▁ይፋ	-16790
▁ይዳ	-16791
▁ይዛረበ	-16792
▁ይመል	-16793
▁የጸግ	-16794
▁ዝግብአኒዶ	-16795
▁ዝደለይዎ	-16796
▁ዝኸድ	-16797
▁ዝበልኩኹም	-16798
▁ዝበለካ	-16799
▁ዝቐጸለ	-16800
▁ዝሰኣነ	-16801
▁ዝመሳሰል	-16802
▁ዝለአኸ	-16803
▁ዝፀ	-16804
▁ዝጽሊ	-16805
▁ዝጥቀመሉ	-16806
▁ዝደልየ	-16807
▁ዚኽእል።	-16808
▁ዚኣምኑ።	-16809
▁ዚዓዪ	-16810
▁ዘድሊ።	-16811
▁ዘይፈለጥ	-16812
▁ዘይግባእ	-16813
▁ዘይበ	-16814
▁ዘሕለፈ	-16815
▁ዘሎና፧	-16816
▁ዘለኹዎ	-16817
▁ዕትሮ	-16818
▁ዕል	-16819
▁ዑቅባ	-16820
▁ውእቱ	-16821
▁ውሰድ።	-16822
▁ወታደ	-16823
▁ወሃብቲ	-16824
▁ዄንና	-16825
▁ኽህበኩም	-16826
▁ኻባና	-16827
▁ኵሎ	-16828
▁ክውለድ	-16829
▁ክኸውን'ዩ።	-16830
▁ክኢሉ።	-16831
▁ክትጽሕፍ	-16832
▁ክትመር	-16833
▁ክቕበል	-16834
▁ክና	-16835
▁ካንሰር	-16836
▁ኪብ	-16837
▁ከፍርሆ	-16838
▁ከድልየካ	-16839
▁ከተገልግሉ	-16840
▁ከሎ፣	-16841
▁ከለዳውያን	-16842
▁ከዕር	-16843
▁ኦርቶዶክስ	-16844
▁ኦሎም	-16845
▁ኦሎምፒክ	-16846
▁እኽእል።	-16847
▁እንድየ	-16848
▁እንትርፎ	-16849
▁እንተለካ	-16850
▁እትቕጽል	-16851
▁እፈት	-16852
▁ኤፍራ	-16853
▁ኤማ	-16854
▁ኣፍራ	-16855
▁ኣፍረ	-16856
▁ኣይትግበር።	-16857
▁ኣይተፈልጠ	-16858
▁ኣይተፈልጠን።	-16859
▁ኣይረኸበ።	-16860
▁ኣይፈል	-16861
▁ኣይግበር	-16862
▁ኣይሐ	-16863
▁ኣየርላንድ	-16864
▁ኣዒንቶምውን	-16865
▁ኣናብስ	-16866
▁ኣቲኹም	-16867
▁ኣብራሃም	-16868
▁ኣባይቶም	-16869
▁ኣባላቱ	-16870
▁ኣምሓ	-16871
▁ኣማኸ	-16872
▁ኣሚነ	-16873
▁ኣመሪካዊ	-16874
▁ኣለና፡	-16875
▁ኣርኢ	-16876
▁ኣራእ	-16877
▁ኣሁን	-16878
▁ኢኻ'	-16879
▁ኢንተ	-16880
▁ኢልዎም።	-16881
▁ኢሱ	-16882
▁አበይ	-16883
▁አመስግነካ	-16884
▁ኖኅ	-16885
▁ንፍርዲ	-16886
▁ንጥፍኣት	-16887
▁ንጉሰ	-16888
▁ንደቂ	-16889
▁ንዘረባ	-16890
▁ንኽትረክብ	-16891
▁ንኣብርሃ	-16892
▁ንኣቢ	-16893
▁ንኣሜሪካ	-16894
▁ንሱ'ዩ።	-16895
▁ንምዉታት	-16896
▁ንመንፈሳዊ	-16897
▁ንመርዓ	-16898
▁ንጐ	-16899
▁ንደልዮ	-16900
▁ንዋ	-16901
▁ንበልዕ	-16902
▁ንርከብ።	-16903
▁ንራ	-16904
▁ን3	-16905
▁ናእዳ	-16906
▁ናህና	-16907
▁ነኝ	-16908
▁ትደልዪ	-16909
▁ትዕዝብ	-16910
▁ትፈልጣ	-16911
▁ትኩ	-16912
▁ትል	-16913
▁ተፍቅረኒ	-16914
▁ተጋጊ	-16915
▁ተደጋሚ፦	-16916
▁ተዋህቦ።	-16917
▁ተዋሂብዎም	-16918
▁ተኸታተሉ።	-16919
▁ተኣኪቡ	-16920
▁ተንሢ	-16921
▁ተተርጒ	-16922
▁ተሰሪሑ	-16923
▁ተራኺቦም	-16924
▁ተሐጐ	-16925
▁ተዘራረብ	-16926
▁ተንብብ	-16927
▁ተላኢ	-16928
▁ብፍቅ	-16929
▁ብፍርሒ	-16930
▁ብዕቱብ	-16931
▁ብውልቂ	-16932
▁ብኽፉእ	-16933
▁ብኢየሱስ	-16934
▁ብኃጢኣትካ	-16935
▁ብቀዳምነት	-16936
▁ብሸነኽ	-16937
▁ብጥም	-16938
▁ብጠቕ	-16939
▁ብየሆዋ	-16940
▁ብክ	-16941
▁ብብዙሓት	-16942
▁ብሮ	-16943
▁ብሞቱ	-16944
▁በል፡	-16945
▁በለትኒ።	-16946
▁ቘሪ	-16947
▁ቓሉ	-16948
▁ቈልዑን	-16949
▁ቆሪ	-16950
▁ቅብኣት	-16951
▁ቃና	-16952
▁ቀጽልዎ	-16953
▁ቀዳመይ	-16954
▁ሻው	-16955
▁ሻም	-16956
▁ስለ-	-16957
▁ስግር	-16958
▁ሰብነትና	-16959
▁ሰበር	-16960
▁ራህ	-16961
▁ረአኹ	-16962
▁ሥር	-16963
▁ሞተት።	-16964
▁ምዝካር	-16965
▁ምዉቕ	-16966
▁ምትሕግ	-16967
▁ምስናይዚ	-16968
▁ምስጓ	-16969
▁ምስለ	-16970
▁ምምላእ	-16971
▁ምተገብ	-16972
▁መጸውዒ	-16973
▁መድረኻት	-16974
▁መደባ	-16975
▁መወዳእታኡ፡	-16976
▁መብዝ	-16977
▁መቐረት	-16978
▁መቅደስ	-16979
▁መሲልዎ	-16980
▁መሰላትን	-16981
▁መርፍእ	-16982
▁መልከፍቲ	-16983
▁መባ	-16984
▁መቀ	-16985
▁ሕያዎት	-16986
▁ሕቶን	-16987
▁ሓቲቶም	-16988
▁ሓቲትካ	-16989
▁ሓበሻ	-16990
▁ሓሚምካ	-16991
▁ሎሚ።	-16992
▁ልምዓታዊ	-16993
▁ሆንግ	-16994
▁ህዝቅኤል	-16995
▁ሃናጺ	-16996
▁org	-16997
▁[Read	-16998
▁Contin	-16999
▁Continue	-17000
▁Comment	-17001
▁3እቲ	-17002
▁(ራኢ	-17003
▁(1ይ	-17004
▁'የ።	-17005
▁'ንስኻ	-17006
▁"እወ"	-17007
▁"አነ	-17008
▁"በጃኻ	-17009
▁"ጎ	-17010
▁"ድ	-17011
››	-17012
ፈልጠኒ	-17013
ፈትን	-17014
ጽግ	-17015
ጨንቕ	-17016
ጎን	-17017
ጋጮ	-17018
ገቡ።	-17019
ድሪስ	-17020
ድን።	-17021
ደንታዊ	-17022
ደዮ	-17023
ደሪ	-17024
ይቶት	-17025
ያፍ	-17026
የለ	-17027
ዘራረ	-17028
ዋርያቱ	-17029
ዋ፣	-17030
ዅም	-17031
ኹኻ	-17032
ክሉ	-17033
ካት	-17034
ኩዎን	-17035
ከሎ	-17036
እትዉ	-17037
ንእ	-17038
ናን?	-17039
ናው	-17040
ነፍነፍ	-17041
ነትን፡	-17042
ባቆም	-17043
በትን።	-17044
በልካዮ	-17045
ቐለ	-17046
ቆ።	-17047
ቀመሉ	-17048
ስሩዕ	-17049
ሳይን	-17050
ሳነ	-17051
ሱናት	-17052
ሰሪ	-17053
ሰልካ	-17054
ሮም፣	-17055
ሮታ	-17056
ሮብዓም	-17057
ረካ።	-17058
ምሉ	-17059
ሙንን	-17060
ሙሉ	-17061
መዛ	-17062
ሕዚ	-17063
ሐፍሩ	-17064
ሎሞን	-17065
ለኻዊ	-17066
ሃረ	-17067
ear	-17068
a)	-17069
:23	-17070
:00	-17071
▁፡-	-17072
▁ፍርድታት	-17073
▁ፋርስ	-17074
▁ፊን	-17075
▁ፈጣሪና	-17076
▁ፈጢሩና።	-17077
▁ፈይስቡክ	-17078
▁ጻዕርታት	-17079
▁ጥልመት	-17080
▁ጐደናታት	-17081
▁ጐረባብ	-17082
▁ጎበዝ	-17083
▁ጎስ	-17084
▁ግብርኻ	-17085
▁ግን።	-17086
▁ገጽና	-17087
▁ገይረ።	-17088
▁ጅግንነት	-17089
▁ድንኳኑ	-17090
▁ዲክታ	-17091
▁ደጋጊምካ	-17092
▁ደዊለ	-17093
▁ደሪ	-17094
▁ይወጽእ።	-17095
▁ይብላ።	-17096
▁ይምህሮም	-17097
▁ይካየድ።	-17098
▁ይስዕ	-17099
▁ይሰር	-17100
▁ይሰምዑ	-17101
▁ይህቡ	-17102
▁ዩክ	-17103
▁የገልግል።	-17104
▁የላን።	-17105
▁ዞም	-17106
▁ዝፈጸሞ	-17107
▁ዝፈርህ	-17108
▁ዝጸዋዕ	-17109
▁ዝገዝእ	-17110
▁ዝገበርና	-17111
▁ዝደለዩ	-17112
▁ዝውሰድ	-17113
▁ዝኾን	-17114
▁ዝኽእልን	-17115
▁ዝነበርኩም	-17116
▁ዝነበረቶ	-17117
▁ዝተፈጠረ	-17118
▁ዝተሸ	-17119
▁ዝብለኩም	-17120
▁ዝብኢ	-17121
▁ዝበለኩም	-17122
▁ዝበልኩም	-17123
▁ዝሰማማዕ	-17124
▁ዝምልከቶ	-17125
▁ዝለኣ	-17126
▁ዝግብኦም	-17127
▁ዝጅመር	-17128
▁ዝኃ	-17129
▁ዝራ	-17130
▁ዘይኮንኩ	-17131
▁ዘይኮንና	-17132
▁ዘይነበረ፡	-17133
▁ዘይሰሚ	-17134
▁ዘይሓልፍ	-17135
▁ዘሕፍር	-17136
▁ዘሌዋውያን	-17137
▁ዘለዎ'ዩ።	-17138
▁ዘለኒ።	-17139
▁ዘክሩ	-17140
▁ዘኢ	-17141
▁ዘሊ	-17142
▁ዕዱማት	-17143
▁ዓድኻ	-17144
▁ዓብዪ፡	-17145
▁ዓስቡ	-17146
▁ዓለም።	-17147
▁ውቅያኖስ	-17148
▁ዋሕዚ	-17149
▁ወንጌላዊ	-17150
▁ወሰናት	-17151
▁ዂላትና	-17152
▁ኽንድ	-17153
▁ኽተኽ	-17154
▁ኺብሉ	-17155
▁ኲልና	-17156
▁ክክክክ	-17157
▁ክንኣምን	-17158
▁ክንሰምዖ	-17159
▁ክነግሮም	-17160
▁ክትኣምን	-17161
▁ክትሓልፍ	-17162
▁ክጥቀሙ	-17163
▁ክሕግዘኩም	-17164
▁ኪቐርብ	-17165
▁ከይጸንሐ፡	-17166
▁ከድሊ	-17167
▁ከካይድ	-17168
▁ከት	-17169
▁ከረጋግ	-17170
▁እግዚኣብሔር!	-17171
▁እዚስ	-17172
▁እከለ	-17173
▁እንዲኻ	-17174
▁እንተኽ	-17175
▁እኔኹ	-17176
▁እትፈልጦ	-17177
▁እተዓ	-17178
▁እተመዝ	-17179
▁ኣገላልጻ	-17180
▁ኣዲኦም	-17181
▁ኣይኮኑን?	-17182
▁ኣይከኣልኩን	-17183
▁ኣይትግበር፥	-17184
▁ኣይተዛረበን።	-17185
▁ኣይተቐየረን።	-17186
▁ኣይግድ	-17187
▁ኣየገድ	-17188
▁ኣየነይቲ	-17189
▁ኣንቃዕ	-17190
▁ኣትያ	-17191
▁ኣቐዲማ	-17192
▁ኣስተው	-17193
▁ኣስራሒ	-17194
▁ኣርእስት	-17195
▁ኣመሪካውያን	-17196
▁ኣሎኹ፣	-17197
▁ኣሎ፥	-17198
▁ኣሎ'ዶ?	-17199
▁ኣላ፣	-17200
▁ኣሉላ	-17201
▁ኣለዉና	-17202
▁ኣትዮም።	-17203
▁ኢኹም፤	-17204
▁ኢና"።	-17205
▁ኢለዮ	-17206
▁ኢካ።	-17207
▁ኢት	-17208
▁ኢ.	-17209
▁ኡርያ	-17210
▁አለዉ።	-17211
▁ንፈቱ።	-17212
▁ንዳዊት፡	-17213
▁ንደቅና	-17214
▁ንዓዲ	-17215
▁ንኩልና	-17216
▁ንእያ	-17217
▁ንኣዲኡ	-17218
▁ንኣመሪካ	-17219
▁ንሳ፡	-17220
▁ንሳራ፡	-17221
▁ንምሸቱ	-17222
▁ንመልከ	-17223
▁ንፍቕሪ	-17224
▁ንጠ	-17225
▁ንልም	-17226
▁ናትኻ	-17227
▁ነንብብ።	-17228
▁ነመስግነ	-17229
▁ኃወይ	-17230
▁ትፈልጥ፧	-17231
▁ትኸይድ።	-17232
▁ተፈላሊ	-17233
▁ተዋህበ	-17234
▁ተስፋና	-17235
▁ተሪፎም	-17236
▁ተሓታትነት	-17237
▁ተላዒሉ	-17238
▁ብዝሓሸ	-17239
▁ብዘይካዚ	-17240
▁ብዘይካ'ዚ	-17241
▁ብዕምቆት	-17242
▁ብቕኑዕ	-17243
▁ብቀሊሉ	-17244
▁ብሕጽር	-17245
▁ብይን	-17246
▁ባርያኻ	-17247
▁ባዓል	-17248
▁በዲለ	-17249
▁በሃልቲ	-17250
▁በደለ	-17251
▁ቕዱ	-17252
▁ቃልኪዳን	-17253
▁ቀዳማይ፡	-17254
▁ስቓይን	-17255
▁ስምዑ፡	-17256
▁ስምም	-17257
▁ስፓ	-17258
▁ስሙ	-17259
▁ሳምራውያን	-17260
▁ሳሕል	-17261
▁ሰዓቱ	-17262
▁ሰበይተይን	-17263
▁ርግፀኛ	-17264
▁ርእየዮ	-17265
▁ርሒቑ	-17266
▁ረዳእየይ	-17267
▁ረኽሲ	-17268
▁ረአየ	-17269
▁ምድን	-17270
▁ምውዳቕ	-17271
▁ምውት	-17272
▁ምዉታን	-17273
▁ምንዝርና	-17274
▁ምቁጽጻር	-17275
▁ምርግጋጽ	-17276
▁ምምጽኡ	-17277
▁ምምራሕ	-17278
▁ማሕበራውን	-17279
▁ሚስጢር	-17280
▁መጥቃዕ	-17281
▁መዝ.	-17282
▁መዓልቲውን	-17283
▁መስር	-17284
▁መርሓባ	-17285
▁መጠይቕ	-17286
▁መውዓሊ	-17287
▁መህ	-17288
▁ሕሱር	-17289
▁ሕሩይ	-17290
▁ሓውን	-17291
▁ልበይን	-17292
▁ለጋስ	-17293
▁ህልዊ	-17294
▁ሃንደበታዊ	-17295
▁ሃበና	-17296
▁72	-17297
▁10)	-17298
▁(የ	-17299
▁(4	-17300
▁'ኦ	-17301
▁"ናበይ	-17302
▁"ብርግጽ	-17303
▁"ቀልጥፊ!	-17304
▁"ስለዚ	-17305
▁"ግናኸ	-17306
▁"ህ	-17307
፣2	-17308
ጻድቃን	-17309
ጕሂ	-17310
ጎድ	-17311
ድእ።	-17312
ድርቲ	-17313
ድሕና	-17314
ዲሞስ	-17315
ያኑ	-17316
ዜማ	-17317
ዘነ	-17318
ዘቡ	-17319
ዘሚ	-17320
ዕዎም	-17321
ውላ	-17322
ዊን	-17323
ወስድን	-17324
ወኩም	-17325
ወሳ	-17326
ኽዎ።	-17327
ኹም!	-17328
ኸ፡	-17329
ኸን	-17330
ኰር	-17331
እሰርቲ	-17332
እምሮኣዊ	-17333
እ።	-17334
ኣቱን	-17335
አል።	-17336
ኒስተር	-17337
ነማ	-17338
ትንክፍ	-17339
ትንሳኤ	-17340
ትኹምን	-17341
ታውነት	-17342
ተወን።	-17343
ተርን	-17344
ባኽ	-17345
ቑር	-17346
ቍጽጻር	-17347
ቄዶንያ	-17348
ቀርቦ	-17349
ሽ፡	-17350
ስደተኛታት	-17351
ርኽቲ	-17352
ረዩ	-17353
ምድላው	-17354
ምርሕ	-17355
ምሕላው	-17356
ምልጥ	-17357
ምጅማር	-17358
ምሽ	-17359
መኒ።	-17360
ሕልዋ	-17361
ሓደጋ	-17362
ሑር	-17363
ልና"	-17364
ልምኑ	-17365
ልሰይቲ	-17366
ለኣኽ	-17367
ለስቲ	-17368
IS	-17369
:30	-17370
:24	-17371
:14)	-17372
17	-17373
16	-17374
-24)	-17375
▁ፍቕር	-17376
▁ፈታውየይ	-17377
▁ፈቲኑ	-17378
▁ጽገ	-17379
▁ጽዋዕ	-17380
▁ጽናሕ	-17381
▁ጸላእቶም	-17382
▁ጸላእትኹም	-17383
▁ጥንታዊት	-17384
▁ጥቅሲ	-17385
▁ጥምየት	-17386
▁ጣልቃ	-17387
▁ጠቕሊ	-17388
▁ጐይታናን	-17389
▁ጐልጐል	-17390
▁ጐበዝ	-17391
▁ጎይት	-17392
▁ጊዜውን	-17393
▁ገይር	-17394
▁ገፈ	-17395
▁ድልው	-17396
▁ደቡብን	-17397
▁ደቀይን	-17398
▁ዮም	-17399
▁ይግበረልና።	-17400
▁ይኹን!	-17401
▁ይንገ	-17402
▁ይክእሉ	-17403
▁ይእቲ	-17404
▁ይቘ	-17405
▁ይሃን	-17406
▁የርኢ	-17407
▁ዝፍጸመሉ	-17408
▁ዝጠቅም	-17409
▁ዝገበረት	-17410
▁ዝተጠቕሰ	-17411
▁ዝተመል	-17412
▁ዝበለ፡	-17413
▁ዝረኸብናዮ	-17414
▁ዝምነ	-17415
▁ዝመሰለ	-17416
▁ዝሓለፈት	-17417
▁ዝጨ	-17418
▁ዝግለጽ	-17419
▁ዝቆ	-17420
▁ዝምህ	-17421
▁ዚቕመጡ	-17422
▁ዚስምዓካ	-17423
▁ዚመጽእ፡	-17424
▁ዚገብረ	-17425
▁ዚዀ	-17426
▁ዚመርሕ	-17427
▁ዚሕግዝ	-17428
▁ዘፍቀረና	-17429
▁ዘይኮነ።	-17430
▁ዘይኣመንቲ	-17431
▁ዘይትኣምኑ	-17432
▁ዘይደለ	-17433
▁ዘይተሓ	-17434
▁ዘውጽኦ	-17435
▁ዘንብራ	-17436
▁ዘበለት	-17437
▁ዘረባኻ	-17438
▁ዘሕለፎ	-17439
▁ዘሐጉስ	-17440
▁ዘሎካ።	-17441
▁ዘለኺ	-17442
▁ዘስካሕክሕ	-17443
▁ዕው	-17444
▁ዓጋመ	-17445
▁ዓያሱ	-17446
▁ዓማዊል	-17447
▁ዓለም'ውን	-17448
▁ውሽጥን	-17449
▁ውደባ	-17450
▁ወይልርኹም	-17451
▁ወነንቲ	-17452
▁ኾይኖም	-17453
▁ኽጽዉዑ	-17454
▁ኽንፈልጦ	-17455
▁ኺዛረቡ	-17456
▁ኺሰ	-17457
▁ኺመ	-17458
▁ኮቪድ-19	-17459
▁ክንፍጽም	-17460
▁ክንመጽእ	-17461
▁ክትጥፍኡ	-17462
▁ክትወልዲ	-17463
▁ክትእ	-17464
▁ክትኣትዉ	-17465
▁ክትንስ	-17466
▁ክርስትያናዊት	-17467
▁ክመላለስ	-17468
▁ክልላት	-17469
▁ክጽሊ	-17470
▁ክጭ	-17471
▁ክኸይድ	-17472
▁ክምር	-17473
▁ኪ.	-17474
▁ኩርናዕ	-17475
▁ከተማታቶም	-17476
▁ከምዝብል	-17477
▁ከንቲ	-17478
▁ከንቲባ	-17479
▁እግዚአብሔር፡	-17480
▁እያ"።	-17481
▁እዩ'ሞ	-17482
▁እንበኣር	-17483
▁እትፈልጥዎ	-17484
▁እትርስተይዋ	-17485
▁እተጠመ	-17486
▁እተገብረሉ	-17487
▁እተሸ	-17488
▁እስላም	-17489
▁እሴይ	-17490
▁እምበርዶ	-17491
▁እድሪስ	-17492
▁እዛረብ	-17493
▁እሰርሕ	-17494
▁ኣጋጢሙካ	-17495
▁ኣገዳስን	-17496
▁ኣድሒን	-17497
▁ኣድላዩ	-17498
▁ኣይኣመንኩምን።	-17499
▁ኣይተዓ	-17500
▁ኣይተለወ	-17501
▁ኣይሸበር	-17502
▁ኣይሁዳውያን	-17503
▁ኣይእ	-17504
▁ኣየድ	-17505
▁ኣዕኑድ	-17506
▁ኣወዳድባ	-17507
▁ኣኽብር	-17508
▁ኣኅሊፎም	-17509
▁ኣተኵር።	-17510
▁ኣብዚሑ	-17511
▁ኣብዚ፡	-17512
▁ኣማራ	-17513
▁ኣመለ	-17514
▁ኣመለኻኽታ	-17515
▁ኣሎና፣	-17516
▁ኣለኪ።	-17517
▁ኣህዛብ፡	-17518
▁ኢንግሊዝ	-17519
▁ኡጋንዳ	-17520
▁አጠንቅቖም	-17521
▁ንጴጥሮ	-17522
▁ንእተ	-17523
▁ንኣዲ	-17524
▁ንነገ	-17525
▁ንባዕሎም	-17526
▁ንስንሳ	-17527
▁ንምህናጽ	-17528
▁ንሙሴን	-17529
▁ንሕናኸ	-17530
▁ንሓሳ	-17531
▁ንሄዋን	-17532
▁ንጥቀመሉ	-17533
▁ንሃብ	-17534
▁ነገሩ።	-17535
▁ነድሪ	-17536
▁ነዉ	-17537
▁ነመስግን።	-17538
▁ትኽክለኛ	-17539
▁ትሽዓተን	-17540
▁ትርጕ	-17541
▁ትማልን	-17542
▁ትፈት	-17543
▁ትጥሕሱ	-17544
▁ትጉ	-17545
▁ተጣዒ	-17546
▁ተዓዘብቲ	-17547
▁ተዋሂብ	-17548
▁ተወሲዱ	-17549
▁ተታሒ	-17550
▁ተባሃሃሉ።	-17551
▁ተሰጒ	-17552
▁ተመሊስና	-17553
▁ተሃዊ	-17554
▁ተለወ	-17555
▁ብድሕረይ	-17556
▁ብዛዕባኦም	-17557
▁ብዛዕባኣ	-17558
▁ብዘይተጸበ	-17559
▁ብዕጫ	-17560
▁ብሥጋ	-17561
▁ብምሕረቱ	-17562
▁ብማሕ	-17563
▁ብህጹጽ	-17564
▁ብ1914	-17565
▁ብቅን	-17566
▁በጽሖም	-17567
▁በጃኩም	-17568
▁በፂ	-17569
▁ቝሩብ	-17570
▁ቐትሪ	-17571
▁ቆሮንጦስ	-17572
▁ቅልጽ	-17573
▁ቀፂ	-17574
▁ቀጣይ	-17575
▁ቀት	-17576
▁ሽግርና	-17577
▁ሽመይ	-17578
▁ሻዕ	-17579
▁ሹማምቲ	-17580
▁ሸቃ	-17581
▁ስለዚ:	-17582
▁ሰገደ።	-17583
▁ሰዓብቱ	-17584
▁ሰንሰለት	-17585
▁ሰሪሖም	-17586
▁ሰሪሕካ	-17587
▁ሰማዕታት	-17588
▁ሰዓል	-17589
▁ሰለማዊ	-17590
▁ርእየያ	-17591
▁ርሕሩ	-17592
▁ረኣየ፣	-17593
▁ረሲዐ	-17594
▁ምጽራይ	-17595
▁ምጥቃስ	-17596
▁ምድርና	-17597
▁ምኽርታት	-17598
▁ምቁራጽ	-17599
▁ምስሕ	-17600
▁ምርጥ	-17601
▁ምልው	-17602
▁ምልውዋጥ	-17603
▁ምኢ	-17604
▁ማዕከን	-17605
▁ማእከልና	-17606
▁ማለት'ዩ?	-17607
▁ሙዚቀ	-17608
▁መጀመርታ፡	-17609
▁መድኃኒ	-17610
▁መንእሰያት፡	-17611
▁መን'ዮም?	-17612
▁መንነ	-17613
▁መሳርያ	-17614
▁መርገጽ	-17615
▁መሪጸ	-17616
▁መመልከቲ	-17617
▁መለሰሎም፥	-17618
▁መለሰ፡	-17619
▁መኃ	-17620
▁ሕገ-መንግስቲ	-17621
▁ሕይወቶም	-17622
▁ሓፂር	-17623
▁ሓበረታ	-17624
▁ሓላፍነ	-17625
▁ሓቦ	-17626
▁ሒሳብ	-17627
▁ሎሚን	-17628
▁ለከ	-17629
▁ህዝብናን	-17630
▁ህዝቢ'ዩ።	-17631
▁ህፃን	-17632
▁ህወ	-17633
▁ህበይ	-17634
▁ሃልሃልታ	-17635
▁ሃነፍነፍ	-17636
▁ሃባ	-17637
▁50%	-17638
▁20.	-17639
▁144	-17640
▁0.	-17641
▁(እብራውያን	-17642
▁(ሕጡብ	-17643
▁(15	-17644
▁(እቲ	-17645
▁'ኮ	-17646
▁"ኣነስ	-17647
▁"ኣንታ	-17648
▁"ኣቲ	-17649
▁"ብዘይ	-17650
▁"መዓልቲ	-17651
▁"[ኣምላኽ	-17652
▁"[ኣምላኽ]	-17653
▁"ፍረ	-17654
ፈሎም	-17655
ጥይት	-17656
ጠሉ	-17657
ጕል	-17658
ግሩ	-17659
ጋሩ	-17660
ገርምን	-17661
ጃት	-17662
ድሕነኒ	-17663
ዱኒ	-17664
ደገሉ	-17665
ደልና	-17666
ዘሉ	-17667
ወስዳ	-17668
ወርዶም	-17669
ወጀ	-17670
ኾም፡	-17671
ካየደሉ	-17672
ካባይ	-17673
ኩዋ።	-17674
እዎም	-17675
ና'ውን	-17676
ቱኒ	-17677
ተሓሳስባ	-17678
ቭየት	-17679
ቦ፡	-17680
ብዙኅ	-17681
ብረካ	-17682
ብለይ	-17683
ቤድ	-17684
ቢሉ	-17685
ቢሄር	-17686
በየካ	-17687
በበኛ	-17688
ቕዑ	-17689
ቑን	-17690
ቐትል	-17691
ቐና	-17692
ቆጻጽራ	-17693
ቃና	-17694
ቃባ	-17695
ሶም፡	-17696
ሳኪ	-17697
ሳቕ	-17698
ሲ፡+	-17699
ርስቲ	-17700
ሪሕነት	-17701
ረጋገ	-17702
ረቡ፡	-17703
ምስታፍ	-17704
ማርክ	-17705
ሙኻ	-17706
መንን	-17707
ሕብረት	-17708
ሓስቡ።	-17709
ሓርኛ	-17710
ልየን	-17711
ሉን፡	-17712
ለይ!	-17713
ለምታ	-17714
ለዲ	-17715
ለካን	-17716
ህንጠ	-17717
ሃሪት	-17718
ur	-17719
ne	-17720
:7)	-17721
7።	-17722
-8	-17723
▁››	-17724
▁ፓርክ	-17725
▁ፍቕርና	-17726
▁ፍሽለት	-17727
▁ፍርሃ	-17728
▁ፍለጡ	-17729
▁ፈሪሀ	-17730
▁ፈጠራ	-17731
▁ጽብቅቲ	-17732
▁ጽሩ	-17733
▁ጻዕርን	-17734
▁ጸላኢኻ	-17735
▁ጸጽባሕ	-17736
▁ጸቢብ	-17737
▁ጣዕሚ	-17738
▁ጣዖ	-17739
▁ጠመየ።	-17740
▁ጕንዲ	-17741
▁ግድል	-17742
▁ገይረካ	-17743
▁ገናዶ	-17744
▁ገበላ	-17745
▁ድኻታትን	-17746
▁ድኻን	-17747
▁ዲጂ	-17748
▁ደኣ'ምበር	-17749
▁ደቂሶም	-17750
▁ደለየ	-17751
▁ይጽዋዕ	-17752
▁ይግባኣ	-17753
▁ይግበአ	-17754
▁ይደልየና	-17755
▁ይኺዱ	-17756
▁ይኣኽለኒ	-17757
▁ይስመዓኒ።	-17758
▁ይምልከት።	-17759
▁ይመስሎም	-17760
▁ይደግ	-17761
▁ይዘ	-17762
▁ይዕድመ	-17763
▁ይበዝሑ	-17764
▁ይስዕብ	-17765
▁ይሄ	-17766
▁ዩሮ	-17767
▁የሱሰይ	-17768
▁የሎን፡	-17769
▁የድሕኖ።	-17770
▁የኒ	-17771
▁የሕዋ	-17772
▁ዝጸሓፎ	-17773
▁ዝግብኣና	-17774
▁ዝግብአና	-17775
▁ዝደልያ	-17776
▁ዝዀኑ፡	-17777
▁ዝዀንኩ፡	-17778
▁ዝኾነን	-17779
▁ዝተራእየ	-17780
▁ዝተመርኮሰ	-17781
▁ዝተንስ	-17782
▁ዝብል'ዩ።	-17783
▁ዝብገስ	-17784
▁ዝብህ	-17785
▁ዝበዝሓ	-17786
▁ዝቘመ	-17787
▁ዝቐለለ	-17788
▁ዝሰዓበ	-17789
▁ዝመስሎ	-17790
▁ዝመላለስ	-17791
▁ዝሓዝ	-17792
▁ዝህባ	-17793
▁ዝግም	-17794
▁ዝገልጾ	-17795
▁ዝስዕ	-17796
▁ዝህልዎ	-17797
▁ዜገልግሉ	-17798
▁ዚርከባ	-17799
▁ዚሐስቡ	-17800
▁ዚደልዮ	-17801
▁ዚነግ	-17802
▁ዚሓስብ	-17803
▁ዘይኮንናስ	-17804
▁ዘይኮነት	-17805
[...]
