{
  "version": "1.0",
  "truncation": null,
  "padding": null,
  "added_tokens": [
    {
      "id": 0,
      "content": "<unk>",
      "single_word": false,
      "lstrip": false,
      "rstrip": false,
      "normalized": false,
      "special": true
    },
    {
      "id": 1,
      "content": "<s>",
      "single_word": false,
      "lstrip": false,
      "rstrip": false,
      "normalized": false,
      "special": true
    },
    {
      "id": 2,
      "content": "</s>",
      "single_word": false,
      "lstrip": false,
      "rstrip": false,
      "normalized": false,
      "special": true
    },
    {
      "id": 3,
      "content": "<pad>",
      "single_word": false,
      "lstrip": false,
      "rstrip": false,
      "normalized": false,
      "special": true
    },
    {
      "id": 4,
      "content": "<mask>",
      "single_word": false,
      "lstrip": false,
      "rstrip": false,
      "normalized": false,
      "special": true
    }
  ],
  "normalizer": {
    "type": "NFC"
  },
  "pre_tokenizer": {
    "type": "ByteLevel",
    "add_prefix_space": true,
    "trim_offsets": true,
    "use_regex": true
  },
  "post_processor": null,
  "decoder": {
    "type": "ByteLevel",
    "add_prefix_space": true,
    "trim_offsets": true,
    "use_regex": true
  },
  "model": {
    "type": "BPE",
    "dropout": null,
    "unk_token": "<unk>",
    "continuing_subword_prefix": null,
    "end_of_word_suffix": null,
    "fuse_unk": false,
    "byte_fallback": false,
    "ignore_merges": false,
    "vocab": {
      "<unk>": 0,
      "<s>": 1,
      "</s>": 2,
      "<pad>": 3,
      "<mask>": 4,
      "¡": 5,
      "¢": 6,
      "£": 7,
      "¤": 8,
      "¥": 9,
      "¦": 10,
      "§": 11,
      "¨": 12,
      "©": 13,
      "ª": 14,
      "«": 15,
      "¬": 16,
      "®": 17,
      "¯": 18,
      "°": 19,
      "±": 20,
      "²": 21,
      "³": 22,
      "´": 23,
      "µ": 24,
      "¶": 25,
      "·": 26,
      "¸": 27,
      "¹": 28,
      "º": 29,
      "»": 30,
      "¼": 31,
      "½": 32,
      "¾": 33,
      "¿": 34,
      "á": 35,
      "Ġ": 36,
      "Ģ": 37,
      "ģ": 38,
      "Ĥ": 39,
      "ĥ": 40,
      "Ħ": 41,
      "ħ": 42,
      "Ĩ": 43,
      "ĩ": 44,
      "Ī": 45,
      "ī": 46,
      "Ĭ": 47,
      "ĭ": 48,
      "Į": 49,
      "į": 50,
      "İ": 51,
      "ı": 52,
      "Ĳ": 53,
      "ĳ": 54,
      "Ĵ": 55,
      "ĵ": 56,
      "Ķ": 57,
      "ķ": 58,
      "ĸ": 59,
      "Ĺ": 60,
      "ĺ": 61,
      "Ļ": 62,
      "ļ": 63,
      "Ľ": 64,
      "ľ": 65,
      "Ŀ": 66,
      "ŀ": 67,
      "Ł": 68,
      "ł": 69,
      "Ń": 70,
      "áĪ": 71,
      "áī": 72,
      "áĬ": 73,
      "áĭ": 74,
      "ĠáĪ": 75,
      "áīµ": 76,
      "áĮ": 77,
      "ĠáĬ": 78,
      "Ġáĭ": 79,
      "ĪáĪ": 80,
      "áį": 81,
      "áĬķ": 82,
      "áĪĿ": 83,
      "áĪŃ": 84,
      "áī°": 85,
      "ĠáĪĪ": 86,
      "áĬł": 87,
      "áĪį": 88,
      "áī¥": 89,
      "áīł": 90,
      "ĠáĭĪ": 91,
      "áĪĺ": 92,
      "áĪ¨": 93,
      "áĬĲ": 94,
      "áĪµ": 95,
      "áĬ¨": 96,
      "áĭŃ": 97,
      "ĠáĬł": 98,
      "áĪĪ": 99,
      "ĠáĭĪáĪ": 100,
      "áĭµ": 101,
      "áĭ°": 102,
      "ĠáĪĪáĪ": 103,
      "áĬŃ": 104,
      "áīµáĪ": 105,
      "áī±": 106,
      "ĠáĮ": 107,
      "ĠáĪĺ": 108,
      "ĠáĬ¢": 109,
      "áĭ¨": 110,
      "áįį": 111,
      "áĭį": 112,
      "áĭĲ": 113,
      "áīĢ": 114,
      "áĪ°": 115,
      "Ġáīµ": 116,
      "áĬĵ": 117,
      "áīħ": 118,
      "áĬ¥": 119,
      "ĠáĪį": 120,
      "ĠáĬ¥": 121,
      "áĭķ": 122,
      "áĮį": 123,
      "áĪĲ": 124,
      "áįĪ": 125,
      "Ġáī°": 126,
      "áĪ«": 127,
      "áĭ«": 128,
      "áī£": 129,
      "áī³": 130,
      "áĪĭ": 131,
      "ĠáĬ¨": 132,
      "áĪķ": 133,
      "áĪĢ": 134,
      "áĬ«": 135,
      "ĠáĪĪáĬł": 136,
      "áĬĴ": 137,
      "áĭĪ": 138,
      "áĭ³": 139,
      "áĪĽ": 140,
      "áĬ¢": 141,
      "áĪħ": 142,
      "áĭ©": 143,
      "áĮĪ": 144,
      "áī¶": 145,
      "áĪ½": 146,
      "áĭĿ": 147,
      "áĮł": 148,
      "áĬ©": 149,
      "áĭĭ": 150,
      "áĬ®": 151,
      "áĪª": 152,
      "áĪ³": 153,
      "áī¡": 154,
      "áĪģ": 155,
      "áĮħ": 156,
      "áĮ¥": 157,
      "áįĭ": 158,
      "áĭĺ": 159,
      "áįĪáĪ": 160,
      "ĠáĪ°": 161,
      "áĮĪáĪ": 162,
      "áĪĪáĪ": 163,
      "áĪ®": 164,
      "áĮ½": 165,
      "áĪ©": 166,
      "ĠáĪĪáīµ": 167,
      "áĭ®": 168,
      "ĠáĪĲ": 169,
      "ĠáĬĲ": 170,
      "áĮĢ": 171,
      "áĮ¸": 172,
      "áīĥ": 173,
      "áĭĵ": 174,
      "ĠáĬķ": 175,
      "áĪ¸": 176,
      "ĠáĪĿ": 177,
      "ĠáĪĪáĪį": 178,
      "áĪĮ": 179,
      "áĬ£": 180,
      "áĪī": 181,
      "áĭĪáĪ": 182,
      "áĬª": 183,
      "ĠáĭĪáĪĪ": 184,
      "áĮĭ": 185,
      "Ġáīł": 186,
      "áĭ¬": 187,
      "ĠáĭĲ": 188,
      "áĪĬ": 189,
      "áī¦": 190,
      "áĪ¬": 191,
      "áĪİ": 192,
      "ĠáĭĪáĬł": 193,
      "áī¶áĪĿ": 194,
      "ĠáĪįáīµ": 195,
      "áĭ´": 196,
      "áĭī": 197,
      "áī´": 198,
      "ĠáĬŃ": 199,
      "áĪĻ": 200,
      "áī¤": 201,
      "ĠáĪĪáĬ¢": 202,
      "áĭ²": 203,
      "ĠáĬ£": 204,
      "áīµáĪĺ": 205,
      "áĪĵ": 206,
      "ĠáĭĪáĪĺ": 207,
      "Ġáĭ°": 208,
      "ĠáīµáĪ": 209,
      "ĠáĬ¢áīµ": 210,
      "ĠáĪµ": 211,
      "áĭ¨áīµ": 212,
      "áī²": 213,
      "Ġáī°áĬł": 214,
      "áĪ¨áīµ": 215,
      "áīµáĪĲ": 216,
      "ĠáĭŃ": 217,
      "ĠáīĢ": 218,
      "áĭĽ": 219,
      "ĠáĪķ": 220,
      "áĭ±": 221,
      "áĪĥ": 222,
      "Ġáī¥": 223,
      "áĬ©áĪĿ": 224,
      "Ġáį": 225,
      "ĠáĪ¸": 226,
      "ĠáĪĪáī°": 227,
      "ĠáĬ¢áĪį": 228,
      "áĪŀ": 229,
      "áīµáĬ¨": 230,
      "ĠáĬ¥áĬķ": 231,
      "áīµáĬĲ": 232,
      "áĭ¶": 233,
      "áĭİ": 234,
      "áĬĸ": 235,
      "áī¢": 236,
      "ĠáĪ¨": 237,
      "áĬ¤": 238,
      "áī°áĬķ": 239,
      "áī³áīµ": 240,
      "ĠáĭĪáĪį": 241,
      "ĠáĪĪáĪĪ": 242,
      "áĭŃáīµ": 243,
      "ĠáĪĢ": 244,
      "ĠáĪĪáĪĺ": 245,
      "áīłáīµ": 246,
      "áĪĨ": 247,
      "ĠáĭĪáĬ¢": 248,
      "áĮ£": 249,
      "áĬĶ": 250,
      "áĪ±": 251,
      "ĠáĭĪáĪĪáĪ": 252,
      "áīµáĪ°": 253,
      "áĮĥ": 254,
      "áĪ»": 255,
      "Ġáĭķ": 256,
      "áĭ®áĪĿ": 257,
      "áĬĳ": 258,
      "áĬłáīµ": 259,
      "áĪĪáīµ": 260,
      "áĪļ": 261,
      "áĪ²": 262,
      "ĠáĮį": 263,
      "ĠáĪĽ": 264,
      "Ġáī": 265,
      "ĠáĮĪ": 266,
      "ĠáĭĪáīµ": 267,
      "áĪ¶": 268,
      "áįİ": 269,
      "áĪĺáīµ": 270,
      "áīłáĪŃ": 271,
      "ĠáĭĪáĬ¥": 272,
      "áĭĸ": 273,
      "ĠáĪ³": 274,
      "ĠáĬłáīµ": 275,
      "Ġáįį": 276,
      "ĠáĮĢ": 277,
      "ĠáĪĵ": 278,
      "áĮİ": 279,
      "ĠáįĪ": 280,
      "ĠáĪħ": 281,
      "ĠáĬ«": 282,
      "Ġáĭµ": 283,
      "áī¼": 284,
      "áĮ¨": 285,
      "ĠáĪĪáĪĲ": 286,
      "ĠáĭĪáī°": 287,
      "áĬ¬": 288,
      "áįĪáĪŃ": 289,
      "Ġáīħ": 290,
      "ĠáĪĺáīµ": 291,
      "áĬ¦": 292,
      "Ġáĭĺ": 293,
      "áįī": 294,
      "ĠáĪ½": 295,
      "áĬ¡": 296,
      "ĠáĪĪáĬ¥": 297,
      "áĮ»": 298,
      "áĪľ": 299,
      "áĬĲáīµ": 300,
      "áĭĳ": 301,
      "áĮĮ": 302,
      "ĠáĬłáĪµ": 303,
      "Ġáī£": 304,
      "áĮŃ": 305,
      "ĠáĪŃ": 306,
      "áĭľ": 307,
      "áīµáĪĪ": 308,
      "áĪĨáĪĿ": 309,
      "Ġáĭĵ": 310,
      "áįĬ": 311,
      "áĮī": 312,
      "Ġáĭ¨": 313,
      "ĠáĮł": 314,
      "Ġáīµáīµ": 315,
      "áī°áĪŃ": 316,
      "áī¥áĪŃ": 317,
      "áīģ": 318,
      "ĠáĮ¸": 319,
      "áĭ°áĪŃ": 320,
      "Ġáĭį": 321,
      "áĭª": 322,
      "áĪĪáĬł": 323,
      "ĠáĬłáĬķ": 324,
      "áĪĸ": 325,
      "áĪ´": 326,
      "áįĮ": 327,
      "áīĨ": 328,
      "áĭ°áīµ": 329,
      "ĠáĬ¢áī°": 330,
      "ĠáĪĪáĪĪáĬł": 331,
      "ĠáĪĻ": 332,
      "ĠáĮĪáĪ": 333,
      "áīµáĪĢ": 334,
      "ĠáĭĿ": 335,
      "ĠáĬĲáĬł": 336,
      "ĠáĪĪáĪ°": 337,
      "ĠáĪĪáĭĲ": 338,
      "ĠáĪĪáĪįáīµ": 339,
      "áĭ«áīµ": 340,
      "áīµáĪĵ": 341,
      "ĠáĭĪáĪ°": 342,
      "ĠáĬłáĪį": 343,
      "áĭĲáīµ": 344,
      "áĪŃáĬ¨": 345,
      "áĭļ": 346,
      "áĪĳ": 347,
      "áīłáĪį": 348,
      "ĠáĬłáī¥": 349,
      "ĠáĪĭ": 350,
      "Ġáĭ³": 351,
      "áĭĬ": 352,
      "áĪ°áīµ": 353,
      "ĠáĬ¥áīµ": 354,
      "áĬĵáĪģ": 355,
      "Ġáī°áĪĲ": 356,
      "ĠáĭĪáĪĲ": 357,
      "áĮĬ": 358,
      "Ġáī³": 359,
      "ĠáĪĪáĬĲ": 360,
      "áīµáĪ¸": 361,
      "ĠáĬłáĪĿ": 362,
      "Ġáĭĭ": 363,
      "áīµáĪ³": 364,
      "ĠáĪĪáĬłáīµ": 365,
      "áĪ«áīµ": 366,
      "ĠáĬĵ": 367,
      "áīµáĪ«": 368,
      "áĭĶ": 369,
      "ĠáįĪáĪ": 370,
      "áĬŃáĪĿ": 371,
      "ĠáĪĪáĬ¨": 372,
      "áĭĴ": 373,
      "áĭ«áĭŃ": 374,
      "ĠáīµáĪ°": 375,
      "áĪ«áĭŃ": 376,
      "ĠáĬ¤": 377,
      "áĬŃáĪŃ": 378,
      "áĪİáĪĿ": 379,
      "áĪµáī°": 380,
      "ĠáĬłáĪŃ": 381,
      "ĠáĮĭ": 382,
      "áĪ¨áĭį": 383,
      "áĭµáĪŃ": 384,
      "ĠáĭŃáĬ¥": 385,
      "áĪ®áĪĿ": 386,
      "ĠáĬ®": 387,
      "áĭ«áĪĿ": 388,
      "áĭ¨áĬķ": 389,
      "ĠáĪĪáĪĢ": 390,
      "áī£áĭŃ": 391,
      "ĠáĪĥ": 392,
      "áĪĺáĪŃ": 393,
      "ĠáĭĪáĭĲ": 394,
      "áĭİáĪĿ": 395,
      "áī¥áĪĪ": 396,
      "áĬķáĭ°": 397,
      "ĠáĬ¥áĪµ": 398,
      "áĭĮ": 399,
      "áĪĲáīµ": 400,
      "áī¦áĪĿ": 401,
      "áĬķáĮį": 402,
      "áīĦ": 403,
      "áįĪáīµ": 404,
      "áĪĪáĭį": 405,
      "ĠáĪļ": 406,
      "ĠáĭĪáĪĪáĬł": 407,
      "áīłáī°": 408,
      "áĪ¨áĬ¨": 409,
      "áī¥áĪį": 410,
      "áĮ¡": 411,
      "ĠáĬłáįį": 412,
      "áĬĵáĭŃ": 413,
      "ĠáĬłáī°": 414,
      "áĪĦ": 415,
      "ĠáĮħ": 416,
      "áĬ¨áĪŃ": 417,
      "ĠáĪĪáĪįáĬł": 418,
      "áĪĤ": 419,
      "Ġáīĥ": 420,
      "áĪĭáĭŃ": 421,
      "ĠáĪ»": 422,
      "Ġáįĭ": 423,
      "áĬķáĪµ": 424,
      "áĮĪáĪŃ": 425,
      "áīłáĪ¨": 426,
      "ĠáĭĪáĪĿ": 427,
      "áĭĪáĪŃ": 428,
      "áĮĤ": 429,
      "áĮ¦": 430,
      "áĬķáĭµ": 431,
      "áī¥áĪ¨": 432,
      "ĠáĭĪáĬĲ": 433,
      "áĪįáīµ": 434,
      "áĪĭáīµ": 435,
      "áĬķáĬ¨": 436,
      "áī³áĭŃ": 437,
      "Ġáī°áĭĲ": 438,
      "áĭµáĪ¨": 439,
      "áįĪáĬķ": 440,
      "áĬĵáī±": 441,
      "ĠáĭĪáĪµ": 442,
      "ĠáĪĪáī°áĬł": 443,
      "áīµáĪĥ": 444,
      "ĠáĭĪáĭ°": 445,
      "áĬ«áĪģ": 446,
      "ĠáĪĪáīĢ": 447,
      "áīĤ": 448,
      "áī°áīµ": 449,
      "ĠáīµáĬ¨": 450,
      "ĠáĬ¦": 451,
      "áĬłáĪĿ": 452,
      "áĬĵáĪĢ": 453,
      "ĠáĪĺáĬķ": 454,
      "ĠáĭĪáĬ¨": 455,
      "áĪĴ": 456,
      "ĠáĮ½": 457,
      "áįķ": 458,
      "áįħ": 459,
      "ĠáĪ«": 460,
      "áĭ³áĭŃ": 461,
      "áĬķáīµ": 462,
      "áĭĻ": 463,
      "áįĪáĪ¨": 464,
      "áĪ°áĪį": 465,
      "áīĢáīµ": 466,
      "áĬĵáīµ": 467,
      "áĪŃáĪĲ": 468,
      "áĭ°áĪ¨": 469,
      "ĠáĮ¨": 470,
      "Ġáĭ²": 471,
      "áĭ°áĭį": 472,
      "ĠáĭĪáĪķ": 473,
      "áĪĺáĬķ": 474,
      "áĭŀ": 475,
      "ĠáĪĪáīł": 476,
      "áĬłáĪ°": 477,
      "ĠáĪĺáĪµ": 478,
      "ĠáĪĪáĪĪáĪ": 479,
      "ĠáĬ¥áĪĿ": 480,
      "ĠáĬ¢áĪįáīµ": 481,
      "ĠáĬ¢áĪĪáĬł": 482,
      "áĮįáĪį": 483,
      "Ġáī¤": 484,
      "ĠáĬłáĬŃ": 485,
      "áīłáĭį": 486,
      "ĠáĪĪáĪ¨": 487,
      "áīµáĪĽ": 488,
      "ĠáĪĪáĪ¸": 489,
      "áĪŃáī¥": 490,
      "áĪĽáīµ": 491,
      "áĪĽáĬķ": 492,
      "áĪĿáĬĲ": 493,
      "ĠáĬłáīħ": 494,
      "áĪŀáĪĿ": 495,
      "ĠáĪĪáĪĿ": 496,
      "áĪ¹": 497,
      "ĠáĮ¥": 498,
      "áĪĪáĪį": 499,
      "áĮįáĪŃ": 500,
      "áī£áīµ": 501,
      "áĮĪáī¥": 502,
      "áĪįáĪĺ": 503,
      "ĠáĪĬ": 504,
      "ĠáĭĪáīĢ": 505,
      "áĪĪáĪĿ": 506,
      "áĭŃáĭµ": 507,
      "ĠáĪĪáĬ¢áīµ": 508,
      "áĪ¨áī¥": 509,
      "áĬłáĪµ": 510,
      "áĪĶ": 511,
      "áĬ½": 512,
      "áĪįáĬ¨": 513,
      "ĠáĪĪáĬ£": 514,
      "ĠáĬłáĪ°": 515,
      "áĬŃáĬķ": 516,
      "áĪŃáīł": 517,
      "áĪŃáĪĺ": 518,
      "áĪł": 519,
      "áĭ°áĪĿ": 520,
      "áĭ«áĪģ": 521,
      "ĠáĬłáĭį": 522,
      "áĭĪáĪį": 523,
      "ĠáĬ¢áĬĲ": 524,
      "áĪĢáĬķ": 525,
      "áĪº": 526,
      "ĠáĪŀ": 527,
      "ĠáĭĪáĭµ": 528,
      "áĭĪáĬķ": 529,
      "áĪŃáīµ": 530,
      "áĪ¨áĪµ": 531,
      "áī½": 532,
      "áīłáĪĪ": 533,
      "áĮĪáĪį": 534,
      "áĬŃáĪį": 535,
      "ĠáĭĪáĬķ": 536,
      "áī¥áĬĲ": 537,
      "áĭĲáĪį": 538,
      "áĭĪáĪĪ": 539,
      "áĪĪáĪĺ": 540,
      "áĪ¾": 541,
      "áĬŃáĪ¨": 542,
      "áĪŃáĪµ": 543,
      "ĠáĭĪáĪ¸": 544,
      "ĠáĬ¢áĬķ": 545,
      "áĪĿáĭĲ": 546,
      "áĬĵáī°": 547,
      "áĮ¢": 548,
      "áĪĪáĪĪ": 549,
      "ĠáĭĪáĭķ": 550,
      "áįĢ": 551,
      "áīłáĬķ": 552,
      "áī¨": 553,
      "áī°áĪį": 554,
      "áĬłáĭį": 555,
      "áĭ°áĬķ": 556,
      "áīµáĪĭ": 557,
      "ĠáĭĪáĪ¨": 558,
      "áĮ¹": 559,
      "Ġáĭ«": 560,
      "áĪŃáĭ¨": 561,
      "ĠáĭĪáĪįáīµ": 562,
      "áĪĿáĪŃ": 563,
      "ĠáĪĿáĬķ": 564,
      "áĬ¨áīµ": 565,
      "áĪĪáī¥": 566,
      "ĠáĮĥ": 567,
      "áĮĦ": 568,
      "áĭªáĬķ": 569,
      "ĠáīµáĪĺ": 570,
      "áĪ«áĪĿ": 571,
      "áĪ¨áĪ°": 572,
      "áĬ«áī±": 573,
      "áĮ«": 574,
      "áĪŃáĭµ": 575,
      "áĬŃáī¥": 576,
      "áĮĪáĪ¨": 577,
      "áĭ®áīµ": 578,
      "ĠáĪĪáĭĪ": 579,
      "áĭĪáĪ¨": 580,
      "áĪĪáĬķ": 581,
      "áĬĵáĪĺ": 582,
      "Ġáī°áĪĢ": 583,
      "ĠáĬ©": 584,
      "áĪĪáĪĲ": 585,
      "áī«": 586,
      "áĪŃáĬĲ": 587,
      "áĭŃáĬķ": 588,
      "ĠáĬķáīµ": 589,
      "áīµáĪ»": 590,
      "ĠáĬłáĭµ": 591,
      "áĪŃáĬŃ": 592,
      "áĪŃáĬ¥": 593,
      "áī°áī¥": 594,
      "áīħáĪį": 595,
      "ĠáĭŃáĬł": 596,
      "ĠáĪĪáĬ¥áĬķ": 597,
      "áĪµáĪĺ": 598,
      "áĮĪáĪĿ": 599,
      "áĪĿáĬķ": 600,
      "áĪ¨áĬķ": 601,
      "ĠáĪĪáĭŃ": 602,
      "ĠáĬłáĮį": 603,
      "áĪµáīµ": 604,
      "áĪĭáĪĿ": 605,
      "áĪĺáĭµ": 606,
      "áĪĽáĭŃ": 607,
      "ĠáĪĪáĪĵ": 608,
      "ĠáīµáīĢ": 609,
      "áĬķáĪĲ": 610,
      "áĬ¨áī¥": 611,
      "áĮ©": 612,
      "áĪµáĪį": 613,
      "Ġáīµáīł": 614,
      "ĠáĪĪáĪķ": 615,
      "áĮłáīµ": 616,
      "ĠáĪĪáĭ°": 617,
      "áĪ°áī¥": 618,
      "áĪŃáĪķ": 619,
      "áī°áĪĿ": 620,
      "áĪĺáĭį": 621,
      "áĬŃáĪµ": 622,
      "ĠáīµáĬĲ": 623,
      "áĮģ": 624,
      "áĮ¼": 625,
      "áī¥áĭķ": 626,
      "áĭĲáĭį": 627,
      "ĠáĭĪáīł": 628,
      "áĪĺáĪ¨": 629,
      "ĠáĪĪáĪµ": 630,
      "áĬĸáĪĿ": 631,
      "áĪ¼": 632,
      "áĪ³áĭŃ": 633,
      "Ġáī¦": 634,
      "áĪ®áīµ": 635,
      "ĠáĭĽ": 636,
      "áĪŃáī±": 637,
      "ĠáĪĺáĪĲ": 638,
      "áīłáĮ¥": 639,
      "ĠáĬ¥áī¥": 640,
      "áīª": 641,
      "ĠáĬ¨áĪį": 642,
      "ĠáīµáĪ¸": 643,
      "ĠáĬ¨áĪĪ": 644,
      "ĠáĪª": 645,
      "áī°áĬĴ": 646,
      "áĪ¨áĪĲ": 647,
      "áĪŃáĭ«": 648,
      "áĬ«áĪĢ": 649,
      "ĠáĬŃáĪĿ": 650,
      "ĠáĪ±": 651,
      "ĠáĭĪáīħ": 652,
      "áĬķáīĢ": 653,
      "áĬ«áĭŃ": 654,
      "ĠáĭĪáĪŃ": 655,
      "áĪįáĭ¨": 656,
      "áĮĪáĪĪ": 657,
      "ĠáĬ¢áī°áĬł": 658,
      "áĬĲáĭį": 659,
      "Ġáī´": 660,
      "áĮĪáīµ": 661,
      "ĠáĪĪáĬłáī°": 662,
      "ĠáįĪáĪŃ": 663,
      "áĪįáįį": 664,
      "Ġáĭ¶": 665,
      "áĪ¨áĬŃ": 666,
      "ĠáĪľ": 667,
      "áįįáĪŃ": 668,
      "áĪĺáĪį": 669,
      "ĠáĪ²": 670,
      "áĪŃáī¡": 671,
      "áĪ°áĬķ": 672,
      "áĪįáĪĿ": 673,
      "áĭµáĪĿ": 674,
      "áĭ¶áĪĿ": 675,
      "ĠáĬ¢áīµáīµ": 676,
      "ĠáĪĪáĪħ": 677,
      "ĠáĪł": 678,
      "áĪŃáĬ¤": 679,
      "áī¥áĮł": 680,
      "áĪ°áĪŃ": 681,
      "áĬķáī±": 682,
      "ĠáĭĪáĪĪáīµ": 683,
      "áĪŃáĬł": 684,
      "áĭ°áĪį": 685,
      "ĠáĬ¬": 686,
      "áīłáĭ¨": 687,
      "áĭĪáĭµ": 688,
      "ĠáĭĪáĪĢ": 689,
      "áĪ¶áĪĿ": 690,
      "áĬŃáĭī": 691,
      "áīµáĪķ": 692,
      "áĪµáĬ¥": 693,
      "ĠáĮ£": 694,
      "ĠáĮİ": 695,
      "ĠáĬ¨áĬł": 696,
      "áī£áĪį": 697,
      "ĠáĪĺáĪį": 698,
      "ĠáĭĪáĪĺáīµ": 699,
      "áįįáĭĲ": 700,
      "áĭ³áĪĿ": 701,
      "áī¥áĬ¥": 702,
      "ĠáĭĪáĪ³": 703,
      "áĮ½áĬł": 704,
      "ĠáĪĪáīµáĪ°": 705,
      "áĬķáĪĺ": 706,
      "ĠáīłáĪŃ": 707,
      "áĪĪáĪµ": 708,
      "ĠáĭĪáĬ¢áīµ": 709,
      "áĭĪáīµ": 710,
      "Ġáī²": 711,
      "ĠáĪĪáĬķ": 712,
      "áĪĿáĬ¨": 713,
      "áĪµáĬ¨": 714,
      "áĪ¨áĭ¨": 715,
      "Ġáī°áĬłáīµ": 716,
      "áĪĪáĭ¨": 717,
      "áĭµáĪĺ": 718,
      "ĠáĭĪáĪĪáĪį": 719,
      "ĠáĭĪáĮĢ": 720,
      "áĭįáĪŃ": 721,
      "áĬłáĪį": 722,
      "ĠáĪĪáīµáīµ": 723,
      "áī°áĬł": 724,
      "áī¥áĬ¨": 725,
      "áĭ°áĭ¨": 726,
      "áī°áĬĲ": 727,
      "áĬŃáĭĪ": 728,
      "ĠáĪĺáĪŃ": 729,
      "áĪ³áīµ": 730,
      "ĠáĬłáĪ½": 731,
      "áįĪáĭĲ": 732,
      "áĪªáīµ": 733,
      "áīłáī±": 734,
      "áĬ¨áĪį": 735,
      "ĠáĪĪáĭķ": 736,
      "áī¥áīµ": 737,
      "ĠáĬ¢áĪĪ": 738,
      "ĠáįĬ": 739,
      "áīĢáĪį": 740,
      "áīķ": 741,
      "áįĸ": 742,
      "ĠáĭĪáĬŃ": 743,
      "ĠáĪĪáĬłáĪĿ": 744,
      "áĮ¤": 745,
      "áĭ°áĮį": 746,
      "áĪĢáīµ": 747,
      "áĪĿáĪĿ": 748,
      "ĠáĭĪáįį": 749,
      "áĭ«áī±": 750,
      "áīµáĪħ": 751,
      "áĪĽáĪĿ": 752,
      "áĬ¤áĪį": 753,
      "ĠáĪĦ": 754,
      "áĪĽáĪŃ": 755,
      "áĭĵáīµ": 756,
      "áĮįáĪ¨": 757,
      "ĠáĭĪáĪĪáĬ¢": 758,
      "áĬ¸": 759,
      "ĠáĬª": 760,
      "áī°áĭį": 761,
      "ĠáĪĿáĪµ": 762,
      "ĠáĪĪáĮ¸": 763,
      "áĭ³áīµ": 764,
      "ĠáĮŃ": 765,
      "áĮįáĪ«": 766,
      "Ġáī°áĪĵ": 767,
      "áī°áĪĲ": 768,
      "áī¥áĪ«": 769,
      "ĠáĪĪáĪ³": 770,
      "ĠáĪĺáĭĲ": 771,
      "áĬ¥áīµ": 772,
      "áĪĭáĪį": 773,
      "áī²áīµ": 774,
      "áĭĸáĪĿ": 775,
      "ĠáĪĪáĮĢ": 776,
      "áĬłáĬķ": 777,
      "áĪ°áĪĿ": 778,
      "ĠáĭĪáĪ½": 779,
      "áĪŃáįį": 780,
      "ĠáĪĪáĭĵ": 781,
      "áĪ¨áįį": 782,
      "áī³áī±": 783,
      "áĬłáĪĪ": 784,
      "áĪ¨áīł": 785,
      "áĪĺáĭĲ": 786,
      "áĪĪáįį": 787,
      "ĠáĬĴ": 788,
      "áĬ¥áĬķ": 789,
      "áĪ¨áĭŃ": 790,
      "áĪŃáĪĿ": 791,
      "áĬĲáĬķ": 792,
      "áī£áī¥": 793,
      "áĮ½áĪĲ": 794,
      "áĪĺáĪµ": 795,
      "áĮĪáĬķ": 796,
      "áīŃ": 797,
      "áĬłáĬ¨": 798,
      "ĠáĪ®": 799,
      "Ġáĭĳ": 800,
      "áĭ¨áī±": 801,
      "ĠáĪ´": 802,
      "áīłáĪĢ": 803,
      "ĠáĭĪáī¥": 804,
      "ĠáĪĪáĬłáĪµ": 805,
      "áĮĨ": 806,
      "áĪ¨áĪķ": 807,
      "áįĪáĭį": 808,
      "ĠáĪĪáīµáĬ¨": 809,
      "áĭŃáĪµ": 810,
      "ĠáĮī": 811,
      "Ġáīµáĭ°": 812,
      "áĪ¨áī°": 813,
      "áīħáī¥": 814,
      "áī¦áīµ": 815,
      "áĪĺáĭķ": 816,
      "áĪ¨áĪŃ": 817,
      "ĠáĮĮ": 818,
      "Ġáī¡": 819,
      "áĪŃáĭ¨áīµ": 820,
      "áĭĭáĪį": 821,
      "áĪ¨áī±": 822,
      "áĪįáĪį": 823,
      "áįĪáĪį": 824,
      "ĠáĪĪáĬŃ": 825,
      "áĮįáĪĿ": 826,
      "áĬ«áīµ": 827,
      "áĭĺáīµ": 828,
      "ĠáĭĪáįĪ": 829,
      "áĭŃáī¥": 830,
      "áīĢáĭ¨": 831,
      "ĠáĪĮ": 832,
      "áĭŃáĬĲ": 833,
      "áĪĲáĪŃ": 834,
      "áīłáĭ©": 835,
      "ĠáĪĪáįĪ": 836,
      "ĠáĭĪáĮł": 837,
      "ĠáĭĪáĬ£": 838,
      "ĠáĭĪáĪĵ": 839,
      "áĭµáĬĲ": 840,
      "áĪĺáĪĿ": 841,
      "áĬŃáĪĪ": 842,
      "áĮĪáĪĺ": 843,
      "áĮº": 844,
      "ĠáĬ¨áīµ": 845,
      "ĠáĭĪáĪĪáĪĺ": 846,
      "ĠáĪĪáī¥": 847,
      "Ġáĭ´": 848,
      "ĠáĪĪáĬłáĬķ": 849,
      "ĠáĪįáī¥": 850,
      "ĠáĪįáĪµ": 851,
      "áĭ«áĪĢ": 852,
      "áī£áĪŃ": 853,
      "ĠáĭĪáĬ¥áĬķ": 854,
      "áĭĸáīµ": 855,
      "Ġáī¢": 856,
      "áĬķáĭ¨": 857,
      "ĠáĪ¬": 858,
      "áĭ³áĪį": 859,
      "áīłáī¥": 860,
      "ĠáĪĶ": 861,
      "áįĵ": 862,
      "áĬŃáīµ": 863,
      "ĠáĪ¶": 864,
      "áĪŃáĪ°": 865,
      "áĪįáī¥": 866,
      "áĭĵáĭŃ": 867,
      "áī°áĬ¨": 868,
      "ĠáĬ¨áĪĿ": 869,
      "áĮ½áĬ¥": 870,
      "ĠáĭĪáĭĪ": 871,
      "ĠáĭĪáĪĽ": 872,
      "ĠáĬ¢áĪĺ": 873,
      "ĠáĭĪáī°áĬł": 874,
      "áĪµáĬĲ": 875,
      "áįĪáĭķ": 876,
      "ĠáĬ¢áīĢ": 877,
      "áĬĵáĪĨáĪĿ": 878,
      "áīłáĮł": 879,
      "ĠáĮ»": 880,
      "ĠáĪįáīµáĪĲ": 881,
      "áįİáĪĿ": 882,
      "ĠáĪĨ": 883,
      "áī¥áĪ¬": 884,
      "ĠáĬłáĮ½": 885,
      "áĪ«áĪŃ": 886,
      "áĮĪáĪ°": 887,
      "ĠáĪįáĪķ": 888,
      "áĮ¸áĬł": 889,
      "ĠáĭĪáĬłáīµ": 890,
      "áĪŃáĮį": 891,
      "ĠáīµáĪ³": 892,
      "áīħáĪŃ": 893,
      "ĠáĭĪáĪĪáĪĲ": 894,
      "áĭ«áĬķ": 895,
      "ĠáĪĳ": 896,
      "áįĴ": 897,
      "ĠáĪįáīµáĪ°": 898,
      "áĪĺáī°": 899,
      "áĪĪáī±": 900,
      "ĠáīµáįĪ": 901,
      "áĭ¨áī°": 902,
      "ĠáīµáĭĪ": 903,
      "áĪ«áī±": 904,
      "áīłáĭŃ": 905,
      "ĠáĭĪáĮį": 906,
      "áĮ¥áĪŃ": 907,
      "áĭµáĪķ": 908,
      "ĠáĪĪáĬ¢áĪį": 909,
      "ĠáįĮ": 910,
      "Ġáįĵ": 911,
      "ĠáĭĶ": 912,
      "áĪµáī³": 913,
      "ĠáĬ¢áĪ°": 914,
      "ĠáĪĪáī°áĪĲ": 915,
      "áĪįáįĪ": 916,
      "ĠáĪĤ": 917,
      "áĪ¨áĭµ": 918,
      "ĠáĪĪáĬłáįį": 919,
      "áĪĬáĬķ": 920,
      "ĠáĪĺáĬĵ": 921,
      "áĪ°áĭį": 922,
      "áĪĸáĪĿ": 923,
      "áĪµáĪŃ": 924,
      "áĭ°áĭ©": 925,
      "ĠáĬĸ": 926,
      "áĭķáĪį": 927,
      "áĬ«áĪŃ": 928,
      "áĪĪáĪĢ": 929,
      "Ġáĭ¨áĬł": 930,
      "áī°áĪĭ": 931,
      "ĠáīµáĮ¸": 932,
      "ĠáĪĪáĮł": 933,
      "áĭµáĪį": 934,
      "ĠáĪĺáĪ³": 935,
      "áĮ¾": 936,
      "áĪĮáīµ": 937,
      "ĠáĭĪáĭĵ": 938,
      "áĬ«áĪĺ": 939,
      "áĬķáī°": 940,
      "ĠáĪĪáĭį": 941,
      "áīĢáĭµ": 942,
      "áĪĢáĭŃ": 943,
      "áĬ£áĪĿ": 944,
      "ĠáĪįáīµáĬ¨": 945,
      "áĪ¥": 946,
      "áĭµáĮį": 947,
      "Ġáįķ": 948,
      "áĮª": 949,
      "áĪµáĬł": 950,
      "áĭĪáĪ°": 951,
      "Ġáįħ": 952,
      "áī³áī°": 953,
      "áĪĵáĭŃ": 954,
      "áĪĺáĭ¨": 955,
      "ĠáĬłáĬ¨": 956,
      "áĪĭáī±": 957,
      "áĪĪáĪ°": 958,
      "áĪ¸áīµ": 959,
      "Ġáĭİ": 960,
      "áĬķáĬŃ": 961,
      "ĠáĪĪáīµáĪĲ": 962,
      "áĬĲáĪĲ": 963,
      "áĮĪáĪµ": 964,
      "ĠáįĪáĪ¨": 965,
      "áĪ¨áĬł": 966,
      "áįĭáĪŃ": 967,
      "áĬķáĪ°": 968,
      "áĪĺáī±": 969,
      "áīµáĪ®": 970,
      "áĪĪáĭ©": 971,
      "áĬ£áīµ": 972,
      "áĭĪáĪµ": 973,
      "áīħáīł": 974,
      "áįĪáĪĢ": 975,
      "ĠáĭĪáĭŃ": 976,
      "ĠáĬłáīµáĪĲ": 977,
      "ĠáĪĪáĪŃ": 978,
      "áĭ«áī°": 979,
      "Ġáī±": 980,
      "Ġáīģ": 981,
      "áĪĿáīµ": 982,
      "áĪŃáĪŃ": 983,
      "ĠáĪĪáĮĪ": 984,
      "ĠáĪĪáĬłáī¥": 985,
      "áĮĪáĭį": 986,
      "ĠáĪ¹": 987,
      "áī¥áī¥": 988,
      "áĭĭáĭŃ": 989,
      "Ġáįİ": 990,
      "áīłáĬĲ": 991,
      "ĠáĭĪáĮħ": 992,
      "áĪ¨áĪĿ": 993,
      "áī¥áĭĲ": 994,
      "áĭµáĭ¨": 995,
      "ĠáĬ¨áĪŃ": 996,
      "áĬ«áĪį": 997,
      "ĠáĪ°áĪŃ": 998,
      "áīĢáĭį": 999,
      "áĮłáĪŃ": 1000,
      "áĬĴáīµ": 1001,
      "ĠáĬłáĪĺ": 1002,
      "áĭ«áĭŃáīµ": 1003,
      "ĠáĪĪáīµáĬł": 1004,
      "áĭ°áĭµ": 1005,
      "ĠáĪįáĪĿ": 1006,
      "áĪĬáīµ": 1007,
      "áĪ¬áĪķ": 1008,
      "áī¥áĮ¥": 1009,
      "áįįáĭķ": 1010,
      "áĭŃáĪŃ": 1011,
      "áĪĪáĬ¨": 1012,
      "ĠáĪįáĪ°": 1013,
      "ĠáĬ¨áĬ¥": 1014,
      "ĠáĭĪáĪ«": 1015,
      "áĭĲáĭ¨": 1016,
      "áĪŃáī¡áĭķ": 1017,
      "áĪįáĬĲ": 1018,
      "áī¥áĪ©": 1019,
      "Ġáī°áĪŃ": 1020,
      "áĭĭáĬķ": 1021,
      "áĭ«áĪĺ": 1022,
      "Ġáī¶": 1023,
      "áĪĿáī±": 1024,
      "áĮ¸áĪĲ": 1025,
      "ĠáĪĺáĪ°": 1026,
      "Ġáįĸ": 1027,
      "áĪ¨áĭ©": 1028,
      "ĠáĭĪáĪħ": 1029,
      "áĭ®áĬķ": 1030,
      "ĠáĪĺáīħ": 1031,
      "Ġáĭ±": 1032,
      "áĭŃáĪĿ": 1033,
      "áīµáĪ½": 1034,
      "áĬ¦áĪĿ": 1035,
      "ĠáĪĪáĪ½": 1036,
      "áĮįáī¥": 1037,
      "áĭ²áĬķ": 1038,
      "ĠáĪİ": 1039,
      "ĠáĪĺáĬŃ": 1040,
      "áī£áī±": 1041,
      "áĬ©áĭĪ": 1042,
      "áĬ©áĭī": 1043,
      "ĠáīłáĪį": 1044,
      "áĭĪáĪĲ": 1045,
      "ĠáĬŃáĪį": 1046,
      "ĠáĪĪáĬ¢áĪįáīµ": 1047,
      "áĪĿáĭķ": 1048,
      "áīłáĪ®": 1049,
      "ĠáĬ¢áĪĲ": 1050,
      "ĠáīµáĪ¨": 1051,
      "ĠáĪĪáĪĪáĪĲ": 1052,
      "ĠáĬ¡": 1053,
      "áĪįáĪħ": 1054,
      "áī¥áī±": 1055,
      "áĪĪáįĪ": 1056,
      "áĪ¬áīµ": 1057,
      "áĭµáĮĪ": 1058,
      "áĭ³áĬķ": 1059,
      "áĪįáĭ¨áīµ": 1060,
      "ĠáĪĺáĪĵ": 1061,
      "áįĪáĪĪ": 1062,
      "Ġáī«": 1063,
      "ĠáĭĪáĮĪ": 1064,
      "áĬ£áĭŃ": 1065,
      "áĮĭáĭŃ": 1066,
      "áĬĸáīµ": 1067,
      "ĠáĭķáĬķ": 1068,
      "ĠáĪ©": 1069,
      "ĠáĪĺáĪ»": 1070,
      "áįįáĪħ": 1071,
      "Ġáī°áĪµ": 1072,
      "ĠáīĨ": 1073,
      "áī¥áĭ¨": 1074,
      "áĭµáĭµ": 1075,
      "áĭĭáĪŃ": 1076,
      "ĠáĪĪáĪįáĪĲ": 1077,
      "áīłáĬ¨": 1078,
      "áīĢáĭ°": 1079,
      "ĠáĭĪáĪĪáĪĪ": 1080,
      "áĪįáī±": 1081,
      "áĬĴáī±": 1082,
      "áĬ®áĪĿ": 1083,
      "ĠáĪĺáĭĵ": 1084,
      "ĠáīµáĮĢ": 1085,
      "áĮ½áĪķ": 1086,
      "ĠáĪī": 1087,
      "ĠáĭĪáĮ¸": 1088,
      "áīĢáī¥": 1089,
      "áĮħáī°": 1090,
      "áįĭáīµ": 1091,
      "áĪĿáī°": 1092,
      "ĠáĪįáĬŃ": 1093,
      "ĠáĪĪáīµáĬĲ": 1094,
      "áĭµáĪª": 1095,
      "áįĪáī°": 1096,
      "áĬłáĬĲ": 1097,
      "áĪĭáĪĺ": 1098,
      "áĭĭáīµ": 1099,
      "áī¥áĭ°": 1100,
      "ĠáĭĪáĪĻ": 1101,
      "áĪ«áĬķ": 1102,
      "ĠáīµáĪĲ": 1103,
      "áĪļáĬķ": 1104,
      "ĠáĬ«áĪŃ": 1105,
      "áī°áĭĲ": 1106,
      "ĠáĪĪáįį": 1107,
      "ĠáĬłáĭ³": 1108,
      "Ġáī°áĭĵ": 1109,
      "áĭĺáĪŃ": 1110,
      "ĠáĪĪáīħ": 1111,
      "áĭ«áĪµ": 1112,
      "áĬ«áī°": 1113,
      "áĭĭáĮħ": 1114,
      "áĬķáī²": 1115,
      "Ġáīµáįĭ": 1116,
      "áĬ¨áĪ¨": 1117,
      "áĪ³áĪĿ": 1118,
      "áĭŃáĭ°": 1119,
      "áī¥áĭ¬": 1120,
      "áĭµáĬķ": 1121,
      "áĭ°áįį": 1122,
      "ĠáĮĤ": 1123,
      "ĠáĪĺáĪķ": 1124,
      "áĪħáĪŃ": 1125,
      "áĪįáĬŃ": 1126,
      "áĪ¨áīħ": 1127,
      "áĪĪáīł": 1128,
      "ĠáĪĺáĭ³": 1129,
      "áĪ½áĬķ": 1130,
      "ĠáĪ¼": 1131,
      "Ġáĭ©": 1132,
      "áĪĲáĬķ": 1133,
      "áįĭáĭŃ": 1134,
      "áĪİáīµ": 1135,
      "áĪĪáī°": 1136,
      "áĬ«áĬķ": 1137,
      "áĪįáĪµ": 1138,
      "áĬĲáī±": 1139,
      "áĪĿáĭµ": 1140,
      "áīłáĬ¥": 1141,
      "ĠáĬ¨áĪĺ": 1142,
      "ĠáĭŃáĬ¥áĬķ": 1143,
      "Ġáĭľ": 1144,
      "áĬķáĮİ": 1145,
      "áĪµáĪĿ": 1146,
      "áĪµáī¥": 1147,
      "ĠáĬłáīµáĪĺ": 1148,
      "áįįáĪį": 1149,
      "ĠáĪĪáīµáĪĺ": 1150,
      "áĪĵáīµ": 1151,
      "áī³áĪĺ": 1152,
      "áĮĪáĪ«": 1153,
      "ĠáĭĪáīµáīµ": 1154,
      "áī¥áĬł": 1155,
      "ĠáĬłáĮħ": 1156,
      "ĠáĮĬ": 1157,
      "áĬĵáĪĿ": 1158,
      "ĠáĪĪáĬłáĭį": 1159,
      "áĮĢáĪŃ": 1160,
      "ĠáĪĪáĭĺ": 1161,
      "ĠáĬ¢áĬ¨": 1162,
      "ĠáīµáĪĿ": 1163,
      "áĪªáĬķ": 1164,
      "áĪµáĪµ": 1165,
      "ĠáĬĶ": 1166,
      "áĬŃáĬĲ": 1167,
      "ĠáĬ¥áīħ": 1168,
      "áĪĽáī±": 1169,
      "ĠáĬĲáĬłáīµ": 1170,
      "áĬĶáīµ": 1171,
      "áĪŃáĬķ": 1172,
      "ĠáĪĪáĮį": 1173,
      "áĬĴáĬķ": 1174,
      "áĮłáĬķ": 1175,
      "ĠáīµáĪ«": 1176,
      "ĠáĪįáīħ": 1177,
      "áĮłáĭį": 1178,
      "áīµáĪĲáĭľ": 1179,
      "áĪŀáīµ": 1180,
      "áįĲ": 1181,
      "áĪĪáĭŃ": 1182,
      "áīłáĭµ": 1183,
      "ĠáĭĪáĭį": 1184,
      "áĭĪáĭ´": 1185,
      "áĭĺáĬķ": 1186,
      "ĠáĭĪáĬłáĪµ": 1187,
      "ĠáĪįáīµáĬĲ": 1188,
      "áĭ°áī±": 1189,
      "ĠáĬ¢áĬł": 1190,
      "ĠáīµáĪµ": 1191,
      "áĪĿáīł": 1192,
      "áĬłáĪŃáī¡áĭķ": 1193,
      "áīµáĪª": 1194,
      "áĪĬáĪĿ": 1195,
      "ĠáĪĩ": 1196,
      "áī¥áĪħ": 1197,
      "áĪĪáĬŃ": 1198,
      "áīµáĪĢáĭ¨": 1199,
      "Ġáĭ®": 1200,
      "áĪŃáĬ®": 1201,
      "áĪ¨áĪ¨": 1202,
      "áĪŃáī°": 1203,
      "áĪŃáĭ¬": 1204,
      "áīĢáĪĿ": 1205,
      "áįĥ": 1206,
      "áĬ¨áĭį": 1207,
      "ĠáĪĺáĭķ": 1208,
      "ĠáĬ¥áĮį": 1209,
      "ĠáīµáĪķ": 1210,
      "ĠáĪĪáĭµ": 1211,
      "áī¥áī°": 1212,
      "ĠáĬłáĭĿ": 1213,
      "ĠáĮĨ": 1214,
      "ĠáĪĺáĬł": 1215,
      "áįįáĪĪ": 1216,
      "áĭĲáĪĪ": 1217,
      "áī£áĪĿ": 1218,
      "áī¤áīµ": 1219,
      "ĠáĪĪáīµáĪ¸": 1220,
      "ĠáĪįáĭį": 1221,
      "áĮ¸áī¥": 1222,
      "áĪĸáīµ": 1223,
      "áī¸": 1224,
      "ĠáĬ¢áīµáĪ°": 1225,
      "áĭĲáĬĲ": 1226,
      "áīĢáĭŃ": 1227,
      "ĠáĬĲáĪĲ": 1228,
      "ĠáĪĿáĪħ": 1229,
      "ĠáĭĪáĭĺ": 1230,
      "Ġáī°áĬŃ": 1231,
      "ĠáĪįáīµáĪĺ": 1232,
      "ĠáĭŃáĪĲ": 1233,
      "ĠáĪĪáĪĪáĬłáīµ": 1234,
      "ĠáĬ¢áĭŃ": 1235,
      "áīĢáĪŃ": 1236,
      "áĪĽáĪį": 1237,
      "áī¶áĬķ": 1238,
      "Ġáī¥áĪŃ": 1239,
      "áĪµáĬķ": 1240,
      "áĪĢáĭ¨": 1241,
      "áĪĮáĬĲ": 1242,
      "áĪ«áĪĺ": 1243,
      "áĪªáĬŃ": 1244,
      "ĠáĭĪáī£": 1245,
      "ĠáĬłáīł": 1246,
      "áī±áĪĺ": 1247,
      "áĭįáĬķ": 1248,
      "ĠáĪįáįį": 1249,
      "áĪĺáĪĺ": 1250,
      "áĪ°áĬł": 1251,
      "áĪ°áĪµ": 1252,
      "ĠáĪįáĪ½": 1253,
      "áĪįáĪķ": 1254,
      "ĠáĬłáĭ°": 1255,
      "ĠáĬłáĪ³": 1256,
      "áĭµáĬ¨": 1257,
      "áĬ¥áī¥": 1258,
      "ĠáĪĪáĬłáīħ": 1259,
      "áĬķáīħ": 1260,
      "áĪŃáīħ": 1261,
      "áĭķáĪĺ": 1262,
      "áĪĥáĪĿ": 1263,
      "áĬ»": 1264,
      "áĮ³": 1265,
      "ĠáĭĪáĭ´": 1266,
      "ĠáĭĪáīµáĪ°": 1267,
      "áī¥áĪĺ": 1268,
      "áīłáĭĲ": 1269,
      "ĠáīµáĬķ": 1270,
      "áīħáĪĪ": 1271,
      "ĠáĪĺáĪĿ": 1272,
      "áįĪáī´": 1273,
      "áĪĢáĪĿ": 1274,
      "ĠáĬ£áĪį": 1275,
      "áĪ¨áįĪ": 1276,
      "áīµáĪĮ": 1277,
      "ĠáĪĺáĬ¨": 1278,
      "áĬ¥áī°": 1279,
      "ĠáĪĴ": 1280,
      "áĬķáĭ³": 1281,
      "áĪŃáĭķ": 1282,
      "ĠáĬłáĮ¥": 1283,
      "áĭ°áĮĪ": 1284,
      "ĠáĪĺáĪ«": 1285,
      "ĠáĬ¥áĮħ": 1286,
      "áĪĢáĪĪ": 1287,
      "ĠáĪĲáĬķ": 1288,
      "ĠáĪĪáĬ¢áĪĪáĬł": 1289,
      "Ġáīª": 1290,
      "áīłáĪħ": 1291,
      "ĠáĭĪáĬ«": 1292,
      "áĪ¨áĬ¤": 1293,
      "ĠáĬłáī¡": 1294,
      "ĠáĮĦ": 1295,
      "ĠáĪĺáĭį": 1296,
      "áī¢áīµ": 1297,
      "áĬķáĬķ": 1298,
      "áĪµáĪĪ": 1299,
      "ĠáĬłáĬĲ": 1300,
      "ĠáĪĪáī³": 1301,
      "áĪµáī±": 1302,
      "áĪ°áī°": 1303,
      "ĠáīµáĪŃ": 1304,
      "áĬĵáĭµ": 1305,
      "ĠáĬ¥áī°": 1306,
      "áĭĿáĪĿ": 1307,
      "ĠáĪĲáĪĿ": 1308,
      "áīµáīµ": 1309,
      "áĭĪáĮħ": 1310,
      "áĬ©áĪģ": 1311,
      "ĠáĪ°áĪį": 1312,
      "áĭ²áīµ": 1313,
      "ĠáĮĪáĪŃ": 1314,
      "ĠáĭĪáĮ½": 1315,
      "áĪĺáĬĲ": 1316,
      "áĭķáī±": 1317,
      "ĠáĪįáīµáĭĲ": 1318,
      "Ġáĭī": 1319,
      "áī¥áĪī": 1320,
      "áĪ¨áĪĺ": 1321,
      "áīĢáĪĪ": 1322,
      "áĮłáĪį": 1323,
      "áĪĪáĪħ": 1324,
      "áĭĪáĪ«": 1325,
      "áīłáīł": 1326,
      "áĭµáĭ¨áīµ": 1327,
      "áĭ°áĭŃ": 1328,
      "áĭ°áįĪ": 1329,
      "áĬĵáĭŃáīµ": 1330,
      "áīĥáĭŃ": 1331,
      "áīµáĪĲáĭĿ": 1332,
      "áī¬": 1333,
      "áĪµáĪķ": 1334,
      "áĪµáī²": 1335,
      "ĠáĪĺáĭĭ": 1336,
      "áĭĵáĪĿ": 1337,
      "áīłáĬł": 1338,
      "áĭµáĪ«": 1339,
      "áīµáĪĪáĪ": 1340,
      "áįįáĪ¨": 1341,
      "ĠáĪĪáī°áĭĲ": 1342,
      "áĬķáĭ²": 1343,
      "áĪ°áĪĪ": 1344,
      "ĠáĪģ": 1345,
      "ĠáĬĳ": 1346,
      "ĠáĭĪáĭ³": 1347,
      "áĭķáĪĿ": 1348,
      "áĬªáī±": 1349,
      "áĪĵáĪĿ": 1350,
      "áīº": 1351,
      "áĬĽ": 1352,
      "ĠáĪ¥": 1353,
      "áĮ¬": 1354,
      "ĠáĪĪáī£": 1355,
      "áĭµáĪĲ": 1356,
      "ĠáĪĺáĬĲ": 1357,
      "áįįáĬĲ": 1358,
      "áĭįáĪį": 1359,
      "áĬ¥áĮįáĪį": 1360,
      "áĪĭáī°": 1361,
      "áįĪáĪ«": 1362,
      "áĮ¸áīł": 1363,
      "áīĥáīµ": 1364,
      "áĪīáĪĿ": 1365,
      "ĠáĭĪáĬ¢áĪį": 1366,
      "áĪ¶áīµ": 1367,
      "áįįáīµ": 1368,
      "ĠáīµáĬŃ": 1369,
      "áĬ¢áīµ": 1370,
      "áĪĪáĪķ": 1371,
      "áīłáĭķ": 1372,
      "ĠáĭĪáĭĿ": 1373,
      "áĬ¨áĪĿ": 1374,
      "áĭ°áĪĪ": 1375,
      "áĬŃáīł": 1376,
      "ĠáĪĺáĪ½": 1377,
      "ĠáīµáĬ«": 1378,
      "Ġáįī": 1379,
      "áī¥áĭµ": 1380,
      "Ġáīµáĭĺ": 1381,
      "ĠáĬ¥áĬĲ": 1382,
      "áĮįáĬĲ": 1383,
      "ĠáĪĪáĬłáĪ°": 1384,
      "áĭ´áīµ": 1385,
      "ĠáĭĪáĪĭ": 1386,
      "ĠáĪĪáĪ»": 1387,
      "ĠáĬ¢áĪĪáĪĲ": 1388,
      "áĭ¨áĪŃ": 1389,
      "áĬĵáĬķ": 1390,
      "ĠáįĢ": 1391,
      "áĬ¬áīµ": 1392,
      "áĪįáĭ¬": 1393,
      "áĭŃáĪĺ": 1394,
      "áĪĪáīħ": 1395,
      "áīħáĪ«": 1396,
      "áī¶áīµ": 1397,
      "áĬ®áĪĢ": 1398,
      "áĪ³áĪŃ": 1399,
      "áĭĺáĭį": 1400,
      "ĠáĪĪáĪįáĬłáīµ": 1401,
      "áĪ¬áĬĲ": 1402,
      "áĬķáī³": 1403,
      "áĪĿáĪµ": 1404,
      "áī°áĭ¨": 1405,
      "ĠáĪĪáĪĻ": 1406,
      "ĠáĬ¢áīł": 1407,
      "Ġáīµáĭĭ": 1408,
      "Ġáīµáīĥ": 1409,
      "ĠáĪįáī°": 1410,
      "áĮįáĪĺ": 1411,
      "áĬĴáī°": 1412,
      "áĪģáĪĺ": 1413,
      "áĬķáĮĪ": 1414,
      "áĭµáįĪ": 1415,
      "Ġáīµáī£": 1416,
      "ĠáīµáĮĪ": 1417,
      "áĮłáĪ¨": 1418,
      "áĮħáĪŃ": 1419,
      "ĠáĪĽáĪŃ": 1420,
      "áĬĲáĭ¨": 1421,
      "áĭµáĪĪ": 1422,
      "áĭ°áĭ°": 1423,
      "ĠáĪĪáĪĥ": 1424,
      "ĠáĪĺáĮ½": 1425,
      "ĠáīµáīµáĪĲ": 1426,
      "Ġáī°áĪĿ": 1427,
      "ĠáĭĪáĪĪáĭĲ": 1428,
      "ĠáīĢáĪŃ": 1429,
      "ĠáĭĮ": 1430,
      "ĠáĭĪáī³": 1431,
      "ĠáĬ¥áĬŃ": 1432,
      "ĠáĭĪáĭ²": 1433,
      "ĠáĭĪáĪ»": 1434,
      "áĬ¥áĪĪ": 1435,
      "áĮįáĪĪ": 1436,
      "áĪ¸áĬķ": 1437,
      "áī¤áĭķ": 1438,
      "áĭ¶áīµ": 1439,
      "ĠáĭĪáī°áĪĲ": 1440,
      "áĪľáĭķ": 1441,
      "áīĨáĪĿ": 1442,
      "ĠáĪĪáĭ³": 1443,
      "áĪįáīł": 1444,
      "ĠáĬ¨áĬĲ": 1445,
      "áĪ¸áĪŃ": 1446,
      "ĠáĭĲáī¥": 1447,
      "Ġáĭ°áĪ¨": 1448,
      "ĠáīµáĪ»": 1449,
      "ĠáĭĭáĪį": 1450,
      "áĪµáĬ®": 1451,
      "ĠáĪĺáīĥ": 1452,
      "ĠáīµáĮį": 1453,
      "áįĪáĮį": 1454,
      "áĪ½áĪŃ": 1455,
      "áĮĪáĪ®": 1456,
      "ĠáĬĲáįį": 1457,
      "ĠáĪº": 1458,
      "áĪµáī°áĪŃ": 1459,
      "áĭµáĬł": 1460,
      "ĠáĪĺáĭ°": 1461,
      "áĪ°áī±": 1462,
      "áĪĲáĭį": 1463,
      "áĮĢáīµ": 1464,
      "áĪ²áĬķ": 1465,
      "áĪĿáĪĪ": 1466,
      "ĠáĬłáī£": 1467,
      "ĠáĬłáĪĽ": 1468,
      "ĠáĪĪáĪĽ": 1469,
      "ĠáĪįáĪ³": 1470,
      "áĪĭáī¥": 1471,
      "ĠáĬ¥áĪµáīµ": 1472,
      "áīĲ": 1473,
      "áĪįáĭ«": 1474,
      "ĠáĭĪáĮĭ": 1475,
      "ĠáīµáĮĭ": 1476,
      "áĬĵáĪµ": 1477,
      "áīħáĪ¨": 1478,
      "áīħáĭ°": 1479,
      "áĪ«áī°": 1480,
      "ĠáĪĪáĬ«": 1481,
      "ĠáĭĪáįĭ": 1482,
      "áĭŃáīł": 1483,
      "áĪ°áĭ¨": 1484,
      "ĠáĬ¨áĪ°": 1485,
      "áĪĢáĪŃ": 1486,
      "ĠáĪĪáĬłáĬŃ": 1487,
      "áĭ³áĪĮ": 1488,
      "ĠáīµáĪĭ": 1489,
      "ĠáĪĪáĮħ": 1490,
      "áīłáĪ«": 1491,
      "áīĢáĬķ": 1492,
      "ĠáĪįáĬķ": 1493,
      "ĠáĬ¥áĪ°": 1494,
      "ĠáĬ¨áĪĲ": 1495,
      "áĬ«áĪĨáĪĿ": 1496,
      "ĠáĮĢáĪª": 1497,
      "áī°áĪ¨": 1498,
      "áī¥áĪ®": 1499,
      "ĠáĭĪáīĥ": 1500,
      "áĭµáĬ¥": 1501,
      "áīħáĬĲ": 1502,
      "Ġáī°áĪĥ": 1503,
      "áĪĭáĬķ": 1504,
      "ĠáĪ°áįį": 1505,
      "ĠáĬ¢áīµáĬł": 1506,
      "áĬ¦áīµ": 1507,
      "áĪŃáĮĪ": 1508,
      "áī°áĪĪ": 1509,
      "áĪįáĬł": 1510,
      "ĠáĬłáī°áĬķ": 1511,
      "áĪĪáĭĲ": 1512,
      "Ġáī°áĭį": 1513,
      "áĪĢáĪį": 1514,
      "áĪħáĪ¨": 1515,
      "áĭĽáĬķ": 1516,
      "ĠáĬłáīµáįĭ": 1517,
      "áĬ³": 1518,
      "ĠáĭĴ": 1519,
      "ĠáĬłáĮĢ": 1520,
      "áĬŃáĬŃ": 1521,
      "áįĪáī±": 1522,
      "ĠáĭĪáĪĪáĬłáīµ": 1523,
      "ĠáĬ£áĪĿ": 1524,
      "áĭĽáĭŃ": 1525,
      "áĮ£áĬķ": 1526,
      "áĭĬáīµ": 1527,
      "áĪĩ": 1528,
      "ĠáĪĪáī¤": 1529,
      "áĪįáĬ¥": 1530,
      "áĭįáĪ¨": 1531,
      "ĠáĪ°áĪĿ": 1532,
      "áĮĪáĪĮ": 1533,
      "ĠáĭĪáĪĪáĪ°": 1534,
      "ĠáĮĪáĮ½": 1535,
      "ĠáĪĪáĬĲáĬł": 1536,
      "áįĶ": 1537,
      "áĭĲáĮħ": 1538,
      "ĠáĪįáīµáĪĵ": 1539,
      "áĮįáĭķ": 1540,
      "ĠáĪĪáīµáīĢ": 1541,
      "áįĮáĭķ": 1542,
      "áĬķáĪķ": 1543,
      "áīłáĪ¨áīµ": 1544,
      "áĭ°áĪĺ": 1545,
      "áĭ¬áīµ": 1546,
      "ĠáĪµáĪĿ": 1547,
      "áĮ®": 1548,
      "ĠáĭĪáĬ¤": 1549,
      "áĬĲáī°": 1550,
      "Ġáīµáī¥": 1551,
      "áĮĢáĪĢ": 1552,
      "ĠáĬŃáĪŃ": 1553,
      "ĠáĪĽáĭŃ": 1554,
      "ĠáĭĪáĬĲáĬł": 1555,
      "áĪŃáĪĪ": 1556,
      "ĠáĪĪáĮ½": 1557,
      "ĠáĪĺáī°": 1558,
      "ĠáĪĺáīµáĬ¨": 1559,
      "ĠáĬ¢áĭ°": 1560,
      "áįįáĭ¨áīµ": 1561,
      "áĭĲáī±": 1562,
      "áįĪáĭĿ": 1563,
      "áĪ«áīħ": 1564,
      "ĠáĪĪáĬłáĬ¨": 1565,
      "ĠáĬłáĪµáī°": 1566,
      "ĠáĬ¢áī°áĪĲ": 1567,
      "áĭµáĭ©": 1568,
      "ĠáĬķáĪķ": 1569,
      "ĠáįĪáĬķ": 1570,
      "áī»": 1571,
      "ĠáĬ¸": 1572,
      "ĠáĪįáīµáĪĢ": 1573,
      "Ġáī°áĬ£": 1574,
      "áĬ®áĬ¨": 1575,
      "áĮ¸áīµ": 1576,
      "áĪ»áĭŃ": 1577,
      "ĠáĪ³áĪĿ": 1578,
      "áĪ¨áĬ¥": 1579,
      "áĬĵáīħ": 1580,
      "áĪħáĪį": 1581,
      "áĬ®áĬķ": 1582,
      "ĠáĪĿáĭķ": 1583,
      "áĬ£áī¥": 1584,
      "ĠáĮįáĪŃ": 1585,
      "áĭµáī±": 1586,
      "ĠáĪĺáīµáĬĲ": 1587,
      "Ġáīµáĭ³": 1588,
      "áī³áĬķ": 1589,
      "áĮ¥áĮ¥": 1590,
      "áįĪáĪµ": 1591,
      "áīĥáĪŃ": 1592,
      "ĠáĪ¸áĬķ": 1593,
      "ĠáīĦ": 1594,
      "áįİáīµ": 1595,
      "ĠáĪ½áĬķ": 1596,
      "ĠáĭĬ": 1597,
      "áĬłáĭ¨": 1598,
      "áĬ¨áĬĴ": 1599,
      "áĭµáįį": 1600,
      "ĠáĮģ": 1601,
      "ĠáĬ¥áĮįáĪį": 1602,
      "áĪħáĪĪ": 1603,
      "áĪªáĪŃ": 1604,
      "ĠáĪĿáĪį": 1605,
      "ĠáĪĪáĪįáīµáĪ°": 1606,
      "áĮĭáĪŃ": 1607,
      "ĠáĬ£áĬķ": 1608,
      "ĠáĪĪáĪĪáĪĢ": 1609,
      "áī¨áĪŃ": 1610,
      "áĪĿáĪį": 1611,
      "áĪįáĪĲ": 1612,
      "áīłáĭī": 1613,
      "áĭŃáĪĪ": 1614,
      "ĠáĪĪáĪ«": 1615,
      "ĠáĪĺáĬ«": 1616,
      "áĭĲáĬķ": 1617,
      "áĬ©áĪĻ": 1618,
      "áĮĪáī¥áĬ¥": 1619,
      "áĭ°áīĢ": 1620,
      "áįįáĬķ": 1621,
      "ĠáĪįáĬ¥": 1622,
      "Ġáī°áĬķ": 1623,
      "Ġáī°áīł": 1624,
      "áĮħáĪį": 1625,
      "ĠáĪĪáĪįáīµáĪĲ": 1626,
      "áī¹": 1627,
      "ĠáĭĪáīµáĬ¨": 1628,
      "áĭµáĭ«": 1629,
      "áĬŃáĪĺ": 1630,
      "ĠáĪĺáī£": 1631,
      "ĠáĪĺáĮĭ": 1632,
      "ĠáīµáīµáĬ¨": 1633,
      "ĠáĪįáĮ½": 1634,
      "áĪķáī±": 1635,
      "ĠáĪ°áĬķ": 1636,
      "áĭ®áī±": 1637,
      "áīĥáĪĿ": 1638,
      "áĭĪáĪĭ": 1639,
      "áĭ´áĬĲ": 1640,
      "áĪ²áīµ": 1641,
      "ĠáĮĪáĪį": 1642,
      "áĪįáĭµ": 1643,
      "áįįáī°": 1644,
      "ĠáĪįáīµáĪ¸": 1645,
      "áĪķáĬĲ": 1646,
      "ĠáĪĪáĬłáīµáĪĲ": 1647,
      "áĪ³áĪµ": 1648,
      "ĠáĪ°áī¥": 1649,
      "ĠáĪĪáīµáīł": 1650,
      "ĠáĪĪáīµáĭĲ": 1651,
      "ĠáĬłáīµáĪĵ": 1652,
      "áĭ¨áĪĿ": 1653,
      "áĬĵáĬ¨": 1654,
      "ĠáĪįáĮį": 1655,
      "áĭķáĬĲ": 1656,
      "áī£áĬķ": 1657,
      "áĪķáĪĺ": 1658,
      "áĬ®áīµ": 1659,
      "ĠáĪĲáĪŃ": 1660,
      "áĪĮáĬ¨": 1661,
      "áīµáĪĥáĮĮ": 1662,
      "áī¥áĪĭ": 1663,
      "áĪµáĬ¡": 1664,
      "áĬŃáĭ¨": 1665,
      "ĠáīµáĮł": 1666,
      "áįĪáĬĵ": 1667,
      "áĬ©áĪĢ": 1668,
      "áĬłáĪ°áĭŃáĭµ": 1669,
      "áĪ¨áĭ°": 1670,
      "ĠáĬłáĬ«": 1671,
      "áĬŃáĪ«": 1672,
      "áĬŃáĪ©": 1673,
      "áĬŃáĭİ": 1674,
      "áīħáĭµ": 1675,
      "ĠáĬ¨áĪ«": 1676,
      "áĭ³áĪŃ": 1677,
      "áĬ©áĭİ": 1678,
      "áĮĢáĪį": 1679,
      "ĠáĬ¢áīµáĬ¨": 1680,
      "áĭ°áīħ": 1681,
      "áĬ¥áĬĲ": 1682,
      "ĠáĬ¥áĭµ": 1683,
      "ĠáĪĪáĬłáĪĺ": 1684,
      "ĠáĪĪáĬłáĮį": 1685,
      "áĮĪáĪª": 1686,
      "ĠáĪĢáĭŃ": 1687,
      "áĪĿáĪ¨": 1688,
      "ĠáĪĪáĭĭ": 1689,
      "áįįáĬ¨": 1690,
      "áĭĲáĬ¨": 1691,
      "áīħáīµ": 1692,
      "áĪ½áĪĺ": 1693,
      "áĭĿáĪĺ": 1694,
      "áĬ®áĪģ": 1695,
      "áĪĥáĬķ": 1696,
      "ĠáĭĪáĬ¥áĪµ": 1697,
      "áĬĵáĪĢáĬķ": 1698,
      "áīħáĪĺ": 1699,
      "ĠáĬ¥áĪŃ": 1700,
      "áĭķáī¥": 1701,
      "áĪĭáĭµ": 1702,
      "áįĭáĪį": 1703,
      "áĬ£áĪĺ": 1704,
      "ĠáīµáĪ½": 1705,
      "ĠáĪĺáĪĺ": 1706,
      "ĠáĪĺáīµáĪĲ": 1707,
      "áĭįáĬĲ": 1708,
      "áĭ«áĬĲ": 1709,
      "ĠáĪĪáĬłáĪŃ": 1710,
      "ĠáĮĪáī¥áĪ¨": 1711,
      "Ġáĭļ": 1712,
      "áī¥áĪİ": 1713,
      "ĠáĭĪáĬĵ": 1714,
      "ĠáĬłáīµáĪĢ": 1715,
      "áĪĪáīĢ": 1716,
      "áĭ°áĪ«": 1717,
      "ĠáĪĺáĪĭ": 1718,
      "ĠáĬ¢áĮ¸": 1719,
      "áī£áī°": 1720,
      "áĭĪáī°": 1721,
      "áĪĽáī°": 1722,
      "áĮĪáĬĲ": 1723,
      "áĬªáīµ": 1724,
      "ĠáĭĪáĬłáįį": 1725,
      "ĠáĬłáīµáĭĲ": 1726,
      "áĪįáī°": 1727,
      "ĠáĪĺáĭµ": 1728,
      "áĪ°áīł": 1729,
      "áī³áĪŃ": 1730,
      "áī³áĬ¨": 1731,
      "áĪķáĭµ": 1732,
      "áĭ¬áĪĺ": 1733,
      "ĠáĪįáīµáīł": 1734,
      "ĠáĪķáĬķ": 1735,
      "áī°áĪĭáĪĮ": 1736,
      "áĮĵ": 1737,
      "áĪĿáĪĺ": 1738,
      "ĠáĭĪáĮ¥": 1739,
      "áĭµáĭ®": 1740,
      "áĬŃáĭ©": 1741,
      "ĠáĪĺáĮ¸": 1742,
      "áįĪáĭ¨": 1743,
      "áĪĭáĬķáĭµ": 1744,
      "ĠáĬ¨áĪ¨": 1745,
      "áĭĿáĬķ": 1746,
      "áĮłáĮł": 1747,
      "áĬªáĬķ": 1748,
      "áĭ²áī¥": 1749,
      "Ġáĭ°áĬķ": 1750,
      "áĬŃáī°": 1751,
      "áĪ°áĬĲ": 1752,
      "áĭķáĪĪ": 1753,
      "ĠáĬ¨áĬķ": 1754,
      "áĪħáĬķ": 1755,
      "áĬ©áĪĺ": 1756,
      "áĭĺáĪĿ": 1757,
      "áĪĪáĪĽ": 1758,
      "áīĥáĪį": 1759,
      "áĪĬáĪµ": 1760,
      "ĠáĪĪáĪĪáīµ": 1761,
      "áīĨáīµ": 1762,
      "ĠáĮĪáĪ¨": 1763,
      "ĠáĪĪáĮĭ": 1764,
      "áĬŃáĭµ": 1765,
      "áĭ¨áī¶áĪĿ": 1766,
      "áĪİáĮĤ": 1767,
      "ĠáĬ£áĭŃ": 1768,
      "ĠáĪ¨áĬł": 1769,
      "ĠáĪĢáī¥": 1770,
      "áĭĴáīµ": 1771,
      "áįĪáĬķáī´": 1772,
      "ĠáĪĸ": 1773,
      "áĭ°áĬĲ": 1774,
      "áĪĭáĪĪ": 1775,
      "áĪĽáĭķ": 1776,
      "áĭ¬áĪķ": 1777,
      "áĪ¬áĬĴ": 1778,
      "ĠáĪĪáĪĪáĭĲ": 1779,
      "áĪĺáĪĪ": 1780,
      "ĠáĬłáĬ¥": 1781,
      "ĠáĬłáĪ¸": 1782,
      "áĭķáīµ": 1783,
      "áī£áĭŃáīµ": 1784,
      "ĠáĪįáīµáīĢ": 1785,
      "áĪ±áĪµ": 1786,
      "Ġáī»": 1787,
      "ĠáĬłáīµáīĥ": 1788,
      "áĮ¦áĪĿ": 1789,
      "ĠáĬ¢áĬĲáĬł": 1790,
      "áī£áĪĺ": 1791,
      "áĪķáīµ": 1792,
      "áĭ©áī±": 1793,
      "áĪ³áĬķ": 1794,
      "áĮĪáĪĭ": 1795,
      "ĠáĭĪáĬłáĬķ": 1796,
      "ĠáĪĪáĪĺáīµ": 1797,
      "áĮ£áīµ": 1798,
      "ĠáĮĪáī¥áĪ¬": 1799,
      "ĠáĬłáĪĪ": 1800,
      "áĭ°áī°": 1801,
      "áĭ°áĭī": 1802,
      "ĠáĮ«": 1803,
      "ĠáīµáīµáĪ°": 1804,
      "áĮłáĮ¥": 1805,
      "ĠáĪ°áĪĭ": 1806,
      "áĭ¨áīµáĬĲ": 1807,
      "áīłáĬĴ": 1808,
      "áįįáĭĿ": 1809,
      "áĭĲáī¥": 1810,
      "ĠáĪĪáĬłáĪ½": 1811,
      "áĭ´áĬ¨": 1812,
      "ĠáĪĪáįĪáĪŃ": 1813,
      "áĬĲáīħ": 1814,
      "áĬ¨áĬķ": 1815,
      "áĭŃáĪį": 1816,
      "ĠáĮ¼": 1817,
      "ĠáĪįáĪ¸": 1818,
      "Ġáī°áĬ¥": 1819,
      "áĭĿáĭ«": 1820,
      "ĠáīħáĪŃ": 1821,
      "áīĭ": 1822,
      "áįĨ": 1823,
      "áī¥áĪĲ": 1824,
      "áĪĺáĭ©": 1825,
      "áĪµáĬŃ": 1826,
      "ĠáĬ¢áĬķáīµ": 1827,
      "áĭįáĪĪ": 1828,
      "ĠáĬ¥áĪ½": 1829,
      "Ġáī°áĬ¨": 1830,
      "áĪ«áī¥": 1831,
      "ĠáĬ¨áĭĲ": 1832,
      "áī¡áī±": 1833,
      "ĠáĪĲáĪ¨": 1834,
      "áĮĢáĪĪ": 1835,
      "ĠáĭĪáĪĺáĬķ": 1836,
      "Ġáī°áĬłáī°": 1837,
      "áĭĽáĪĿ": 1838,
      "áīµáĪĿ": 1839,
      "áĪĿáī¦": 1840,
      "ĠáĭĪáĪĥ": 1841,
      "áĭĲáī°": 1842,
      "áĭ³áī±": 1843,
      "áĮ¥áĬķ": 1844,
      "áįĪáĪĭ": 1845,
      "ĠáĬķáīħ": 1846,
      "ĠáĭĲáĪ¨": 1847,
      "ĠáīĢáĭ¨": 1848,
      "ĠáĬ«áĪį": 1849,
      "áĬłáī°": 1850,
      "áĬłáĪĺ": 1851,
      "áīłáĪ½": 1852,
      "áĭŃáī±": 1853,
      "ĠáĮ©": 1854,
      "ĠáĪĺáĮħ": 1855,
      "ĠáĪįáĪŃ": 1856,
      "áįĪáĭ°": 1857,
      "Ġáī°áĭķ": 1858,
      "ĠáĬ¨áĪĪáĬł": 1859,
      "áĭ©áĪĿ": 1860,
      "áī¤áĪķ": 1861,
      "áĮĥáĬķ": 1862,
      "ĠáĮįáĪ«": 1863,
      "áĪĿáī¥": 1864,
      "áĪ¨áī¶áĪĿ": 1865,
      "áīĢáī±": 1866,
      "áĪ°áĬ¥": 1867,
      "ĠáĬ¨áī°": 1868,
      "ĠáĬ¨áįį": 1869,
      "áĪĢáĪĺ": 1870,
      "áĪ½áĪ½": 1871,
      "ĠáĬĲáĪµ": 1872,
      "ĠáĪĪáĪįáīµáĪĺ": 1873,
      "ĠáĪµáĪŃ": 1874,
      "áī²áĬķ": 1875,
      "áĭĽáī¤": 1876,
      "ĠáįĴ": 1877,
      "áĮĬáĪµ": 1878,
      "ĠáĬĵáĭŃ": 1879,
      "ĠáĬ¢áīµáĪĲ": 1880,
      "áįįáĮį": 1881,
      "áīĢáĭµáĪŃ": 1882,
      "ĠáĬ¥áįį": 1883,
      "áĪĭáĪµ": 1884,
      "ĠáĪĪáĬłáĪµáī°": 1885,
      "áĭĪáĬĲ": 1886,
      "áĪªáĪĿ": 1887,
      "ĠáĪ°áĭĲ": 1888,
      "ĠáĬĲáĭĲ": 1889,
      "áĭ¬áī±": 1890,
      "ĠáĭĪáĬłáĪĿ": 1891,
      "ĠáĭĪáĬłáī¥": 1892,
      "ĠáĮįáĬķ": 1893,
      "Ġáī¨": 1894,
      "ĠáĬłáīµáĬĵ": 1895,
      "áĬĲáī¥": 1896,
      "ĠáĬłáĬĵ": 1897,
      "áĭµáī¥": 1898,
      "áĭµáĪ¨áīµ": 1899,
      "áĬŃáĪ®": 1900,
      "áĬŃáĪ¨áīµ": 1901,
      "ĠáĪĺáĮĥ": 1902,
      "áīħáīłáĪį": 1903,
      "áĭ«áĪį": 1904,
      "áĭ«áĪĨáĪĿ": 1905,
      "áī³áĪĿ": 1906,
      "áī³áī¶áĪĿ": 1907,
      "áĮĪáīł": 1908,
      "ĠáĪĿáĪķ": 1909,
      "ĠáįĶ": 1910,
      "ĠáĪĥáĭŃ": 1911,
      "Ġáī°áīħ": 1912,
      "áĪĽáĪĺ": 1913,
      "áĪ³áĭŃáīµ": 1914,
      "ĠáĬĲáīħ": 1915,
      "áī´áĬĲ": 1916,
      "ĠáĪ¾": 1917,
      "ĠáĪĪáīĥ": 1918,
      "ĠáĪĪáīµáĪĵ": 1919,
      "áīłáī¶áĪĿ": 1920,
      "ĠáĬłáĭĺ": 1921,
      "ĠáĪĺáĪ¨": 1922,
      "Ġáīµáįį": 1923,
      "ĠáīµáīµáĪĺ": 1924,
      "áĪ«áĭµ": 1925,
      "áĪ«áĪķ": 1926,
      "áĪĭáĪģ": 1927,
      "áĪĭáĭŃáīµ": 1928,
      "áĬ«áĪ¨": 1929,
      "áĭĭáī°": 1930,
      "áĮĢáĪĿ": 1931,
      "áĪ¬áĭķ": 1932,
      "áī¤áĪĪ": 1933,
      "áĭ²áĪŃ": 1934,
      "áĭ¨áīµáĪĪ": 1935,
      "áĪļáīµ": 1936,
      "áĮİáĪĿ": 1937,
      "ĠáĭĻ": 1938,
      "áī¥áĮ£": 1939,
      "áīłáĪ°": 1940,
      "ĠáĬłáĭŃ": 1941,
      "áĬŃáī¶": 1942,
      "ĠáĪĺáĪĢ": 1943,
      "ĠáĪĺáīµáĪĺ": 1944,
      "ĠáĬ¨áĪµ": 1945,
      "áĭĪáĪ®": 1946,
      "ĠáĪµáĭ«": 1947,
      "ĠáĪĪáīµáĪ³": 1948,
      "ĠáĭĪáĪŀ": 1949,
      "áīµáĪĦ": 1950,
      "áįįáī±": 1951,
      "áīĢáĭ©": 1952,
      "áīĢáī¥áĪį": 1953,
      "áĪ°áĪ°": 1954,
      "ĠáĪįáĬĲ": 1955,
      "ĠáĪįáĪħ": 1956,
      "áĪ³áī±": 1957,
      "áįĭáĮį": 1958,
      "ĠáĪĪáīµáĭĪ": 1959,
      "ĠáĪĿáĪŃ": 1960,
      "ĠáĪĿáĪ½": 1961,
      "áĭĽáīµ": 1962,
      "áĭĮáīµ": 1963,
      "áĪĽáĪŃáĭ«áĪĿ": 1964,
      "áįįáĬ¥": 1965,
      "áī£áĮ¥": 1966,
      "áĪĭáĬŃ": 1967,
      "ĠáĪĪáĬłáĮ½": 1968,
      "áĭĿáĬĲ": 1969,
      "áĮħáĪĿ": 1970,
      "ĠáĪĪáĪįáīµáĬ¨": 1971,
      "áī´áīµ": 1972,
      "ĠáĪĪáĬ¢áī°": 1973,
      "ĠáĮĪáĪĪ": 1974,
      "áĮĬáīµ": 1975,
      "ĠáĬ¤áĪ¨áīµ": 1976,
      "áĬķáĮĭ": 1977,
      "ĠáĭĪáįĪáĪŃ": 1978,
      "áĪ¨áĮį": 1979,
      "áĭµáĮĭ": 1980,
      "Ġáīµáĭį": 1981,
      "ĠáīµáĬĵ": 1982,
      "áĪĲáĬĲ": 1983,
      "áįĪáĬ¨": 1984,
      "áĭ«áĬĴ": 1985,
      "áĪĢáĭį": 1986,
      "áĪĮáĬĴ": 1987,
      "áĪīáĪĺ": 1988,
      "áĭĪáĪĺ": 1989,
      "Ġáĭ°áĪŃ": 1990,
      "áĮĪáī¥áĬł": 1991,
      "ĠáĭĪáĪĪáĪĪáĬł": 1992,
      "áĪįáĬ«": 1993,
      "áĭŃáĪķ": 1994,
      "ĠáĬłáĪ¨": 1995,
      "ĠáĬłáĪħ": 1996,
      "áĭµáĪµ": 1997,
      "áĭµáĪ®": 1998,
      "ĠáĪĺáī¥": 1999,
      "ĠáĪĺáĮ½áĬł": 2000,
      "áįĪáĬĵáī°": 2001,
      "áĭ³áĭµ": 2002,
      "áĪĽáĪµ": 2003,
      "áĪ½áĪĿ": 2004,
      "áĪĪáĪİ": 2005,
      "áĪ¸áĪ¨": 2006,
      "áĮĥáīµ": 2007,
      "ĠáĭĪáĬ¥áīµ": 2008,
      "áĮ¨áīµ": 2009,
      "áīłáĪĢáĪį": 2010,
      "áĬķáĭ±": 2011,
      "áĪŃáĬª": 2012,
      "áĬłáī¥": 2013,
      "áĬ¨áī°": 2014,
      "ĠáĪĺáįį": 2015,
      "ĠáĪĺáīµáĪ°": 2016,
      "ĠáĬ¢áīµáĪĺ": 2017,
      "áī£áĪģ": 2018,
      "ĠáĬ¨áī¥": 2019,
      "áĬĴáĬŃ": 2020,
      "áĪħáĭµ": 2021,
      "áĪªáĪµ": 2022,
      "áĮ½áĪĳ": 2023,
      "áĬ£áĪį": 2024,
      "ĠáĭĲáĪĪ": 2025,
      "áĬ©áĪĿáī±": 2026,
      "ĠáįįáĪŃ": 2027,
      "áīµáĬķ": 2028,
      "áĬ¨áĬŃ": 2029,
      "ĠáĬłáīµáĪ³": 2030,
      "ĠáĭĪáĪľ": 2031,
      "áĬĵáī¶áĪĿ": 2032,
      "áĬ®áī±": 2033,
      "áĪ³áĪį": 2034,
      "áĭĺáĬ¨": 2035,
      "áĪĪáĪŃ": 2036,
      "ĠáĪĲáĪį": 2037,
      "ĠáĪĲáĪĺ": 2038,
      "áĭĵáĪŃ": 2039,
      "ĠáĬķáĪµ": 2040,
      "ĠáĪĪáĪįáĭĲ": 2041,
      "ĠáīµáĪĽ": 2042,
      "áĪĥáĭŃ": 2043,
      "ĠáĭĪáĪįáĭ°": 2044,
      "ĠáĭĪáĪĪáĪįáīµ": 2045,
      "ĠáĪĪáĮ¥": 2046,
      "ĠáĭĪáĭĭ": 2047,
      "áĬĲáĬĲ": 2048,
      "ĠáĬłáĪķ": 2049,
      "áĮįáĬķ": 2050,
      "áĪĭáĪħ": 2051,
      "ĠáĪĪáĬłáīł": 2052,
      "áĭ³áĬ¥": 2053,
      "áĪħáĭ¨": 2054,
      "áĮĢáĪĺ": 2055,
      "ĠáĭĪáĪĪáī°": 2056,
      "áī¢áĬķ": 2057,
      "ĠáĪ¨áĬ¤": 2058,
      "ĠáĪ³áĪį": 2059,
      "áĪ£": 2060,
      "áĬķáĭ´": 2061,
      "áĪĿáī£": 2062,
      "áī°áī°": 2063,
      "ĠáĭĪáīłáĪŃ": 2064,
      "áĪ¨áĬĲ": 2065,
      "ĠáĪįáĭķ": 2066,
      "áĪĲáīħ": 2067,
      "áĪħáīµ": 2068,
      "áĪ¸áĬŃ": 2069,
      "Ġáī¥áĭĿ": 2070,
      "ĠáĭĪáĪĪáĪĢ": 2071,
      "ĠáĮĪáī¥": 2072,
      "ĠáįįáĬķ": 2073,
      "ĠáĬĥ": 2074,
      "áĬķáī¥": 2075,
      "áĪĪáĭī": 2076,
      "ĠáĬ¢áįĪ": 2077,
      "áīĢáĮ¥": 2078,
      "áĮįáĪµ": 2079,
      "Ġáī°áĪĺ": 2080,
      "ĠáĬ¨áīł": 2081,
      "ĠáĪĪáĬłáĬĲ": 2082,
      "áĪªáī¥": 2083,
      "áī¡áĪŃ": 2084,
      "áįĪáĪª": 2085,
      "áĮ¸áĪķ": 2086,
      "áĬ£áī±": 2087,
      "áĮĭáī¥": 2088,
      "áĭ´áī±": 2089,
      "ĠáĪĺáīµáĭĲ": 2090,
      "áĪ¨áĬ¨áī¥": 2091,
      "áĭ°áĮĭ": 2092,
      "áĭĲáĭ©": 2093,
      "áīħáĪĿ": 2094,
      "áĪ½áĬ¨": 2095,
      "ĠáĪ°áĪĿáĭĲ": 2096,
      "áĮĪáĪ´": 2097,
      "áĪ¸áĪĿ": 2098,
      "áĪĮáĪķ": 2099,
      "áī¤áĬĲ": 2100,
      "ĠáĬłáīµáī£": 2101,
      "ĠáįĪáī°": 2102,
      "áĭ¥": 2103,
      "áīłáĭ®áĪĿ": 2104,
      "áĭŃáĪĲ": 2105,
      "ĠáīµáĭĲ": 2106,
      "ĠáĪįáīµáĪ³": 2107,
      "Ġáī°áĪ°": 2108,
      "áĭĪáĮĢ": 2109,
      "áĭ³áįį": 2110,
      "áĬ©áĭį": 2111,
      "áī¡áĭŃ": 2112,
      "áī¤áĬĴ": 2113,
      "Ġáĭ°áĮį": 2114,
      "ĠáĭĪáī°áĭĲ": 2115,
      "áīĵ": 2116,
      "ĠáĭĪáĭ¨": 2117,
      "áĬ¨áĬ¨": 2118,
      "ĠáĪĺáĮ¥": 2119,
      "ĠáĬ¥áīł": 2120,
      "áĭķáĪŃ": 2121,
      "ĠáĪ°áĪĲ": 2122,
      "áĭĵáī±": 2123,
      "áĮİáīµ": 2124,
      "ĠáįĪáĪĢ": 2125,
      "áĪĺáĮ½": 2126,
      "ĠáĬ¢áĪĢ": 2127,
      "ĠáĬ¢áĪ³": 2128,
      "áįįáĪµ": 2129,
      "áĪ°áįį": 2130,
      "ĠáīµáĮĥ": 2131,
      "áĭĪáīħ": 2132,
      "áĪħáĪĿ": 2133,
      "áĮ¥áĪį": 2134,
      "áĪ¸áĭį": 2135,
      "áĭ¬áĬķ": 2136,
      "áĪ¬áĬ¨": 2137,
      "ĠáĮĢáĪŃ": 2138,
      "ĠáĪĺáĪĲáĪĺáĭµ": 2139,
      "áĪµáīł": 2140,
      "áĪµáĪĭ": 2141,
      "áĬĵáĪį": 2142,
      "ĠáĪįáī£": 2143,
      "áĬ«áĪĿ": 2144,
      "áĮĪáĭĿ": 2145,
      "áĪ½áĬŃ": 2146,
      "ĠáĬķáĬ¥": 2147,
      "áĪĮáĭķ": 2148,
      "ĠáĭĪáĪĪáĬ¥": 2149,
      "ĠáįĲ": 2150,
      "áĪļáĬ«": 2151,
      "ĠáĭµáĪŃ": 2152,
      "áī°áīł": 2153,
      "ĠáĭĪáĮĥ": 2154,
      "áĪĪáĬĲ": 2155,
      "áĭįáĭķ": 2156,
      "ĠáĪįáĭ°": 2157,
      "Ġáī°áĪį": 2158,
      "áĪ«áĪµ": 2159,
      "áĪªáĬ¨": 2160,
      "áĪªáī±": 2161,
      "ĠáĬ£áĪŃ": 2162,
      "ĠáĬ¢áīµáĬĲ": 2163,
      "ĠáīĢáĭ°": 2164,
      "Ġáī¬": 2165,
      "áĪ¶áĬķ": 2166,
      "Ġáĭ³áĭŃ": 2167,
      "áĪ¨áĬ¨áīµ": 2168,
      "áĬłáĪĿáĪŃ": 2169,
      "ĠáĪĪáīµáĪĢ": 2170,
      "ĠáĭĪáĬ¦": 2171,
      "ĠáĪĺáĪĪ": 2172,
      "ĠáĪĺáī³": 2173,
      "ĠáĬ¢áīµáĪķ": 2174,
      "áĭ¨áĪĺ": 2175,
      "Ġáīµáīħ": 2176,
      "áĬ¥áĪį": 2177,
      "áĭĿáĭ¨": 2178,
      "áĭĿáĪķ": 2179,
      "ĠáĪĪáīµáĭ°": 2180,
      "áĮĭáīµ": 2181,
      "áĮĭáĪĿ": 2182,
      "ĠáĭĲáĭµ": 2183,
      "ĠáĬ£áĪµ": 2184,
      "áĭ±áĪį": 2185,
      "Ġáī¥áĪį": 2186,
      "ĠáĪĪáī°áĬłáīµ": 2187,
      "ĠáĭĪáĪĪáĪĿ": 2188,
      "áĬĳáĬķ": 2189,
      "áīµáĪĥáĮĪ": 2190,
      "ĠáĪĪáī´": 2191,
      "Ġáī°áĪĪ": 2192,
      "áĮĪáĮį": 2193,
      "áįĪáĪ¬": 2194,
      "áĪĪáĪĭ": 2195,
      "áĪ¸áīĦ": 2196,
      "áĬªáĬĴ": 2197,
      "ĠáĭĲáĭį": 2198,
      "ĠáĭĪáĬłáĬŃ": 2199,
      "áĪ¨áīµáĪĪ": 2200,
      "áĪĥáīµ": 2201,
      "ĠáĭĭáĮħ": 2202,
      "áĪ¨áĪ°áĭĲ": 2203,
      "áī®": 2204,
      "áīłáĪ¨áĭį": 2205,
      "áĭŃáĪ°": 2206,
      "ĠáĪĺáĪ¸": 2207,
      "ĠáĬ¢áĮł": 2208,
      "áĬ¥áī±": 2209,
      "ĠáĪįáĭµ": 2210,
      "ĠáĬ¨áĪķ": 2211,
      "áĭĺáĭ¨": 2212,
      "áĭ´áĬķ": 2213,
      "ĠáīĢáĬķ": 2214,
      "áīłáīµáĪĪ": 2215,
      "áĪĨáīµ": 2216,
      "áĬĶáĭķ": 2217,
      "ĠáĮįáĪį": 2218,
      "ĠáįĭáĪŃ": 2219,
      "áĬ¨áīł": 2220,
      "áĬŃáī±": 2221,
      "ĠáĬ¢áĪĪáĪĢ": 2222,
      "áĪ°áĪ¨": 2223,
      "ĠáīµáĪĪ": 2224,
      "ĠáĬ¥áĭĿ": 2225,
      "áĪĲáĪį": 2226,
      "áįĪáĭ©": 2227,
      "áĭ³áĭŃáīµ": 2228,
      "áĮ¥áĬĲ": 2229,
      "áĮĪáĪİ": 2230,
      "áĮĢáī¥": 2231,
      "áĭĵáĪį": 2232,
      "áĪĮáĬ®": 2233,
      "ĠáīłáĭŃ": 2234,
      "ĠáĭĪáĬłáĪŃ": 2235,
      "ĠáĭĪáĬłáĮį": 2236,
      "ĠáĪµáĪį": 2237,
      "ĠáīĢáĪį": 2238,
      "áĬĸáĪµ": 2239,
      "ĠáĪĪáĬ¥áīµ": 2240,
      "áįĮáīµ": 2241,
      "áįĪáĬķáī°": 2242,
      "áĪ¦": 2243,
      "áĪĿáįķ": 2244,
      "áĪŃáī¶": 2245,
      "áī°áĪĺ": 2246,
      "ĠáĪĪáĬķáīµ": 2247,
      "ĠáĬłáĭµáĪ¨": 2248,
      "ĠáĪĺáĪµáī°": 2249,
      "ĠáĬ¥áĪĺ": 2250,
      "áī³áĪį": 2251,
      "ĠáĬ¨áĭ°": 2252,
      "áĭĪáĭ°": 2253,
      "áĮħáĪĺ": 2254,
      "ĠáĪĪáĪįáīµáĬĲ": 2255,
      "ĠáīłáĪ«": 2256,
      "áī¦áī±": 2257,
      "áĭ²áĬĲ": 2258,
      "ĠáĭµáĪ«": 2259,
      "ĠáĪŃáĬ¤": 2260,
      "áīµáĪŃ": 2261,
      "áĬķáī´": 2262,
      "áĪĿáĪ©": 2263,
      "ĠáĪĪáĬĵ": 2264,
      "ĠáĭĪáĪĶ": 2265,
      "ĠáĪĺáĬ¥": 2266,
      "ĠáĬ¢áĪ¨": 2267,
      "áĭįáĭĿ": 2268,
      "áĬ¥áĪĺ": 2269,
      "áĪĲáĭµ": 2270,
      "áĭ«áĭµ": 2271,
      "áĪĢáĭ°": 2272,
      "áī¡áĪĺ": 2273,
      "ĠáĪĿáĮį": 2274,
      "ĠáĭĲáīħ": 2275,
      "ĠáĭĪáĬłáĭį": 2276,
      "ĠáĭĪáĪĺáĪµ": 2277,
      "áĭ¨áīµáĬ¨": 2278,
      "áīµáĪ«áī°": 2279,
      "áĮ¼áĪķ": 2280,
      "áī¥áĪª": 2281,
      "ĠáĭĪáĬ®": 2282,
      "ĠáĭĪáĮ£": 2283,
      "ĠáĬłáĪ«": 2284,
      "ĠáĭĪáĪĬ": 2285,
      "áīµáĪ©": 2286,
      "áīĢáĪ¨": 2287,
      "ĠáīµáīµáĬĲ": 2288,
      "áĪĢáĪ¨": 2289,
      "áĭĿáĪŃ": 2290,
      "áĮ¥áĪ¨": 2291,
      "ĠáĬķáĪĿ": 2292,
      "áĭ´áĬĴ": 2293,
      "ĠáĬŃáīµ": 2294,
      "áĪĻáĭµ": 2295,
      "áī¢áĪį": 2296,
      "ĠáĪĽáĬķ": 2297,
      "ĠáīĤ": 2298,
      "ĠáīµáīµáĭĲ": 2299,
      "áĪ¾áīµ": 2300,
      "ĠáĭĪáĪ´": 2301,
      "ĠáĭĪáĪļ": 2302,
      "áĭ°áī¥": 2303,
      "áĬŃáĪī": 2304,
      "Ġáīµáī°": 2305,
      "ĠáīµáĮ¨": 2306,
      "ĠáĪįáī³": 2307,
      "áĪĲáĪ¨": 2308,
      "Ġáī°áĪķ": 2309,
      "áĪ«áįį": 2310,
      "áĭ«áī³áīµ": 2311,
      "áī³áĭŃáīµ": 2312,
      "áĭ³áĪĺ": 2313,
      "áĪ½áĬĲ": 2314,
      "áĬ®áĬª": 2315,
      "áĪ©áĭŃ": 2316,
      "áĭīáĬĲ": 2317,
      "ĠáĬŃáįį": 2318,
      "áĪĪáīµáĪĪ": 2319,
      "áĬķáīł": 2320,
      "áĪŃáĪĵ": 2321,
      "ĠáĪĪáĭ¨": 2322,
      "ĠáĭĪáīµáĬĲ": 2323,
      "ĠáĭĪáĪ²": 2324,
      "áĭµáīħ": 2325,
      "ĠáĬ¢áĬ¥": 2326,
      "áĪĲáī°": 2327,
      "áī³áīµáĪĺ": 2328,
      "áĭ©áĬķ": 2329,
      "áĭĿáĮĬ": 2330,
      "áĪ³áĪĺ": 2331,
      "áįĭáĭķ": 2332,
      "áĪĪáĪŀ": 2333,
      "áĪ¬áī±": 2334,
      "ĠáĭĪáĬłáĪį": 2335,
      "ĠáĪįáīµáĭ°": 2336,
      "ĠáĪįáīµáī£": 2337,
      "ĠáĪįáīµáįĭ": 2338,
      "ĠáĪįáīµáĭĵ": 2339,
      "ĠáĬ£áīµ": 2340,
      "ĠáĬłáīµáĬ«": 2341,
      "áĬ¹": 2342,
      "áĬķáĪĪ": 2343,
      "áĪĿáīħ": 2344,
      "áī°áīħ": 2345,
      "áĭ¨áĪµ": 2346,
      "áĪ°áĭŃ": 2347,
      "áĭ«áī¶áĪĿ": 2348,
      "áįĭáīħ": 2349,
      "áĪ©áĪŃ": 2350,
      "ĠáĪįáīµáīĥ": 2351,
      "áīµáĪĺáīĥ": 2352,
      "áĭ¶áĪį": 2353,
      "ĠáĮ¸áĬķáĪĲ": 2354,
      "áĭªáīµ": 2355,
      "Ġáĭĸ": 2356,
      "áĬķáĪĳ": 2357,
      "ĠáĪĪáįĭ": 2358,
      "ĠáĬłáīµáĪ«": 2359,
      "áĪĪáĭ®": 2360,
      "ĠáĪĪáĪĭ": 2361,
      "áīĢáīł": 2362,
      "áīħáĪµ": 2363,
      "áĪĲáĬ¨": 2364,
      "áĭ«áĪŃ": 2365,
      "áįĪáĪ°": 2366,
      "ĠáĪĪáīµáĮ¸": 2367,
      "áĪ¸áĪ¸": 2368,
      "ĠáīµáĪĢ": 2369,
      "ĠáīµáĪĵ": 2370,
      "ĠáĪµáī³": 2371,
      "ĠáĪĺáĪµáĬ¡": 2372,
      "Ġáī°áĪµáįĭ": 2373,
      "áĬķáįį": 2374,
      "ĠáĪĪáĭĿ": 2375,
      "áĪįáįĭ": 2376,
      "áĪĺáĬ¨": 2377,
      "áĪµáĪ¨": 2378,
      "áĭŃáī°": 2379,
      "ĠáĬ¢áĮĪ": 2380,
      "áīĢáī°": 2381,
      "áĬ¥áĪĬ": 2382,
      "áĭķáĭµ": 2383,
      "áĮįáĭ¨": 2384,
      "áĭ«áĪĻ": 2385,
      "áĭ³áĭį": 2386,
      "áįĪáĪĲ": 2387,
      "áĪĮáĬŃ": 2388,
      "áĪīáĪį": 2389,
      "áĪ¬áĬķ": 2390,
      "Ġáĭ°áĭĭ": 2391,
      "áĪ¨áīµáĬĲ": 2392,
      "áĮ£áĪį": 2393,
      "áĪ»áīµ": 2394,
      "áĪĦáĪŃ": 2395,
      "áĪĪáĪĪáīµ": 2396,
      "áĬĿ": 2397,
      "ĠáĭĪáī´": 2398,
      "ĠáĭĪáīµáĪĺ": 2399,
      "áĪµáĪĽáĬķ": 2400,
      "áĭ°áĭ®áĪĿ": 2401,
      "áīµáĪī": 2402,
      "ĠáĪĺáĪħ": 2403,
      "ĠáĪĺáįĭ": 2404,
      "áīĢáīħ": 2405,
      "áīħáĪİ": 2406,
      "áĬ¥áĬ¨": 2407,
      "áįĪáĬĲ": 2408,
      "áĪªáĬ«": 2409,
      "áĮĪáĪĽ": 2410,
      "ĠáĪĿáĬŃ": 2411,
      "áĪīáī±": 2412,
      "ĠáĭĪáĪĺáĪ³": 2413,
      "Ġáī°áĬłáĪµ": 2414,
      "ĠáĭĪáĪĪáĪķ": 2415,
      "áīłáĪŃáĬ¨": 2416,
      "ĠáīħáĪ©": 2417,
      "Ġáī£áĪį": 2418,
      "ĠáįĪáĪį": 2419,
      "ĠáĭŃáĬ¥áīµ": 2420,
      "áĬ¨áįį": 2421,
      "áĭŃáī¡": 2422,
      "áĭįáĪķ": 2423,
      "áĭĲáĪŃ": 2424,
      "áĭĲáĬĴ": 2425,
      "áĪ°áĬ¨": 2426,
      "ĠáĬ¨áĪħ": 2427,
      "áĬ«áī¥": 2428,
      "áĭĪáĬŃ": 2429,
      "áĪĽáĭŃáīµ": 2430,
      "áĬ©áĬĴ": 2431,
      "áĮ¥áĪ®": 2432,
      "áįĪáĪĪáĪ": 2433,
      "áĪ¸áĪ½": 2434,
      "Ġáĭ°áĭį": 2435,
      "ĠáĬ¢áīµáīĢ": 2436,
      "áī²áĬŃ": 2437,
      "ĠáĭŃáīµ": 2438,
      "Ġáīº": 2439,
      "ĠáĭĪáĬ¥áĪĿ": 2440,
      "áĪŃáīłáīµ": 2441,
      "ĠáĪĪáĮ¨": 2442,
      "áī¥áĪķ": 2443,
      "áīłáĮĪáĪ°": 2444,
      "ĠáĭĪáī¤": 2445,
      "ĠáĭĪáĭĶ": 2446,
      "áĬĲáĪĢ": 2447,
      "áįįáĭ¨": 2448,
      "áįįáĭĸ": 2449,
      "áĭĲáĭĪ": 2450,
      "áīĢáįį": 2451,
      "áĭķáĭ¨áīµ": 2452,
      "áįĪáįį": 2453,
      "ĠáĪĪáĬłáĮħ": 2454,
      "áĭĭáī±": 2455,
      "áĭĺáī¥": 2456,
      "ĠáĪ°áĬł": 2457,
      "áĮĪáĪĢ": 2458,
      "áĪ©áĪĺ": 2459,
      "áĮĢáĪ¨": 2460,
      "áĪ¸áĪį": 2461,
      "áĪĥáī±": 2462,
      "Ġáī¥áĪ«": 2463,
      "áĬĶáĪķ": 2464,
      "ĠáĭµáĮį": 2465,
      "Ġáī£áĭŃ": 2466,
      "ĠáĮłáĪį": 2467,
      "ĠáĪĪáĬ¢áīµáīµ": 2468,
      "áĪĿáĭ°": 2469,
      "áĪŃáĬ«": 2470,
      "áī°áĬŃ": 2471,
      "áīłáĪµ": 2472,
      "áīłáĪĭ": 2473,
      "áīłáĪī": 2474,
      "ĠáĭĪáĮŃ": 2475,
      "áĪ¨áĭķ": 2476,
      "áĬĲáĪķ": 2477,
      "áĬ¨áĪĪ": 2478,
      "áīµáĪİ": 2479,
      "ĠáĮ¦": 2480,
      "ĠáĪĺáĪŃáĪĲ": 2481,
      "ĠáĬ¢áĪĬ": 2482,
      "ĠáīµáĮ½": 2483,
      "Ġáī°áĬ½": 2484,
      "áĪ«áĭŃáīµ": 2485,
      "áĪĭáĪĮ": 2486,
      "ĠáĬ¨áĪĭ": 2487,
      "áĭĿáī¥": 2488,
      "ĠáĭĪáĪĪáĬĲ": 2489,
      "áĮĭáĬķ": 2490,
      "ĠáīłáĭĲáĪį": 2491,
      "ĠáĭĲáĪĬ": 2492,
      "áĪ¬áĪĺ": 2493,
      "ĠáĭķáĪĭ": 2494,
      "áįİáĬķ": 2495,
      "áįİáĪŃ": 2496,
      "áĪľáīµ": 2497,
      "áĭ°áĪŃáĪµ": 2498,
      "ĠáĪĪáĮĥ": 2499,
      "áĬŃáĭİáĪĿ": 2500,
      "áĭ¨áĭµ": 2501,
      "áĭķáĭī": 2502,
      "áĪĲáī±": 2503,
      "áī³áīµáĬĲ": 2504,
      "áĪĢáĭ©": 2505,
      "ĠáĪ°áīł": 2506,
      "ĠáĪ°áĬĲ": 2507,
      "áĪĬáĪį": 2508,
      "ĠáĪįáīµáĪ¨": 2509,
      "ĠáĪįáīµáĬ«": 2510,
      "áīµáĪĺáĪ³": 2511,
      "ĠáĬ¢áĪįáīµáĬ¨": 2512,
      "áĪ²áĪµ": 2513,
      "ĠáĪĺáīµáĬł": 2514,
      "áĪ´áīµ": 2515,
      "áĭŀáĪĿ": 2516,
      "ĠáĮĢáĪªáĭ°áīµ": 2517,
      "áĬ¨áĭ¨": 2518,
      "ĠáĮ¾": 2519,
      "áįįáįį": 2520,
      "áĭĲáĪĿ": 2521,
      "áĪ°áīłáīµ": 2522,
      "ĠáīµáĬł": 2523,
      "áĬĵáĬĲ": 2524,
      "ĠáĪįáĬł": 2525,
      "ĠáĬ¥áĭŃ": 2526,
      "áįĪáīħ": 2527,
      "áĬ«áĬĴ": 2528,
      "ĠáĪĪáĬłáī°áĬķ": 2529,
      "áĪĪáĪĻ": 2530,
      "áĭĵáĭŃáīµ": 2531,
      "ĠáĪįáīµáĮĭ": 2532,
      "ĠáĬŃáĪĭ": 2533,
      "ĠáĬŃáĪī": 2534,
      "áĪĥáĪĺ": 2535,
      "ĠáĬ¢áĪįáīµáĪĲ": 2536,
      "ĠáĬ¥áĬķáĪ°": 2537,
      "áĮ£áĪŃ": 2538,
      "áĪļáĪŃ": 2539,
      "ĠáĮįáĭµ": 2540,
      "áĪĺáīµáĪĪ": 2541,
      "Ġáī£áĪŃ": 2542,
      "ĠáĪĪáĬ¨áĪį": 2543,
      "ĠáĬŃáĪĿáĪ°áĪį": 2544,
      "ĠáįķáĪ®": 2545,
      "áĬķáĮī": 2546,
      "áĪĿáĮ¥": 2547,
      "áī¥áĭĳ": 2548,
      "áīłáīµáĬ¨": 2549,
      "ĠáĭĪáĬķáīµ": 2550,
      "ĠáĭĪáĪ±": 2551,
      "ĠáĮ¤": 2552,
      "ĠáĪĺáĮł": 2553,
      "áĪ°áĭ©": 2554,
      "ĠáīµáĮ»": 2555,
      "ĠáīµáīµáĪĢ": 2556,
      "áĬĵáĬĴ": 2557,
      "ĠáĬ¥áĭį": 2558,
      "áĭķáī°": 2559,
      "Ġáī°áīµ": 2560,
      "áĭĪáĭį": 2561,
      "áĭĪáĭĺ": 2562,
      "áĪĪáĪĬ": 2563,
      "áĮ¸áĬ¥": 2564,
      "ĠáĭĲáĪį": 2565,
      "áī¦áī³áīµ": 2566,
      "áĭīáĬĴ": 2567,
      "ĠáĪĪáĬ¢áī°áĬł": 2568,
      "áĪĵáī±": 2569,
      "Ġáī¥áĪª": 2570,
      "ĠáĭĪáĪįáĭ´": 2571,
      "ĠáĭįáĪķ": 2572,
      "áįģ": 2573,
      "ĠáĪĪáĭ°áĪ¨": 2574,
      "ĠáĭĪáĬ©": 2575,
      "áĪĪáĬĴ": 2576,
      "áĭµáīµ": 2577,
      "áĭ°áī¶áĪĿ": 2578,
      "áĭ°áĪ¨áīµ": 2579,
      "áĪ°áĬĴ": 2580,
      "ĠáĪįáĪĲ": 2581,
      "áĭķáĭ°": 2582,
      "áĭ«áī°áĬķ": 2583,
      "áĪĽáĬĲ": 2584,
      "áĮħáĬķ": 2585,
      "áĪ®áĬķ": 2586,
      "áĪ©áī¥": 2587,
      "ĠáĪĿáīµ": 2588,
      "áĬªáī°": 2589,
      "ĠáĭĪáĪĪáĬ¨": 2590,
      "ĠáīłáĪ¨": 2591,
      "ĠáĭĲáĬķ": 2592,
      "ĠáĭĲáĭ²": 2593,
      "ĠáĭŃáĭĲ": 2594,
      "ĠáĪ¸áĪŃ": 2595,
      "ĠáĬ¢áĪįáĬł": 2596,
      "áįĬáīµ": 2597,
      "Ġáĭ¨áĪĲ": 2598,
      "áĮħáī°áĪĺáĭķ": 2599,
      "áĭ¯": 2600,
      "áīłáī¶": 2601,
      "áīłáĪ©": 2602,
      "ĠáĭĪáīµáĪĲ": 2603,
      "áĪĪáĭĪ": 2604,
      "áĬŃáĬĸ": 2605,
      "ĠáĬ¢áĪ¸": 2606,
      "ĠáĬ¢áīµáĪ¸": 2607,
      "áįįáĪ©": 2608,
      "ĠáĬ¥áĭ³": 2609,
      "ĠáĬ¨áĪĢ": 2610,
      "ĠáĬ¨áĪ½": 2611,
      "ĠáĪĪáĬłáīĢ": 2612,
      "áĭ©áĪĺ": 2613,
      "áĮĪáĭķ": 2614,
      "áĭĺáĪĺ": 2615,
      "áįĪáĪ½": 2616,
      "ĠáĪ°áĭĭ": 2617,
      "ĠáĪįáīµáĬł": 2618,
      "Ġáĭ°áĪĿ": 2619,
      "ĠáĪ¨áĬŃ": 2620,
      "ĠáĬłáīµáĭĭ": 2621,
      "áĬķáĪģ": 2622,
      "ĠáĭĪáĬ¬": 2623,
      "áĪĺáĬĴ": 2624,
      "ĠáĪĺáĭ°áĪŃ": 2625,
      "áįĪáĮįáĪŃ": 2626,
      "áĭĿáĪĲ": 2627,
      "áĬ©áĬĲ": 2628,
      "áĪĪáĪī": 2629,
      "áĪ®áī±": 2630,
      "ĠáĬĲáĪµáĬł": 2631,
      "áĮ¸áīłáĪŃ": 2632,
      "áĬ£áĪĿáĪŃ": 2633,
      "áī´áĬĴ": 2634,
      "ĠáĬ£áĪĺ": 2635,
      "ĠáĭŃáĪĢ": 2636,
      "ĠáĪĪáĪĺáĪµ": 2637,
      "ĠáĭĪáĬ¢áĪįáīµ": 2638,
      "ĠáĮĪáĪĺ": 2639,
      "áĪŃáĬ¨áīµ": 2640,
      "áīµáĪĥáĮħ": 2641,
      "ĠáĪĪáĭĪáĭ´": 2642,
      "ĠáĪĺáĪįáĪħ": 2643,
      "áįĩ": 2644,
      "ĠáĪĪáĮ»": 2645,
      "áī¥áĪĢ": 2646,
      "áĬĲáĪħ": 2647,
      "áĭµáĪ©": 2648,
      "ĠáĮ¬": 2649,
      "áĭįáĭµ": 2650,
      "Ġáīµáĭķ": 2651,
      "áīħáĭ¨": 2652,
      "áĬ¥áĪĿ": 2653,
      "ĠáĪįáĮ¥": 2654,
      "ĠáĬ¥áĬ¨": 2655,
      "áĮįáĭ«": 2656,
      "Ġáī°áī¥": 2657,
      "áĪ«áĪģ": 2658,
      "áĭĪáĭŃ": 2659,
      "áĭ³áĪµ": 2660,
      "áĮĪáĭĲ": 2661,
      "ĠáĪ°áĪĺ": 2662,
      "ĠáĪ°áĪ¨": 2663,
      "ĠáĪ°áĭŃ": 2664,
      "áĭ®áī°": 2665,
      "ĠáīłáĪĪ": 2666,
      "ĠáĭĲáĪŃ": 2667,
      "áī¤áĬ¨": 2668,
      "áĭĽáīł": 2669,
      "ĠáĪĪáī°áĪŃ": 2670,
      "ĠáĬ¢áĪįáīµáĪ°": 2671,
      "ĠáĭĪáĪĪáĪ¨": 2672,
      "ĠáĪĺáīµáī£": 2673,
      "ĠáįĪáĪ«": 2674,
      "áĬĥ": 2675,
      "Ġáĭŀ": 2676,
      "áī¥áĬ®": 2677,
      "áĭŃáĬ¨": 2678,
      "ĠáĬłáī¥áĪŃ": 2679,
      "ĠáĮ¹": 2680,
      "ĠáĬ¢áĪĺáīµ": 2681,
      "ĠáīµáĪį": 2682,
      "áĬĵáĭµáĪį": 2683,
      "áīħáĪī": 2684,
      "ĠáĬ¥áĪ¸": 2685,
      "ĠáĬ¥áĭ´": 2686,
      "áī£áīł": 2687,
      "áĪķáī°": 2688,
      "áĬ«áįį": 2689,
      "ĠáĪĪáĬłáĭ³": 2690,
      "áĭĭáĪĪ": 2691,
      "áĭĭáĪĮ": 2692,
      "áĪªáĬĲ": 2693,
      "áĮħáĭķ": 2694,
      "áĮ½áĪĸ": 2695,
      "ĠáĪĪáĪįáīµáĪ¸": 2696,
      "áĮĭáĭµ": 2697,
      "áĪĬáĬĴ": 2698,
      "áĪĵáĬķ": 2699,
      "ĠáĬ¥áĬķáĭ°": 2700,
      "áįĬáĬķ": 2701,
      "áĮīáĪŃ": 2702,
      "ĠáĭĿáī°": 2703,
      "áįĪáĪĢáĪĿ": 2704,
      "áĬ¾": 2705,
      "áĪĿáīłáĪŃ": 2706,
      "ĠáĭĪáĮİ": 2707,
      "ĠáĬłáĪĭ": 2708,
      "ĠáĪĪáĪĦ": 2709,
      "ĠáĪĺáĪĥ": 2710,
      "ĠáĬ¢áī²": 2711,
      "áįįáĪ½": 2712,
      "ĠáīµáĭĪáĪĪ": 2713,
      "áĭķáĬ¨": 2714,
      "áī³áī¥": 2715,
      "ĠáĬ¨áĪĪáĪ": 2716,
      "áĮĪáĭŃ": 2717,
      "áĭĭáĪ«": 2718,
      "áįĪáĪħ": 2719,
      "ĠáĪĪáīµáĪ¨": 2720,
      "ĠáĬĲáĪĢ": 2721,
      "áĮ¸áīłáĪ¨": 2722,
      "ĠáīłáĪħ": 2723,
      "áĪ¬áī°": 2724,
      "ĠáĪįáīµáįĪ": 2725,
      "ĠáĪĪáĬ¢áĬĲ": 2726,
      "ĠáĭĪáĪĺáĪĲ": 2727,
      "áĭ±áĭµ": 2728,
      "áĮ£áĭŃ": 2729,
      "áĭľáĭķ": 2730,
      "ĠáĬ¢áī°áĭĲ": 2731,
      "ĠáĭĿáĭ«": 2732,
      "ĠáĪĪáĪįáīµáĭĲ": 2733,
      "ĠáĪĪáĬłáīµáįĭ": 2734,
      "áĪĴáĬķ": 2735,
      "áĭŀáīµ": 2736,
      "áī°áĪįáĪħ": 2737,
      "áĪĿáĪ°": 2738,
      "áĪŃáĮĭ": 2739,
      "ĠáĭĪáīµáĪ¸": 2740,
      "áĪµáī¡": 2741,
      "ĠáĬłáĪľ": 2742,
      "áĪĪáĮ¥": 2743,
      "áĪĪáī¶áĪĿ": 2744,
      "áĪ°áĪĲ": 2745,
      "ĠáĪįáĭ³": 2746,
      "ĠáĬ¥áĭ°": 2747,
      "ĠáĬ¥áĪħ": 2748,
      "áĮįáĪ©": 2749,
      "ĠáĬ¨áĪĽ": 2750,
      "ĠáĪĪáĬłáĭ°": 2751,
      "áĮĪáĮ½": 2752,
      "áī¡áĪį": 2753,
      "ĠáĬĲáĬŃ": 2754,
      "ĠáĬ£áī¥": 2755,
      "ĠáĪķáĪį": 2756,
      "ĠáĬ¢áĪįáĪķ": 2757,
      "áĪŀáī³áīµ": 2758,
      "áĬĶáĬĲ": 2759,
      "áĪĤáĪĿ": 2760,
      "áĪĴáīµ": 2761,
      "ĠáĬ¢áĪĪáĬłáīµ": 2762,
      "áĭµáĪªáĪµ": 2763,
      "áĪļáĬ«áĬ¤áĪį": 2764,
      "áįĳ": 2765,
      "áĪĿáĮł": 2766,
      "áĪŃáĮĮ": 2767,
      "áī¥áĪ¨áīµ": 2768,
      "áĬĲáĭ©": 2769,
      "ĠáĬłáīĢ": 2770,
      "ĠáĪĪáĪĶ": 2771,
      "áĬŃáī¡": 2772,
      "ĠáĪĺáīĢ": 2773,
      "ĠáĪĺáĬ¢": 2774,
      "áįįáĭĳ": 2775,
      "áĭįáĪµ": 2776,
      "áīħáī£": 2777,
      "ĠáĪįáĪį": 2778,
      "ĠáĪįáĮħ": 2779,
      "áįĪáĬŃáĪŃ": 2780,
      "áĭ«áī¥": 2781,
      "ĠáĬ¨áĬ¨": 2782,
      "ĠáĬ¨áĭŃ": 2783,
      "áĪ½áĪ¨": 2784,
      "áĭĿáĭ®": 2785,
      "áĭĭáĮ¥": 2786,
      "áįĭáĪĿ": 2787,
      "áĮĪáĪĲ": 2788,
      "ĠáĪĪáīµáĮĢ": 2789,
      "áĭĵáĪĺ": 2790,
      "ĠáĬķáĬŃ": 2791,
      "ĠáīłáĮ½áĪĲ": 2792,
      "áĪĬáī¥": 2793,
      "ĠáĪĪáĬ¢áĪĪ": 2794,
      "áĭĽáī¥": 2795,
      "ĠáĬ¥áĬķáĪ¸": 2796,
      "Ġáī¼": 2797,
      "ĠáĪĺáīµáīł": 2798,
      "ĠáĪŃáĪķ": 2799,
      "ĠáĭĵáĭŃ": 2800,
      "áīłáī°áĭį": 2801,
      "áĭĪáĪĪáīµ": 2802,
      "áĪ¾áĪĿ": 2803,
      "áĭı": 2804,
      "áĪŃáĬ¡": 2805,
      "ĠáĪĪáīłáĪŃ": 2806,
      "áĪĺáĪ½": 2807,
      "áĬ¨áĭ©": 2808,
      "ĠáĬłáĮł": 2809,
      "ĠáĬłáĮ£": 2810,
      "áīµáĪĻ": 2811,
      "áĭ¨áī¥": 2812,
      "áĭ¨áīµáĪĺ": 2813,
      "áĭįáĭ¨áīµ": 2814,
      "áĪ°áĪĭ": 2815,
      "áĬ¥áĪµ": 2816,
      "ĠáĬ¥áĬĵ": 2817,
      "ĠáĬ¥áĮ½": 2818,
      "ĠáĬ¥áīµáĪ°": 2819,
      "áĮįáĪĬ": 2820,
      "áĪĭáī³áīµ": 2821,
      "áĮĪáĮĬ": 2822,
      "áĬ®áĪĺ": 2823,
      "áĪĮáĬķ": 2824,
      "áĭĪáĪ¸": 2825,
      "ĠáĭĪáĬłáĪ°": 2826,
      "áĪĻáĪĿ": 2827,
      "ĠáĪĪáĬ¢áĪ°": 2828,
      "Ġáī°áĬłáĪĿ": 2829,
      "Ġáī¥áĭķ": 2830,
      "áī¢áī¥": 2831,
      "ĠáĪĢáīł": 2832,
      "ĠáĪĪáĪĺáĪŃ": 2833,
      "ĠáįĪáĬĵ": 2834,
      "áįĪáĪŃáĪħ": 2835,
      "áĮ¦áīµ": 2836,
      "áīµáĪĥáĮĢ": 2837,
      "Ġáī¦áĪŃ": 2838,
      "áĪĿáĪķ": 2839,
      "áĬłáī±": 2840,
      "áīłáĮ½áĪĲ": 2841,
      "áīłáĮĪáĪµ": 2842,
      "ĠáĭĪáĪĮ": 2843,
      "áĭµáĭķ": 2844,
      "áĭµáĮİ": 2845,
      "ĠáĪĪáĪŀ": 2846,
      "ĠáĬ¢áĭĪ": 2847,
      "áįįáĭĺ": 2848,
      "ĠáīµáįĪáĪ¨": 2849,
      "áįĪáĭĺ": 2850,
      "áī£áĭ¬": 2851,
      "áī£áī³áīµ": 2852,
      "áĪĭáīħ": 2853,
      "ĠáĪĪáĬłáīµáĪĵ": 2854,
      "áĭ³áī¥": 2855,
      "áĪĽáĪĻ": 2856,
      "áĮĪáĭŃáĪµ": 2857,
      "áĭĿáĭ©": 2858,
      "áĬ©áĭİáĪĿ": 2859,
      "áĮ½áĬ¡": 2860,
      "ĠáĪĪáīµáįĪ": 2861,
      "ĠáĪĿáĪµáī°": 2862,
      "ĠáĪĪáĪįáī°": 2863,
      "áĭĪáĪª": 2864,
      "áĮĭáĪį": 2865,
      "áĪĵáĪį": 2866,
      "ĠáĪ¨áĬ¨áī¥": 2867,
      "ĠáĭĪáĪĪáĪĪáĪ": 2868,
      "ĠáĬ¢áī°áĬłáīµ": 2869,
      "ĠáĬ®áĬķ": 2870,
      "áĮĤáĬķ": 2871,
      "áĮ¼áĬķ": 2872,
      "ĠáĭĳáĪµáĪĽáĬķ": 2873,
      "ĠáĪĪáĭ°áĪŃ": 2874,
      "áīłáīµáĬĲ": 2875,
      "áĪĺáīħ": 2876,
      "áĬĲáĭŃ": 2877,
      "áĪµáī¶": 2878,
      "ĠáĬłáĪĮ": 2879,
      "ĠáĬłáĭľ": 2880,
      "ĠáĭĪáĪ¬": 2881,
      "áīµáĪŀ": 2882,
      "áĪ«áīĢ": 2883,
      "áī£áī¡": 2884,
      "áī³áĬ¬": 2885,
      "ĠáĬ¨áĪĬ": 2886,
      "ĠáĬ¨áĪ¬": 2887,
      "áĪ½áĪį": 2888,
      "áĮłáįį": 2889,
      "áĪ³áī¥": 2890,
      "áįĭáī±": 2891,
      "áĪĮáī±": 2892,
      "áĬªáĪŃ": 2893,
      "ĠáĭĪáĬłáīħ": 2894,
      "Ġáĭ°áĪ«": 2895,
      "Ġáī°áĬłáĬ¨": 2896,
      "ĠáīĢáĪ¨": 2897,
      "Ġáī¥áĪħ": 2898,
      "áĭ¶áĪŃ": 2899,
      "áī¢áĪŃ": 2900,
      "ĠáĬłáīµáĮĭ": 2901,
      "ĠáĮĢáĭĭ": 2902,
      "ĠáĮłáĪŃ": 2903,
      "ĠáĪĪáĬłáīµáīĥ": 2904,
      "áĬłáĪĿáĪ©": 2905,
      "Ġáī¤áĪį": 2906,
      "áĪĪáĪĺáīµ": 2907,
      "áĪ¨áĪ°áĭķ": 2908,
      "áĭĪáĪ¨áīµ": 2909,
      "ĠáĭĲáī¥áĭ°áĪį": 2910,
      "áĬķáĭ¬": 2911,
      "ĠáĭĪáĬª": 2912,
      "áĪĺáĭ°": 2913,
      "ĠáĬłáĮĪ": 2914,
      "ĠáĬłáĮŃ": 2915,
      "áĭ°áĬł": 2916,
      "áĬŃáĬ¨": 2917,
      "ĠáĪĺáĭĺ": 2918,
      "ĠáĪĺáĮ»": 2919,
      "áĭĲáĭµ": 2920,
      "áīĢáĪĪáīµ": 2921,
      "ĠáĪįáīµáĪĭ": 2922,
      "ĠáĪįáīµáĪ»": 2923,
      "ĠáĬ¥áĪĽ": 2924,
      "áĭķáĬķ": 2925,
      "áĮįáĪª": 2926,
      "Ġáī°áĪ¨": 2927,
      "áĪ«áĪĢ": 2928,
      "áĪĽáĪģ": 2929,
      "áĮħáĭ¨áīµ": 2930,
      "ĠáĪĲáĭľ": 2931,
      "ĠáĬķáįį": 2932,
      "áĭĪáĪ½": 2933,
      "áĪĬáī±": 2934,
      "áī´áĬ¨": 2935,
      "áĪĻáĬĲ": 2936,
      "ĠáĪķáĪĿ": 2937,
      "ĠáĪķáĪŃ": 2938,
      "ĠáĪ¸áĬĲ": 2939,
      "ĠáĭĪáĪĪáĪĵ": 2940,
      "ĠáĪ³áĬķ": 2941,
      "áī¼áĪĺ": 2942,
      "áĭļáĪŃ": 2943,
      "Ġáī³áĪŃ": 2944,
      "áĪŃáī£áĭŃ": 2945,
      "ĠáĪĪáīłáĪį": 2946,
      "áīłáĮ£": 2947,
      "ĠáĬłáĪ»": 2948,
      "áĭ°áĭĪ": 2949,
      "ĠáĪĺáīµáĪ¸": 2950,
      "áįįáīħ": 2951,
      "Ġáīµáĭµ": 2952,
      "áĬĵáĪħ": 2953,
      "áīħáĭķ": 2954,
      "ĠáĬ¥áĪį": 2955,
      "áĮįáĭ°": 2956,
      "áĪĭáĪĭ": 2957,
      "ĠáĬ¨áī£": 2958,
      "ĠáĬ¨áĪ¸": 2959,
      "ĠáĪĪáĬłáīµáĪĢ": 2960,
      "áĭ³áĬĲ": 2961,
      "áĭ³áĭ¨": 2962,
      "áĭĭáĪ¬": 2963,
      "áĮ½áī¥": 2964,
      "áĭ®áĪµ": 2965,
      "ĠáĬĲáīµ": 2966,
      "ĠáĬĲáĪ°": 2967,
      "ĠáĬķáĭķ": 2968,
      "ĠáĬķáĪ³": 2969,
      "áĭĪáĪ³": 2970,
      "áĪİáĪĺ": 2971,
      "áĪİáī±": 2972,
      "áĪĻáĪŃ": 2973,
      "ĠáĪĪáĬ¢áĪĪáĪĲ": 2974,
      "áĭ±áĪŃ": 2975,
      "ĠáĭĪáĪįáīµáĪĲ": 2976,
      "ĠáĮĪáī¥áĬł": 2977,
      "ĠáĪ³áĪŃ": 2978,
      "ĠáįįáĪ¬": 2979,
      "ĠáīħáĬķ": 2980,
      "ĠáīħáĪį": 2981,
      "ĠáĪĺáīµáīĢ": 2982,
      "áĪľáĬĲ": 2983,
      "ĠáĪŃáĬ¥": 2984,
      "áĪµáī°áĪ½": 2985,
      "ĠáĬłáįįáĪª": 2986,
      "Ġáĭ²áī¥": 2987,
      "áĪŃáĬ¥áĭ©": 2988,
      "áĪĿáĭĳ": 2989,
      "áĬłáĭŃ": 2990,
      "ĠáĭĪáĮĮ": 2991,
      "áĪµáī´": 2992,
      "ĠáĬłáīµáĪĭ": 2993,
      "áĪĪáĬ¥": 2994,
      "áĭµáĮī": 2995,
      "áĬŃáĪª": 2996,
      "ĠáĪĺáĭĪ": 2997,
      "áĭ¨áĪį": 2998,
      "áĭĲáĭ°": 2999,
      "áĭĲáī¶áĪĿ": 3000,
      "áĭĲáĭ´": 3001,
      "áīħáīħ": 3002,
      "áīħáī¡": 3003,
      "áĮįáīł": 3004,
      "ĠáĬ¨áĬ¢": 3005,
      "ĠáĪĪáĬłáīµáĪĺ": 3006,
      "áĭ³áĭ©": 3007,
      "áĮłáĬĲ": 3008,
      "áĬ®áĬĴ": 3009,
      "áįĭáĬķ": 3010,
      "áįĪáĪ©": 3011,
      "ĠáĪ°áĭį": 3012,
      "áĮĪáĪŀ": 3013,
      "ĠáĪĪáīµáīĥ": 3014,
      "áĬªáĪĺ": 3015,
      "ĠáīłáĪĲ": 3016,
      "ĠáĬŃáĬķ": 3017,
      "ĠáĭĪáĪĺáĪ»": 3018,
      "áĭĽáĭ¨": 3019,
      "ĠáĪķáĪ©": 3020,
      "áĪĥáĪį": 3021,
      "ĠáĪĪáī°áĪĵ": 3022,
      "ĠáĬ¢áĪįáĪĲ": 3023,
      "ĠáĭĪáĬ¢áĬĲ": 3024,
      "áīłáĪŃáĬĲ": 3025,
      "ĠáĬłáīµáĬ£": 3026,
      "áįĮáĪķ": 3027,
      "ĠáĬłáī¥áĭķ": 3028,
      "ĠáįĪáĪª": 3029,
      "áĭµáĪ¨áĪ°": 3030,
      "áīĤáīµ": 3031,
      "áĮĪáĪ¨áīµ": 3032,
      "ĠáĪĪáĭŃáĬł": 3033,
      "Ġáī°áīłáĪ°áĪĿ": 3034,
      "ĠáĬ½": 3035,
      "áĬķáĮĮ": 3036,
      "ĠáĪĪáĮĮ": 3037,
      "ĠáĪĪáĮŃ": 3038,
      "áĪµáīµáĪħ": 3039,
      "áĭŃáĪ¨": 3040,
      "ĠáĬłáī³": 3041,
      "ĠáĬłáĭĭ": 3042,
      "ĠáĮĵ": 3043,
      "áīĢáĭª": 3044,
      "áĬĵáĭ©": 3045,
      "áĬĵáĭ¬": 3046,
      "áīħáī¥áĪį": 3047,
      "ĠáĬ¥áĪ³": 3048,
      "áįĪáĬ¥": 3049,
      "áĪ«áī³áīµ": 3050,
      "áī³áĭ©": 3051,
      "áĭĿáĪĽ": 3052,
      "áĭĭáĪ¨": 3053,
      "ĠáĪ°áĪĵ": 3054,
      "áĮ½áįį": 3055,
      "áĭĵáī¥": 3056,
      "ĠáĭĪáĬłáī°": 3057,
      "áĭīáĪŃ": 3058,
      "áī´áĭķ": 3059,
      "áĪĻáĪ©": 3060,
      "ĠáĪĪáĬ¢áĬ¨": 3061,
      "ĠáĭĪáĪĺáĬĵ": 3062,
      "Ġáī°áĬłáĬķ": 3063,
      "Ġáī°áĬłáĪ°": 3064,
      "áĪĥáĬķáĪµ": 3065,
      "ĠáĬ¥áĬķáīµ": 3066,
      "ĠáĬłáīµáĬł": 3067,
      "áĭľáĪķ": 3068,
      "áīģáĪį": 3069,
      "ĠáĬłáĬķáīĢ": 3070,
      "áīĦáĭķ": 3071,
      "ĠáĬ¥áĮħáīµáĪĽ": 3072,
      "áīĪ": 3073,
      "áĬķáĬ¥": 3074,
      "áĪŃáī£": 3075,
      "áĪŃáĮħ": 3076,
      "ĠáĪĪáĬ®": 3077,
      "áĬłáĭ©": 3078,
      "áī¥áĪ®áĪĿ": 3079,
      "áīłáĭ´": 3080,
      "ĠáĭĪáī¦": 3081,
      "ĠáĭĪáĮ¨": 3082,
      "áĬ¨áī±": 3083,
      "áĭŃáĭ©": 3084,
      "ĠáĬłáī°áĪŃ": 3085,
      "ĠáĭĪáĪª": 3086,
      "áĬŃáĭĪáĬķ": 3087,
      "ĠáĬ¢áĭŃáīµ": 3088,
      "ĠáĬ¢áīµáĪ³": 3089,
      "áĮįáĪī": 3090,
      "áĪ«áĪį": 3091,
      "áī£áĪ¨": 3092,
      "áī£áĪĪ": 3093,
      "áĪĭáĭ©": 3094,
      "ĠáĬ¨áĪ³": 3095,
      "áĪĢáī±": 3096,
      "áĪħáĬĲ": 3097,
      "áĪħáī±": 3098,
      "áĮĪáĭ¨": 3099,
      "ĠáĪĲáĭ°": 3100,
      "ĠáĬĲáĭĺ": 3101,
      "ĠáĬĲáĪĵ": 3102,
      "áĮĢáĬķ": 3103,
      "ĠáĪĿáĭį": 3104,
      "áĪĬáĬĲ": 3105,
      "áī´áī±": 3106,
      "áĪĻáĪµ": 3107,
      "áĭĽáĪŃ": 3108,
      "ĠáĪķáĪ³": 3109,
      "áĪĥáĪŃ": 3110,
      "Ġáī¥áĪ©": 3111,
      "ĠáĭĪáĪĪáĪµ": 3112,
      "áĪ²áī²": 3113,
      "áĭĸáī±": 3114,
      "ĠáįįáĪ©": 3115,
      "ĠáĮłáī¢": 3116,
      "ĠáĭįáĪĭ": 3117,
      "ĠáĬłáī¥áĪ¨": 3118,
      "áĭĶáĬĴ": 3119,
      "áĪĿáĪħ": 3120,
      "áĪŃáĭ©": 3121,
      "áī¥áĭĲáīµ": 3122,
      "áīłáĪĮ": 3123,
      "ĠáĭĪáĭ¶": 3124,
      "áĪĺáĮ½áĬ¥": 3125,
      "áĪ¨áĬŃáī¥": 3126,
      "áĪµáĪĲ": 3127,
      "áĬ¨áĬĲ": 3128,
      "ĠáĬłáī¤": 3129,
      "áīµáĪĬ": 3130,
      "ĠáĪĺáīµáĪĵ": 3131,
      "áĬĵáī³áīµ": 3132,
      "áīħáįį": 3133,
      "ĠáĬ¥áĪ±": 3134,
      "áĮįáĪĻ": 3135,
      "áĪ«áĬ¥": 3136,
      "áĪ«áĮį": 3137,
      "ĠáĬ¨áĭĪ": 3138,
      "áĪĽáĮ¥": 3139,
      "áī¡áĬĴ": 3140,
      "áįĪáĪİ": 3141,
      "áįĪáĪķ": 3142,
      "ĠáĪ°áĬ¥": 3143,
      "áĪ®áĪĺ": 3144,
      "ĠáĪĪáīµáĮł": 3145,
      "ĠáĪĲáĪ°": 3146,
      "áīĥáī±": 3147,
      "ĠáĪĿáĪµáĪį": 3148,
      "áĬªáĬĲ": 3149,
      "ĠáĬŃáī³": 3150,
      "áĭ±áīħ": 3151,
      "ĠáĪĪáĪĺáĬķ": 3152,
      "áĮĥáĪŃ": 3153,
      "ĠáĮĢáĪį": 3154,
      "ĠáīµáīµáīĢ": 3155,
      "áī¥áĪŃáĪĥáĬķ": 3156,
      "ĠáĮ¸áĬķ": 3157,
      "ĠáĮ¸áī¥": 3158,
      "áĬŃáĪĿáĪ°áĪį": 3159,
      "áĮ¢áĪŃ": 3160,
      "áī°áĪĿáĪĿ": 3161,
      "ĠáĭĪáĪĪáĬ¢áīµ": 3162,
      "áĪĿáĭ«": 3163,
      "áĪĿáĪ³": 3164,
      "áĪĿáĭ¬": 3165,
      "ĠáĪĪáĭĶ": 3166,
      "ĠáĭĪáįĬ": 3167,
      "áĪµáĭ¨": 3168,
      "ĠáĬłáī¶": 3169,
      "áĪĪáĮį": 3170,
      "ĠáĭĪáĪ¶": 3171,
      "áĬŃáįį": 3172,
      "áĭįáĭķáĪį": 3173,
      "ĠáīµáįĪáĪŃ": 3174,
      "áīħáĮ¥": 3175,
      "áĬ¥áĪī": 3176,
      "ĠáĪįáĪ»": 3177,
      "áĪ«áĭķ": 3178,
      "áī£áĪµ": 3179,
      "áī£áĬ¥": 3180,
      "áī£áĪª": 3181,
      "áĪĭáĪĻ": 3182,
      "áĪķáĪį": 3183,
      "áĪĢáī°": 3184,
      "áĭ³áĪĪ": 3185,
      "áī¡áĪµ": 3186,
      "ĠáĪ°áĪ«": 3187,
      "áĪ®áī³áīµ": 3188,
      "ĠáĪĪáīµáįĭ": 3189,
      "ĠáĪĲáĪ«": 3190,
      "ĠáĬĲáĭĿ": 3191,
      "ĠáĬķáĪ°": 3192,
      "áĬ£áĭµáĪĿ": 3193,
      "áĭ´áĬ®": 3194,
      "ĠáĪĪáĬ¢áīµáĬ¨": 3195,
      "Ġáĭ°áĮĭ": 3196,
      "áĪ¨áīµáĬ¨": 3197,
      "áĬĸáī³áīµ": 3198,
      "áĪ²áĪŃ": 3199,
      "ĠáĮĢáĪ¨": 3200,
      "áĮŃáĪŃ": 3201,
      "ĠáĮĪáĪĿ": 3202,
      "ĠáĬ¢áĪįáīµáĭĲ": 3203,
      "ĠáĬ¢áĪĪáĭĲ": 3204,
      "áįįáĪħáĪĿ": 3205,
      "áĬĺ": 3206,
      "áĬķáĭ«": 3207,
      "áĬķáĭ¨áīµ": 3208,
      "áĪĿáĪ¨áīµ": 3209,
      "ĠáĪĪáĬ¬": 3210,
      "áīłáĪª": 3211,
      "áīłáĪĪáīµ": 3212,
      "ĠáĭĪáīµáĪ³": 3213,
      "áĬĲáĭµ": 3214,
      "áĪµáĬ«": 3215,
      "áĪµáĬ¨áĪŃ": 3216,
      "ĠáĬłáĮ¸": 3217,
      "ĠáĬłáīĥ": 3218,
      "áīµáĪĳ": 3219,
      "ĠáĬ¢áĭĲ": 3220,
      "áĬĵáĬŃ": 3221,
      "ĠáĪįáĭĿ": 3222,
      "ĠáĪįáīµáĪ«": 3223,
      "áĮįáīµ": 3224,
      "Ġáī°áĭĭ": 3225,
      "áĪĭáĪī": 3226,
      "áĭ³áĪģ": 3227,
      "áĪĽáī¶áĪĿ": 3228,
      "áĪħáĪĺ": 3229,
      "áĮłáī¥": 3230,
      "áĮħáĪĪ": 3231,
      "áĭĺáĪį": 3232,
      "áĮ½áīł": 3233,
      "ĠáĪĲáĭ°áĮį": 3234,
      "áĮ¸áĭį": 3235,
      "áĪ¸áĪĪ": 3236,
      "áĪīáĬĲ": 3237,
      "ĠáĭĲáĪĺ": 3238,
      "áĪĬáĬŃ": 3239,
      "áĪ¬áĬ®": 3240,
      "ĠáĭĪáĬłáĪ½": 3241,
      "ĠáĪįáīµáĭĭ": 3242,
      "áī¤áī±": 3243,
      "áĪ²áĪį": 3244,
      "áīłáĪŃáĬ®": 3245,
      "ĠáĪ³áĭŃ": 3246,
      "ĠáįĪáĭ°": 3247,
      "ĠáĭĺáĪŃ": 3248,
      "ĠáĬłáī¥áĮ¸áĪĲ": 3249,
      "Ġáī³áĭŃ": 3250,
      "áĪĶáĬĲ": 3251,
      "ĠáĬŃáĪĿáĪ°": 3252,
      "áĬķáī¶": 3253,
      "áĬķáĬª": 3254,
      "ĠáĪĪáĬ¤": 3255,
      "áĪ¨áĬ®": 3256,
      "áĪ¨áĭī": 3257,
      "ĠáĬłáĭ¨": 3258,
      "ĠáĭĪáĪĦ": 3259,
      "áĭµáĭ®áĪĿ": 3260,
      "áĭ°áīµáĪĺ": 3261,
      "áĬŃáĪ°": 3262,
      "ĠáĪĺáĭĽ": 3263,
      "áįįáĭĵ": 3264,
      "áįįáĭĲáīµ": 3265,
      "áĭįáĭ¨": 3266,
      "áīĢáīĢ": 3267,
      "áīĢáĭ°áĪĿ": 3268,
      "áĪ°áĪĺ": 3269,
      "ĠáīµáĪįáĪħ": 3270,
      "ĠáĪįáĬ¨": 3271,
      "ĠáĬ¥áīµáĪĺ": 3272,
      "ĠáĬ¥áīµáĪĪ": 3273,
      "áĪ«áĬŃ": 3274,
      "áī³áĭ¨": 3275,
      "áĪĭáī¶áĪĿ": 3276,
      "áĭĭáīħ": 3277,
      "áĮħáĪĻ": 3278,
      "ĠáĪĪáīµáī£": 3279,
      "áĭ®áī³áīµ": 3280,
      "ĠáĬĲáĪ½": 3281,
      "áĮ¸áĬķ": 3282,
      "áīĥáī¥": 3283,
      "áĪ¸áĬĲ": 3284,
      "áĬ£áĪĺáĪŃ": 3285,
      "áĪĬáĪĺ": 3286,
      "áĪİáī³áīµ": 3287,
      "ĠáĭĪáĪĺáĭĲ": 3288,
      "ĠáĬ¢áīµáīł": 3289,
      "Ġáī°áĬłáī¥": 3290,
      "áĪĥáī°": 3291,
      "ĠáĪ¨áĪĲ": 3292,
      "ĠáĭĪáĪįáīµáĪ°": 3293,
      "ĠáĪĪáĪĺáĮ½áĬł": 3294,
      "ĠáĭĪáĬ¢áĪĪáĬł": 3295,
      "áĬĶáī±": 3296,
      "ĠáĭķáĪį": 3297,
      "áĮ»áī¥": 3298,
      "ĠáĬłáįįáĪ¨": 3299,
      "áĭµáĪ¨áĪ°áīµ": 3300,
      "ĠáĬ¨áĪįáĬł": 3301,
      "ĠáĪĪáĮ¸áĬķáĪĲ": 3302,
      "áĮĪáĪĺáīµ": 3303,
      "áĪŃáī²": 3304,
      "áĪŃáĭªáĬķ": 3305,
      "ĠáĪĪáĮİ": 3306,
      "áĪįáĭ®": 3307,
      "áī¥áĪĪáīµ": 3308,
      "áĪ¨áĪ¨áīµ": 3309,
      "áĪµáĪ°": 3310,
      "ĠáĪĺáĮį": 3311,
      "áĭįáīµ": 3312,
      "áĭįáĪ®": 3313,
      "ĠáīµáīłáĪŃ": 3314,
      "ĠáīµáīµáĪ¸": 3315,
      "ĠáĪįáĮł": 3316,
      "ĠáĪįáīµáĪĥ": 3317,
      "áĮįáĭĿ": 3318,
      "áĮįáĪ®": 3319,
      "áĪĢáī¥": 3320,
      "áĬ«áĪŃáĪĿ": 3321,
      "ĠáĪĪáĬłáĭµ": 3322,
      "áĭĺáĬĲ": 3323,
      "ĠáĪ°áĮĢ": 3324,
      "ĠáĬĲáĭµ": 3325,
      "ĠáĪĿáīħ": 3326,
      "áĪĮáī¥": 3327,
      "áĪīáĭŃ": 3328,
      "ĠáĭĲáĭ°": 3329,
      "ĠáĭĲáĭĭ": 3330,
      "áĪĻáĪĺ": 3331,
      "Ġáĭ°áĬĲ": 3332,
      "Ġáī°áĬłáĪĺ": 3333,
      "ĠáīĢáĭĭ": 3334,
      "ĠáĪķáĪ½": 3335,
      "Ġáįĩ": 3336,
      "ĠáĪ¸áĭĲ": 3337,
      "ĠáĪ¨áĪĿ": 3338,
      "ĠáĪ¨áī¥": 3339,
      "áĬ¤áĬĴ": 3340,
      "ĠáĮĢáĪĽ": 3341,
      "ĠáĪĪáĬ¥áĪĿ": 3342,
      "áįĮáĬĲ": 3343,
      "áįĮáĬ¨": 3344,
      "ĠáĮĪáĪ«": 3345,
      "ĠáĮĪáĪ®": 3346,
      "ĠáĮĪáĪĮ": 3347,
      "ĠáĪĪáĭĲáĪį": 3348,
      "áĭĴáĬķ": 3349,
      "áįĪáĬķáīµ": 3350,
      "áĬłáĪĿáĬķ": 3351,
      "ĠáĮ½áĬķ": 3352,
      "Ġáī¤áīµ": 3353,
      "áī°áĪįáĪĦ": 3354,
      "áīħáĪ«áĮ¥": 3355,
      "áĪĿáĬ¥": 3356,
      "áĪŃáĪ³": 3357,
      "áĪŃáĭ²": 3358,
      "áī¥áĬķ": 3359,
      "áīłáīµáĪĺ": 3360,
      "áĪ¨áĬĴ": 3361,
      "áĬ¨áĭŃ": 3362,
      "ĠáĬłáīµáĪĽ": 3363,
      "áĭ°áĬķáĮį": 3364,
      "ĠáĪĺáĭĿ": 3365,
      "áĪ°áī¶áĪĿ": 3366,
      "áĬĵáī¥": 3367,
      "áīħáī±": 3368,
      "ĠáĬ¥áīµáĪĲ": 3369,
      "áĪĲáĪĺáĭµ": 3370,
      "Ġáī°áĭĪ": 3371,
      "áī£áĭķ": 3372,
      "áī£áĪķ": 3373,
      "áī£áĪĢ": 3374,
      "ĠáĬ¨áĬĵ": 3375,
      "áĪķáīłáĪŃ": 3376,
      "ĠáĪĪáĬłáĪį": 3377,
      "áĭ³áĮĭ": 3378,
      "áĮĪáĭ©": 3379,
      "áĪ½áīµ": 3380,
      "áĭĺáĭŃ": 3381,
      "ĠáĪĲáĬĲ": 3382,
      "ĠáĪĲáĪĪ": 3383,
      "áĮĢáĮį": 3384,
      "ĠáĬķáĭµ": 3385,
      "ĠáĪĿáĪ«": 3386,
      "áĬ£áī°": 3387,
      "ĠáīłáĬŃ": 3388,
      "áĪĬáĮį": 3389,
      "áī´áĪŃ": 3390,
      "ĠáĪµáĮĭ": 3391,
      "ĠáīĢáĪ«": 3392,
      "ĠáĪ¸áĪĿ": 3393,
      "ĠáĪĪáī°áĪĢ": 3394,
      "áĭĸáī³áīµ": 3395,
      "ĠáĭĺáĭŃ": 3396,
      "áĬĲáīµáĪĪ": 3397,
      "ĠáĪĪáĪĪáĬłáī°": 3398,
      "ĠáĪĻáĪµáī°": 3399,
      "ĠáĮĪáĪĭ": 3400,
      "ĠáĪĪáĬłáīµáĬĵ": 3401,
      "ĠáĬłáĪŃáĬ¤": 3402,
      "áĪĪáĪĪáĭį": 3403,
      "áĬ¥áĬķáĭ´": 3404,
      "áĬĢ": 3405,
      "áĬĭ": 3406,
      "ĠáĪ£": 3407,
      "áįĦ": 3408,
      "áĪŃáĭ¶": 3409,
      "áĪŃáĪĳ": 3410,
      "áĪŃáĪĲáīµ": 3411,
      "ĠáĪĪáĮ£": 3412,
      "áī¥áĪµ": 3413,
      "áīłáī³": 3414,
      "ĠáĭĪáĭ±": 3415,
      "áĭŃáĪ¶": 3416,
      "ĠáĬłáĬł": 3417,
      "áĭ°áĬ¥": 3418,
      "ĠáĪĺáīµáĪ»": 3419,
      "áįįáĪª": 3420,
      "áĭįáĪĺ": 3421,
      "ĠáīµáĬ¥": 3422,
      "áīħáįĪ": 3423,
      "ĠáĪįáĮĢ": 3424,
      "ĠáĬ¥áĬł": 3425,
      "ĠáĬ¥áĬ©": 3426,
      "áĪĲáĭľ": 3427,
      "Ġáī°áĪĽ": 3428,
      "áĪ«áĭ©": 3429,
      "áī£áī£": 3430,
      "áī£áĭ©": 3431,
      "áĪĭáįį": 3432,
      "áĪĭáĬĴ": 3433,
      "áĮĪáįį": 3434,
      "áĮłáĪ¨áīµ": 3435,
      "áĮħáĬĲ": 3436,
      "áĮ¥áĪ¨áīµ": 3437,
      "áĭĺáĭ©": 3438,
      "áĭĺáī¤": 3439,
      "áĮĪáĪ³": 3440,
      "áĪĪáĪĮ": 3441,
      "áĪ©áī±": 3442,
      "ĠáĪĲáĪµ": 3443,
      "ĠáĪĲáīĨ": 3444,
      "ĠáĬķáĪ½": 3445,
      "ĠáĬķáĭĿ": 3446,
      "ĠáĬķáīµáĪĲ": 3447,
      "áĪĮáī°": 3448,
      "áĪĮáĪĺ": 3449,
      "áĭ¬áī°": 3450,
      "áī¦áī°": 3451,
      "áĪĻáīµ": 3452,
      "ĠáĪĪáĬ¢áīµáĪ°": 3453,
      "áĭ²áī±": 3454,
      "ĠáĭĪáĪĺáĭĵ": 3455,
      "ĠáĬ¢áīµáīµáĪĲ": 3456,
      "ĠáĬ¥áĬķáĬ¨": 3457,
      "ĠáĪĢáĪ¨": 3458,
      "ĠáĪĽáĪį": 3459,
      "Ġáī®": 3460,
      "ĠáĮĪáĬķáĪĲ": 3461,
      "ĠáĮĢáĪĿ": 3462,
      "ĠáįĪáī´": 3463,
      "ĠáĭĪáī°áĬłáīµ": 3464,
      "áĬ¬áĬĲ": 3465,
      "ĠáĬłáĪµáĪĺ": 3466,
      "áĮŃáĪ¨": 3467,
      "áĪĸáī±": 3468,
      "ĠáĬłáĪĿáĮ¸": 3469,
      "áĭĴáĭµ": 3470,
      "ĠáĬ®áĪĿ": 3471,
      "áī¨áĬķ": 3472,
      "ĠáĬ¤áĪ¨áīµáĪŃáĭ¨": 3473,
      "áĬķáĭ¶": 3474,
      "áī°áĭŃ": 3475,
      "áī¥áĭ«": 3476,
      "áīłáĪ¬": 3477,
      "áīłáĮ½áĪķ": 3478,
      "áĬŃáī°áĪŃ": 3479,
      "ĠáĪĺáīł": 3480,
      "ĠáĪĺáĬ£": 3481,
      "ĠáĬ¥áī¥áĪĪ": 3482,
      "Ġáī°áĬĲ": 3483,
      "áĭ«áĪĢáĬķ": 3484,
      "áĪĭáĭ¨": 3485,
      "ĠáĬ¨áĬłáĪµ": 3486,
      "áĭĿáĭķ": 3487,
      "áĮħáī¥": 3488,
      "áĭĺáī±": 3489,
      "áĪĪáĪļ": 3490,
      "áĪ®áī¶áĪĿ": 3491,
      "áĮ½áĪĵ": 3492,
      "ĠáĪĪáīµáĭĺ": 3493,
      "ĠáĪĪáīµáīµáĪĲ": 3494,
      "áĮ¸áįį": 3495,
      "ĠáĬķáĬł": 3496,
      "ĠáĬķáī¥": 3497,
      "ĠáĪĿáĬĲ": 3498,
      "áĭĪáĪķ": 3499,
      "áĪİáĬĴ": 3500,
      "ĠáĪįáīµáĮĢ": 3501,
      "áī¤áĪį": 3502,
      "áī²áī±": 3503,
      "ĠáīĢáĭŃ": 3504,
      "ĠáĪ¸áĭį": 3505,
      "ĠáĭĪáĬ¢áĪĺ": 3506,
      "ĠáĭĪáĬ¢áĪ°": 3507,
      "áĪ»áĪŃ": 3508,
      "ĠáĪħáĪĮ": 3509,
      "Ġáīħáĭ«": 3510,
      "Ġáīµáīµáįĭ": 3511,
      "Ġáīµáīµáĭĵ": 3512,
      "ĠáĪĪáįĪáĪ¨": 3513,
      "áĬłáĪī": 3514,
      "áī¥áĭ±": 3515,
      "áĪ¨áĪ³": 3516,
      "áĪµáĪī": 3517,
      "áĪµáĬª": 3518,
      "ĠáĬłáī´": 3519,
      "áĭ°áĭ°áīµ": 3520,
      "ĠáĪĪáĪ¬": 3521,
      "ĠáĪĺáĭŃ": 3522,
      "ĠáĪĺáĪª": 3523,
      "ĠáĬ¢áĪħ": 3524,
      "ĠáĬ¢áįĭ": 3525,
      "áįįáĪķ": 3526,
      "áĭĲáĪĺ": 3527,
      "ĠáīµáīµáĪĵ": 3528,
      "áĭķáĭ¨": 3529,
      "áĮįáĪ¬": 3530,
      "áĪĲáĭ¨": 3531,
      "áįĪáĭĲáīµ": 3532,
      "áĪĭáĪķ": 3533,
      "áĪķáĪŃ": 3534,
      "áĪĢáĭµ": 3535,
      "áĬ«áĬŃ": 3536,
      "áĭĪáĮł": 3537,
      "áĪĽáĬĴ": 3538,
      "áĪªáĪĺ": 3539,
      "áī¡áī°": 3540,
      "áī¡áĬ¨": 3541,
      "áįĪáĪ®": 3542,
      "áĮĪáĪľ": 3543,
      "áĪ®áī°": 3544,
      "áĮ½áĬ¦": 3545,
      "ĠáĪĲáĭĭ": 3546,
      "áĭĵáĪģ": 3547,
      "ĠáĪĿáĭ´": 3548,
      "áĬ£áĪĺáĪ¨": 3549,
      "áĭĪáĪİ": 3550,
      "ĠáīłáĪĭ": 3551,
      "ĠáĭĲáĭŃ": 3552,
      "ĠáĪįáīµáĬĵ": 3553,
      "ĠáĪįáīµáĭĪ": 3554,
      "ĠáĬ£áĭį": 3555,
      "ĠáĬ£áĪĺáĪŃ": 3556,
      "ĠáīµáĪħ": 3557,
      "ĠáĪ¸áĪª": 3558,
      "ĠáĬ¥áĬķáīĢ": 3559,
      "ĠáĪĢáĪĪ": 3560,
      "ĠáĪĢáĭ°": 3561,
      "ĠáĭĪáĪĪáĪ³": 3562,
      "Ġáī½": 3563,
      "áĪ¶áĪ´": 3564,
      "áĮ¨áĪŃ": 3565,
      "ĠáĪĪáĪĲáĪĿ": 3566,
      "ĠáĪĪáĪĲáĪŃ": 3567,
      "ĠáīħáĪ«": 3568,
      "ĠáĪĺáīµáįĭ": 3569,
      "áĮĮáīµ": 3570,
      "áĮŃáī¥": 3571,
      "Ġáĭ¨áĭĲ": 3572,
      "ĠáĪĪáĪĢáĭŃ": 3573,
      "áĬķáĭ°áīħ": 3574,
      "áĪĤáīµ": 3575,
      "áĪºáĬķ": 3576,
      "Ġáī°áĪĢáĭ¨": 3577,
      "áĪµáī³áĬķ": 3578,
      "áĪĢáĭŃáīł": 3579,
      "áĭĲáĮħáī¥": 3580,
      "áī¥áĭ´": 3581,
      "áī¥áĪ«áĭŃ": 3582,
      "áĬĲáĭķ": 3583,
      "ĠáĬłáīłáĪį": 3584,
      "áĭ°áĪ©": 3585,
      "ĠáĮª": 3586,
      "ĠáĬ¢áīłáĪį": 3587,
      "áĭįáĪ©": 3588,
      "áĬĵáī¡": 3589,
      "áīħáīłáĪĪ": 3590,
      "áĪ«áĪ¨": 3591,
      "ĠáĬ¨áīĢ": 3592,
      "áĬ«áĬĲ": 3593,
      "áĭ³áī°": 3594,
      "áĭ©áī°": 3595,
      "áĪĪáĪ¸": 3596,
      "áĪĪáĪĵ": 3597,
      "áĪ©áĪĿ": 3598,
      "ĠáĪĲáĪĽ": 3599,
      "ĠáĪĿáĪ°": 3600,
      "ĠáĪĪáĪįáīµáĪĵ": 3601,
      "ĠáĭĪáĪĪáī°áĬł": 3602,
      "ĠáīłáĪĢ": 3603,
      "áĪİáĬķ": 3604,
      "ĠáĪįáīµáĮ¸": 3605,
      "áĭ²áĭµ": 3606,
      "ĠáĭĪáĪĺáĪĵ": 3607,
      "Ġáī°áĬłáīµáĪĲ": 3608,
      "ĠáĭŃáĬ¢": 3609,
      "ĠáĭŃáĬłáĪĿ": 3610,
      "ĠáīĢáĪµ": 3611,
      "áĪĥáĭµ": 3612,
      "Ġáī¥áĬ¥": 3613,
      "ĠáĪ¸áĬŃ": 3614,
      "ĠáĬ¢áĪįáīµáĪĺ": 3615,
      "ĠáĬ¥áĬķáī°": 3616,
      "ĠáĬ¥áĬķáĪ³": 3617,
      "ĠáĪ¨áĬłáĪµ": 3618,
      "ĠáĪĪáĪĺáĪ³": 3619,
      "áĪ±áĪŃ": 3620,
      "ĠáĭĪáĪĪáĪ¸": 3621,
      "áĪ»áī¥": 3622,
      "ĠáĮĪáĬķ": 3623,
      "áīłáĪŃáĮį": 3624,
      "ĠáĬłáīµáĭ³": 3625,
      "áĪľáĬĴ": 3626,
      "áĮĮáĭķ": 3627,
      "áĭĶáīµ": 3628,
      "áīłáī°áīµ": 3629,
      "áīłáĪ¨áĭ¨": 3630,
      "áĬłáĪ°áĭŃáĭ°": 3631,
      "ĠáĪĪáĬ£áīµ": 3632,
      "áĪµáĪĭáĪ´": 3633,
      "áīµáī°": 3634,
      "áĮĲ": 3635,
      "áĪŃáĪŀ": 3636,
      "áĪŃáĮī": 3637,
      "áĬłáĪŃ": 3638,
      "áĬłáĬ®": 3639,
      "áĪįáĪĪ": 3640,
      "áĪįáĭ©": 3641,
      "áĪµáĭ«": 3642,
      "ĠáĬłáĭĪ": 3643,
      "áĭ°áĬĴ": 3644,
      "áĬŃáĪ¬": 3645,
      "áīµáĪ¬": 3646,
      "áīĢáĭµáĪ¨": 3647,
      "ĠáĪįáĪĺ": 3648,
      "ĠáĪįáī°áĪĭáĪĮ": 3649,
      "áĪĲáĪĿ": 3650,
      "áįĪáĭŃ": 3651,
      "áĪĭáĬĲ": 3652,
      "áĪĭáĪĢ": 3653,
      "ĠáĬ¨áĭµ": 3654,
      "ĠáĬ¨áĭĭ": 3655,
      "áĪķáĬ¨": 3656,
      "áĪĢáĬĲ": 3657,
      "áĬ«áĪµ": 3658,
      "ĠáĪĪáĬłáĪ³": 3659,
      "ĠáĪĪáĬłáĪ¸": 3660,
      "ĠáĪĪáĬłáī°áĪŃ": 3661,
      "áĭĿáĭĿ": 3662,
      "áĬ©áĪŃ": 3663,
      "áĬ©áĭŃ": 3664,
      "áĪªáĪ½": 3665,
      "áī¡áĬĲ": 3666,
      "áĮ½áĪŃ": 3667,
      "ĠáĪĲáĭĿ": 3668,
      "ĠáĪĲáĭĺ": 3669,
      "ĠáĬķáīµáĪ°": 3670,
      "Ġáīłáĭ°": 3671,
      "ĠáĬŃáĪ«": 3672,
      "ĠáĭŃáĪħ": 3673,
      "áī¢áī±": 3674,
      "ĠáĪ¨áĮį": 3675,
      "áĬ¤áĬĲ": 3676,
      "ĠáĪĪáĪĪáĬ£": 3677,
      "ĠáĪĢáĬķ": 3678,
      "áĪļáĬĴ": 3679,
      "ĠáįįáĪ«": 3680,
      "ĠáĪĵáĪį": 3681,
      "ĠáĬłáĬķáī°": 3682,
      "áįĮáĬĴ": 3683,
      "ĠáĮĪáĪĽ": 3684,
      "áĭĶáĬĲ": 3685,
      "ĠáĬ¥áĪĿáīłáĪį": 3686,
      "áīµáĪ¨": 3687,
      "áĬķáĪĢ": 3688,
      "áĪŃáĪħ": 3689,
      "áĪŃáĭ«áīµ": 3690,
      "ĠáĪĪáīµáĪ»": 3691,
      "ĠáĭĪáĮįáĪŃ": 3692,
      "ĠáĬłáĭĽ": 3693,
      "ĠáĬłáĪĺáĪŃ": 3694,
      "ĠáĮ¡": 3695,
      "ĠáĪĺáĮĪ": 3696,
      "áĭ¨áĭ°": 3697,
      "áįįáĪĺ": 3698,
      "áĭįáĬĴ": 3699,
      "áĭĲáĬ®": 3700,
      "áīĢáī£": 3701,
      "áīĢáĭ°áĪŃ": 3702,
      "áīħáĭ¨áīµ": 3703,
      "áīħáī¥áĪĪ": 3704,
      "áįĪáĭĸ": 3705,
      "áĪ«áī¶áĪĿ": 3706,
      "áī³áī°áĬķ": 3707,
      "ĠáĬ¨áĪŃáĬ¨": 3708,
      "ĠáĪĪáĬłáĮ¥": 3709,
      "ĠáĪĪáĬłáĮ¸": 3710,
      "ĠáĪĪáĬłáīµáĪ³": 3711,
      "áī¶áĪĺ": 3712,
      "áĬ®áī°": 3713,
      "áĪªáī³áīµ": 3714,
      "áĮĪáĪĻ": 3715,
      "áĪ©áĬĴ": 3716,
      "ĠáĪĪáīµáĬ«": 3717,
      "ĠáĪĲáĪ¸": 3718,
      "ĠáĬķáĪħ": 3719,
      "ĠáĪĿáĮ½": 3720,
      "ĠáĭĪáĪĪáīł": 3721,
      "áĭ²áĪµ": 3722,
      "Ġáĭ°áĬķáĮİ": 3723,
      "ĠáĬ¢áīµáīµáĬ¨": 3724,
      "ĠáīĢáĭ°áĪĿ": 3725,
      "Ġáī¥áĪķ": 3726,
      "ĠáĪ¸áīĦ": 3727,
      "ĠáĬ¥áĬķáĭ´": 3728,
      "áĬ¤áīµ": 3729,
      "ĠáĪĢáĪĺ": 3730,
      "ĠáĪĪáĪĺáĪį": 3731,
      "ĠáĭĪáĪĪáĪħ": 3732,
      "Ġáī¸": 3733,
      "áįİáĪŃáĭµ": 3734,
      "ĠáĪħáĭŃ": 3735,
      "áįĬáĪŃ": 3736,
      "ĠáĮ¸áī¥áĮł": 3737,
      "áĭ°áĪŃáĪ²": 3738,
      "ĠáĬ¢áī°áĪĢ": 3739,
      "áīµáĪ«áīµ": 3740,
      "ĠáįĭáĭŃ": 3741,
      "ĠáĭĪáĪĿáĬķ": 3742,
      "áĪ¹áĪĿ": 3743,
      "áĭĪáĪįáĭµ": 3744,
      "áĭĭáĪįáĭµ": 3745,
      "áĮħáī°áĪĺ": 3746,
      "áĬº": 3747,
      "ĠáĬ»": 3748,
      "áĪĿáĪ«": 3749,
      "áĪĿáī¡": 3750,
      "áĪĿáĭĲáīµ": 3751,
      "áĬłáĬŃ": 3752,
      "áīłáĭĪ": 3753,
      "ĠáĭĪáĬĴ": 3754,
      "ĠáĭĪáĮĪáĪŃ": 3755,
      "áĬĲáĪŃ": 3756,
      "áĪĪáĭ®áĪĿ": 3757,
      "ĠáĭĪáĪ©": 3758,
      "ĠáĭĪáĪ¹": 3759,
      "ĠáĭĪáĪĳ": 3760,
      "áĭ°áĪĪáīµ": 3761,
      "ĠáĬ¢áīµáĪĢ": 3762,
      "áĭ¨áĪ°": 3763,
      "áįįáĪ¬": 3764,
      "ĠáīµáĮĪáĪį": 3765,
      "áīħáĪ¨áĪĲ": 3766,
      "ĠáĪįáĮ¸": 3767,
      "ĠáĬ¥áĪķ": 3768,
      "ĠáĬ¥áīµáĬ¨": 3769,
      "áĪ«áīµáĪĺ": 3770,
      "áĭ«áīµáĬĲ": 3771,
      "áī³áī³": 3772,
      "ĠáĬ¨áĪĪáĪĺ": 3773,
      "áĬ«áĭŃáīµ": 3774,
      "áĭ³áĮĪ": 3775,
      "áĮĪáĭµ": 3776,
      "áĪ½áĭķ": 3777,
      "áĭĿáīħ": 3778,
      "áī¡áĪī": 3779,
      "áĮħáīµáĪĽ": 3780,
      "áĭĺáīł": 3781,
      "áĭĺáĬ¨áĪŃ": 3782,
      "ĠáĪ°áĮħ": 3783,
      "ĠáĪ°áĬ£": 3784,
      "áĮ½áĭķ": 3785,
      "áĮ½áĭ®áĬķ": 3786,
      "áĪ©áĬĲ": 3787,
      "ĠáĪĲáĭį": 3788,
      "áĮĢáĪħ": 3789,
      "áĮ¸áĬķáĪĲ": 3790,
      "áĪ¸áī±": 3791,
      "ĠáĪĪáĪįáĪĵ": 3792,
      "áĭĪáĪĿ": 3793,
      "ĠáĭĪáĪĺáĪŃ": 3794,
      "áīµáĬĲáįĪáĭķ": 3795,
      "áĭ¶áī±": 3796,
      "áĬĸáī±": 3797,
      "áĮĥáĭŃ": 3798,
      "ĠáĪ³áĭ°": 3799,
      "ĠáĭµáĪ©": 3800,
      "áĮŃáīł": 3801,
      "áīģáĪŃ": 3802,
      "ĠáĭįáĪį": 3803,
      "ĠáĬłáĬķáĮĪ": 3804,
      "áĪ´áĬķ": 3805,
      "ĠáĬĲáĬłáī°": 3806,
      "áĭļáĬķ": 3807,
      "ĠáĬĵáĪµ": 3808,
      "ĠáĬ¤áĪŃ": 3809,
      "áīłáī°áĬĴ": 3810,
      "ĠáīĥáĪį": 3811,
      "áĪŃáĪĲáĭį": 3812,
      "ĠáĪĪáĪĪáĪĵ": 3813,
      "áĮ¢áīµ": 3814,
      "áĪįáĭ¨áī±": 3815,
      "áĬĹ": 3816,
      "áīµáĪį": 3817,
      "áĮµ": 3818,
      "áĬķáĬ®": 3819,
      "áĬķáĭ®": 3820,
      "áĪĿáĬ®": 3821,
      "ĠáĪĪáĭĪáĪŃ": 3822,
      "áĬłáĬĴ": 3823,
      "áĬłáĪİ": 3824,
      "áī¥áĪ°": 3825,
      "áīłáĬŃ": 3826,
      "áīłáīłáīµ": 3827,
      "ĠáĭĪáĭĽ": 3828,
      "ĠáĭĪáĬĸ": 3829,
      "ĠáĬłáįĪ": 3830,
      "ĠáĬłáĮ«": 3831,
      "áĪĪáĭµ": 3832,
      "áĪĪáĭķ": 3833,
      "áĪĪáī¡": 3834,
      "ĠáĭĪáĪ®": 3835,
      "ĠáĪĪáĪ´": 3836,
      "ĠáĪĪáĪľ": 3837,
      "áĬŃáĪ²": 3838,
      "áī±áīµ": 3839,
      "ĠáĪĺáī°áĬķ": 3840,
      "ĠáĪĺáĬķáĭ°": 3841,
      "ĠáĪĺáīµáĪĥ": 3842,
      "ĠáĪĺáĪ°áĪį": 3843,
      "ĠáĬ¢áĪµ": 3844,
      "áįįáĪ®": 3845,
      "áīĢáĭķ": 3846,
      "ĠáīµáįĪáĬķ": 3847,
      "ĠáĪįáīĢ": 3848,
      "ĠáĪįáĮĥ": 3849,
      "áī£áĪĻ": 3850,
      "áī£áĭª": 3851,
      "ĠáĪĪáĬłáĭĿ": 3852,
      "áĪĽáĬĲáīµ": 3853,
      "áĪ½áī¥": 3854,
      "áĭĿáĪį": 3855,
      "áĮłáĭįáĪŃ": 3856,
      "áĪ³áī°": 3857,
      "áī¡áĬ¥": 3858,
      "áĪ©áĭµ": 3859,
      "ĠáĪĪáīµáĭ³": 3860,
      "ĠáĪĪáīµáīµáĬ¨": 3861,
      "ĠáĪĪáīµáīµáĪ°": 3862,
      "ĠáĪĲáĭ¨": 3863,
      "ĠáĪĲáĪĬ": 3864,
      "ĠáĬķáĬķ": 3865,
      "ĠáĪĪáĪįáīµáĪĢ": 3866,
      "ĠáĭĪáĪĪáīĢ": 3867,
      "áĮĭáĪ¨": 3868,
      "Ġáīłáĭ³": 3869,
      "áĪİáĪµ": 3870,
      "ĠáĪįáīµáĮ»": 3871,
      "ĠáĬŃáįĭ": 3872,
      "ĠáĬ¢áīµáĭ°": 3873,
      "Ġáī¥áĪ®": 3874,
      "ĠáĪ¸áīĥ": 3875,
      "ĠáĭĪáĪįáĬł": 3876,
      "ĠáĭĪáĪįáīµáĬ¨": 3877,
      "ĠáĭĪáĬ¢áĪĲ": 3878,
      "áĮĥáī¥": 3879,
      "áĪļáĪµ": 3880,
      "ĠáĮĪáīł": 3881,
      "ĠáĬłáīµáĮ»": 3882,
      "ĠáĪħáĮħ": 3883,
      "ĠáĬ«áįį": 3884,
      "áī¼áī°": 3885,
      "ĠáĬłáĪµáĪĺáĪ¨": 3886,
      "áĪ´áĬĴ": 3887,
      "ĠáĬ¥áīµáįĭ": 3888,
      "ĠáįĪáĪĪáĪ": 3889,
      "ĠáĪĪáĪ¨áĬ¨áī¥": 3890,
      "áĭĪáĪĪáĭµ": 3891,
      "áĮĪáĪĪáīµ": 3892,
      "ĠáĭĪáĭŃáĬ¥": 3893,
      "Ġáĭ¬": 3894,
      "áĪŃáĪ±": 3895,
      "áī¥áĬŃ": 3896,
      "ĠáĭĪáĭĳ": 3897,
      "ĠáĭĪáī¥áĪŃ": 3898,
      "ĠáĭĪáĭĪáĪį": 3899,
      "áĪĺáĪ¨áīµ": 3900,
      "ĠáĬłáī¦": 3901,
      "ĠáĬłáĭļ": 3902,
      "áĭ°áĪµ": 3903,
      "áĭ°áĪ®": 3904,
      "ĠáĪĪáĪ±": 3905,
      "áĬŃáī¦": 3906,
      "ĠáĪĺáĮĢ": 3907,
      "ĠáĪĺáīµáĪ³": 3908,
      "áĬĵáĭ¨": 3909,
      "áĬĵáĬ¥": 3910,
      "ĠáĬ¥áĪĬ": 3911,
      "áĭķáĪī": 3912,
      "áįĪáĬĴ": 3913,
      "áįĪáĭĵ": 3914,
      "Ġáī°áĪħ": 3915,
      "áī³áĪķ": 3916,
      "ĠáĬ¨áįĪ": 3917,
      "ĠáĬ¨áīµáĪ°": 3918,
      "áĪĽáĪ¨": 3919,
      "áĪħáĪħ": 3920,
      "áĭ©áĪµ": 3921,
      "áĮĪáī±": 3922,
      "áī¡áĬķ": 3923,
      "áįĭáĪĢ": 3924,
      "áĭĺáĪĺáīµ": 3925,
      "áĮĪáĪ¶": 3926,
      "áĪ©áĪķ": 3927,
      "áĭ®áī¶áĪĿ": 3928,
      "ĠáĬĲáĮį": 3929,
      "áĭĵáĪ¬": 3930,
      "ĠáĬķáīĥ": 3931,
      "ĠáĪĿáĭµáĪŃ": 3932,
      "áĬ£áī´": 3933,
      "ĠáĭĪáĪĪáĭµ": 3934,
      "Ġáīłáĭµ": 3935,
      "ĠáĭĲáĪ¬": 3936,
      "ĠáīµáĪ¬": 3937,
      "ĠáĪµáĬ«": 3938,
      "ĠáĪ¸áįį": 3939,
      "ĠáĪ¨áįįáĭĲ": 3940,
      "ĠáĭĪáĪįáīµáĪĺ": 3941,
      "ĠáĪĪáĪĺáĮ¸": 3942,
      "ĠáĮĢáĪĭ": 3943,
      "ĠáĪĺáīµáĮĥ": 3944,
      "áĬ¡áĪį": 3945,
      "áĮĮáĬĲ": 3946,
      "ĠáĪŃáĬ¢": 3947,
      "áĮīáĪį": 3948,
      "Ġáĭ¨áĪĢ": 3949,
      "áī°áĪŃáįį": 3950,
      "áī°áĪŃáĮĢ": 3951,
      "áĪ´áĪķ": 3952,
      "ĠáĮĭáĬķ": 3953,
      "áĬķáĮįáĪį": 3954,
      "áĮ¡áĪŃ": 3955,
      "ĠáĪĪáĪħáĪĮ": 3956,
      "áī£áĪįáĪĲ": 3957,
      "ĠáĭĪáĭŃáĬł": 3958,
      "áĪĿáĭ¨": 3959,
      "áĪŃáīĢ": 3960,
      "ĠáĪĪáĭĽ": 3961,
      "áĪįáĪĺáīµ": 3962,
      "áī¥áī´": 3963,
      "ĠáĭĪáįĪáĪ¨": 3964,
      "ĠáĭĪáĭĭáĪį": 3965,
      "áĪ¨áĮ¨": 3966,
      "áĪµáĭķ": 3967,
      "áĪµáĪ±": 3968,
      "ĠáĬłáĪļ": 3969,
      "áĪĪáĮł": 3970,
      "áĭµáĪŀ": 3971,
      "áĭµáįī": 3972,
      "áĭ°áīµáĪĪ": 3973,
      "áī±áī±": 3974,
      "ĠáĪĺáįĪ": 3975,
      "ĠáĪĺáĬłáĪ°": 3976,
      "ĠáĬ¢áĬ¨áĪŃ": 3977,
      "ĠáĬ¢áĪ¨áĬŃ": 3978,
      "áīħáĪ°": 3979,
      "áįĪáīĢ": 3980,
      "Ġáī°áĪĮ": 3981,
      "áĭ«áĭ¨": 3982,
      "ĠáĬ¨áĭķ": 3983,
      "ĠáĬ¨áĪįáīµ": 3984,
      "áĭĿáįį": 3985,
      "áĪ³áĬ¥": 3986,
      "áĮħáĪħ": 3987,
      "áįĭáįį": 3988,
      "ĠáĪ°áĪķ": 3989,
      "áĮĪáĪ©": 3990,
      "ĠáĪĲáĪ¬": 3991,
      "áĮĢáĭķ": 3992,
      "ĠáĬķáīµáĪĺ": 3993,
      "áĪ¸áĪĺ": 3994,
      "ĠáĪĿáĭµ": 3995,
      "ĠáĭĪáĪĪáĭį": 3996,
      "Ġáīłáĭ²": 3997,
      "áĭ´áī°": 3998,
      "áī´áĪį": 3999,
      "ĠáĬŃáĪµ": 4000,
      "ĠáĬŃáĪª": 4001,
      "áĪĻáĬķ": 4002,
      "ĠáĪĪáĬ¢áīł": 4003,
      "ĠáĪĪáĬ¢áĪĲ": 4004,
      "ĠáĬ£áī°": 4005,
      "ĠáĬ£áĬŃ": 4006,
      "Ġáĭ°áįį": 4007,
      "ĠáīµáĪĪáĪ": 4008,
      "Ġáī°áĬłáĭį": 4009,
      "ĠáĭŃáĬłáīµ": 4010,
      "áĭĽáĭĿ": 4011,
      "ĠáĪķáĪĽ": 4012,
      "ĠáĬ¢áĪįáīµáĬĲ": 4013,
      "áĪ±áĬĲ": 4014,
      "Ġáĭķáĭµ": 4015,
      "áĪļáī±": 4016,
      "áĪ²áī±": 4017,
      "ĠáĪĵáĪĿ": 4018,
      "áĮ¨áĭŃ": 4019,
      "ĠáĪĺáīµáĭĵ": 4020,
      "ĠáĬłáĪµáĬ¥": 4021,
      "áĭľáīµ": 4022,
      "ĠáĬłáĪįáĪĺ": 4023,
      "áīłáĪįáĭķ": 4024,
      "Ġáĭ³áįį": 4025,
      "ĠáįĪáĪµ": 4026,
      "ĠáĭĪáĬ¢áīµáīµ": 4027,
      "áįĪáĪĢáĪĺ": 4028,
      "áīµáĪĪáĪĺ": 4029,
      "áĬ¬áīµáī£áĭŃ": 4030,
      "áī¾": 4031,
      "áīĳ": 4032,
      "ĠáĬĢ": 4033,
      "áĪĿáīłáĪį": 4034,
      "ĠáĪĪáĬ©": 4035,
      "ĠáĪĪáĭĪáĪ": 4036,
      "ĠáĪĪáīĨ": 4037,
      "áī¥áĭĵ": 4038,
      "áī¥áĭ¨áīµ": 4039,
      "áīłáĮį": 4040,
      "áīłáĪķ": 4041,
      "ĠáĭĪáīĨ": 4042,
      "ĠáĭĪáĬŃáĪŃ": 4043,
      "ĠáĭĪáīĦ": 4044,
      "áĪ¨áĭ®áĪĿ": 4045,
      "áĬ¨áĪ¨áīµ": 4046,
      "áĭ°áĭ®": 4047,
      "ĠáĮ¢": 4048,
      "ĠáĪĺáīµáĪĢ": 4049,
      "ĠáĪĺáĪŃáĬ¨": 4050,
      "ĠáĪĺáĮ¸áĬł": 4051,
      "áĭĲáĭŃ": 4052,
      "áĭĲáīµáĪĪ": 4053,
      "ĠáīµáĮ¥": 4054,
      "áĬĵáĪŃ": 4055,
      "áĬĵáī³": 4056,
      "ĠáĪįáīł": 4057,
      "Ġáī°áĪĭ": 4058,
      "Ġáī°áĮħ": 4059,
      "áĪ«áĪª": 4060,
      "áĭ«áĭ°áīµ": 4061,
      "ĠáĬ¨áĬ¥áĬķ": 4062,
      "áĬ«áĪ¬": 4063,
      "ĠáĪĪáĬłáīµáĪ«": 4064,
      "áĬĴáĪĺ": 4065,
      "áĪĽáī³áīµ": 4066,
      "áĮłáī±": 4067,
      "áĭĭáĬĲ": 4068,
      "áī¡áĭķ": 4069,
      "áĭĺáĬ¨áĪ¨": 4070,
      "áįĪáĪ¸": 4071,
      "ĠáĪ°áĪľ": 4072,
      "áĪĪáĪ±": 4073,
      "áĮ½áĪĲáīµ": 4074,
      "áĪ©áĪµ": 4075,
      "ĠáĪĪáīµáĮ»": 4076,
      "ĠáĪĲáĭµ": 4077,
      "ĠáĬķáĮį": 4078,
      "ĠáĬķáĭĭ": 4079,
      "ĠáĪĿáįį": 4080,
      "áĬ£áĬķ": 4081,
      "ĠáĭĪáĪĪáĭ°": 4082,
      "ĠáĭĪáĬłáĭµ": 4083,
      "áĭ´áĪĺ": 4084,
      "áī´áĪķ": 4085,
      "ĠáĬŃáī±": 4086,
      "ĠáĬŃáĬ¥": 4087,
      "ĠáĬŃáĪĬ": 4088,
      "ĠáĭĪáĪĺáĪ°": 4089,
      "ĠáĬ¢áīµáĭĲ": 4090,
      "Ġáī°áĬłáĬĲ": 4091,
      "ĠáĪķáĭį": 4092,
      "ĠáĪĪáĪĺáĪĲ": 4093,
      "áĪ»áĬķ": 4094,
      "áĪ»áĪį": 4095,
      "ĠáĮĪáĭŃ": 4096,
      "ĠáĪĵáĭŃ": 4097,
      "ĠáĪĺáīµáĭ°": 4098,
      "áįīáĬķ": 4099,
      "Ġáīµáīµáīł": 4100,
      "ĠáĪĪáĬĲáĪĲ": 4101,
      "ĠáīµáĪ°áĬł": 4102,
      "ĠáīµáĪ°áĬłáĪį": 4103,
      "ĠáĪļáĬ¢": 4104,
      "áī³áĭŃáĬķ": 4105,
      "áĮ¢áĬķ": 4106,
      "áĮ«áĭŃ": 4107,
      "áĪ¨áĭŃáĪĿ": 4108,
      "áĪ¯": 4109,
      "áĭ£": 4110,
      "áĪŃáī¦": 4111,
      "ĠáĪĪáĭĪáĪį": 4112,
      "áĬłáĪĺáĪŃ": 4113,
      "áĬłáĪĺáĪ¨": 4114,
      "áĪįáĪĢ": 4115,
      "áĪįáĬ®": 4116,
      "áī¥áĬĵ": 4117,
      "ĠáĭĪáĭ°áĪŃ": 4118,
      "ĠáĭĪáĮĤ": 4119,
      "ĠáĭĪáī¥áĭķ": 4120,
      "áĪ¨áīĢ": 4121,
      "áĪ¨áīµáĪĺ": 4122,
      "ĠáĬłáīµáĬ¨": 4123,
      "áĪĪáī£": 4124,
      "áįįáĪī": 4125,
      "áįįáĪĪáĪį": 4126,
      "ĠáĬ¥áī±": 4127,
      "ĠáĬ¥áĭ²": 4128,
      "ĠáĬ¥áĮĥ": 4129,
      "áĮįáĪİ": 4130,
      "áĭ«áĬ¨": 4131,
      "áī£áĭ¨": 4132,
      "áĪĭáīµáĬĲ": 4133,
      "áĪķáĬķ": 4134,
      "áĪĢáĪĮ": 4135,
      "áĬ«áĪĢáĬķ": 4136,
      "áĭ³áīħ": 4137,
      "áĭ³áĭĮ": 4138,
      "áĪ½áĭ¨": 4139,
      "áĭĿáĭĲ": 4140,
      "áĪ³áĪģ": 4141,
      "áĪģáĪĿ": 4142,
      "áĭĺáĪķ": 4143,
      "ĠáĪ°áĭµ": 4144,
      "ĠáĪ°áĬĴ": 4145,
      "áĮĪáĪĪáĪ": 4146,
      "áĮ½áĪĿ": 4147,
      "áĪ©áĬ¨": 4148,
      "ĠáĪĲáĬĵ": 4149,
      "ĠáĪĲáī´": 4150,
      "ĠáĪĲáĭµáĮĪ": 4151,
      "áĮĢáĬĲ": 4152,
      "ĠáĬķáīµáĬ¨": 4153,
      "ĠáĬķáīµáĪĵ": 4154,
      "áĪ¸áī°": 4155,
      "áĪĮáĪµ": 4156,
      "áĪīáī¥": 4157,
      "áĪīáĬ¨": 4158,
      "áĪīáĬĴ": 4159,
      "áĭĪáĪī": 4160,
      "ĠáĬŃáįĪáĪį": 4161,
      "ĠáĬ£áįį": 4162,
      "ĠáĭĪáĪĺáīµáĬĲ": 4163,
      "ĠáĪµáĪĪ": 4164,
      "ĠáīĢáĭ³": 4165,
      "áĭĽáīħ": 4166,
      "ĠáĪķáĪµ": 4167,
      "áĭ±áĭŃ": 4168,
      "áĪŀáī±": 4169,
      "ĠáĭĪáĬ¢áī°": 4170,
      "ĠáĭķáĪĿ": 4171,
      "ĠáĮĪáī¥áĬ¥": 4172,
      "áĮ¡áĮ¥": 4173,
      "ĠáĭĪáĪĿáĪµ": 4174,
      "ĠáĭĪáĪĿáĪħ": 4175,
      "áĪĶáĬĴ": 4176,
      "áĭ°áĬķáĮĪ": 4177,
      "ĠáĭĪáĪ½áĬķ": 4178,
      "áįĲáĪŃ": 4179,
      "ĠáĪ¦": 4180,
      "áĬķáĬĲ": 4181,
      "áĬķáįĭ": 4182,
      "áĪĿáĪĻ": 4183,
      "áĪŃáĬĵ": 4184,
      "áĪŃáĭ«áĪĿ": 4185,
      "ĠáĪĪáįĬ": 4186,
      "áĪįáĭĲ": 4187,
      "áĪĺáĪ«": 4188,
      "áĪĺáĪµáĪį": 4189,
      "áĪ¨áįĪáīµ": 4190,
      "áĭŃáĬĵ": 4191,
      "áĭŃáī³": 4192,
      "ĠáĬłáįĭ": 4193,
      "ĠáĬłáĭ¶": 4194,
      "ĠáĭĪáĪ¼": 4195,
      "áĭ°áĪĲ": 4196,
      "ĠáĮ³": 4197,
      "ĠáĪĺáĮ£": 4198,
      "áĭ¨áĪķ": 4199,
      "áīĢáĪµ": 4200,
      "áīĢáī¶áĪĿ": 4201,
      "ĠáīµáĮįáĪŃ": 4202,
      "áĬĵáīł": 4203,
      "áĬĵáīĢ": 4204,
      "áĬĵáĬª": 4205,
      "áĬĵáĪĥ": 4206,
      "áīħáĭ©": 4207,
      "áįĪáįħ": 4208,
      "Ġáī°áĮĥ": 4209,
      "áĪ«áīł": 4210,
      "áĪ«áĪĻ": 4211,
      "áĭ«áĪª": 4212,
      "áĭ«áīµáĪĺ": 4213,
      "áī£áĬĴ": 4214,
      "áĪķáĪĿ": 4215,
      "áĪĢáĬ¨": 4216,
      "áĪĽáĭµ": 4217,
      "áī¶áĪŃ": 4218,
      "áĪ½áī±": 4219,
      "áĪªáīħ": 4220,
      "áĪĪáĪ¶": 4221,
      "áĪ©áįį": 4222,
      "ĠáĪĲáįį": 4223,
      "áĮ¸áĪĵ": 4224,
      "áĮ¸áīłáĮ¥": 4225,
      "áīĥáīħ": 4226,
      "áīĥáī¥áĪį": 4227,
      "áĪ¸áįį": 4228,
      "áĪĮáĬª": 4229,
      "áĪĮáĪĽáĬķ": 4230,
      "ĠáĭĲáĭ¨": 4231,
      "ĠáĭĲáĭ¶": 4232,
      "ĠáĭĲáĬķáĭ°": 4233,
      "ĠáĪįáīµáĮĪ": 4234,
      "ĠáĬ£áī´": 4235,
      "ĠáĭĪáĪĺáīµáĪĲ": 4236,
      "Ġáĭ°áĪĢ": 4237,
      "áĭĽáĪ¨áīµ": 4238,
      "ĠáĪ¸áĬ¨": 4239,
      "ĠáĪĪáī°áĪĢáĭ¨": 4240,
      "áĬ¤áĪ¨áīµ": 4241,
      "ĠáĪĢáĪŃ": 4242,
      "áĮ£áĪĿ": 4243,
      "ĠáĭķáĪµ": 4244,
      "Ġáĭķáĭ«": 4245,
      "áĪļáĪį": 4246,
      "ĠáįĪáĮħ": 4247,
      "ĠáĪĪáĪĲáĪį": 4248,
      "ĠáĪĺáīµáĪ¨": 4249,
      "áĮīáĪµ": 4250,
      "áĭ°áĪŃáĪ°": 4251,
      "áĭªáĪĿ": 4252,
      "áĭļáĪĿ": 4253,
      "ĠáĪĪáĬĲáĪµáĬł": 4254,
      "ĠáĪĪáĬ¨áĪŃ": 4255,
      "ĠáĬ¤áĪŃáīµ": 4256,
      "ĠáĮĭáī¥": 4257,
      "áĪĦáīµ": 4258,
      "áĬķáĬ¨áīµ": 4259,
      "áĬłáĪĿáĪ¨": 4260,
      "ĠáĪĺáĬķáĮł": 4261,
      "áĭ°áĪ¨áī±": 4262,
      "áĪĪáĪĺáĭį": 4263,
      "áĭĪáĪ¨áĭį": 4264,
      "ĠáĭĪáĪĪáĪįáĬł": 4265,
      "ĠáĬĸáĪµ": 4266,
      "ĠáĭĲáī¥áĭ±": 4267,
      "ĠáĭĲáĭįáī´": 4268,
      "áī°áĭķ": 4269,
      "ĠáĪĪáĬŃáĪŃ": 4270,
      "áĪįáĬª": 4271,
      "áĪįáĭ«áīµ": 4272,
      "áīłáī°áĬķ": 4273,
      "ĠáĭĪáĬŃáĪį": 4274,
      "áĪĺáĮ¸": 4275,
      "áĪ¨áĭ®áīµ": 4276,
      "áĬ¨áĪµ": 4277,
      "ĠáĬłáĪĪáī¥": 4278,
      "ĠáĬłáīµáĪĮ": 4279,
      "áĪĪáīµáĬĲ": 4280,
      "áĭ°áĬ¨": 4281,
      "áĭ°áīµáĬ¨": 4282,
      "áĬŃáįĪ": 4283,
      "áĬŃáīłáīµ": 4284,
      "ĠáĬ¢áī°áĪŃ": 4285,
      "ĠáĬ¢áĬ¥áĬķ": 4286,
      "áĭ¨áĬĲ": 4287,
      "áįįáĭ©": 4288,
      "áįįáĪĪáĪĪ": 4289,
      "Ġáīµáī³": 4290,
      "Ġáīµáĭ°áĪ¨": 4291,
      "ĠáīµáĭĪáĪ°": 4292,
      "áĬĵáĭĺ": 4293,
      "ĠáĬ¥áĭķ": 4294,
      "ĠáĬ¥áĪ»": 4295,
      "áĮįáĭµ": 4296,
      "áįĪáĬł": 4297,
      "áī£áĭµ": 4298,
      "áī£áĮł": 4299,
      "áī£áī¢": 4300,
      "áĪĭáĭ¨áīµ": 4301,
      "ĠáĪĪáĬłáįĪ": 4302,
      "áĬĴáĬĲ": 4303,
      "áĪĽáĪĢ": 4304,
      "áĪħáĭ°": 4305,
      "áĬ©áĪĺáīµ": 4306,
      "áī¡áī¥": 4307,
      "áĪģáī±": 4308,
      "áĮ¥áĪ«": 4309,
      "áĮĪáĪī": 4310,
      "ĠáĪĲáīł": 4311,
      "áĮĢáīł": 4312,
      "ĠáĬķáĮ½": 4313,
      "ĠáĪĿáĬ¥": 4314,
      "ĠáīłáĮł": 4315,
      "ĠáĭĲáĮĢ": 4316,
      "áĪ¬áĬĵ": 4317,
      "ĠáĬŃáĪ®": 4318,
      "ĠáĬ£áĪ°": 4319,
      "áīµáĪĺáĮ£": 4320,
      "ĠáĭĪáĪĺáĭ³": 4321,
      "ĠáĬ¢áīµáĮĢ": 4322,
      "ĠáĪķáįį": 4323,
      "áĭ±áĬĲ": 4324,
      "ĠáĬ¥áĬķáĮįáĪĬ": 4325,
      "áĭİáĪ®áīµ": 4326,
      "áĬĶáĬ¨": 4327,
      "ĠáĮįáĪĿ": 4328,
      "ĠáĮįáĪ©": 4329,
      "áĪ¶áī±": 4330,
      "áĮŃáĪĿ": 4331,
      "áī¥áĪŃáī±": 4332,
      "áĪ´áĬĲ": 4333,
      "ĠáĭĿáĪķ": 4334,
      "ĠáĬłáĪįáĬł": 4335,
      "ĠáĬłáĪĿáĮ¸áĬł": 4336,
      "ĠáįĪáĪ°": 4337,
      "ĠáĬłáĪŃáĭĪáĪĲ": 4338,
      "áīĦáīµ": 4339,
      "áīłáĪ¨áĭ©": 4340,
      "ĠáīµáĬ¨áīłáī°": 4341,
      "ĠáĪĺáĬķáĮĪ": 4342,
      "áįķáĪ®": 4343,
      "ĠáĪĪáĪĿáĪµ": 4344,
      "ĠáĪĪáĭĪáĭµ": 4345,
      "áĪŃáĬ¥áĭ¨": 4346,
      "áīłáĮ¥áĪŃ": 4347,
      "ĠáįķáĪª": 4348,
      "áįĪáĪªáīħ": 4349,
      "áīµáĪµ": 4350,
      "áĮ´": 4351,
      "áĬķáī¦": 4352,
      "áĪĿáĬŃ": 4353,
      "áĪŃáĬ©": 4354,
      "áĪŃáĪĸ": 4355,
      "áī°áĬĵ": 4356,
      "áī°áĪķ": 4357,
      "ĠáĪĪáīµáĪ«": 4358,
      "ĠáĪĪáīµáĪĭ": 4359,
      "ĠáĪĪáĬ¸": 4360,
      "ĠáĪĪáĬ«áĪį": 4361,
      "áī¥áĭ©": 4362,
      "ĠáĭĪáĬ¨áĪŃ": 4363,
      "áĪ¨áī¦": 4364,
      "áĪ¨áīłáĭį": 4365,
      "áĬĲáī¶áĪĿ": 4366,
      "áĪµáĭ®": 4367,
      "áĭŃáĭ¶": 4368,
      "ĠáĬłáĭ´": 4369,
      "ĠáĬłáĭ±": 4370,
      "ĠáĬłáĭ³áĪĿ": 4371,
      "áĭµáĬ¢": 4372,
      "áĭµáĪĺáīµ": 4373,
      "áĭ°áĭ«": 4374,
      "ĠáĪĪáĪª": 4375,
      "áĬŃáĪħ": 4376,
      "ĠáĪĺáĮ¨": 4377,
      "ĠáĪĺáĬŃáĪ¨": 4378,
      "ĠáĬ¢áĮ£": 4379,
      "ĠáīµáĬ¨áĪŃ": 4380,
      "ĠáīµáĪ¨áĪµ": 4381,
      "áĬĵáĬ©áĪĿ": 4382,
      "ĠáĪįáĬŃáĪ¨": 4383,
      "Ġáī°áĪ½": 4384,
      "Ġáī°áĪĢáĬķ": 4385,
      "áĪĭáĪŃ": 4386,
      "áĪĭáĭį": 4387,
      "ĠáĪĪáĬłáĮĢ": 4388,
      "áĭĪáĬ¥": 4389,
      "áĭ³áĪĢ": 4390,
      "áĭ³áĪĻ": 4391,
      "áĪ½áĪĪ": 4392,
      "áĪ½áįį": 4393,
      "áĭĿáĭ®áĪĿ": 4394,
      "áĭĭáĪ°": 4395,
      "áĭĭáĭ²": 4396,
      "áĬ®áĪĨ": 4397,
      "áĪ³áĬĲ": 4398,
      "áĪģáĪŃ": 4399,
      "áĮ¥áĪ©": 4400,
      "áĮ¥áĮ¡": 4401,
      "áĪĪáĪ³": 4402,
      "áĪ®áĪ¨": 4403,
      "ĠáĪĪáīµáįĪáĪ¨": 4404,
      "ĠáĪĲáĪ¨áĪµ": 4405,
      "ĠáĬķáĭį": 4406,
      "áĪĮáĪĮ": 4407,
      "áĪīáīħ": 4408,
      "ĠáīłáĬķ": 4409,
      "ĠáīłáĪ°": 4410,
      "ĠáĪįáīµáĮł": 4411,
      "ĠáĪįáīµáįĪáĪ¨": 4412,
      "áĪĵáĪŃ": 4413,
      "ĠáĭĪáĪĺáĭķ": 4414,
      "ĠáĪµáĬĵ": 4415,
      "áĭ±áĪĿ": 4416,
      "Ġáįĳ": 4417,
      "ĠáĪĪáī°áīµ": 4418,
      "áĪŀáĬķ": 4419,
      "áĮ£áĮ¥": 4420,
      "áĬĶáĬĴ": 4421,
      "áĬĳáī±": 4422,
      "ĠáĪĽáĪķ": 4423,
      "ĠáĮĪáĭµ": 4424,
      "ĠáĮĪáī¢": 4425,
      "áī¼áī±": 4426,
      "áĬ¬áĬ¨": 4427,
      "áįĪáĪŃáĮį": 4428,
      "ĠáĭĺáĪĺ": 4429,
      "ĠáĬłáĪµáī°áī¥": 4430,
      "áĭľáĬĴ": 4431,
      "Ġáĭĵáīħ": 4432,
      "ĠáīµáīµáĬ«": 4433,
      "ĠáĮĪáĪĢ": 4434,
      "ĠáĭĭáĭŃ": 4435,
      "áĭµáĪŃáĪµ": 4436,
      "áĭĮáĪį": 4437,
      "áĪĪáĭįáĬĴ": 4438,
      "áĬķáĭµáĪµ": 4439,
      "áĮĪáī¥áĬłáīµ": 4440,
      "áĪ¨áĪĲáĭį": 4441,
      "áĮįáĪ«áĭŃáīµ": 4442,
      "áĮ¾áĪĿ": 4443,
      "ĠáĬ³": 4444,
      "áĪŃáĮİ": 4445,
      "áĪŃáĪĦ": 4446,
      "áī°áįį": 4447,
      "áī°áĪ«áīµ": 4448,
      "ĠáĪĪáĬ¦": 4449,
      "áĪįáĬĵ": 4450,
      "áĪįáįİ": 4451,
      "áĪįáįī": 4452,
      "áī¥áĭĴ": 4453,
      "ĠáĭĪáī°áĬķ": 4454,
      "áĪĺáī¶áĪĿ": 4455,
      "áĪ¨áĪ½": 4456,
      "áĪ¨áĮĢ": 4457,
      "áĪ¨áī¢": 4458,
      "áĪ¨áīłáīµ": 4459,
      "áĭŃáĭ±": 4460,
      "ĠáĬłáĪ®": 4461,
      "ĠáĬłáīµáĪ»": 4462,
      "áĪĪáĬ®": 4463,
      "áĪĪáīłáīµ": 4464,
      "ĠáĭĪáĪĴ": 4465,
      "áĭµáĭ«áĭŃ": 4466,
      "áĬŃáĪİ": 4467,
      "ĠáĬ¢áĪ»": 4468,
      "ĠáĬ¢áĬ¨áĪį": 4469,
      "áīĢáī¥áĪĪ": 4470,
      "áĪ°áī¦": 4471,
      "ĠáīµáĮ£": 4472,
      "áĬĵáĪĪ": 4473,
      "ĠáĪįáĬķáĪµ": 4474,
      "ĠáĬ¥áīĢ": 4475,
      "ĠáĬ¥áī³": 4476,
      "áĭķáĭĪ": 4477,
      "áĮįáįį": 4478,
      "áĮįáĪ«áĭŃ": 4479,
      "áĪĲáīł": 4480,
      "áī³áīµáĬ¨": 4481,
      "áĬĴáĪµ": 4482,
      "áĪĽáĭĲ": 4483,
      "áĮĪáĭ´": 4484,
      "áĭĭáĬ¥": 4485,
      "áĬ®áĪĨáĪĿ": 4486,
      "áī¡áīµ": 4487,
      "áĮ¥áĪĿ": 4488,
      "áĮĪáĪ²": 4489,
      "áĮĪáĪ½": 4490,
      "áĮ½áĮ½": 4491,
      "ĠáĪĪáīµáīłáĪĢ": 4492,
      "ĠáĪĲáīħ": 4493,
      "ĠáĪĲáĪ½": 4494,
      "ĠáĪĲáĭ²": 4495,
      "áĮĢáĭĲ": 4496,
      "áĮ¸áī¥áĮł": 4497,
      "áĭĵáī°": 4498,
      "áĭĵáĪŃáįį": 4499,
      "ĠáĬķáĪĲ": 4500,
      "ĠáĬķáĭ³": 4501,
      "ĠáĪĿáĮħ": 4502,
      "áĪĮáĪģ": 4503,
      "áĭĪáĪ¬": 4504,
      "ĠáĭĪáĪĪáīµáĬ¨": 4505,
      "ĠáĭĪáĪĪáīµáĪ°": 4506,
      "ĠáīłáĭĲ": 4507,
      "ĠáĭĲáĪ«": 4508,
      "ĠáĭĲáī¥áĭ°": 4509,
      "ĠáĭĪáĬłáīµáĪĵ": 4510,
      "ĠáĪįáīµáĭ³": 4511,
      "áĭ²áĬĲáīµ": 4512,
      "Ġáĭ°áĪĲ": 4513,
      "ĠáĬ¢áīµáįĪ": 4514,
      "ĠáĪµáĪľ": 4515,
      "ĠáīĢáĪŃáĬł": 4516,
      "Ġáī¥áĪĿ": 4517,
      "ĠáĪ¸áĭķ": 4518,
      "ĠáĬ¢áĪįáĪĿ": 4519,
      "áĭİáĪ®": 4520,
      "ĠáĭĪáĪįáīµáĬĲ": 4521,
      "ĠáĭĪáĬ¢áīµáĪ°": 4522,
      "ĠáĭĪáĬ¢áī°áĬł": 4523,
      "áĪ±áĪĺ": 4524,
      "áĬĳáĪŃ": 4525,
      "áĬĳáĪĺ": 4526,
      "ĠáĮĪáĬĲ": 4527,
      "ĠáĭĪáīµáīĢ": 4528,
      "ĠáįĪáĭµ": 4529,
      "áįīáĪŃ": 4530,
      "áĮ»áīµ": 4531,
      "ĠáĮ¸áīłáĮ¥": 4532,
      "ĠáĪĻáĪ²": 4533,
      "áĪŃáĬ¨áī¥": 4534,
      "ĠáĬ¥áĪµáī³": 4535,
      "áĬĵáĭŃáī±": 4536,
      "ĠáĬłáī°áĪĿ": 4537,
      "áĪĴáĬĲ": 4538,
      "áįħáĭķ": 4539,
      "ĠáĪĪáīłáĮ½áĪĲ": 4540,
      "ĠáĪĪáĪ¨áĬ¤": 4541,
      "áĪŃáīłáī¥": 4542,
      "áĮĪáĪ¨áĭį": 4543,
      "ĠáĬłáĪ½áĬ¨": 4544,
      "áĮªáīµ": 4545,
      "ĠáĮĤáĬ¦": 4546,
      "áĪŁ": 4547,
      "áĪĿáĭ¨áīµ": 4548,
      "áĪĿáĭĸ": 4549,
      "áĪŃáĪĴ": 4550,
      "ĠáĪĪáĮĪáĪŃ": 4551,
      "áĪįáīħ": 4552,
      "áī¥áīł": 4553,
      "áīłáĮ¡": 4554,
      "áĪĺáĪķ": 4555,
      "áĪ¨áĪħ": 4556,
      "áĪ¨áĪ¨áĭį": 4557,
      "ĠáĬłáĮ»": 4558,
      "ĠáĬłáĪĽáĬķ": 4559,
      "áĬŃáĭ«": 4560,
      "áĬŃáĭ¬": 4561,
      "ĠáĬ¢áįĪáĪŃ": 4562,
      "ĠáĬ¢áīµáĪ½": 4563,
      "áĭ¨áĪ¨": 4564,
      "áĭįáĪ¨áīµ": 4565,
      "áĭĲáĪĽáĪŃ": 4566,
      "ĠáīµáĭĽ": 4567,
      "ĠáīµáĪĺáĪŃ": 4568,
      "ĠáĪįáī¥áĪĪ": 4569,
      "ĠáĪįáīµáĪĢáĭ¨": 4570,
      "ĠáĬ¥áįĪ": 4571,
      "ĠáĬ¥áĪĻ": 4572,
      "áĭķáĪµ": 4573,
      "Ġáī°áįį": 4574,
      "Ġáī°áĬĵ": 4575,
      "Ġáī°áĮł": 4576,
      "áī£áĬŃ": 4577,
      "áī£áĪħ": 4578,
      "áĪķáī°áĪŃ": 4579,
      "ĠáĪĪáĬłáĪµáĪĺ": 4580,
      "áĭĪáĭ¨": 4581,
      "áĭ³áĭįáĪŃ": 4582,
      "áĬ¢áĬ®áĬķ": 4583,
      "áĮĪáĮĪ": 4584,
      "áĮĪáīłáĭŃ": 4585,
      "áĭĿáīµ": 4586,
      "áĭĭáĪª": 4587,
      "áĮħáĭµ": 4588,
      "áĮħáĭ«áĭŃ": 4589,
      "áĮ¥áīµ": 4590,
      "áĮ¥áīħ": 4591,
      "áĭĺáĭĲ": 4592,
      "áĭĺáĭķ": 4593,
      "ĠáĪ°áĭ´": 4594,
      "áĪ®áĪµ": 4595,
      "ĠáĪĪáīµáĮĭ": 4596,
      "ĠáĪĲáĪĭ": 4597,
      "ĠáĪĲáĪ°áī¥": 4598,
      "ĠáĬĲáĪĥ": 4599,
      "ĠáĬĲáĪ°áĬł": 4600,
      "áĭĵáī¤": 4601,
      "áĪ¸áĬ¨": 4602,
      "ĠáĪĪáĪįáĪĢ": 4603,
      "ĠáĭĪáĪĪáįį": 4604,
      "ĠáĭĪáĪĪáī°áĪĲ": 4605,
      "ĠáĭĲáĪ¨áī¥": 4606,
      "áĭ´áĭķ": 4607,
      "áī´áĬķ": 4608,
      "ĠáĬŃáĪİ": 4609,
      "áĪĻáĭķ": 4610,
      "ĠáĬ£áĬ«": 4611,
      "ĠáĬ£áĪĽ": 4612,
      "áīµáĪĺáĭķ": 4613,
      "áĪĵáī¥": 4614,
      "ĠáĭĪáĪĺáĪ«": 4615,
      "Ġáĭ°áīł": 4616,
      "ĠáĬ¢áīµáĪĿ": 4617,
      "ĠáĪµáĭĪáĪŃ": 4618,
      "ĠáĪķáī¡": 4619,
      "áĭ±áĪĺ": 4620,
      "áĪĥáī¥": 4621,
      "áĬ©áĪĿáī°": 4622,
      "ĠáĪ¸áĪį": 4623,
      "ĠáĪ¸áĪŃáĪĲ": 4624,
      "ĠáĪĪáĪĺáĮ½": 4625,
      "áīłáīµáĬ®": 4626,
      "áĬĶáĪį": 4627,
      "áĪļáī¶": 4628,
      "áįİáī±": 4629,
      "ĠáĮĢáĪ«": 4630,
      "ĠáĬ«áĪĿ": 4631,
      "ĠáĭĪáī°áĪµ": 4632,
      "áĬ¬áĪĿ": 4633,
      "áĬ¬áĬĴ": 4634,
      "ĠáĪ½áĭķ": 4635,
      "Ġáĭ¨áĬłáīµ": 4636,
      "ĠáĪĪáĭĲáĭį": 4637,
      "áĭĬáĪį": 4638,
      "ĠáĭĪáĪĲáĪĿ": 4639,
      "ĠáĪĪáĬłáīµáī£": 4640,
      "ĠáĪĪáĬłáīµáĮĭ": 4641,
      "áĭĶáĪĽáīµ": 4642,
      "ĠáĬ¤áĪį": 4643,
      "ĠáĪĪáĪĢáīł": 4644,
      "áĪ¨áĬ¨áĭį": 4645,
      "ĠáĬłáįįáĮĪáĪŃ": 4646,
      "áĪĤáĪį": 4647,
      "áĮ¦áĪŃ": 4648,
      "áīµáĪĽáĬķ": 4649,
      "áĪŃáĭ«áĬķ": 4650,
      "ĠáĮŃáĬķ": 4651,
      "áĭ³áĪįáĭ¨áīµ": 4652,
      "ĠáīłáĪįáĭĲ": 4653,
      "Ġáī°áĬŃáĪĮ": 4654,
      "ĠáĬ¥áĪµáīµáĭķ": 4655,
      "áįĪáĬĵáī´": 4656,
      "áīµáī¥": 4657,
      "áĬķáĭ©": 4658,
      "áĬķáĮħ": 4659,
      "áĪĿáĬĶ": 4660,
      "áĪŃáįĪ": 4661,
      "ĠáĪĪáįĢ": 4662,
      "áī¥áĮłáīµ": 4663,
      "ĠáĭĪáī¶": 4664,
      "ĠáĭĪáĬĶ": 4665,
      "áĪ¨áĭĲ": 4666,
      "áĬĲáĬ¨": 4667,
      "áĪµáĪİ": 4668,
      "áĬ¨áĪĺ": 4669,
      "ĠáĬłáĪ¬": 4670,
      "ĠáĬłáįī": 4671,
      "ĠáĬłáīµáĪĥ": 4672,
      "áĪĪáĬ«": 4673,
      "áĭ°áĪĪáĭį": 4674,
      "ĠáĪĪáĪĳ": 4675,
      "áĬŃáī³": 4676,
      "ĠáĪĺáĪĽ": 4677,
      "ĠáĪĺáĮİ": 4678,
      "áĭ¨áī¼": 4679,
      "áĭĲáĪĬ": 4680,
      "áīĢáīłáīµ": 4681,
      "áĪ°áĭķ": 4682,
      "áĪ°áĪķ": 4683,
      "áĪ°áĪİ": 4684,
      "Ġáīµáĭ°áĪŃ": 4685,
      "ĠáīµáĭĪáĪŃ": 4686,
      "áĬĵáįį": 4687,
      "ĠáĪįáĭĪ": 4688,
      "áĮįáĮį": 4689,
      "áįĪáĮĪ": 4690,
      "Ġáī°áĪ«": 4691,
      "áī£áĬĲ": 4692,
      "áĪĭáĬ¥": 4693,
      "ĠáĬ¨áįĭ": 4694,
      "ĠáĬ¨áĪĿáĬ¨": 4695,
      "áĭĪáĬĲáīµ": 4696,
      "áĭĪáīĦ": 4697,
      "áĪħáĭŃ": 4698,
      "áĪħáĪ¨áīµ": 4699,
      "áĭĿáĬ¨": 4700,
      "áĭĿáĪĪ": 4701,
      "áĬ©áĪį": 4702,
      "áįĭáī°": 4703,
      "áĭĺáĭĺ": 4704,
      "ĠáĪ°áĪĽ": 4705,
      "áĪĪáĪ½": 4706,
      "áĭ®áĪĺ": 4707,
      "áĮ¸áĪŃ": 4708,
      "áīĥáĭ¶": 4709,
      "áĪ¸áĭ¨": 4710,
      "áĮĭáĮį": 4711,
      "ĠáĭĪáĬłáĬ¨": 4712,
      "ĠáĭĪáĬłáĪµáī°": 4713,
      "áĪĵáĪĺ": 4714,
      "áĪĵáīħ": 4715,
      "ĠáĭĪáĪĺáīµáĪ°": 4716,
      "Ġáĭ°áĪį": 4717,
      "ĠáĬ¢áīµáĬŃ": 4718,
      "ĠáĪµáĬķ": 4719,
      "ĠáĪµáĬ¥": 4720,
      "ĠáĪµáĪķ": 4721,
      "áĭĽáĬ¥": 4722,
      "ĠáĪķáĪŃáĭ¨áīµ": 4723,
      "áĭ±áĬĴ": 4724,
      "Ġáī¥áĪĭ": 4725,
      "ĠáĪ¨áī¢": 4726,
      "ĠáĭĪáĬ¢áĬł": 4727,
      "áĪ±áĪĿ": 4728,
      "áĪ»áĪ½": 4729,
      "áĬĳáĭŃ": 4730,
      "ĠáĮįáĪª": 4731,
      "ĠáĪ³áĭµ": 4732,
      "ĠáĬłáīµáĮĥ": 4733,
      "ĠáĮĢáĬĲ": 4734,
      "ĠáĬ«áĪŃáī±": 4735,
      "ĠáĭĪáī°áĪĢ": 4736,
      "ĠáĪ½áĪĿ": 4737,
      "ĠáĪ½áĭĳ": 4738,
      "áĭĳáĬĴ": 4739,
      "Ġáĭįáĭµ": 4740,
      "ĠáĪĪáĪįáīµáĬł": 4741,
      "ĠáĬłáĪįáīł": 4742,
      "áĭļáĪį": 4743,
      "Ġáĭĭáĭµ": 4744,
      "ĠáĪĪáĬłáīµáĭĲ": 4745,
      "ĠáĪĪáĬ¨áįį": 4746,
      "ĠáĪĪáĪĢáī¥": 4747,
      "ĠáĭĪáĬĲáĪĲ": 4748,
      "áįķáĪİ": 4749,
      "Ġáī¤áĪĪ": 4750,
      "ĠáĪĪáĪ¨áĬŃ": 4751,
      "áĪºáĪŃ": 4752,
      "Ġáĭ¶áĪį": 4753,
      "áĭ³áĪįáĭ«áĭŃ": 4754,
      "áĭĪáĪ®áīµ": 4755,
      "áįĪáĪĪáĪį": 4756,
      "áĪŃáĭ°": 4757,
      "áĪŃáĭ°áīµ": 4758,
      "áĪįáĭķ": 4759,
      "áĪįáĭ«áĭŃ": 4760,
      "áī¥áī¡": 4761,
      "ĠáĭĪáīµáĪ«": 4762,
      "áĪ¨áĪĲáīµ": 4763,
      "áĬĲáĪµ": 4764,
      "áĭŃáī¶": 4765,
      "ĠáĬłáĪª": 4766,
      "ĠáĬłáĭ²": 4767,
      "ĠáĬłáĭµáĪŃ": 4768,
      "ĠáĬłáĭĪáĪį": 4769,
      "áĪĪáī¦": 4770,
      "ĠáĭĪáĪĤ": 4771,
      "áĭµáĬ¡": 4772,
      "áĭ°áĮİ": 4773,
      "áĬŃáĪ®áĪĿ": 4774,
      "ĠáĮ´": 4775,
      "áĭ¨áĭį": 4776,
      "áĭ¨áĬ¥": 4777,
      "áĭįáĭ«áĬķ": 4778,
      "áĭĲáĪĪáīµ": 4779,
      "áīĢáīµáĬĲ": 4780,
      "áĪ°áī¡": 4781,
      "ĠáīµáĮħ": 4782,
      "Ġáīµáĭĵ": 4783,
      "Ġáīµáī¥áĪĪ": 4784,
      "ĠáīµáĭĪáĪµ": 4785,
      "ĠáĪįáīĥ": 4786,
      "ĠáĪįáīµáĪĽ": 4787,
      "ĠáĬ¥áĭ±": 4788,
      "áĮįáĪ¨áīµ": 4789,
      "Ġáī°áĮį": 4790,
      "áī£áĪ«": 4791,
      "ĠáĬ¨áĬ£": 4792,
      "ĠáĬ¨áĬłáīµ": 4793,
      "ĠáĬ¨áĪĪáĪĲ": 4794,
      "ĠáĪĪáĬłáįĪáĪŃ": 4795,
      "áĮĪáĭ°": 4796,
      "áī¶áĪª": 4797,
      "áĬ©áīµ": 4798,
      "áĭĭáĪĺ": 4799,
      "áĭĭáĬĵ": 4800,
      "áĭĭáĪ©": 4801,
      "áĪªáįį": 4802,
      "áĪ³áĪĪ": 4803,
      "áĪ³áįį": 4804,
      "áįĭáĪģ": 4805,
      "ĠáĪ°áįĭ": 4806,
      "áĮĪáĪķ": 4807,
      "áĮ½áĬķ": 4808,
      "ĠáĪĲáĪª": 4809,
      "ĠáĪĲáĪĺáĭµ": 4810,
      "ĠáĪĲáĪĪáįį": 4811,
      "ĠáĬĲáĮĭ": 4812,
      "ĠáĬĲáĭµáĬł": 4813,
      "áĮ¸áĪĿ": 4814,
      "áīĥáĪĺ": 4815,
      "áĭĵáĭµ": 4816,
      "ĠáĬķáīĢ": 4817,
      "áĪ¸áĮį": 4818,
      "áĪĮáī³áīµ": 4819,
      "áĬ£áĭ©": 4820,
      "áĬ£áĭŃáīµ": 4821,
      "áĭĪáĪĬ": 4822,
      "ĠáīłáĪ«áĪĿ": 4823,
      "ĠáĭĲáĭ³": 4824,
      "ĠáĭĲáĮħ": 4825,
      "ĠáĭĪáĬłáīµáĪĲ": 4826,
      "ĠáĪįáīµáĭĺ": 4827,
      "áĭīáī±": 4828,
      "ĠáĬŃáĬ¨": 4829,
      "áĪĻáĬĴ": 4830,
      "ĠáĭĪáĪĺáīħ": 4831,
      "ĠáīµáĪ©": 4832,
      "ĠáīµáĪĥ": 4833,
      "ĠáĬ¢áīµáīħ": 4834,
      "Ġáī°áĬłáīł": 4835,
      "ĠáīĢáĪĭ": 4836,
      "áĭĽáī±": 4837,
      "ĠáįĨ": 4838,
      "ĠáĬ¢áĪįáĬŃ": 4839,
      "ĠáĪ¨áĬ¨": 4840,
      "ĠáĭĪáĪįáĪµ": 4841,
      "ĠáĭĪáĪįáĪķ": 4842,
      "ĠáĪĢáĬķáĭ°": 4843,
      "áīłáīµáĬŃ": 4844,
      "ĠáĭĪáĬ¢áĬķ": 4845,
      "áĪ»áĪŃáĬŃ": 4846,
      "áĪ²áĬĲ": 4847,
      "ĠáĪĽáĭķ": 4848,
      "ĠáĭĪáīµáĭĲ": 4849,
      "ĠáĮĢáĪĿáĭĲ": 4850,
      "ĠáĪĵáĪŃ": 4851,
      "ĠáįĪáīµáĪĲ": 4852,
      "ĠáĭµáĪĿ": 4853,
      "áĭĳáĪį": 4854,
      "áĭľáĬ¨": 4855,
      "Ġáĭĵáī¥": 4856,
      "áī¥áĪŃáīµ": 4857,
      "áĪ´áĬ¨": 4858,
      "ĠáĬĲáĬłáĪĿ": 4859,
      "áĭĬáĬķ": 4860,
      "áĭĶáĬ¨": 4861,
      "ĠáĬłáĪŃáĪĲ": 4862,
      "áīłáī°áĬĲ": 4863,
      "áĪĤáĭµ": 4864,
      "áĭµáĪ¨áĪµ": 4865,
      "ĠáĬ¦áĪŃ": 4866,
      "ĠáĬłáĪ°áĬłáĪį": 4867,
      "áĪłáīµ": 4868,
      "áĮĦáĭķ": 4869,
      "áīµáĪ»áīĢáĪį": 4870,
      "ĠáĬłáĭµáĪĲ": 4871,
      "ĠáĪĪáĭŃáĬ¥": 4872,
      "ĠáįĪáĪŃáĪĢ": 4873,
      "ĠáĪĪáĬłáĪĿáĮ¸áĬł": 4874,
      "ĠáĭĪáĪĪáĬ¢áĪį": 4875,
      "áĪ°áĪĿáĭķ": 4876,
      "áĮĨáĪĿ": 4877,
      "áĮºáīµ": 4878,
      "áīłáĮłáĭį": 4879,
      "ĠáĪĪáĬ¢áĪįáīµáĪĲ": 4880,
      "áĪµáī²áĬŃ": 4881,
      "ĠáįĪáĪĢáĪĿ": 4882,
      "áīĺ": 4883,
      "áīµáĬŃ": 4884,
      "áĬķáĪħ": 4885,
      "áĬķáĮ¦": 4886,
      "áĪŃáĮĪáĪį": 4887,
      "ĠáĪĪáī¡": 4888,
      "ĠáĪĪáī¥áĬ¥": 4889,
      "áĪįáĪĻ": 4890,
      "áĪįáįĪáīµ": 4891,
      "áī¥áĬ©áĪĿ": 4892,
      "áīłáĬ©áĪĿ": 4893,
      "ĠáĭĪáĭ«": 4894,
      "ĠáĭĪáĮī": 4895,
      "ĠáĭĪáīłáĪį": 4896,
      "ĠáĭĪáĬĵáĭŃ": 4897,
      "ĠáĭĪáĮ¼": 4898,
      "áĪ¨áĪĸ": 4899,
      "áĬĲáĪĺ": 4900,
      "áĬĲáĬŃ": 4901,
      "áĭŃáĪ©": 4902,
      "ĠáĬłáĮ¨": 4903,
      "áĭµáĪ«áĭŃ": 4904,
      "áīµáĪ¼": 4905,
      "áīµáĪĨ": 4906,
      "ĠáĪĺáī°áĪį": 4907,
      "ĠáĪĺáĬłáĬķ": 4908,
      "ĠáĬ¢áĮĢ": 4909,
      "ĠáĬ¢áĬķáĪµ": 4910,
      "ĠáĬ¢áĪĺáĪµ": 4911,
      "áĭ¨áīł": 4912,
      "áįįáĪ«": 4913,
      "áīĢáĪĭ": 4914,
      "ĠáīµáĭĪáĪ¨": 4915,
      "áīħáĪ©": 4916,
      "ĠáĪįáĭĭ": 4917,
      "ĠáĬ¥áĭĺ": 4918,
      "áĮįáĪ½": 4919,
      "ĠáĬ¨áĮĢ": 4920,
      "ĠáĬ¨áĪĪáĪ°": 4921,
      "ĠáĪĪáĬłáīµáĪ»": 4922,
      "áĭ³áĭ¬": 4923,
      "áĬ¢áĪµ": 4924,
      "áĮĪáī°": 4925,
      "áĭĿáĪĺáīµ": 4926,
      "áĭĿáĪĳ": 4927,
      "áī¡áĪ©": 4928,
      "áĪģáĭµ": 4929,
      "áĮ¥áįį": 4930,
      "áįĭáĪĺ": 4931,
      "áįĭáĪ¨": 4932,
      "ĠáĪ°áĬ¨": 4933,
      "áĮĪáĪ¬": 4934,
      "áĮĪáĪ¸": 4935,
      "ĠáĪĪáīµáī°": 4936,
      "ĠáĪĪáīµáĭĭ": 4937,
      "ĠáĪĲáĪįáįĪ": 4938,
      "áīĥáĭµáĪŃ": 4939,
      "áĪĮáĪį": 4940,
      "áĪĮáĪĪ": 4941,
      "áĪĮáĬ©áĪĿ": 4942,
      "áĪīáĬķ": 4943,
      "ĠáĭĪáĪĪáĭķ": 4944,
      "ĠáīłáĪª": 4945,
      "áī¦áĪĺ": 4946,
      "áĪ¬áĪ½áĬķ": 4947,
      "ĠáĪįáīµáĮĥ": 4948,
      "áĭ´áĬª": 4949,
      "áĭ´áĪŃáĭ¨áīµ": 4950,
      "áĪĻáī±": 4951,
      "áī¤áī°": 4952,
      "áī¤áĬ®": 4953,
      "ĠáĪĪáĬ¢áī°áĪĲ": 4954,
      "áĪĵáī°": 4955,
      "ĠáĭĪáĪĺáĬ«": 4956,
      "Ġáĭ°áī¥": 4957,
      "Ġáĭ°áĪĽ": 4958,
      "ĠáĪµáī¥": 4959,
      "ĠáĪµáĭĮ": 4960,
      "áī¢áĬĲ": 4961,
      "ĠáĪ¨áĬ¥": 4962,
      "áĪĨáĪĺ": 4963,
      "áĮ£áī±": 4964,
      "áĮĥáĪħ": 4965,
      "ĠáĮįáĪ¬": 4966,
      "ĠáĪ³áĪŃáĪĲ": 4967,
      "ĠáįįáĪ¨": 4968,
      "ĠáĮĢáĪĢ": 4969,
      "ĠáĬ«áĪľ": 4970,
      "ĠáĪĪáĪĲáĬķ": 4971,
      "ĠáĪĺáīµáĮ»": 4972,
      "áĪľáĪķ": 4973,
      "ĠáĪŃáĬ¨": 4974,
      "áĭľáĬĲ": 4975,
      "Ġáĭ¨áĪĺ": 4976,
      "ĠáīµáīµáĪ¨": 4977,
      "áĭªáĪŃ": 4978,
      "ĠáĬ¢áī°áĪĵ": 4979,
      "ĠáĪĪáĪįáīµáĭĵ": 4980,
      "ĠáĪĭáĪĿ": 4981,
      "áĬķáĮįáĪŃ": 4982,
      "áĪĤáī±": 4983,
      "ĠáĪ»áĪĿ": 4984,
      "áī¥áĪ¨áĬķ": 4985,
      "ĠáĮ¨áīħ": 4986,
      "áĪĪáĪįáĬ®": 4987,
      "áī°áī¥áĪħ": 4988,
      "áĮĪáĪĪáĭį": 4989,
      "áįĪáĭĲáĬĲ": 4990,
      "áĮįáĪ«áįį": 4991,
      "áĪĺáĭĲáĬĲ": 4992,
      "áĮĪáĪ°áĭį": 4993,
      "áīµáĪ®áĪį": 4994,
      "Ġáĭı": 4995,
      "áĪĿáĬ«": 4996,
      "áĪĿáĭĵ": 4997,
      "áĪŃáī¤": 4998,
      "áĪŃáĪĵáĭŃ": 4999,
      "ĠáĪĪáĭ¶": 5000,
      "áĪįáĪ²": 5001,
      "áī¥áĪĬ": 5002,
      "áī¥áĭĸ": 5003,
      "áī¥áĮ¡": 5004,
      "áīłáī¼": 5005,
      "ĠáĭĪáįĮ": 5006,
      "ĠáĭĪáĬ«áĪį": 5007,
      "áĪĺáĪİ": 5008,
      "áĪµáīµáĪ«": 5009,
      "áĪµáĭĶ": 5010,
      "áĭŃáįį": 5011,
      "áĭŃáĪ®": 5012,
      "ĠáĬłáĬ¬": 5013,
      "áĪĪáĭ«": 5014,
      "áĭµáĭ«áīµ": 5015,
      "áĭ°áĪ¨áĭį": 5016,
      "áĬŃáĭ®": 5017,
      "áĬŃáĪ«áĭŃ": 5018,
      "áīµáĪĸ": 5019,
      "áīµáĪľ": 5020,
      "ĠáĬ¢áĭĺ": 5021,
      "ĠáĬ¢áĪŃáĬ¤": 5022,
      "áĭ¨áĪĪ": 5023,
      "áĭ¨áī°áĬķ": 5024,
      "áįįáĪĲáīµ": 5025,
      "áĭįáĭ´": 5026,
      "áĭĲáĭĿ": 5027,
      "áīĢáĬĲ": 5028,
      "áīĢáĮł": 5029,
      "áīĢáĭī": 5030,
      "áĪ°áĪĪáīµ": 5031,
      "ĠáīµáīłáĪį": 5032,
      "áĬĵáĪĽ": 5033,
      "áīħáĪĬáĪĿ": 5034,
      "ĠáĪįáĮĭ": 5035,
      "ĠáĪįáī¥áĪį": 5036,
      "ĠáĬ¥áĭµáĬķ": 5037,
      "áįĪáĭī": 5038,
      "áĪ«áī¡": 5039,
      "áĪ«áĪ©": 5040,
      "áĭ«áĪ±": 5041,
      "áī£áĪ©": 5042,
      "áī³áĪģ": 5043,
      "áĪĭáĭ¬": 5044,
      "ĠáĬ¨áĭ³": 5045,
      "ĠáĬ¨áĮ¥": 5046,
      "áĪķáī¥": 5047,
      "áĪķáīł": 5048,
      "ĠáĪĪáĬłáĪ¨": 5049,
      "ĠáĪĪáĬłáī°áĪĿ": 5050,
      "áĭĪáī±": 5051,
      "áĭĪáĭ³": 5052,
      "áĪªáī°": 5053,
      "áįĭáĬĲ": 5054,
      "ĠáĪĪáīµáĮĥ": 5055,
      "ĠáĪĲáĪ³": 5056,
      "ĠáĬĲáĮ¸": 5057,
      "ĠáĬĲáĪ»": 5058,
      "áĮĢáĭį": 5059,
      "áīĥáĪŃáī¥": 5060,
      "ĠáĬķáĬ¢": 5061,
      "ĠáĪĿáĭ°áĪŃ": 5062,
      "ĠáĪĪáĪįáĪ°": 5063,
      "áĬ£áĬł": 5064,
      "áĭĪáĪĵ": 5065,
      "áĬªáĬĲáīµ": 5066,
      "áĮĭáĪµ": 5067,
      "ĠáĭĲáĪĿ": 5068,
      "ĠáĭĲáĬĲ": 5069,
      "ĠáĭĲáĪ³": 5070,
      "áī¦áĪį": 5071,
      "ĠáĭĪáĬłáĭ³": 5072,
      "ĠáĭĪáĬłáĭĿ": 5073,
      "ĠáĭĪáĬłáĮĢ": 5074,
      "ĠáĬŃáī¡": 5075,
      "áĭ²áīł": 5076,
      "áĭ²áĪĺ": 5077,
      "áĭ²áĪ¨": 5078,
      "áĭ²áĪģ": 5079,
      "ĠáĭĪáĪĺáĪµáĬ¡": 5080,
      "Ġáĭ°áĪ¨áĪµ": 5081,
      "ĠáīµáĪª": 5082,
      "ĠáĬ¢áīµáĮł": 5083,
      "ĠáĪµáĪĺ": 5084,
      "áī²áĪĺ": 5085,
      "ĠáīĢáĬĲ": 5086,
      "ĠáīĢáĪĪ": 5087,
      "ĠáĪķáĭ±": 5088,
      "ĠáĪ¸áĪĢ": 5089,
      "ĠáĪĪáī°áĭĵ": 5090,
      "ĠáĪĪáĪĪáīµáĪĲ": 5091,
      "áĪ»áĪĿ": 5092,
      "áĬĳáĬĲ": 5093,
      "ĠáĭĪáĬ¥áĪµáīµ": 5094,
      "ĠáĬłáīµáĭĵ": 5095,
      "ĠáįĪáīħ": 5096,
      "ĠáĪĺáīµáįĪ": 5097,
      "áįīáįį": 5098,
      "áĮ»áĬķ": 5099,
      "ĠáĪŃáĭ«": 5100,
      "áįĬáĪįáĭµ": 5101,
      "ĠáīµáīµáĬł": 5102,
      "ĠáĬ¢áī°áĬłáĪµ": 5103,
      "ĠáĬłáĪįáĪĲ": 5104,
      "Ġáĭ³áĮį": 5105,
      "ĠáĬłáĪĿáĪĲ": 5106,
      "ĠáĭŃáĬ¥áĬķáīĢ": 5107,
      "áīłáī°áĬ¨": 5108,
      "ĠáīĥáĪŃ": 5109,
      "áĪĭáĭŃáĪĿ": 5110,
      "áĬķáĬ¨áĪį": 5111,
      "áĬłáĪĿáĪ®": 5112,
      "ĠáĬłáĪ°áĬłáĪĪ": 5113,
      "áĪ¨áĪµáĭĳ": 5114,
      "ĠáĪĪáĭĪáĮħ": 5115,
      "ĠáĬ¢áīµáīµáĭĲ": 5116,
      "ĠáīłáĪŃáĬĵáĪĿ": 5117,
      "áĪ¨áĬłáĭ¨": 5118,
      "ĠáĪĪáĪŃáĬ¤": 5119,
      "áįĪáĪĪáīµ": 5120,
      "ĠáĬ¥áīħáīµáĪ³": 5121,
      "áĭĿáĪĽáī½": 5122,
      "áīµáī±": 5123,
      "áĬķáĭĿ": 5124,
      "áĪŃáĭ«áĭŃ": 5125,
      "ĠáĪĪáĮĪáī¥": 5126,
      "ĠáĪĪáĭĪáĪ°": 5127,
      "ĠáĪĪáīµáĪĢáĭ¨": 5128,
      "áī¥áĬª": 5129,
      "áī¥áĪ¨áĬ¨": 5130,
      "áīłáĭĲáīµ": 5131,
      "ĠáĭĪáĭļ": 5132,
      "ĠáĭĪáįĪáĬķ": 5133,
      "ĠáĭĪáįĵ": 5134,
      "áĪĺáĬŃ": 5135,
      "áĪĺáĪª": 5136,
      "áĪĺáĪĺáīµ": 5137,
      "áĪ¨áī³": 5138,
      "áĪ¨áĪĺáīµ": 5139,
      "áĬĲáĭ°": 5140,
      "áĪµáĬ¤": 5141,
      "áĪµáĬ¦": 5142,
      "áĬ¨áĭ®áĪĿ": 5143,
      "ĠáĬłáĪ´": 5144,
      "ĠáĭĪáĪĨ": 5145,
      "áĭ°áīµáĬĲ": 5146,
      "áĭ°áĪļ": 5147,
      "áĬŃáĭ¨áīµ": 5148,
      "ĠáĪĺáĬķáĮį": 5149,
      "ĠáĪĺáĪĪáĪĢ": 5150,
      "ĠáĬ¢áĪĿ": 5151,
      "ĠáĬ¢áĭĪáĭ´": 5152,
      "áĭįáĪĭ": 5153,
      "áīĢáīµáĬ¨": 5154,
      "áĪ°áĭī": 5155,
      "ĠáīµáĭĿ": 5156,
      "ĠáīµáĮĮ": 5157,
      "ĠáīµáīµáĪĪ": 5158,
      "ĠáīµáĭĪáĭµ": 5159,
      "áĬĵáĪķ": 5160,
      "ĠáĪįáĪĢ": 5161,
      "ĠáĬ¥áīµáĪ³": 5162,
      "áĪĲáĬ®": 5163,
      "áįĪáĮ¥": 5164,
      "áįĪáī¶áĪĿ": 5165,
      "áĭ«áĬĵ": 5166,
      "áĭ«áĬ¥": 5167,
      "áĪĭáĮį": 5168,
      "áĪĭáī¡": 5169,
      "ĠáĬ¨áĬŃ": 5170,
      "ĠáĬ¨áĭĺ": 5171,
      "áĪķáĪµ": 5172,
      "áĪĢáĬĴ": 5173,
      "áĬ«áī¡": 5174,
      "áĪĽáĪ²": 5175,
      "áĮĪáĭĺ": 5176,
      "áĪ½áĪ©": 5177,
      "áĭĿáĭ®áĬķ": 5178,
      "áī¡áĮ¡": 5179,
      "áĭĺáī°": 5180,
      "ĠáĪĪáīµáīµáĬĲ": 5181,
      "áĪ¸áīł": 5182,
      "ĠáĪĪáĪįáīµáĪĪ": 5183,
      "ĠáĪĪáĪįáīµáĪ³": 5184,
      "áĬªáĪĿ": 5185,
      "ĠáĭĪáĪĪáĭĵ": 5186,
      "áĮĭáĪĺ": 5187,
      "ĠáīłáĮ¥": 5188,
      "Ġáīłáīĥ": 5189,
      "ĠáĭĲáĭĪ": 5190,
      "ĠáĭĲáī¢": 5191,
      "áĪĬáĬ®": 5192,
      "ĠáĭĪáĬłáīµáĪ³": 5193,
      "áĭ´áĬĵ": 5194,
      "áĭ´áĬ©áĪĿ": 5195,
      "áī¤áĪī": 5196,
      "ĠáĪĪáĬ¢áīµáĬĲ": 5197,
      "ĠáĭĪáĪĺáīµáĬ¨": 5198,
      "Ġáĭ°áĪĺ": 5199,
      "Ġáĭ°áī£": 5200,
      "Ġáĭ°áĭĵ": 5201,
      "ĠáīµáĪĮ": 5202,
      "ĠáĬ¢áīµáīµáĪ°": 5203,
      "Ġáī°áĬłáĪµáī°": 5204,
      "ĠáīĢáĮ¥": 5205,
      "áĭĽáĪĺ": 5206,
      "áĭ±áī±": 5207,
      "áĪĥáĭ¬": 5208,
      "ĠáĬ¢áĪįáīµáĪ¸": 5209,
      "áĬĸáĪŃ": 5210,
      "ĠáĪĪáĪĺáĪ»": 5211,
      "ĠáĭĪáĬ¢áīµáĬ¨": 5212,
      "ĠáĭĪáīµáīł": 5213,
      "áīłáĪŃáĭµ": 5214,
      "ĠáįįáĪĭ": 5215,
      "ĠáĭĪáī°áĪĵ": 5216,
      "áĬ¬áī±": 5217,
      "áĮ»áĭŃ": 5218,
      "áĮŃáĪį": 5219,
      "áĭľáĬķ": 5220,
      "ĠáĮłáĪĪ": 5221,
      "áīģáīħ": 5222,
      "ĠáĬłáĬķáĭ°": 5223,
      "ĠáĪĪáĪįáīµáīł": 5224,
      "ĠáĪĪáĪįáīµáīĢ": 5225,
      "Ġáĭ³áĪŃ": 5226,
      "áĭĬáĪŃ": 5227,
      "ĠáĮĭáĪŃ": 5228,
      "ĠáĭĪáĭĲáĭį": 5229,
      "áįĪáīµáĭ¨": 5230,
      "ĠáĮħáĬķáĪµ": 5231,
      "áĮĪáĪŃáĪĿ": 5232,
      "ĠáĪĪáīĢáĪŃ": 5233,
      "ĠáīµáĬ¨áīłáīµ": 5234,
      "áĮ¹áĪķ": 5235,
      "áĭĪáĪ¨áĭ¨": 5236,
      "áĪŃáĬłáĭ©": 5237,
      "ĠáĪ¹áĪĢ": 5238,
      "Ġáī°áĪŃáĮĢ": 5239,
      "ĠáĬłáīµáĪĺáĪĿ": 5240,
      "áĬĵáĭµáĪĬáĬķ": 5241,
      "áīµáĪĲáĭĿáĭ©": 5242,
      "ĠáĪ°áįįáĪĲáīµ": 5243,
      "ĠáĬłáĪµáī°áĪ½": 5244,
      "ĠáĬķáīħáĮłáīµ": 5245,
      "áįĳáĪį": 5246,
      "áĬķáĭķ": 5247,
      "áĬķáĮĥ": 5248,
      "áĪĿáĪ®": 5249,
      "áī°áĪĵ": 5250,
      "ĠáĪĪáĮįáĪŃ": 5251,
      "ĠáĪĪáĮĪáĪį": 5252,
      "ĠáĪĪáĭĭáĪį": 5253,
      "áī¥áīħ": 5254,
      "áīłáĪĪáĭį": 5255,
      "ĠáĭĪáĭī": 5256,
      "ĠáĭĪáįİ": 5257,
      "áĪĺáĪī": 5258,
      "áĪ¨áĭĪ": 5259,
      "áĪµáĭ¨áīµ": 5260,
      "áĪµáĭĪáĪŃ": 5261,
      "áĬ¨áĪ½": 5262,
      "áĬ¨áīłáīµ": 5263,
      "ĠáĬłáī£áĭŃ": 5264,
      "áĭµáĬ¦": 5265,
      "áĭ°áĪ«áīµ": 5266,
      "ĠáĪĺáĪŃáĪĺ": 5267,
      "ĠáĪĺáĪł": 5268,
      "ĠáĬ¢áĪĵ": 5269,
      "áįįáĪ¨áīµ": 5270,
      "áĭĲáĭī": 5271,
      "áĭĲáĭĪáīµ": 5272,
      "áīĢáĬĴ": 5273,
      "áīĢáīĨ": 5274,
      "ĠáīµáĪ¨áĪ°áĭĲ": 5275,
      "áĬĵáĭ²": 5276,
      "áĬ¥áĮį": 5277,
      "ĠáĪįáĬ«": 5278,
      "ĠáĪįáī°áĪŃ": 5279,
      "ĠáĪįáĪµáĪĺ": 5280,
      "ĠáĬ¥áīµáĪķ": 5281,
      "áĮįáĭŃ": 5282,
      "áĮįáĬ¥": 5283,
      "áĮįáĪĦ": 5284,
      "áįĪáĭ®áĪĿ": 5285,
      "áĪ«áĮħ": 5286,
      "áĭ«áīµáĬ¨": 5287,
      "áĭ«áīµáĪĪ": 5288,
      "áī£áīµáĬĲ": 5289,
      "áī³áĪĮ": 5290,
      "áĪĭáĪĽ": 5291,
      "áĪĭáĪĤ": 5292,
      "ĠáĬ¨áī³": 5293,
      "ĠáĬ¨áĪļ": 5294,
      "ĠáĬ¨áĪĪáĪµ": 5295,
      "áĬ«áĪĥ": 5296,
      "ĠáĪĪáĬłáĪŃáĬ¤": 5297,
      "áĭĪáĮłáĬķ": 5298,
      "áĭ©áī¥": 5299,
      "áĪ½áĮį": 5300,
      "áĮłáĪĪ": 5301,
      "áĮłáĮłáīµ": 5302,
      "áĬ©áīłáīµ": 5303,
      "áĬ©áĪĨáĪĿ": 5304,
      "áĭĭáĪµ": 5305,
      "áĪªáĪį": 5306,
      "áĪ³áĪ°": 5307,
      "áĮ¥áĭķ": 5308,
      "áĮ¥áĮł": 5309,
      "áĮĪáĪħ": 5310,
      "áĪĪáĪľ": 5311,
      "áĮ½áĪĸáĪĿ": 5312,
      "áĪ©áĬķ": 5313,
      "áĪ©áĪ±": 5314,
      "ĠáĪĲáĪľ": 5315,
      "ĠáĪĲáĪŃáī¥": 5316,
      "ĠáĬĲáī¥": 5317,
      "ĠáĬĲáĬ£": 5318,
      "áĮ¸áĭ¨": 5319,
      "áĪ¸áĭķ": 5320,
      "áĪ¸áĪ¨áīµ": 5321,
      "ĠáĪĿáĪĶ": 5322,
      "ĠáĭĪáĪĪáī¥": 5323,
      "ĠáīłáĪĲáĪŃ": 5324,
      "ĠáĭĲáĪĪáĪĿ": 5325,
      "áĭ´áĪķ": 5326,
      "áĭīáĭŃ": 5327,
      "áī´áĪĺ": 5328,
      "ĠáĬŃáĪ±": 5329,
      "ĠáĪĪáĬ¢áĭ°": 5330,
      "áĭ²áĪĿ": 5331,
      "ĠáĬ£áĭµ": 5332,
      "ĠáĬ£áī¡": 5333,
      "áĪĵáĪģ": 5334,
      "ĠáĭĪáĪĺáī³": 5335,
      "ĠáĪµáĪĻ": 5336,
      "ĠáĪµáī²": 5337,
      "ĠáĭŃáĪķ": 5338,
      "ĠáīĢáĭµ": 5339,
      "ĠáīĢáĪŃáīł": 5340,
      "áĭ±áĮį": 5341,
      "Ġáī¥áĪ¬": 5342,
      "Ġáī¥áĮ£": 5343,
      "ĠáĬ¢áĪįáĮ½": 5344,
      "ĠáĬ¥áĬķáĭ³": 5345,
      "ĠáĪ¨áĭŃ": 5346,
      "ĠáĭĪáĪįáįį": 5347,
      "ĠáĪĪáĪĺáĭĲ": 5348,
      "ĠáĪĪáĪĺáĪĢ": 5349,
      "áĬĶáĪŃ": 5350,
      "áĬłáīµáįĭ": 5351,
      "áĪ²áĪĿ": 5352,
      "ĠáĮįáĪµ": 5353,
      "Ġáīĭ": 5354,
      "ĠáĮĪáīłáĭŃ": 5355,
      "ĠáĭĪáīµáĭ°": 5356,
      "ĠáĪĵáĪĪ": 5357,
      "ĠáįĪáīµ": 5358,
      "ĠáįĪáĭ³": 5359,
      "ĠáĬ«áĭŃ": 5360,
      "ĠáĭµáĪķ": 5361,
      "ĠáĪĺáīµáĭ³": 5362,
      "ĠáĪĺáīµáīĥ": 5363,
      "Ġáĭĺáīł": 5364,
      "áĬ¡áĬĲ": 5365,
      "áĮ»áĮĪáĪĿ": 5366,
      "Ġáĭĵáįįáĭ¨áīµ": 5367,
      "ĠáĮłáįį": 5368,
      "áĪ´áĭķ": 5369,
      "ĠáĪĪáĪ°áĪĿáĭĲ": 5370,
      "ĠáĪĪáĪįáīµáĭ°": 5371,
      "ĠáĬłáĪįáĭĲ": 5372,
      "ĠáĪĭáĭŃ": 5373,
      "Ġáī³áĬ¥": 5374,
      "áĬŃáĪĿáī±": 5375,
      "ĠáĪĪáĬ¨áīµ": 5376,
      "áĭĴáī±": 5377,
      "ĠáīµáĪ°áĬłáĪĪ": 5378,
      "ĠáĮĭáĪ»": 5379,
      "ĠáĪļáīµ": 5380,
      "áĪ¨áĬ¨áīł": 5381,
      "ĠáĬ¦áĪ®": 5382,
      "ĠáĪĪáĪĪáĪĺ": 5383,
      "ĠáĬ¥áĪĿáīł": 5384,
      "áĪĪáĪĲáīµ": 5385,
      "áī°áĪĿáĬĶ": 5386,
      "áīªáī½": 5387,
      "áĪ¨áĬŃáīł": 5388,
      "ĠáĭĪáĮłáĬķ": 5389,
      "áĭµáĪķáĬķ": 5390,
      "ĠáįķáĪĭ": 5391,
      "áĬĲáĪĲáĬ¨": 5392,
      "ĠáĬłáīµáĪĺáĮ£": 5393,
      "áīµáĪĲáĭĿáĭ®áĪĿ": 5394,
      "áĪĪáĪİáīµ": 5395,
      "áĪ·": 5396,
      "áĬħ": 5397,
      "áĭĥ": 5398,
      "áīµáĭķ": 5399,
      "Ġáĭª": 5400,
      "áĬķáĬ¬": 5401,
      "áīłáĭ°": 5402,
      "ĠáĭĪáĭĪáĭµ": 5403,
      "áĪĺáĭĪ": 5404,
      "áĪĺáīµáĪĺ": 5405,
      "áĪ¨áī£": 5406,
      "áĪ¨áĮĪ": 5407,
      "áĬ¨áĭī": 5408,
      "áĭ°áįĭ": 5409,
      "ĠáĪĪáĪĨ": 5410,
      "áĬŃáĭį": 5411,
      "áĬŃáĭĭ": 5412,
      "áĬŃáĪ³": 5413,
      "áīµáĪģ": 5414,
      "áīµáĪĶ": 5415,
      "ĠáĬ¢áĪ¨áĬ¤": 5416,
      "áĭįáĪĪáīµ": 5417,
      "áĭĲáĪ¬": 5418,
      "áĪ°áīµáĬĲ": 5419,
      "áĪ°áĪĭáĪĿ": 5420,
      "ĠáīµáīłáĪ¨": 5421,
      "áĬĵáĪ°": 5422,
      "ĠáĪįáĮĪ": 5423,
      "ĠáĪįáĪŃáĬ¨": 5424,
      "áĮįáĬ¨": 5425,
      "áĪĲáīĢ": 5426,
      "áįĪáĬ¨áĪŃ": 5427,
      "Ġáī°áĬķáĬ¨": 5428,
      "áĪ«áĪĽ": 5429,
      "áĪ«áīµáĬĲ": 5430,
      "áī£áĬ¨": 5431,
      "áī£áīµáĬ¨": 5432,
      "áĪĭáĭķ": 5433,
      "áĪĭáĮ¥": 5434,
      "ĠáĬ¨áĭ«": 5435,
      "ĠáĬ¨áĪĵ": 5436,
      "ĠáĪĪáĬłáĪµáĬ¥": 5437,
      "áĭ³áĮį": 5438,
      "áĭ³áĪ«áīµ": 5439,
      "áĪĽáīµáĪĺ": 5440,
      "áĪħáĭ¶": 5441,
      "áĪħáĪĪáīµ": 5442,
      "áĮĪáī£": 5443,
      "áĭĿáī±": 5444,
      "áĮ¥áĪĪ": 5445,
      "áĮ¥áĪ½": 5446,
      "áįĪáĪī": 5447,
      "áĪ©áī¡": 5448,
      "ĠáĪĲáĭŃ": 5449,
      "ĠáĬĲáĪħ": 5450,
      "ĠáĬķáī°": 5451,
      "ĠáĬķáĭ°": 5452,
      "ĠáĬķáīµáĬĲ": 5453,
      "áĪ¸áĬĴ": 5454,
      "ĠáĪĿáī¥": 5455,
      "ĠáĪĪáĪįáĪĢáĭŃ": 5456,
      "áĬ£áĪĭáīµ": 5457,
      "áĪīáīµ": 5458,
      "áĭĪáĪ´": 5459,
      "áĭĪáĪħ": 5460,
      "áĬªáĭµ": 5461,
      "ĠáĭĪáĪĪáĬķ": 5462,
      "ĠáĭĪáĪĪáĮł": 5463,
      "ĠáĭĪáĪĪáīµáĬĲ": 5464,
      "áĮĭáĪľ": 5465,
      "ĠáīłáĪ¸": 5466,
      "ĠáīłáĪĪáĪµ": 5467,
      "ĠáĭĲáīł": 5468,
      "áī¦áī¶áĪĿ": 5469,
      "ĠáĭĪáĬłáī¡": 5470,
      "áĭ´áĪŃ": 5471,
      "áĭīáĬķ": 5472,
      "ĠáĪĪáĬ¢áīµáĪĲ": 5473,
      "ĠáĬ£áĬł": 5474,
      "ĠáĬ£áĮį": 5475,
      "Ġáĭ°áī¥áĬł": 5476,
      "ĠáīµáĪ®": 5477,
      "ĠáĪµáĬĲ": 5478,
      "ĠáĪµáĪµ": 5479,
      "ĠáĪµáĬ®": 5480,
      "ĠáĪµáī´": 5481,
      "ĠáīĢáĬĵ": 5482,
      "áĭĽáĪį": 5483,
      "ĠáĪ¸áĬł": 5484,
      "ĠáĬ¥áĬķáĪ¨": 5485,
      "áīµáĬĲáīµ": 5486,
      "áī¢áī°": 5487,
      "áī¢áĪĪ": 5488,
      "áī¢áĬ¥": 5489,
      "ĠáĪ¨áīł": 5490,
      "ĠáĪ¨áĪµ": 5491,
      "ĠáĪ¨áĪ¸": 5492,
      "ĠáĪ¨áĬŃáīł": 5493,
      "áĬ¤áĪĿ": 5494,
      "áĪ±áĪį": 5495,
      "áĬĳáĭķ": 5496,
      "ĠáĪĽáĮ½": 5497,
      "áīłáĪŃáĪħ": 5498,
      "ĠáĪ³áī¥": 5499,
      "ĠáĪ³áĪķ": 5500,
      "ĠáĪĵáĪµ": 5501,
      "ĠáĪħáĬķ": 5502,
      "ĠáĪħáĮį": 5503,
      "Ġáĭµáĭĭ": 5504,
      "ĠáĪĪáĪĲáĪµ": 5505,
      "ĠáĭĪáī°áĪŃ": 5506,
      "ĠáĪĺáīµáĬ«": 5507,
      "ĠáĪĺáīµáĮ¸": 5508,
      "ĠáĭĺáĬĲ": 5509,
      "ĠáĪ½áĬŃ": 5510,
      "ĠáĪ½áīħáĪį": 5511,
      "áĭĳáĬĲ": 5512,
      "áĭĳáĭµ": 5513,
      "ĠáĮłáī£áĭŃ": 5514,
      "áī¥áĪŃáĬ¨": 5515,
      "áīģáī¥": 5516,
      "ĠáĮ¸áĭĲ": 5517,
      "ĠáĪĪáĪ°áĪŃ": 5518,
      "áĭļáīµ": 5519,
      "Ġáī³áĬŃ": 5520,
      "áĭ«áĪĿáĬĲ": 5521,
      "ĠáĪĥáĪŃ": 5522,
      "ĠáĬ¥áĪµáīµáĪ½": 5523,
      "áĭĮáĪķ": 5524,
      "áīłáī°áĭ¨": 5525,
      "áĪĭáĭŃáĪĺ": 5526,
      "ĠáĪ»áįį": 5527,
      "áīłáĪ¨áī±": 5528,
      "ĠáĪ«áĭŃ": 5529,
      "áĭ³áĭŃáĪĿ": 5530,
      "áįĪáĪ¨áīµ": 5531,
      "ĠáĪĪáĪ¸áīĦ": 5532,
      "ĠáĬłáĪ°áĬł": 5533,
      "áĭ°áĪĿáĬķ": 5534,
      "áĭ°áĪĿáĭķ": 5535,
      "áīłáĪĪáĭ¨": 5536,
      "áĭĲáĪįáĪį": 5537,
      "áĪĿáĭĲáĭį": 5538,
      "áī°áĪįáĪĢ": 5539,
      "áĪ¨áĪ°áĭį": 5540,
      "áĪįáĭ¨áī°": 5541,
      "ĠáĬ¬áīµ": 5542,
      "ĠáĪĪáĬłáĪĿáĮ¸": 5543,
      "áĬ£áĪĿáĪ¨": 5544,
      "áįįáĪħáĪĺ": 5545,
      "áīµáĪ«áī°áĮħ": 5546,
      "áīµáĪ«áī°áĮĤ": 5547,
      "ĠáĭĪáĪĪáĪĪáĪĲ": 5548,
      "Ġáī¶áĪĿ": 5549,
      "áĬĻ": 5550,
      "áĬķáĬ«": 5551,
      "áĬķáĮ½": 5552,
      "áĪŃáĭĲ": 5553,
      "áĪŃáĪ¶": 5554,
      "áī°áī±": 5555,
      "ĠáĪĪáī¦": 5556,
      "áĪįáĪĽ": 5557,
      "áĪįáī¡": 5558,
      "áĪįáī¦": 5559,
      "áī¥áĮ¦": 5560,
      "ĠáĭĪáī±": 5561,
      "ĠáĭĪáī¡": 5562,
      "ĠáĭĪáĬ¡": 5563,
      "ĠáĭĪáīģ": 5564,
      "ĠáĭĪáĭĮ": 5565,
      "ĠáĭĪáĬķáĪµ": 5566,
      "ĠáĭĪáĬ«áĪŃ": 5567,
      "áĬĲáĬĴ": 5568,
      "áĬĲáī¥áĪŃ": 5569,
      "áĬ¨áĪ®": 5570,
      "ĠáĬłáĪĲ": 5571,
      "ĠáĬłáĭ«": 5572,
      "ĠáĬłáĮĭ": 5573,
      "ĠáĬłáĪĨ": 5574,
      "ĠáĬłáĮįáĪŃ": 5575,
      "ĠáĭĪáĪī": 5576,
      "áĭµáĪĽ": 5577,
      "ĠáĪĪáĪĴ": 5578,
      "áĬŃáī¦áĪĿ": 5579,
      "ĠáĪĺáĭµáĪĲ": 5580,
      "áĭįáĬĳ": 5581,
      "áĭĲáĪ®": 5582,
      "áīĢáĭĪ": 5583,
      "ĠáīµáīµáĪ³": 5584,
      "ĠáīµáīµáĪĭ": 5585,
      "ĠáīµáĪ¨áĪ°": 5586,
      "áĬĵáĭ°": 5587,
      "áĬĵáī°áĬķ": 5588,
      "áīħáĪ®": 5589,
      "áīħáīłáīµ": 5590,
      "ĠáĪįáĬ¢": 5591,
      "ĠáĬ¥áīµáĬĲ": 5592,
      "ĠáĬ¥áĮįáĪŃ": 5593,
      "áĮįáĪ«áĪĿ": 5594,
      "áĪĲáī¥": 5595,
      "áĪĲáĭ°": 5596,
      "áĪĲáĬĴ": 5597,
      "áĪĲáĪ¬": 5598,
      "Ġáī°áĬ«": 5599,
      "Ġáī°áįĭ": 5600,
      "áĪ«áĭ¬": 5601,
      "áĪ«áĭĬ": 5602,
      "áĪĭáīµáĪĺ": 5603,
      "áĪĭáīµáĪĪ": 5604,
      "áĪĭáĪ´": 5605,
      "ĠáĬ¨áĪª": 5606,
      "ĠáĬ¨áĪĺáĬķ": 5607,
      "áĪĢáĪ¨áīµ": 5608,
      "áĬ«áĪ©": 5609,
      "ĠáĪĪáĬłáĪŃáĬ¥": 5610,
      "áĭĪáĬ¨": 5611,
      "áĭ³áĭĪ": 5612,
      "áĮĪáĬł": 5613,
      "áĭĿáĭ¨áīµ": 5614,
      "áĮłáī°": 5615,
      "áĮłáĪ¨áĭį": 5616,
      "áĬ©áī¥": 5617,
      "áĭĭáĭµ": 5618,
      "áĭĭáĬŃ": 5619,
      "áĭĭáĭŃáĬķ": 5620,
      "áĪªáĪª": 5621,
      "áĪ³áī³áīµ": 5622,
      "áĪ³áĭµáĪŃ": 5623,
      "áĮ¥áĪĺ": 5624,
      "ĠáĪ°áĭ°": 5625,
      "ĠáĪ°áĭĵ": 5626,
      "ĠáĪ°áĬĶ": 5627,
      "ĠáĪ°áĪĪáĪĺ": 5628,
      "áĪ©áīħ": 5629,
      "ĠáĪĪáīµáīµáĪĺ": 5630,
      "áĭ®áĪŃ": 5631,
      "ĠáĬĲáĭ°": 5632,
      "ĠáĬĲáĭĽ": 5633,
      "áīĥáĪĿáīµ": 5634,
      "ĠáĬķáĪĵ": 5635,
      "ĠáĪĿáĪ³": 5636,
      "ĠáĪĿáĮįáī¥": 5637,
      "áĪīáī¡": 5638,
      "áĭĪáĪĢ": 5639,
      "áĬªáĪį": 5640,
      "áĬªáī¶": 5641,
      "áĬªáĪģ": 5642,
      "ĠáĭĪáĪĪáĮĢ": 5643,
      "áĮĭáī³áīµ": 5644,
      "ĠáīłáĬł": 5645,
      "ĠáīłáĪĬ": 5646,
      "ĠáīłáĪŃáĬ¨": 5647,
      "áĪ¬áĪŃ": 5648,
      "áĪĻáĪ¨": 5649,
      "ĠáĭĪáĪĺáĭį": 5650,
      "ĠáĬ¢áīµáĮ¸": 5651,
      "ĠáĬ¢áīµáīµáĪĺ": 5652,
      "ĠáĪµáīµ": 5653,
      "ĠáĭŃáĬ£": 5654,
      "ĠáĪķáĮį": 5655,
      "ĠáĪķáĪĭ": 5656,
      "Ġáī¥áĪµ": 5657,
      "ĠáĪ¸áĮį": 5658,
      "ĠáĬ¥áĬķáīł": 5659,
      "ĠáĪ¨áįį": 5660,
      "áī°áĬķáĪĺ": 5661,
      "áĭ®áĪĿáī±": 5662,
      "áĪļáĪ¨": 5663,
      "ĠáĭĪáīµáĭĪ": 5664,
      "áīłáĪŃáī±": 5665,
      "ĠáĮĢáĬķ": 5666,
      "ĠáĪĵáĪ¨": 5667,
      "ĠáįĪáī³": 5668,
      "ĠáĪħáĭ©": 5669,
      "ĠáĭĪáī°áĭķ": 5670,
      "Ġáīµáīµáīĥ": 5671,
      "ĠáĭįáĪĭáĭµ": 5672,
      "ĠáĪĪáĪĪáĬłáīł": 5673,
      "ĠáĬĵáīħ": 5674,
      "ĠáĬ¤áĪĪáĬŃ": 5675,
      "áĪİáĪĿáī±": 5676,
      "ĠáĬłáĪŃáĬ¥": 5677,
      "áī¥áĪĪáĬĲ": 5678,
      "áĭĮáĬĲ": 5679,
      "ĠáĬłáįįáĮĪáĪ¨": 5680,
      "ĠáĪĪáĪįáĬłáī°": 5681,
      "áĭĪáĪŃáĪµ": 5682,
      "ĠáĪĺáĬķáī°": 5683,
      "áĪ°áĪįáįį": 5684,
      "Ġáĭ²áĪŀ": 5685,
      "áĬłáĪ°áįį": 5686,
      "ĠáĪĪáĪĪáĪĿ": 5687,
      "ĠáĪĪáĪĪáĪŃ": 5688,
      "áĭĲáĪįáĬĲ": 5689,
      "áĪŃáĭ¨áī±": 5690,
      "ĠáĭĪáĪįáīµáįĭ": 5691,
      "áĪĪáī¥áĬ¨": 5692,
      "ĠáĬ©áĪī": 5693,
      "Ġáī´áĬŃáĬĸ": 5694,
      "áĭĪáĭµáĭ¨": 5695,
      "ĠáĪĪáĮ¸áī¥áĮł": 5696,
      "áĬłáĬ¨áĭµ": 5697,
      "áĮĨáīµ": 5698,
      "áĮĪáĪĺáĭį": 5699,
      "ĠáĬłáĮ½áīł": 5700,
      "áĪµáī³áĭĿ": 5701,
      "ĠáĪĪáĬłáī¥áĮ¸áĪĲ": 5702,
      "ĠáĪįáĪĿáĮ¸": 5703,
      "ĠáĬłáīµáĪĺáīĥ": 5704,
      "ĠáīµáĬķáįĭ": 5705,
      "ĠáīµáĪĭáĬ¬": 5706,
      "áĮĪáĪªáīµ": 5707,
      "ĠáīĢáĭ°áĪľ": 5708,
      "áĪĿáįķáĭ®áĬķ": 5709,
      "áĬķáĭ«áīµ": 5710,
      "áĪĿáĬĵ": 5711,
      "áĪĿáĮħ": 5712,
      "áĪŃáĪĽ": 5713,
      "áĪŃáĬ©áĪĿ": 5714,
      "áī°áĭĪ": 5715,
      "áī°áĪİ": 5716,
      "ĠáĪĪáĭĪáĪµ": 5717,
      "ĠáĭĪáĮĪáī¥": 5718,
      "ĠáĭĪáĮįáĪ«": 5719,
      "ĠáĭĪáĭĪáĪ«": 5720,
      "áĪĺáĭŃ": 5721,
      "áĪĺáĪ¨áĭį": 5722,
      "áĪ¨áĪ«": 5723,
      "áĪ¨áĪ®": 5724,
      "áĪ¨áĭ´": 5725,
      "áĪ¨áĪ°áīµ": 5726,
      "áĪµáĪĽ": 5727,
      "áĪµáī°áĬķ": 5728,
      "áĬ¨áĭµ": 5729,
      "ĠáĬłáĬĸ": 5730,
      "ĠáĬłáĪ²": 5731,
      "ĠáĬłáĪł": 5732,
      "áĪĪáĬĵ": 5733,
      "áĪĪáĬłáīµ": 5734,
      "ĠáĭĪáĪİ": 5735,
      "áĭµáĬ©áĪĿ": 5736,
      "áĭ°áĪĺáīµ": 5737,
      "ĠáĪĪáĪĬ": 5738,
      "ĠáĪĺáī°áĪŃ": 5739,
      "áĭįáĪ½": 5740,
      "áīĢáīµáĪĪ": 5741,
      "áĪ°áī´": 5742,
      "áĬĵáĭķ": 5743,
      "áīħáĪĪáīµ": 5744,
      "áīħáĭ°áĪ¨": 5745,
      "ĠáĪįáįĪ": 5746,
      "ĠáĪįáĭĺ": 5747,
      "ĠáĪįáĮ£": 5748,
      "ĠáĬ¥áĪŃáīµ": 5749,
      "áĭķáĪ¨": 5750,
      "áĮįáī¡": 5751,
      "áĪĲáĪµ": 5752,
      "áĪĲáĭ©": 5753,
      "Ġáī°áī°": 5754,
      "Ġáī°áĭµ": 5755,
      "áĪ«áĪ«": 5756,
      "áĪ«áĪ®": 5757,
      "áĪ«áīłáī¥": 5758,
      "áī£áĪ¬": 5759,
      "áī£áī¶áĪĿ": 5760,
      "áī£áīłáīµ": 5761,
      "áī³áī¼": 5762,
      "áĪĭáī³": 5763,
      "áĪĭáĪĨáĪĿ": 5764,
      "ĠáĬ¨áĭ¨": 5765,
      "ĠáĬ¨áĪĪáĪį": 5766,
      "ĠáĬ¨áī°áī¥": 5767,
      "áĪķáĪĪ": 5768,
      "áĪķáĪĺáīµ": 5769,
      "áĪĢáĪĪáīµ": 5770,
      "áĭ³áĪ¨áīµ": 5771,
      "áĪĽáīµáĬĲ": 5772,
      "áĪĽáĬĸáīµ": 5773,
      "áĬ¢áĬĲ": 5774,
      "áĪħáī¥": 5775,
      "áĪħáĭĪ": 5776,
      "áĪħáĭ¨áīµ": 5777,
      "áĪ½áĭµ": 5778,
      "áĭĿáĭĸ": 5779,
      "áĮłáĬĳ": 5780,
      "áĬ©áĪī": 5781,
      "áī¡áĪ¨": 5782,
      "áī¡áĪĭ": 5783,
      "áī¡áĪķ": 5784,
      "áĮħáĬ¨": 5785,
      "áĮ¥áĬ¥": 5786,
      "áįĪáĪ³": 5787,
      "áįĪáĪĮ": 5788,
      "ĠáĪ°áĪĪ": 5789,
      "ĠáĪ°áĪįáįį": 5790,
      "ĠáĪĲáĮį": 5791,
      "ĠáĪĲáįĭ": 5792,
      "ĠáĪĲáĮ½": 5793,
      "ĠáĬĲáĪ²": 5794,
      "áīĥáĪĪ": 5795,
      "ĠáĬķáĬ¡": 5796,
      "áĪ¸áī¥": 5797,
      "áĭĪáĪ©": 5798,
      "áĮĭáĭ°": 5799,
      "áĮĭáĭĿ": 5800,
      "ĠáīłáĪķ": 5801,
      "ĠáĭĲáĪĽ": 5802,
      "ĠáĭĲáĬķáīĢ": 5803,
      "ĠáĭĲáĪµáĬ¨": 5804,
      "áī¦áĬķ": 5805,
      "áī¦áĭķ": 5806,
      "áĪİáĪī": 5807,
      "ĠáĪįáīµáĮ¨": 5808,
      "áĭīáĬ¨": 5809,
      "ĠáĬŃáįĭáĪį": 5810,
      "áī¤áĪĭ": 5811,
      "ĠáĪĪáĬ¢áĬł": 5812,
      "Ġáĭ°áīĤ": 5813,
      "ĠáīµáĪĦ": 5814,
      "ĠáĬ¢áīµáīµáĬĲ": 5815,
      "ĠáĪµáĭµ": 5816,
      "Ġáī°áĬłáĪµáĬ¥": 5817,
      "áīµáĪĲáīµ": 5818,
      "ĠáīĢáĪ¨áī¥": 5819,
      "ĠáĪķáĪŃáĭ«": 5820,
      "áĭ±áĬķ": 5821,
      "áĭ±áĪµ": 5822,
      "Ġáī¥áĭĻ": 5823,
      "ĠáĬ¢áĪįáīµáĪĢ": 5824,
      "áĭ¶áī³áīµ": 5825,
      "áī³áīµáĪĪ": 5826,
      "ĠáĪĢáĪĿ": 5827,
      "ĠáĪĪáĪĺáĭµ": 5828,
      "ĠáĪĪáĪĺáĬĵ": 5829,
      "áĮĥáĪį": 5830,
      "ĠáĭķáĮ¨": 5831,
      "áĪļáĬĵ": 5832,
      "áīłáĪŃáīµ": 5833,
      "ĠáĭĪáĬ¥áī¥": 5834,
      "ĠáĪ³áĭĲ": 5835,
      "ĠáĬłáīµáīĢ": 5836,
      "ĠáįįáĪª": 5837,
      "ĠáĮĢáĭį": 5838,
      "ĠáĭµáĪĻ": 5839,
      "ĠáĪĪáĪĲáĪįáįĪ": 5840,
      "ĠáĭĪáī°áĬ¥": 5841,
      "áĬ¬áĪŃ": 5842,
      "ĠáīħáĮ¥": 5843,
      "ĠáĪĺáīµáĬ£": 5844,
      "áĬ¦áī±": 5845,
      "ĠáĪ½áĪį": 5846,
      "ĠáĪ½áĪĽ": 5847,
      "áĭ°áĪŃáĪ¶": 5848,
      "áīĨáīħ": 5849,
      "ĠáĪĻáĪ½": 5850,
      "ĠáĮĪáĪĬ": 5851,
      "ĠáĭĪáĪ°áĪį": 5852,
      "ĠáĭĪáĪ°áĭĭ": 5853,
      "áīłáĪįáĪµ": 5854,
      "ĠáĬ¥áīµáĭĲ": 5855,
      "Ġáī³áĭį": 5856,
      "ĠáįĪáĪ¬": 5857,
      "ĠáįĪáĪħ": 5858,
      "ĠáįĪáĪĭ": 5859,
      "ĠáĬ¤áĬŃáĪµ": 5860,
      "ĠáĬłáĪŃáīł": 5861,
      "ĠáĬ®áĪļ": 5862,
      "áĬķáĭ°áĬķ": 5863,
      "áĬķáĭ°áīĢ": 5864,
      "áĬķáĮįáĪĬ": 5865,
      "áįĪáīµáĭ©": 5866,
      "ĠáĭĪáĪĪáĬłáĪĿ": 5867,
      "áī¥áĪ¨áĬĴ": 5868,
      "áĭµáĪ¨áī±": 5869,
      "ĠáĭĪáĪµáĭ«": 5870,
      "áĭ°áĭįáĪŃ": 5871,
      "ĠáĮ¥áĬķ": 5872,
      "ĠáĪĪáĬ£áĬł": 5873,
      "áīłáĪĪáĭķ": 5874,
      "áĭĲáĪįáĪĿ": 5875,
      "ĠáĭĪáĭķáĬķ": 5876,
      "áĪĪáī¥áĪµ": 5877,
      "áĪĺáĪ¨áĭ¨": 5878,
      "áīªáĬķ": 5879,
      "áĪŃáĬ¤áĬ¨": 5880,
      "ĠáĭĪáĪ³áĪį": 5881,
      "ĠáĭĪáĪ³áĭŃ": 5882,
      "áĪ¨áĭ¨áĪķ": 5883,
      "ĠáĭĪáĪĪáĬ¢áĪįáīµ": 5884,
      "áĬłáĪĪáī¡": 5885,
      "ĠáįĵáĪ«": 5886,
      "ĠáįĸáĪĬ": 5887,
      "áįįáĪħáĪĻ": 5888,
      "ĠáĬ¢áĮ¸áĬķáĪĲ": 5889,
      "ĠáĪĢáī¥áī´": 5890,
      "áīĴ": 5891,
      "áīĸ": 5892,
      "áĬŀ": 5893,
      "áīµáĭĲ": 5894,
      "áĬķáĪ²": 5895,
      "áĬķáĭ°áĪŃ": 5896,
      "áĪĿáĭĸáĪĿ": 5897,
      "áĪŃáĭĿ": 5898,
      "áĪŃáĭ®": 5899,
      "áĪŃáĬłáīµ": 5900,
      "áĪŃáĪ°áīµ": 5901,
      "ĠáĪĪáīµáĪĥ": 5902,
      "ĠáĪĪáįħ": 5903,
      "ĠáĪĪáĭĪáĪ¨": 5904,
      "áĬłáĪĪáīµ": 5905,
      "áĪįáīĢ": 5906,
      "áīłáĮłáīµ": 5907,
      "ĠáĭĪáī²": 5908,
      "ĠáĭĪáĮ»": 5909,
      "ĠáĭĪáĭľ": 5910,
      "ĠáĭĪáįĸ": 5911,
      "áĪĺáīµáĬ¨": 5912,
      "áĪ¨áĬ«": 5913,
      "áĪ¨áĪ¸": 5914,
      "áĪ¨áī¤": 5915,
      "áĪ¨áī¼": 5916,
      "áĪµáī¦": 5917,
      "áĭŃáĬł": 5918,
      "ĠáĬłáīµáĬĲ": 5919,
      "ĠáĬłáĮĥ": 5920,
      "áĪĪáĭ°": 5921,
      "áĪĪáįī": 5922,
      "áĪĪáĭ®áīµ": 5923,
      "áĭµáĭ±": 5924,
      "áĭ°áĭ¨áĬķ": 5925,
      "áĭ°áīħáī¥": 5926,
      "áĬŃáĪĺáīµ": 5927,
      "ĠáĪĺáĪĬ": 5928,
      "ĠáĪĺáĮŃ": 5929,
      "ĠáĪĺáī°áĪįáĪħ": 5930,
      "áįįáĭĵáĭŃ": 5931,
      "áīĢáī¦": 5932,
      "áīĢáĪİ": 5933,
      "áĪ°áĭµ": 5934,
      "áĪ°áĪ®": 5935,
      "áĪ°áīµáĪĪ": 5936,
      "áĪ°áĪ°áīµ": 5937,
      "ĠáīµáĪ¨áĭŃ": 5938,
      "ĠáīµáĮĪáĬķ": 5939,
      "áīħáĪĺáīµ": 5940,
      "ĠáĪįáĬķáĪ°": 5941,
      "ĠáĬ¥áī¡": 5942,
      "ĠáĬ¥áīµáĪĪáĪ": 5943,
      "áĭķáĪİ": 5944,
      "áĮįáĪŀ": 5945,
      "áįĪáĭĲáĭį": 5946,
      "áįĪáĮįáĪ¨": 5947,
      "Ġáī°áĪ¸": 5948,
      "áĭ«áĪĪ": 5949,
      "áī£áĪ½": 5950,
      "áī£áīµáĪĪ": 5951,
      "áī³áĭĬ": 5952,
      "ĠáĬ¨áĭį": 5953,
      "ĠáĬ¨áĪĮ": 5954,
      "áĪķáĭ¨áīµ": 5955,
      "áĬĴáī³áīµ": 5956,
      "áĪĽáĬ¨": 5957,
      "áĬ¢áī±": 5958,
      "áĪ½áĪ®": 5959,
      "áĪ½áĪ¸": 5960,
      "áĮłáĪ«": 5961,
      "áĮłáĭ©": 5962,
      "áĮłáĭĪáĪŃ": 5963,
      "áĬ©áĪµ": 5964,
      "áĬ©áĭĪáĬķ": 5965,
      "áĪªáĬĵ": 5966,
      "áĪªáĬ®": 5967,
      "áĪ³áĭ©": 5968,
      "áįĭáĪ©": 5969,
      "áįĭáĪī": 5970,
      "ĠáĪ°áīµ": 5971,
      "ĠáĪ°áĬŃ": 5972,
      "áĮĪáĪĬ": 5973,
      "áĪĪáĪª": 5974,
      "áĪ®áī¥": 5975,
      "ĠáĪĪáīµáĮ¨": 5976,
      "ĠáĪĲáĪ©": 5977,
      "ĠáĬĲáĪŃ": 5978,
      "áĮĢáĬŃ": 5979,
      "áĮ¸áĭķ": 5980,
      "áīĥáĭµ": 5981,
      "áĭĵáĪĪ": 5982,
      "áĭĵáī¶áĪĿ": 5983,
      "áĭĵáĭĬ": 5984,
      "ĠáĪĿáĪµáīµ": 5985,
      "áĪĮáĪĢ": 5986,
      "Ġáīłáĭ¨": 5987,
      "ĠáīłáĮ£": 5988,
      "ĠáĭĲáĪµ": 5989,
      "ĠáĭĲáĮŃ": 5990,
      "ĠáĭĪáĬłáĮħ": 5991,
      "ĠáĭĪáĬłáī°áĬķ": 5992,
      "ĠáĪįáīµáĪĪ": 5993,
      "áĭīáīµ": 5994,
      "áĭīáĪį": 5995,
      "ĠáĬŃáĪħ": 5996,
      "ĠáĬŃáĪ½": 5997,
      "ĠáĬŃáĪ©": 5998,
      "áĪĻáĭŃ": 5999,
      "ĠáĪĪáĬ¢áĪĪáĪĢ": 6000,
      "ĠáĬ£áĪ³": 6001,
      "ĠáĭĪáĪĺáī£": 6002,
      "ĠáĬ¢áīµáīµáĪĢ": 6003,
      "ĠáĪµáĬ¨": 6004,
      "ĠáĪµáĭĭ": 6005,
      "Ġáī°áĬłáīµáĪĵ": 6006,
      "ĠáĭŃáĬłáĪµ": 6007,
      "ĠáīĢáī¥": 6008,
      "ĠáĪķáĪ«": 6009,
      "ĠáĪķáĭ³": 6010,
      "ĠáĪķáĬŃáĪĿ": 6011,
      "Ġáī¥áĪī": 6012,
      "ĠáĪ¸áĭĭ": 6013,
      "ĠáĪĪáī°áĪĿ": 6014,
      "ĠáĪĪáī°áĪĥ": 6015,
      "ĠáĬ¢áĪįáĬ¥": 6016,
      "ĠáĬ¥áĬķáĮĢ": 6017,
      "áĬĸáī°": 6018,
      "ĠáĪ¨áĭµ": 6019,
      "ĠáĪ¨áĭĭ": 6020,
      "ĠáĪĢáĪĮ": 6021,
      "áĪĨáī±": 6022,
      "áĪ±áĭŃ": 6023,
      "áĪ±áĬ¡": 6024,
      "ĠáĮįáī¥": 6025,
      "ĠáĮĪáĭ°": 6026,
      "ĠáĮĪáĬĸ": 6027,
      "ĠáĭĪáīµáīµáĪĲ": 6028,
      "ĠáĪ³áĬŃ": 6029,
      "ĠáĪ³áĪĿáĬķ": 6030,
      "ĠáĪ³áĪ¨áĪĲ": 6031,
      "ĠáĪ³áĪįáĪķ": 6032,
      "ĠáĪĵáĪĪáįį": 6033,
      "ĠáĬ«áīµ": 6034,
      "ĠáĬ«áĪ«": 6035,
      "ĠáĭĪáī°áīħ": 6036,
      "ĠáĭĺáĪŃáĬ¥": 6037,
      "áįīáĬĲ": 6038,
      "áĬ¡áĬĴ": 6039,
      "ĠáĪĪáĬ¥áĬĲ": 6040,
      "áĪľáĬ¨": 6041,
      "ĠáĬłáĪµáĪĺáĭĲ": 6042,
      "Ġáī£áĬķ": 6043,
      "Ġáĭ¨áĬłáĪĿ": 6044,
      "ĠáĮłáī¥": 6045,
      "ĠáĮłáĪĿáĮł": 6046,
      "ĠáīµáīµáĭĪ": 6047,
      "áī¥áĪŃáĪĺ": 6048,
      "ĠáĬ¢áī°áĬłáĪĿ": 6049,
      "ĠáĪĪáĪĪáĬłáĬĲ": 6050,
      "ĠáĪĻáĭ°áĪŃ": 6051,
      "ĠáĮĪáĪĪáĪ": 6052,
      "ĠáĪĪáĪįáīµáī£": 6053,
      "ĠáĪĪáĪįáīµáįĭ": 6054,
      "áĮĬáĭµ": 6055,
      "áīµáĪ«áī´": 6056,
      "ĠáįĪáĪĪ": 6057,
      "áī¥áĪĪáĬ¨": 6058,
      "áī¦áĪĿáī±": 6059,
      "ĠáĪļáĬĴ": 6060,
      "áĪ¨áĬ¨áĭ¨": 6061,
      "áī¥áĪįáī±": 6062,
      "ĠáĬłáįįáĭĲ": 6063,
      "ĠáĪĪáĪĪáĪ°": 6064,
      "ĠáĬłáīħáĪĺáīµ": 6065,
      "áĪįáĬ¨áīµ": 6066,
      "ĠáĬłáĭįáĪĪáĭį": 6067,
      "ĠáĬ¢áĬĲáĪĲ": 6068,
      "áĪĿáĭĲáĬĲ": 6069,
      "áĬłáĭįáĬĲ": 6070,
      "áĮ¹áĪŃ": 6071,
      "áī«áĪį": 6072,
      "ĠáĬķáīµáĭĲ": 6073,
      "ĠáĬłáĭµáĪĺ": 6074,
      "áĪŃáĭ«áĪį": 6075,
      "áĪŃáĭ«áĭŃáīµ": 6076,
      "áĪįáĪĿáīµ": 6077,
      "áĪŃáĬ¤áĬĲ": 6078,
      "áĭĪáĭµáĭ©": 6079,
      "ĠáĬªáĪİ": 6080,
      "áīŃáĭ¨": 6081,
      "áĬ£áĪĿáĪ©": 6082,
      "áĪĪáĪ°áīµ": 6083,
      "áī¥áĭ°áĪĪ": 6084,
      "áĭĭáĮħáĪħ": 6085,
      "ĠáĮĬáĪµ": 6086,
      "áīµáĪĢáĭ¨áī¥": 6087,
      "Ġáĭ®áĪĿ": 6088,
      "ĠáĪĺáĭĭáĮ¥": 6089,
      "áĮįáĭķáĭĿ": 6090,
      "ĠáįįáĬķáĮĮ": 6091,
      "ĠáĭĪáĭ¨áĬł": 6092,
      "ĠáĬķáĬ¥áĪ½": 6093,
      "Ġáī°áĬ½áĪĮ": 6094,
      "áĬ²": 6095,
      "áĬķáįĪ": 6096,
      "áĪĿáĪī": 6097,
      "ĠáĪĪáĭ²": 6098,
      "ĠáĪĪáĭľ": 6099,
      "ĠáĪĪáī¥áĪŃ": 6100,
      "ĠáĪĪáĭ°áĪĿ": 6101,
      "ĠáĪĪáī£áĪį": 6102,
      "áī¥áĭ®": 6103,
      "áīłáĬĵ": 6104,
      "áīłáĪ®áīµ": 6105,
      "ĠáĭĪáĭĴ": 6106,
      "ĠáĭĪáĮģ": 6107,
      "áĪĺáĭī": 6108,
      "áĪĺáĪĪáīµ": 6109,
      "áĪ¨áĭĺ": 6110,
      "áĪ¨áĭ¶": 6111,
      "áĪ¨áĭŃáīµ": 6112,
      "áĬĲáĬł": 6113,
      "áĬĲáĭĲ": 6114,
      "áĬĲáĬ¥": 6115,
      "áĬ¨áĪ¨áĭį": 6116,
      "áĭŃáĪ±": 6117,
      "ĠáĬłáīłáĪŃ": 6118,
      "ĠáĬłáĮĦ": 6119,
      "áĪĪáīµáĬ¨": 6120,
      "áĪĪáīĢáīµ": 6121,
      "áĭµáĪĻ": 6122,
      "áĭ°áĭİ": 6123,
      "ĠáĪĪáĪļ": 6124,
      "áĬŃáĪİáĪĿ": 6125,
      "ĠáĪĺáĪ²": 6126,
      "ĠáĪĺáĪŃáīł": 6127,
      "ĠáĪĺáī°áĬł": 6128,
      "ĠáĬ¢áī³": 6129,
      "ĠáĬ¢áĪķ": 6130,
      "ĠáĬ¢áĬ«": 6131,
      "ĠáĬ¢áīµáĪĵ": 6132,
      "áĭ¨áĪ¨áīµ": 6133,
      "áįįáĭ¬": 6134,
      "áīĢáĪĺ": 6135,
      "áĪ°áĭĲ": 6136,
      "áĪ°áīµáĪĺ": 6137,
      "Ġáīµáĭ¨": 6138,
      "ĠáīµáĪŃáĬ¥": 6139,
      "áīħáĬ¨": 6140,
      "áīħáīµáĪ³": 6141,
      "ĠáĪįáĮ»": 6142,
      "ĠáĬ¥áī¤": 6143,
      "áĭķáĪ®": 6144,
      "áįĪáīµáĪĪ": 6145,
      "áįĪáĬŃáĪ¨": 6146,
      "Ġáī°áĮĢ": 6147,
      "áĪ«áī°áĬķ": 6148,
      "áĭ«áĪ¨áīµ": 6149,
      "áī³áĭ¬": 6150,
      "áĪĭáĬ¨": 6151,
      "ĠáĬ¨áĮ¸": 6152,
      "áĪķáįį": 6153,
      "áĪĢáī¶áĪĿ": 6154,
      "áĬ«áīł": 6155,
      "áĭĪáĬĲáĭį": 6156,
      "áĪĽáĪ«": 6157,
      "áĪĽáĭĲáīµ": 6158,
      "áĮĪáĬĵ": 6159,
      "áī¶áī±": 6160,
      "áĭĿáīł": 6161,
      "áĭĿáĪŀ": 6162,
      "áĭĿáĪĸ": 6163,
      "áĮłáĬ¨": 6164,
      "áĮłáĭ¨": 6165,
      "áĮłáĬ¥": 6166,
      "áī¡áĪĪ": 6167,
      "áĮħáĪİ": 6168,
      "áįĭáĬ¥": 6169,
      "ĠáĪ°áĬĵ": 6170,
      "ĠáĪ°áīłáīµ": 6171,
      "ĠáĪ°áįĬ": 6172,
      "ĠáĪ°áĬķáĭ°": 6173,
      "áĪĪáĪģ": 6174,
      "ĠáĪĪáīµáĭĵ": 6175,
      "ĠáĪĲáĮħ": 6176,
      "ĠáĪĲáī¥áĭĲ": 6177,
      "ĠáĬĲáĪµáĬ¥": 6178,
      "áĭĵáĪŀ": 6179,
      "ĠáĪĿáĪĿ": 6180,
      "áĬ£áĪģ": 6181,
      "áĪīáĪī": 6182,
      "ĠáĭĪáĪĪáīµáĪĺ": 6183,
      "áĮĭáĬĲ": 6184,
      "Ġáīłáīħ": 6185,
      "ĠáīłáĪ½": 6186,
      "ĠáīłáĪĥ": 6187,
      "ĠáĭĲáĪ¸": 6188,
      "áī¦áĪ¨": 6189,
      "áĪİáĪīáĪĿ": 6190,
      "ĠáĭĪáĬłáĬ«": 6191,
      "ĠáĭĪáĬłáĪ³": 6192,
      "ĠáĭĪáĬłáĮ¥": 6193,
      "ĠáĬŃáĪ°": 6194,
      "áī¤áĪŃ": 6195,
      "ĠáĬ£áĪ¨": 6196,
      "ĠáĭĪáĪĺáĪį": 6197,
      "Ġáĭ°áĪĲáĬķ": 6198,
      "ĠáĬ¢áīµáįį": 6199,
      "ĠáĬ¢áīµáĬ¥": 6200,
      "ĠáĪµáī°": 6201,
      "ĠáĪµáĪĮáĪĽáĬķ": 6202,
      "Ġáī°áĬłáįį": 6203,
      "ĠáĭŃáĪĵ": 6204,
      "ĠáīĢáīµáĪĪ": 6205,
      "áĭĽáĬĵ": 6206,
      "áĭ±áĮī": 6207,
      "áĪĥáĬĶ": 6208,
      "Ġáī¥áĪ½": 6209,
      "Ġáī¥áĮ½": 6210,
      "ĠáĪ¸áīĢ": 6211,
      "ĠáĬ¢áĪįáī¥": 6212,
      "ĠáĬ¥áĬķáī³": 6213,
      "ĠáĪ¨áĪĺ": 6214,
      "áī°áĬķáĬ¨áī¥": 6215,
      "ĠáĪĪáĪĺáĪĵ": 6216,
      "ĠáĭĪáĪĪáĪ½": 6217,
      "áĮĥáĮħ": 6218,
      "Ġáĭķáīħ": 6219,
      "ĠáĭķáĪī": 6220,
      "ĠáĭķáĮī": 6221,
      "áĬĳáĪµ": 6222,
      "áĬĳáĭµ": 6223,
      "ĠáĪĽáĬ¥": 6224,
      "ĠáĪĽáĪ½": 6225,
      "ĠáĮĪáī¥áĪŃ": 6226,
      "ĠáĭĪáīµáĭ³": 6227,
      "ĠáįįáĪİ": 6228,
      "ĠáįįáĬŃáĪŃ": 6229,
      "ĠáĪħáĪį": 6230,
      "ĠáĪħáĭ«": 6231,
      "ĠáĬ«áĬķ": 6232,
      "Ġáĭµáįį": 6233,
      "áĮ¨áĪ¨": 6234,
      "ĠáĪĪáĪĲáĭľ": 6235,
      "Ġáīħáĭµ": 6236,
      "ĠáĪĺáīµáĭĪ": 6237,
      "ĠáĪĺáīµáįĪáĪŃ": 6238,
      "áįīáĭŃ": 6239,
      "ĠáĪ½áĪŃ": 6240,
      "ĠáĪ½áīħ": 6241,
      "áĮ»áĪķ": 6242,
      "áĭĳáĪŃ": 6243,
      "ĠáĬłáĪµáĬ¥áĪĪ": 6244,
      "Ġáī£áĬŃ": 6245,
      "ĠáĭįáĪī": 6246,
      "áīĨáī±": 6247,
      "ĠáĪĪáĪ°áĪĿ": 6248,
      "ĠáĭĪáĪ°áĪĭ": 6249,
      "ĠáĪĭáĪį": 6250,
      "ĠáĪĪáĬłáīµáĬ«": 6251,
      "áĪ¨áĭįáĬĲ": 6252,
      "ĠáĮħáĮįáĪ«": 6253,
      "áĮĪáĪŃáĮĬáĪµ": 6254,
      "áĬķáĭµáĪį": 6255,
      "ĠáĪĪáī°áĬłáī°": 6256,
      "ĠáĪĪáī°áĬłáĬ¨": 6257,
      "ĠáĪĺáĪµáĬ¨": 6258,
      "ĠáĪĪáĪ¨áĬ¨": 6259,
      "ĠáĪĪáĪ¸áĪŃáĪĲ": 6260,
      "ĠáĬłáīħáīłáĪĪ": 6261,
      "áĬłáĪµáĬ¨": 6262,
      "áĬŃáĪįáĬ¤": 6263,
      "ĠáĬ¢áĬķáī°áĪŃ": 6264,
      "áĮ¢áĮ¥": 6265,
      "áĪĪáĪĪáĭ¨": 6266,
      "ĠáĭĪáĭķáĪĭ": 6267,
      "ĠáĭĪáĪįáīµáĭĲ": 6268,
      "áĮģáĪĿ": 6269,
      "ĠáĬ¨áĪĪáĬ¥": 6270,
      "Ġáī´áĪĪ": 6271,
      "Ġáī´áĪĮ": 6272,
      "áĭĪáĭµáīħ": 6273,
      "ĠáĬłáĪ½áīĥ": 6274,
      "Ġáĭĳáīķ": 6275,
      "áĭĪáĪµáĬŃ": 6276,
      "áīµáĪĲáĭľáĬĲ": 6277,
      "áĮ¸áī¥áĮ¡": 6278,
      "Ġáī°áĪĥáĮĮ": 6279,
      "áĭĿáĭ«áĪ¨áīµ": 6280,
      "áįĪáĬĵáī°áĭį": 6281,
      "áĪı": 6282,
      "áīĽ": 6283,
      "áīµáĬĵ": 6284,
      "áĬķáĬł": 6285,
      "áĬķáĮĬ": 6286,
      "áĪŃáĪ©": 6287,
      "áĪŃáĪ²": 6288,
      "ĠáĪĪáī¥áĭķ": 6289,
      "áĪįáįĭáĭŃ": 6290,
      "áī¥áī³áĭŃ": 6291,
      "ĠáĭĪáĭĪáĪĪ": 6292,
      "ĠáĭĪáĮĪáĪ¨": 6293,
      "ĠáĭĪáĭĵáĭŃ": 6294,
      "áĪĺáĪ°": 6295,
      "áĪĺáĭ¶": 6296,
      "áĬĲáĪį": 6297,
      "ĠáĬłáĬ½": 6298,
      "ĠáĭĪáĪº": 6299,
      "áĭ°áĭ°áĭį": 6300,
      "ĠáĪĪáĪ¼": 6301,
      "áĬŃáĪķ": 6302,
      "áīµáĪ¶": 6303,
      "ĠáĪĺáĭ°áĪ¨": 6304,
      "ĠáĪĺáĮº": 6305,
      "ĠáĬ¢áĬĴ": 6306,
      "ĠáĬ¢áĪ°áĪĿ": 6307,
      "áĭĲáĪ¨": 6308,
      "áĭĲáĪļáī¶": 6309,
      "áīĢáĪĪáĭį": 6310,
      "ĠáīµáĭĪáĪĲ": 6311,
      "ĠáīµáĭĽáī¤": 6312,
      "áīħáĪĭáĪį": 6313,
      "ĠáĬ¥áī£": 6314,
      "ĠáĬ¥áĮĪ": 6315,
      "ĠáĬ¥áĪ²": 6316,
      "ĠáĬ¥áīµáĪĵ": 6317,
      "ĠáĬ¥áĭµáĪª": 6318,
      "áĭķáīł": 6319,
      "áĭķáĭİ": 6320,
      "áįĪáĭŀ": 6321,
      "Ġáī°áĭĪáĪį": 6322,
      "áĪĭáĭĬ": 6323,
      "ĠáĬ¨áĭĿ": 6324,
      "ĠáĬ¨áĭĵ": 6325,
      "ĠáĬ¨áīµáĬ¨": 6326,
      "ĠáĬ¨áįĬ": 6327,
      "áĬ«áī¶áĪĿ": 6328,
      "ĠáĪĪáĬłáĭĺ": 6329,
      "ĠáĪĪáĬłáĪ»": 6330,
      "ĠáĪĪáĬłáĭµáĪ¨": 6331,
      "ĠáĪĪáĬłáīµáĪĥ": 6332,
      "ĠáĪĪáĬłáĪ°áī¥": 6333,
      "áĬĴáĬĴ": 6334,
      "áĪĽáī³": 6335,
      "áĪħáĪī": 6336,
      "áĮĪáī¥áĪŃ": 6337,
      "áĪ½áĭĲ": 6338,
      "áĪ½áīĦ": 6339,
      "áĭĭáī¥": 6340,
      "áĭĭáĬĳ": 6341,
      "áĭĭáĬĵáīµ": 6342,
      "áĬ®áĬ©áĪĿ": 6343,
      "áĪ³áī¶áĪĿ": 6344,
      "áī¡áĭµ": 6345,
      "áī¡áī¡": 6346,
      "áī¡áĮ¥": 6347,
      "áī¡áĪ¨áīµ": 6348,
      "áĮħáĪ¨": 6349,
      "áĮ¥áĭķáĪĿ": 6350,
      "áįĭáĬĶ": 6351,
      "áĭĺáĪŀ": 6352,
      "ĠáĪ°áĪī": 6353,
      "ĠáĪ°áĬłáĪį": 6354,
      "áĪ®áĬĲ": 6355,
      "áĪ®áĪķ": 6356,
      "áĮ½áĬłáīµ": 6357,
      "ĠáĪĪáīµáĬĵ": 6358,
      "ĠáĪĲáĭ³": 6359,
      "ĠáĪĲáī¥áĪ¬": 6360,
      "ĠáĬĲáĬ¨": 6361,
      "ĠáĬĲáĭĪ": 6362,
      "ĠáĬĲáĪ³": 6363,
      "ĠáĬĲáĪ°áĬ¥": 6364,
      "áĮ¸áī¥áĮ¥": 6365,
      "áīĥáĭĪáĪĺ": 6366,
      "ĠáĬķáĪŃ": 6367,
      "ĠáĬķáĪ¸": 6368,
      "ĠáĪĿáĪ´": 6369,
      "ĠáĪĿáĪįáĬŃ": 6370,
      "ĠáĪĪáĪįáĭĵ": 6371,
      "ĠáĪĪáĪįáīµáĪĢáĭ¨": 6372,
      "áĬ£áĭį": 6373,
      "áĬ£áĪĻ": 6374,
      "ĠáĭĪáĪĪáĭŃ": 6375,
      "ĠáīłáĬĲ": 6376,
      "ĠáīłáĪµ": 6377,
      "ĠáĭĲáįį": 6378,
      "ĠáĭĲáĮ½": 6379,
      "áĪİáī°": 6380,
      "ĠáĭĪáĬłáī£": 6381,
      "ĠáĪįáīµáĭĪáĪĪ": 6382,
      "áī´áī°": 6383,
      "áī´áĪĪ": 6384,
      "ĠáĬŃáī¥": 6385,
      "ĠáĬŃáĭ³": 6386,
      "ĠáĬŃáĪŃáĪµ": 6387,
      "áĪĻáĪĻ": 6388,
      "ĠáĪĪáĬ¢áĮł": 6389,
      "áĭ²áī¡": 6390,
      "ĠáĭĪáĪĺáĬ¨": 6391,
      "ĠáĭĪáĪĺáĭĭ": 6392,
      "ĠáĭĪáĪĺáīµáĪĺ": 6393,
      "Ġáĭ°áĪļ": 6394,
      "Ġáĭ°áĭĭáĭŃ": 6395,
      "ĠáĬ¢áīµáĪµ": 6396,
      "ĠáĪµáĮħ": 6397,
      "ĠáĪµáĭĬ": 6398,
      "áī²áī¥": 6399,
      "ĠáīĢáĪª": 6400,
      "áĭĽáĬĲ": 6401,
      "ĠáĪ¸áīħ": 6402,
      "ĠáĪ¸áĬķáĬ¨": 6403,
      "ĠáĪĪáī°áĪį": 6404,
      "ĠáĬ¢áĪįáĪ°": 6405,
      "ĠáĬ¢áĪįáīħ": 6406,
      "ĠáĬ¢áĪįáīµáĪĵ": 6407,
      "ĠáĬ¥áĬķáĮĪ": 6408,
      "ĠáĬ¥áĬķáĪ»": 6409,
      "ĠáĪĪáĪĪáĭĵ": 6410,
      "ĠáĪĢáĪį": 6411,
      "ĠáĪĢáĭį": 6412,
      "ĠáĪĢáĭ³": 6413,
      "áīłáīµáĬ©áĪĿ": 6414,
      "áĪĪáīµáī°": 6415,
      "ĠáīŃ": 6416,
      "ĠáĮĪáĬĵ": 6417,
      "ĠáĭĪáīµáĮĢ": 6418,
      "ĠáĪ³áĭ°áįĪ": 6419,
      "ĠáĬłáīµáįĭáĪŃ": 6420,
      "ĠáĬłáīµáĬłáĪĺ": 6421,
      "ĠáĬ«áĪª": 6422,
      "áĬ¬áĬķ": 6423,
      "Ġáīħáī¥": 6424,
      "ĠáĭĺáĪŃáĬł": 6425,
      "ĠáĪĪáĬ¥áĪµ": 6426,
      "áĮ»áĪį": 6427,
      "áĮ»áĬ¥": 6428,
      "ĠáĬłáĪµáīł": 6429,
      "ĠáĬłáĪµáĪ¨": 6430,
      "ĠáĬłáĪµáī°áĬķ": 6431,
      "Ġáī£áĪħ": 6432,
      "ĠáĪŃáĪµ": 6433,
      "áĮīáĪĿ": 6434,
      "áĮīáī¥": 6435,
      "áĮīáĪ¨": 6436,
      "Ġáĭ¨áĪħ": 6437,
      "ĠáĮłáīł": 6438,
      "ĠáīµáīµáįĪ": 6439,
      "áī°áĪŃáĬ¨": 6440,
      "ĠáĮ¸áĪį": 6441,
      "áĭ°áĪŃáĪ±": 6442,
      "Ġáĭįáĭ³áĭŃ": 6443,
      "ĠáĮĪáĪľ": 6444,
      "áīµáĪĢáĭ´": 6445,
      "ĠáĬĲáĬłáī¥": 6446,
      "ĠáĪĪáĭĲáĮħ": 6447,
      "ĠáĪĪáĪįáīµáĮ»": 6448,
      "áĪŃáĬ¨áĭĿ": 6449,
      "áĪĳáĪŃ": 6450,
      "ĠáĪĭáĪĬ": 6451,
      "Ġáī°áĪĲáĪ°": 6452,
      "Ġáī³áĪª": 6453,
      "ĠáįĪáĪ¸": 6454,
      "ĠáīµáĪ°áĪĲ": 6455,
      "áĪ«áĭŃáĪĺ": 6456,
      "ĠáĬłáĪŃáĬł": 6457,
      "áĪ¨áĭįáĬĴ": 6458,
      "áī¥áĪĪáĬķ": 6459,
      "áĮĪáĪŃáĮĬ": 6460,
      "áĭĪáĪŃáĬĲ": 6461,
      "áī¥áĪ¨áĬĲ": 6462,
      "ĠáīµáĬ¨áĪį": 6463,
      "ĠáĮ½áĪĿ": 6464,
      "áĭ³áĭŃáĪĺ": 6465,
      "ĠáĪĪáĪĪáĪ¨": 6466,
      "ĠáĬ¢áĪįáīµáīĢ": 6467,
      "Ġáī¤áĪĪáĭį": 6468,
      "áĪĿáĬĲáĭ¨": 6469,
      "ĠáĬłáīħáīł": 6470,
      "ĠáĪĪáĬ£áĪĿ": 6471,
      "áĮĪáĪįáĬĲ": 6472,
      "ĠáĭĪáĪ¸áĬķ": 6473,
      "ĠáĭĪáĪ¨áĬł": 6474,
      "ĠáĮĥáĬķ": 6475,
      "ĠáĪĪáĪĵáĪĪáįį": 6476,
      "áĪįáĭ¨áī¶áĪĿ": 6477,
      "áĪŃáĬ¤áĬĴ": 6478,
      "ĠáĪĪáīµáīµáĭĲ": 6479,
      "áįĪáĭĲáĬ¨": 6480,
      "áĪĺáĭĲáĬ¨": 6481,
      "áīħáī¥áĪİ": 6482,
      "áĪ¨áĪŃáĬ®": 6483,
      "ĠáĭĪáĬłáīµáĬĵ": 6484,
      "ĠáĭķáĬķáī¦": 6485,
      "áīĢáī¥áĪİ": 6486,
      "áīµáĪĲáĭľáĬ¨": 6487,
      "áĮ¸áīłáĪ©": 6488,
      "áĬŃáī¶áĪŃ": 6489,
      "áĪĪáĪĬáīµ": 6490,
      "ĠáĪĪáĬ¢áĪĪáĬłáīµ": 6491,
      "áĬ¤áĪ¨áīµáĪŃáĭ¨": 6492,
      "áĮķ": 6493,
      "ĠáĬ¹": 6494,
      "áĬķáĪ³": 6495,
      "áĬķáĮ¨": 6496,
      "áĪĿáĪ°áĪį": 6497,
      "áĪŃáī³": 6498,
      "áī°áįĪ": 6499,
      "ĠáĪĪáĭ´": 6500,
      "ĠáĪĪáīĦ": 6501,
      "ĠáĪĪáīµáĪĽ": 6502,
      "ĠáĪĪáĭĪáĪĪ": 6503,
      "áĬłáįį": 6504,
      "áĪįáĬ©áĪĿ": 6505,
      "áĪįáĭ«áĪĿ": 6506,
      "áīłáī¦": 6507,
      "ĠáĭĪáĭ©": 6508,
      "ĠáĭĪáĭ³áĭŃ": 6509,
      "ĠáĭĪáĮĦ": 6510,
      "ĠáĭĪáīµáĪ»": 6511,
      "ĠáĭĪáĮĪáĪĪ": 6512,
      "áĪĺáĪħ": 6513,
      "áĪĺáīµáĬĲ": 6514,
      "áĪ¨áĮħ": 6515,
      "áĪ¨áĬłáĭį": 6516,
      "áĪµáĭ©": 6517,
      "áĪµáĭ¬": 6518,
      "áĭŃáĪ½": 6519,
      "ĠáĬłáī¢": 6520,
      "ĠáĬłáĮİ": 6521,
      "ĠáĬłáĪĺáĬķ": 6522,
      "ĠáĬłáīłáĪĪ": 6523,
      "ĠáĬłáĬ«áĬķ": 6524,
      "áĪĪáīłáĭį": 6525,
      "áĭ°áĪĮ": 6526,
      "áĭ°áĮī": 6527,
      "áĭ°áĭ«áĪģ": 6528,
      "ĠáĪĪáĪ®": 6529,
      "ĠáĪĪáĪĸ": 6530,
      "áĬŃáĪĭ": 6531,
      "áĬŃáĬĴ": 6532,
      "áĬŃáĪ½": 6533,
      "áĬŃáĪĬ": 6534,
      "áīµáĪļ": 6535,
      "ĠáĪĺáīµáĪ«": 6536,
      "ĠáĪĺáĭĲáĪį": 6537,
      "ĠáĪĺáīµáĪĭ": 6538,
      "ĠáĬ¢áĭ³": 6539,
      "áįįáīĢ": 6540,
      "áįįáĭ«": 6541,
      "áįįáĪ±": 6542,
      "áĭĲáĪĭ": 6543,
      "áĭĲáīµáĬ¨": 6544,
      "áīĢáīµáĪĺ": 6545,
      "áĪ°áī°áĬķ": 6546,
      "ĠáīµáĭĪáĪį": 6547,
      "ĠáīµáĭĭáĮħ": 6548,
      "áĬ¥áĪ½": 6549,
      "ĠáĪįáĪĵ": 6550,
      "ĠáĪįáĭĽ": 6551,
      "ĠáĪįáĮ¨": 6552,
      "ĠáĬ¥áĮ¥": 6553,
      "áĭķáĪĪáīµ": 6554,
      "áĭķáĭ«áĭŃ": 6555,
      "áįĪáĬŃ": 6556,
      "Ġáī°áĭ¨": 6557,
      "áĪ«áĬĲ": 6558,
      "áĪ«áĬ¨": 6559,
      "áĪ«áĭ¨": 6560,
      "áĪ«áĪ½": 6561,
      "áĪ«áīµáĪĪ": 6562,
      "áĪ«áĪĨáĪĿ": 6563,
      "áĭ«áī¼": 6564,
      "áĭ«áĬķáĮį": 6565,
      "áĪĭáīł": 6566,
      "áĪĭáī°áĬķ": 6567,
      "ĠáĬ¨áĪĺáĪµ": 6568,
      "áĪķáĪ¨": 6569,
      "áĪĢáĭ°áĭį": 6570,
      "áĬ«áĭ¨": 6571,
      "áĬ«áĬĳ": 6572,
      "ĠáĪĪáĬłáĮł": 6573,
      "áĭ³áĪļ": 6574,
      "áĭ³áĪĨáĪĿ": 6575,
      "áĪĽáĪĪ": 6576,
      "áĪĽáĪª": 6577,
      "áĪĽáī²": 6578,
      "áĬ¢áĬķ": 6579,
      "áĪħáĭĺ": 6580,
      "áī¶áĪ¬": 6581,
      "áĭĿáĮį": 6582,
      "áĬ©áĬŃ": 6583,
      "áĮħáĮįáĪ«": 6584,
      "áįĭáĪķ": 6585,
      "ĠáĪ°áĪĻ": 6586,
      "áĪ©áīł": 6587,
      "ĠáĪĪáīµáįĪáĪŃ": 6588,
      "ĠáĪĪáīµáĬłáĪ°": 6589,
      "ĠáĪĲáī¥": 6590,
      "ĠáĪĲáī£": 6591,
      "ĠáĪĲáĭ«áīµ": 6592,
      "ĠáĪĲáīłáĪ¨": 6593,
      "ĠáĪĲáĪŃáĪµ": 6594,
      "ĠáĬĲáĪ¸": 6595,
      "áĮ¸áĮ½": 6596,
      "áīĥáĭ²": 6597,
      "ĠáĬķáĭĽ": 6598,
      "ĠáĬķáĬ½": 6599,
      "áĪīáĬŃ": 6600,
      "áĭĪáĪº": 6601,
      "ĠáĭĪáĪĪáĭĺ": 6602,
      "áĮĭáī±": 6603,
      "áĮĭáĭķ": 6604,
      "ĠáīłáĬ¨": 6605,
      "ĠáīłáĭµáĪ¨": 6606,
      "ĠáīłáĪĢáĪį": 6607,
      "ĠáĭĲáĪļ": 6608,
      "áĪĬáįį": 6609,
      "áī¶áĪĿáĪĺ": 6610,
      "áī´áĬ®": 6611,
      "ĠáĬŃáĪ¬": 6612,
      "ĠáĬŃáįī": 6613,
      "ĠáĬŃáĪŃáĬķ": 6614,
      "ĠáĪĪáĬ¢áīµáĪĺ": 6615,
      "ĠáĪĪáĬ¢áĪĪáĭĲ": 6616,
      "áīµáĪĺáīĥáĪŃ": 6617,
      "ĠáĭĪáĪĺáĬł": 6618,
      "ĠáĭĪáĪĺáĪķ": 6619,
      "Ġáĭ°áĮĪáĪĿ": 6620,
      "Ġáī°áĬłáīĢ": 6621,
      "ĠáĭŃáĬłáĪ°": 6622,
      "ĠáīĢáĪĿ": 6623,
      "ĠáīĢáĭį": 6624,
      "ĠáīĢáĪ°": 6625,
      "ĠáīĢáĭ°áĪŃ": 6626,
      "ĠáīĢáī°áĪį": 6627,
      "ĠáĪķáĮ½": 6628,
      "áĭ±áĭ±": 6629,
      "Ġáī¥áĭ³": 6630,
      "ĠáĪ¸áīł": 6631,
      "ĠáĪ¸áĪĲ": 6632,
      "ĠáĪ¸áī£": 6633,
      "ĠáĬ¢áĪįáĪµ": 6634,
      "ĠáĬ¥áĬķáĪĺ": 6635,
      "ĠáĬ¥áĬķáįĪ": 6636,
      "áĭ¶áĬķ": 6637,
      "áĭ¶áĪĺ": 6638,
      "áī°áĬķáĪ´": 6639,
      "ĠáĭĪáĪįáī¥": 6640,
      "ĠáĭĪáĪįáĭµ": 6641,
      "ĠáĭĪáĪįáĪĲ": 6642,
      "ĠáĭĪáĪįáīµáĪĵ": 6643,
      "áĮ£áĪĺ": 6644,
      "áĬĶáī°": 6645,
      "ĠáĭĪáĪĪáĪĽ": 6646,
      "ĠáĭĪáĪĪáĪŃ": 6647,
      "áĮĥáĭľ": 6648,
      "ĠáĭķáĪŃ": 6649,
      "áĭ®áĪĿáī°": 6650,
      "ĠáĮįáĪ¨": 6651,
      "ĠáįįáĪµ": 6652,
      "Ġáįįáī±": 6653,
      "ĠáįįáĪ°": 6654,
      "ĠáĪĵáįį": 6655,
      "ĠáĪĵáĪĿáĭµ": 6656,
      "áĮİáī±": 6657,
      "ĠáĭµáĬķ": 6658,
      "ĠáĭµáĪĺ": 6659,
      "ĠáĭµáĮĮ": 6660,
      "ĠáĪĪáĪĲáĪ¨": 6661,
      "ĠáĭĪáī°áĭį": 6662,
      "ĠáīħáĪĿ": 6663,
      "ĠáĭĺáĪħ": 6664,
      "áįīáĭķ": 6665,
      "ĠáĪ½áįį": 6666,
      "áĮ»áĪĿ": 6667,
      "ĠáĭĵáĪŃ": 6668,
      "ĠáĭĵáĬ¢": 6669,
      "áįĬáĬĲ": 6670,
      "ĠáĮłáĪįáĪĺ": 6671,
      "Ġáīµáīµáĭĭ": 6672,
      "ĠáīµáīµáĮĭ": 6673,
      "ĠáĮ¸áĪĿ": 6674,
      "ĠáĪĪáĪĪáĬłáĪĺ": 6675,
      "ĠáĪĪáĪĪáĬłáĪ°": 6676,
      "ĠáĪĻáĪ³": 6677,
      "ĠáĮĪáĪ°": 6678,
      "ĠáĭĿáĬŃáĪŃ": 6679,
      "ĠáĬĲáĬłáįį": 6680,
      "ĠáĬĲáĬłáīµáĪĲ": 6681,
      "ĠáĭĪáĪ°áī¥": 6682,
      "áĪĳáĬ¨": 6683,
      "ĠáĬłáī¥áĪĲ": 6684,
      "ĠáĬłáī¥áĪĢ": 6685,
      "ĠáĬłáī¥áĭ´": 6686,
      "ĠáĪĭáĬ¨": 6687,
      "Ġáĭ³áĪĿ": 6688,
      "ĠáĪĪáĬ¨áĪµ": 6689,
      "ĠáĪĪáĬ¨áī°áī¥": 6690,
      "áĪµáī°áīħáīłáĪį": 6691,
      "áĪĺáĪŃáĬĲ": 6692,
      "ĠáĬ¥áĪµáī¥": 6693,
      "ĠáĬ¥áĪµáĬ¥": 6694,
      "áĬĵáĭŃáĭĿ": 6695,
      "ĠáĬłáī°áĪĭ": 6696,
      "ĠáĮħáĪĿ": 6697,
      "áĬķáĭµáīħ": 6698,
      "áĬłáĪĿáĪ®áĪĿ": 6699,
      "áĪĴáĪĿ": 6700,
      "áĭ°áĪ¨áĪŃ": 6701,
      "ĠáĬłáĬŃáĪ¨": 6702,
      "áīłáĭįáĪĺ": 6703,
      "ĠáĮ¥áĪŃ": 6704,
      "áĪĪáĪĿáĬĲ": 6705,
      "áĪ¨áī¥áĬĲ": 6706,
      "áĬłáĪµáīµáĪħ": 6707,
      "áĪįáĬ¨áĬĴ": 6708,
      "áĪŃáīłáī±": 6709,
      "ĠáĪŀáī£áĭŃ": 6710,
      "ĠáĭĪáĭµáĪ«": 6711,
      "áĪĪáĪĺáĭ¨": 6712,
      "áĪĿáĭĲáĬ¨": 6713,
      "áĭ°áĬķáĬķ": 6714,
      "áĮ¹áĬ¥": 6715,
      "áĮĪáĪ¨áĭ¨": 6716,
      "áī«áĬķ": 6717,
      "áĪŃáĬ¥áĭī": 6718,
      "ĠáĪĪáĭŃáĪĲ": 6719,
      "áĮ¼áĭķ": 6720,
      "áĪŃáĭ«áī±": 6721,
      "áĪŃáĬłáĭ¨": 6722,
      "áĪĿáĬ¨áĪĿ": 6723,
      "áįĪáĭĲáĬĴ": 6724,
      "áĮ¤áīµ": 6725,
      "áĪ¨áįįáĭķ": 6726,
      "áīĢáĭ¨áĪŃ": 6727,
      "ĠáĪ¬áĬ¤": 6728,
      "áįĵáĬķ": 6729,
      "ĠáĭĪáĬłáīµáįĭ": 6730,
      "ĠáĭİáĪ®": 6731,
      "áĬ£áĭŃáĪ½": 6732,
      "áī¸áĪŃ": 6733,
      "áĬĵáĭµáĪĪáīµ": 6734,
      "áĭĪáĮħáī¥": 6735,
      "áįĪáĮįáĪ®": 6736,
      "áįĪáĮįáĪ©": 6737,
      "áĮĪáĪ®áīµ": 6738,
      "áĪħáĪ¨áĮĥáĬķ": 6739,
      "áī¨áĪŃáįĳáĪį": 6740,
      "áĬĲáīħáĪµ": 6741,
      "ĠáĮ¼áĭĭ": 6742,
      "áĭĺáĬ¨áĪ©": 6743,
      "áĬķáĭĲ": 6744,
      "áĬķáĮł": 6745,
      "áĬķáĮ¸": 6746,
      "áĪĿáĭ±": 6747,
      "áĪŃáĪĻ": 6748,
      "áĪŃáĪ³áĭŃ": 6749,
      "áī°áī£": 6750,
      "áī°áĭ©": 6751,
      "áī°áīłáīµ": 6752,
      "ĠáĪĪáī±": 6753,
      "ĠáĪĪáįĮ": 6754,
      "ĠáĪĪáĮįáĪ«": 6755,
      "áĬłáĬĵ": 6756,
      "áĪįáĬķ": 6757,
      "áī¥áĭĵáĭŃ": 6758,
      "áīłáĭ¨áĬķ": 6759,
      "ĠáĭĪáī¢": 6760,
      "ĠáĭĪáĬŃáĪĿ": 6761,
      "ĠáĭĪáĭĭáĮħ": 6762,
      "áĪ¨áĪĽ": 6763,
      "áĪ¨áĪ±": 6764,
      "áĬĲáĭ®áīµ": 6765,
      "áĪµáĪĬ": 6766,
      "áĭŃáĭŃ": 6767,
      "áĭŃáĭĿ": 6768,
      "ĠáĬłáĭķ": 6769,
      "ĠáĬłáĪĵ": 6770,
      "ĠáĬłáĪĥ": 6771,
      "ĠáĬłáīµáĪ°": 6772,
      "áĪĪáīµáĪĺ": 6773,
      "áĪĪáĬ©áĪĿ": 6774,
      "áĪĪáī¼": 6775,
      "áĭµáĬĵ": 6776,
      "áĭµáĭĪ": 6777,
      "áĭµáĪİ": 6778,
      "áĭµáĬłáīµ": 6779,
      "áĭ°áĭ®áīµ": 6780,
      "áĭ°áĪľáĭķ": 6781,
      "ĠáĪĺáī¶": 6782,
      "ĠáĪĺáĮ¦": 6783,
      "ĠáĪĺáĮ½áĬ¥": 6784,
      "ĠáĪĺáĬ¥áī°": 6785,
      "ĠáĬ¢áīłáĪĪ": 6786,
      "áĭįáĬĸ": 6787,
      "áĭĲáĭĺ": 6788,
      "áĭĲáīµáĬĲ": 6789,
      "áĭĲáĪĪáĭį": 6790,
      "áĪ°áĭĪ": 6791,
      "ĠáīµáĬ¬": 6792,
      "ĠáīµáįĪáĬķáī´": 6793,
      "áīħáĪ¨áĪķ": 6794,
      "ĠáĪįáīµáĪħ": 6795,
      "ĠáĬ¥áĬ¥": 6796,
      "áĭķáĭ©": 6797,
      "áĮįáĭ©": 6798,
      "áĮįáī¦": 6799,
      "áĮįáĭ¨áīµ": 6800,
      "áįĪáįĪ": 6801,
      "áįĪáĭĺáīµ": 6802,
      "Ġáī°áĪ»": 6803,
      "Ġáī°áįĢ": 6804,
      "Ġáī°áĬ¸": 6805,
      "Ġáī°áĮłáĭį": 6806,
      "áĪ«áī¢": 6807,
      "áĭ«áĪķ": 6808,
      "áĭ«áĬĸ": 6809,
      "áī£áĪ«áīµ": 6810,
      "áī£áĮ¡": 6811,
      "áī³áĬĲ": 6812,
      "áī³áĪĪ": 6813,
      "áī³áĪª": 6814,
      "ĠáĬ¨áĪĪáīµ": 6815,
      "ĠáĬ¨áĪĪáĪĿ": 6816,
      "ĠáĪĪáĬłáīµáĪĽ": 6817,
      "áĭĪáĬĵ": 6818,
      "áĭĪáī³": 6819,
      "áĭĪáīµáĬĲ": 6820,
      "áĪĽáĭ²": 6821,
      "áĪĽáī°áĬķ": 6822,
      "áĪĽáĬĳ": 6823,
      "áĪĽáĪĺáīµ": 6824,
      "áĪħáĭ©": 6825,
      "áĪħáĭ¬": 6826,
      "áĮĪáįĪ": 6827,
      "áĪ½áĭķáĪŃ": 6828,
      "áĬ©áĬķ": 6829,
      "áĬ©áīł": 6830,
      "áĬ©áī±": 6831,
      "áĬ©áī¡": 6832,
      "áĭĭáĪĿ": 6833,
      "áĭĭáĬĴ": 6834,
      "áĭĭáĪŃáĪķ": 6835,
      "áĪªáĪģ": 6836,
      "áĪ³áĪ©": 6837,
      "áĮħáĬ¥": 6838,
      "áĮħáĪī": 6839,
      "áĮħáĭĳ": 6840,
      "áĭĺáĪ«": 6841,
      "áĭĺáĭĿ": 6842,
      "ĠáĪ°áī£": 6843,
      "áĪĪáĪ¨": 6844,
      "áĪĪáĪĥ": 6845,
      "áĪĪáĪĪáĪ": 6846,
      "áĪ®áĪŃ": 6847,
      "áĪ®áīł": 6848,
      "áĪ®áĭķ": 6849,
      "áĪ©áĭķ": 6850,
      "áĭ®áĬĴ": 6851,
      "áĭ®áīµáĬĲ": 6852,
      "ĠáĪĲáĬª": 6853,
      "ĠáĪĲáĪĻ": 6854,
      "ĠáĬĲáĭį": 6855,
      "ĠáĬĲáĭĭ": 6856,
      "áīĥáĪµ": 6857,
      "áĭĵáĪĢ": 6858,
      "ĠáĬķáĬĲ": 6859,
      "ĠáĬķáĬ¸": 6860,
      "áĪ¸áīħ": 6861,
      "áĪ¸áĭ©": 6862,
      "ĠáĪĿáĪ°áĪį": 6863,
      "áĪĮáĪĿ": 6864,
      "áĪĮáĬĵ": 6865,
      "áĬ£áĬŃ": 6866,
      "áĪīáĪĺáīµ": 6867,
      "áĭĪáĪĥ": 6868,
      "ĠáĭĪáĪĪáįĪ": 6869,
      "áĮĭáĬĵ": 6870,
      "áĮĭáĪĭ": 6871,
      "Ġáīłáīµ": 6872,
      "ĠáīłáĭĿ": 6873,
      "ĠáĭĲáĭĿ": 6874,
      "ĠáĭĲáĪĺáĪį": 6875,
      "áĪĬáī°": 6876,
      "áĪ¬áī¡": 6877,
      "áī¶áĪĿáī±": 6878,
      "áĭīáĪ©": 6879,
      "ĠáĪĪáĬ¢áī°áĭĲ": 6880,
      "ĠáĬ£áĬ¨": 6881,
      "ĠáĬ£áĭµáĪĿ": 6882,
      "Ġáĭ°áĬł": 6883,
      "ĠáīµáĪ¼": 6884,
      "ĠáīµáĪī": 6885,
      "ĠáĬ¢áīµáī¥": 6886,
      "ĠáĪµáįį": 6887,
      "ĠáĪµáĭĴ": 6888,
      "áī²áī°": 6889,
      "áī²áĬ®": 6890,
      "Ġáī°áĬłáĬŃ": 6891,
      "áĪ¨áīµáī°": 6892,
      "áĪ¨áīµáĭķ": 6893,
      "ĠáīĢáĮ£": 6894,
      "ĠáīĢáĭ³áĪĿ": 6895,
      "ĠáĪķáįī": 6896,
      "Ġáī¥áĪİ": 6897,
      "ĠáĬ¢áĪįáįį": 6898,
      "ĠáĬ¢áĪįáĭį": 6899,
      "áĪŀáī°": 6900,
      "áĭ¶áī°": 6901,
      "ĠáĪĢáĭ°áĮį": 6902,
      "ĠáĪĪáĪĺáĪķ": 6903,
      "áīłáīµáī±": 6904,
      "áĬĳáĬĴ": 6905,
      "áĪĪáīµáī±": 6906,
      "ĠáĪĽáĪħ": 6907,
      "ĠáīĲ": 6908,
      "ĠáĮĪáĭĽ": 6909,
      "áįİáī°": 6910,
      "áīłáĪŃáĪĺ": 6911,
      "ĠáĪ³áĭķ": 6912,
      "ĠáįįáĪĬ": 6913,
      "ĠáĮĢáĪĺ": 6914,
      "ĠáĪĵáĭµ": 6915,
      "ĠáįĪáĮįáĪ¨": 6916,
      "ĠáĪħáĪŃ": 6917,
      "ĠáĪħáĭ¬": 6918,
      "ĠáĬ«áĪµ": 6919,
      "ĠáĬ«áĪĬ": 6920,
      "Ġáĭµáĭ«": 6921,
      "áĮ¨áĬķ": 6922,
      "ĠáĪĪáĪĲáįį": 6923,
      "ĠáīħáĪµ": 6924,
      "ĠáĪĺáīµáĮĭ": 6925,
      "ĠáĭĺáĪĿ": 6926,
      "Ġáĭĺáī¥áĮł": 6927,
      "áĮĮáĬķ": 6928,
      "ĠáĪŃáĬŃ": 6929,
      "ĠáĭĵáĮŃ": 6930,
      "áįĬáĭµ": 6931,
      "áĮīáĪĻ": 6932,
      "Ġáīµáīµáī£": 6933,
      "áĭ°áĪŃáĬ®": 6934,
      "ĠáĬłáĬķáīłáīµ": 6935,
      "ĠáĬłáĬķáīłáī°": 6936,
      "ĠáĪĻáĪ°": 6937,
      "ĠáĭĿáĬĲ": 6938,
      "ĠáĪĪáĪįáīµáīĥ": 6939,
      "ĠáĪĪáĪįáīµáįĪáĪ¨": 6940,
      "ĠáĬłáĪįáĮĢ": 6941,
      "ĠáĬłáĪįáĪĻ": 6942,
      "ĠáĬłáĪįáĪĵ": 6943,
      "áĪĳáĬĴ": 6944,
      "áīłáĪįáĭĲ": 6945,
      "áīłáĪįáĭĳ": 6946,
      "áĭĬáī±": 6947,
      "ĠáĬ¥áīµáĮĢ": 6948,
      "ĠáĪĪáĬĲáĪµ": 6949,
      "ĠáīµáĪ°áĪŃ": 6950,
      "ĠáĬ¤áĪ¨": 6951,
      "ĠáĪĪáĪĢáĭ°áĮį": 6952,
      "áīĦáĬĴ": 6953,
      "ĠáĬłáī°áĬĵ": 6954,
      "áĪĦáĬĲ": 6955,
      "áĮĪáĪŃáĬĲ": 6956,
      "áĮĪáĪŃáĬ¨": 6957,
      "áī¥áĪ¨áī±": 6958,
      "ĠáĪĪáī°áĬłáĪ°": 6959,
      "áīĤáĬķ": 6960,
      "ĠáĬ¥áĪĿáī£": 6961,
      "ĠáĬłáĬŃáĪĭ": 6962,
      "ĠáĬłáīħáīłáĪį": 6963,
      "áĪĪáĪįáĬĲ": 6964,
      "áĪ¨áī¥áĬ®": 6965,
      "áĪºáĪ½": 6966,
      "áĪŃáĭ¨áīµáĪĺ": 6967,
      "áĬŃáī¥áīµ": 6968,
      "áĭĪáĪ¨áĭ©": 6969,
      "áĬ¨áī¥áĬ¨": 6970,
      "ĠáīµáīłáĮĪáĪµ": 6971,
      "áī¥áĭķáĭµ": 6972,
      "áĬķáī±áĭŃ": 6973,
      "áįįáĭĲáī±": 6974,
      "áĬ¨áĪįáĪµ": 6975,
      "ĠáĪĿáĪµáĮ¢": 6976,
      "ĠáĪĪáĮ¸áĬķ": 6977,
      "áī¥áĪ«áĪģ": 6978,
      "áī¥áĪ«áĪĤáĪĿ": 6979,
      "áĪ°áĪĿáĭĳ": 6980,
      "ĠáĭĪáī¥áĭĿ": 6981,
      "áĪĺáĪĿáĬ®": 6982,
      "áĮĪáĪ°áĭ¨": 6983,
      "ĠáĬ¢áĪ°áĪĿáĭĲ": 6984,
      "ĠáĪĪáĮłáĪį": 6985,
      "áīĢáĭµáĪ®": 6986,
      "áĮªáĪŃ": 6987,
      "áĪĵáĭŃáĪ³áĪĿ": 6988,
      "áįįáĭķáīµ": 6989,
      "áĪĪáįĪáĭ¨": 6990,
      "áīĢáĭ°áĪĺ": 6991,
      "ĠáĪĿáĪħáĭŀ": 6992,
      "ĠáĭĭáĪįáĭ³áĭŃ": 6993,
      "ĠáĪ°áįįáĪĲ": 6994,
      "ĠáĪĢáĭŃáĪĮ": 6995,
      "áī³áĬ¨áĭ©": 6996,
      "ĠáĬŃáįįáĪĮ": 6997,
      "áīĪáĪ": 6998,
      "áĬµ": 6999,
      "áīµáĬ©áĪĿ": 7000,
      "áĪŃáĪĨ": 7001,
      "áī°áĪī": 7002,
      "ĠáĪĪáĮĪáĬķ": 7003,
      "áĪįáĮ¥": 7004,
      "áĪįáĭ«áĬķ": 7005,
      "áī¥áī°áīµ": 7006,
      "áīłáĭ«": 7007,
      "áīłáī£": 7008,
      "áīłáī¡": 7009,
      "áīłáĪ®áĪĿ": 7010,
      "áīłáĮ¦": 7011,
      "áīłáīłáĭį": 7012,
      "áīłáĭ°áĪį": 7013,
      "áīłáĮ¸áĪĲ": 7014,
      "áīłáĮ¼áĪķ": 7015,
      "ĠáĭĪáįħ": 7016,
      "ĠáĭĪáĮįáĪį": 7017,
      "ĠáĭĪáī£áĪį": 7018,
      "ĠáĭĪáĮĨ": 7019,
      "ĠáĭĪáįĭáĪŃ": 7020,
      "ĠáĭĪáī¬": 7021,
      "áĪĺáĬĵ": 7022,
      "áĪ¨áī°áĬķ": 7023,
      "áĪµáīħ": 7024,
      "áĬ¨áĪķ": 7025,
      "áĬ¨áĬª": 7026,
      "ĠáĬłáĪĬ": 7027,
      "ĠáĬłáīĨ": 7028,
      "ĠáĬłáĬŃáĪŃ": 7029,
      "ĠáĬłáĭĪáĪĪ": 7030,
      "ĠáĬłáīµáĪħ": 7031,
      "ĠáĬłáĭĭáĪį": 7032,
      "ĠáĬłáįĥ": 7033,
      "áĪĪáĮĪ": 7034,
      "áĪĪáįĪáīµ": 7035,
      "áĪĪáĮĤ": 7036,
      "áĭµáĭ°": 7037,
      "áĭ°áī°áĬķ": 7038,
      "áĭ°áī¼": 7039,
      "áĭ°áīĢáīµ": 7040,
      "áĭ°áĮĪáĪĿ": 7041,
      "áĬŃáĬ¤áĪį": 7042,
      "áī±áĪĿ": 7043,
      "ĠáĮĲ": 7044,
      "ĠáĪĺáĮħáī°": 7045,
      "ĠáĬ¢áĪĪáīµ": 7046,
      "ĠáĬ¢áĪĪáĪĵ": 7047,
      "áįįáī´": 7048,
      "áįįáī²": 7049,
      "áīĢáĪ°": 7050,
      "áīĢáįĪ": 7051,
      "áīĢáĪ½": 7052,
      "áīĢáĪŃáī¥": 7053,
      "ĠáīµáĪŃáĬ¨": 7054,
      "áĬĵáĭ¨áīµ": 7055,
      "áīħáĪª": 7056,
      "áīħáĪŃáī¥": 7057,
      "ĠáĪįáĪĦ": 7058,
      "ĠáĪįáĪ°áĪŃ": 7059,
      "ĠáĬ¥áĪĪ": 7060,
      "ĠáĬ¥áĪ«": 7061,
      "ĠáĬ¥áĭĽ": 7062,
      "ĠáĬ¥áīµáĪĢ": 7063,
      "ĠáĬ¥áīµáĪ¸": 7064,
      "ĠáĬ¥áīµáĪĭ": 7065,
      "ĠáĬ¥áīµáĪħ": 7066,
      "ĠáĬ¥áĪķáīµ": 7067,
      "áĭķáĪ©": 7068,
      "áĭķáĪĬ": 7069,
      "áĮįáī£": 7070,
      "áĪĲáīĨ": 7071,
      "áįĪáĭĪ": 7072,
      "Ġáī°áįĪ": 7073,
      "Ġáī°áĮĭ": 7074,
      "áĭ«áī¡": 7075,
      "ĠáĬ¨áĮĪ": 7076,
      "ĠáĬ¨áĮł": 7077,
      "ĠáĬ¨áĪĥ": 7078,
      "ĠáĬ¨áĪ»": 7079,
      "ĠáĬ¨áĬłáĪ°": 7080,
      "áĪĢáĬ®": 7081,
      "áĪĢáĭŃáī¥": 7082,
      "áĬ«áĪ½": 7083,
      "áĬ«áī³áīµ": 7084,
      "ĠáĪĪáĬłáīłáĪŃ": 7085,
      "ĠáĪĪáĬłáĭµáĪķ": 7086,
      "ĠáĪĪáĬłáīµáĪĲáĭĿ": 7087,
      "áĬĴáī¶áĪĿ": 7088,
      "áĬĴáĬŃáĪµ": 7089,
      "áĭĪáī°áĭį": 7090,
      "áĭ³áī¶áĪĿ": 7091,
      "áĭ³áĭ±": 7092,
      "áĪĽáĪķ": 7093,
      "áĪħáĪĺáīµ": 7094,
      "áĭ©áīµ": 7095,
      "áĪ½áĪĺáīµ": 7096,
      "áĪ½áĬĵáīµ": 7097,
      "áĭĿáĪĻ": 7098,
      "áĭĿáĭĲáīµ": 7099,
      "áĬ©áĪŀáĪĿ": 7100,
      "áĭĭáĪī": 7101,
      "áĪªáĭŃ": 7102,
      "áĪªáĬĴ": 7103,
      "áĪ³áĬĶ": 7104,
      "áĪģáĭŃ": 7105,
      "áĮħáīµ": 7106,
      "áĮħáĪįáĪµ": 7107,
      "áįĭáĭĿ": 7108,
      "áįĪáĪĥ": 7109,
      "áįĪáĪĺ": 7110,
      "ĠáĪ°áĮ¥": 7111,
      "ĠáĪ°áįĪáĪŃ": 7112,
      "ĠáĪ°áĪĪáĪµ": 7113,
      "ĠáĪ°áĪĺáĭķ": 7114,
      "áĪĪáĪ²": 7115,
      "áĪĪáĪĸ": 7116,
      "ĠáĪĪáīµáĪĺáĪŃ": 7117,
      "ĠáĪĪáīµáįĪáĬķ": 7118,
      "áĭ®áī¥": 7119,
      "áĭ®áĪİáĮĤ": 7120,
      "ĠáĪĲáīłáĪŃ": 7121,
      "ĠáĬĲáĭĲáĪį": 7122,
      "ĠáĬĲáĪĲáĪŃ": 7123,
      "áĮĢáī±": 7124,
      "áĮĢáĪ¨áīµ": 7125,
      "áĮ¸áĪĺ": 7126,
      "áĮ¸áĮįáī¥": 7127,
      "áīĥáī°": 7128,
      "ĠáĪĿáĬĵ": 7129,
      "ĠáĪĿáĬĴ": 7130,
      "áĬ£áĪµ": 7131,
      "áĬ£áĬ¬": 7132,
      "áĭĪáĪĮ": 7133,
      "áĬªáĪĢ": 7134,
      "áĬªáĬ¤áĪį": 7135,
      "ĠáĭĪáĪĪáī£": 7136,
      "ĠáĭĪáĪĪáī°áĭĲ": 7137,
      "áĮĭáĪģ": 7138,
      "ĠáīłáĬĵ": 7139,
      "áĭ¬áĪĿ": 7140,
      "ĠáĭĲáĪ°": 7141,
      "áĪ¬áĬª": 7142,
      "ĠáĭĪáĬłáĭ°": 7143,
      "áĭīáĪ¨": 7144,
      "áī´áĬŃ": 7145,
      "ĠáĬŃáĭĭ": 7146,
      "áī¤áĬª": 7147,
      "ĠáĪĪáĬ¢áīµáĪ¸": 7148,
      "áĭ²áī°": 7149,
      "ĠáĭĪáĪĺáĮĥ": 7150,
      "Ġáĭ°áĪħ": 7151,
      "ĠáĪµáĪī": 7152,
      "áī²áĬĲ": 7153,
      "áī²áĬĴ": 7154,
      "áī²áĬŃáĪµ": 7155,
      "áī²áīŃ": 7156,
      "Ġáī°áĬłáĭµ": 7157,
      "Ġáī°áĬłáī°áĬķ": 7158,
      "Ġáī°áĬłáīµáĪ³": 7159,
      "ĠáĪķáĭµ": 7160,
      "ĠáĪķáĪĻ": 7161,
      "ĠáĪķáĮ»": 7162,
      "ĠáĪķáīģ": 7163,
      "áĭ±áĪ©": 7164,
      "ĠáĪ¸áĪ«": 7165,
      "ĠáĪ¸áĪĽ": 7166,
      "ĠáĪ¸áĪĥ": 7167,
      "ĠáĪĪáī°áĬķáĬ¨": 7168,
      "ĠáĬ¢áĪįáĪ³": 7169,
      "ĠáĭĪáĪįáīħ": 7170,
      "ĠáĭĪáĪįáīµáĪ³": 7171,
      "ĠáĭĪáĬ¢áĪ¨": 7172,
      "ĠáĭĪáĬ¢áĬ¨": 7173,
      "ĠáĭĪáĬ¢áī°áĪĲ": 7174,
      "ĠáĭĪáĬ¢áī°áĭĲ": 7175,
      "áĮ£áįį": 7176,
      "áĪ±áĪĪ": 7177,
      "áĪļáĪĿ": 7178,
      "ĠáĪĽáĪª": 7179,
      "ĠáĮĪáĬł": 7180,
      "ĠáĭĪáīµáĬł": 7181,
      "áĪ¶áī°": 7182,
      "ĠáįįáĪį": 7183,
      "Ġáįįáĭ®": 7184,
      "ĠáĮĢáī¥": 7185,
      "áĮİáĪį": 7186,
      "áĮİáĪµ": 7187,
      "ĠáįĪáĮį": 7188,
      "ĠáįĪáĭ°áĪ«": 7189,
      "ĠáĪħáĭ³áĭŃ": 7190,
      "ĠáĪħáĮįáĭ«": 7191,
      "ĠáĬ«áĪ®": 7192,
      "áī¼áĪµáī°áĪŃ": 7193,
      "áĮ¨áĭį": 7194,
      "ĠáĪĪáĪĲáĭĿ": 7195,
      "Ġáīħáĭ±": 7196,
      "ĠáĪĺáīµáĬĵ": 7197,
      "áįīáĪį": 7198,
      "áįīáī±": 7199,
      "áĪľáĬķ": 7200,
      "áĮĮáĬ¨": 7201,
      "áĮĮáĪķ": 7202,
      "áĮĮáĬĴ": 7203,
      "ĠáĪŃáĭĿ": 7204,
      "ĠáīµáīµáįĪáĪ¨": 7205,
      "áīģáĬĴ": 7206,
      "ĠáĮ¸áĪĵ": 7207,
      "ĠáĬłáĬķáīł": 7208,
      "ĠáĪĻáĬĲ": 7209,
      "ĠáĮĪáĪµ": 7210,
      "ĠáĪĪáĪįáīµáĬ«": 7211,
      "ĠáĪĪáĪįáīµáĮĢ": 7212,
      "ĠáĬłáī¥áĪ¸": 7213,
      "ĠáĬłáī¥áĮ½áĪĲ": 7214,
      "Ġáī°áĪĲáĬķ": 7215,
      "áĮĬáĬķ": 7216,
      "Ġáī³áĭŃáī¥": 7217,
      "ĠáĬłáĪĿáĮ½áĬł": 7218,
      "áīµáĪ«áĭŃ": 7219,
      "áīµáĪ«áĬ¨áī¥": 7220,
      "áĭĴáĪŃ": 7221,
      "ĠáĬ¤áĪĿ": 7222,
      "ĠáĬ¤áĪµ": 7223,
      "ĠáĬ¤áĪĮáĬŃ": 7224,
      "ĠáĬłáĪŃáīµ": 7225,
      "ĠáĬ®áĪŃ": 7226,
      "áīĦáĬĲ": 7227,
      "ĠáĬłáįįáĪĢ": 7228,
      "áĬĵáĭŃáĬĲ": 7229,
      "áĬĵáĭŃáĬ¨": 7230,
      "ĠáĮħáĬķ": 7231,
      "áĪĤáĪŃ": 7232,
      "ĠáīĥáĬķ": 7233,
      "áĬķáĪµáĬ¥": 7234,
      "áĮ¦áĪİáĬĴ": 7235,
      "ĠáĮ½áĪŃáĮį": 7236,
      "ĠáĪ«áĮį": 7237,
      "áĭ°áĪ¨áĪµ": 7238,
      "ĠáĪĪáĪĪáĪħ": 7239,
      "ĠáĬłáĬŃáīµ": 7240,
      "áīłáĭįáĬĴ": 7241,
      "ĠáĬłáīħáĪĺáī°": 7242,
      "ĠáĪĪáĪĿáĪ½": 7243,
      "ĠáĮ¥áĪĿ": 7244,
      "ĠáĮ¥áĭ«": 7245,
      "áĮįáĪŃáĮį": 7246,
      "áī£áīµáĬŃ": 7247,
      "áĪ¨áī¥áĬ¨": 7248,
      "áĪĶáĪŃáī£áĭŃ": 7249,
      "áĪĢáĬķáĮ¦": 7250,
      "áĪºáĬĲ": 7251,
      "áĪŃáĪµáĪĺ": 7252,
      "ĠáĮĥáĬ¥": 7253,
      "áĮ«áīµ": 7254,
      "ĠáĪĪáĭĪáĭ°": 7255,
      "Ġáī°áĪĢáĭŃ": 7256,
      "áĪŃáĬ¥áĭ®áĪĿ": 7257,
      "ĠáĬłáĮįáĪ©": 7258,
      "ĠáīµáīĢáĪŃ": 7259,
      "ĠáĪ±áĭ±": 7260,
      "áĬķáīĢáĪį": 7261,
      "áĬķáīĢáĭµáĪŃ": 7262,
      "áĪŃáĬłáĪŃáī¡áĭķ": 7263,
      "ĠáĭĪáĪĺáīµáĭĲ": 7264,
      "áĪ¨áįįáĬ®": 7265,
      "ĠáĭĪáįĪáī°": 7266,
      "ĠáĪĮáīµ": 7267,
      "ĠáĬ¨áĪĿáĪ°áĪį": 7268,
      "ĠáĭĪáĪĽáĭŃ": 7269,
      "áīłáĮłáĭ¨": 7270,
      "ĠáĬłáĮ½áĬĲáĪĲ": 7271,
      "áĪĢáĭŃáī¡": 7272,
      "áīħáīłáĪĪáīµ": 7273,
      "áįĪáĪĪáĭį": 7274,
      "áįĪáī°áĪķ": 7275,
      "ĠáĬ«áĪŃáī¦": 7276,
      "ĠáĭĪáĭįáĪĭ": 7277,
      "áīµáĪªáĬŃ": 7278,
      "ĠáĪĲáĪĿáĭ´": 7279,
      "ĠáĭĪáĭĿáĭ«": 7280,
      "ĠáĬĲáįįáĪµ": 7281,
      "áĮ®áīµ": 7282,
      "áīłáĪ½áĪį": 7283,
      "áįĪáĪ¬áĪķ": 7284,
      "áīµáĪĺáīĥáĪŃáĪķ": 7285,
      "áįĪáĪĲáīµ": 7286,
      "áįĪáĪĪáĪĪ": 7287,
      "áī°áĪŃáĮĢáĪĺáīµ": 7288,
      "áĬ°": 7289,
      "ĠáĪ¯": 7290,
      "áĬķáĭĽ": 7291,
      "áĬķáĪĥ": 7292,
      "áĬķáĭ°áīµ": 7293,
      "áĪĿáī¤": 7294,
      "áĪĿáĭµáĪŃ": 7295,
      "áī°áĪĮ": 7296,
      "ĠáĪĪáĭ°áĭį": 7297,
      "ĠáĪĪáĮ¼": 7298,
      "áĪįáĪī": 7299,
      "áĪįáīłáīµ": 7300,
      "áī¥áĬ¢": 7301,
      "áī¥áĬ¡": 7302,
      "áī¥áĭ«áīµ": 7303,
      "áī¥áĭ«áĭŃ": 7304,
      "áīłáĭŃáīµ": 7305,
      "áīłáĬĶ": 7306,
      "áīłáĬ¦": 7307,
      "áīłáīħáĪį": 7308,
      "áīłáĮ½áĪĳ": 7309,
      "ĠáĭĪáĬŃáĪµ": 7310,
      "ĠáĭĪáĬ«áĭŃ": 7311,
      "ĠáĭĪáĭĪáĪ°": 7312,
      "ĠáĭĪáĮĪáĪ®": 7313,
      "ĠáĭĪáĮĪáĪĮ": 7314,
      "áĪĺáĭ«": 7315,
      "áĪĺáĮ½áĬł": 7316,
      "áĪµáĭĲ": 7317,
      "áĬ¨áĬ®": 7318,
      "áĭŃáĬ¥": 7319,
      "áĪĪáĭİáĪĿ": 7320,
      "áĭµáĬª": 7321,
      "áĭ°áĪ°": 7322,
      "áĬŃáĪģ": 7323,
      "áĬŃáĪĪáīµ": 7324,
      "áī±áĪŃ": 7325,
      "ĠáĪĺáī¥áĪ¨": 7326,
      "ĠáĪĺáĪ°áĬķ": 7327,
      "ĠáĪĺáī¥áĭ°": 7328,
      "ĠáĪĺáįĥ": 7329,
      "ĠáĬ¢áĬĵ": 7330,
      "ĠáĬ¢áĪĽ": 7331,
      "ĠáĬ¢áīłáĪŃ": 7332,
      "ĠáĬ¢áĮĪáī¥": 7333,
      "ĠáĬ¢áĪ°áĪŃ": 7334,
      "ĠáĬ¢áĪ¨áĬ¨áī¥": 7335,
      "áĭ¨áĭ°áīµ": 7336,
      "áįįáĮł": 7337,
      "áĭįáĬ¨": 7338,
      "áĭįáĬķáĭµ": 7339,
      "áĭĲáĪĮ": 7340,
      "áĭĲáīµáĪĺ": 7341,
      "áīĢáĪ«": 7342,
      "áīĢáĭµáĪĿ": 7343,
      "áĪ°áĭ®áĪĿ": 7344,
      "áĪ°áĭįáĪŃ": 7345,
      "ĠáīµáĪŃáĬł": 7346,
      "ĠáīµáĬķáĪ°": 7347,
      "ĠáīµáĪ¨áĪ°áĭķ": 7348,
      "ĠáīµáĮįáĪ«áĭŃáīµ": 7349,
      "áīħáĪĭ": 7350,
      "áĬ¥áĭ¨áīµ": 7351,
      "áĬ¥áĪĪáĪĪ": 7352,
      "ĠáĪįáĬ¡": 7353,
      "ĠáĪįáĭ°áĪŃ": 7354,
      "ĠáĬ¥áī°áĪĲ": 7355,
      "áĭķáĪĭ": 7356,
      "áĮįáīłáĬ¥": 7357,
      "áįĪáĭµ": 7358,
      "áįĪáįĢ": 7359,
      "Ġáī°áĪħáĭ¨": 7360,
      "áĪ«áī³": 7361,
      "áĭ«áĭ©": 7362,
      "áī³áĬŃ": 7363,
      "áī³áī³áīµ": 7364,
      "ĠáĬ¨áīłáĪŃ": 7365,
      "ĠáĬ¨áįĪáĪŃ": 7366,
      "ĠáĬ¨áĪµáī°": 7367,
      "áĪķáįĬ": 7368,
      "áĪĢáĭ¬": 7369,
      "áĬ«áĪŃáĪĺ": 7370,
      "ĠáĪĪáĬłáī£": 7371,
      "ĠáĪĪáĬłáĮĪ": 7372,
      "áĬĴáĪģ": 7373,
      "áĭĪáĬł": 7374,
      "áĭ³áĪī": 7375,
      "áĪĽáĪĽáīµ": 7376,
      "áĭ©áĭµ": 7377,
      "áĮĪáĮĬáīµ": 7378,
      "áī¶áī°": 7379,
      "áĭĿáĪħ": 7380,
      "áĮłáĪĿ": 7381,
      "áĭĭáĪģ": 7382,
      "áĪªáĪĪ": 7383,
      "áĪªáĭµ": 7384,
      "áĪ³áĪ±": 7385,
      "áĪ³áĪĭáīµ": 7386,
      "áī¡áĬŃ": 7387,
      "áįĭáĭŃáīµ": 7388,
      "áĭĺáĪ¨": 7389,
      "áĭĺáĪĲ": 7390,
      "áįĪáĪ¶": 7391,
      "ĠáĪ°áĭķ": 7392,
      "áĮ½áĬĲ": 7393,
      "ĠáĪĪáīµáĬ¨áĪŃ": 7394,
      "ĠáĪĪáīµáĬłáĬ¨": 7395,
      "áĭ®áīµáĪĪ": 7396,
      "áĮĢáĪ¬": 7397,
      "áĮĢáĪĪáīµ": 7398,
      "áĮ¸áĪ¨": 7399,
      "áĮ¸áī±": 7400,
      "áĮ¸áĭĲ": 7401,
      "áĮ¸áĮį": 7402,
      "áīĥáĬķ": 7403,
      "áīĥáįį": 7404,
      "áīĥáĪ½": 7405,
      "áĭĵáĭĿ": 7406,
      "ĠáĬķáĮĭ": 7407,
      "áĪ¸áĭŃ": 7408,
      "áĪ¸áĪ«": 7409,
      "áĪ¸áĪ¾": 7410,
      "áĪ¸áī£áī¥": 7411,
      "ĠáĪĿáĪī": 7412,
      "áĪĮáĪŃ": 7413,
      "áĬ£áĪĢ": 7414,
      "áĬªáĪµ": 7415,
      "ĠáĭĪáĪĪáĬŃ": 7416,
      "áĮĭáĪĪ": 7417,
      "ĠáīłáĮ½": 7418,
      "ĠáĭĲáĭĺ": 7419,
      "ĠáĭĲáĪĽáĪŃ": 7420,
      "ĠáĭĪáĬłáĪĽ": 7421,
      "ĠáĭĪáĬłáĮ½": 7422,
      "ĠáĭĪáĬłáī¥áĭķ": 7423,
      "ĠáĪįáīµáĬ£": 7424,
      "áī´áī£áĭŃ": 7425,
      "ĠáĬŃáĪĮ": 7426,
      "áĪĻáĬ¨": 7427,
      "áĭ²áĪ©": 7428,
      "ĠáĭĪáĪĺáĮ½": 7429,
      "ĠáĭĪáĪĺáĪįáĪħ": 7430,
      "Ġáĭ°áĭŃ": 7431,
      "Ġáĭ°áīĢ": 7432,
      "Ġáĭ°áĭ«": 7433,
      "Ġáĭ°áįįáĭĲ": 7434,
      "ĠáĬ¢áīµáĭĪ": 7435,
      "ĠáĪµáĬ¡": 7436,
      "ĠáĪµáĭĳ": 7437,
      "ĠáĪµáĮģ": 7438,
      "Ġáī°áĬłáĮ½": 7439,
      "ĠáīĢáĪĺ": 7440,
      "ĠáīĢáī¢": 7441,
      "ĠáĪķáĪī": 7442,
      "ĠáĪķáĮ¹": 7443,
      "áĪĥáĭĿ": 7444,
      "Ġáī¥áīµ": 7445,
      "Ġáī¥áĭµ": 7446,
      "Ġáįĥ": 7447,
      "ĠáĪ¸áįĭ": 7448,
      "áĪŀáĪĺ": 7449,
      "áĬĸáĬķ": 7450,
      "áĬĸáĪĺ": 7451,
      "áĬ¤áĬ¨": 7452,
      "ĠáĭĪáĪįáĭį": 7453,
      "ĠáĭĪáĪįáīµáĪ¸": 7454,
      "ĠáĪĢáĬĲ": 7455,
      "ĠáĪĪáĪĺáĪµáĬ¡": 7456,
      "ĠáĭĪáĬ¢áīµáĪĲ": 7457,
      "áĬĶáĭĿ": 7458,
      "áĬĶáĪª": 7459,
      "áĪ±áĪī": 7460,
      "ĠáĭķáĪ©": 7461,
      "ĠáĭķáĮ¹": 7462,
      "ĠáĪĽáĪµ": 7463,
      "Ġáīĵ": 7464,
      "ĠáĮĪáĭĿ": 7465,
      "áĪĺáīµáī°": 7466,
      "ĠáĭĪáĬ¥áī°": 7467,
      "ĠáĭĪáĬ¥áĪ°": 7468,
      "ĠáĭĪáĬ¥áĮħáīµáĪĽ": 7469,
      "ĠáĬłáīµáĭĽ": 7470,
      "ĠáĪħáĪħ": 7471,
      "ĠáĬ«áįĴ": 7472,
      "ĠáĪĪáĪĲáĪĪáįį": 7473,
      "ĠáĪĪáĪĲáĭµáĮĪ": 7474,
      "áĬ¬áī°": 7475,
      "ĠáĪĺáīµáįĪáĬķ": 7476,
      "áĬ¦áĪĺ": 7477,
      "ĠáĭĺáĪĽ": 7478,
      "ĠáĭĺáīłáĮ¥": 7479,
      "ĠáĪ½áĪ©": 7480,
      "Ġáī£áĪķ": 7481,
      "áĮŃáīĢ": 7482,
      "áĮŃáĪ®": 7483,
      "ĠáĪŃáīµ": 7484,
      "ĠáĪŃáĭķ": 7485,
      "áįĬáĬŃ": 7486,
      "áĮīáĪĺ": 7487,
      "áĮīáĭŃ": 7488,
      "Ġáĭ¨áĪĿ": 7489,
      "Ġáīµáīµáĭ°": 7490,
      "áīģáī¡": 7491,
      "ĠáĬłáĬķáįĭ": 7492,
      "áįĮáī°": 7493,
      "áįĮáī±": 7494,
      "ĠáĪĪáĪĪáĬłáĬ¨": 7495,
      "áĪĳáĬĲ": 7496,
      "Ġáī³áĬ¨": 7497,
      "áīµáĪ«áĪĿ": 7498,
      "áīµáĪ«áĬŃáī¥": 7499,
      "áĭĶáī°áīµ": 7500,
      "ĠáįĪáĪ²": 7501,
      "ĠáįĪáĪ½": 7502,
      "ĠáĪĪáĬ¨áĪįáĬł": 7503,
      "áĪ«áĭŃáĪĿ": 7504,
      "áĬŃáĪŃáĬĲ": 7505,
      "ĠáĮĭáĭŃ": 7506,
      "ĠáĭŃáĬ¥áĬĲ": 7507,
      "ĠáĭŃáĬ¥áĬķáĪ°": 7508,
      "ĠáĬ®áĪİ": 7509,
      "áĭ¨áĬķáī±": 7510,
      "ĠáĪĥáī¥áī°": 7511,
      "áīĦáī±": 7512,
      "áĪĪáĭįáĬĲ": 7513,
      "áĬĵáĭŃáī°": 7514,
      "ĠáĬłáī°áĬŃáĪ¨": 7515,
      "ĠáīĥáĬĳ": 7516,
      "ĠáĪ»áĪŃ": 7517,
      "áĭĪáĪŃáĬ¬": 7518,
      "áĭµáĪ¨áī°": 7519,
      "ĠáĭĪáĪµáĪĿ": 7520,
      "ĠáĭĪáĭ°áĪĲ": 7521,
      "áīĤáīħ": 7522,
      "áĭ°áĪ¨áĪ°": 7523,
      "ĠáĭĪáĪķáĪ³": 7524,
      "ĠáĬ¢áĪįáīµáĬł": 7525,
      "ĠáĬłáĬŃáī°": 7526,
      "áīłáĭįáĬĲ": 7527,
      "áĪ¹áĪŃ": 7528,
      "áĬ½áĬķ": 7529,
      "áĪºáīµ": 7530,
      "áĪ¨áĪµáĭĲ": 7531,
      "áīłáĪĪáĭ©": 7532,
      "áĬŃáĪįáĬĲ": 7533,
      "áĬŃáĪįáĬ¦áīµ": 7534,
      "áĪĪáĪĺáĭ©": 7535,
      "ĠáĬ¢áĬķáĭ¶": 7536,
      "áĮ«áĪŃ": 7537,
      "ĠáīµáīłáĪĢ": 7538,
      "áī¥áĭķáīµ": 7539,
      "ĠáĭĽáĭŃáĭµ": 7540,
      "ĠáĪĪáĬłáī°áĪĭ": 7541,
      "áī¥áĮłáĪŃ": 7542,
      "áĪµáĬ¥áĪį": 7543,
      "ĠáĭĪáĪĺáīµáĬł": 7544,
      "áĪ¨áīłáĭ©": 7545,
      "áĪ¨áīłáĪ½": 7546,
      "áīłáĪĢáĪĪ": 7547,
      "ĠáĭĪáĪĵáĭŃ": 7548,
      "ĠáĬ¨áĪĿáĪ°": 7549,
      "ĠáĭĪáĬłáīµáīĥ": 7550,
      "áĭµáĪķáĪŃ": 7551,
      "áĪµáī³áĪį": 7552,
      "áĪ¨áĬłáĭ©": 7553,
      "ĠáĬ¨áĪŃáĭĲ": 7554,
      "ĠáĪ°áĪŃáĮİ": 7555,
      "áĮĢáĪŃáĪĴ": 7556,
      "áī¸áĭį": 7557,
      "ĠáįĢáĭĲ": 7558,
      "Ġáī°áĪĿáĪ²": 7559,
      "Ġáĭ°áĪ¨áĪ³": 7560,
      "ĠáĬłáī°áĬķáĪ´": 7561,
      "ĠáīĢáĭ¨áĪķ": 7562,
      "ĠáĪĺáĮħáĪĻ": 7563,
      "áĭ¥áĬķ": 7564,
      "áīħáĪ«áĮ¥áĭ¨áīµ": 7565,
      "áĭ·": 7566,
      "áīµáĭ¨": 7567,
      "áĬķáīłáĪį": 7568,
      "áĬķáĮĤ": 7569,
      "áĪĿáĪµáĪį": 7570,
      "áĪŃáī´": 7571,
      "áĪŃáĭ®áĪĿ": 7572,
      "áĪŃáĭ²áĬķ": 7573,
      "ĠáĪĪáī¢": 7574,
      "ĠáĪĪáĬ¡": 7575,
      "ĠáĪĪáī¨": 7576,
      "ĠáĪĪáįįáĪŃ": 7577,
      "ĠáĪĪáĬ«áĪŃ": 7578,
      "áĬłáĮį": 7579,
      "áĬłáĪĭ": 7580,
      "áĬłáĭĪ": 7581,
      "áĪįáī³": 7582,
      "áī¥áī¶": 7583,
      "áīłáīħ": 7584,
      "áīłáĬłáīµ": 7585,
      "áīłáĭ®áīµ": 7586,
      "ĠáĭĪáĮĬ": 7587,
      "ĠáĭĪáĭµáĪŃ": 7588,
      "ĠáĭĪáīµáĪķ": 7589,
      "áĪĺáī³": 7590,
      "áĪĺáĭ°áīµ": 7591,
      "áĪĺáĭĲáīµ": 7592,
      "áĪ¨áĮ¥": 7593,
      "áĪ¨áĪ¶": 7594,
      "áĭŃáĪĸ": 7595,
      "áĭŃáĪĶ": 7596,
      "ĠáĬłáĪĪáĪĿ": 7597,
      "áĪĪáĭİ": 7598,
      "áĪĪáī°áĬķ": 7599,
      "áĪĪáįİ": 7600,
      "áĭµáĪĽáĭŃ": 7601,
      "áĭ°áĭĲ": 7602,
      "áĭ°áĪī": 7603,
      "áĭ°áĪĬ": 7604,
      "áĭ°áĭ¨áīµ": 7605,
      "áĭ°áĮĪáīµ": 7606,
      "ĠáĪĪáĪ¹": 7607,
      "áĬŃáī£": 7608,
      "áĬŃáĬĵáĪģ": 7609,
      "áĬŃáĪ«áīµ": 7610,
      "áī±áī´": 7611,
      "ĠáĪĺáĭ¨": 7612,
      "ĠáĪĺáĪ¸áĬķ": 7613,
      "ĠáĪĺáĪħáĪ¨": 7614,
      "ĠáĬ¢áĬłáĪĿ": 7615,
      "ĠáĬ¢áĪ°áī¥": 7616,
      "áĭ¨áĪĺáīµ": 7617,
      "áĭįáĪĢ": 7618,
      "áĭįáĪİ": 7619,
      "áĭįáĭ«áīµ": 7620,
      "áĭįáĪĥáĬķáĪµ": 7621,
      "áīĢáĭ²": 7622,
      "áīĢáī¼": 7623,
      "áīĢáĪĿáīµ": 7624,
      "áīĢáĪµáĬķ": 7625,
      "áĪ°áĪ©": 7626,
      "áĪ°áĪ¨áĭį": 7627,
      "ĠáīµáīµáĪĥ": 7628,
      "ĠáīµáĬŃáĪ¨": 7629,
      "áĬĵáĮį": 7630,
      "áĬĵáĭĬ": 7631,
      "áīħáĪķ": 7632,
      "áīħáįī": 7633,
      "áīħáĭĲáīµ": 7634,
      "áīħáĪ°áīµ": 7635,
      "áīħáī£áĭŃ": 7636,
      "ĠáĪįáĪĪ": 7637,
      "ĠáĪįáĪ«": 7638,
      "ĠáĪįáįĪáĪŃ": 7639,
      "ĠáĪįáī³áĬ¨": 7640,
      "ĠáĬ¥áĬ«": 7641,
      "ĠáĬ¥áĮŃ": 7642,
      "áĮįáī£áĭŃ": 7643,
      "áĪĲáĭ³": 7644,
      "áĪĲáī´": 7645,
      "áįĪáī³": 7646,
      "áįĪáĬ¨áĪ¨": 7647,
      "Ġáī°áĮĪ": 7648,
      "Ġáī°áĪ³": 7649,
      "áĭ«áĪŀáĪĿ": 7650,
      "áī£áīµáĪĺ": 7651,
      "áī£áī£áīµ": 7652,
      "ĠáĬ¨áī²": 7653,
      "ĠáĬ¨áīµáĪĲ": 7654,
      "ĠáĬ¨áī¥áĭµ": 7655,
      "áĪķáīħ": 7656,
      "ĠáĪĪáĬłáĪĺáĪµ": 7657,
      "ĠáĪĪáĬłáĭµáĪĲ": 7658,
      "ĠáĪĪáĬłáĭ³áĪĮ": 7659,
      "áĭĪáīħáīµ": 7660,
      "áĭ³áĪ©": 7661,
      "áĭ³áīµáĪĺ": 7662,
      "áĪĽáĪŃáĬŃ": 7663,
      "áĬ¢áĪį": 7664,
      "áĪħáĬŃ": 7665,
      "áĪħáĮ½": 7666,
      "áĭ©áĭ±": 7667,
      "áĭ©áī°áĪŃ": 7668,
      "áĪ½áīħ": 7669,
      "áĪ½áĭ«": 7670,
      "áĮłáĬĴ": 7671,
      "áĬ©áĪ¨": 7672,
      "áĭĭáĮ¥áĬķ": 7673,
      "áĬ®áĪŃ": 7674,
      "áĬ®áī³áīµ": 7675,
      "áĪªáīµáĪĺ": 7676,
      "áĪ³áĪĻ": 7677,
      "áī¡áĪ«áĪĿ": 7678,
      "áĮħáī°áĪĿ": 7679,
      "áĭĺáĭī": 7680,
      "áĭĺáīłáĮ¥": 7681,
      "áĭĺáĪ¨áĬ¥": 7682,
      "ĠáĪ°áī°": 7683,
      "ĠáĪ°áĪµ": 7684,
      "ĠáĪ°áī¡": 7685,
      "áĪ©áĪ°": 7686,
      "áĪ©áĪ½": 7687,
      "ĠáĪĪáīµáĬłáīµ": 7688,
      "áĭ®áīµáĪĺ": 7689,
      "ĠáĪĲáĭĪ": 7690,
      "ĠáĪĲáĮł": 7691,
      "ĠáĬĲáī¢": 7692,
      "ĠáĬĲáįĪáĪŃ": 7693,
      "ĠáĬĲáī¥áĪ«": 7694,
      "áĮĢáĪķ": 7695,
      "áĮĢáĪŃáī¥": 7696,
      "áĮ¸áĬłáīµ": 7697,
      "áĮ¸áĪĲáīµ": 7698,
      "áĮ¸áĬķáĪķ": 7699,
      "áĮ¸áĬĶáĪķ": 7700,
      "áīĥáĮ¥": 7701,
      "áĭĵáĭ³": 7702,
      "áĪ¸áĮĪ": 7703,
      "áĪ¸áĪĺáīµ": 7704,
      "ĠáĪĪáĪįáĪ½": 7705,
      "áĬ£áĬĲ": 7706,
      "ĠáĭĪáĪĪáīµáĪĲ": 7707,
      "ĠáĭĪáĪĪáĬ¥áĬķ": 7708,
      "Ġáīłáĭĭ": 7709,
      "Ġáīłáĭĺ": 7710,
      "ĠáīłáĬª": 7711,
      "áĪĬáī³áīµ": 7712,
      "áĪ¬áĬ©áĪĿ": 7713,
      "áĪİáĪĪ": 7714,
      "ĠáĭĪáĬłáĬĵ": 7715,
      "ĠáĬŃáī°": 7716,
      "ĠáĬ£áĬĲ": 7717,
      "ĠáĬ£áĭ°": 7718,
      "ĠáĬ£áī£": 7719,
      "ĠáĬ£áĪķ": 7720,
      "ĠáĬ£áĪ½": 7721,
      "áĪĵáĭŃáīµ": 7722,
      "ĠáĭĪáĪĺáĬĲ": 7723,
      "Ġáĭ°áĪ¨áĪ°": 7724,
      "Ġáĭ°áĪŃáĪ°": 7725,
      "ĠáĬ¢áīµáī£": 7726,
      "ĠáĬ¢áīµáĮ½": 7727,
      "ĠáĪµáĭķ": 7728,
      "ĠáīĢáīł": 7729,
      "ĠáīĢáĪĬ": 7730,
      "ĠáĪķáĪĺ": 7731,
      "ĠáĪķáĮī": 7732,
      "áĭ±áĭķ": 7733,
      "Ġáī¥áĬķ": 7734,
      "Ġáī¥áĪĮ": 7735,
      "Ġáī¥áīĨ": 7736,
      "ĠáĪ¸áī¨": 7737,
      "ĠáĪĪáī°áĬ¨": 7738,
      "ĠáĬ¢áĪįáĪĢ": 7739,
      "áĪŀáĪµ": 7740,
      "áĪŀáĭķ": 7741,
      "ĠáĬ¥áĬķáĪµ": 7742,
      "ĠáĬ¥áĬķáĭµ": 7743,
      "ĠáĬ¥áĬķáĮį": 7744,
      "áī¢áĬŃ": 7745,
      "ĠáĪ¨áĬ£": 7746,
      "áī°áĬķáĬŃáī¥": 7747,
      "ĠáĭĪáĪįáĬŃ": 7748,
      "ĠáĭĪáĪįáĪ°": 7749,
      "ĠáĪĢáĭ¨": 7750,
      "ĠáĪĢáĬĵ": 7751,
      "ĠáĪĢáĭĭ": 7752,
      "ĠáĪĢáĪ¨áĪµ": 7753,
      "ĠáĪĪáĪĺáĬ¨": 7754,
      "ĠáĪĪáĪĺáīµáĬĲ": 7755,
      "ĠáĭĪáĬ¢áĪĪáĪĲ": 7756,
      "ĠáĭĪáĪĪáĪĥ": 7757,
      "áĮĥáī±": 7758,
      "áĮĥáĪ¨áīµ": 7759,
      "áĮĥáĪŃáī¥": 7760,
      "Ġáĭķáī£": 7761,
      "ĠáĭķáĪ½": 7762,
      "Ġáĭķáĭ±": 7763,
      "ĠáĮįáĪ®": 7764,
      "ĠáĮįáĪī": 7765,
      "ĠáĮįáĬķáĭ³": 7766,
      "ĠáĪĽáĪ¸": 7767,
      "ĠáĮĪáĬķáĭ°": 7768,
      "ĠáĭĪáīµáī£": 7769,
      "ĠáĭĪáīµáīµáĬ¨": 7770,
      "ĠáĭĪáĬ¥áĮįáĪį": 7771,
      "ĠáĪ³áĭį": 7772,
      "áĮİáĮĮ": 7773,
      "ĠáįĪáīĢáĭµ": 7774,
      "ĠáĪħáĮģ": 7775,
      "ĠáĬ«áĪ¨": 7776,
      "ĠáĪĪáĪĲáĭŃ": 7777,
      "ĠáĭĪáī°áĪķ": 7778,
      "ĠáĭĪáī°áĭĵ": 7779,
      "áĬ¬áĪķ": 7780,
      "áįĪáĪŃáĪŃ": 7781,
      "ĠáīħáĪ¨": 7782,
      "ĠáĪ½áī¥": 7783,
      "áĪľáī±": 7784,
      "áĭĳáĭİ": 7785,
      "ĠáĬłáĪµáĬ¨": 7786,
      "ĠáĬłáĪµáĪĽ": 7787,
      "Ġáĭĵáįį": 7788,
      "ĠáĭĵáĪ³": 7789,
      "Ġáĭĵáī¤": 7790,
      "Ġáĭ¨áĬłáĬķ": 7791,
      "áī°áĪŃáĭµ": 7792,
      "ĠáĮ¸áī¥áĪĲ": 7793,
      "áĭ°áĪŃáī¥": 7794,
      "ĠáĭįáĪŃ": 7795,
      "ĠáĪĪáĪĪáĬłáĪĿ": 7796,
      "ĠáĪĪáĪĪáĬłáīµáĪĲ": 7797,
      "ĠáĪĻáĬ¥áī°": 7798,
      "ĠáĬĲáĬłáĪµ": 7799,
      "ĠáĪĪáĪ°áĪĲ": 7800,
      "ĠáĪĪáĭĲáĭŃ": 7801,
      "ĠáĪĪáĪįáīµáĬĵ": 7802,
      "ĠáĬłáĪįáĭķ": 7803,
      "áĪŃáĬ¨áĬĴ": 7804,
      "áĭļáĭµ": 7805,
      "áĪĳáĪµ": 7806,
      "ĠáĬ¥áīµáĮħ": 7807,
      "ĠáĭĪáĪĲáĬķ": 7808,
      "áĮĬáĪ°": 7809,
      "Ġáī³áĪªáĬŃ": 7810,
      "ĠáĬłáĪĿáĪ°áĪį": 7811,
      "ĠáĭĭáĪŃ": 7812,
      "ĠáĭĭáĪµ": 7813,
      "ĠáĪĪáĬłáīµáĭĭ": 7814,
      "áīµáĪ«áĬŃ": 7815,
      "áĪ«áĭŃáĪŃ": 7816,
      "áĪµáī°áīµ": 7817,
      "áĭµáĪŃáĪĺ": 7818,
      "ĠáĭŃáĬ¥áĬķáĭ°": 7819,
      "ĠáĪĥáĭŃáĭµ": 7820,
      "áĪĺáĪŃáĬ®": 7821,
      "áĪĺáĪŃáĪĬáĮį": 7822,
      "áī¥áĪĪáĬĴ": 7823,
      "áĪĪáĭįáĪĺ": 7824,
      "ĠáĭĪáĪĪáĬłáĪµ": 7825,
      "áīłáī°áĭ©": 7826,
      "ĠáĬłáī°áĭĲ": 7827,
      "ĠáĬłáī°áīĥ": 7828,
      "áĪĦáĬĴ": 7829,
      "ĠáĮħáĬĶ": 7830,
      "ĠáĮħáĪĿáĭķ": 7831,
      "áĬ¨áĪŃáĬĲ": 7832,
      "áĬ¨áĪŃáĬ®": 7833,
      "áĪĭáĭŃáī±": 7834,
      "áĬķáĪµáīµ": 7835,
      "áīłáĪ¨áī¶áĪĿ": 7836,
      "áĭĪáĪŃáĬ®": 7837,
      "áĮĤáĪį": 7838,
      "áī³áĭŃáĬĲ": 7839,
      "ĠáĭĪáĪµáĪį": 7840,
      "áīĤáĪŃ": 7841,
      "áīĤáī¥": 7842,
      "áīĤáīĢáīµ": 7843,
      "áĬłáĪĿáĭķáĪį": 7844,
      "ĠáĪĺáĬķáīłáĪ®": 7845,
      "ĠáĭĪáĬ¨áĪ«": 7846,
      "áįķáĪª": 7847,
      "áĪŃáĪĲáĭ©": 7848,
      "áĭŀáĪķ": 7849,
      "áĬłáĪ°áĪ°áīµ": 7850,
      "ĠáĬ¥áĪĿáīłáĪĮ": 7851,
      "ĠáĬ¢áĪĪáĬłáī°": 7852,
      "áĪĪáĪįáĬ¨": 7853,
      "áĪĪáĪĿáĬ®": 7854,
      "áĬłáĪµáĬŃ": 7855,
      "áĪįáĬ¨áĬĲ": 7856,
      "áĪŃáīłáĭķ": 7857,
      "áĭĪáĪįáĭ°": 7858,
      "áĪŃáĪµáĬĲ": 7859,
      "áĬłáĭįáĪĺ": 7860,
      "áĬłáĭįáĬĴ": 7861,
      "ĠáĭĪáĪįáīµáĭĵ": 7862,
      "ĠáīµáĪĺáĪĢ": 7863,
      "áī«áĭŃ": 7864,
      "ĠáĬķáīµáįĭ": 7865,
      "áĪŃáĬ¥áĭ®": 7866,
      "ĠáĪĪáĬ¥áĬķáĪ°": 7867,
      "áĪµáĪĺáĭĲ": 7868,
      "áĪĺáĭµáĪħáĬķ": 7869,
      "ĠáīµáīłáĪĢáĪĪ": 7870,
      "áĪŃáĪķáī¥": 7871,
      "ĠáĬ¥áī¥áĪ«": 7872,
      "áĪ¨áĪĲáĬĲ": 7873,
      "áĬ«áĭŃáĪĿ": 7874,
      "áĪ¨áĬŃáī¡": 7875,
      "ĠáĪ²áĪį": 7876,
      "áĪŃáĬ¤áī±": 7877,
      "ĠáĭĪáĪĪáīµáīµ": 7878,
      "ĠáĭĪáĪĢáĭŃ": 7879,
      "áī£áĪįáĪµ": 7880,
      "áįįáĭĲáĬĲ": 7881,
      "ĠáĪĪáĬķáĬł": 7882,
      "ĠáĭĪáĪĪáĪįáīµáĪĲ": 7883,
      "áįĪáĭĲáī±": 7884,
      "áīĢáĪįáĪį": 7885,
      "áĮ¤áĬĴ": 7886,
      "ĠáĪĦáĪŃ": 7887,
      "ĠáĬªáĭ³": 7888,
      "ĠáĪĪáĪ³áĭ°": 7889,
      "áĪ¨áįįáĭĳ": 7890,
      "ĠáĬĴáĭį": 7891,
      "áĮĪáĬķáĪķ": 7892,
      "Ġáĭĳáīħáī£": 7893,
      "ĠáĭĪáĮłáī¢": 7894,
      "áĮ¸áĬłáĬĲ": 7895,
      "áīħáĪŃáĪĳ": 7896,
      "ĠáīµáįĪáĬĵ": 7897,
      "ĠáĭİáĪ®áīµ": 7898,
      "áĬķáĪ°áīł": 7899,
      "ĠáĪĺáĬŃáī°": 7900,
      "ĠáĪĺáĪĵáĪĺáĭµ": 7901,
      "ĠáĬ«áĪŃáĮħ": 7902,
      "áī°áĭĲáĪµ": 7903,
      "áĭĭáĮħáĪģ": 7904,
      "áīµáĪĲáĭľáĬĴ": 7905,
      "ĠáĪįáĭįáĪķ": 7906,
      "ĠáĬ¥áĮħáīµáĪĺ": 7907,
      "áĮłáĪįáīĢ": 7908,
      "áĮłáĪįáīħ": 7909,
      "áĬĵáĭŃáīµáĭµ": 7910,
      "áīĥáĭŃáīħ": 7911,
      "áīµáĪĲáĭĿáĭ¨": 7912,
      "áĪµáĪķáīħ": 7913,
      "Ġáī°áĬ¥áĪ²": 7914,
      "Ġáī°áīħáĭª": 7915,
      "ĠáĬłáĪķáĪĺáĭµ": 7916,
      "áĪ½áĬŃáĪĪáīµ": 7917,
      "áĮħáĪĻáĭĲáīµ": 7918,
      "áĬŃáĪ³áĭŃáĭµ": 7919,
      "áĭ¢": 7920,
      "áīµáĬ«": 7921,
      "ĠáĬ²": 7922,
      "áĪĿáĪĪáīµ": 7923,
      "áĪĿáĭ«áĭŃ": 7924,
      "áĪĿáĪħáĪŃ": 7925,
      "áĪŃáĪģ": 7926,
      "áĪŃáĪĺáīµ": 7927,
      "áĪŃáĭĲáīµ": 7928,
      "áĪŃáĬ«áĭŃ": 7929,
      "áĪŃáĮĪáĪĪ": 7930,
      "áĪŃáĮĪáīµ": 7931,
      "ĠáĪĪáĭĳ": 7932,
      "ĠáĪĪáĬŃáĪĿ": 7933,
      "ĠáĪĪáįĪáīµ": 7934,
      "ĠáĪĪáįĪáĬķ": 7935,
      "ĠáĪĪáĭ°áĬķ": 7936,
      "ĠáĪĪáĮĪáĪ¨": 7937,
      "ĠáĪĪáĬķáĪĲ": 7938,
      "ĠáĪĪáĭĪáĪ«": 7939,
      "ĠáĪĪáĮĪáī¥áĬł": 7940,
      "áĬłáīħáĪĬáĪĿ": 7941,
      "áĪįáĮħ": 7942,
      "áī¥áĪİáĪĿ": 7943,
      "áīłáĭĿ": 7944,
      "áīłáī²": 7945,
      "áīłáĬĲáīµ": 7946,
      "áīłáĬłáĪµ": 7947,
      "ĠáĭĪáĬĳ": 7948,
      "ĠáĭĪáīµáĪĵ": 7949,
      "ĠáĭĪáīħáĪį": 7950,
      "ĠáĭĪáīª": 7951,
      "áĪĺáĪĺáĭį": 7952,
      "áĪĺáĪĲáĪĺáĭµ": 7953,
      "áĪ¨áĬĵ": 7954,
      "áĪ¨áĪĵ": 7955,
      "áĪ¨áĭ°áīµ": 7956,
      "áĬĲáĬĵ": 7957,
      "áĬĲáĮį": 7958,
      "áĬĲáĭĪ": 7959,
      "áĪµáĬĵ": 7960,
      "áĪµáĪ«áĭŃ": 7961,
      "áĬ¨áĭ°": 7962,
      "ĠáĬłáĪī": 7963,
      "ĠáĬłáĮįáĪį": 7964,
      "áĪĪáįĬ": 7965,
      "áĭµáĪ®áĪĿ": 7966,
      "áĭ°áįī": 7967,
      "ĠáĪĪáĪĤ": 7968,
      "áī±áī¥": 7969,
      "áī±áĭŃ": 7970,
      "ĠáĪĺáĭ²": 7971,
      "ĠáĪĺáĭµáĪ¨": 7972,
      "ĠáĪĺáĭ³áĪį": 7973,
      "ĠáĬ¢áīĥ": 7974,
      "ĠáĬ¢áī¤": 7975,
      "ĠáĬ¢áįĪáĪ¨": 7976,
      "áįįáī³": 7977,
      "áįįáĪĮ": 7978,
      "áĭįáĪķáĭµ": 7979,
      "áĭĲáīł": 7980,
      "áīĢáĭ«": 7981,
      "ĠáīµáīµáĪ«": 7982,
      "Ġáīµáī¥áĪį": 7983,
      "ĠáīµáĮ«": 7984,
      "Ġáīµáĭ°áĮį": 7985,
      "áĬĵáīµáĬĲ": 7986,
      "áīħáī¦": 7987,
      "áīħáĪĺáī°": 7988,
      "ĠáĪįáĪ°áĪį": 7989,
      "ĠáĪįáĭ°áĭį": 7990,
      "ĠáĪįáĪŃáĬł": 7991,
      "ĠáĪįáīĢáĭŃ": 7992,
      "ĠáĬ¥áīłáīµ": 7993,
      "ĠáĬ¥áī¥áĪŃ": 7994,
      "ĠáĬ¥áĬŃáĪį": 7995,
      "ĠáĬ¥áĭµáĪªáĪµ": 7996,
      "áĮįáĬ®": 7997,
      "áĪĲáī¥áĪŃ": 7998,
      "áįĪáīµáĬĲ": 7999,
      "áĪ«áįĪ": 8000,
      "áĪ«áĭ²": 8001,
      "áĭ«áĪ¨": 8002,
      "áĭ«áī³": 8003,
      "áī³áĭ®áĪĿ": 8004,
      "áĪĭáĪĬ": 8005,
      "ĠáĬ¨áīħ": 8006,
      "ĠáĬ¨áĮį": 8007,
      "ĠáĬ¨áĪ©": 8008,
      "ĠáĬ¨áī¤": 8009,
      "ĠáĬ¨áĮ£": 8010,
      "ĠáĬ¨áĪ¨áĬķ": 8011,
      "ĠáĬ¨áī°áĬł": 8012,
      "áĪĢáĭ®áĪĿ": 8013,
      "áĬ«áĭµ": 8014,
      "áĬ«áĪħ": 8015,
      "ĠáĪĪáĬłáĬ«": 8016,
      "ĠáĪĪáĬłáįįáĪŃ": 8017,
      "áĭĪáī°áīµ": 8018,
      "áĭ³áĭ®áĪĿ": 8019,
      "áĪĽáĪī": 8020,
      "áĪħáī°": 8021,
      "áĪħáĪ®": 8022,
      "áī¶áĬŃ": 8023,
      "áĪ½áīł": 8024,
      "áĪ½áįĪ": 8025,
      "áĪ½áĪŀ": 8026,
      "áĪ½áĪĪáīµ": 8027,
      "áĭĿáī¤": 8028,
      "áĭĿáĭĳ": 8029,
      "áĮłáĭķ": 8030,
      "áĮłáīµáĪĪ": 8031,
      "áĬ©áĪŀ": 8032,
      "áĪ³áĭķ": 8033,
      "áĭĺáĪĽáīµ": 8034,
      "áĭĺáĭŃáĭµ": 8035,
      "ĠáĪ°áįĪ": 8036,
      "ĠáĪ°áĪħ": 8037,
      "ĠáĪ°áĪĬ": 8038,
      "ĠáĪ°áĬĲáīµ": 8039,
      "ĠáĪ°áĪĭáĪĿ": 8040,
      "ĠáĪ°áĪĺáĭĲ": 8041,
      "ĠáĪ°áīłáī¥": 8042,
      "áĪ®áĬŃ": 8043,
      "áĪ®áīµáĪĺ": 8044,
      "áĪ©áĬŃ": 8045,
      "ĠáĪĪáīµáīłáĪŃ": 8046,
      "ĠáĪĪáīµáĭ°áĪŃ": 8047,
      "ĠáĪĪáīµáĪĺáĪį": 8048,
      "ĠáĪĪáīµáĭĪáĪ°": 8049,
      "áĭ®áĮµ": 8050,
      "ĠáĪĲáĪĮ": 8051,
      "ĠáĪĲáįĪáĭĿ": 8052,
      "ĠáĬĲáĭ³": 8053,
      "ĠáĬĲáĮħ": 8054,
      "ĠáĬĲáĭĵ": 8055,
      "áĮĢáĮħ": 8056,
      "áĮ¸áįĪ": 8057,
      "áĮ¸áī¦": 8058,
      "áĮ¸áĪĸ": 8059,
      "áīĥáī¡": 8060,
      "áīĥáĪī": 8061,
      "áīĥáĪĻ": 8062,
      "áīĥáĭŃáīµ": 8063,
      "áĭĵáĬĴ": 8064,
      "áĭĵáĪĻ": 8065,
      "ĠáĬķáĮħ": 8066,
      "ĠáĬķáĮİ": 8067,
      "ĠáĬķáīµáĪĢ": 8068,
      "ĠáĬķáīµáĪ³": 8069,
      "ĠáĬķáĭĻ": 8070,
      "ĠáĬķáĭĭáĭŃ": 8071,
      "ĠáĪĿáĮħáī°": 8072,
      "ĠáĪĪáĪįáĬ£": 8073,
      "ĠáĪĪáĪįáīµáĪ«": 8074,
      "ĠáĪĪáĪįáīµáĪ»": 8075,
      "áĬªáī¥": 8076,
      "ĠáĭĪáĪĪáĮĭ": 8077,
      "áĮĭáĪ«": 8078,
      "áĮĭáī¥áĪŃ": 8079,
      "Ġáīłáĭĵ": 8080,
      "ĠáīłáĭŃáĬķ": 8081,
      "Ġáīłáĭ²áĪŃ": 8082,
      "áĭ¬áī¥": 8083,
      "áĭ¬áĪ±áĪµ": 8084,
      "ĠáĭĲáĮĪ": 8085,
      "ĠáĭĲáī¤": 8086,
      "áĭ´áĪģ": 8087,
      "áĭīáĭµ": 8088,
      "áī´áĬĵ": 8089,
      "ĠáĬŃáĪ¨": 8090,
      "áĭ²áįį": 8091,
      "Ġáĭ°áī¥áĪ¨": 8092,
      "ĠáĬ¢áīµáĭĭ": 8093,
      "ĠáĪµáĪĽ": 8094,
      "ĠáĪµáįĵ": 8095,
      "áĭ¨áīµáī¼": 8096,
      "Ġáī°áĬłáīħ": 8097,
      "ĠáĭŃáĭĵ": 8098,
      "ĠáīĢáĭ²": 8099,
      "ĠáīĢáĮ»": 8100,
      "áĭĽáĪģ": 8101,
      "ĠáĪķáĭĿ": 8102,
      "ĠáĪķáĪĽáĪĿ": 8103,
      "áĭ±áĪ¨": 8104,
      "ĠáĪ¸áĭĲáī¥": 8105,
      "ĠáĬ¥áĬķáįį": 8106,
      "áĬĸáĭŃ": 8107,
      "ĠáĪĪáĪĪáī°": 8108,
      "ĠáĪĢáĭµ": 8109,
      "ĠáĪĢáĪ¨áĪ°": 8110,
      "ĠáĪĢáĭ°áįį": 8111,
      "ĠáĪĢáĮĪáĮĬ": 8112,
      "ĠáĪĪáĪĺáĭį": 8113,
      "ĠáĪĪáĪĺáīħ": 8114,
      "áĬĶáĪ½": 8115,
      "ĠáĭĪáĪĪáĪ»": 8116,
      "áĮĥáĪĿ": 8117,
      "áĮĥáĮĪáĪŃ": 8118,
      "Ġáĭķáĭī": 8119,
      "áĪļáĪ©": 8120,
      "ĠáĮįáĭ´": 8121,
      "ĠáĮįáī¥áĪĪ": 8122,
      "ĠáĭĪáīµáĪĿ": 8123,
      "ĠáĭĪáīµáįĭ": 8124,
      "áįİáĬĲ": 8125,
      "áįİáī³áīµ": 8126,
      "áĪĺáīµáĬª": 8127,
      "ĠáĭĪáĬ¥áĭ³": 8128,
      "áĭĸáī°": 8129,
      "Ġáįįáīµ": 8130,
      "ĠáĮĢáĬĶ": 8131,
      "ĠáĮĢáĪ¨áī¥": 8132,
      "ĠáĪĵáĭļ": 8133,
      "ĠáįĪáĭĵ": 8134,
      "ĠáįĪáĭĽ": 8135,
      "ĠáįĪáĮĪáĪŃ": 8136,
      "áĮ¨áįį": 8137,
      "ĠáĭĪáī°áĪĥ": 8138,
      "áĬ¬áĪį": 8139,
      "áĬ¬áĬ®": 8140,
      "áįĪáĪŃáĪķ": 8141,
      "ĠáīħáĭµáĪ¨áīµ": 8142,
      "ĠáĭĺáĪ«": 8143,
      "ĠáĭĺáĪĿáī°": 8144,
      "ĠáĪĪáĬ¥áĬķáĬ¨": 8145,
      "áĭĳáĬķ": 8146,
      "ĠáĬłáĪµáĬł": 8147,
      "ĠáĬłáĪµáĬłáĪį": 8148,
      "ĠáĪŃáĪĿ": 8149,
      "ĠáĪŃáĭĭ": 8150,
      "ĠáĪŃáĬ¨áī¥": 8151,
      "áĭľáĪĺ": 8152,
      "ĠáĭĵáĪ°": 8153,
      "Ġáĭĵáĭ³áīµ": 8154,
      "áĮīáĪ©": 8155,
      "ĠáīµáīµáĬĵ": 8156,
      "áĭ°áĪŃáĪ¶áĪĿ": 8157,
      "ĠáĭįáĪ±": 8158,
      "áĭªáī±": 8159,
      "ĠáĬłáĬķáĭ°áįį": 8160,
      "ĠáĪĪáĪįáīµáįĪ": 8161,
      "ĠáĪĪáĪįáīµáĭĭ": 8162,
      "ĠáĬłáī¥áĪ«": 8163,
      "ĠáĬłáī¥áĮł": 8164,
      "ĠáĬłáī¥áĮłáĪŃ": 8165,
      "ĠáĪĭáĬŃ": 8166,
      "Ġáĭ³áĬķ": 8167,
      "ĠáĬ¥áīµáįį": 8168,
      "ĠáĬłáĪĿáĪ°": 8169,
      "ĠáĪĪáĬłáīµáĬł": 8170,
      "ĠáĪĪáĬłáīµáĭ³": 8171,
      "ĠáĪĪáĬłáīµáįĭáĪŃ": 8172,
      "áĭĴáĬĴ": 8173,
      "áĭĴáī³áīµ": 8174,
      "áĪ«áĭŃáĭµ": 8175,
      "ĠáĮĭáĪª": 8176,
      "áĭ«áĪĿáĭ¬": 8177,
      "áĭĮáī±": 8178,
      "ĠáĪļáĪĬ": 8179,
      "ĠáĭĪáĪĪáĬłáĬķ": 8180,
      "áīłáī°áĬŃ": 8181,
      "áĮ¡áĪĺ": 8182,
      "áĬĵáĭŃáĪĪ": 8183,
      "ĠáĪĪáĪįáĬłáĪ°": 8184,
      "áĪĤáĭĪáīµ": 8185,
      "áĪĭáĭŃáĬĲ": 8186,
      "áĮĪáĪŃáĮįáĪ½": 8187,
      "ĠáĬ¦áĪį": 8188,
      "ĠáĬ¦áĪİáĪĿ": 8189,
      "ĠáĮ½áĭķ": 8190,
      "áįķáĪĭ": 8191,
      "ĠáĪ«áĭµ": 8192,
      "áĭ³áĭŃáī±": 8193,
      "áīĢáīµáĪį": 8194,
      "áĪŃáĪĲáī±": 8195,
      "áĪŃáĪĲáĭ¨": 8196,
      "Ġáĭ²áįķáĪİ": 8197,
      "áĭ°áĭįáĬĲ": 8198,
      "ĠáĪĪáĪĪáĪµ": 8199,
      "ĠáĪĪáĪ¨áī¥": 8200,
      "ĠáĪĪáĪ¨áĬŃáīł": 8201,
      "ĠáĪĪáĪ¸áĬķ": 8202,
      "ĠáĪĪáĪĿáĬķ": 8203,
      "ĠáĪĪáĪĿáĭķ": 8204,
      "áĪĶáĬ¨": 8205,
      "áĬŃáĬķáī±": 8206,
      "ĠáĬłáĭįáĭĲáĪį": 8207,
      "ĠáĪŀáĬķ": 8208,
      "áĬŃáĪ¨áĬķ": 8209,
      "áįĢáĪŃ": 8210,
      "áīµáĪĭáĭŃ": 8211,
      "áĪŃáĭ¨áī°": 8212,
      "áĪĿáĪŃáī±": 8213,
      "áĪĿáĪŃáĮį": 8214,
      "ĠáĬķáīµáī£": 8215,
      "áĪŃáĬŃáīµ": 8216,
      "áĮĪáĪĿáĪį": 8217,
      "ĠáĪĪáĭŃáĬ¥áĬķ": 8218,
      "áĪŃáĪķáĪĿ": 8219,
      "áī°áĪĿáī°áĪĿ": 8220,
      "áĪ¼áĬŃ": 8221,
      "áīªáĪį": 8222,
      "áīªáĭµ": 8223,
      "ĠáĭĪáīħáĪŃ": 8224,
      "áĪįáĭ¨áīµáĪĺ": 8225,
      "áĮĪáĪĪáī¥": 8226,
      "ĠáįĪáĪŃáĪĲ": 8227,
      "áĪ¨áĬŃáĬĲ": 8228,
      "ĠáĪĺáĪįáĬł": 8229,
      "ĠáĭĪáĪ³áĪĿ": 8230,
      "áĮºáĬ¥": 8231,
      "ĠáĪĪáĬłáĬķáīłáīµ": 8232,
      "áĬķáĭ¨áī°": 8233,
      "áĪ«áĪŃáĭ¬": 8234,
      "ĠáĪĪáĬ¢áĪįáīµáĬ¨": 8235,
      "ĠáĪĪáĬłáįįáĮĪáĪŃ": 8236,
      "áĪĪáĪĢáĭŃ": 8237,
      "áīĢáĭµáĪ©": 8238,
      "ĠáĬłáĬ¨áĭŃ": 8239,
      "áīµáĪ®áĬķ": 8240,
      "áĬ£áīµáĭ©": 8241,
      "ĠáĭĪáĭŃáĪĲ": 8242,
      "ĠáĭĪáĭŃáĬ¥áĬķ": 8243,
      "ĠáĬłáīµáĪĲáĭĺ": 8244,
      "ĠáĪĪáĪŃáĬ¥": 8245,
      "ĠáĪĺáīħáĭ°áĪ¨": 8246,
      "áįįáĪħáĪŀ": 8247,
      "áįįáĪħáĪŀáĪĿ": 8248,
      "ĠáĪĺáĪķáīłáĪŃ": 8249,
      "ĠáĪĿáĪħáĪ®": 8250,
      "Ġáī¥áĪŃáĮĮ": 8251,
      "áīłáĪħáĪį": 8252,
      "ĠáĭĲáī¥áĭ±áĪį": 8253,
      "ĠáīµáĮįáĪ¬": 8254,
      "ĠáĮĢáĪªáĭ°": 8255,
      "ĠáĬłáĮĢáĬĴáīµ": 8256,
      "ĠáĪĪáī¤áĪį": 8257,
      "ĠáĪĪáĪĪáĪĢáĭŃ": 8258,
      "Ġáī°áĭķáĪĬ": 8259,
      "Ġáī°áīħáĪª": 8260,
      "ĠáĪµáī³áī²": 8261,
      "áīµáĪİáĪĿ": 8262,
      "áīµáĪĺáĪ³áĬĶ": 8263,
      "áīµáĪĥáĮĢáĬŃ": 8264,
      "áĭ°áĬķáĮįáĮ½": 8265,
      "áĭĢ": 8266,
      "áĮ§": 8267,
      "áĬķáĮ¥": 8268,
      "áĪĿáĪŀ": 8269,
      "áĪŃáĬ¢": 8270,
      "áĪŃáĮ¥": 8271,
      "áĪŃáĪĥ": 8272,
      "áĪŃáįİ": 8273,
      "áĪŃáĭĸ": 8274,
      "áĪŃáįī": 8275,
      "áĪŃáĮĤ": 8276,
      "áī°áĪĢ": 8277,
      "áī°áĪª": 8278,
      "áī°áĬª": 8279,
      "áī°áĬ©áĪĿ": 8280,
      "ĠáĪĪáī¶": 8281,
      "ĠáĪĪáĭ±": 8282,
      "ĠáĪĪáĬŃáĪį": 8283,
      "ĠáĪĪáįĪáĪį": 8284,
      "ĠáĪĪáīħáĪŃ": 8285,
      "ĠáĪĪáīµáĪ½": 8286,
      "áĬłáīµáĬĲ": 8287,
      "áĪįáĬ¡": 8288,
      "áī¥áī¶áĪĿ": 8289,
      "áī¥áĪ°áīµ": 8290,
      "áī¥áĭ«áĬķ": 8291,
      "áīłáĪĲ": 8292,
      "áīłáĬ«": 8293,
      "áīłáĬª": 8294,
      "áīłáĮ¢": 8295,
      "áīłáĭĿáĪķ": 8296,
      "ĠáĭĪáĭİ": 8297,
      "ĠáĭĪáįī": 8298,
      "ĠáĭĪáįįáĪŃ": 8299,
      "ĠáĭĪáĮįáĪĿ": 8300,
      "ĠáĭĪáī£áĪŃ": 8301,
      "ĠáĭĪáĭĪáĪµ": 8302,
      "áĪĺáĪŀ": 8303,
      "áĪĺáĪįáĬ¨": 8304,
      "áĪ¨áĪ©": 8305,
      "áĪ¨áĮŃ": 8306,
      "áĪ¨áĪĺáĭį": 8307,
      "áĪ¨áĪ¨áī°": 8308,
      "áĬĲáĪĿ": 8309,
      "áĬĲáĬĲáīµ": 8310,
      "áĬĲáī¥áīµ": 8311,
      "áĬ¨áī¦": 8312,
      "áĬ¨áĪĺáīµ": 8313,
      "áĭŃáĪĲáīµ": 8314,
      "ĠáĬłáĬª": 8315,
      "ĠáĬłáĪĺáĪį": 8316,
      "ĠáĬłáĪĢáĪĿ": 8317,
      "áĪĪáĭĭ": 8318,
      "áĪĪáĬª": 8319,
      "áĪĪáī¥áĬĲ": 8320,
      "áĪĪáĭĲáĪį": 8321,
      "áĪĪáĮ¢": 8322,
      "áĪĪáįĪáĭį": 8323,
      "áĭµáĬĸ": 8324,
      "áĭµáī¥áĪŃ": 8325,
      "áĭµáĭĶ": 8326,
      "áĭ°áĭ¶": 8327,
      "áĭ°áĪľ": 8328,
      "áĭ°áĭİáĪĿ": 8329,
      "áĭ°áĭ«áī±": 8330,
      "ĠáĪĪáĪ©": 8331,
      "ĠáĪĪáĪ¶": 8332,
      "áĬŃáĬ¥": 8333,
      "áĬŃáĭ±": 8334,
      "áĬŃáĪķáĭµ": 8335,
      "áīµáĪ¾": 8336,
      "áī±áĪį": 8337,
      "ĠáĮº": 8338,
      "ĠáĪĺáįħ": 8339,
      "ĠáĪĺáĪ¨áī¥": 8340,
      "ĠáĪĺáĭµáĪ¨áĪ°": 8341,
      "ĠáĪĺáĭµáĪ¨áĪ°áīµ": 8342,
      "ĠáĬ¢áīħ": 8343,
      "ĠáĬ¢áī£": 8344,
      "ĠáĬ¢áĬ®": 8345,
      "ĠáĬ¢áĪĺáĪŃ": 8346,
      "ĠáĬ¢áĭĪáĪį": 8347,
      "ĠáĬ¢áīµáĪ»": 8348,
      "ĠáĬ¢áīµáĪħ": 8349,
      "ĠáĬ¢áįĪáī´": 8350,
      "áįįáĭµ": 8351,
      "áįįáĬĵ": 8352,
      "áįįáĪĭ": 8353,
      "áįįáĭ«áīµ": 8354,
      "áĭįáī±": 8355,
      "áĭĲáĪī": 8356,
      "áīĢáĭ®áĪĿ": 8357,
      "áīĢáī¦áīµ": 8358,
      "áĪ°áĪ¶": 8359,
      "áĪ°áī¼": 8360,
      "ĠáīµáīµáĪĽ": 8361,
      "ĠáīµáīµáĪĢáĭ¨": 8362,
      "áĬĵáĬĵ": 8363,
      "áĬ¥áīµáĪĪ": 8364,
      "ĠáĪįáĪ¨": 8365,
      "ĠáĪįáī¡": 8366,
      "ĠáĪįáĬķáĭ°": 8367,
      "ĠáĪįáĭµáĪķ": 8368,
      "ĠáĪįáĭĪáĪµ": 8369,
      "ĠáĪįáīħáīł": 8370,
      "ĠáĪįáīµáĪĥáĮĪ": 8371,
      "ĠáĬ¥áĭ«": 8372,
      "ĠáĬ¥áĮĪáĪŃ": 8373,
      "áĭķáĪĽáĪŃ": 8374,
      "áĮįáī±": 8375,
      "áĮįáĬĵ": 8376,
      "áĮįáĪĮ": 8377,
      "áĮįáĪĪáīµ": 8378,
      "áĮįáĭ«áĭŃ": 8379,
      "Ġáī°áĭĺ": 8380,
      "Ġáī°áĬŃáĪĪ": 8381,
      "áĭ«áīł": 8382,
      "áī£áī³": 8383,
      "áī£áĪĨáĪĿ": 8384,
      "áī³áĭį": 8385,
      "áī³áĪĻ": 8386,
      "ĠáĬ¨áī¢": 8387,
      "ĠáĬ¨áĪ¨áĪĿ": 8388,
      "ĠáĬ¨áĪĢáĪį": 8389,
      "áĪķáĭ¬": 8390,
      "áĪĢáĭĿ": 8391,
      "áĪĢáĪ®": 8392,
      "áĪĢáĪŀ": 8393,
      "áĪĢáīµáĬ¨": 8394,
      "áĬ«áĬ¤áĪį": 8395,
      "ĠáĪĪáĬłáĬĵ": 8396,
      "ĠáĪĪáĬłáĭµáĪŃ": 8397,
      "ĠáĪĪáĬłáĪĺáĪŃ": 8398,
      "ĠáĪĪáĬłáīµáĪĭ": 8399,
      "áĬĴáĭĿ": 8400,
      "áĭĪáīĢ": 8401,
      "áĭĪáīµáĬ¨": 8402,
      "áĭ³áĬĵ": 8403,
      "áĪĽáĭµáĭµ": 8404,
      "áĪĽáĭįáĭĿ": 8405,
      "áĬ¢áĪ½": 8406,
      "áĪħáĪª": 8407,
      "áĭ©áĪŃ": 8408,
      "áĮĪáĬ¥": 8409,
      "áĮĪáĭī": 8410,
      "áī¶áī¡": 8411,
      "áī¶áī³áīµ": 8412,
      "áĭĭáĭŃáīµ": 8413,
      "áĪªáĪĻ": 8414,
      "áĪ³áīµáĪĺ": 8415,
      "áĮ¥áī¥": 8416,
      "áĮ¥áĬ®": 8417,
      "áĮ¥áĬĳ": 8418,
      "áĭĺáĪĪ": 8419,
      "ĠáĪ°áĪ°": 8420,
      "ĠáĪ°áĭĪ": 8421,
      "ĠáĪ°áĭ³": 8422,
      "ĠáĪ°áĪŃáĮį": 8423,
      "áĮ½áĪ¨": 8424,
      "áĮ½áĬ¨": 8425,
      "ĠáĪĪáīµáĮĪáĪį": 8426,
      "áĭ®áĬķáĪµ": 8427,
      "ĠáĬĲáīĢ": 8428,
      "ĠáĬĲáīĥ": 8429,
      "ĠáĬĲáįįáĭĲ": 8430,
      "ĠáĬĲáīĢáĪĿ": 8431,
      "áĮĢáī°": 8432,
      "áĮĢáĬĴ": 8433,
      "áĮ¸áĬĴ": 8434,
      "áīĥáĭį": 8435,
      "áīĥáĪ«": 8436,
      "áĭĵáĬķ": 8437,
      "ĠáĬķáĭ¨": 8438,
      "ĠáĬķáĭ³áĪį": 8439,
      "ĠáĪĿáĭĿ": 8440,
      "áĬ£áĪī": 8441,
      "áĪīáĭµ": 8442,
      "áĭĪáĪ²": 8443,
      "áĭĪáĪĶ": 8444,
      "ĠáīłáĪĺ": 8445,
      "ĠáīłáĬĶ": 8446,
      "Ġáīłáĭ°áĪį": 8447,
      "ĠáĭĲáĪĭ": 8448,
      "ĠáĭĲáįĮ": 8449,
      "ĠáĭĲáīħáĪį": 8450,
      "ĠáĭĲáĪµáĬ¨áĪŃ": 8451,
      "áĪĬáĭµ": 8452,
      "áĪĬáĬĵ": 8453,
      "áĪĬáĬķáĮį": 8454,
      "áĪ¬áī³áīµ": 8455,
      "ĠáĭĪáĬłáĪĺ": 8456,
      "ĠáĭĪáĬłáĬ¥": 8457,
      "ĠáĭĪáĬłáī°áĪĭ": 8458,
      "ĠáĪįáīµáīłáĪĢ": 8459,
      "ĠáĪįáīµáĭĪáĪ°": 8460,
      "áī´áī¥": 8461,
      "ĠáĬŃáĬĵ": 8462,
      "ĠáĪĪáĬ¢áīĢ": 8463,
      "ĠáĪĪáĬ¢áĪ¸": 8464,
      "áĭ²áĪĨáĪĿ": 8465,
      "ĠáĬ£áĬķáĭµ": 8466,
      "áīµáĪĺáĭ¬": 8467,
      "áĪĵáĭĿ": 8468,
      "ĠáĭĪáĪĺáĪĿ": 8469,
      "ĠáĭĪáĪĺáĭµ": 8470,
      "ĠáĭĪáĪĺáīĥ": 8471,
      "ĠáĭĪáĪĺáĪµáī°": 8472,
      "Ġáĭ°áĬĵ": 8473,
      "Ġáĭ°áįĭ": 8474,
      "Ġáĭ°áĬķáĮį": 8475,
      "Ġáĭ°áĪĿáīł": 8476,
      "Ġáĭ°áĪŃáĮĪ": 8477,
      "ĠáĬ¢áīµáĪ¨": 8478,
      "ĠáĬ¢áīµáĭµ": 8479,
      "ĠáĬ¢áīµáĬ«": 8480,
      "ĠáĪµáīħ": 8481,
      "ĠáĪµáĪĭ": 8482,
      "áĭ¨áīµáĬĵ": 8483,
      "Ġáī°áĬłáĪ½": 8484,
      "Ġáī°áĬłáīµáĪ«": 8485,
      "áĪ¨áīµáī±": 8486,
      "ĠáĭŃáĬĲ": 8487,
      "ĠáīĢáĭĿ": 8488,
      "áĭĽáĭķ": 8489,
      "áĭĽáĭĺ": 8490,
      "áĭĽáīłáĭ©": 8491,
      "ĠáĪķáĪľ": 8492,
      "áĭ±áĭ°": 8493,
      "Ġáī¥áĪĪ": 8494,
      "Ġáī¥áĭ²": 8495,
      "ĠáĪ¸áīµ": 8496,
      "ĠáĪ¸áĮ¥": 8497,
      "ĠáĪĪáī°áĬ¥": 8498,
      "áīµáĬ¨áĪ¬": 8499,
      "ĠáĬ¥áĬķáĬŃ": 8500,
      "ĠáĬ¥áĬķáĭĪ": 8501,
      "áĭ¶áī¥": 8502,
      "áĭ¶áĪ¨": 8503,
      "áĬĸáĪ°": 8504,
      "áĬĸáĬ¬": 8505,
      "áĬĸáĪİáĮĤ": 8506,
      "ĠáĪ¨áī°": 8507,
      "ĠáĪ¨áĪ°": 8508,
      "ĠáĪ¨áĪ³": 8509,
      "ĠáĪ¨áĮħ": 8510,
      "áĬ¤áĬķ": 8511,
      "áĭŃáīµáĪµ": 8512,
      "ĠáĪĢáĭĪ": 8513,
      "ĠáĪĢáĪĪáĭ®": 8514,
      "ĠáĪĪáĪĺáĭ³": 8515,
      "ĠáĪĪáĪĺáĮ¸áĬł": 8516,
      "ĠáĭĪáĬ¢áĪĢ": 8517,
      "áĪ±áĬ¥": 8518,
      "áĮĥáĭŃáī¥": 8519,
      "ĠáĭķáĭĽ": 8520,
      "áĪļáī°": 8521,
      "áĪļáĭµ": 8522,
      "áĪļáĪľ": 8523,
      "áĪļáĬĵáīµ": 8524,
      "ĠáĮįáĭķ": 8525,
      "ĠáĮįáĭĭ": 8526,
      "ĠáĪĽáĬŃ": 8527,
[...]
