{
  "version": "1.0",
  "truncation": null,
  "padding": null,
  "added_tokens": [
    {
      "id": 0,
      "content": "<unk>",
      "single_word": false,
      "lstrip": false,
      "rstrip": false,
      "normalized": false,
      "special": true
    },
    {
      "id": 1,
      "content": "<s>",
      "single_word": false,
      "lstrip": false,
      "rstrip": false,
      "normalized": false,
      "special": true
    },
    {
      "id": 2,
      "content": "</s>",
      "single_word": false,
      "lstrip": false,
      "rstrip": false,
      "normalized": false,
      "special": true
    },
    {
      "id": 3,
      "content": "<pad>",
      "single_word": false,
      "lstrip": false,
      "rstrip": false,
      "normalized": false,
      "special": true
    },
    {
      "id": 4,
      "content": "<mask>",
      "single_word": false,
      "lstrip": false,
      "rstrip": false,
      "normalized": false,
      "special": true
    }
  ],
  "normalizer": {
    "type": "NFC"
  },
  "pre_tokenizer": {
    "type": "ByteLevel",
    "add_prefix_space": true,
    "trim_offsets": true,
    "use_regex": true
  },
  "post_processor": null,
  "decoder": {
    "type": "ByteLevel",
    "add_prefix_space": true,
    "trim_offsets": true,
    "use_regex": true
  },
  "model": {
    "type": "BPE",
    "dropout": null,
    "unk_token": "<unk>",
    "continuing_subword_prefix": null,
    "end_of_word_suffix": null,
    "fuse_unk": false,
    "byte_fallback": false,
    "ignore_merges": false,
    "vocab": {
      "<unk>": 0,
      "<s>": 1,
      "</s>": 2,
      "<pad>": 3,
      "<mask>": 4,
      "¡": 5,
      "¢": 6,
      "£": 7,
      "¤": 8,
      "¥": 9,
      "¦": 10,
      "¨": 11,
      "©": 12,
      "ª": 13,
      "«": 14,
      "¬": 15,
      "®": 16,
      "¯": 17,
      "°": 18,
      "±": 19,
      "²": 20,
      "³": 21,
      "´": 22,
      "µ": 23,
      "¶": 24,
      "¸": 25,
      "¹": 26,
      "º": 27,
      "»": 28,
      "½": 29,
      "¾": 30,
      "á": 31,
      "Ġ": 32,
      "Ģ": 33,
      "ģ": 34,
      "Ĥ": 35,
      "ĥ": 36,
      "Ħ": 37,
      "ħ": 38,
      "Ĩ": 39,
      "Ī": 40,
      "ī": 41,
      "Ĭ": 42,
      "ĭ": 43,
      "Į": 44,
      "į": 45,
      "İ": 46,
      "Ĳ": 47,
      "ĳ": 48,
      "Ĵ": 49,
      "ĵ": 50,
      "Ķ": 51,
      "ķ": 52,
      "ĸ": 53,
      "ĺ": 54,
      "Ļ": 55,
      "ļ": 56,
      "Ľ": 57,
      "ľ": 58,
      "Ŀ": 59,
      "ŀ": 60,
      "ł": 61,
      "Ń": 62,
      "áĪ": 63,
      "áĭ": 64,
      "áĬ": 65,
      "áī": 66,
      "Ġáĭ": 67,
      "ĠáĬ": 68,
      "ĠáĭĪ": 69,
      "áĮ": 70,
      "ĠáĪ": 71,
      "¥áĪ": 72,
      "Ġáī": 73,
      "áĬķ": 74,
      "áī°": 75,
      "áĪŃ": 76,
      "áīµ": 77,
      "ĠáĭĪáĬ": 78,
      "áį": 79,
      "áĪµ": 80,
      "áĮį": 81,
      "áĭµ": 82,
      "áĬ¥": 83,
      "áī¥áĪ": 84,
      "ĠáĬł": 85,
      "áĭŃ": 86,
      "áĪĺ": 87,
      "Ġáīł": 88,
      "áīł": 89,
      "áĪĿ": 90,
      "ĠáĪĪ": 91,
      "áĪį": 92,
      "áĪ¨": 93,
      "ĠáĬ¥áĪ": 94,
      "áĭ¨": 95,
      "áĬł": 96,
      "áĪĻ": 97,
      "Ġáĭĺ": 98,
      "áĭ°": 99,
      "áĪģ": 100,
      "áĭķ": 101,
      "áĬĲ": 102,
      "áĪĪ": 103,
      "áĬ¨": 104,
      "áįĪ": 105,
      "áĬħ": 106,
      "ĠáĬ¥": 107,
      "ĠáĮ": 108,
      "áĪ°": 109,
      "áĭĪ": 110,
      "áĭį": 111,
      "áī¥": 112,
      "ĠáĪĺ": 113,
      "áĪĽ": 114,
      "áīħ": 115,
      "ĠáĭŃ": 116,
      "áĭ«": 117,
      "áĭ³": 118,
      "áĪł": 119,
      "áĬĴ": 120,
      "áĭĺ": 121,
      "ĠáĭĪáĬł": 122,
      "áĬ£": 123,
      "áĬŃ": 124,
      "áī±": 125,
      "áĭļ": 126,
      "áĬĵ": 127,
      "áĮĪ": 128,
      "ĠáĬ¥áĪĿ": 129,
      "áĮįáĭļ": 130,
      "áĪ¥": 131,
      "áī¤": 132,
      "ĶáĪŃ": 133,
      "Ġáī°": 134,
      "ĠáĭĪáĬ¥áĪ": 135,
      "ĠáĭĪáĭŃ": 136,
      "áī¥áĪĶáĪŃ": 137,
      "áĬ£áī¥áĪĶáĪŃ": 138,
      "áĮįáĭļáĬ£áī¥áĪĶáĪŃ": 139,
      "áĬķáī°": 140,
      "áįį": 141,
      "áĪµáī°": 142,
      "áĪ«": 143,
      "áĪĭ": 144,
      "áĪķ": 145,
      "áĭĲ": 146,
      "áīĢ": 147,
      "Ŀáĭµ": 148,
      "áĭ®": 149,
      "áī¦": 150,
      "áī²": 151,
      "ĠáĬ¨": 152,
      "áĭĿ": 153,
      "ĠáĭĪáīł": 154,
      "ĲáĮį": 155,
      "ĠáĬ¢": 156,
      "ĲáĮįáĪł": 157,
      "áĪ¬": 158,
      "áĭĬ": 159,
      "áĭĭ": 160,
      "áĬĢ": 161,
      "áĪ³": 162,
      "áī³": 163,
      "ĠáĪ°": 164,
      "áĪ®": 165,
      "áĪī": 166,
      "áĬ©": 167,
      "Ġáĭį": 168,
      "ĠáĬ¨áĪĺ": 169,
      "áĭ±": 170,
      "áĮ½": 171,
      "ĠáĬ¥áĮįáĭļáĬ£áī¥áĪĶáĪŃ": 172,
      "áīĤ": 173,
      "áī¥áĪŃ": 174,
      "ĠáĬ¥áĪµ": 175,
      "áĪİ": 176,
      "ĠáĮ½": 177,
      "ĠáĪķ": 178,
      "ĠáīłáĬ¥": 179,
      "áī¡": 180,
      "ĠáĭĪáĬ¥áĪĿáĭµ": 181,
      "ĠáĭĪáĬ¥áĪĿáĭµáĬħ": 182,
      "áĪĢ": 183,
      "áĪĬ": 184,
      "áĭİ": 185,
      "Ġáĭ°": 186,
      "ĠáĬĲáĮįáĪł": 187,
      "ĠáĭĪáĪį": 188,
      "áĮĭ": 189,
      "Ġáīħ": 190,
      "Ġáį": 191,
      "áĪĲ": 192,
      "áĬ¥áĪ": 193,
      "ĠáĬĢ": 194,
      "ĠáĭĪáĪĺ": 195,
      "ĠáĪĽ": 196,
      "ĠáĪĿ": 197,
      "ĠáĪĪáĬ¥": 198,
      "áĭ³áĪĿ": 199,
      "ĨáĪĻ": 200,
      "áĪĮ": 201,
      "áī£": 202,
      "ĠáĬķ": 203,
      "áįĪáĮ": 204,
      "áĭ®áĬķ": 205,
      "áĭĬáīµ": 206,
      "áĮī": 207,
      "ĠáĪµ": 208,
      "Ġáī³": 209,
      "ĠáĮĪ": 210,
      "áĪ¥áĪ": 211,
      "áĬĳ": 212,
      "ĠáĭĪáī°": 213,
      "ĠáĪĭ": 214,
      "Ġáīµ": 215,
      "Ġáīĥ": 216,
      "áĭ°áīĤ": 217,
      "áĭĪáĪŃ": 218,
      "ĠáĪĺáĬķ": 219,
      "ĠáĭĪáĭŃáī¤": 220,
      "áĪ¬áĪģ": 221,
      "ĠáĭĪáĬ¥áĪĿáĭµáĬħáĪ¬áĪģ": 222,
      "áĪĨáĪĻ": 223,
      "áīĥ": 224,
      "ĠáĪĿáĭµ": 225,
      "áĬ¥áī±": 226,
      "áī¥áĪ¨": 227,
      "áĪ¨áįĪ": 228,
      "ĠáĭįáĪµáī°": 229,
      "ĠáĬ¥áĪµáĪĺ": 230,
      "ĠáīłáĬ¥áĬķáī°": 231,
      "®áĬĲ": 232,
      "áĪĥ": 233,
      "áĭ©": 234,
      "áī¶": 235,
      "ĠáĭĪáĪĿ": 236,
      "áĮ¸": 237,
      "áĪŃáĬł": 238,
      "áĮįáĪ¥": 239,
      "áĬħáĭ°": 240,
      "áī¦áī°": 241,
      "ĠáĪĪáĬ¥áĮįáĭļáĬ£áī¥áĪĶáĪŃ": 242,
      "µáĪī": 243,
      "áĪ©": 244,
      "áĪħ": 245,
      "ĠáĭĪáĭĪ": 246,
      "áĬķáīł": 247,
      "ĠáĭĪáĬĲáĮįáĪł": 248,
      "ĠáĬłáĭ³áĪĿ": 249,
      "ĠáīłáĬł": 250,
      "ĠáĬ¥áĪĪ": 251,
      "áĭķáĪ¨áįĪ": 252,
      "áĪĽáĭ«": 253,
      "ĠáĮ½áĭ®áĬķ": 254,
      "ªáĭ³": 255,
      "áĪª": 256,
      "áĪ¶": 257,
      "áĭĵ": 258,
      "áĬĸ": 259,
      "Ġáĭ«": 260,
      "ĠáĬŃ": 261,
      "ĠáĭĪáīµ": 262,
      "ĠáĭĪáĬ¢": 263,
      "ĠáĭĪáĬ¥": 264,
      "áĭµáĪŃ": 265,
      "áĭµáĬħ": 266,
      "ĠáĭŃáĬ¥": 267,
      "ĠáĭĪáĬ¥áĪĿ": 268,
      "áĪ®áĪĻ": 269,
      "ĠáĭĪáĪįáĭ±": 270,
      "ĠáĪĿáĪµ": 271,
      "áĪ±": 272,
      "áĭĽ": 273,
      "áĬ®": 274,
      "ĠáĭĿ": 275,
      "ĠáĪ´": 276,
      "ĠáĪŃ": 277,
      "ĠáīĢ": 278,
      "áįĭ": 279,
      "áĬ¥áĬķáīł": 280,
      "áī¥áĪ«": 281,
      "ĠáĪĪáĬł": 282,
      "ĠáĭĺáĭŃ": 283,
      "ĠáĭŃáī¤": 284,
      "ĠáĭĪáĬłáĭķáĪ¨áįĪ": 285,
      "ĠáĬ¢áĭŃ": 286,
      "ĠáĪĭáĭķ": 287,
      "áĭĪáĪŃáīħ": 288,
      "ªáĭ³áĬķ": 289,
      "ĠáįĪáĮ": 290,
      "áĭľ": 291,
      "áĬ¡": 292,
      "áĬ¢": 293,
      "áĬ¤": 294,
      "áīģ": 295,
      "ĠáĬµáĪī": 296,
      "ĠáĭĪáĪĪ": 297,
      "ĠáĭĪáĬ£": 298,
      "ĠáĪĪáĭ°áīĤ": 299,
      "áĭįáĪµáī°": 300,
      "áĭįáĬ¥áī±": 301,
      "ĠáĪĺáĬķáĮįáĪ¥": 302,
      "ĠáĪĿáĭµáĪŃ": 303,
      "Ġáįį": 304,
      "ĸáĪķ": 305,
      "áĪľ": 306,
      "áĭ²": 307,
      "áĭĸ": 308,
      "áĬĥ": 309,
      "áī´": 310,
      "ĠáĬĲ": 311,
      "ĠáĭĪáĭĺ": 312,
      "áĮ¥": 313,
      "áĬķáįĪ": 314,
      "áĬķáĭĺ": 315,
      "áĪŃáĬ¥": 316,
      "ĠáĭĪáĬ¨": 317,
      "áĭµáīħ": 318,
      "áī¥áĪĲ": 319,
      "ĠáĬłáī¡": 320,
      "áĭ¨áĬķ": 321,
      "ĠáĬ¥áĬķáī°": 322,
      "áĭĪáĪį": 323,
      "áĪİáĪĻ": 324,
      "ĠáĪķáĮį": 325,
      "Ġáī³áī¦áī°": 326,
      "áĬħáĭ°áĪ¨": 327,
      "áĬ¥áĬķáīłáĪĪ": 328,
      "áĪ´": 329,
      "áĪļ": 330,
      "áĪŀ": 331,
      "áĭĳ": 332,
      "áĬ¦": 333,
      "áī¢": 334,
      "Ġáĭ²": 335,
      "Ġáĭķ": 336,
      "ĠáĬªáĭ³áĬķ": 337,
      "ĠáĭĪáĪ°": 338,
      "ĠáĭĪáī¦": 339,
      "áĭµáĬĢ": 340,
      "ĠáĬłáĪĿ": 341,
      "áĭŃáĬħ": 342,
      "ĠáīłáĭįáĪµáī°": 343,
      "ĠáĬ¥áĪĺ": 344,
      "ĠáĪ°áĪĽáĭ«": 345,
      "Ġáīħáĭ±": 346,
      "ĠáĪµáī¥áĪĲ": 347,
      "ĠáĭŃáĬ¥áī²": 348,
      "áĭµáĬĢáĬĴ": 349,
      "ĠáĮį": 350,
      "Ġáĭ³": 351,
      "ĠáĬĸáĪķ": 352,
      "áĮ¡": 353,
      "áĮ¹": 354,
      "áĬķáĬł": 355,
      "ĠáĭĪáĬ®áĬĲ": 356,
      "áįħ": 357,
      "áĭµáĪĺ": 358,
      "ĠáĪĪáĭĺ": 359,
      "ĠáĪĪáĪĬ": 360,
      "áĪįáĬ¤": 361,
      "áĬłáĪģ": 362,
      "ĠáĭĺáĬł": 363,
      "ĠáĭĺáĬ¥áĬķáīłáĪĪ": 364,
      "áĭķáīł": 365,
      "áĬ¨áĪĺ": 366,
      "ĠáĮ¸": 367,
      "áī¥áī°": 368,
      "áī²áĪģ": 369,
      "áĮ½áĭµáīħ": 370,
      "áĭİáĬķ": 371,
      "Ġáĭ°áīĤ": 372,
      "áī¶áĪĻ": 373,
      "ĠáĪĿáĪµáĪĪ": 374,
      "ĠáĪ´áĪĿ": 375,
      "ĠáĪĭáĭķáĪĪ": 376,
      "ĠáĪĪáĭ°áīĤáīĢ": 377,
      "ĠáĬłáī¡áĪģ": 378,
      "Ġáīħáĭ±áĪµ": 379,
      "ĠáĪĪáĪĬáĪģ": 380,
      "ĠáįĪ": 381,
      "áĭī": 382,
      "áĬģ": 383,
      "ĠáĭĲ": 384,
      "ĠáĬ«": 385,
      "ĠáĬħ": 386,
      "ĠáĭĪáįĪ": 387,
      "ĠáĭĪáĪĽ": 388,
      "ĠáĭĪáĪ¶": 389,
      "ĠáĭĪáĭįáĬ¥áī±": 390,
      "áĮ»": 391,
      "ĠáĪ¥": 392,
      "ĠáĪĢ": 393,
      "ĠáĪł": 394,
      "áĬķáĪµ": 395,
      "áĬķáī±": 396,
      "áĪŃáĪµ": 397,
      "ĠáĭĪáĬĢ": 398,
      "áĪµáī´": 399,
      "áĬ¥áĬķáī°": 400,
      "áĬ¥áĭĽ": 401,
      "áī¥áĪ©": 402,
      "ĠáĬłáī¥": 403,
      "áĪĿáĭµáĪŃ": 404,
      "ĠáĭĺáĪŃáĬł": 405,
      "ĠáĭĺáĭĪáĪŃáīħ": 406,
      "ĠáĬ¥áĬķáĭĺ": 407,
      "áī¥áĬ¥": 408,
      "áĬŃáĪĻ": 409,
      "ĠáĬ¥áĪĿáĭµáĬħ": 410,
      "áī¤áĪį": 411,
      "ĠáĭĪáĭŃáīµ": 412,
      "ĠáĬ¥áĪµáĬ¨": 413,
      "ĠáįĢ": 414,
      "ĠáĭĪáĪĺáĬķáįĪ": 415,
      "áĪĮáĪĨáĪĻ": 416,
      "ĠáĪµáĪĿ": 417,
      "Ġáīĥáĭ¨áĬķ": 418,
      "ĠáįĪáĮ£": 419,
      "ĠáĪĺáĬķáĮįáĪ¥áīµ": 420,
      "áĭĪáĪįáĭ°": 421,
      "ĠáĬªáĭ³áĬķáĭ¨": 422,
      "ĠáĬłáĪĿáĪĭ": 423,
      "ĠáĭĪáĪ¶áīł": 424,
      "áĪµáī´áī³": 425,
      "£áĭĸ": 426,
      "ŃáĭĲ": 427,
      "áĭĻ": 428,
      "áĬª": 429,
      "áĬ«": 430,
      "áĬ¬": 431,
      "áĬĶ": 432,
      "áīĨ": 433,
      "ĠáĬ©": 434,
      "ĠáĭĪáĬķ": 435,
      "ĠáĭĪáĭ¨": 436,
      "áĮ¦": 437,
      "áĮł": 438,
      "ĠáĪĲ": 439,
      "Ġáī¥": 440,
      "Ġáī¥áĪ": 441,
      "áīµáĬĴ": 442,
      "áĮįáīł": 443,
      "áĭµáįĭ": 444,
      "áī¥áĪį": 445,
      "ĠáĬłáĪį": 446,
      "ĠáĬłáĬĲ": 447,
      "ĠáĬłáĭį": 448,
      "ĠáĬłáĭŃáĬħ": 449,
      "ĠáīłáĬŃ": 450,
      "ĠáīłáĭĪáĪŃáīħ": 451,
      "ĠáīłáĬ¨áĪĺ": 452,
      "ĠáīłáĮ½áĭµáīħ": 453,
      "áīłáĭĬ": 454,
      "ĠáĪĪáī³": 455,
      "áĪįáĭ¨": 456,
      "ĠáĭĺáĬ¢": 457,
      "áĭķáī°": 458,
      "ĠáĪĺáĪĭ": 459,
      "ĠáĪĺáĭµáĬĢáĬĴ": 460,
      "ĠáĭĪáĬłáĪį": 461,
      "áĬĵáĬķ": 462,
      "áĮĪáī¥áĪŃ": 463,
      "áĪ¥áĮĭ": 464,
      "Ġáī°áĭĲ": 465,
      "Ġáī°áĭĪáĪįáĭ°": 466,
      "ĠáĭĪáĬ¥áĪĿáĭµáĬħáĪ¨": 467,
      "Ġáĭ°áĪĺ": 468,
      "ĠáĭĪáĪįáĭµ": 469,
      "ĠáīħáĬķáĬł": 470,
      "áī£áĪ¨": 471,
      "ĠáĬķáĮī": 472,
      "ĠáĭĪáĭŃáī¤áĪİ": 473,
      "áī¥áĪ¨áīµ": 474,
      "áĮ¸áĭį": 475,
      "áĪħáĬĵ": 476,
      "áī¥áĪ«áĪĿ": 477,
      "ĠáĪ°áĪĽáĭ«áĭĬáīµ": 478,
      "ĠáĪµáī¥áĪĲáī²áĪģ": 479,
      "áī¥áī°áĪ«": 480,
      "áĭµáįĭáĭ°": 481,
      "ĠáĪĪáī³áī¦áī°": 482,
      "ĦáĬĸ": 483,
      "İáĪŃ": 484,
      "ŀáī°": 485,
      "áĪ£": 486,
      "áĭ¶": 487,
      "áĬµ": 488,
      "ĠáĬ®áĬĲ": 489,
      "ĠáĭĪáĭ°áīĤ": 490,
      "áĮ£": 491,
      "áĮ¥áĪ": 492,
      "ĠáĪ«": 493,
      "ĠáĪį": 494,
      "ĠáĪİ": 495,
      "ĠáĪĦáĬĸ": 496,
      "ĠáĪŀáī°": 497,
      "áĬķáĪ°": 498,
      "áĬķáĭ«": 499,
      "áĬķáĪ¥": 500,
      "áĬķáī²": 501,
      "áĬķáĮī": 502,
      "áī°áĭĲ": 503,
      "áĪŃáĬ¨": 504,
      "áĪŃáĭĭ": 505,
      "áĪŃáĬ©": 506,
      "áĪŃáĪĢ": 507,
      "áĪŃáĬ¡": 508,
      "áĪŃáĬ¢": 509,
      "áīµáĬ¥áĭĽ": 510,
      "ĠáĭĪáĬ«": 511,
      "ĠáĭĪáĬĲ": 512,
      "áįĮ": 513,
      "áĪµáīµ": 514,
      "áī¥áĪµ": 515,
      "áī¥áĪİ": 516,
      "ĠáĬłáĮį": 517,
      "ĠáĬłáĭķ": 518,
      "ĠáĬłáīłáĭĬ": 519,
      "ĠáĬłáī¥áĪ«áĪĿ": 520,
      "áĭŃáĬĵáĬķ": 521,
      "ĠáīłáĪ¥áĮĭ": 522,
      "ĠáĪĪáĪĽ": 523,
      "ĠáĪĪáĪĿáĭµáĪŃ": 524,
      "áĪįáĭµ": 525,
      "áĪ¨áĭ°": 526,
      "áĬłáĪĿ": 527,
      "Ġáĭĺáīł": 528,
      "ĠáĭĺáįĪáĮ": 529,
      "áĭ°áĭĪ": 530,
      "áĬĲáī¥áĪŃ": 531,
      "áĪĪáĪĿ": 532,
      "áĬ¨áĭŃ": 533,
      "áĬ¨áĭį": 534,
      "ĠáĮ£áĭĸ": 535,
      "áĪ°áīµ": 536,
      "áĪ°áĪĽáĭ«": 537,
      "áī¥áĬł": 538,
      "ĠáĪĺáĪ¥": 539,
      "áīħáĭµáĪĺ": 540,
      "ĠáĭŃáĪģ": 541,
      "áĭĺáĭĺ": 542,
      "áĬŃáĪ¨": 543,
      "áĬĵáĭŃ": 544,
      "áĬĵáĮĪ": 545,
      "ĠáĬ¥áĪĿáĬł": 546,
      "Ġáī°áįĪáĮ": 547,
      "áĪµáī°áĪŃáĬ¢": 548,
      "áĪ«áĭĬáīµ": 549,
      "áĪĭáī°": 550,
      "áĭ®áĪĻ": 551,
      "áī¦áĪĻ": 552,
      "áī²áĪĥ": 553,
      "ĠáĬ¨áĬĵ": 554,
      "áĭĿáī¥": 555,
      "áĭĿáĬĢ": 556,
      "ĠáĭĪáīłáĬ¥áĬķáī°": 557,
      "áĬĢáīł": 558,
      "ĠáĪ°áĪĽ": 559,
      "ĠáĭįáĬ¥áī±": 560,
      "ĠáĭįáĪµáī´áī³": 561,
      "áĮ½áĭ®áĬķ": 562,
      "ĠáĪķáĭĿáī¥": 563,
      "Ġáīħáĭµ": 564,
      "áĬ¥áĪ²": 565,
      "áĬ¥áĪµ": 566,
      "áĬ¥áĪĪ": 567,
      "ĠáĬĢáīł": 568,
      "ĠáĬķáĭĭ": 569,
      "ĠáĬķáĮ¡": 570,
      "ĠáĮĪáī£": 571,
      "áĪ¥áĪŃáĭĲ": 572,
      "ĠáīĥáĭŃáĬĵáĬķ": 573,
      "ĠáĪĺáĬķáįĪ": 574,
      "ĠáĪĿáĭµáĪ¨": 575,
      "ĠáĭĪáĪĿáĭµáĪŃ": 576,
      "ĠáĭĪáĭĪáĪĢ": 577,
      "ĠáĬŃáĪįáĬ¤": 578,
      "ĠáĭĪáīµáĮĪáī¥áĪŃ": 579,
      "ĠáĭĪáĬ¥áĪĿáĭĿ": 580,
      "ĠáĪĪáĬłáĭ³áĪĿ": 581,
      "áĬĥáĪª": 582,
      "áĪŃáĬ¥áĬ¨": 583,
      "ĠáĭĪáĬ¨áĪĺ": 584,
      "Ġáĭ³áĮį": 585,
      "ĠáĭĪáĭįáĬ¥áī±áĬĴ": 586,
      "ĠáĪ¥áĮĭ": 587,
      "ĠáĪĢáĮĪ": 588,
      "Ġáī¥áĬ¥áĪ²": 589,
      "ĠáīłáĬŃáī¥áĪŃ": 590,
      "Ġáĭ°áĪĺáĬĵ": 591,
      "áīµáĬ¥áĭĽáĭĻ": 592,
      "ĠáĪĪáĪĽáĬħáĭ°áĪ¨": 593,
      "ĠáĭĺáįĪáĮł": 594,
      "ĠáĪĺáĪ¥áĭĭ": 595,
      "Ġáī°áįĪáĮ¥áĪ": 596,
      "ĠáĬķáĮ¡áįį": 597,
      "¢áĬł": 598,
      "¬áĬķáĭ«": 599,
      "ħáĭ¨": 600,
      "ĭáĪŃáĪµ": 601,
      "Ľáī²": 602,
      "áĭ´": 603,
      "áĭŀ": 604,
      "áĬ°": 605,
      "áĬ®áĬĲ": 606,
      "áĬµáĪī": 607,
      "áīĨáĪĻ": 608,
      "Ġáĭ¨": 609,
      "Ġáĭĵ": 610,
      "ĠáĭĭáĪŃáĪµ": 611,
      "ĠáĭĽáī²": 612,
      "ĠáĬµ": 613,
      "ĠáĬĵ": 614,
      "ĠáĭĪáĪł": 615,
      "ĠáĭĪáĮĪ": 616,
      "ĠáĭĪáĪķ": 617,
      "ĠáĭĪáī¥áĪŃ": 618,
      "ĠáĭĪáĪŃáĬ¥": 619,
      "ĠáĭĪáĪ¥áĪŃáĭĲ": 620,
      "áĮº": 621,
      "áĮ¾": 622,
      "áĮĮ": 623,
      "áĮ¢áĬł": 624,
      "ĠáĪ³": 625,
      "ĠáĪĬ": 626,
      "ĠáĪħáĭ¨": 627,
      "Ġáī£": 628,
      "áĬķáĪ¶": 629,
      "áĪŃáī°": 630,
      "áĪŃáīµ": 631,
      "áĪŃáī±": 632,
      "áīµáĪĺ": 633,
      "áīµáĪ¨": 634,
      "áīµáĭ¨": 635,
      "áīµáĭį": 636,
      "áįª": 637,
      "áį¯": 638,
      "áįĢ": 639,
      "áįī": 640,
      "áĪµáĪĪ": 641,
      "áĭµáĭİ": 642,
      "áĬ¥áī°": 643,
      "áĬ¥áĬŃ": 644,
      "ĠáĬłáĪŃ": 645,
      "ĠáĬłáĪµ": 646,
      "ĠáĬłáĪĽ": 647,
      "ĠáĬłáī¤áĪį": 648,
      "áĭŃáĬĲ": 649,
      "áĭŃáĮ£": 650,
      "áĪĺáī°": 651,
      "áĪĺáĪ°": 652,
      "áĪĺáĬķáįĪ": 653,
      "áĪĺáĭµáĬĢáĬĴ": 654,
      "Ġáīłáĭ°": 655,
      "áīłáĪ¨": 656,
      "áĪĿáĪ°": 657,
      "ĠáĪĪáĪĻ": 658,
      "ĠáĪĪáĭ°": 659,
      "ĠáĪĪáīĥ": 660,
      "ĠáĪĪáĮ½áĭ®áĬķ": 661,
      "ĠáĪĪáĬ¥áĪĪ": 662,
      "ĠáĬ¥áĪĻ": 663,
      "áĭ¨áĪ°": 664,
      "áĭ°áĭī": 665,
      "áĭķáĪį": 666,
      "áĭķáĪĪ": 667,
      "áĭķáī¢": 668,
      "áĬĲáīµ": 669,
      "áĬĲáįį": 670,
      "áĪĪáī¥": 671,
      "ĠáĬ¥áĮĪ": 672,
      "ĠáĬ¥áĮįáĭļ": 673,
      "ĠáĬ¥áĬģ": 674,
      "ĠáĬ¥áĬķáĪµ": 675,
      "áī¥áīµ": 676,
      "ĠáĪĺáīħ": 677,
      "áĪĽáĪµ": 678,
      "áīħáĬ¨": 679,
      "áīħáĭĿ": 680,
      "ĠáĭŃáĮĪ": 681,
      "ĠáĭŃáĮįáīł": 682,
      "áĭ«áĬķ": 683,
      "áĭ«áĭµáĬħ": 684,
      "áĭ«áī¥áĪİ": 685,
      "áĭ³áĪļ": 686,
      "áĭĺáĭŀ": 687,
      "ĠáĭĪáĬłáĪĿ": 688,
      "ĠáĭĪáĬłáĪ«áĭĬáīµ": 689,
      "áĬ£áĬķ": 690,
      "áĬĵáĭ¨": 691,
      "ĠáĬ¥áĪĿáĬĲ": 692,
      "ĠáĬ¥áĪĿáĭĺ": 693,
      "ĠáĬ¥áĪĿáīĢ": 694,
      "ĠáĬ¥áĪĿáĬĶ": 695,
      "ĠáĬ¥áĪĿáīµáĬ¥áĭĽáĭĻ": 696,
      "áĪ¥áĬ¥": 697,
      "Ġáī°áĮĪ": 698,
      "áĪ«áĬ¤": 699,
      "áĪķáī°": 700,
      "áĪķáĪĭ": 701,
      "áĭ®áĪµ": 702,
      "ĠáĬ¢áīµ": 703,
      "ĠáĬ¢áĭ¨": 704,
      "áĪ¬áĬ¨": 705,
      "áĭĬáĪģ": 706,
      "áĪ³áĬķ": 707,
      "áĪ³áīµ": 708,
      "áī³áī°": 709,
      "ĠáĪ°áī¥áĬ¥": 710,
      "ĠáĪ°áī¥áĬł": 711,
      "áĬ©áĬķ": 712,
      "ĠáĬ¥áĪµáĪ«áĬ¤": 713,
      "ĠáĪķáĮī": 714,
      "áĪĢáĭŃ": 715,
      "Ġáį²": 716,
      "ĠáĬĢáĪį": 717,
      "ĠáĬĢáĮ¢áĬł": 718,
      "ĠáĪĽáĬħáĭ°": 719,
      "ĠáĪĽáĬħáĭ°áĪ¨": 720,
      "áĪĮáĬ¨": 721,
      "ĠáĬķáĮ¹": 722,
      "áĭĬáīµáĬĴ": 723,
      "Ġáī³áĪ«": 724,
      "ĠáĮĪáĮ½": 725,
      "ĠáĮĪáī¥áĪŃ": 726,
      "ĠáĪĭáī²": 727,
      "ĠáĭĪáĭŃáī¤áĪİáĪĻ": 728,
      "áīĥáĬĲ": 729,
      "áī¶áĪµ": 730,
      "ĠáĭĪáĪĿáĪµáĪĪ": 731,
      "áĪŃáĬłáĭ«": 732,
      "áĪŃáĬłáĭ®": 733,
      "ĠáīłáĬłáĭŃáĬħ": 734,
      "áĪªáĪģ": 735,
      "áĬĸáīµ": 736,
      "ĠáĬŃáĪŃáĪµ": 737,
      "ĠáĭĪáīµáĪĪáī¥": 738,
      "ĠáĭĪáĬ¥áĬķáĭĺ": 739,
      "ĠáĭŃáĬ¥áĭľ": 740,
      "ĠáĪĿáĪµáĪĮáĪĨáĪĻ": 741,
      "ĠáĭĿáĭįáĬ¥áī±": 742,
      "ĠáĪ´áīµ": 743,
      "ĠáĪŃáĪµáīµ": 744,
      "ĠáĪĭáĭķáĪĮáĪĨáĪĻ": 745,
      "ĠáįĪáĮł": 746,
      "ĠáĪĺáĬķáĮįáĪ¥áī°": 747,
      "Ġáĭ²áīł": 748,
      "Ġáĭ²áĭ«áī¥áĪİ": 749,
      "Ġáĭķáīł": 750,
      "ĠáĬ¥áĪĺáīµ": 751,
      "ĠáĪ°áĪĽáĭ«áīµ": 752,
      "Ġáĭ³áĭĬáīµ": 753,
      "ĠáįĪáĭµáįĭáĭ°": 754,
      "ĠáĬ«áĪħáĬĵ": 755,
      "ĠáĪłáĬĵáĭŃ": 756,
      "ĠáĬ¥áĪĿáĭµáĬħáĪ¨": 757,
      "ĠáĬ¥áĪĿáĭµáĬħáĪ¬áĬ¨": 758,
      "ĠáĭĪáĭŃáīµáĬĵáĮĪ": 759,
      "ĠáįĪáĮ£áĪ¬": 760,
      "ĠáĬłáĪĿáĪĭáĬª": 761,
      "ĠáĭĪáĪ¶áīłáĬĴ": 762,
      "ĠáĬ©áĬķ": 763,
      "ĠáĭĪáĭ¨áĭĲ": 764,
      "áī¥áĪįáĭĳ": 765,
      "ĠáĭĺáĬ¢áĭŃáĬĲ": 766,
      "ĠáĪĺáĪĭáĬ¥áĬŃ": 767,
      "ĠáĭĪáĬłáĪįáī¦": 768,
      "ĠáīħáĬķáĬłáī±": 769,
      "ĠáĬķáĮīáĪ¥": 770,
      "áĮ¸áĭįáĪŃáĭĭ": 771,
      "ĠáĭĪáĭ°áīĤáīģ": 772,
      "áĮ¥áĪ¨": 773,
      "ĠáĪ«áĬ¥": 774,
      "ĠáĪįáīł": 775,
      "áĬķáī²áĬłáĪģ": 776,
      "áĬķáĮīáĪł": 777,
      "áī°áĭĲáĭ°áĭĪ": 778,
      "ĠáĭĪáĬ«áĭķáīł": 779,
      "áĬ¨áĭįáĬķ": 780,
      "áĪ°áĪĽáĭ«áīµ": 781,
      "ĠáĭŃáĪģáĭ³": 782,
      "ĠáĭĪáīłáĬ¥áĬķáī°áĭĿ": 783,
      "ĠáĪ°áĪĽáĭŃ": 784,
      "ĠáĬķáĭĭáĭ¨": 785,
      "ĠáĮĪáī£áĪ¬": 786,
      "Ġáĭ³áĮįáĪĺ": 787,
      "ĠáĪĢáĮĪáĪ¨": 788,
      "ĠáĪĺáĪ¥áĭĭáĭķáī°": 789,
      "ĠáĭĭáĪŃáĪµáĭ¨": 790,
      "ĠáĭĪáĪŃáĬ¥áĭ®": 791,
      "áĬķáĪ¶áĪ±": 792,
      "áĪŃáī±áĭķ": 793,
      "áĭŃáĮ£áĬķ": 794,
      "áĪĺáĬķáįĪáĪµ": 795,
      "áĪĺáĭµáĬĢáĬĴáī°": 796,
      "ĠáĪĪáĪĻáĪ´": 797,
      "ĠáĪĪáĭ°áī¥áī°áĪ«": 798,
      "ĠáĪĪáīĥáĭ¨áĬķ": 799,
      "ĠáĬ¥áĬģáĪģ": 800,
      "ĠáĬ¥áĬķáĪµáĪ³": 801,
      "ĠáĬ¥áĪĿáĬĶáĪģ": 802,
      "ĠáĬ¥áĪµáĪ«áĬ¤áĪį": 803,
      "ĠáĬŃáĪŃáĪµáī¶áĪµ": 804,
      "ĠáĭĪáīµáĪĪáī¥áĮ¦": 805,
      "Ġáĭ²áĭ«áī¥áĪİáĪµ": 806,
      "ĠáĭĪáĭŃáīµáĬĵáĮĪáĪ®áĪĻ": 807,
      "ĠáĭĺáĬ¢áĭŃáĬĲáīħáĭĿ": 808,
      "ĠáĪĺáĪĭáĬ¥áĬŃáīµ": 809,
      "¢áĮ¥": 810,
      "¢áĮ¾": 811,
      "¤áĪŀ": 812,
      "¦áĬĳ": 813,
      "«áį": 814,
      "³áĮ": 815,
      "³áĪ³áīµ": 816,
      "´áĭŃ": 817,
      "»áį": 818,
      "»áĭµáīħ": 819,
      "ģáī¦áĪĻ": 820,
      "ĳáįĭ": 821,
      "ļáĬłáĪģ": 822,
      "ĿáĪ¨": 823,
      "ŃáĪĥ": 824,
      "áĪ¦": 825,
      "áĪĤ": 826,
      "áĪĨ": 827,
      "áĪĵ": 828,
      "áĪ¢áĮ¥": 829,
      "áĪĳáįĭ": 830,
      "áĬªáĭ³áĬķ": 831,
      "áīĦ": 832,
      "ĠáĭļáĬłáĪģ": 833,
      "ĠáĬ£": 834,
      "ĠáĬ¬áĬķáĭ«": 835,
      "ĠáĭĪáĪ¨": 836,
      "ĠáĭĪáĭķ": 837,
      "ĠáĭĪáĭį": 838,
      "ĠáĭĪáĪ«": 839,
      "ĠáĭĪáĭĲ": 840,
      "ĠáĭĪáī³": 841,
      "ĠáĭĪáĪĢ": 842,
      "ĠáĭĪáĮ¸": 843,
      "ĠáĭĪáĪļ": 844,
      "ĠáĭĪáī¥áīµ": 845,
      "áĮĲ": 846,
      "áĮİáĪŃ": 847,
      "ĠáĪ£": 848,
      "ĠáĪ¨": 849,
      "ĠáĪ®": 850,
      "ĠáĪ¶": 851,
      "Ġáī¤": 852,
      "Ġáī¢áĮ¾": 853,
      "Ġáī¦áĬĳ": 854,
      "áĬķáĬķ": 855,
      "áĬķáīħ": 856,
      "áĬķáĮįáĪ¥": 857,
      "áī°áĭĪ": 858,
      "áĪŃáĭ«": 859,
      "áĪŃáĪł": 860,
      "áĪŃáĬ¥áĪµ": 861,
      "áĪŃáĪĨ": 862,
      "áīµáĪĪ": 863,
      "áīµáĪ°": 864,
      "ĠáĭĪáĬĸáĪķ": 865,
      "áį°": 866,
      "áĪµáĭµ": 867,
      "áĪµáĪį": 868,
      "áĭµáīĢ": 869,
      "áĬ¥áĭĭ": 870,
      "áĬ¥áī£": 871,
      "áĬ¥áĬķáī²áĬłáĪģ": 872,
      "áī¥áĪ®": 873,
      "áī¥áĪ°": 874,
      "ĠáĬłáĪ¨": 875,
      "ĠáĬłáīħ": 876,
      "ĠáĬłáĬŃ": 877,
      "ĠáĬłáĬķáī°": 878,
      "ĠáĬłáĪµáī°": 879,
      "ĠáĬłáĪĭ": 880,
      "ĠáĬłáĬĢ": 881,
      "ĠáĬłáĭķáĪ¨áįĪ": 882,
      "ĠáĬłáĭĺáĭŀ": 883,
      "ĠáĬłáĬķáīħ": 884,
      "áĭŃáĪ": 885,
      "áĭŃáĪĽ": 886,
      "áĭŃáĭİ": 887,
      "áĪĺáĬķ": 888,
      "áĪĺáīµ": 889,
      "áĪĺáĪį": 890,
      "áĪĺáĪµáĪį": 891,
      "Ġáīłáīł": 892,
      "ĠáīłáĪĿ": 893,
      "ĠáīłáĬħ": 894,
      "Ġáīłáī¥": 895,
      "ĠáīłáĪĽ": 896,
      "Ġáīłáīħ": 897,
      "ĠáīłáĭĿ": 898,
      "Ġáīłáĭ²": 899,
      "ĠáīłáĬµ": 900,
      "ĠáīłáĬĢáīł": 901,
      "ĠáīłáīµáĪ¨": 902,
      "áīłáĪŃ": 903,
      "áīłáĭį": 904,
      "áīłáī¥": 905,
      "áĪĿáĬĴ": 906,
      "áĪĿáĪ¥áĪ": 907,
      "áĪĿáĭī": 908,
      "ĠáĪĪáĬ¨": 909,
      "ĠáĪĪáĪ°": 910,
      "ĠáĪĪáĭĵ": 911,
      "ĠáĪĪáĬµáĪī": 912,
      "ĠáĪĪáĬķáĮīáĪł": 913,
      "ĠáĪĪáĪĺáĭµáĬĢáĬĴáī°": 914,
      "ĠáĪĪáĪĿáĪ¥áĪ": 915,
      "áĪįáĬŃ": 916,
      "áĪįáĭİ": 917,
      "áĪįáĬ®": 918,
      "áĪįáĬ¥áī°": 919,
      "áĪ¨áĪµ": 920,
      "áĪ¨áĪ¨": 921,
      "ĠáĬ¥áĪī": 922,
      "ĠáĬ¥áĪ´áĭŃ": 923,
      "áĭ¨áīµ": 924,
      "áĬłáīµ": 925,
      "áĬłáĬ©": 926,
      "áĬłáĭĺáĭĺ": 927,
      "áĬłáĪĺáĬķ": 928,
      "áĪĻáīµ": 929,
      "áĪĻáī¶áĪĻ": 930,
      "Ġáĭĺáīµ": 931,
      "ĠáĭĺáĬ¥": 932,
      "ĠáĭĺáĭĪ": 933,
      "ĠáĭĺáĪķ": 934,
      "ĠáĭĺáĬ¥áĪ": 935,
      "ĠáĭĺáĮ¸": 936,
      "ĠáĭĺáĪŃáĬ¥áĬ¨": 937,
      "ĠáĭĺáĬªáĭ³áĬķ": 938,
      "áĭ°áĪ¨": 939,
      "áĭ°áĭ¨": 940,
      "áĭ°áĪ±": 941,
      "áĭ°áĬĥáĪª": 942,
      "áĭ°áĭĬáĪģ": 943,
      "áĭķáĭķ": 944,
      "áĭķáīĢ": 945,
      "áĭķáīĨ": 946,
      "áĬĲáĭ¨": 947,
      "áĬĲáĬĴ": 948,
      "áĬĲáĭ©": 949,
      "áĪĪáįĪ": 950,
      "áĪĪáĬ®": 951,
      "áĬ¨áĪŃ": 952,
      "áĬ¨áĭ¨": 953,
      "áĬ¨áĭ®áĪĻ": 954,
      "áĬħáĭĪ": 955,
      "áĬħáīłáĪ¨": 956,
      "ĠáĬ¥áīµ": 957,
      "ĠáĬ¥áĭĪ": 958,
      "ĠáĬ¥áĬ©": 959,
      "ĠáĮł": 960,
      "ĠáĮ¥áĪ": 961,
      "ĠáĮİáĪŃ": 962,
      "ĠáĮ³áĮ": 963,
      "ĠáĮ»áĭµáīħ": 964,
      "áĪ°áĪĿ": 965,
      "áĭįáĪ¨": 966,
      "áĭįáī³": 967,
      "áĭįáĪĢ": 968,
      "áī¥áĬ¡": 969,
      "ĠáĪĺáĪĽ": 970,
      "ĠáĪĺáĪ³": 971,
      "ĠáĪĺáĮ½": 972,
      "ĠáĪĺáĮ»": 973,
      "ĠáĪĺáĪĪáĬ®": 974,
      "áĪĽáīµ": 975,
      "áĪĽáĪģ": 976,
      "áĪĽáĪ¥": 977,
      "áĪĽáĭ²": 978,
      "áīħáī¥": 979,
      "ĠáĭŃáĪµ": 980,
      "ĠáĭŃáĬ©áĬķ": 981,
      "ĠáĭŃáĪ¢áĮ¥": 982,
      "ĠáĭŃáĭķáīĢ": 983,
      "áĭ«áīµ": 984,
      "áĭ«áĬĴ": 985,
      "áĭ«áĪµáī°áĪŃáĬ¢": 986,
      "áĭ³áĮį": 987,
      "áĭ³áĭĬáīµáĬĴ": 988,
      "áĭĺáĪĿáĭī": 989,
      "ĠáĭĪáĬłáīł": 990,
      "ĠáĭĪáĬłáĬķáīł": 991,
      "ĠáĭĪáĬłáĬķáĪ°": 992,
      "áĬŃáĪŃ": 993,
      "áĬŃáĭĭ": 994,
      "áĬŃáĪī": 995,
      "áĬŃáĪļ": 996,
      "áĬŃáĪµáĭµ": 997,
      "áī±áĪ³": 998,
      "áĬĵáī°": 999,
      "áĮĪáĪŃ": 1000,
      "áĮĪáĪ°": 1001,
      "áĮĪáĪ¥": 1002,
      "ĠáĬ¥áĪĿáĭ®": 1003,
      "ĠáĬ¥áĪĿáĭ°áīĤ": 1004,
      "Ġáī°áĬĢ": 1005,
      "Ġáī°áĪ£": 1006,
      "Ġáī°áĪ°áĪĿ": 1007,
      "ĠáĭĪáĬ¥áĪī": 1008,
      "ĠáĭĪáĬ¥áĪĺ": 1009,
      "ĠáĭĪáĭŃáĭĺ": 1010,
      "ĠáĭĪáĭŃáĮ¸áĭįáĪŃáĭĭ": 1011,
      "áįįáīµ": 1012,
      "áįįáĪ«": 1013,
      "áįįáĬ¡": 1014,
      "áĪĭáīµ": 1015,
      "áĪķáĪŃ": 1016,
      "áĪķáĪł": 1017,
      "áĭĲáĭĸ": 1018,
      "áĭĲáī¢": 1019,
      "áīĢáĭį": 1020,
      "áī²áĪĨáĪĻ": 1021,
      "ĠáĬ¨áĪŃáĪł": 1022,
      "áĭĿáĬħ": 1023,
      "áĭĿáĪĻáīµ": 1024,
      "áĭĿáĪĽáĭ²": 1025,
      "ĠáĭĪáīłáĬĢáīł": 1026,
      "ĠáĭĪáīłáĭ°áĬĥáĪª": 1027,
      "ĠáĬ¢áĭ«": 1028,
      "ĠáĬ¢áĬ®áĬĲ": 1029,
      "ĠáĬ¢áī°áĭĲáĭ°áĭĪ": 1030,
      "ĠáĬ¢áĪŃáī±áĭķ": 1031,
      "áĬĢáĭ°": 1032,
      "áĪ³áĪį": 1033,
      "áĪ³áĪ¨": 1034,
      "áĪ³áĭĬáīµ": 1035,
      "áī³áĪĮ": 1036,
      "ĠáĪ°áĪŃ": 1037,
      "ĠáĪ°áĭŃáĮ£áĬķ": 1038,
      "áĪ®áĬķ": 1039,
      "áĪ®áĭµ": 1040,
      "áĪīáĭ¶": 1041,
      "ĠáĭįáĪīáĭ¶": 1042,
      "áī¥áĪŃáĪĥ": 1043,
      "ĠáĮ½áĬĳ": 1044,
      "ĠáĮ½áĪĳáįĭ": 1045,
      "áī¡áĪŃ": 1046,
      "áĪĬáĭŃ": 1047,
      "áĪĬáĪĭáī°": 1048,
      "áĪĬáĬĵáĭ¨": 1049,
      "Ġáĭ°áī¥áī°áĪ«": 1050,
      "ĠáĭĪáĪįáĭ°": 1051,
      "áĮĭáī°": 1052,
      "áĮĭáĬķáĬķ": 1053,
      "ĠáīħáĭµáĪĺ": 1054,
      "Ġáį¬": 1055,
      "Ġáį¯": 1056,
      "Ġáįĭ": 1057,
      "áĪĲáī²": 1058,
      "áĪĲáĪİáĪĻ": 1059,
      "ĠáĭĪáĪĺáĬķáĮįáĪ¥": 1060,
      "ĠáĭĪáĪĺáĪĽáĪ¥": 1061,
      "ĠáĪĽáĭ¨": 1062,
      "ĠáĪĽáĪķáĪĭ": 1063,
      "ĠáĪĽáĪŃáĭ«": 1064,
      "ĠáĪĽáĬħáīłáĪ¨": 1065,
      "ĠáĪĽáĭįáī³": 1066,
      "ĠáĪĽáī±áĪ³": 1067,
      "ĠáĪĪáĬ¥áĬģ": 1068,
      "ĠáĪĪáĬ¥áĬ¨áĭŃ": 1069,
      "áĪĮáĪĿ": 1070,
      "áĪĮáĪģ": 1071,
      "áī£áĮĭáī°": 1072,
      "Ġáī³áĪķáī°": 1073,
      "Ġáī³áĬķáĪ¶áĪ±": 1074,
      "ĠáĮĪáī¥áĪ¨": 1075,
      "ĠáĮĪáĮ¹": 1076,
      "áĪ¥áĪĵ": 1077,
      "áĪ¥áĪĿáĪ¨": 1078,
      "ĠáĭĪáī°áī£áĪ¨": 1079,
      "ĠáĪĭáĪľ": 1080,
      "ĠáīµáĬ¥áĭĽ": 1081,
      "ĠáīµáĬĲáī¥áĪŃ": 1082,
      "Ġáīµáĭķáī¢": 1083,
      "ĠáīµáĪĺáĪµáĪį": 1084,
      "ĠáīĥáĪį": 1085,
      "ĠáīĥáĪĪ": 1086,
      "ĠáīĥáĪįáĭ¨": 1087,
      "áĭĪáĪŃáĭµ": 1088,
      "áĭĪáĪŃáĭ³": 1089,
      "ĠáĭĪáĭŃáī¤áĪī": 1090,
      "áīĥáĪįáĭ¨": 1091,
      "ĠáĭĪáĪĿáĪįáĬ¥áī°": 1092,
      "áĪħáĮī": 1093,
      "ĠáĭĪáĭĪáĪįáĭµ": 1094,
      "ĠáīłáĬłáĪŃáĬłáĭ«": 1095,
      "ĠáĬ¥áĪĪáī¥áĪµ": 1096,
      "áĪ¶áĪĻ": 1097,
      "áĭĵáĬķ": 1098,
      "áĭĵáĪĺáī°": 1099,
      "áĬĸáĪĻ": 1100,
      "Ġáĭ«áĪ®áĭµ": 1101,
      "ĠáĭĪáĬ¢áī°": 1102,
      "ĠáĭĪáĬ¥áī¥": 1103,
      "ĠáĭĪáĬ¥áī¤": 1104,
      "ĠáĭĪáĬ¥áĪĿáĬĲ": 1105,
      "ĠáĭĪáĬ¥áĪĿáīħáĭµáĪĺ": 1106,
      "ĠáĪĿáĪµáĪĮáĬ¨": 1107,
      "áĪ±áĪµ": 1108,
      "áĭĽáī²": 1109,
      "ĠáĭĿáĬķáī±": 1110,
      "ĠáĭĿáĪĻáī¶áĪĻ": 1111,
      "ĠáĪŃáī±": 1112,
      "ĠáĪŃáĬ©": 1113,
      "ĠáīĢáī°": 1114,
      "ĠáīĢáĪµáī°": 1115,
      "ĠáīĢáī³áĪĮ": 1116,
      "áįĭáĬŃáĪµáĭµ": 1117,
      "ĠáĪĪáĬłáī¤áĪį": 1118,
      "ĠáĭĺáĭŃáī¤": 1119,
      "ĠáĭŃáī¤áĪİ": 1120,
      "ĠáĬ¢áĭŃáīµáĪĺ": 1121,
      "ĠáĬ¢áĭŃáī¥áĪįáĭĳ": 1122,
      "ĠáĬ¢áĭŃáĭĺáĪĿáĭī": 1123,
      "ĠáĭĪáĪĪáĪĺáĬķáįĪáĪµ": 1124,
      "ĠáĭĪáĬ£áĪµáī°áĪŃáĬ¢": 1125,
      "ĠáĭĪáĬ£áĭĪáĪŃáĭ³": 1126,
      "ĠáĪĪáĭ°áīĤáīħáĬ¨": 1127,
      "ĠáįįáĪŃáĪĢ": 1128,
      "ĠáįįáĮ¥áĪ¨": 1129,
      "ĠáįįáĪ¥áĪĵ": 1130,
      "áĪľáĪģ": 1131,
      "áĭ²áĪĻ": 1132,
      "ĠáĬĲáī¢": 1133,
      "ĠáĭĪáĭĺáĬ¥áĬķáīłáĪĪ": 1134,
      "áĮ¥áĬķ": 1135,
      "áĪŃáĬ¥áĭ¨": 1136,
      "áĭĪáĪįáĭµ": 1137,
      "ĠáĪķáĮįáĭ¨": 1138,
      "áĪ´áĭİáĬķ": 1139,
      "Ġáĭ²áī£áĮĭáī°": 1140,
      "Ġáĭķáįħ": 1141,
      "ĠáĭĪáĪ°áĪĺ": 1142,
      "ĠáĬ¥áĪĺáĪ°": 1143,
      "ĠáĪµáī¥áĪĲáī²áĪĨáĪĻ": 1144,
      "ĠáĮįáī¥": 1145,
      "áįħáĬł": 1146,
      "ĠáĪĪáĭĺáĪŃáĬ¥áĬ¨": 1147,
      "áĪįáĬ¤áĪį": 1148,
      "áĭķáīłáĭŃ": 1149,
      "Ġáĭ°áīĤáīĢ": 1150,
      "Ġáĭ°áīĤáīģ": 1151,
      "ĠáĭĲáĭ°áĭī": 1152,
      "ĠáĬ«áĭķáīł": 1153,
      "ĠáĬħáĪĬáĬĵáĭ¨": 1154,
      "ĠáĭĪáįĪáĭµáįĭáĭ°": 1155,
      "ĠáĭĪáĪĽáĬ¥áĪ": 1156,
      "ĠáĭĪáĪĽáĬħáĭ°": 1157,
      "ĠáĭĪáĭįáĬ¥áī±áĪ°": 1158,
      "ĠáĪ¥áĭķáĪĪ": 1159,
      "áĬķáĪµáīµ": 1160,
      "ĠáĭĪáĪĺáĬķáįĪáĪµ": 1161,
      "ĠáĭĪáĪĺáĬķáįĪáīĢ": 1162,
      "ĠáĪµáĪĿáĭķ": 1163,
      "ĠáĪµáĪĿáĬ¨": 1164,
      "ĠáįĪáĮ£áĪª": 1165,
      "ĠáĪĺáĬķáĮįáĪ¥áīµáĭ¨": 1166,
      "ĠáĬłáĪĿáĪĭáĬŃ": 1167,
      "ĠáĬ©áĬĲáĬĴ": 1168,
      "ĠáĭĪáĬķáī¡áĪŃ": 1169,
      "ĠáĪĲáĭĺ": 1170,
      "Ġáī¥áĪŃáĪĥ": 1171,
      "ĠáĬłáĪįáįĭáĬŃáĪµáĭµ": 1172,
      "ĠáĪĺáĪĭáĪįáĬ¤áĪį": 1173,
      "ĠáĪĺáĭµáĬĢáĬĴáī°": 1174,
      "Ġáī°áĭĲáĭµáĭİ": 1175,
      "ĠáĭĪáĪįáĭµáĭ¨": 1176,
      "ĠáĬķáĮīáĪł": 1177,
      "ĠáĪİáĪĻ": 1178,
      "ĠáĪİáī±": 1179,
      "ĠáĪĦáĬĸáĪµ": 1180,
      "ĠáĪĦáĬĸáĬŃ": 1181,
      "áĬķáĪ¥áĬ¦": 1182,
      "ĠáĭĪáĬĲáĪ¥": 1183,
      "áįĮáĬĳ": 1184,
      "ĠáĬłáĭķáĭŃ": 1185,
      "ĠáĬłáīłáĭĬáĪĨáĪĻ": 1186,
      "áĪ¨áĭ°áīµ": 1187,
      "ĠáĭĺáīłáĬ¥áĬķáī°": 1188,
      "ĠáĮ£áĭĸáī°": 1189,
      "ĠáĬ¨áĬĵáĬ£áĬķ": 1190,
      "ĠáīħáĭµáĪľáĪģ": 1191,
      "ĠáĪĺáĬķáįĪáĪµ": 1192,
      "ĠáĭĪáĭĪáĪĢáī¦": 1193,
      "ĠáĪ¥áĮĭáĪģ": 1194,
      "ĠáĭĺáįĪáĮłáĪŃáĬ©": 1195,
      "Ġáī°áįĪáĮ¥áĪ©": 1196,
      "ĠáĭĵáĪĪáĪĿ": 1197,
      "ĠáĭĪáĪłáĪĿ": 1198,
      "ĠáĭĪáī¥áĪŃáīµ": 1199,
      "ĠáĪ³áĪĭ": 1200,
      "Ġáī£áĪķáĪŃ": 1201,
      "áĪŃáīµáĭķ": 1202,
      "ĠáĬłáĪĽáĪįáĬŃ": 1203,
      "Ġáīłáĭ°áī¥áĪ¨": 1204,
      "ĠáĬ¥áĪĻáĬķáī±": 1205,
      "ĠáĬ¥áĮĪáĪªáĪģ": 1206,
      "ĠáĪĺáīħáĭ°áĪ±": 1207,
      "áĪĽáĪµáĬĵ": 1208,
      "áĭ«áĭµáĬħáĬķ": 1209,
      "ĠáĬ¥áĪĿáīĢáĭ³áĪļ": 1210,
      "áĪ¥áĬ¥áĭİ": 1211,
      "Ġáī°áĮĪáī¥áĪ¨áīµ": 1212,
      "ĠáĬ¢áīµáįįáĪ«": 1213,
      "ĠáĬĢáĪįáīģ": 1214,
      "ĠáĬĢáĮ¢áĬłáī¶áĪĻ": 1215,
      "ĠáĬķáĮ¹áĪķ": 1216,
      "ĠáĮĪáī¥áĪŃáĭĭ": 1217,
      "ĠáįĪáĮłáĪ«": 1218,
      "ĠáĬ«áĪħáĬĵáīµ": 1219,
      "ĠáĬłáĪĿáĪĭáĬªáĭ¨": 1220,
      "ĠáĭĪáĭ¨áĭĲáīħáī¥": 1221,
      "ĠáĪ«áĬ¥áĭ©": 1222,
      "«áį»áį": 1223,
      "ĠáĭĪáĪ«áĪ´": 1224,
      "ĠáĭĪáĪļáĪĺ": 1225,
      "ĠáĭĪáī¥áīµáĬ¨": 1226,
      "áĮİáĪŃáĭ®áĪµ": 1227,
      "áĬ¥áī£áĬķ": 1228,
      "ĠáĬłáīħáĭ²áĪĻ": 1229,
      "ĠáĬłáĬŃáĪĬáĪĭáī°": 1230,
      "áĭŃáĪĽáĬĸáīµ": 1231,
      "ĠáīłáĪĿáĬŃáĪ¨": 1232,
      "Ġáīłáī¥áĭĿáĬĢ": 1233,
      "Ġáīłáĭ²áīł": 1234,
      "ĠáĪĪáĭĵáĪĪáĪĿ": 1235,
      "áĭķáīĨáī¥": 1236,
      "ĠáĮİáĪŃáĮİáĪŃáĭ®áĪµ": 1237,
      "ĠáĮ³áĮ³áĪ³áīµ": 1238,
      "ĠáĪĺáĪĪáĬ®áīµ": 1239,
      "ĠáĭŃáĭķáīĢáī¡": 1240,
      "ĠáĬ¥áĪĿáĭ®áĪĿ": 1241,
      "ĠáĬ¥áĪĿáĭ°áīĤáīĢ": 1242,
      "áĭĲáĭĸáĪĻ": 1243,
      "ĠáĭįáĪīáĭ¶áĪĻ": 1244,
      "áĮĭáĬķáĬķáīµ": 1245,
      "ĠáĭĪáĪĺáĪĽáĪ¥áĮł": 1246,
      "ĠáĪĽáĪŃáĭ«áĪĿ": 1247,
      "ĠáĪĽáī±áĪ³áĪĭ": 1248,
      "ĠáĪĪáĬ¥áĬģáĬ¨": 1249,
      "ĠáĪĭáĪľáĬħ": 1250,
      "ĠáįįáĪŃáĪĢáī°": 1251,
      "ĠáįįáĮ¥áĪ¨áīµ": 1252,
      "ĠáĬĲáī¢áĭ«áīµ": 1253,
      "ĠáĭĪáįĪáĭµáįĭáĭ°áĪ°": 1254,
      "ĠáĬłáĪĽáĪįáĬŃáī°": 1255,
      "ĠáĬ¢áīµáįįáĪ«áĪħ": 1256,
      "«áį»áį²": 1257,
      "¡áĭķ": 1258,
      "¡áĪķ": 1259,
      "¢áĪ¨": 1260,
      "¢áĪĺáī°": 1261,
      "¤áĭ": 1262,
      "¤áĭİáĬķ": 1263,
      "¤áįī": 1264,
      "¥áĭ©": 1265,
      "¦áĪŃ": 1266,
      "¨áĪ¨": 1267,
      "¨áĮ»": 1268,
      "©áĪĢ": 1269,
      "ªáĭ«": 1270,
      "«áīħ": 1271,
      "¬áĮ": 1272,
      "¬áĪµ": 1273,
      "®áĪŃ": 1274,
      "®áĬĳ": 1275,
      "°áĪ«": 1276,
      "°áĪ³": 1277,
      "±áĪ¨": 1278,
      "²áĬĵ": 1279,
      "³áīµ": 1280,
      "³áĮ£": 1281,
      "´áĬł": 1282,
      "´áĭĽ": 1283,
      "µáĭ¨": 1284,
      "µáĭ«": 1285,
      "µáĪİ": 1286,
      "µáĪĽáīµ": 1287,
      "ģáĪĿ": 1288,
      "ģáĭķ": 1289,
      "ģáī¦": 1290,
      "ĤáĮł": 1291,
      "ĥáĪŃ": 1292,
      "ĥáĬ¥": 1293,
      "ĥáĪį": 1294,
      "ĥáĮ¥": 1295,
      "ĥáĭŃáĪĽáĬĸáīµ": 1296,
      "ĦáĪ«": 1297,
      "ĦáĪī": 1298,
      "ĦáĪĬ": 1299,
      "ĨáĪĺ": 1300,
      "ĨáĮ»": 1301,
      "ĪáĪŃ": 1302,
      "īáĪµ": 1303,
      "īáĪ¨": 1304,
      "Ĭáĭµ": 1305,
      "ĭáĬĶ": 1306,
      "ĮáĮĭ": 1307,
      "ĮáĭİáĬķ": 1308,
      "įáĪĽ": 1309,
      "İáĪŀ": 1310,
      "ĳáĬĥ": 1311,
      "ĵáĪĲ": 1312,
      "ĶáĪ¨": 1313,
      "ĶáĪ±": 1314,
      "ķáĪ¨": 1315,
      "ķáĪŃáī°": 1316,
      "ĸáĪ¨": 1317,
      "ĸáĪĻ": 1318,
      "ĸáĪ©": 1319,
      "ĺáĬĴ": 1320,
      "ĺáĪ®": 1321,
      "ĽáĬħáĭ°áĪ¨": 1322,
      "ľáĬĵ": 1323,
      "ĿáĪ®áĪĻ": 1324,
      "łáĪĿ": 1325,
      "ŃáĮ": 1326,
      "Ńáī¥áĪ«": 1327,
      "áĪ¤áĪŀ": 1328,
      "áĪ¡áĪķ": 1329,
      "áĪĦáĪī": 1330,
      "áĪĸáĪ©": 1331,
      "áĬĤáĮł": 1332,
      "áĬĦáĪĬ": 1333,
      "áīĪáĪŃ": 1334,
      "Ġáĭ®áĪŃ": 1335,
      "ĠáĭµáĪĽáīµ": 1336,
      "ĠáĭľáĬĵ": 1337,
      "ĠáĬªáĭ³": 1338,
      "ĠáĬ¤áįī": 1339,
      "ĠáĬ¦áĪŃ": 1340,
      "ĠáĬ®áĬĳ": 1341,
      "ĠáĬ°áĪ³": 1342,
      "ĠáĬĥáĮ¥": 1343,
      "ĠáĬĦáĪ«": 1344,
      "ĠáĬĳáĬĥ": 1345,
      "ĠáĭĪáĪŃ": 1346,
      "ĠáĭĪáĮį": 1347,
      "ĠáĭĪáĭµ": 1348,
      "ĠáĭĪáī¥áĪ": 1349,
      "ĠáĭĪáĭ«": 1350,
      "ĠáĭĪáī¤": 1351,
      "ĠáĭĪáįį": 1352,
      "ĠáĭĪáīĢ": 1353,
      "ĠáĭĪáĭĿ": 1354,
      "ĠáĭĪáĮ½": 1355,
      "ĠáĭĪáī¡": 1356,
      "ĠáĭĪáĪĬ": 1357,
      "ĠáĭĪáĪĲ": 1358,
      "ĠáĭĪáī£": 1359,
      "ĠáĭĪáĭĪáĪŃ": 1360,
      "ĠáĭĪáĪĥ": 1361,
      "ĠáĭĪáĭľ": 1362,
      "ĠáĭĪáĭįáĪµáī°": 1363,
      "ĠáĭĪáĪľ": 1364,
      "ĠáĭĪáĮ½áĭµáīħ": 1365,
      "ĠáĭĪáĮ»": 1366,
      "ĠáĭĪáī¥áĪ©": 1367,
      "ĠáĭĪáĮł": 1368,
      "ĠáĭĪáī£áĪ¨": 1369,
      "ĠáĭĪáĮ¸áĭį": 1370,
      "ĠáĭĪáĪ£": 1371,
      "ĠáĭĪáĮ¥áĪ": 1372,
      "ĠáĭĪáįĮ": 1373,
      "ĠáĭĪáĮĮ": 1374,
      "ĠáĭĪáįĢ": 1375,
      "ĠáĭĪáĭ«áĭµáĬħ": 1376,
      "ĠáĭĪáĪŃáī±áĭķ": 1377,
      "ĠáĭĪáĪ¦": 1378,
      "ĠáĭĪáĭ³áĭĬáīµáĬĴ": 1379,
      "ĠáĭĪáīĥáĪįáĭ¨": 1380,
      "ĠáĭĪáĭĽáī²": 1381,
      "ĠáĭĪáĭķáīłáĭŃ": 1382,
      "ĠáĭĪáĪ¨áĭ°áīµ": 1383,
      "ĠáĭĪáĪ¤áĪŀ": 1384,
      "áĮİ": 1385,
      "áĮµáĭ«": 1386,
      "áĮĬáĭµ": 1387,
      "áĮķáĪ¨": 1388,
      "ĠáĪ¥áĪ": 1389,
      "ĠáĪ¤áĪŀ": 1390,
      "ĠáĪ¡áĭķ": 1391,
      "ĠáĪ¢áĪĺáī°": 1392,
      "ĠáĪ²áĬĵ": 1393,
      "ĠáĪĥáĭŃáĪĽáĬĸáīµ": 1394,
      "ĠáĪĸáĪ¨": 1395,
      "Ġáī£áĭĸ": 1396,
      "ĠáīģáĪĿ": 1397,
      "ĠáīĨáĪĺ": 1398,
      "áĬķáį": 1399,
      "áĬķáĮį": 1400,
      "áĬķáĭ³": 1401,
      "áĬķáĮ½": 1402,
      "áĬķáĭ©": 1403,
      "áĬķáīģ": 1404,
      "áĬķáīĨ": 1405,
      "áĬķáĬ¥áĪµ": 1406,
      "áī°áĪĺ": 1407,
      "áī°áĪĻ": 1408,
      "áī°áĪŃáĬ¥áĭ¨": 1409,
      "áĪŃáĭ¨": 1410,
      "áĪŃáĪģ": 1411,
      "áĪŃáĬĲ": 1412,
      "áĪŃáĮĪ": 1413,
      "áĪŃáī¦": 1414,
      "áĪŃáĪĲ": 1415,
      "áĪŃáĬ¥áĪ": 1416,
      "áĪŃáĮī": 1417,
      "áĪŃáĭ©": 1418,
      "áĪŃáĬ®": 1419,
      "áĪŃáĭľ": 1420,
      "áĪŃáĮ¡": 1421,
      "áĪŃáĬ°": 1422,
      "áĪŃáĮĮ": 1423,
      "áĪŃáĬħáĭĪ": 1424,
      "áĪŃáĬŃáĭĭ": 1425,
      "áīµáĬĲ": 1426,
      "áīµáĪķ": 1427,
      "áīµáĭĲ": 1428,
      "áīµáĬ©": 1429,
      "áīµáī£áĪ¨": 1430,
      "áīµáĭķáī¢": 1431,
      "áīµáĬłáĪĺáĬķ": 1432,
      "ĠáĭĪáĬªáĭ³áĬķ": 1433,
      "ĠáĭĪáĬ¬áĬķáĭ«": 1434,
      "ĠáĭĪáĬ¤áĭ": 1435,
      "ĠáĭĪáĬªáĭ«": 1436,
      "ĠáĭĪáĬ¬áĮ": 1437,
      "ĠáĭĪáĬµáĪİ": 1438,
      "ĠáĭĪáĬĨáĮ»": 1439,
      "ĠáĭĪáĬĵáĪĲ": 1440,
      "ĠáĭĪáĬŃáī¥áĪ«": 1441,
      "áį±": 1442,
      "áįĨ": 1443,
      "áįŃ": 1444,
      "áį«áį»áį²": 1445,
      "áįģáĭķ": 1446,
      "áįĥáĪŃ": 1447,
      "áĪµáĪĺ": 1448,
      "áĪµáĪĿ": 1449,
      "áĪµáįĪ": 1450,
      "áĪµáī¥": 1451,
      "áĪµáĪķ": 1452,
      "áĪµáįĭ": 1453,
      "áĪµáī¥áĪĲ": 1454,
      "áĪµáĮ¡": 1455,
      "áĪµáīĨ": 1456,
      "áĪµáĪŃáĭ©": 1457,
      "áĮįáĭµ": 1458,
      "áĮįáĪį": 1459,
      "áĮįáĭķ": 1460,
      "áĮįáĪī": 1461,
      "áĮįáī¥áĪŃ": 1462,
      "áĮįáī£": 1463,
      "áĮįáī¥áī°": 1464,
      "áĮįáĪķáĪł": 1465,
      "áĭµáĮį": 1466,
      "áĭµáĭµ": 1467,
      "áĭµáĪ¨": 1468,
      "áĭµáĭ¨": 1469,
      "áĭµáĬ¨": 1470,
      "áĭµáĪĽ": 1471,
      "áĭµáĪĭ": 1472,
      "áĭµáĬ©": 1473,
      "áĭµáĭ®áĬķ": 1474,
      "áĭµáīĥ": 1475,
      "áĭµáĭ«áĬķ": 1476,
      "áĬ¥áĭ¨": 1477,
      "áĬ¥áĭ°": 1478,
      "áĬ¥áĭľ": 1479,
      "áī¥áĪ±": 1480,
      "áī¥áĪĳ": 1481,
      "áī¥áĪĸ": 1482,
      "áī¥áĪķáĪŃáī°": 1483,
      "ĠáĬłáįį": 1484,
      "ĠáĬłáĪ«": 1485,
      "ĠáĬłáĪľ": 1486,
      "ĠáĬłáĬĥ": 1487,
      "ĠáĬłáĪļ": 1488,
      "ĠáĬłáĬķáĪ°": 1489,
      "ĠáĬłáĪµáīµ": 1490,
      "ĠáĬłáĭĺáĭĺ": 1491,
      "ĠáĬłáĪŃáĬłáĭ«": 1492,
      "ĠáĬłáī¥áĪįáĭĳ": 1493,
      "ĠáĬłáĮ¥áĪ¨": 1494,
      "ĠáĬłáī°áĭĪ": 1495,
      "ĠáĬłáĪķáĪł": 1496,
      "ĠáĬłáĭĿáĪĽáĭ²": 1497,
      "ĠáĬłáĪ®áĬķ": 1498,
      "ĠáĬłáī¥áĪŃáĪĥ": 1499,
      "ĠáĬłáĪĲáī²": 1500,
      "ĠáĬłáĪħáĮī": 1501,
      "ĠáĬłáĬķáĪµáīµ": 1502,
      "ĠáĬłáĬķáĪ¥áĬ¦": 1503,
      "ĠáĬłáĬ¥áī£áĬķ": 1504,
      "ĠáĬłáĮĭáĬķáĬķáīµ": 1505,
      "ĠáĬłáĭµáĮį": 1506,
      "áĭŃáī°": 1507,
      "áĭŃáĭĪ": 1508,
      "áĭŃáĭĭ": 1509,
      "áĭŃáĬ©": 1510,
      "áĭŃáī´": 1511,
      "áĭŃáĮ¥": 1512,
      "áĭŃáĮ¦": 1513,
      "áĭŃáĪĿáĪ°": 1514,
      "áĭŃáĬŃáĭĭ": 1515,
      "áĭŃáĬĸáĪĻ": 1516,
      "áĪĺáĪŃ": 1517,
      "áĪĺáĭį": 1518,
      "áĪĺáĭ©": 1519,
      "áĪĺáĪ©": 1520,
      "áĪĺáĭµáĬ¨": 1521,
      "ĠáīłáĪ¨": 1522,
      "Ġáīłáĭį": 1523,
      "ĠáīłáĪł": 1524,
      "Ġáīłáĭĺ": 1525,
      "ĠáīłáĮĪ": 1526,
      "Ġáīłáįį": 1527,
      "ĠáīłáĪķ": 1528,
      "ĠáīłáĭĲ": 1529,
      "ĠáīłáĪĲ": 1530,
      "ĠáīłáĮ¥": 1531,
      "ĠáīłáĬķáĪµ": 1532,
      "ĠáīłáĪĿáĭµáĪŃ": 1533,
      "Ġáīłáī°áĭĲ": 1534,
      "ĠáīłáīħáĭµáĪĺ": 1535,
      "ĠáīłáĭĿáĬĢ": 1536,
      "ĠáīłáīµáĬ¥áĭĽáĭĻ": 1537,
      "ĠáīłáĬµáĪī": 1538,
      "ĠáīłáĪĺáĪ°": 1539,
      "ĠáīłáĬĲáįį": 1540,
      "ĠáīłáĪ°áĪĽáĭ«áīµ": 1541,
      "ĠáīłáĪŃáĬ¥áĪµ": 1542,
      "ĠáīłáĪ¥áĪĿáĪ¨": 1543,
      "ĠáīłáĪŃáīµáĭķ": 1544,
      "ĠáīłáĬĤáĮł": 1545,
      "Ġáīłáīµáĭķáī¢": 1546,
      "ĠáīłáĪµáĪĺ": 1547,
      "ĠáīłáĮįáĭķ": 1548,
      "áīłáīµ": 1549,
      "áīłáĪį": 1550,
      "áīłáĬĴ": 1551,
      "áīłáĪ«": 1552,
      "áīłáīĢ": 1553,
      "áīłáĪ®": 1554,
      "áīłáĭ±": 1555,
      "áīłáĪİ": 1556,
      "áīłáĭĿáĬħ": 1557,
      "áīłáĭŃáī°": 1558,
      "áĪĿáī°": 1559,
      "áĪĿáĪį": 1560,
      "áĪĿáĭ°": 1561,
      "áĪĿáĬ¨": 1562,
      "áĪĿáĬŃ": 1563,
      "áĪĿáĪĭ": 1564,
      "áĪĿáĭĸ": 1565,
      "áĪĿáĬĵáĬķ": 1566,
      "áĪĿáĪ³áĪį": 1567,
      "áĪĿáĪĲáĪİáĪĻ": 1568,
      "ĠáĪĪáĬĲ": 1569,
      "ĠáĪĪáĪĪ": 1570,
      "ĠáĪĪáĬħ": 1571,
      "ĠáĪĪáĭĪ": 1572,
      "ĠáĪĪáī¥": 1573,
      "ĠáĪĪáĭ«": 1574,
      "ĠáĪĪáīĢ": 1575,
      "ĠáĪĪáĪ³": 1576,
      "ĠáĪĪáĪ¥áĪ": 1577,
      "ĠáĪĪáĪ´": 1578,
      "ĠáĪĪáĪŀ": 1579,
      "ĠáĪĪáĬŃáĪĻ": 1580,
      "ĠáĪĪáĬ«": 1581,
      "ĠáĪĪáĪŃáĬ©": 1582,
      "ĠáĪĪáīłáĭį": 1583,
      "ĠáĪĪáĭĪáĪįáĭµ": 1584,
      "ĠáĪĪáĪŃáĬ¥áĪ": 1585,
      "ĠáĪĪáĪµáī¥áĪĲ": 1586,
      "ĠáĪĪáĮįáĪį": 1587,
      "áĪįáĪµ": 1588,
      "áĪįáī¥": 1589,
      "áĪįáįį": 1590,
      "áĪįáĪĭ": 1591,
      "áĪįáīĢ": 1592,
      "áĪįáĬ©": 1593,
      "áĪįáĭ±": 1594,
      "áĪįáĮī": 1595,
      "áĪįáĭ²": 1596,
      "áĪįáĬ¦": 1597,
      "áĪįáī²áĪĥ": 1598,
      "áĪ¨áī°": 1599,
      "áĪ¨áīµ": 1600,
      "áĪ¨áĭ³": 1601,
      "áĪ¨áĮĪ": 1602,
      "áĪ¨áĪ±": 1603,
      "áĪ¨áĬ®": 1604,
      "áĪ¨áĬµ": 1605,
      "áĪ¨áĪŃáĬ¨": 1606,
      "áĪ¨áĮįáĭµ": 1607,
      "áĪ¨áĭŃáĬŃáĭĭ": 1608,
      "áĪ¨áĪĿáī°": 1609,
      "ĠáĬ¥áĪģáī¦áĪĻ": 1610,
      "ĠáĬ¥áĪ±áĪ¨": 1611,
      "ĠáĬ¥áĪģáī¦": 1612,
      "ĠáĬ¥áĪĽáĬħáĭ°áĪ¨": 1613,
      "áĭ¨áĭµ": 1614,
      "áĭ¨áĪĪ": 1615,
      "áĭ¨áĮ¥": 1616,
      "áĭ¨áĮ¡": 1617,
      "áĭ¨áĭįáĪĢ": 1618,
      "áĬłáĭ³áĪĿ": 1619,
      "áĬłáĪ¶": 1620,
      "áĬłáĪįáĭİ": 1621,
      "áĬłáĪ®áĬķ": 1622,
      "áĬłáĪħáĮī": 1623,
      "áĪĻáĪ«": 1624,
      "ĠáĭĺáĬĲ": 1625,
      "ĠáĭĺáĪ°": 1626,
      "Ġáĭĺáīħ": 1627,
      "ĠáĭĺáĬ£": 1628,
      "ĠáĭĺáĬŃ": 1629,
      "ĠáĭĺáĬĵ": 1630,
      "ĠáĭĺáĮĪ": 1631,
      "Ġáĭĺáī¦": 1632,
      "Ġáĭĺáī³": 1633,
      "ĠáĭĺáĪ®": 1634,
      "ĠáĭĺáĪİ": 1635,
      "ĠáĭĺáĬ¥áĬķáīł": 1636,
      "ĠáĭĺáĬ¨áĪĺ": 1637,
      "ĠáĭĺáĪŃáĬ¡": 1638,
      "ĠáĭĺáĬ®áĬĲ": 1639,
      "ĠáĭĺáĪ¦": 1640,
      "Ġáĭĺáī°áĭĪ": 1641,
      "ĠáĭĺáĪĺáīµ": 1642,
      "Ġáĭĺáĭ«áĪµáī°áĪŃáĬ¢": 1643,
      "ĠáĭĺáĬĢáĭ°": 1644,
      "Ġáĭĺáĭ«áĭµáĬħáĬķ": 1645,
      "ĠáĭĺáĪµáĪĿ": 1646,
      "áĭ°áĪ°": 1647,
      "áĭ°áĪī": 1648,
      "áĭ°áĪĺáĪ°": 1649,
      "áĭ°áĪĺáīµ": 1650,
      "áĭ°áĪĺáĪ©": 1651,
      "áĭ°áĪĿáĬ¨": 1652,
      "áĪģáĪ«": 1653,
      "áĪģáĬ¬": 1654,
      "áĭķáīµ": 1655,
      "áĭķáĭ¨": 1656,
      "áĭķáī¶": 1657,
      "áĭķáĪª": 1658,
      "áĭķáįħ": 1659,
      "áĭķáĭī": 1660,
      "áĭķáĪĬáĭŃ": 1661,
      "áĭķáĭ°áĪ°": 1662,
      "áĬĲáĬĲ": 1663,
      "áĬĲáĮįáĪ¥": 1664,
      "áĬĲáĪ¥áĬ¥": 1665,
      "áĬĲáĪĤ": 1666,
      "áĬĲáīłáī¥": 1667,
      "áĬĲáĮĪáĪŃ": 1668,
      "áĬĲáĭµáĭµ": 1669,
      "áĪĪáīµ": 1670,
      "áĪĪáĭį": 1671,
      "áĪĪáĬĴ": 1672,
      "áĪĪáĪµáī°": 1673,
      "áĪĪáĭĲ": 1674,
      "áĪĪáī³": 1675,
      "áĪĪáĭ©": 1676,
      "áĪĪáĬŃáĪĻ": 1677,
      "áĪĪáĪ°áīµ": 1678,
      "áĪĪáī¥áĪ°": 1679,
      "áĪĪáĭŃáĭİ": 1680,
      "áĪĪáī¥áĪ±": 1681,
      "áĪĪáĭŃáĬ©": 1682,
      "áĬ¨áī°": 1683,
      "áĬ¨áī¥": 1684,
      "áĬ¨áĬĴ": 1685,
      "áĬ¨áĪ¥": 1686,
      "áĬ¨áĪ«": 1687,
      "áĬ¨áī¥áī°": 1688,
      "áĬ¨áī¥áīµ": 1689,
      "áĬ¨áīłáĪİ": 1690,
      "áįĪáīħ": 1691,
      "áįĪáĪĭ": 1692,
      "áįĪáīĢ": 1693,
      "áįĪáĭĭ": 1694,
      "áįĪáĪī": 1695,
      "áįĪáĪ¥áĪ": 1696,
      "áįĪáĪŃáĪĨ": 1697,
      "áįĪáīµáĪķ": 1698,
      "áĬħáī±": 1699,
      "áĬħáī°áĪĺ": 1700,
      "ĠáĬ¥áĭ°": 1701,
      "ĠáĬ¥áī¤": 1702,
      "ĠáĬ¥áĭľ": 1703,
      "ĠáĬ¥áīµáĪĺ": 1704,
      "ĠáĬ¥áĬ¨áĭįáĬķ": 1705,
      "ĠáĬ¥áĭ°áĭĬáĪģ": 1706,
      "ĠáĬ¥áĬ¨áĭ®áĪĻ": 1707,
      "ĠáĬ¥áįĮáĬĳ": 1708,
      "ĠáĬ¥áīłáĭ±": 1709,
      "ĠáĬ¥áĬħáī±": 1710,
      "ĠáĮ¥áĭ©": 1711,
      "ĠáĮ°áĪ«": 1712,
      "ĠáĮĭáĬĶ": 1713,
      "ĠáĮĮáĮĭ": 1714,
      "ĠáĮİáĪŀ": 1715,
      "áĪ°áĭ¨": 1716,
      "áĪ°áĭ°": 1717,
      "áĪ°áĬķáį": 1718,
      "áĪ°áĮįáĪī": 1719,
      "áĪ°áĪĺáĭ©": 1720,
      "áĪ°áĪįáī¥": 1721,
      "áĪ°áĬłáĪįáĭİ": 1722,
      "áĭĪáĪĪ": 1723,
      "áĭĪáĬŃ": 1724,
      "áĭĪáī±": 1725,
      "áĭĪáįħ": 1726,
      "áĭĪáĮ¥áĬķ": 1727,
      "áĭĪáĪ¨áĭ°áīµ": 1728,
      "áĭįáĭ³": 1729,
      "áĭįáįį": 1730,
      "áĭįáĪĭ": 1731,
      "áĭįáĪ¬": 1732,
      "áĭįáĪ©": 1733,
      "áĭįáĪħ": 1734,
      "áĭįáĪįáĭµ": 1735,
      "áĭįáĪ¥áĬ¥áĭİ": 1736,
      "áĭįáĬ¨áĬĴ": 1737,
      "áī¥áĭµ": 1738,
      "áī¥áĭ¨": 1739,
      "áī¥áĭĿ": 1740,
      "áī¥áĬ¦": 1741,
      "áī¥áĭ¨áīµ": 1742,
      "áī¥áĭķáĭ¨": 1743,
      "ĠáĪĺáĬĵ": 1744,
      "ĠáĪĺáĪ«": 1745,
      "ĠáĪĺáĭĲ": 1746,
      "ĠáĪĺáĪ¬": 1747,
      "ĠáĪĺáĭĭ": 1748,
      "ĠáĪĺáīĥ": 1749,
      "ĠáĪĺáĭĵ": 1750,
      "ĠáĪĺáĭµáĬħ": 1751,
      "ĠáĪĺáĬĥ": 1752,
      "ĠáĪĺáĮł": 1753,
      "ĠáĪĺáĬ¨áĭŃ": 1754,
      "ĠáĪĺáĪĢáĭŃ": 1755,
      "ĠáĪĺáĪŃáĮ¡": 1756,
      "ĠáĪĺáĪµáįĪ": 1757,
      "áĪĽáĬķ": 1758,
      "áĪĽáī°": 1759,
      "áĪĽáĭ³": 1760,
      "áĪĽáĪķ": 1761,
      "áĪĽáĭĬ": 1762,
      "áĪĽáĭĬáīµ": 1763,
      "áĪĽáĬķáĭ«": 1764,
      "áīħáĪ¨": 1765,
      "áīħáĭ¨": 1766,
      "áīħáĪĬ": 1767,
      "áīħáĪŀ": 1768,
      "áīħáĭŃáĭĭ": 1769,
      "áīħáĭ°áĪĿáĬ¨": 1770,
      "ĠáĭŃáĪł": 1771,
      "ĠáĭŃáĭľ": 1772,
      "ĠáĭŃáī¥áĪį": 1773,
      "ĠáĭŃáĮ¸áĭį": 1774,
      "ĠáĭŃáĬķáĪ¥": 1775,
      "ĠáĭŃáīµáĪĪ": 1776,
      "ĠáĭŃáīĢáĭį": 1777,
      "ĠáĭŃáīµáī£áĪ¨": 1778,
      "ĠáĭŃáĪĺáĭį": 1779,
      "ĠáĭŃáĭ°áĪī": 1780,
      "ĠáĭŃáĬĲáĮįáĪ¥": 1781,
      "ĠáĭŃáĪĪáī¥áĪ±": 1782,
      "ĠáĭŃáįĪáĪŃáĪĨ": 1783,
      "ĠáĭŃáī¥áĭĿ": 1784,
      "áĭ«áĮĪ": 1785,
      "áĭ«áĭĭ": 1786,
      "áĭ«áī¡": 1787,
      "áĭ«áįĮ": 1788,
      "áĭ³áī°": 1789,
      "áĭ³áī¥": 1790,
      "áĭ³áĬĸ": 1791,
      "áĭ³áīµáĬĴ": 1792,
      "áĭ³áĭ«áĬĴ": 1793,
      "áĪłáįį": 1794,
      "áĪłáĪ«": 1795,
      "áĪłáĪŃáī°": 1796,
      "áĭĺáĪŃáĬ¡": 1797,
      "áĭĺáĬ¨áĪŃ": 1798,
      "ĠáĭĪáĬłáĬķáī°": 1799,
      "ĠáĭĪáĬłáĪµáī°": 1800,
      "ĠáĭĪáĬłáĭĭ": 1801,
      "ĠáĭĪáĬłáĬĢ": 1802,
      "ĠáĭĪáĬłáĪ¥áĪ": 1803,
      "ĠáĭĪáĬłáĪŃáĬł": 1804,
      "ĠáĭĪáĬłáĬ®": 1805,
      "ĠáĭĪáĬłáĬ¥áī°": 1806,
      "ĠáĭĪáĬłáĭĺáĭŀ": 1807,
      "ĠáĭĪáĬłáĪŃáĬłáĭ®": 1808,
      "ĠáĭĪáĬłáĪŃáĬ¥áĪµ": 1809,
      "ĠáĭĪáĬłáĭįáĪ¨": 1810,
      "ĠáĭĪáĬłáĬŃáĪļ": 1811,
      "ĠáĭĪáĬłáĭĿáĪĽáĭ²": 1812,
      "ĠáĭĪáĬłáī¥áĪŃáĪĥ": 1813,
      "ĠáĭĪáĬłáĬķáĪµáīµ": 1814,
      "ĠáĭĪáĬłáĬķáĪ¥áĬ¦": 1815,
      "ĠáĭĪáĬłáĪµáīĨ": 1816,
      "ĠáĭĪáĬłáī¥áĪķáĪŃáī°": 1817,
      "ĠáĭĪáĬłáĬĲáĪĤ": 1818,
      "áĬ£áĬķáĪ°": 1819,
      "áĬŃáĪĪ": 1820,
      "áĬŃáĬķáī°": 1821,
      "áĬŃáĪķ": 1822,
      "áĬŃáĪ®áĪĻ": 1823,
      "áĬŃáī¥áĪ©": 1824,
      "áĬŃáĭķáĭī": 1825,
      "áī±áĪŃ": 1826,
      "áī±áĬ¨": 1827,
      "áĭļáīµ": 1828,
      "áĭļáĬłáĪģ": 1829,
      "áĬĵáĭĵ": 1830,
      "áĬĵáĭ²": 1831,
      "áĬĵáĬ¦": 1832,
      "áĬĵáī³áī°": 1833,
      "áĬĵáĭ³áī¥": 1834,
      "áĮĪáĭ°": 1835,
      "áĮĪáĬĴ": 1836,
      "áĮĪáĪŀ": 1837,
      "áĮĪáī¥áĪ©": 1838,
      "áĮĪáĬĲáīµ": 1839,
      "áĮĪáĭ¨áīµ": 1840,
      "áĮĪáįĨ": 1841,
      "ĠáĬ¥áĪĿáįį": 1842,
      "ĠáĬ¥áĪĿáĭįáĪµáī°": 1843,
      "ĠáĬ¥áĪĿáĬ¨áĪĺ": 1844,
      "ĠáĬ¥áĪĿáīħáĭµáĪĺ": 1845,
      "ĠáĬ¥áĪĿáĬ¥áĪĪ": 1846,
      "ĠáĬ¥áĪĿáĭķáĪĪ": 1847,
      "ĠáĬ¥áĪĿáĪ°áĪĽáĭ«áīµ": 1848,
      "ĠáĬ¥áĪĿáĭķáĭķ": 1849,
      "ĠáĬ¥áĪĿáĭ³áĮį": 1850,
      "ĠáĬ¥áĪĿáĭĿáĪĻáīµ": 1851,
      "ĠáĬ¥áĪĿáĭĽáī²": 1852,
      "ĠáĬ¥áĪĿáĭĪáĪįáĭµ": 1853,
      "ĠáĬ¥áĪĿáĭµáĪ¨": 1854,
      "ĠáĬ¥áĪĿáĬ¥áĭ°": 1855,
      "ĠáĬ¥áĪĿáĭķáįħ": 1856,
      "ĠáĬ¥áĪĿáĮĪáĬĲáīµ": 1857,
      "áĪ¥áĮ½": 1858,
      "áĪ¥áīĥ": 1859,
      "áĪ¥áĬ¡": 1860,
      "áī¤áĭµ": 1861,
      "áī¤áĪģ": 1862,
      "Ġáī°áĭĭ": 1863,
      "Ġáī°áĮĭ": 1864,
      "Ġáī°áĪ¨áįĪ": 1865,
      "Ġáī°áĬ«": 1866,
      "Ġáī°áī£áĪ¨": 1867,
      "Ġáī°áĬķáĪ¥": 1868,
      "Ġáī°áĬłáĪĿ": 1869,
      "Ġáī°áĪĺáĪ°": 1870,
      "Ġáī°áĪĢáĭŃ": 1871,
      "Ġáī°áĬłáĪĺáĬķ": 1872,
      "Ġáī°áĬŃáĪī": 1873,
      "Ġáī°áįĥáĪŃ": 1874,
      "Ġáī°áĪµáįĭ": 1875,
      "Ġáī°áĮįáĪķáĪł": 1876,
      "Ġáī°áīłáīĢ": 1877,
      "Ġáī°áĬ¨áī¥áī°": 1878,
      "Ġáī°áĭįáĪĭ": 1879,
      "Ġáī°áĭĺáĬ¨áĪŃ": 1880,
      "Ġáī°áĬŃáĪĪ": 1881,
      "ĠáĭĪáĬ¥áĪĪ": 1882,
      "ĠáĭĪáĬ¥áĪŀ": 1883,
      "ĠáĭĪáĬ¥áĪģáī¦áĪĻ": 1884,
      "ĠáĭĪáĬ¥áĪ¬áĪµ": 1885,
      "ĠáĭĪáĬ¥áĪłáĪĿ": 1886,
      "ĠáĭĪáĭŃáīĢ": 1887,
      "ĠáĭĪáĭŃáĮįáīł": 1888,
      "ĠáĭĪáĭŃáĮĪáī¥áĪŃ": 1889,
      "ĠáĭĪáĭŃáī¥áĪİ": 1890,
      "ĠáĭĪáĭŃáĬ¨áĭį": 1891,
      "ĠáĭĪáĭŃáĪ°áīµ": 1892,
      "ĠáĭĪáĭŃáĮĮ": 1893,
      "ĠáĭĪáĭŃáĭĪáĪŃáĭµ": 1894,
      "ĠáĭĪáĭŃáĪĸáĪ©": 1895,
      "ĠáĭĪáĭŃáĬ¥áĭľ": 1896,
      "ĠáĭĪáĭŃáĪĿáĪį": 1897,
      "ĠáĭĪáĭŃáĬĲáĪ¥áĬ¥": 1898,
      "ĠáĭĪáĭŃáįĪáīµáĪķ": 1899,
      "ĠáĭĪáĭŃáĬŃáĭķáĭī": 1900,
      "ĠáĭĪáĭŃáĮĪáī¥áĪ©": 1901,
      "áįįáĭ«": 1902,
      "áįįáĭĲ": 1903,
      "áįįáĪī": 1904,
      "áįįáĬ©": 1905,
      "áįįáĪĲ": 1906,
      "áįįáĬĳ": 1907,
      "áįįáĭĸ": 1908,
      "áįįáĪŃáĪģ": 1909,
      "áįįáĪįáī²áĪĥ": 1910,
      "áįįáĪ¨áī°": 1911,
      "áĪµáī°áĪµáĪŃáĭ©": 1912,
      "áĪµáī°áįĪáĪ¥áĪ": 1913,
      "áĪ«áī°": 1914,
      "áĪ«áīł": 1915,
      "áĪ«áĭĬ": 1916,
      "áĪ«áĭįáĪ¬": 1917,
      "áĪĭáĪĺ": 1918,
      "áĪĭáĬŃ": 1919,
      "áĪĭáĭĬ": 1920,
      "áĪĭáĬ¥áī±": 1921,
      "áĪĭáĭ³áī°": 1922,
      "áĪķáĪį": 1923,
      "áĪķáī´": 1924,
      "áĪķáįįáīµ": 1925,
      "áĪķáĪ¨áīµ": 1926,
      "áĭĲáĪ¨": 1927,
      "áĭĲáĭ±": 1928,
      "áĭĲáĪİáĪĻ": 1929,
      "áĭĲáĪŃáĮī": 1930,
      "áĭĲáĪįáĬ©": 1931,
      "áīĢáĪŃáĬ©": 1932,
      "áīĢáĬķáĭ©": 1933,
      "áīĢáĪŃáī¦": 1934,
      "áīĢáĭµáĬ©": 1935,
      "áĭ®áĮµáĭ«": 1936,
      "áĭ®áī¤áĭµ": 1937,
      "ĠáĬ¨áĭŃáĪ": 1938,
      "ĠáĬ¨áĪĽáĪģ": 1939,
      "ĠáĬ¨áī¥áĭµ": 1940,
      "áĭĿáĬ©": 1941,
      "áĭĿáĬĥ": 1942,
      "áĭĿáĭįáįį": 1943,
      "ĠáĭĪáīłáĮ½": 1944,
      "ĠáĭĪáīłáĪĬ": 1945,
      "ĠáĭĪáīłáĭįáĬ¥áī±": 1946,
      "ĠáĭĪáīłáĭĪáĪį": 1947,
      "ĠáĭĪáīłáĮ½áĭµáīħ": 1948,
      "ĠáĭĪáīłáĪĿáĭµáĪŃ": 1949,
      "ĠáĭĪáīłáĪ¥áĮĭ": 1950,
      "ĠáĭĪáīłáĬłáĪĿ": 1951,
      "ĠáĭĪáīłáĪ°áĪĽáĭ«": 1952,
      "ĠáĭĪáīłáĭĿáĬĢ": 1953,
      "ĠáĭĪáīłáĮ½áĭ®áĬķ": 1954,
      "ĠáĭĪáīłáĪ¥áĪŃáĭĲ": 1955,
      "ĠáĭĪáīłáīµáĪ¨": 1956,
      "ĠáĭĪáīłáĭķáĪį": 1957,
      "ĠáĭĪáīłáĪĺáĬķáįĪáĪµ": 1958,
      "ĠáĭĪáīłáĬ¥áĬķáī²áĬłáĪģ": 1959,
      "ĠáĭĪáīłáĬ¨áĭ¨": 1960,
      "ĠáĭĪáīłáĭ³áĮį": 1961,
      "ĠáĭĪáīłáĭĿáĪĻáīµ": 1962,
      "ĠáĭĪáīłáĪ¥áĪĿáĪ¨": 1963,
      "ĠáĭĪáīłáīĥáĪįáĭ¨": 1964,
      "ĠáĭĪáīłáĭķáīłáĭŃ": 1965,
      "ĠáĭĪáīłáĪŃáīµáĭķ": 1966,
      "ĠáĭĪáīłáĭ¨áĭįáĪĢ": 1967,
      "ĠáĭĪáīłáĭķáĪª": 1968,
      "ĠáĭĪáīłáĪĽáĪķ": 1969,
      "ĠáĬ¢áĪ³": 1970,
      "ĠáĬ¢áī³": 1971,
      "ĠáĬ¢áĬ®": 1972,
      "ĠáĬ¢áĬĢáĭ°": 1973,
      "ĠáĬ¢áī°áĪŃáĬ¥áĭ¨": 1974,
      "ĠáĬ¢áĪĪáī¥áĪ°": 1975,
      "ĠáĬ¢áĭĪáĪ¨áĭ°áīµ": 1976,
      "ĠáĬ¢áĭ®áī¤áĭµ": 1977,
      "áĪ¬áĪµ": 1978,
      "áĪ¬áĭİáĬķ": 1979,
      "áĭĬáī°": 1980,
      "áĭĬáĪ®áĪĻ": 1981,
      "áĭĭáĮį": 1982,
      "áĭĭáĭĵ": 1983,
      "áĭĭáĬĲáĭ©": 1984,
      "áĭĭáĬħáĭĪ": 1985,
      "áĬĢáĭĪ": 1986,
      "áĬĢáĭĬáĪģ": 1987,
      "áĬĢáī°áĪĻ": 1988,
      "áĬĢáĪįáįį": 1989,
      "áĬĢáĪĪáĭŃáĭİ": 1990,
      "áĪ³áī°": 1991,
      "áĪ³áĬĲ": 1992,
      "áĪ³áĪĬ": 1993,
      "áĪ³áĪĮáĪĿ": 1994,
      "áĪ³áīħáĭ¨": 1995,
      "áī³áĪĲ": 1996,
      "áī³áĪķáī´": 1997,
      "áī³áĭĬáī°": 1998,
      "ĠáĪ°áĪ«áĭĬáīµ": 1999,
      "ĠáĪ°áīłáĪ«": 2000,
      "ĠáĪ°áĪ¨áĮĪ": 2001,
      "ĠáĪ°áĪ«áĭĬ": 2002,
      "ĠáĪ°áĪĭáĪĺ": 2003,
      "áĪ®áĪĿ": 2004,
      "áĪ®áĪķ": 2005,
      "áĪ®áī¶áĪĻ": 2006,
      "áĪ®áĪĤ": 2007,
      "áĪīáīħ": 2008,
      "áĬ©áĬŃáĪĻ": 2009,
      "Ġáĭįáĭ´": 2010,
      "ĠáĬ¨áĪĺáĭĿ": 2011,
      "áĮ½áĮ½": 2012,
      "áĮ½áī£": 2013,
      "áĮ½áĬĳ": 2014,
      "áĮ½áĬĵáĭĵ": 2015,
      "áīĤáĭ¶": 2016,
      "áī¥áĪŃáī²áĪģ": 2017,
      "áĪİáīµáĭ¨": 2018,
      "ĠáĮ½áĮĭ": 2019,
      "ĠáĮ½áĪ©": 2020,
      "ĠáĮ½áĪĭáī°": 2021,
      "ĠáĮ½áĭµáīĢ": 2022,
      "ĠáĮ½áĪĭáīµ": 2023,
      "ĠáĮ½áĪŃáĪĲ": 2024,
      "ĠáĪķáĮĪ": 2025,
      "ĠáĪķáĪ±": 2026,
      "ĠáĪķáĮ¹": 2027,
      "ĠáĪķáĮİ": 2028,
      "ĠáĪķáĬķáĮ½": 2029,
      "ĠáĪķáĭ«áĭĭ": 2030,
      "ĠáīłáĬ¥áĭ°": 2031,
      "ĠáīłáĬ¥áĮįáĭļáĬ£áī¥áĪĶáĪŃ": 2032,
      "ĠáīłáĬ¥áĭ´": 2033,
      "ĠáīłáĬ¥áĬķáī²áĬłáĪģ": 2034,
      "ĠáīłáĬ¥áĭ°áĭĬáĪģ": 2035,
      "ĠáīłáĬ¥áĬ¨áĭ¨": 2036,
      "ĠáīłáĬ¥áĬ¨áĭ®áĪĻ": 2037,
      "áī¡áĭŃ": 2038,
      "áī¡áĪ¨": 2039,
      "áī¡áĬ¬": 2040,
      "áī¡áīĥáĬĲ": 2041,
      "áĪĢáĪ®áĪĻ": 2042,
      "áĪĢáĪĪáĬĴ": 2043,
      "áĪĢáĭįáĬ¨áĬĴ": 2044,
      "áĪĢáĪ«áī°": 2045,
      "áĪĬáĬĵ": 2046,
      "áĭİáĪĻ": 2047,
      "Ġáĭ°áī¥áĪ¨": 2048,
      "Ġáĭ°áĪŃáĬ¨": 2049,
      "Ġáĭ°áĬĥáĪª": 2050,
      "Ġáĭ°áĪĿáĪ°": 2051,
      "Ġáĭ°áĭŃáĬĸáĪĻ": 2052,
      "Ġáĭ°áĭĪáĪĪ": 2053,
      "ĠáĭĪáĪįáĮĲ": 2054,
      "áĮĭáĭ¨": 2055,
      "áĮĭáĭį": 2056,
      "áĮĭáĬĲáĭ©": 2057,
      "áĮĭáĬĵáī°": 2058,
      "ĠáīħáĬĵáī³áī°": 2059,
      "Ġáį©": 2060,
      "Ġáį°": 2061,
      "Ġáį«áį»áį²": 2062,
      "ĠáįĥáĬ¥": 2063,
      "áĪĲáĭŃ": 2064,
      "áĪĲáįĪ": 2065,
      "áĪĲáīħ": 2066,
      "áĪĲáĪµáī¥": 2067,
      "áĪĲáĭįáĪ©": 2068,
      "áĪĲáįįáĬ©": 2069,
      "áĪĲáīĢáĪŃáĬ©": 2070,
      "áĬ¥áĪĺáĬĴ": 2071,
      "áĬ¥áĪĿáĪ®áĪĻ": 2072,
      "ĠáĬĢáĭ¨áĪ°": 2073,
      "ĠáĬĢáĭ°áĪ¨": 2074,
      "ĠáĬĢáĪĪáįĪ": 2075,
      "ĠáĬĢáĪ³áĪ¨": 2076,
      "ĠáĬĢáĪĬáĭŃ": 2077,
      "ĠáĬĢáĪ¨áĭŃáĬŃáĭĭ": 2078,
      "ĠáĬĢáĪĪáĭŃáĬ©": 2079,
      "ĠáĬĢáī¤áĪģ": 2080,
      "ĠáĬĢáĭĭáĬħáĭĪ": 2081,
      "ĠáĭĪáĪĺáīĥ": 2082,
      "ĠáĭĪáĪĺáĮ¸": 2083,
      "ĠáĭĪáĪĺáĭĽ": 2084,
      "ĠáĭĪáĪĺáĪĽáĪµ": 2085,
      "ĠáĭĪáĪĺáĪ³áĪ¨": 2086,
      "ĠáĭĪáĪĺáĪ¨áĮįáĭµ": 2087,
      "ĠáĭĪáĪĺáĬĲáĬĲ": 2088,
      "ĠáĭĪáĪĺáĪ³áīħáĭ¨": 2089,
      "ĠáĭĪáĪĺáĪĢáĪ®áĪĻ": 2090,
      "ĠáĪĽáĭŃ": 2091,
      "ĠáĪĿáĬķáī°": 2092,
      "ĠáĪĿáĬŃáĪ¨": 2093,
      "ĠáĪĿáĬŃáĪŃ": 2094,
      "ĠáĪĿáĬķáĭ³": 2095,
      "ĠáĪĿáĬŃáĪķ": 2096,
      "ĠáĪĿáĪķáĪ¨áīµ": 2097,
      "ĠáĪĿáĮ½áĬĵáĭĵ": 2098,
      "ĠáĪĪáĬ¥áĬª": 2099,
      "áĪĮáīµ": 2100,
      "áĪĮáīħ": 2101,
      "áī£áĪ°": 2102,
      "áī£áĪŃáĬ®": 2103,
      "ĠáĬķáĮįáīł": 2104,
      "ĠáĬķáĮįáī£": 2105,
      "áĮīáĪĿ": 2106,
      "ĠáĪµáĪĻ": 2107,
      "ĠáĪµáī¥áĪ¨": 2108,
      "ĠáĪµáįī": 2109,
      "Ġáī³áĪĽáĪµáĬĵ": 2110,
      "ĠáĮĪáī¢": 2111,
      "ĠáĮĪáĮ¾": 2112,
      "ĠáĮĪáįįáĭĲ": 2113,
      "áĪ¥áĪĻ": 2114,
      "áĪ¥áĪŃ": 2115,
      "áĪ¥áĪ¨áĮ»": 2116,
      "áĬĳáĬĲ": 2117,
      "áĬĳáĪ°": 2118,
      "áĬĳáĬĴ": 2119,
      "ĠáĭĪáī°áĪŀ": 2120,
      "ĠáĭĪáī°áĬ¦": 2121,
      "ĠáĭĪáī°áĭĪáĪįáĭ°": 2122,
      "ĠáĭĪáī°áĬĵáĮĪ": 2123,
      "ĠáĭĪáī°áĪĢáĭŃ": 2124,
      "ĠáĭĪáī°áĪĺáĪį": 2125,
      "ĠáĭĪáī°áĬłáĭĺáĭĺ": 2126,
      "ĠáĭĪáī°áĪŃáĬħáĭĪ": 2127,
      "ĠáĭĪáī°áĭµáĪĭ": 2128,
      "ĠáĭĪáī°áĪĿáĭĸ": 2129,
      "ĠáĭĪáī°áĪĪáĭĲ": 2130,
      "ĠáĭĪáī°áĬ¨áĪ¥": 2131,
      "ĠáĭĪáī°áĭĪáĬŃ": 2132,
      "ĠáĭĪáī°áĭįáĪħ": 2133,
      "ĠáīµáĬ©áĬķ": 2134,
      "ĠáīµáĮ¸áĭįáĪŃáĭĭ": 2135,
      "ĠáīµáĭĿáĬħ": 2136,
      "ĠáīµáĬķáĮį": 2137,
      "Ġáīµáĭ°áĪĺáĪ°": 2138,
      "ĠáīµáĪ°áĪĺáĭ©": 2139,
      "ĠáīµáĭįáĪįáĭµ": 2140,
      "ĠáīµáĭĿáĭįáįį": 2141,
      "ĠáĪĺáĬķáīłáĪ¨": 2142,
      "ĠáĪĺáĬķáĬŃáĪŃ": 2143,
      "ĠáĭĪáĭŃáī¤áĪįáĭİ": 2144,
      "áīĥáĭ¶": 2145,
      "áīĥáĪĭáīµ": 2146,
      "áīĥáĪ¥áīĥ": 2147,
      "ĠáĪĿáĭµáĪ®áĪĻ": 2148,
      "ĠáīłáĬ¥áĬķáī°áĭĿ": 2149,
      "áĪĥáĬĲ": 2150,
      "áĭ©áĬĴ": 2151,
      "ĠáĭĪáĪĿáĬŃáĪ¨": 2152,
      "ĠáĭĪáĪĿáĮº": 2153,
      "ĠáĭĪáĪĿáĪģáĪ«": 2154,
      "ĠáĭĪáĪĿáī±áĪŃ": 2155,
      "ĠáĭĪáĪĿáĬĳáĬĲ": 2156,
      "áĮ¸áĪī": 2157,
      "áĮ¸áĪ®áĪĻ": 2158,
      "áĮ¸áĪĪáĭ©": 2159,
      "áĮįáĪ¥áī°": 2160,
      "áĪ©áĭ«áĬĴ": 2161,
      "áĪ©áĪ³áĪĮáĪĿ": 2162,
      "áĪħáīģ": 2163,
      "áĪħáĪįáĭ¨": 2164,
      "áĪħáĬĲáīµ": 2165,
      "ĠáĭĪáĭĪáĪ¨áĭ°": 2166,
      "ĠáĭĪáĭĪáĬ¨áĭŃ": 2167,
      "ĠáĭĪáĭĪáĭµáīĢ": 2168,
      "ĠáĭĪáĭĪáĭ°áĭ¨": 2169,
      "ĠáĭĪáĭĪáįħáĬł": 2170,
      "ĠáĭĪáĭĪáĪ°áĭ°": 2171,
      "ĠáĭĪáĭĪáĪ«áĭįáĪ¬": 2172,
      "ĠáīłáĬłáįĪ": 2173,
      "ĠáīłáĬłáĮ»": 2174,
      "ĠáīłáĬłáĬ°": 2175,
      "ĠáīłáĬłáĬ¥áī£áĬķ": 2176,
      "ĠáīłáĬłáĭŃáī´": 2177,
      "ĠáīłáĬłáĪĿáĪ³áĪį": 2178,
      "ĠáīłáĬłáĪĽáĬķ": 2179,
      "ĠáīłáĬłáĮ½áī£": 2180,
      "áĪĽáĭ«áĭĬáīµáĬĴ": 2181,
      "ĠáĮ½áĭ®áĬķáĪ°": 2182,
      "áĪªáī°": 2183,
      "áĪªáĪĥ": 2184,
      "áĭĵáĬĲ": 2185,
      "áĭĵáĭļáīµ": 2186,
      "Ġáĭ«áĪĺáĪį": 2187,
      "Ġáĭ«áīłáĭį": 2188,
      "Ġáĭ«áĬłáīµ": 2189,
      "Ġáĭ«áĭķáīĨáī¥": 2190,
      "Ġáĭ«áĪ¨áĬµ": 2191,
      "Ġáĭ«áĪ°áĮįáĪī": 2192,
      "Ġáĭ«áīħáĪŀ": 2193,
      "Ġáĭ«áĪµáī°áĪµáĪŃáĭ©": 2194,
      "Ġáĭ«áĭĲáĪŃáĮī": 2195,
      "Ġáĭ«áĬ¥áĪĿáĪ®áĪĻ": 2196,
      "ĠáĬŃáī¥áĪŃ": 2197,
      "ĠáĬŃáĭĳ": 2198,
      "ĠáĬŃáĪ¨áĪĿáī°": 2199,
      "ĠáĬŃáįįáĪī": 2200,
      "ĠáĬŃáĪħáĬĲáīµ": 2201,
      "ĠáĭĪáīµáĬĲáī¥áĪŃ": 2202,
      "ĠáĭĪáīµáĬ¨áĭįáĬķ": 2203,
      "ĠáĭĪáīµáĪĦáĪī": 2204,
      "ĠáĭĪáīµáĬ¨áī¥áīµ": 2205,
      "ĠáĭĪáīµáĪ°áĪįáī¥": 2206,
      "ĠáĭĪáĬ¢áī°áĭĲáĭ°áĭĪ": 2207,
      "ĠáĭĪáĬ¢áĭŃáĪ": 2208,
      "ĠáĭĪáĬ¢áīµáĬ©": 2209,
      "ĠáĭĪáĬ¢áĭŃáĪĿáĪ°": 2210,
      "ĠáĭĪáĬ¢áĬĲáīłáī¥": 2211,
      "ĠáĭĪáĬ¢áĪ°áĬłáĪįáĭİ": 2212,
      "ĠáĭĪáĬ¢áĭ«áī¡": 2213,
      "ĠáĭĪáĬ¢áĬĢáĪĪáĭŃáĭİ": 2214,
      "ĠáĭĪáĬ¢áī³áĪĲ": 2215,
      "ĠáĭĪáĬ¢áĮ¸áĪĪáĭ©": 2216,
      "ĠáĭĪáĬ¥áĮįáĭļáĬ£áī¥áĪĶáĪŃ": 2217,
      "ĠáĭĪáĬ¥áĬķáī°": 2218,
      "ĠáĭĪáĬ¥áįĮáĬĳ": 2219,
      "ĠáĭĪáĬ¥áĬĦáĪĬ": 2220,
      "ĠáĭĪáĬ¥áī£áĪŃáĬ®": 2221,
      "áĭµáĬħáĬĳ": 2222,
      "áĭµáĬħáĬĸ": 2223,
      "ĠáĭŃáĬ¥áī°": 2224,
      "ĠáĭĪáĬ¥áĪĿáĬłáĭ³áĪĿ": 2225,
      "ĠáĭĪáĬ¥áĪĿáĭĺáĪŃáĬ¡": 2226,
      "ĠáĭĪáĬ¥áĪĿáĪķáĪį": 2227,
      "ĠáĭĪáĬ¥áĪĿáī³áĪķáī´": 2228,
      "áĭĽáĭľ": 2229,
      "áĬ®áĪŃ": 2230,
      "ĠáĭĿáĭ¨": 2231,
      "ĠáĭĿáĪ°": 2232,
      "ĠáĭĿáĮįáī¥áĪŃ": 2233,
      "ĠáĭĿáĪįáĮī": 2234,
      "ĠáĪ´áĪ®áĪķ": 2235,
      "ĠáĪŃáĭĳ": 2236,
      "ĠáĪŃáĬ¥áĪµ": 2237,
      "ĠáĪŃáĬ¥áĭ¨": 2238,
      "ĠáĪŃáĮīáĪĿ": 2239,
      "ĠáīĢáĬķáĬł": 2240,
      "ĠáīĢáĭ³áĪļ": 2241,
      "ĠáīĢáīµáĪĪ": 2242,
      "ĠáīĢáĭ°áĪĺáīµ": 2243,
      "ĠáīĢáĬĵáĭ²": 2244,
      "áįĭáīĦ": 2245,
      "áĬ¥áĬķáīłáĪĮáĪģ": 2246,
      "ĠáĪĪáĬłáĬ®": 2247,
      "ĠáĪĪáĬłáī¥áĪ«áĪĿ": 2248,
      "ĠáĪĪáĬłáĮĭáĬķáĬķáīµ": 2249,
      "ĠáĪĪáĬłáĪĿáĪĭ": 2250,
      "ĠáĪĪáĬłáĭµáĬħáĬĸ": 2251,
      "ĠáĭĺáĭŃáĬ¬": 2252,
      "ĠáĭĺáĭŃáĬĲáįį": 2253,
      "ĠáĭĺáĭŃáĬ¨áĭįáĬķ": 2254,
      "ĠáĭĺáĭŃáīĪáĪŃ": 2255,
      "ĠáĭĺáĭŃáĬķáĬ¥áĪµ": 2256,
      "ĠáĭĺáĭŃáīłáĪį": 2257,
      "ĠáĭĺáĭŃáĬĲáĭµáĭµ": 2258,
      "ĠáĭĺáĭŃáĭĪáįħ": 2259,
      "ĠáĭĺáĭŃáĪłáĪ«": 2260,
      "ĠáĬ¢áĭŃáĪŃáĬłáĭ®": 2261,
      "ĠáĬ¢áĭŃáĪ¨áĪµ": 2262,
      "ĠáĬ¢áĭŃáīµáĭĲ": 2263,
      "ĠáĬ¢áĭŃáĭ°áĪĺáĪ©": 2264,
      "ĠáĬ¢áĭŃáįįáĪŃáĪģ": 2265,
      "ĠáĪĭáĭķáĪĮáĪģ": 2266,
      "ĠáįĪáĮ¢áĪ¨": 2267,
      "áĬ¢áĭ«áĪµáī°áĪŃáĬ¢": 2268,
      "ĠáĭĪáĪĪáĬ«": 2269,
      "ĠáĭĪáĪĪáĬķáĮīáĪł": 2270,
      "ĠáĭĪáĪĪáĪĺáĭµáĬĢáĬĴáī°": 2271,
      "ĠáĭĪáĪĪáĭ³áĭĬáīµáĬĴ": 2272,
      "ĠáĭĪáĪĪáĬłáĪ®áĬķ": 2273,
      "ĠáĭĪáĪĪáĭ«áįĮ": 2274,
      "ĠáĭĪáĪĪáĬŃáī¥áĪ©": 2275,
      "ĠáĭĪáĪĪáĬ¥áĪĺáĬĴ": 2276,
      "ĠáĭĪáĬ£áĪŀ": 2277,
      "ĠáĭĪáĬ£áĬłáīµ": 2278,
      "ĠáĭĪáĬ£áĭĲáī¢": 2279,
      "ĠáĭĪáĬ£áīĢáĭį": 2280,
      "ĠáĭĪáĬ£áīłáĭĿáĬħ": 2281,
      "ĠáĭĪáĬ£áĪµáī°áįĪáĪ¥áĪ": 2282,
      "ĠáĪĪáĭ°áīĤáīģ": 2283,
      "ĠáĪĺáĬķáĮįáĪ¥áī±": 2284,
      "ĠáĪĿáĭµáĪŃáĬĴ": 2285,
      "ĠáįįáĪ¬": 2286,
      "ĠáįįáĬ«": 2287,
      "ĠáįįáīħáĪ¨": 2288,
      "áĪľáī°": 2289,
      "áĭ²áĭİ": 2290,
      "áĬĥáĪĪáįĪ": 2291,
      "áī´áī±": 2292,
      "ĠáĬĲáī°": 2293,
      "ĠáĬĲáĭĵ": 2294,
      "ĠáĬĲáĬª": 2295,
      "ĠáĬĲáĬłáĪĿ": 2296,
      "ĠáĬĲáĮĪáĪŃ": 2297,
      "ĠáĬĲáĮĪáĪ¥": 2298,
      "ĠáĬĲáĬłáĪ¶": 2299,
      "ĠáĭĪáĭĺáĬķáī°": 2300,
      "ĠáĭĪáĭĺáĪŃáĬ¡": 2301,
      "ĠáĭĪáĭĺáĭįáĪĢ": 2302,
      "ĠáĭĪáĭĺáĬĲáĮĪáĪŃ": 2303,
      "ĠáĭĪáĭĺáĪ°áĬķáį": 2304,
      "ĠáĭĪáĭĺáĬ¥áĬķáīłáĪĮáĪģ": 2305,
      "ĠáĭĪáĭĺáĬ¢áĭ«áĪµáī°áĪŃáĬ¢": 2306,
      "ĠáĭĪáĬ¨áī¥áĪ¨": 2307,
      "ĠáĭĪáĬ¨áĬķáī±": 2308,
      "ĠáĭĪáĬ¨áī¥áĪ¨áīµ": 2309,
      "ĠáĭĪáĬ¨áĪŃáĬ¨": 2310,
      "ĠáĭĪáĬ¨áĪĽáĪģ": 2311,
      "ĠáĬłáī¡áĬĲ": 2312,
      "ĠáĬłáī¡áĪĨáĪĻ": 2313,
      "ĠáĭķáĪĪáīµ": 2314,
      "ĠáĭķáįįáĪ¨áī°": 2315,
      "Ġáĭķáī¡áĭŃ": 2316,
      "ĠáĭĪáĪ°áī¥áĬ¥": 2317,
      "ĠáĭĪáĪ°áĮĬáĭµ": 2318,
      "ĠáĭĪáĪ°áīłáĪ®": 2319,
      "ĠáĭĪáĪ°áĮĪáĭ°": 2320,
      "ĠáĭĪáĪ°áįįáĪĲ": 2321,
      "ĠáĭĪáĪ°áĪĽáĭ«áĭĬáīµáĬĴ": 2322,
      "ĠáĭĪáī¦áĪĻ": 2323,
      "ĠáĭĪáī¦áī±": 2324,
      "ĠáĬłáĪĿáĪįáĬ®": 2325,
      "ĠáĬłáĪĿáĭķáĭķ": 2326,
      "ĠáĬ¥áĪĺáĬĴ": 2327,
      "Ġáīħáĭ±áĪ³áĬķ": 2328,
      "ĠáĪµáī¥áĪĲáīµ": 2329,
      "ĠáĮįáī¥áĪ«": 2330,
      "ĠáĮįáī¥áĪ©": 2331,
      "ĠáĮįáīłáĪŃ": 2332,
      "ĠáĮįáĭµáĪĽ": 2333,
      "ĠáĮįáĪĻáĪ«": 2334,
      "áĬķáĬłáī°": 2335,
      "ĠáĭĪáĬ®áĬĲáīµ": 2336,
      "áįħáĬ¦": 2337,
      "ĠáĪĪáĭĺáĪĺáĭµáĬ¨": 2338,
      "ĠáĭĺáĬłáīłáĭĬ": 2339,
      "ĠáĭĺáĬłáĭĺáĭĺ": 2340,
      "ĠáĭĺáĬłáĪŃáĬ°": 2341,
      "ĠáĭĺáĬłáĪĿáĪĲáĪİáĪĻ": 2342,
      "ĠáĭĺáĬłáĭįáĪ¥áĬ¥áĭİ": 2343,
      "ĠáĭĺáĬłáīħáĭ°áĪĿáĬ¨": 2344,
      "ĠáĭĺáĬłáĪ¥áĪ¨áĮ»": 2345,
      "ĠáĮ¸áĭ°áĭ¨": 2346,
      "ĠáĮ¸áĮķáĪ¨": 2347,
      "ĠáĮ¸áĮĪáĭ¨áīµ": 2348,
      "ĠáĮ¸áįįáĭĸ": 2349,
      "ĠáĮ¸áĭĬáĪ®áĪĻ": 2350,
      "ĠáĮ¸áĪİáīµáĭ¨": 2351,
      "ĠáĮ¸áĪĢáĪ«áī°": 2352,
      "Ġáĭ°áīĤáīĨ": 2353,
      "Ġáĭ°áīĤáīĨáĪĻ": 2354,
      "Ġáĭ°áīĤáīħáĬ¨": 2355,
      "ĠáįĪáĪ¨áĪµ": 2356,
      "ĠáįĪáīĤáĭ¶": 2357,
      "ĠáįĪáīĥáĭ¶": 2358,
      "ĠáĭĲáīłáĭŃáī°": 2359,
      "ĠáĭĲáĭįáĭ³": 2360,
      "ĠáĭĲáĪłáĪŃáī°": 2361,
      "ĠáĭĲáĪĭáĭĬ": 2362,
      "ĠáĬ«áĪĿ": 2363,
      "ĠáĬħáī¥áĪ¨áīµ": 2364,
      "ĠáĬħáī¥áĪµ": 2365,
      "ĠáĬħáĪīáīħ": 2366,
      "ĠáĬħáī¡áĪ¨": 2367,
      "ĠáĭĪáįĪáĪŃáĪĢ": 2368,
      "ĠáĭĪáįĪáĪŃáĪĨ": 2369,
      "ĠáĭĪáįĪáĪĪáĪ°áīµ": 2370,
      "ĠáĭĪáįĪáīĢáĭµáĬ©": 2371,
      "ĠáĭĪáĪĽáĬħáĭ°áĪ¨": 2372,
      "ĠáĭĪáĪĽáĪķáĪĭ": 2373,
      "ĠáĪĢáĪĪáĭį": 2374,
      "ĠáĪĢáī¡áĬ¬": 2375,
      "ĠáĪłáĬĵáĭ¨": 2376,
      "ĠáĪłáĪĪáĪµáī°": 2377,
      "ĠáĪłáīĥáĪ¥áīĥ": 2378,
      "ĠáĭĪáĬĢáī¥áĪ©": 2379,
      "ĠáĭĪáĬĢáĮº": 2380,
      "ĠáĭĪáĬĢáĭ¨áĪ°": 2381,
      "ĠáĭĪáĬĢáĭ°áĪ¨": 2382,
      "ĠáĭĪáĬĢáĪįáīĢ": 2383,
      "ĠáĭĪáĬĢáī¥áĬ¦": 2384,
      "ĠáĬłáī¥áĭĿáĬĥ": 2385,
      "ĠáĭĺáĪŃáĬłáĬ¨": 2386,
      "ĠáĭĪáĭŃáīµáīĦ": 2387,
      "ĠáĭĪáĭŃáīµáĭĭáĬĲáĭ©": 2388,
      "ĠáĭĪáĭŃáīµáĬĢáī°áĪĻ": 2389,
      "ĠáįĢáĪ®": 2390,
      "ĠáįĢáĪ®áĪĻ": 2391,
      "ĠáįĢáī¥áĬ¥": 2392,
      "ĠáįĢáĪŃáĬĲ": 2393,
      "ĠáįĢáĭĭáĮį": 2394,
      "ĠáįĢáĪĲáĭŃ": 2395,
      "ĠáĭĪáĪĺáĬķáįĪáīĨáĪĻ": 2396,
      "ĠáĭĪáĪĺáĬķáįĪáĪ³áĭĬáīµ": 2397,
      "ĠáĪµáĪĿáĭĲ": 2398,
      "ĠáĪµáĪĿáĭĳ": 2399,
      "ĠáįĪáĮ£áĪªáĪģ": 2400,
      "ĠáĬłáĪĿáĪĭáĬ©": 2401,
      "ĠáĭĪáĪ¶áīłáĪ°": 2402,
      "áĪµáī´áī³áĬĴ": 2403,
      "ŃáĭĲáīµ": 2404,
      "áĭĻáĬħ": 2405,
      "áĬ«áĭ¨áĭµ": 2406,
      "áĬĶáĭİáĬķ": 2407,
      "ĠáĭĪáĬķáĭĪáĮ¥áĬķ": 2408,
      "ĠáĭĪáĬķáĮĪáĬĴ": 2409,
      "ĠáĭĪáĬķáĮįáĪ¥áī°": 2410,
      "ĠáĭĪáĭ¨áī¥áĪµ": 2411,
      "ĠáĭĪáĭ¨áĪĲáĭįáĪ©": 2412,
      "áĮ¦áĪµ": 2413,
      "ĠáĪĲáĪ°áīµ": 2414,
      "ĠáĪĲáĪĺáĪŃ": 2415,
      "ĠáĪĲáĪľáī°": 2416,
      "Ġáī¥áĭĻáĬħ": 2417,
      "Ġáī¥áĪ©áĪĢ": 2418,
      "Ġáī¥áĪ³áĮ£": 2419,
      "Ġáī¥áĪĶáĪ¨": 2420,
      "áī¥áĪįáī²áĪĥ": 2421,
      "ĠáĬłáĪįáī¦": 2422,
      "ĠáĬłáĪįáī¥áĭ¨": 2423,
      "ĠáĬłáĪįáĭĲáĪįáĬ©": 2424,
      "ĠáĬłáĭįáĪ¥áĬ¥áĭİ": 2425,
      "ĠáĬłáĭįáĪ¨áĭ³": 2426,
      "ĠáĬłáĭįáĪ¥áĬ¡": 2427,
      "ĠáĬłáĭįáįħáĬ¦": 2428,
      "ĠáĬłáĭŃáĬħáĬĴ": 2429,
      "ĠáīłáĬŃáī¥áĪ¨": 2430,
      "ĠáĭĺáĬ¢áĬłáĭĺáĭĺ": 2431,
      "ĠáĭĺáĬ¢áĭ«áĭµáĬħáĬķ": 2432,
      "ĠáĪĺáĭµáĬĢáĬĴáīµ": 2433,
      "ĠáĪĺáĭµáĬĢáĬĴáĬĲ": 2434,
      "ĠáĪĺáĭµáĬĢáĬĴáī¶áĪĻ": 2435,
      "ĠáĭĪáĬłáĪįáī¦áĪĻ": 2436,
      "ĠáĭĪáĬłáĪįáī£áĪ°": 2437,
      "Ġáī°áĭĲáĭ±": 2438,
      "Ġáī°áĭĲáĭ°áĭĪ": 2439,
      "Ġáī°áĭĲáĭ²áĭİ": 2440,
      "Ġáī°áĭĪáĪįáĭ°áīµ": 2441,
      "Ġáī°áĭĪáĪįáĭ°áīµáĪ°": 2442,
      "ĠáĭĪáĪįáĭµáĬ¨": 2443,
      "ĠáīħáĬķáĬłáī°": 2444,
      "ĠáīħáĬķáĬłáīµ": 2445,
      "áĪħáĬĵáīµáĬĴ": 2446,
      "áĪħáĬĵáī²áĪĥ": 2447,
      "áĪ£áĭ¨áĮ¡": 2448,
      "áĬµáĪ³áī°": 2449,
      "ĠáĭĪáĭ°áīĤáīĢ": 2450,
      "ĠáĪ«áĮĭáĭį": 2451,
      "ĠáĪįáĪħáīģ": 2452,
      "áĬķáī²áĪĨáĪĻ": 2453,
      "áĬķáĮīáįĢ": 2454,
      "áĪŃáĪĢáīµ": 2455,
      "ĠáĭĪáĬ«áĪħáĬĵáīµáĬĴ": 2456,
      "ĠáĭĪáĬĲáĪĲáĪµáī¥": 2457,
      "ĠáĭĪáĬĲáĮ¸áĪ®áĪĻ": 2458,
      "ĠáĬłáĮįáī¥áĬ¡": 2459,
      "ĠáĬłáĮįáĪ¨áĪŃáĬ¨": 2460,
      "ĠáĬłáĮįáī¥áĪŃáī²áĪģ": 2461,
      "ĠáĬłáĮįáĭĵáĭļáīµ": 2462,
      "ĠáĬłáĭķáĪĽáĭ³": 2463,
      "ĠáĬłáĭķáĭ«áĮĪ": 2464,
      "ĠáĬłáīłáĭĬáĪģ": 2465,
      "ĠáĬłáīłáĭĬáĬ¨": 2466,
      "ĠáīłáĪ¥áĮĭáĪģ": 2467,
      "áĬłáĪĿáĪĭáĬŃ": 2468,
      "ĠáĭĺáīłáĪ°áĪĽáĭ«áīµ": 2469,
      "ĠáĭĺáīłáĬ¥áĬķáī²áĬłáĪģ": 2470,
      "ĠáĮ£áĭĸáīµ": 2471,
      "ĠáĮ£áĭĸáī³áī°": 2472,
      "ĠáĭŃáĪģáī¡": 2473,
      "ĠáĬ¥áĪĿáĬłáī¥": 2474,
      "ĠáĬ¥áĪĿáĬłáĭ³áĪĿ": 2475,
      "ĠáĬ¥áĪĿáĬłáįī": 2476,
      "ĠáĬ¥áĪĿáĬłáĬĢáĭĬáĪģ": 2477,
      "ĠáĬ¨áĬĵáĬ£áĬķáĪ°": 2478,
      "ĠáĬ¨áĬĵáĬĶáĭİáĬķ": 2479,
      "ĠáĪ°áĪĽáĭ¨": 2480,
      "ĠáĭįáĬ¥áī±áĬĴ": 2481,
      "ĠáīħáĭµáĪµáī°": 2482,
      "ĠáīħáĭµáĪ³áīµ": 2483,
      "ĠáĬķáĭĭáĭ©": 2484,
      "ĠáĮĪáī£áĪªáĪĥ": 2485,
      "ĠáĪĺáĬķáįĪáīĨáĪĻ": 2486,
      "ĠáĪĺáĬķáįĪáĪ³áĭĬáīµ": 2487,
      "ĠáĭĪáĭĪáĪĢáī¦áĪĻ": 2488,
      "ĠáĭĪáĭĪáĪĢáīłáĬĴ": 2489,
      "ĠáĬŃáĪįáĬ¤áī°": 2490,
      "ĠáĬŃáĪįáĬ¤áĪĨáĪĻ": 2491,
      "Ġáĭ³áĮįáĪĽáĭĬ": 2492,
      "ĠáĪĢáĮĪáĪªáī°": 2493,
      "Ġáī¥áĬ¥áĪ²áī°": 2494,
      "Ġáī¥áĬ¥áĪ²áī±": 2495,
      "ĠáĭĺáįĪáĮłáĪ¨": 2496,
      "ĠáĭĺáįĪáĮłáĪ«": 2497,
      "ĠáĪĺáĪ¥áĭĭáĭķáī¶": 2498,
      "Ġáī°áįĪáĮ¥áĪ¨": 2499,
      "Ġáī°áįĪáĮ¥áĪ®": 2500,
      "áĭ´áĬķ": 2501,
      "áĬ°áĪ¶áĪĻ": 2502,
      "Ġáĭ¨áī¥áĪ°": 2503,
      "Ġáĭ¨áĭĲáĭ±": 2504,
      "Ġáĭ¨áĪĢáĭįáĬ¨áĬĴ": 2505,
      "ĠáĭĵáĪ¥áĪŃ": 2506,
      "ĠáĭĽáī²áĬ¬": 2507,
      "ĠáĬµáĪĭ": 2508,
      "ĠáĬµáĪİ": 2509,
      "ĠáĬµáĪİáĪĻ": 2510,
      "ĠáĬĵáĪģáĬ¬": 2511,
      "ĠáĬĵáĬ®áĪŃ": 2512,
      "ĠáĬĵáįĭáīĦ": 2513,
      "ĠáĭĪáĪłáĬĲáĭ¨": 2514,
      "ĠáĭĪáĮĪáĪ®": 2515,
      "ĠáĭĪáĮĪáī¥áĪ®": 2516,
      "ĠáĭĪáĮĪáĭĲáĪ¨": 2517,
      "ĠáĭĪáĪķáī¥áĪ¨": 2518,
      "ĠáĭĪáĪķáī¥áĪ«": 2519,
      "ĠáĭĪáĪķáĭŃáĭĪ": 2520,
      "ĠáĭĪáī¥áĪŃáĪĥáĬĲ": 2521,
      "ĠáĭĪáĪ¥áĪŃáĭĲáīµ": 2522,
      "ĠáĭĪáĪ¥áĪŃáĭĲáī³": 2523,
      "ĠáĭĪáĪ¥áĪŃáĭĲáī¶": 2524,
      "áĮºáī°": 2525,
      "ĠáĪ³áĪĮáĪĿ": 2526,
      "ĠáĪĬáī°": 2527,
      "ĠáĪĬáīĢ": 2528,
      "ĠáĪĬáīĥáĬĲ": 2529,
      "Ġáī£áĪ¨áĬ®": 2530,
      "áīµáĭįáĪįáĭµ": 2531,
      "áīµáĭįáĪįáĭ±": 2532,
      "áįªáįª": 2533,
      "áį¯áį¯": 2534,
      "áįĢáĭį": 2535,
      "ĠáĬłáĪŃáĪĽáĬķáĭ«": 2536,
      "ĠáĬłáĪŃáĬĢáĭĪ": 2537,
      "ĠáĬłáĪŃáĬ°áĪ¶áĪĻ": 2538,
      "ĠáĬłáĪµáĪĽáīµ": 2539,
      "ĠáĬłáĪµáĪĲáī²": 2540,
      "ĠáĬłáĪµáĪ«áīł": 2541,
      "ĠáĬłáĪĽáĬķ": 2542,
      "Ġáīłáĭ°áĬĥáĪª": 2543,
      "ĠáĬ¥áĪĻáĬķ": 2544,
      "áĭķáĪįáĭŃ": 2545,
      "áĬĲáįįáĪµ": 2546,
      "ĠáĬ¥áĮĪáĪĮ": 2547,
      "ĠáĬ¥áĮįáĭļáĬł": 2548,
      "ĠáĬ¥áĮįáĭļáĬ¡": 2549,
      "ĠáĬ¥áĮįáĭļáĬ¦": 2550,
      "ĠáĪĺáīħáĪłáįį": 2551,
      "ĠáĭŃáĮĪáī¥áĪ«": 2552,
      "ĠáĭŃáĮĪáī¥áĪ©": 2553,
      "ĠáĭŃáĮĪáī¥áĬ¡": 2554,
      "ĠáĭŃáĮįáīłáĪŃ": 2555,
      "ĠáĭŃáĮįáīłáĪ«": 2556,
      "ĠáĭŃáĮįáīłáĪ©": 2557,
      "ĠáĭĪáĬłáĪĿáĪįáĬ®": 2558,
      "ĠáĭĪáĬłáĪĿáĪ³áĪį": 2559,
      "ĠáĭĪáĬłáĪĿáĪĲáĪİáĪĻ": 2560,
      "ĠáĬ¥áĪĿáĬĲáĮĪáĪ¥": 2561,
      "ĠáĬ¥áĪĿáĭĺáĪŃáĬł": 2562,
      "ĠáĬ¥áĪĿáĭĺáĪŃáĬ¡": 2563,
      "ĠáĬ¥áĪĿáīĢáĭµáĪĺ": 2564,
      "Ġáī°áĮĪáīłáĪŃ": 2565,
      "ĠáĬ¢áīµáĭ®áĮµáĭ«": 2566,
      "ĠáĬ¢áĭ¨áĪ±áĪµ": 2567,
      "ĠáĬ¢áĭ¨áĬĢáĪįáįį": 2568,
      "ĠáĬ¢áĭ¨áĪ©áĪ³áĪĮáĪĿ": 2569,
      "ĠáĬĢáĪįáīĢ": 2570,
      "ĠáĬĢáĮ¢áĬłáī°": 2571,
      "ĠáĪĽáĬħáĭ°áĪŃ": 2572,
      "ĠáĪĽáĬħáĭ°áĪ«": 2573,
      "ĠáĪĽáĬħáĭ°áĪ©": 2574,
      "ĠáĬķáĮ¹áĪĲ": 2575,
      "ĠáĮĪáĮ½áĭ¨": 2576,
      "ĠáĮĪáī¥áĪŃáĭ¨": 2577,
      "ĠáĭŃáĬ¥áĭľáĬ¬": 2578,
      "ĠáĪŃáĪµáīµáĬ¨": 2579,
      "ĠáįĪáĮłáĪŃáĬŃáĭĭ": 2580,
      "Ġáĭķáīłáĭ¨": 2581,
      "Ġáĭķáīłáĭ«": 2582,
      "Ġáĭķáīłáĭ®áĪĻ": 2583,
      "ĠáĬ«áĪħáĬĵáīµáĬĴ": 2584,
      "ĠáĬłáĪĿáĪĭáĬªáĭ¨áĪ°": 2585,
      "ĠáĭĪáĭ¨áĭĲáĬķáīģ": 2586,
      "ĠáĪ«áĬ¥áĭ«": 2587,
      "áĪĵáĭµáĭ«áĬķ": 2588,
      "ĠáĬ£áĭĪáĪŃáĭµ": 2589,
      "ĠáĬ£áīĢáĪŃáī¦": 2590,
      "ĠáĭĪáĪ¨áĪ°áĭ¨": 2591,
      "ĠáĭĪáĪ¨áĮĪáĪŀ": 2592,
      "ĠáĭĪáĭķáī¡áīĥáĬĲ": 2593,
      "ĠáĭĪáĭķáįĢáĭį": 2594,
      "ĠáĭĪáĭįáĪµáĮ¡": 2595,
      "ĠáĭĪáĭįáĪµáī´áī³áĬĴ": 2596,
      "ĠáĭĪáĭĲáĪŃáĮĪ": 2597,
      "ĠáĭĪáĭĲáī¥áĭ¨áīµ": 2598,
      "ĠáĭĪáī³áĬĲáī¥áĪŃ": 2599,
      "ĠáĭĪáī³áĬķáĪ¶áĪ±": 2600,
      "ĠáĭĪáĪĢáīł": 2601,
      "ĠáĭĪáĪĢáĪİ": 2602,
      "ĠáĭĪáĮ¸áĪĭáĬ¥áī±": 2603,
      "ĠáĭĪáĮ¸áĭĲáĪİáĪĻ": 2604,
      "ĠáĪ£áĪ¨áĪ¨": 2605,
      "ĠáĪ£áĪħáĪįáĭ¨": 2606,
      "ĠáĪ¨áĬ¨áī¥": 2607,
      "ĠáĪ¨áĮĪáįĨ": 2608,
      "ĠáĪ®áĪľ": 2609,
      "ĠáĪ®áī¤áĪį": 2610,
      "ĠáĪ¶áīł": 2611,
      "ĠáĪ¶áįįáĭ«": 2612,
      "Ġáī¤áī°": 2613,
      "Ġáī¤áī±": 2614,
      "Ġáī¢áĮ¾áĪĻ": 2615,
      "ĠáĭĪáĬĸáĪķáĪ°": 2616,
      "ĠáĭĪáĬĸáĪķáĬĴ": 2617,
      "ĠáĬłáĪ¨áĪ©": 2618,
      "ĠáĬłáĪ¨áįįáīµ": 2619,
      "ĠáĬłáĪµáī°áĪŃáĬłáĭ®": 2620,
      "ĠáĬłáĪµáī°áĪĲáīĢáĪŃáĬ©": 2621,
      "ĠáĬłáĬĢáĭį": 2622,
      "ĠáĬłáĬĢáĭµáĪŃ": 2623,
      "ĠáĬłáĬķáīħáĭķáī°": 2624,
      "ĠáĬłáĬķáīħáĭķáīµ": 2625,
      "ĠáīłáĬħáī¥áĪ¨áīµ": 2626,
      "ĠáīłáĬħáĪĬáĬĵ": 2627,
      "ĠáīłáĪĽáĭ¨": 2628,
      "ĠáīłáĪĽáĬħáī°áĪĺ": 2629,
      "ĠáīłáīħáĪĪ": 2630,
      "ĠáīłáīħáĬķáĬłáī°": 2631,
      "ĠáīłáĭĿáĮĭáĬĵáī°": 2632,
      "ĠáīłáĬµáĪŃ": 2633,
      "ĠáīłáĬµáĪ©": 2634,
      "ĠáĪĪáĬ¨áĬĵáĬ¦": 2635,
      "ĠáĪĪáĬ¨áĪĵáĭµáĭ«áĬķ": 2636,
      "ĠáĪĪáĪ°áĭŃáĮ£áĬķ": 2637,
      "ĠáĪĪáĪ°áī¥áĪĸ": 2638,
      "ĠáĪĪáĪĿáĪ¥áĪ«áīħ": 2639,
      "ĠáĪĪáĪĿáĪ¥áĪĥáĪį": 2640,
      "ĠáĭĺáīµáĬŃáĪī": 2641,
      "ĠáĭĺáīµáĪ£áĭ¨áĮ¡": 2642,
      "ĠáĭĺáĬ¥áī¤": 2643,
      "ĠáĭĺáĬ¥áīµáĬłáĪĺáĬķ": 2644,
      "ĠáĭĺáĭĪáĪ¨áĭ°": 2645,
      "ĠáĭĺáĭĪáįħáĬł": 2646,
      "ĠáĭĺáĪķáĮį": 2647,
      "ĠáĭĺáĪķáī¥áĪ«": 2648,
      "ĠáĭĺáĬ¥áĪ³áīµ": 2649,
      "ĠáĭĺáĬ¥áĪ´áĬł": 2650,
      "ĠáĭĺáĮ¸áĪįáĬ¦": 2651,
      "ĠáĭĺáĮ¸áĪĲáįįáĬ©": 2652,
      "ĠáĬ¥áīµáĮĪáĪ°": 2653,
      "ĠáĬ¥áīµáĬ«áĭ¨áĭµ": 2654,
      "ĠáĬ¥áĭĪáĮ¥áĬķ": 2655,
      "ĠáĬ¥áĬ©áĭ¨": 2656,
      "ĠáĬ¥áĬ©áĭ«áĬķ": 2657,
      "ĠáĮłáĪĬ": 2658,
      "ĠáĮłáįįáĬ¡": 2659,
      "ĠáĮ¥áĪµáĭ¨": 2660,
      "ĠáĮ¥áĪįáĪĽ": 2661,
      "ĠáĪĺáĪĽáĭķáĪĬáĭŃ": 2662,
      "ĠáĪĺáĪĽáĭķáĪįáĭŃ": 2663,
      "ĠáĪĺáĪ³áĬŃáĪļ": 2664,
      "ĠáĪĺáĪ³áĪĿáĬŃ": 2665,
      "ĠáĪĺáĮ½áĬł": 2666,
      "ĠáĪĺáĮ½áĪĲáįĪ": 2667,
      "ĠáĪĺáĮ»áĭįáĪ¨": 2668,
      "ĠáĪĺáĮ»áĪķáįįáīµ": 2669,
      "ĠáĭŃáĪµáīħáĭŃáĭĭ": 2670,
      "ĠáĭŃáĪµáĪĲáīħ": 2671,
      "ĠáĭĪáĬłáīłáĭ©": 2672,
      "ĠáĭĪáĬłáīłáĭŃáĭİ": 2673,
      "ĠáĭĪáĬłáĬķáīłáĪ®áĪĻ": 2674,
      "ĠáĭĪáĬłáĬķáīłáĪŃáĭĭ": 2675,
      "Ġáī°áĬĢáĭµáĪŃ": 2676,
      "Ġáī°áĬĢáĭ¨áĪĪ": 2677,
      "Ġáī°áĪ£áĭŃáĮ¦": 2678,
      "Ġáī°áĪ£áĪĢáĪĪáĬĴ": 2679,
      "Ġáī°áĪ°áĪĿáĭ¨": 2680,
      "Ġáī°áĪ°áĪĿáĭ©": 2681,
      "ĠáĭĪáĬ¥áĪīáĪ°": 2682,
      "ĠáĭĪáĬ¥áĪĺáīµ": 2683,
      "ĠáĭĪáĭŃáĭĺáī¥áĪĳ": 2684,
      "ĠáĭĪáĭŃáĭĺáįįáĬĳ": 2685,
      "ĠáĬ¢áĭ«áĪĽáĪµáĬĵ": 2686,
      "ĠáĬ¢áĭ«áĪµáĪķ": 2687,
      "ĠáĪ°áĪŃáĮĲ": 2688,
      "ĠáĪ°áĪŃáĭµáĭ®áĬķ": 2689,
      "ĠáĮ½áĬĳáĪķ": 2690,
      "ĠáĮ½áĬĳáĭĵáĬķ": 2691,
      "ĠáĮ½áĪĳáįĭáĬķ": 2692,
      "ĠáĮ½áĪĳáįĭáīµ": 2693,
      "ĠáįĭáĪ¬áĪµ": 2694,
      "ĠáįĭáĪĮáīħ": 2695,
      "ĠáĭĪáĪĺáĬķáĮįáĪ¥áīµ": 2696,
      "ĠáĭĪáĪĺáĬķáĮįáĪ¥áīµáĪ°": 2697,
      "ĠáĪĽáĬħáīłáĪ¨áĬ¨": 2698,
      "ĠáĭĪáī°áī£áĪ¨áĬ¨": 2699,
      "ĠáĭĪáī°áī£áĪ¨áĬ©": 2700,
      "ĠáīµáĬ¥áĭĽáĭĺ": 2701,
      "ĠáīµáĬ¥áĭĽáĭĿ": 2702,
      "Ġáīµáĭķáī¢áī°": 2703,
      "Ġáīµáĭķáī¢áī±": 2704,
      "ĠáīĥáĪįáĬ¨": 2705,
      "ĠáīłáĬłáĪŃáĬłáĭ«áĬĲ": 2706,
      "ĠáĭĪáĬ¢áī°áīĢáĬķáĭ©": 2707,
      "ĠáĭĪáĬ¢áī°áĮĭáĬĲáĭ©": 2708,
      "ĠáĭĪáĬ¥áī¥áĬķ": 2709,
      "ĠáĭĪáĬ¥áī¥áĬĲ": 2710,
      "ĠáĪŃáī±áĭĲ": 2711,
      "ĠáĪŃáī±áĭĵáĬĲ": 2712,
      "ĠáĪŃáĬ©áĪµ": 2713,
      "ĠáĪŃáĬ©áĪ³áĬķ": 2714,
      "ĠáīĢáī°áĪĪ": 2715,
      "ĠáīĢáī°áĪİ": 2716,
      "ĠáĬ¢áĭŃáīµáĪĺáĭĲáĭĸáĪĻ": 2717,
      "ĠáĬ¢áĭŃáīµáĪĺáĭ¨áĮ¥": 2718,
      "ĠáįįáĪ¥áĪĵáĪģ": 2719,
      "áĪŃáĬ¥áĭ¨áĬ¨": 2720,
      "ĠáĭĪáĪ°áĪĺáĬķáī°": 2721,
      "ĠáĭĪáĪ°áĪĺáĭ®": 2722,
      "ĠáĭĪáĪĽáĬ¥áĪ°": 2723,
      "ĠáĭĪáĪĽáĬ¥áĪ¨áĪ¨": 2724,
      "ĠáĭĪáĪĽáĬħáĭ°áĪŃáĭ¨": 2725,
      "ĠáĭĪáĪĽáĬħáĭ°áĪ®áĪĤ": 2726,
      "ĠáįĪáĮ£áĪªáĪĨáĪĻ": 2727,
      "ĠáĪĲáĭĺáĬķ": 2728,
      "ĠáĪĲáĭĺáĬĲ": 2729,
      "Ġáī¥áĪŃáĪĥáĬķ": 2730,
      "Ġáī¥áĪŃáĪĥáĬĲ": 2731,
      "ĠáĪĺáĭµáĬĢáĬĴáī°áĬĲ": 2732,
      "ĠáĭĪáĬĲáĪ¥áĬł": 2733,
      "ĠáĭĪáĬĲáĪ¥áĬ£": 2734,
      "ĠáĬłáĭķáĭŃáĬķáī°": 2735,
      "ĠáĬłáĭķáĭŃáĬķáī²áĪĨáĪĻ": 2736,
      "ĠáĭĪáĪłáĪĿáĪ¨": 2737,
      "ĠáĭĪáĪłáĪĿáĪ©": 2738,
      "ĠáĬłáīħáĭ²áĪĻáĪ°": 2739,
      "áĭŃáĪĽáĬĸáīµáĬĲ": 2740,
      "´áĭĽáī°": 2741,
      "ŃáĮ´áĭĽáī°": 2742,
      "Ġáĭ®áĪŃáĭ³áĬĸ": 2743,
      "ĠáĭµáĪĽáīµáĭ®áĪµ": 2744,
      "ĠáĬªáĭ³áĬĳáĪ°": 2745,
      "ĠáĬ¤áįīáĭ°": 2746,
      "ĠáĬ¦áĪŃáĬĴ": 2747,
      "ĠáĬ°áĪ³áĬµáĪ³áī°": 2748,
      "ĠáĬĥáĮ¥áĬ£áĬķ": 2749,
      "ĠáĬĦáĪ«áĬķ": 2750,
      "ĠáĭĪáĪŃáīħ": 2751,
      "ĠáĭĪáĮįáī¥áĪ«": 2752,
      "ĠáĭĪáĭµáĬķáĮīáįĢ": 2753,
      "ĠáĭĪáī¥áĪīáĪ¨": 2754,
      "ĠáĭĪáĭ«áĬŃáĬķáī°": 2755,
      "ĠáĭĪáī¤áī¶": 2756,
      "ĠáĭĪáįįáĪ¡áĪķ": 2757,
      "ĠáĭĪáīĢáįĪáĪĭ": 2758,
      "ĠáĭĪáĭĿáĬŃáĪ®áĪĻ": 2759,
      "ĠáĭĪáĮ½áĭĭáĭĵ": 2760,
      "ĠáĭĪáī¡áĪ±áĪµ": 2761,
      "ĠáĭĪáĪĬáīĥáĬĲ": 2762,
      "ĠáĭĪáĪĲáĮĭáĭ¨": 2763,
      "ĠáĭĪáī£áĭķáĭ°áĪ°": 2764,
      "ĠáĭĪáĭĪáĪŃáĬħ": 2765,
      "ĠáĭĪáĪĥáĭŃáĪĽáĬĸáīµáĬĲ": 2766,
      "ĠáĭĪáĭľáĬĵ": 2767,
      "ĠáĭĪáĪľáĪĭáī°": 2768,
      "ĠáĭĪáĮ»áĭµáīĥ": 2769,
      "ĠáĭĪáī¥áĪ©áĪŃ": 2770,
      "ĠáĭĪáĮłáįįáĬ¡": 2771,
      "ĠáĭĪáī£áĪ¨áĬ®": 2772,
      "ĠáĭĪáĮ¸áĭįáĭĲ": 2773,
      "ĠáĭĪáĪ£áĪįáĪµ": 2774,
      "ĠáĭĪáĮ¥áĪŃáĮ´áĭĽáī°": 2775,
      "ĠáĭĪáįĮáĪŃáĭľ": 2776,
      "ĠáĭĪáĮĮáĪŃáĮĮ": 2777,
      "ĠáĭĪáįĢáĪ¨áįĪ": 2778,
      "ĠáĭĪáĭ«áĭµáĬħáĬĸáĪĻ": 2779,
      "ĠáĭĪáĪ¦áĭĲ": 2780,
      "ĠáĭĪáīĥáĪįáĭ¨áĪ°": 2781,
      "ĠáĭĪáĪ¤áĪŀáĪĻ": 2782,
      "ĠáĪ¥áĪŃáĭĲáīµ": 2783,
      "Ġáī£áĭĸáĪµ": 2784,
      "ĠáĭĪáĬ¬áĬķáĭ«áĪĥ": 2785,
      "ĠáĭĪáĬ¤áĭĮáĭİáĬķ": 2786,
      "ĠáĭĪáĬªáĭ«áĬ¨": 2787,
      "ĠáĭĪáĬ¬áĮ¤áĭİáĬķ": 2788,
      "ĠáĭĪáĬĨáĮ»áĭ³áīµáĬĴ": 2789,
      "ĠáĭĪáĬĵáĪĲáĮ½áĮ½": 2790,
      "ĠáĬłáįįáĬłáĪģ": 2791,
      "ĠáĬłáĪ«áĪĿ": 2792,
      "ĠáĬłáĪľáĬķ": 2793,
      "ĠáĬłáĬĥáĭľ": 2794,
      "ĠáĬłáĪļáĬĵáĭ³áī¥": 2795,
      "ĠáĬłáĪµáīµáĭ©áĬĴ": 2796,
      "ĠáĬłáī¥áĪįáĭĳáĬĴ": 2797,
      "ĠáĬłáĮ¥áĪ¨áĭ¨": 2798,
      "ĠáĬłáĪķáĪłáĪĺ": 2799,
      "ĠáĬłáĭĿáĪĽáĭ²áĬ¨": 2800,
      "ĠáĬłáī¥áĪŃáĪĥáĪĿ": 2801,
      "ĠáĬłáĪħáĮīáĪŃ": 2802,
      "ĠáīłáĪ¨áĬ¨áī°": 2803,
      "ĠáīłáĭįáĪµáī´áī³": 2804,
      "ĠáīłáĪłáĬĵáĭŃ": 2805,
      "ĠáīłáĭĺáĭļáĬłáĪģ": 2806,
      "ĠáīłáĮĪáĮ¹": 2807,
      "ĠáīłáįįáĪŃáĪĢáīµ": 2808,
      "ĠáīłáĪķáĮį": 2809,
      "ĠáīłáĭĲáĪĿáĭ°": 2810,
      "ĠáīłáĪĲáĪ°áīµ": 2811,
      "ĠáīłáĮ¥áīłáī¥": 2812,
      "ĠáīłáĬķáĪµáĪĵ": 2813,
      "Ġáīłáī°áĭĲáĭµáĭİ": 2814,
      "ĠáīłáĪĺáĪ°áĬķáīĨ": 2815,
      "ĠáīłáĬĲáįįáĪ±": 2816,
      "ĠáīłáĪŃáĬ¥áĪµáĭ¨": 2817,
      "ĠáīłáĪ¥áĪĿáĪ¨áī±": 2818,
      "ĠáīłáĬĤáĮłáī°": 2819,
      "Ġáīłáīµáĭķáī¢áī°": 2820,
      "ĠáĪĪáĬĲáĭ³áĭ«áĬĴ": 2821,
      "ĠáĪĪáĬħáĪ©áĭ«áĬĴ": 2822,
      "ĠáĪĪáĭĪáĪĭáĭ³áī°": 2823,
      "ĠáĪĪáī¥áįģáĭķ": 2824,
      "ĠáĪĪáĭ«áĭķáīĨáī¥": 2825,
      "ĠáĪĪáīĢáĪµáī°": 2826,
      "ĠáĪĪáĪ³áĪ«": 2827,
      "ĠáĪĪáĪ¥áĪīáĪµ": 2828,
      "ĠáĪĪáĪ´áĪĿ": 2829,
      "ĠáĪĪáĪŀáīµ": 2830,
      "ĠáĪĪáĬ«áĪħáĬĵáī²áĪĥ": 2831,
      "ĠáĪĪáĪŃáĬ©áĪ³áĬķ": 2832,
      "ĠáĪĪáīłáĭįáĬĲ": 2833,
      "ĠáĪĪáĪŃáĬ¥áĪ±": 2834,
      "ĠáĪĪáĪµáī¥áĪĲáī²áĪģ": 2835,
      "ĠáĪĪáĮįáĪįáįĪáĭĭ": 2836,
      "áĪįáĭ²áĪĨáĪĻ": 2837,
      "áĬłáĪħáĮīáĪ¨": 2838,
      "ĠáĭĺáĬĲáįĪáīĢ": 2839,
      "ĠáĭĺáĪ°áī¥áĬ¥": 2840,
      "Ġáĭĺáīħáī¥áĬł": 2841,
      "ĠáĭĺáĬ£áĪŃáĬ¥áĭ¨áĬ¨": 2842,
      "ĠáĭĺáĬŃáĪįáĬ¤": 2843,
      "ĠáĭĺáĬĵáĭĲáī¢": 2844,
      "ĠáĭĺáĮĪáī¥áĪ®": 2845,
      "Ġáĭĺáī¦áī±": 2846,
      "Ġáĭĺáī³áįĪáīħ": 2847,
      "ĠáĭĺáĪ®áĪľ": 2848,
      "ĠáĭĺáĪİáī±": 2849,
      "ĠáĭĺáĬ¥áĬķáīłáĪĮáĬ¨": 2850,
      "ĠáĭĺáĪ¦áĭĳ": 2851,
      "Ġáĭĺáī°áĭĪáĭµáĭ¨": 2852,
      "ĠáĭĺáĪĺáīµáĪķáī°": 2853,
      "ĠáĭĺáĬĢáĭ°áĪŃáĬ¨": 2854,
      "ĠáĭĺáĪµáĪĿáĭķ": 2855,
      "ĠáĬ¥áī¤áĪŃ": 2856,
      "ĠáĬ¥áĭľáĬ¨áĪ«": 2857,
      "ĠáĬ¥áīµáĪĺáĭĲáĭĸáĪĻ": 2858,
      "ĠáĮ¥áĭ©áīĢ": 2859,
      "ĠáĮ°áĪ«áīħáĪĬ": 2860,
      "ĠáĮĭáĬĶáĬķ": 2861,
      "ĠáĮĮáĮĭáĭ®áĪĻ": 2862,
      "ĠáĮİáĪŀáĪŃ": 2863,
      "ĠáĪĺáĪ«áĬĵáī°": 2864,
      "ĠáĪĺáĭĲáīµáĭ¨": 2865,
      "ĠáĪĺáĪ¬áī³áĭĬáī°": 2866,
      "ĠáĪĺáĭĭáĭķáĪį": 2867,
      "ĠáĪĺáīĥáī¥áĪ¨": 2868,
      "ĠáĪĺáĭĵáī¥áĪįáī²áĪĥ": 2869,
      "ĠáĪĺáĭµáĬħáĬķ": 2870,
      "ĠáĪĺáĬĥáīµáĭį": 2871,
      "ĠáĪĺáĮłáĬĲ": 2872,
      "ĠáĪĺáĬ¨áĭŃáĭ°": 2873,
      "ĠáĪĺáĪĢáĭŃáĪĿáĬĵáĬķ": 2874,
      "ĠáĪĺáĪŃáĮ¡áĪį": 2875,
      "ĠáĪĺáĪµáįĪáĪŃáīµ": 2876,
      "ĠáĭŃáĪłáĭŃáĮ¥": 2877,
      "ĠáĭŃáĭľáĬ¨áĪŃ": 2878,
      "ĠáĭŃáĮ¸áĭįáĪ©": 2879,
      "ĠáĭŃáĬķáĪ¥áī¶": 2880,
      "ĠáĭŃáīµáĪĪáĬłáĬ©": 2881,
      "ĠáĭŃáīĢáĭįáĪĻ": 2882,
      "ĠáĭŃáīµáī£áĪ¨áĬŃ": 2883,
      "ĠáĭŃáĪĺáĭįáĬ¥": 2884,
      "ĠáĭŃáī¥áĭĿáĬģ": 2885,
      "ĠáĭĪáĬłáĬķáī°áĪ°": 2886,
      "ĠáĭĪáĬłáĪµáī°áĬĥáĪĪáįĪ": 2887,
      "ĠáĭĪáĬłáĭĭáĪįáĭ²áĪĨáĪĻ": 2888,
      "ĠáĭĪáĬłáĬĢáĭĿáĬ©": 2889,
      "ĠáĭĪáĬłáĪ¥áĪĺáĪ®": 2890,
      "ĠáĭĪáĬłáĪŃáĬłáĭ¨": 2891,
      "ĠáĭĪáĬłáĬ¥áī°áī°": 2892,
      "ĠáĭĪáĬłáĭĺáĭŀáĪĻ": 2893,
      "ĠáĭĪáĬłáĪŃáĬ¥áĪµáī°": 2894,
      "ĠáĭĪáĬłáĭįáĪ¨áĪ°": 2895,
      "ĠáĭĪáĬłáĬŃáĪļáĪĽáī°": 2896,
      "ĠáĭĪáĬłáĭĿáĪĽáĭ²áĪģ": 2897,
      "ĠáĭĪáĬłáī¥áĪŃáĪĥáĪĿáĬĴ": 2898,
      "ĠáĭĪáĬłáĪµáīĨáĪ¨áĪ¨": 2899,
      "ĠáĬ¥áĪĿáįįáĬĸáīµ": 2900,
      "ĠáĬ¥áĪĿáĭķáĪĪáīµ": 2901,
      "ĠáĬ¥áĪĿáĭ³áĮįáĪĽáĭĬáīµ": 2902,
      "Ġáī°áĭĭáĪ¨áĪ±": 2903,
      "Ġáī°áĮĭáĬĲáĭ¨": 2904,
      "Ġáī°áĬ«áįĪáĪī": 2905,
      "Ġáī°áī£áĪ¨áĬ¨": 2906,
      "Ġáī°áĬķáĪ¥áĬł": 2907,
      "Ġáī°áĬłáĪĿáĬĲáīµ": 2908,
      "Ġáī°áĪĺáĪ°áĪĪáī³": 2909,
      "Ġáī°áĪĢáĭŃáĭ°": 2910,
      "Ġáī°áĬłáĪĺáĬķáĬ©": 2911,
      "Ġáī°áįĥáĪŃáĪ®áī¶áĪĻ": 2912,
      "Ġáī°áĪµáįĭáĬĲ": 2913,
      "Ġáī°áīłáīĢáĪİáĪĻ": 2914,
      "Ġáī°áĭįáĪĭáĮ¥": 2915,
      "ĠáĭĪáĬ¥áĪ¬áĪµáĭ«": 2916,
      "ĠáĭĪáĬ¥áĪłáĪĿáĪŃ": 2917,
      "ĠáĭĪáĭŃáīĢáĬķáī±": 2918,
      "ĠáĭĪáĭŃáĮįáīłáĪ©": 2919,
      "ĠáĭĪáĭŃáī¥áĪİáĪĻ": 2920,
      "ĠáĭĪáĭŃáĬ¨áĭįáĬĳ": 2921,
      "ĠáĭĪáĭŃáĪ°áīµáĭ©": 2922,
      "ĠáĭĪáĭŃáĮĮáĪ¥áĮ½": 2923,
      "ĠáĭĪáĭŃáĬ¥áĭľáĬĴ": 2924,
      "ĠáĭĪáĭŃáĪĿáĪįáĬ¥áĭĭ": 2925,
      "ĠáĬ¨áĭŃáĪ²": 2926,
      "ĠáĭĪáīłáĮ½áĪĲ": 2927,
      "ĠáĭĪáīłáĪĬáĭĲ": 2928,
      "ĠáĭĪáīłáĭĪáĪįáĭ±": 2929,
      "ĠáĭĪáīłáĪ¥áĮĭáĪģ": 2930,
      "ĠáĭĪáīłáĬłáĪĿáĪ³áĪĬ": 2931,
      "ĠáĭĪáīłáĪ°áĪĽáĭ«áīµáĬĴ": 2932,
      "ĠáĭĪáīłáĪ¥áĪŃáĭĲáīµ": 2933,
      "ĠáĭĪáīłáĭķáĪįáĭĪáī±": 2934,
      "ĠáĭĪáīłáĭ³áĮįáĪĿáĪ°": 2935,
      "ĠáĭĪáīłáĪ¥áĪĿáĪ¨áīµ": 2936,
      "ĠáĭĪáīłáĭ¨áĭįáĪĢáīµ": 2937,
      "ĠáĭĪáīłáĭķáĪªáĬĵ": 2938,
      "ĠáĭĪáīłáĪĽáĪķáĪĮáīµ": 2939,
      "ĠáĬ¢áĪ³áĪ®áĪĿ": 2940,
      "ĠáĬ¢áī³áĭµáĬħáĬĳ": 2941,
      "ĠáĬ¢áĬ®áĬĳ": 2942,
      "ĠáĬ¢áĬĢáĭ°áĮĪ": 2943,
      "ĠáĪ°áĪ«áĭĬáīµáĬĳ": 2944,
      "ĠáĪ°áĪ¨áĮĪáĪĭ": 2945,
      "ĠáĪ°áĪ«áĭĬáī±": 2946,
      "Ġáĭįáĭ´áī°": 2947,
      "áĮ½áĬĳáĭĵáĬķ": 2948,
      "ĠáĮ½áĮĭáī¡": 2949,
      "ĠáĮ½áĪ©áĭŃ": 2950,
      "ĠáĪķáĪ±áĭŃ": 2951,
      "ĠáĪķáĮ¹áĮ¸": 2952,
      "ĠáĪķáĬķáĮ½áīµ": 2953,
      "ĠáĪķáĭ«áĭĭáĬķ": 2954,
      "ĠáīłáĬ¥áĭ´áĭ¨": 2955,
      "Ġáĭ°áĪŃáĬ¨áĬĸ": 2956,
      "Ġáĭ°áĪĿáĪ°áĪ¶áĪĻ": 2957,
      "ĠáĭĪáĪįáĮĲáī³áī°": 2958,
      "ĠáĬĢáĪĬáĭŃáĭ¨": 2959,
      "ĠáĭĪáĪĺáīĥáįįáĪįáī²áĪĥ": 2960,
      "ĠáĭĪáĪĺáĮ¸áĭĪ": 2961,
      "ĠáĭĪáĪĺáĭĽáĮįáī¥áī°": 2962,
      "ĠáĭĪáĪĺáĪĽáĪµáīĢ": 2963,
      "ĠáĪĿáĬķáĭ³áī¤": 2964,
      "ĠáĪĿáĬŃáĪķáĬĲ": 2965,
      "ĠáĪĿáĮ½áĬĵáĭĵáīµ": 2966,
      "ĠáĪĪáĬ¥áĬªáīµ": 2967,
      "ĠáĬķáĮįáīłáĪŃ": 2968,
      "ĠáĬķáĮįáī£áĬ¥": 2969,
      "ĠáĪµáī¥áĪ¨áī°": 2970,
      "ĠáĪµáįīáĪŃ": 2971,
      "ĠáĮĪáī¢áĪ¨": 2972,
      "ĠáĮĪáįįáĭĲáĬŃáĪĻ": 2973,
      "ĠáĭĪáī°áĪŀáĮĪáĪ°": 2974,
      "ĠáĭĪáī°áĬ¦áĭĽáĭľ": 2975,
      "ĠáĭĪáī°áĬĵáĮĪáĪ®": 2976,
      "ĠáĭĪáī°áĪĢáĭŃáĭµ": 2977,
      "ĠáĭĪáī°áĪĺáĪįáĬłáĬ©": 2978,
      "ĠáĭĪáī°áĪĪáĭĲáĪĪ": 2979,
      "ĠáĭĪáī°áĬ¨áĪ¥áī°": 2980,
      "ĠáĭĪáī°áĭĪáĬŃáįĪ": 2981,
      "ĠáĭĪáī°áĭįáĪħáīłáīµ": 2982,
      "ĠáīµáĭĿáĬħáĪŃáī°": 2983,
      "ĠáīµáĬķáĮįáĪ®áĪĻ": 2984,
      "Ġáīµáĭ°áĪĺáĪ°áĪµ": 2985,
      "ĠáīµáĭĿáĭįáįįáī°": 2986,
      "ĠáĭĪáĪĿáĮºáĮºáī°": 2987,
      "ĠáĭĪáĪĿáĪģáĪ«áĬĲ": 2988,
      "ĠáīłáĬłáĮ»áī¥áĭķáĭ¨": 2989,
      "ĠáīłáĬłáĬ°áī´áī±": 2990,
      "ĠáīłáĬłáĮ½áī£áĭķáī°": 2991,
      "Ġáĭ«áĪĺáĪįáĬ©áĬŃáĪĻ": 2992,
      "Ġáĭ«áīłáĭįáĬ¥áĭĭ": 2993,
      "Ġáĭ«áĬłáīµáĭİáĪĻ": 2994,
      "Ġáĭ«áĪ¨áĬµáĪµ": 2995,
      "ĠáĬŃáĭĳáīł": 2996,
      "ĠáĬŃáįįáĪīáĬĴ": 2997,
      "ĠáĭĪáĬ¢áĭŃáĪĶáĪ±": 2998,
      "ĠáĭĪáĬ¢áīµáĬ©áĬĳáĬĴ": 2999,
      "ĠáĭĪáĬ¢áĭŃáĪĿáĪ°áĪİáĪĻ": 3000,
      "ĠáĭĪáĬ¢áĬĲáīłáī¥áĭİ": 3001,
      "ĠáĭĪáĬ¢áĭ«áī¡áĪ´áĭİáĬķ": 3002,
      "ĠáĭĪáĬ¢áī³áĪĲáĪ¥áĪĻ": 3003,
      "ĠáĭĪáĬ¥áī£áĪŃáĬ®áĪĻ": 3004,
      "ĠáĭĪáĬ¥áĪĿáī³áĪķáī´áĪģ": 3005,
      "ĠáĭĿáĪįáĮīáĪ³áĬĲ": 3006,
      "ĠáĪŃáĭĳáĭ°": 3007,
      "ĠáĪŃáĬ¥áĪµáĬŃáĪĻ": 3008,
      "ĠáĪŃáĬ¥áĭ¨áī°": 3009,
      "ĠáīĢáĬĵáĭ²áĪĪ": 3010,
      "ĠáĪĪáĬłáĪĿáĪĭáĬ©": 3011,
      "ĠáĭĺáĭŃáĬ¬áĪįáĪĭ": 3012,
      "ĠáĭĺáĭŃáĬĲáįįáīħ": 3013,
      "ĠáĭĺáĭŃáīĪáĪŃáĪŃ": 3014,
      "ĠáĭĺáĭŃáīłáĪįáĭĳ": 3015,
      "ĠáĭĺáĭŃáĭĪáįħáĬ¥": 3016,
      "ĠáĭĺáĭŃáĪłáĪ«áĭķ": 3017,
      "ĠáĬ¢áĭŃáĪ¨áĪµáĭķ": 3018,
      "ĠáĬ¢áĭŃáīµáĭĲáĭ°áĭī": 3019,
      "ĠáĭĪáĪĪáĬ«áĪĿáĬĴ": 3020,
      "ĠáĭĪáĪĪáĭ«áįĮáīµáĬĴ": 3021,
      "ĠáĭĪáĬ£áĪŀáĪ¬áĭİáĬķ": 3022,
      "ĠáĭĪáĬ£áĬłáīµáīµ": 3023,
      "ĠáĭĪáĬ£áīĢáĭįáĪĿ": 3024,
      "ĠáĭĪáĬ£áĪµáī°áįĪáĪ¥áĪĸáĪĻ": 3025,
      "ĠáįįáĬ«áĪ¬": 3026,
      "ĠáĬĲáĬªáĪŃ": 3027,
      "ĠáĬĲáĬłáĪĿáĬķ": 3028,
      "ĠáĬĲáĮĪáĪ¥áīµ": 3029,
      "ĠáĬĲáĬłáĪ¶áĬķ": 3030,
      "ĠáĭĪáĭĺáĪŃáĬ¡áĬĴ": 3031,
      "ĠáĭĪáĭĺáĭįáĪĢáĪŃ": 3032,
      "ĠáĭĪáĭĺáĬĲáĮĪáĪŃáĭİ": 3033,
      "ĠáĭĪáĭĺáĪ°áĬķáįĶáĪŃ": 3034,
      "ĠáĭĪáĭĺáĬ¥áĬķáīłáĪĮáĪģáĪ°": 3035,
      "ĠáĭĪáĬ¨áĪŃáĬ¨áĭ´áĬķ": 3036,
      "ĠáĬłáĪĿáĪįáĬ®áīµáĭ¨": 3037,
      "ĠáĭĺáĬłáīłáĭĬáĪģ": 3038,
      "ĠáĭĺáĬłáĪŃáĬ°áĪ°": 3039,
      "ĠáĭĲáĪĭáĭĬáĭ«áĬķ": 3040,
      "ĠáĬħáī¥áĪµáī°": 3041,
      "ĠáĪĢáĪĪáĭįáĬ©": 3042,
      "ĠáĪłáīĥáĪ¥áīĥáī°": 3043,
      "ĠáĭĪáĬĢáĮºáĬķ": 3044,
      "ĠáĭĪáĭŃáīµáīĦáĮ¸áĪī": 3045,
      "Ġáī¥áĪ³áĮ£áī°": 3046,
      "ĠáĬłáĭķáĪĽáĭ³áīµ": 3047,
      "ĠáĬ¥áĪĿáĬłáįīáĭ¨": 3048,
      "Ġáĭ¨áī¥áĪ°áīµ": 3049,
      "ĠáĭĪáĪķáĭŃáĭĪáīµáĬĲ": 3050,
      "ĠáĬłáĪµáĪĲáī²áĭ«": 3051,
      "ĠáĪĺáīħáĪłáįįáī¶áĪĻ": 3052,
      "ĠáĬ¥áĪĿáĬĲáĮĪáĪ¥áī°": 3053,
      "ĠáĭĪáĮ¸áĪĭáĬ¥áī±áĬĴ": 3054,
      "ĠáĪ¨áĬ¨áī¥áĬ©": 3055,
      "ĠáĬłáĪµáī°áĪĲáīĢáĪŃáĬ©áĬŃáĪĻ": 3056,
      "ĠáĪĪáĬ¨áĬĵáĬ¦áĬķ": 3057,
      "ĠáĭĺáĬ¥áĪ´áĬłáĪĪáĬŃáĪĻ": 3058,
      "ĠáĬ¥áīµáĮĪáĪ°áĪµ": 3059,
      "ĠáĮ¥áĪµáĭ¨áĬĴ": 3060,
      "ĠáĪĺáĪ³áĬŃáĪļáĪĥ": 3061,
      "ĠáĪĺáĪ³áĪĿáĬŃáī²áĪĥ": 3062,
      "ĠáĬ¢áĭ«áĪµáĪķáī±áĬ¨": 3063,
      "Ġáĭ®áĪŃáĭ³áĬĸáĪµ": 3064,
      "ĠáĭĪáĭĿáĬŃáĪ®áĪĻáĬĴ": 3065,
      "ĠáĭĪáĮ½áĭĭáĭĵáī°": 3066,
      "ĠáĭĪáĮ»áĭµáīĥáĬķ": 3067,
      "ĠáĭĪáįĮáĪŃáĭľáĭİáĬķ": 3068,
      "ĠáĭĪáĮĮáĪŃáĮĮáĪ´áĭİáĬķ": 3069,
      "ĠáĪĪáĬĲáĭ³áĭ«áĬĴáĪĥ": 3070,
      "ĠáĪĪáĬħáĪ©áĭ«áĬĴáĪģ": 3071,
      "ĠáĪĪáĮįáĪįáįĪáĭĭáī°": 3072,
      "Ġáĭĺáī³áįĪáīħáĪŃ": 3073,
      "ĠáĮ°áĪ«áīħáĪĬáĮ¦áĪµ": 3074,
      "ĠáĭĪáīłáĬłáĪĿáĪ³áĪĬáĬĲ": 3075
    },
    "merges": [
      [
        "á",
        "Ī"
      ],
      [
        "á",
        "ĭ"
      ],
      [
        "á",
        "Ĭ"
      ],
      [
        "á",
        "ī"
      ],
      [
        "Ġ",
        "áĭ"
      ],
      [
        "Ġ",
        "áĬ"
      ],
      [
        "Ġáĭ",
        "Ī"
      ],
      [
        "á",
        "Į"
      ],
      [
        "Ġ",
        "áĪ"
      ],
      [
        "¥",
        "áĪ"
      ],
      [
        "Ġ",
        "áī"
      ],
      [
        "áĬ",
        "ķ"
      ],
      [
        "áī",
        "°"
      ],
      [
        "áĪ",
        "Ń"
      ],
      [
        "áī",
        "µ"
      ],
      [
        "ĠáĭĪ",
        "áĬ"
      ],
      [
        "á",
        "į"
      ],
      [
        "áĪ",
        "µ"
      ],
      [
        "áĮ",
        "į"
      ],
      [
        "áĭ",
        "µ"
      ],
      [
        "áĬ",
        "¥"
      ],
      [
        "áī",
        "¥áĪ"
      ],
      [
        "ĠáĬ",
        "ł"
      ],
      [
        "áĭ",
        "Ń"
      ],
      [
        "áĪ",
        "ĺ"
      ],
      [
        "Ġáī",
        "ł"
      ],
      [
        "áī",
        "ł"
      ],
      [
        "áĪ",
        "Ŀ"
      ],
      [
        "ĠáĪ",
        "Ī"
      ],
      [
        "áĪ",
        "į"
      ],
      [
        "áĪ",
        "¨"
      ],
      [
        "ĠáĬ",
        "¥áĪ"
      ],
      [
        "áĭ",
        "¨"
      ],
      [
        "áĬ",
        "ł"
      ],
      [
        "áĪ",
        "Ļ"
      ],
      [
        "Ġáĭ",
        "ĺ"
      ],
      [
        "áĭ",
        "°"
      ],
      [
        "áĪ",
        "ģ"
      ],
      [
        "áĭ",
        "ķ"
      ],
      [
        "áĬ",
        "Ĳ"
      ],
      [
        "áĪ",
        "Ī"
      ],
      [
        "áĬ",
        "¨"
      ],
      [
        "áį",
        "Ī"
      ],
      [
        "áĬ",
        "ħ"
      ],
      [
        "ĠáĬ",
        "¥"
      ],
      [
        "Ġ",
        "áĮ"
      ],
      [
        "áĪ",
        "°"
      ],
      [
        "áĭ",
        "Ī"
      ],
      [
        "áĭ",
        "į"
      ],
      [
        "áī",
        "¥"
      ],
      [
        "ĠáĪ",
        "ĺ"
      ],
      [
        "áĪ",
        "Ľ"
      ],
      [
        "áī",
        "ħ"
      ],
      [
        "Ġáĭ",
        "Ń"
      ],
      [
        "áĭ",
        "«"
      ],
      [
        "áĭ",
        "³"
      ],
      [
        "áĪ",
        "ł"
      ],
      [
        "áĬ",
        "Ĵ"
      ],
      [
        "áĭ",
        "ĺ"
      ],
      [
        "ĠáĭĪáĬ",
        "ł"
      ],
      [
        "áĬ",
        "£"
      ],
      [
        "áĬ",
        "Ń"
      ],
      [
        "áī",
        "±"
      ],
      [
        "áĭ",
        "ļ"
      ],
      [
        "áĬ",
        "ĵ"
      ],
      [
        "áĮ",
        "Ī"
      ],
      [
        "ĠáĬ¥áĪ",
        "Ŀ"
      ],
      [
        "áĮį",
        "áĭļ"
      ],
      [
        "áĪ",
        "¥"
      ],
      [
        "áī",
        "¤"
      ],
      [
        "Ķ",
        "áĪŃ"
      ],
      [
        "Ġáī",
        "°"
      ],
      [
        "ĠáĭĪáĬ",
        "¥áĪ"
      ],
      [
        "ĠáĭĪ",
        "áĭŃ"
      ],
      [
        "áī¥áĪ",
        "ĶáĪŃ"
      ],
      [
        "áĬ£",
        "áī¥áĪĶáĪŃ"
      ],
      [
        "áĮįáĭļ",
        "áĬ£áī¥áĪĶáĪŃ"
      ],
      [
        "áĬķ",
        "áī°"
      ],
      [
        "áį",
        "į"
      ],
      [
        "áĪµ",
        "áī°"
      ],
      [
        "áĪ",
        "«"
      ],
      [
        "áĪ",
        "ĭ"
      ],
      [
        "áĪ",
        "ķ"
      ],
      [
        "áĭ",
        "Ĳ"
      ],
      [
        "áī",
        "Ģ"
      ],
      [
        "Ŀ",
        "áĭµ"
      ],
      [
        "áĭ",
        "®"
      ],
      [
        "áī",
        "¦"
      ],
      [
        "áī",
        "²"
      ],
      [
        "ĠáĬ",
        "¨"
      ],
      [
        "áĭ",
        "Ŀ"
      ],
      [
        "ĠáĭĪ",
        "áīł"
      ],
      [
        "Ĳ",
        "áĮį"
      ],
      [
        "ĠáĬ",
        "¢"
      ],
      [
        "ĲáĮį",
        "áĪł"
      ],
      [
        "áĪ",
        "¬"
      ],
      [
        "áĭ",
        "Ĭ"
      ],
      [
        "áĭ",
        "ĭ"
      ],
      [
        "áĬ",
        "Ģ"
      ],
      [
        "áĪ",
        "³"
      ],
      [
        "áī",
        "³"
      ],
      [
        "ĠáĪ",
        "°"
      ],
      [
        "áĪ",
        "®"
      ],
      [
        "áĪ",
        "ī"
      ],
      [
        "áĬ",
        "©"
      ],
      [
        "Ġáĭ",
        "į"
      ],
      [
        "ĠáĬ¨",
        "áĪĺ"
      ],
      [
        "áĭ",
        "±"
      ],
      [
        "áĮ",
        "½"
      ],
      [
        "ĠáĬ¥",
        "áĮįáĭļáĬ£áī¥áĪĶáĪŃ"
      ],
      [
        "áī",
        "Ĥ"
      ],
      [
        "áī¥áĪ",
        "Ń"
      ],
      [
        "ĠáĬ¥áĪ",
        "µ"
      ],
      [
        "áĪ",
        "İ"
      ],
      [
        "ĠáĮ",
        "½"
      ],
      [
        "ĠáĪ",
        "ķ"
      ],
      [
        "Ġáīł",
        "áĬ¥"
      ],
      [
        "áī",
        "¡"
      ],
      [
        "ĠáĭĪáĬ¥áĪ",
        "Ŀáĭµ"
      ],
      [
        "ĠáĭĪáĬ¥áĪĿáĭµ",
        "áĬħ"
      ],
      [
        "áĪ",
        "Ģ"
      ],
      [
        "áĪ",
        "Ĭ"
      ],
      [
        "áĭ",
        "İ"
      ],
      [
        "Ġáĭ",
        "°"
      ],
      [
        "ĠáĬ",
        "ĲáĮįáĪł"
      ],
      [
        "ĠáĭĪ",
        "áĪį"
      ],
      [
        "áĮ",
        "ĭ"
      ],
      [
        "Ġáī",
        "ħ"
      ],
      [
        "Ġ",
        "áį"
      ],
      [
        "áĪ",
        "Ĳ"
      ],
      [
        "áĬ",
        "¥áĪ"
      ],
      [
        "ĠáĬ",
        "Ģ"
      ],
      [
        "ĠáĭĪ",
        "áĪĺ"
      ],
      [
        "ĠáĪ",
        "Ľ"
      ],
      [
        "ĠáĪ",
        "Ŀ"
      ],
      [
        "ĠáĪĪ",
        "áĬ¥"
      ],
      [
        "áĭ³",
        "áĪĿ"
      ],
      [
        "Ĩ",
        "áĪĻ"
      ],
      [
        "áĪ",
        "Į"
      ],
      [
        "áī",
        "£"
      ],
      [
        "ĠáĬ",
        "ķ"
      ],
      [
        "áįĪ",
        "áĮ"
      ],
      [
        "áĭ®",
        "áĬķ"
      ],
      [
        "áĭĬ",
        "áīµ"
      ],
      [
        "áĮ",
        "ī"
      ],
      [
        "ĠáĪ",
        "µ"
      ],
      [
        "Ġáī",
        "³"
      ],
      [
        "ĠáĮ",
        "Ī"
      ],
      [
        "áĪ",
        "¥áĪ"
      ],
      [
        "áĬ",
        "ĳ"
      ],
      [
        "ĠáĭĪ",
        "áī°"
      ],
      [
        "ĠáĪ",
        "ĭ"
      ],
      [
        "Ġáī",
        "µ"
      ],
      [
        "Ġáī",
        "ĥ"
      ],
      [
        "áĭ°",
        "áīĤ"
      ],
      [
        "áĭĪ",
        "áĪŃ"
      ],
      [
        "ĠáĪĺ",
        "áĬķ"
      ],
      [
        "ĠáĭĪáĭŃ",
        "áī¤"
      ],
      [
        "áĪ¬",
        "áĪģ"
      ],
      [
        "ĠáĭĪáĬ¥áĪĿáĭµáĬħ",
        "áĪ¬áĪģ"
      ],
      [
        "áĪ",
        "ĨáĪĻ"
      ],
      [
        "áī",
        "ĥ"
      ],
      [
        "ĠáĪ",
        "Ŀáĭµ"
      ],
      [
        "áĬ¥",
        "áī±"
      ],
      [
        "áī¥áĪ",
        "¨"
      ],
      [
        "áĪ¨",
        "áįĪ"
      ],
      [
        "Ġáĭį",
        "áĪµáī°"
      ],
      [
        "ĠáĬ¥áĪµ",
        "áĪĺ"
      ],
      [
        "ĠáīłáĬ¥",
        "áĬķáī°"
      ],
      [
        "®",
        "áĬĲ"
      ],
      [
        "áĪ",
        "ĥ"
      ],
      [
        "áĭ",
        "©"
      ],
      [
        "áī",
        "¶"
      ],
      [
        "ĠáĭĪ",
        "áĪĿ"
      ],
      [
        "áĮ",
        "¸"
      ],
      [
        "áĪŃ",
        "áĬł"
      ],
      [
        "áĮį",
        "áĪ¥"
      ],
      [
        "áĬħ",
        "áĭ°"
      ],
      [
        "áī¦",
        "áī°"
      ],
      [
        "ĠáĪĪáĬ¥",
        "áĮįáĭļáĬ£áī¥áĪĶáĪŃ"
      ],
      [
        "µ",
        "áĪī"
      ],
      [
        "áĪ",
        "©"
      ],
      [
        "áĪ",
        "ħ"
      ],
      [
        "ĠáĭĪ",
        "áĭĪ"
      ],
      [
        "áĬķ",
        "áīł"
      ],
      [
        "ĠáĭĪáĬ",
        "ĲáĮįáĪł"
      ],
      [
        "ĠáĬł",
        "áĭ³áĪĿ"
      ],
      [
        "Ġáīł",
        "áĬł"
      ],
      [
        "ĠáĬ¥áĪ",
        "Ī"
      ],
      [
        "áĭķ",
        "áĪ¨áįĪ"
      ],
      [
        "áĪĽ",
        "áĭ«"
      ],
      [
        "ĠáĮ½",
        "áĭ®áĬķ"
      ],
      [
        "ª",
        "áĭ³"
      ],
      [
        "áĪ",
        "ª"
      ],
      [
        "áĪ",
        "¶"
      ],
      [
        "áĭ",
        "ĵ"
      ],
      [
        "áĬ",
        "ĸ"
      ],
      [
        "Ġáĭ",
        "«"
      ],
      [
        "ĠáĬ",
        "Ń"
      ],
      [
        "ĠáĭĪ",
        "áīµ"
      ],
      [
        "ĠáĭĪáĬ",
        "¢"
      ],
      [
        "ĠáĭĪáĬ",
        "¥"
      ],
      [
        "áĭµ",
        "áĪŃ"
      ],
      [
        "áĭµ",
        "áĬħ"
      ],
      [
        "ĠáĭŃ",
        "áĬ¥"
      ],
      [
        "ĠáĭĪáĬ¥áĪ",
        "Ŀ"
      ],
      [
        "áĪ®",
        "áĪĻ"
      ],
      [
        "ĠáĭĪáĪį",
        "áĭ±"
      ],
      [
        "ĠáĪĿ",
        "áĪµ"
      ],
      [
        "áĪ",
        "±"
      ],
      [
        "áĭ",
        "Ľ"
      ],
      [
        "áĬ",
        "®"
      ],
      [
        "Ġáĭ",
        "Ŀ"
      ],
      [
        "ĠáĪ",
        "´"
      ],
      [
        "ĠáĪ",
        "Ń"
      ],
      [
        "Ġáī",
        "Ģ"
      ],
      [
        "áį",
        "ĭ"
      ],
      [
        "áĬ¥",
        "áĬķáīł"
      ],
      [
        "áī¥áĪ",
        "«"
      ],
      [
        "ĠáĪĪ",
        "áĬł"
      ],
      [
        "Ġáĭĺ",
        "áĭŃ"
      ],
      [
        "ĠáĭŃ",
        "áī¤"
      ],
      [
        "ĠáĭĪáĬł",
        "áĭķáĪ¨áįĪ"
      ],
      [
        "ĠáĬ¢",
        "áĭŃ"
      ],
      [
        "ĠáĪĭ",
        "áĭķ"
      ],
      [
        "áĭĪáĪŃ",
        "áīħ"
      ],
      [
        "ªáĭ³",
        "áĬķ"
      ],
      [
        "Ġ",
        "áįĪáĮ"
      ],
      [
        "áĭ",
        "ľ"
      ],
      [
        "áĬ",
        "¡"
      ],
      [
        "áĬ",
        "¢"
      ],
      [
        "áĬ",
        "¤"
      ],
      [
        "áī",
        "ģ"
      ],
      [
        "ĠáĬ",
        "µáĪī"
      ],
      [
        "ĠáĭĪ",
        "áĪĪ"
      ],
      [
        "ĠáĭĪáĬ",
        "£"
      ],
      [
        "ĠáĪĪ",
        "áĭ°áīĤ"
      ],
      [
        "áĭį",
        "áĪµáī°"
      ],
      [
        "áĭį",
        "áĬ¥áī±"
      ],
      [
        "ĠáĪĺáĬķ",
        "áĮįáĪ¥"
      ],
      [
        "ĠáĪĿáĭµ",
        "áĪŃ"
      ],
      [
        "Ġ",
        "áįį"
      ],
      [
        "ĸ",
        "áĪķ"
      ],
      [
        "áĪ",
        "ľ"
      ],
      [
        "áĭ",
        "²"
      ],
      [
        "áĭ",
        "ĸ"
      ],
      [
        "áĬ",
        "ĥ"
      ],
      [
        "áī",
        "´"
      ],
      [
        "ĠáĬ",
        "Ĳ"
      ],
      [
        "ĠáĭĪ",
        "áĭĺ"
      ],
      [
        "áĮ",
        "¥"
      ],
      [
        "áĬķ",
        "áįĪ"
      ],
      [
        "áĬķ",
        "áĭĺ"
      ],
      [
        "áĪŃ",
        "áĬ¥"
      ],
      [
        "ĠáĭĪáĬ",
        "¨"
      ],
      [
        "áĭµ",
        "áīħ"
      ],
      [
        "áī¥áĪ",
        "Ĳ"
      ],
      [
        "ĠáĬł",
        "áī¡"
      ],
      [
        "áĭ¨",
        "áĬķ"
      ],
      [
        "ĠáĬ¥",
        "áĬķáī°"
      ],
      [
        "áĭĪ",
        "áĪį"
      ],
      [
        "áĪİ",
        "áĪĻ"
      ],
      [
        "ĠáĪķ",
        "áĮį"
      ],
      [
        "Ġáī³",
        "áī¦áī°"
      ],
      [
        "áĬħáĭ°",
        "áĪ¨"
      ],
      [
        "áĬ¥áĬķáīł",
        "áĪĪ"
      ],
      [
        "áĪ",
        "´"
      ],
      [
        "áĪ",
        "ļ"
      ],
      [
        "áĪ",
        "ŀ"
      ],
      [
        "áĭ",
        "ĳ"
      ],
      [
        "áĬ",
        "¦"
      ],
      [
        "áī",
        "¢"
      ],
      [
        "Ġáĭ",
        "²"
      ],
      [
        "Ġáĭ",
        "ķ"
      ],
      [
        "ĠáĬ",
        "ªáĭ³áĬķ"
      ],
      [
        "ĠáĭĪ",
        "áĪ°"
      ],
      [
        "ĠáĭĪ",
        "áī¦"
      ],
      [
        "áĭµ",
        "áĬĢ"
      ],
      [
        "ĠáĬł",
        "áĪĿ"
      ],
      [
        "áĭŃ",
        "áĬħ"
      ],
      [
        "Ġáīł",
        "áĭįáĪµáī°"
      ],
      [
        "ĠáĬ¥áĪ",
        "ĺ"
      ],
      [
        "ĠáĪ°",
        "áĪĽáĭ«"
      ],
      [
        "Ġáīħ",
        "áĭ±"
      ],
      [
        "ĠáĪµ",
        "áī¥áĪĲ"
      ],
      [
        "ĠáĭŃáĬ¥",
        "áī²"
      ],
      [
        "áĭµáĬĢ",
        "áĬĴ"
      ],
      [
        "Ġ",
        "áĮį"
      ],
      [
        "Ġáĭ",
        "³"
      ],
      [
        "ĠáĬ",
        "ĸáĪķ"
      ],
      [
        "áĮ",
        "¡"
      ],
      [
        "áĮ",
        "¹"
      ],
      [
        "áĬķ",
        "áĬł"
      ],
      [
        "ĠáĭĪáĬ",
        "®áĬĲ"
      ],
      [
        "áį",
        "ħ"
      ],
      [
        "áĭµ",
        "áĪĺ"
      ],
      [
        "ĠáĪĪ",
        "áĭĺ"
      ],
      [
        "ĠáĪĪ",
        "áĪĬ"
      ],
      [
        "áĪį",
        "áĬ¤"
      ],
      [
        "áĬł",
        "áĪģ"
      ],
      [
        "Ġáĭĺ",
        "áĬł"
      ],
      [
        "Ġáĭĺ",
        "áĬ¥áĬķáīłáĪĪ"
      ],
      [
        "áĭķ",
        "áīł"
      ],
      [
        "áĬ¨",
        "áĪĺ"
      ],
      [
        "ĠáĮ",
        "¸"
      ],
      [
        "áī¥",
        "áī°"
      ],
      [
        "áī²",
        "áĪģ"
      ],
      [
        "áĮ½",
        "áĭµáīħ"
      ],
      [
        "áĭİ",
        "áĬķ"
      ],
      [
        "Ġáĭ°",
        "áīĤ"
      ],
      [
        "áī¶",
        "áĪĻ"
      ],
      [
        "ĠáĪĿáĪµ",
        "áĪĪ"
      ],
      [
        "ĠáĪ´",
        "áĪĿ"
      ],
      [
        "ĠáĪĭáĭķ",
        "áĪĪ"
      ],
      [
        "ĠáĪĪáĭ°áīĤ",
        "áīĢ"
      ],
      [
        "ĠáĬłáī¡",
        "áĪģ"
      ],
      [
        "Ġáīħáĭ±",
        "áĪµ"
      ],
      [
        "ĠáĪĪáĪĬ",
        "áĪģ"
      ],
      [
        "Ġ",
        "áįĪ"
      ],
      [
        "áĭ",
        "ī"
      ],
      [
        "áĬ",
        "ģ"
      ],
      [
        "Ġáĭ",
        "Ĳ"
      ],
      [
        "ĠáĬ",
        "«"
      ],
      [
        "ĠáĬ",
        "ħ"
      ],
      [
        "ĠáĭĪ",
        "áįĪ"
      ],
      [
        "ĠáĭĪ",
        "áĪĽ"
      ],
      [
        "ĠáĭĪ",
        "áĪ¶"
      ],
      [
        "ĠáĭĪ",
        "áĭįáĬ¥áī±"
      ],
      [
        "áĮ",
        "»"
      ],
      [
        "ĠáĪ",
        "¥"
      ],
      [
        "ĠáĪ",
        "Ģ"
      ],
      [
        "ĠáĪ",
        "ł"
      ],
      [
        "áĬķ",
        "áĪµ"
      ],
      [
        "áĬķ",
        "áī±"
      ],
      [
        "áĪŃ",
        "áĪµ"
      ],
      [
        "ĠáĭĪáĬ",
        "Ģ"
      ],
      [
        "áĪµ",
        "áī´"
      ],
      [
        "áĬ¥",
        "áĬķáī°"
      ],
      [
        "áĬ¥",
        "áĭĽ"
      ],
      [
        "áī¥áĪ",
        "©"
      ],
      [
        "ĠáĬł",
        "áī¥"
      ],
      [
        "áĪĿ",
        "áĭµáĪŃ"
      ],
      [
        "Ġáĭĺ",
        "áĪŃáĬł"
      ],
      [
        "Ġáĭĺ",
        "áĭĪáĪŃáīħ"
      ],
      [
        "ĠáĬ¥",
        "áĬķáĭĺ"
      ],
      [
        "áī¥",
        "áĬ¥"
      ],
      [
        "áĬŃ",
        "áĪĻ"
      ],
      [
        "ĠáĬ¥áĪĿ",
        "áĭµáĬħ"
      ],
      [
        "áī¤",
        "áĪį"
      ],
      [
        "ĠáĭĪáĭŃ",
        "áīµ"
      ],
      [
        "ĠáĬ¥áĪµ",
        "áĬ¨"
      ],
      [
        "Ġáį",
        "Ģ"
      ],
      [
        "ĠáĭĪáĪĺ",
        "áĬķáįĪ"
      ],
      [
        "áĪĮ",
        "áĪĨáĪĻ"
      ],
      [
        "ĠáĪµ",
        "áĪĿ"
      ],
      [
        "Ġáīĥ",
        "áĭ¨áĬķ"
      ],
      [
        "ĠáįĪáĮ",
        "£"
      ],
      [
        "ĠáĪĺáĬķáĮįáĪ¥",
        "áīµ"
      ],
      [
        "áĭĪáĪį",
        "áĭ°"
      ],
      [
        "ĠáĬªáĭ³áĬķ",
        "áĭ¨"
      ],
      [
        "ĠáĬłáĪĿ",
        "áĪĭ"
      ],
      [
        "ĠáĭĪáĪ¶",
        "áīł"
      ],
      [
        "áĪµáī´",
        "áī³"
      ],
      [
        "£",
        "áĭĸ"
      ],
      [
        "Ń",
        "áĭĲ"
      ],
      [
        "áĭ",
        "Ļ"
      ],
      [
        "áĬ",
        "ª"
      ],
      [
        "áĬ",
        "«"
      ],
      [
        "áĬ",
        "¬"
      ],
      [
        "áĬ",
        "Ķ"
      ],
      [
        "áī",
        "Ĩ"
      ],
      [
        "ĠáĬ",
        "©"
      ],
      [
        "ĠáĭĪ",
        "áĬķ"
      ],
      [
        "ĠáĭĪ",
        "áĭ¨"
      ],
      [
        "áĮ",
        "¦"
      ],
      [
        "áĮ",
        "ł"
      ],
      [
        "ĠáĪ",
        "Ĳ"
      ],
      [
        "Ġáī",
        "¥"
      ],
      [
        "Ġáī",
        "¥áĪ"
      ],
      [
        "áīµ",
        "áĬĴ"
      ],
      [
        "áĮį",
        "áīł"
      ],
      [
        "áĭµ",
        "áįĭ"
      ],
      [
        "áī¥áĪ",
        "į"
      ],
      [
        "ĠáĬł",
        "áĪį"
      ],
      [
        "ĠáĬł",
        "áĬĲ"
      ],
      [
        "ĠáĬł",
        "áĭį"
      ],
      [
        "ĠáĬł",
        "áĭŃáĬħ"
      ],
      [
        "Ġáīł",
        "áĬŃ"
      ],
      [
        "Ġáīł",
        "áĭĪáĪŃáīħ"
      ],
      [
        "Ġáīł",
        "áĬ¨áĪĺ"
      ],
      [
        "Ġáīł",
        "áĮ½áĭµáīħ"
      ],
      [
        "áīł",
        "áĭĬ"
      ],
      [
        "ĠáĪĪ",
        "áī³"
      ],
      [
        "áĪį",
        "áĭ¨"
      ],
      [
        "Ġáĭĺ",
        "áĬ¢"
      ],
      [
        "áĭķ",
        "áī°"
      ],
      [
        "ĠáĪĺ",
        "áĪĭ"
      ],
      [
        "ĠáĪĺ",
        "áĭµáĬĢáĬĴ"
      ],
      [
        "ĠáĭĪáĬł",
        "áĪį"
      ],
      [
        "áĬĵ",
        "áĬķ"
      ],
      [
        "áĮĪ",
        "áī¥áĪŃ"
      ],
      [
        "áĪ¥",
        "áĮĭ"
      ],
      [
        "Ġáī°",
        "áĭĲ"
      ],
      [
        "Ġáī°",
        "áĭĪáĪįáĭ°"
      ],
      [
        "ĠáĭĪáĬ¥áĪĿáĭµáĬħ",
        "áĪ¨"
      ],
      [
        "Ġáĭ°",
        "áĪĺ"
      ],
      [
        "ĠáĭĪáĪį",
        "áĭµ"
      ],
      [
        "Ġáīħ",
        "áĬķáĬł"
      ],
      [
        "áī£",
        "áĪ¨"
      ],
      [
        "ĠáĬķ",
        "áĮī"
      ],
      [
        "ĠáĭĪáĭŃáī¤",
        "áĪİ"
      ],
      [
        "áī¥áĪ¨",
        "áīµ"
      ],
      [
        "áĮ¸",
        "áĭį"
      ],
      [
        "áĪħ",
        "áĬĵ"
      ],
      [
        "áī¥áĪ«",
        "áĪĿ"
      ],
      [
        "ĠáĪ°áĪĽáĭ«",
        "áĭĬáīµ"
      ],
      [
        "ĠáĪµáī¥áĪĲ",
        "áī²áĪģ"
      ],
      [
        "áī¥áī°",
        "áĪ«"
      ],
      [
        "áĭµáįĭ",
        "áĭ°"
      ],
      [
        "ĠáĪĪáī³",
        "áī¦áī°"
      ],
      [
        "Ħ",
        "áĬĸ"
      ],
      [
        "İ",
        "áĪŃ"
      ],
      [
        "ŀ",
        "áī°"
      ],
      [
        "áĪ",
        "£"
      ],
      [
        "áĭ",
        "¶"
      ],
      [
        "áĬ",
        "µ"
      ],
      [
        "ĠáĬ",
        "®áĬĲ"
      ],
      [
        "ĠáĭĪ",
        "áĭ°áīĤ"
      ],
      [
        "áĮ",
        "£"
      ],
      [
        "áĮ",
        "¥áĪ"
      ],
      [
        "ĠáĪ",
        "«"
      ],
      [
        "ĠáĪ",
        "į"
      ],
      [
        "ĠáĪ",
        "İ"
      ],
      [
        "ĠáĪ",
        "ĦáĬĸ"
      ],
      [
        "ĠáĪ",
        "ŀáī°"
      ],
      [
        "áĬķ",
        "áĪ°"
      ],
      [
        "áĬķ",
        "áĭ«"
      ],
      [
        "áĬķ",
        "áĪ¥"
      ],
      [
        "áĬķ",
        "áī²"
      ],
      [
        "áĬķ",
        "áĮī"
      ],
      [
        "áī°",
        "áĭĲ"
      ],
      [
        "áĪŃ",
        "áĬ¨"
      ],
      [
        "áĪŃ",
        "áĭĭ"
      ],
      [
        "áĪŃ",
        "áĬ©"
      ],
      [
        "áĪŃ",
        "áĪĢ"
      ],
      [
        "áĪŃ",
        "áĬ¡"
      ],
      [
        "áĪŃ",
        "áĬ¢"
      ],
      [
        "áīµ",
        "áĬ¥áĭĽ"
      ],
      [
        "ĠáĭĪáĬ",
        "«"
      ],
      [
        "ĠáĭĪáĬ",
        "Ĳ"
      ],
      [
        "áį",
        "Į"
      ],
      [
        "áĪµ",
        "áīµ"
      ],
      [
        "áī¥áĪ",
        "µ"
      ],
      [
        "áī¥áĪ",
        "İ"
      ],
      [
        "ĠáĬł",
        "áĮį"
      ],
      [
        "ĠáĬł",
        "áĭķ"
      ],
      [
        "ĠáĬł",
        "áīłáĭĬ"
      ],
      [
        "ĠáĬł",
        "áī¥áĪ«áĪĿ"
      ],
      [
        "áĭŃ",
        "áĬĵáĬķ"
      ],
      [
        "Ġáīł",
        "áĪ¥áĮĭ"
      ],
      [
        "ĠáĪĪ",
        "áĪĽ"
      ],
      [
        "ĠáĪĪ",
        "áĪĿáĭµáĪŃ"
      ],
      [
        "áĪį",
        "áĭµ"
      ],
      [
        "áĪ¨",
        "áĭ°"
      ],
      [
        "áĬł",
        "áĪĿ"
      ],
      [
        "Ġáĭĺ",
        "áīł"
      ],
      [
        "Ġáĭĺ",
        "áįĪáĮ"
      ],
      [
        "áĭ°",
        "áĭĪ"
      ],
      [
        "áĬĲ",
        "áī¥áĪŃ"
      ],
      [
        "áĪĪ",
        "áĪĿ"
      ],
      [
        "áĬ¨",
        "áĭŃ"
      ],
      [
        "áĬ¨",
        "áĭį"
      ],
      [
        "ĠáĮ",
        "£áĭĸ"
      ],
      [
        "áĪ°",
        "áīµ"
      ],
      [
        "áĪ°",
        "áĪĽáĭ«"
      ],
      [
        "áī¥",
        "áĬł"
      ],
      [
        "ĠáĪĺ",
        "áĪ¥"
      ],
      [
        "áīħ",
        "áĭµáĪĺ"
      ],
      [
        "ĠáĭŃ",
        "áĪģ"
      ],
      [
        "áĭĺ",
        "áĭĺ"
      ],
      [
        "áĬŃ",
        "áĪ¨"
      ],
      [
        "áĬĵ",
        "áĭŃ"
      ],
      [
        "áĬĵ",
        "áĮĪ"
      ],
      [
        "ĠáĬ¥áĪĿ",
        "áĬł"
      ],
      [
        "Ġáī°",
        "áįĪáĮ"
      ],
      [
        "áĪµáī°",
        "áĪŃáĬ¢"
      ],
      [
        "áĪ«",
        "áĭĬáīµ"
      ],
      [
        "áĪĭ",
        "áī°"
      ],
      [
        "áĭ®",
        "áĪĻ"
      ],
      [
        "áī¦",
        "áĪĻ"
      ],
      [
        "áī²",
        "áĪĥ"
      ],
      [
        "ĠáĬ¨",
        "áĬĵ"
      ],
      [
        "áĭĿ",
        "áī¥"
      ],
      [
        "áĭĿ",
        "áĬĢ"
      ],
      [
        "ĠáĭĪáīł",
        "áĬ¥áĬķáī°"
      ],
      [
        "áĬĢ",
        "áīł"
      ],
      [
        "ĠáĪ°",
        "áĪĽ"
      ],
      [
        "Ġáĭį",
        "áĬ¥áī±"
      ],
      [
        "Ġáĭį",
        "áĪµáī´áī³"
      ],
      [
        "áĮ½",
        "áĭ®áĬķ"
      ],
      [
        "ĠáĪķ",
        "áĭĿáī¥"
      ],
      [
        "Ġáīħ",
        "áĭµ"
      ],
      [
        "áĬ¥áĪ",
        "²"
      ],
      [
        "áĬ¥áĪ",
        "µ"
      ],
      [
        "áĬ¥áĪ",
        "Ī"
      ],
      [
        "ĠáĬĢ",
        "áīł"
      ],
      [
        "ĠáĬķ",
        "áĭĭ"
      ],
      [
        "ĠáĬķ",
        "áĮ¡"
      ],
      [
        "ĠáĮĪ",
        "áī£"
      ],
      [
        "áĪ¥áĪ",
        "ŃáĭĲ"
      ],
      [
        "Ġáīĥ",
        "áĭŃáĬĵáĬķ"
      ],
      [
        "ĠáĪĺáĬķ",
        "áįĪ"
      ],
      [
        "ĠáĪĿáĭµ",
        "áĪ¨"
      ],
      [
        "ĠáĭĪáĪĿ",
        "áĭµáĪŃ"
      ],
      [
        "ĠáĭĪáĭĪ",
        "áĪĢ"
      ],
      [
        "ĠáĬŃ",
        "áĪįáĬ¤"
      ],
      [
        "ĠáĭĪáīµ",
        "áĮĪáī¥áĪŃ"
      ],
      [
        "ĠáĭĪáĬ¥áĪĿ",
        "áĭĿ"
      ],
      [
        "ĠáĪĪáĬł",
        "áĭ³áĪĿ"
      ],
      [
        "áĬĥ",
        "áĪª"
      ],
      [
        "áĪŃáĬ¥",
        "áĬ¨"
      ],
      [
        "ĠáĭĪáĬ¨",
        "áĪĺ"
      ],
      [
        "Ġáĭ³",
        "áĮį"
      ],
      [
        "ĠáĭĪáĭįáĬ¥áī±",
        "áĬĴ"
      ],
      [
        "ĠáĪ¥",
        "áĮĭ"
      ],
      [
        "ĠáĪĢ",
        "áĮĪ"
      ],
      [
        "Ġáī¥",
        "áĬ¥áĪ²"
      ],
      [
        "ĠáīłáĬŃ",
        "áī¥áĪŃ"
      ],
      [
        "Ġáĭ°áĪĺ",
        "áĬĵ"
      ],
      [
        "áīµáĬ¥áĭĽ",
        "áĭĻ"
      ],
      [
        "ĠáĪĪáĪĽ",
        "áĬħáĭ°áĪ¨"
      ],
      [
        "ĠáĭĺáįĪáĮ",
        "ł"
      ],
      [
        "ĠáĪĺáĪ¥",
        "áĭĭ"
      ],
      [
        "Ġáī°áįĪáĮ",
        "¥áĪ"
      ],
      [
        "ĠáĬķáĮ¡",
        "áįį"
      ],
      [
        "¢",
        "áĬł"
      ],
      [
        "¬",
        "áĬķáĭ«"
      ],
      [
        "ħ",
        "áĭ¨"
      ],
      [
        "ĭ",
        "áĪŃáĪµ"
      ],
      [
        "Ľ",
        "áī²"
      ],
      [
        "áĭ",
        "´"
      ],
      [
        "áĭ",
        "ŀ"
      ],
      [
        "áĬ",
        "°"
      ],
      [
        "áĬ",
        "®áĬĲ"
      ],
      [
        "áĬ",
        "µáĪī"
      ],
      [
        "áī",
        "ĨáĪĻ"
      ],
      [
        "Ġáĭ",
        "¨"
      ],
      [
        "Ġáĭ",
        "ĵ"
      ],
      [
        "Ġáĭ",
        "ĭáĪŃáĪµ"
      ],
      [
        "Ġáĭ",
        "Ľáī²"
      ],
      [
        "ĠáĬ",
        "µ"
      ],
      [
        "ĠáĬ",
        "ĵ"
      ],
      [
        "ĠáĭĪ",
        "áĪł"
      ],
      [
        "ĠáĭĪ",
        "áĮĪ"
      ],
      [
        "ĠáĭĪ",
        "áĪķ"
      ],
      [
        "ĠáĭĪ",
        "áī¥áĪŃ"
      ],
      [
        "ĠáĭĪ",
        "áĪŃáĬ¥"
      ],
      [
        "ĠáĭĪ",
        "áĪ¥áĪŃáĭĲ"
      ],
      [
        "áĮ",
        "º"
      ],
      [
        "áĮ",
        "¾"
      ],
      [
        "áĮ",
        "Į"
      ],
      [
        "áĮ",
        "¢áĬł"
      ],
      [
        "ĠáĪ",
        "³"
      ],
      [
        "ĠáĪ",
        "Ĭ"
      ],
      [
        "ĠáĪ",
        "ħáĭ¨"
      ],
      [
        "Ġáī",
        "£"
      ],
      [
        "áĬķ",
        "áĪ¶"
      ],
      [
        "áĪŃ",
        "áī°"
      ],
      [
        "áĪŃ",
        "áīµ"
      ],
      [
        "áĪŃ",
        "áī±"
      ],
      [
        "áīµ",
        "áĪĺ"
      ],
      [
        "áīµ",
        "áĪ¨"
      ],
      [
        "áīµ",
        "áĭ¨"
      ],
      [
        "áīµ",
        "áĭį"
      ],
      [
        "áį",
        "ª"
      ],
      [
        "áį",
        "¯"
      ],
      [
        "áį",
        "Ģ"
      ],
      [
        "áį",
        "ī"
      ],
      [
        "áĪµ",
        "áĪĪ"
      ],
      [
        "áĭµ",
        "áĭİ"
      ],
      [
        "áĬ¥",
        "áī°"
      ],
      [
        "áĬ¥",
        "áĬŃ"
      ],
      [
        "ĠáĬł",
        "áĪŃ"
      ],
      [
        "ĠáĬł",
        "áĪµ"
      ],
      [
        "ĠáĬł",
        "áĪĽ"
      ],
      [
        "ĠáĬł",
        "áī¤áĪį"
      ],
      [
        "áĭŃ",
        "áĬĲ"
      ],
      [
        "áĭŃ",
        "áĮ£"
      ],
      [
        "áĪĺ",
        "áī°"
      ],
      [
        "áĪĺ",
        "áĪ°"
      ],
      [
        "áĪĺ",
        "áĬķáįĪ"
      ],
      [
        "áĪĺ",
        "áĭµáĬĢáĬĴ"
      ],
      [
        "Ġáīł",
        "áĭ°"
      ],
      [
        "áīł",
        "áĪ¨"
      ],
      [
        "áĪĿ",
        "áĪ°"
      ],
      [
        "ĠáĪĪ",
        "áĪĻ"
      ],
      [
        "ĠáĪĪ",
        "áĭ°"
      ],
      [
        "ĠáĪĪ",
        "áīĥ"
      ],
      [
        "ĠáĪĪ",
        "áĮ½áĭ®áĬķ"
      ],
      [
        "ĠáĪĪ",
        "áĬ¥áĪĪ"
      ],
      [
        "ĠáĬ¥áĪ",
        "Ļ"
      ],
      [
        "áĭ¨",
        "áĪ°"
      ],
      [
        "áĭ°",
        "áĭī"
      ],
      [
        "áĭķ",
        "áĪį"
      ],
      [
        "áĭķ",
        "áĪĪ"
      ],
      [
        "áĭķ",
        "áī¢"
      ],
      [
        "áĬĲ",
        "áīµ"
      ],
      [
        "áĬĲ",
        "áįį"
      ],
      [
        "áĪĪ",
        "áī¥"
      ],
      [
        "ĠáĬ¥",
        "áĮĪ"
      ],
      [
        "ĠáĬ¥",
        "áĮįáĭļ"
      ],
      [
        "ĠáĬ¥",
        "áĬģ"
      ],
      [
        "ĠáĬ¥",
        "áĬķáĪµ"
      ],
      [
        "áī¥",
        "áīµ"
      ],
      [
        "ĠáĪĺ",
        "áīħ"
      ],
      [
        "áĪĽ",
        "áĪµ"
      ],
      [
        "áīħ",
        "áĬ¨"
      ],
      [
        "áīħ",
        "áĭĿ"
      ],
      [
        "ĠáĭŃ",
        "áĮĪ"
      ],
      [
        "ĠáĭŃ",
        "áĮįáīł"
      ],
      [
        "áĭ«",
        "áĬķ"
      ],
      [
        "áĭ«",
        "áĭµáĬħ"
      ],
      [
        "áĭ«",
        "áī¥áĪİ"
      ],
      [
        "áĭ³",
        "áĪļ"
      ],
      [
        "áĭĺ",
        "áĭŀ"
      ],
      [
        "ĠáĭĪáĬł",
        "áĪĿ"
      ],
      [
        "ĠáĭĪáĬł",
        "áĪ«áĭĬáīµ"
      ],
      [
        "áĬ£",
        "áĬķ"
      ],
      [
        "áĬĵ",
        "áĭ¨"
      ],
      [
        "ĠáĬ¥áĪĿ",
        "áĬĲ"
      ],
      [
        "ĠáĬ¥áĪĿ",
        "áĭĺ"
      ],
      [
        "ĠáĬ¥áĪĿ",
        "áīĢ"
      ],
      [
        "ĠáĬ¥áĪĿ",
        "áĬĶ"
      ],
      [
        "ĠáĬ¥áĪĿ",
        "áīµáĬ¥áĭĽáĭĻ"
      ],
      [
        "áĪ¥",
        "áĬ¥"
      ],
      [
        "Ġáī°",
        "áĮĪ"
      ],
      [
        "áĪ«",
        "áĬ¤"
      ],
      [
        "áĪķ",
        "áī°"
      ],
      [
        "áĪķ",
        "áĪĭ"
      ],
      [
        "áĭ®",
        "áĪµ"
      ],
      [
        "ĠáĬ¢",
        "áīµ"
      ],
      [
        "ĠáĬ¢",
        "áĭ¨"
      ],
      [
        "áĪ¬",
        "áĬ¨"
      ],
      [
        "áĭĬ",
        "áĪģ"
      ],
      [
        "áĪ³",
        "áĬķ"
      ],
      [
        "áĪ³",
        "áīµ"
      ],
      [
        "áī³",
        "áī°"
      ],
      [
        "ĠáĪ°",
        "áī¥áĬ¥"
      ],
      [
        "ĠáĪ°",
        "áī¥áĬł"
      ],
      [
        "áĬ©",
        "áĬķ"
      ],
      [
        "ĠáĬ¥áĪµ",
        "áĪ«áĬ¤"
      ],
      [
        "ĠáĪķ",
        "áĮī"
      ],
      [
        "áĪĢ",
        "áĭŃ"
      ],
      [
        "Ġáį",
        "²"
      ],
      [
        "ĠáĬĢ",
        "áĪį"
      ],
      [
        "ĠáĬĢ",
        "áĮ¢áĬł"
      ],
      [
        "ĠáĪĽ",
        "áĬħáĭ°"
      ],
      [
        "ĠáĪĽ",
        "áĬħáĭ°áĪ¨"
      ],
      [
        "áĪĮ",
        "áĬ¨"
      ],
      [
        "ĠáĬķ",
        "áĮ¹"
      ],
      [
        "áĭĬáīµ",
        "áĬĴ"
      ],
      [
        "Ġáī³",
        "áĪ«"
      ],
      [
        "ĠáĮĪ",
        "áĮ½"
      ],
      [
        "ĠáĮĪ",
        "áī¥áĪŃ"
      ],
      [
        "ĠáĪĭ",
        "áī²"
      ],
      [
        "ĠáĭĪáĭŃáī¤",
        "áĪİáĪĻ"
      ],
      [
        "áīĥ",
        "áĬĲ"
      ],
      [
        "áī¶",
        "áĪµ"
      ],
      [
        "ĠáĭĪáĪĿ",
        "áĪµáĪĪ"
      ],
      [
        "áĪŃáĬł",
        "áĭ«"
      ],
      [
        "áĪŃáĬł",
        "áĭ®"
      ],
      [
        "ĠáīłáĬł",
        "áĭŃáĬħ"
      ],
      [
        "áĪª",
        "áĪģ"
      ],
      [
        "áĬĸ",
        "áīµ"
      ],
      [
        "ĠáĬŃ",
        "áĪŃáĪµ"
      ],
      [
        "ĠáĭĪáīµ",
        "áĪĪáī¥"
      ],
      [
        "ĠáĭĪáĬ¥",
        "áĬķáĭĺ"
      ],
      [
        "ĠáĭŃáĬ¥",
        "áĭľ"
      ],
      [
        "ĠáĪĿáĪµ",
        "áĪĮáĪĨáĪĻ"
      ],
      [
        "ĠáĭĿ",
        "áĭįáĬ¥áī±"
      ],
      [
        "ĠáĪ´",
        "áīµ"
      ],
      [
        "ĠáĪŃ",
        "áĪµáīµ"
      ],
      [
        "ĠáĪĭáĭķ",
        "áĪĮáĪĨáĪĻ"
      ],
      [
        "ĠáįĪáĮ",
        "ł"
      ],
      [
        "ĠáĪĺáĬķáĮįáĪ¥",
        "áī°"
      ],
      [
        "Ġáĭ²",
        "áīł"
      ],
      [
        "Ġáĭ²",
        "áĭ«áī¥áĪİ"
      ],
      [
        "Ġáĭķ",
        "áīł"
      ],
      [
        "ĠáĬ¥áĪĺ",
        "áīµ"
      ],
      [
        "ĠáĪ°áĪĽáĭ«",
        "áīµ"
      ],
      [
        "Ġáĭ³",
        "áĭĬáīµ"
      ],
      [
        "ĠáįĪ",
        "áĭµáįĭáĭ°"
      ],
      [
        "ĠáĬ«",
        "áĪħáĬĵ"
      ],
      [
        "ĠáĪł",
        "áĬĵáĭŃ"
      ],
      [
        "ĠáĬ¥áĪĿáĭµáĬħ",
        "áĪ¨"
      ],
      [
        "ĠáĬ¥áĪĿáĭµáĬħ",
        "áĪ¬áĬ¨"
      ],
      [
        "ĠáĭĪáĭŃáīµ",
        "áĬĵáĮĪ"
      ],
      [
        "ĠáįĪáĮ£",
        "áĪ¬"
      ],
      [
        "ĠáĬłáĪĿáĪĭ",
        "áĬª"
      ],
      [
        "ĠáĭĪáĪ¶áīł",
        "áĬĴ"
      ],
      [
        "ĠáĬ©",
        "áĬķ"
      ],
      [
        "ĠáĭĪáĭ¨",
        "áĭĲ"
      ],
      [
        "áī¥áĪį",
        "áĭĳ"
      ],
      [
        "ĠáĭĺáĬ¢",
        "áĭŃáĬĲ"
      ],
      [
        "ĠáĪĺáĪĭ",
        "áĬ¥áĬŃ"
      ],
      [
        "ĠáĭĪáĬłáĪį",
        "áī¦"
      ],
      [
        "ĠáīħáĬķáĬł",
        "áī±"
      ],
      [
        "ĠáĬķáĮī",
        "áĪ¥"
      ],
      [
        "áĮ¸áĭį",
        "áĪŃáĭĭ"
      ],
      [
        "ĠáĭĪáĭ°áīĤ",
        "áīģ"
      ],
      [
        "áĮ¥áĪ",
        "¨"
      ],
      [
        "ĠáĪ«",
        "áĬ¥"
      ],
      [
        "ĠáĪį",
        "áīł"
      ],
      [
        "áĬķáī²",
        "áĬłáĪģ"
      ],
      [
        "áĬķáĮī",
        "áĪł"
      ],
      [
        "áī°áĭĲ",
        "áĭ°áĭĪ"
      ],
      [
        "ĠáĭĪáĬ«",
        "áĭķáīł"
      ],
      [
        "áĬ¨áĭį",
        "áĬķ"
      ],
      [
        "áĪ°áĪĽáĭ«",
        "áīµ"
      ],
      [
        "ĠáĭŃáĪģ",
        "áĭ³"
      ],
      [
        "ĠáĭĪáīłáĬ¥áĬķáī°",
        "áĭĿ"
      ],
      [
        "ĠáĪ°áĪĽ",
        "áĭŃ"
      ],
      [
        "ĠáĬķáĭĭ",
        "áĭ¨"
      ],
      [
        "ĠáĮĪáī£",
        "áĪ¬"
      ],
      [
        "Ġáĭ³áĮį",
        "áĪĺ"
      ],
      [
        "ĠáĪĢáĮĪ",
        "áĪ¨"
      ],
      [
        "ĠáĪĺáĪ¥áĭĭ",
        "áĭķáī°"
      ],
      [
        "ĠáĭĭáĪŃáĪµ",
        "áĭ¨"
      ],
      [
        "ĠáĭĪáĪŃáĬ¥",
        "áĭ®"
      ],
      [
        "áĬķáĪ¶",
        "áĪ±"
      ],
      [
        "áĪŃáī±",
        "áĭķ"
      ],
      [
        "áĭŃáĮ£",
        "áĬķ"
      ],
      [
        "áĪĺáĬķáįĪ",
        "áĪµ"
      ],
      [
        "áĪĺáĭµáĬĢáĬĴ",
        "áī°"
      ],
      [
        "ĠáĪĪáĪĻ",
        "áĪ´"
      ],
      [
        "ĠáĪĪáĭ°",
        "áī¥áī°áĪ«"
      ],
      [
        "ĠáĪĪáīĥ",
        "áĭ¨áĬķ"
      ],
      [
        "ĠáĬ¥áĬģ",
        "áĪģ"
      ],
      [
        "ĠáĬ¥áĬķáĪµ",
        "áĪ³"
      ],
      [
        "ĠáĬ¥áĪĿáĬĶ",
        "áĪģ"
      ],
      [
        "ĠáĬ¥áĪµáĪ«áĬ¤",
        "áĪį"
      ],
      [
        "ĠáĬŃáĪŃáĪµ",
        "áī¶áĪµ"
      ],
      [
        "ĠáĭĪáīµáĪĪáī¥",
        "áĮ¦"
      ],
      [
        "Ġáĭ²áĭ«áī¥áĪİ",
        "áĪµ"
      ],
      [
        "ĠáĭĪáĭŃáīµáĬĵáĮĪ",
        "áĪ®áĪĻ"
      ],
      [
        "ĠáĭĺáĬ¢áĭŃáĬĲ",
        "áīħáĭĿ"
      ],
      [
        "ĠáĪĺáĪĭáĬ¥áĬŃ",
        "áīµ"
      ],
      [
        "¢",
        "áĮ¥"
      ],
      [
        "¢",
        "áĮ¾"
      ],
      [
        "¤",
        "áĪŀ"
      ],
      [
        "¦",
        "áĬĳ"
      ],
      [
        "«",
        "áį"
      ],
      [
        "³",
        "áĮ"
      ],
      [
        "³",
        "áĪ³áīµ"
      ],
      [
        "´",
        "áĭŃ"
      ],
      [
        "»",
        "áį"
      ],
      [
        "»",
        "áĭµáīħ"
      ],
      [
        "ģ",
        "áī¦áĪĻ"
      ],
      [
        "ĳ",
        "áįĭ"
      ],
      [
        "ļ",
        "áĬłáĪģ"
      ],
      [
        "Ŀ",
        "áĪ¨"
      ],
      [
        "Ń",
        "áĪĥ"
      ],
      [
        "áĪ",
        "¦"
      ],
      [
        "áĪ",
        "Ĥ"
      ],
      [
        "áĪ",
        "Ĩ"
      ],
      [
        "áĪ",
        "ĵ"
      ],
      [
        "áĪ",
        "¢áĮ¥"
      ],
      [
        "áĪ",
        "ĳáįĭ"
      ],
      [
        "áĬ",
        "ªáĭ³áĬķ"
      ],
      [
        "áī",
        "Ħ"
      ],
      [
        "Ġáĭ",
        "ļáĬłáĪģ"
      ],
      [
        "ĠáĬ",
        "£"
      ],
      [
        "ĠáĬ",
        "¬áĬķáĭ«"
      ],
      [
        "ĠáĭĪ",
        "áĪ¨"
      ],
      [
        "ĠáĭĪ",
        "áĭķ"
      ],
      [
        "ĠáĭĪ",
        "áĭį"
      ],
      [
        "ĠáĭĪ",
        "áĪ«"
      ],
      [
        "ĠáĭĪ",
        "áĭĲ"
      ],
      [
        "ĠáĭĪ",
        "áī³"
      ],
      [
        "ĠáĭĪ",
        "áĪĢ"
      ],
      [
        "ĠáĭĪ",
        "áĮ¸"
      ],
      [
        "ĠáĭĪ",
        "áĪļ"
      ],
      [
        "ĠáĭĪ",
        "áī¥áīµ"
      ],
      [
        "áĮ",
        "Ĳ"
      ],
      [
        "áĮ",
        "İáĪŃ"
      ],
      [
        "ĠáĪ",
        "£"
      ],
      [
        "ĠáĪ",
        "¨"
      ],
      [
        "ĠáĪ",
        "®"
      ],
      [
        "ĠáĪ",
        "¶"
      ],
      [
        "Ġáī",
        "¤"
      ],
      [
        "Ġáī",
        "¢áĮ¾"
      ],
      [
        "Ġáī",
        "¦áĬĳ"
      ],
      [
        "áĬķ",
        "áĬķ"
      ],
      [
        "áĬķ",
        "áīħ"
      ],
      [
        "áĬķ",
        "áĮįáĪ¥"
      ],
      [
        "áī°",
        "áĭĪ"
      ],
      [
        "áĪŃ",
        "áĭ«"
      ],
      [
        "áĪŃ",
        "áĪł"
      ],
      [
        "áĪŃ",
        "áĬ¥áĪµ"
      ],
      [
        "áĪŃ",
        "áĪĨ"
      ],
      [
        "áīµ",
        "áĪĪ"
      ],
      [
        "áīµ",
        "áĪ°"
      ],
      [
        "ĠáĭĪáĬ",
        "ĸáĪķ"
      ],
      [
        "áį",
        "°"
      ],
      [
        "áĪµ",
        "áĭµ"
      ],
      [
        "áĪµ",
        "áĪį"
      ],
      [
        "áĭµ",
        "áīĢ"
      ],
      [
        "áĬ¥",
        "áĭĭ"
      ],
      [
        "áĬ¥",
        "áī£"
      ],
      [
        "áĬ¥",
        "áĬķáī²áĬłáĪģ"
      ],
      [
        "áī¥áĪ",
        "®"
      ],
      [
        "áī¥áĪ",
        "°"
      ],
      [
        "ĠáĬł",
        "áĪ¨"
      ],
      [
        "ĠáĬł",
        "áīħ"
      ],
      [
        "ĠáĬł",
        "áĬŃ"
      ],
      [
        "ĠáĬł",
        "áĬķáī°"
      ],
      [
        "ĠáĬł",
        "áĪµáī°"
      ],
      [
        "ĠáĬł",
        "áĪĭ"
      ],
      [
        "ĠáĬł",
        "áĬĢ"
      ],
      [
        "ĠáĬł",
        "áĭķáĪ¨áįĪ"
      ],
      [
        "ĠáĬł",
        "áĭĺáĭŀ"
      ],
      [
        "ĠáĬł",
        "áĬķáīħ"
      ],
      [
        "áĭŃ",
        "áĪ"
      ],
      [
        "áĭŃ",
        "áĪĽ"
      ],
      [
        "áĭŃ",
        "áĭİ"
      ],
      [
        "áĪĺ",
        "áĬķ"
      ],
      [
        "áĪĺ",
        "áīµ"
      ],
      [
        "áĪĺ",
        "áĪį"
      ],
      [
        "áĪĺ",
        "áĪµáĪį"
      ],
      [
        "Ġáīł",
        "áīł"
      ],
      [
        "Ġáīł",
        "áĪĿ"
      ],
      [
        "Ġáīł",
        "áĬħ"
      ],
      [
        "Ġáīł",
        "áī¥"
      ],
      [
        "Ġáīł",
        "áĪĽ"
      ],
      [
        "Ġáīł",
        "áīħ"
      ],
      [
        "Ġáīł",
        "áĭĿ"
      ],
      [
        "Ġáīł",
        "áĭ²"
      ],
      [
        "Ġáīł",
        "áĬµ"
      ],
      [
        "Ġáīł",
        "áĬĢáīł"
      ],
      [
        "Ġáīł",
        "áīµáĪ¨"
      ],
      [
        "áīł",
        "áĪŃ"
      ],
      [
        "áīł",
        "áĭį"
      ],
      [
        "áīł",
        "áī¥"
      ],
      [
        "áĪĿ",
        "áĬĴ"
      ],
      [
        "áĪĿ",
        "áĪ¥áĪ"
      ],
      [
        "áĪĿ",
        "áĭī"
      ],
      [
        "ĠáĪĪ",
        "áĬ¨"
      ],
      [
        "ĠáĪĪ",
        "áĪ°"
      ],
      [
        "ĠáĪĪ",
        "áĭĵ"
      ],
      [
        "ĠáĪĪ",
        "áĬµáĪī"
      ],
      [
        "ĠáĪĪ",
        "áĬķáĮīáĪł"
      ],
      [
        "ĠáĪĪ",
        "áĪĺáĭµáĬĢáĬĴáī°"
      ],
      [
        "ĠáĪĪ",
        "áĪĿáĪ¥áĪ"
      ],
      [
        "áĪį",
        "áĬŃ"
      ],
      [
        "áĪį",
        "áĭİ"
      ],
      [
        "áĪį",
        "áĬ®"
      ],
      [
        "áĪį",
        "áĬ¥áī°"
      ],
      [
        "áĪ¨",
        "áĪµ"
      ],
      [
        "áĪ¨",
        "áĪ¨"
      ],
      [
        "ĠáĬ¥áĪ",
        "ī"
      ],
      [
        "ĠáĬ¥áĪ",
        "´áĭŃ"
      ],
      [
        "áĭ¨",
        "áīµ"
      ],
      [
        "áĬł",
        "áīµ"
      ],
      [
        "áĬł",
        "áĬ©"
      ],
      [
        "áĬł",
        "áĭĺáĭĺ"
      ],
      [
        "áĬł",
        "áĪĺáĬķ"
      ],
      [
        "áĪĻ",
        "áīµ"
      ],
      [
        "áĪĻ",
        "áī¶áĪĻ"
      ],
      [
        "Ġáĭĺ",
        "áīµ"
      ],
      [
        "Ġáĭĺ",
        "áĬ¥"
      ],
      [
        "Ġáĭĺ",
        "áĭĪ"
      ],
      [
        "Ġáĭĺ",
        "áĪķ"
      ],
      [
        "Ġáĭĺ",
        "áĬ¥áĪ"
      ],
      [
        "Ġáĭĺ",
        "áĮ¸"
      ],
      [
        "Ġáĭĺ",
        "áĪŃáĬ¥áĬ¨"
      ],
      [
        "Ġáĭĺ",
        "áĬªáĭ³áĬķ"
      ],
      [
        "áĭ°",
        "áĪ¨"
      ],
      [
        "áĭ°",
        "áĭ¨"
      ],
      [
        "áĭ°",
        "áĪ±"
      ],
      [
        "áĭ°",
        "áĬĥáĪª"
      ],
      [
        "áĭ°",
        "áĭĬáĪģ"
      ],
      [
        "áĭķ",
        "áĭķ"
      ],
      [
        "áĭķ",
        "áīĢ"
      ],
      [
        "áĭķ",
        "áīĨ"
      ],
      [
        "áĬĲ",
        "áĭ¨"
      ],
      [
        "áĬĲ",
        "áĬĴ"
      ],
      [
        "áĬĲ",
        "áĭ©"
      ],
      [
        "áĪĪ",
        "áįĪ"
      ],
      [
        "áĪĪ",
        "áĬ®"
      ],
      [
        "áĬ¨",
        "áĪŃ"
      ],
      [
        "áĬ¨",
        "áĭ¨"
      ],
      [
        "áĬ¨",
        "áĭ®áĪĻ"
      ],
      [
        "áĬħ",
        "áĭĪ"
      ],
      [
        "áĬħ",
        "áīłáĪ¨"
      ],
      [
        "ĠáĬ¥",
        "áīµ"
      ],
      [
        "ĠáĬ¥",
        "áĭĪ"
      ],
      [
        "ĠáĬ¥",
        "áĬ©"
      ],
      [
        "ĠáĮ",
        "ł"
      ],
      [
        "ĠáĮ",
        "¥áĪ"
      ],
      [
        "ĠáĮ",
        "İáĪŃ"
      ],
      [
        "ĠáĮ",
        "³áĮ"
      ],
      [
        "ĠáĮ",
        "»áĭµáīħ"
      ],
      [
        "áĪ°",
        "áĪĿ"
      ],
      [
        "áĭį",
        "áĪ¨"
      ],
      [
        "áĭį",
        "áī³"
      ],
      [
        "áĭį",
        "áĪĢ"
      ],
      [
        "áī¥",
        "áĬ¡"
      ],
      [
        "ĠáĪĺ",
        "áĪĽ"
      ],
      [
        "ĠáĪĺ",
        "áĪ³"
      ],
      [
        "ĠáĪĺ",
        "áĮ½"
      ],
      [
        "ĠáĪĺ",
        "áĮ»"
      ],
      [
        "ĠáĪĺ",
        "áĪĪáĬ®"
      ],
      [
        "áĪĽ",
        "áīµ"
      ],
      [
        "áĪĽ",
        "áĪģ"
      ],
      [
        "áĪĽ",
        "áĪ¥"
      ],
      [
        "áĪĽ",
        "áĭ²"
      ],
      [
        "áīħ",
        "áī¥"
      ],
      [
        "ĠáĭŃ",
        "áĪµ"
      ],
      [
        "ĠáĭŃ",
        "áĬ©áĬķ"
      ],
      [
        "ĠáĭŃ",
        "áĪ¢áĮ¥"
      ],
      [
        "ĠáĭŃ",
        "áĭķáīĢ"
      ],
      [
        "áĭ«",
        "áīµ"
      ],
      [
        "áĭ«",
        "áĬĴ"
      ],
      [
        "áĭ«",
        "áĪµáī°áĪŃáĬ¢"
      ],
      [
        "áĭ³",
        "áĮį"
      ],
      [
        "áĭ³",
        "áĭĬáīµáĬĴ"
      ],
      [
        "áĭĺ",
        "áĪĿáĭī"
      ],
      [
        "ĠáĭĪáĬł",
        "áīł"
      ],
      [
        "ĠáĭĪáĬł",
        "áĬķáīł"
      ],
      [
        "ĠáĭĪáĬł",
        "áĬķáĪ°"
      ],
      [
        "áĬŃ",
        "áĪŃ"
      ],
      [
        "áĬŃ",
        "áĭĭ"
      ],
      [
        "áĬŃ",
        "áĪī"
      ],
      [
        "áĬŃ",
        "áĪļ"
      ],
      [
        "áĬŃ",
        "áĪµáĭµ"
      ],
      [
        "áī±",
        "áĪ³"
      ],
      [
        "áĬĵ",
        "áī°"
      ],
      [
        "áĮĪ",
        "áĪŃ"
      ],
      [
        "áĮĪ",
        "áĪ°"
      ],
      [
        "áĮĪ",
        "áĪ¥"
      ],
      [
        "ĠáĬ¥áĪĿ",
        "áĭ®"
      ],
      [
        "ĠáĬ¥áĪĿ",
        "áĭ°áīĤ"
      ],
      [
        "Ġáī°",
        "áĬĢ"
      ],
      [
        "Ġáī°",
        "áĪ£"
      ],
      [
        "Ġáī°",
        "áĪ°áĪĿ"
      ],
      [
        "ĠáĭĪáĬ¥áĪ",
        "ī"
      ],
      [
        "ĠáĭĪáĬ¥áĪ",
        "ĺ"
      ],
      [
        "ĠáĭĪáĭŃ",
        "áĭĺ"
      ],
      [
        "ĠáĭĪáĭŃ",
        "áĮ¸áĭįáĪŃáĭĭ"
      ],
      [
        "áįį",
        "áīµ"
      ],
      [
        "áįį",
        "áĪ«"
      ],
      [
        "áįį",
        "áĬ¡"
      ],
      [
        "áĪĭ",
        "áīµ"
      ],
      [
        "áĪķ",
        "áĪŃ"
      ],
      [
        "áĪķ",
        "áĪł"
      ],
      [
        "áĭĲ",
        "áĭĸ"
      ],
      [
        "áĭĲ",
        "áī¢"
      ],
      [
        "áīĢ",
        "áĭį"
      ],
      [
        "áī²",
        "áĪĨáĪĻ"
      ],
      [
        "ĠáĬ¨",
        "áĪŃáĪł"
      ],
      [
        "áĭĿ",
        "áĬħ"
      ],
      [
        "áĭĿ",
        "áĪĻáīµ"
      ],
      [
        "áĭĿ",
        "áĪĽáĭ²"
      ],
      [
        "ĠáĭĪáīł",
        "áĬĢáīł"
      ],
      [
        "ĠáĭĪáīł",
        "áĭ°áĬĥáĪª"
      ],
      [
        "ĠáĬ¢",
        "áĭ«"
      ],
      [
        "ĠáĬ¢",
        "áĬ®áĬĲ"
      ],
      [
        "ĠáĬ¢",
        "áī°áĭĲáĭ°áĭĪ"
      ],
      [
        "ĠáĬ¢",
        "áĪŃáī±áĭķ"
      ],
      [
        "áĬĢ",
        "áĭ°"
      ],
      [
        "áĪ³",
        "áĪį"
      ],
      [
        "áĪ³",
        "áĪ¨"
      ],
      [
        "áĪ³",
        "áĭĬáīµ"
      ],
      [
        "áī³",
        "áĪĮ"
      ],
      [
        "ĠáĪ°",
        "áĪŃ"
      ],
      [
        "ĠáĪ°",
        "áĭŃáĮ£áĬķ"
      ],
      [
        "áĪ®",
        "áĬķ"
      ],
      [
        "áĪ®",
        "áĭµ"
      ],
      [
        "áĪī",
        "áĭ¶"
      ],
      [
        "Ġáĭį",
        "áĪīáĭ¶"
      ],
      [
        "áī¥áĪŃ",
        "áĪĥ"
      ],
      [
        "ĠáĮ½",
        "áĬĳ"
      ],
      [
        "ĠáĮ½",
        "áĪĳáįĭ"
      ],
      [
        "áī¡",
        "áĪŃ"
      ],
      [
        "áĪĬ",
        "áĭŃ"
      ],
      [
        "áĪĬ",
        "áĪĭáī°"
      ],
      [
        "áĪĬ",
        "áĬĵáĭ¨"
      ],
      [
        "Ġáĭ°",
        "áī¥áī°áĪ«"
      ],
      [
        "ĠáĭĪáĪį",
        "áĭ°"
      ],
      [
        "áĮĭ",
        "áī°"
      ],
      [
        "áĮĭ",
        "áĬķáĬķ"
      ],
      [
        "Ġáīħ",
        "áĭµáĪĺ"
      ],
      [
        "Ġáį",
        "¬"
      ],
      [
        "Ġáį",
        "¯"
      ],
      [
        "Ġáį",
        "ĭ"
      ],
      [
        "áĪĲ",
        "áī²"
      ],
      [
        "áĪĲ",
        "áĪİáĪĻ"
      ],
      [
        "ĠáĭĪáĪĺ",
        "áĬķáĮįáĪ¥"
      ],
      [
        "ĠáĭĪáĪĺ",
        "áĪĽáĪ¥"
      ],
      [
        "ĠáĪĽ",
        "áĭ¨"
      ],
      [
        "ĠáĪĽ",
        "áĪķáĪĭ"
      ],
      [
        "ĠáĪĽ",
        "áĪŃáĭ«"
      ],
      [
        "ĠáĪĽ",
        "áĬħáīłáĪ¨"
      ],
      [
        "ĠáĪĽ",
        "áĭįáī³"
      ],
      [
        "ĠáĪĽ",
        "áī±áĪ³"
      ],
      [
        "ĠáĪĪáĬ¥",
        "áĬģ"
      ],
      [
        "ĠáĪĪáĬ¥",
        "áĬ¨áĭŃ"
      ],
      [
        "áĪĮ",
        "áĪĿ"
      ],
      [
        "áĪĮ",
        "áĪģ"
      ],
      [
        "áī£",
        "áĮĭáī°"
      ],
      [
        "Ġáī³",
        "áĪķáī°"
      ],
      [
        "Ġáī³",
        "áĬķáĪ¶áĪ±"
      ],
      [
        "ĠáĮĪ",
        "áī¥áĪ¨"
      ],
      [
        "ĠáĮĪ",
        "áĮ¹"
      ],
      [
        "áĪ¥áĪ",
        "ĵ"
      ],
      [
        "áĪ¥áĪ",
        "ĿáĪ¨"
      ],
      [
        "ĠáĭĪáī°",
        "áī£áĪ¨"
      ],
      [
        "ĠáĪĭ",
        "áĪľ"
      ],
      [
        "Ġáīµ",
        "áĬ¥áĭĽ"
      ],
      [
        "Ġáīµ",
        "áĬĲáī¥áĪŃ"
      ],
      [
        "Ġáīµ",
        "áĭķáī¢"
      ],
      [
        "Ġáīµ",
        "áĪĺáĪµáĪį"
      ],
      [
        "Ġáīĥ",
        "áĪį"
      ],
      [
        "Ġáīĥ",
        "áĪĪ"
      ],
      [
        "Ġáīĥ",
        "áĪįáĭ¨"
      ],
      [
        "áĭĪáĪŃ",
        "áĭµ"
      ],
      [
        "áĭĪáĪŃ",
        "áĭ³"
      ],
      [
        "ĠáĭĪáĭŃáī¤",
        "áĪī"
      ],
      [
        "áīĥ",
        "áĪįáĭ¨"
      ],
      [
        "ĠáĭĪáĪĿ",
        "áĪįáĬ¥áī°"
      ],
      [
        "áĪħ",
        "áĮī"
      ],
      [
        "ĠáĭĪáĭĪ",
        "áĪįáĭµ"
      ],
      [
        "ĠáīłáĬł",
        "áĪŃáĬłáĭ«"
      ],
      [
        "ĠáĬ¥áĪĪ",
        "áī¥áĪµ"
      ],
      [
        "áĪ¶",
        "áĪĻ"
      ],
      [
        "áĭĵ",
        "áĬķ"
      ],
      [
        "áĭĵ",
        "áĪĺáī°"
      ],
      [
        "áĬĸ",
        "áĪĻ"
      ],
      [
        "Ġáĭ«",
        "áĪ®áĭµ"
      ],
      [
        "ĠáĭĪáĬ¢",
        "áī°"
      ],
      [
        "ĠáĭĪáĬ¥",
        "áī¥"
      ],
      [
        "ĠáĭĪáĬ¥",
        "áī¤"
      ],
      [
        "ĠáĭĪáĬ¥áĪĿ",
        "áĬĲ"
      ],
      [
        "ĠáĭĪáĬ¥áĪĿ",
        "áīħáĭµáĪĺ"
      ],
      [
        "ĠáĪĿáĪµ",
        "áĪĮáĬ¨"
      ],
      [
        "áĪ±",
        "áĪµ"
      ],
      [
        "áĭĽ",
        "áī²"
      ],
      [
        "ĠáĭĿ",
        "áĬķáī±"
      ],
      [
        "ĠáĭĿ",
        "áĪĻáī¶áĪĻ"
      ],
      [
        "ĠáĪŃ",
        "áī±"
      ],
      [
        "ĠáĪŃ",
        "áĬ©"
      ],
      [
        "ĠáīĢ",
        "áī°"
      ],
      [
        "ĠáīĢ",
        "áĪµáī°"
      ],
      [
        "ĠáīĢ",
        "áī³áĪĮ"
      ],
      [
        "áįĭ",
        "áĬŃáĪµáĭµ"
      ],
      [
        "ĠáĪĪáĬł",
        "áī¤áĪį"
      ],
      [
        "ĠáĭĺáĭŃ",
        "áī¤"
      ],
      [
        "ĠáĭŃáī¤",
        "áĪİ"
      ],
      [
        "ĠáĬ¢áĭŃ",
        "áīµáĪĺ"
      ],
      [
        "ĠáĬ¢áĭŃ",
        "áī¥áĪįáĭĳ"
      ],
      [
        "ĠáĬ¢áĭŃ",
        "áĭĺáĪĿáĭī"
      ],
      [
        "ĠáĭĪáĪĪ",
        "áĪĺáĬķáįĪáĪµ"
      ],
      [
        "ĠáĭĪáĬ£",
        "áĪµáī°áĪŃáĬ¢"
      ],
      [
        "ĠáĭĪáĬ£",
        "áĭĪáĪŃáĭ³"
      ],
      [
        "ĠáĪĪáĭ°áīĤ",
        "áīħáĬ¨"
      ],
      [
        "Ġáįį",
        "áĪŃáĪĢ"
      ],
      [
        "Ġáįį",
        "áĮ¥áĪ¨"
      ],
      [
        "Ġáįį",
        "áĪ¥áĪĵ"
      ],
      [
        "áĪľ",
        "áĪģ"
      ],
      [
        "áĭ²",
        "áĪĻ"
      ],
      [
        "ĠáĬĲ",
        "áī¢"
      ],
      [
        "ĠáĭĪáĭĺ",
        "áĬ¥áĬķáīłáĪĪ"
      ],
      [
        "áĮ¥",
        "áĬķ"
      ],
      [
        "áĪŃáĬ¥",
        "áĭ¨"
      ],
      [
        "áĭĪáĪį",
        "áĭµ"
      ],
      [
        "ĠáĪķáĮį",
        "áĭ¨"
      ],
      [
        "áĪ´",
        "áĭİáĬķ"
      ],
      [
        "Ġáĭ²",
        "áī£áĮĭáī°"
      ],
      [
        "Ġáĭķ",
        "áįħ"
      ],
      [
        "ĠáĭĪáĪ°",
        "áĪĺ"
      ],
      [
        "ĠáĬ¥áĪĺ",
        "áĪ°"
      ],
      [
        "ĠáĪµáī¥áĪĲ",
        "áī²áĪĨáĪĻ"
      ],
      [
        "ĠáĮį",
        "áī¥"
      ],
      [
        "áįħ",
        "áĬł"
      ],
      [
        "ĠáĪĪáĭĺ",
        "áĪŃáĬ¥áĬ¨"
      ],
      [
        "áĪįáĬ¤",
        "áĪį"
      ],
      [
        "áĭķáīł",
        "áĭŃ"
      ],
      [
        "Ġáĭ°áīĤ",
        "áīĢ"
      ],
      [
        "Ġáĭ°áīĤ",
        "áīģ"
      ],
      [
        "ĠáĭĲ",
        "áĭ°áĭī"
      ],
      [
        "ĠáĬ«",
        "áĭķáīł"
      ],
      [
        "ĠáĬħ",
        "áĪĬáĬĵáĭ¨"
      ],
      [
        "ĠáĭĪáįĪ",
        "áĭµáįĭáĭ°"
      ],
      [
        "ĠáĭĪáĪĽ",
        "áĬ¥áĪ"
      ],
      [
        "ĠáĭĪáĪĽ",
        "áĬħáĭ°"
      ],
      [
        "ĠáĭĪáĭįáĬ¥áī±",
        "áĪ°"
      ],
      [
        "ĠáĪ¥",
        "áĭķáĪĪ"
      ],
      [
        "áĬķáĪµ",
        "áīµ"
      ],
      [
        "ĠáĭĪáĪĺáĬķáįĪ",
        "áĪµ"
      ],
      [
        "ĠáĭĪáĪĺáĬķáįĪ",
        "áīĢ"
      ],
      [
        "ĠáĪµáĪĿ",
        "áĭķ"
      ],
      [
        "ĠáĪµáĪĿ",
        "áĬ¨"
      ],
      [
        "ĠáįĪáĮ£",
        "áĪª"
      ],
      [
        "ĠáĪĺáĬķáĮįáĪ¥áīµ",
        "áĭ¨"
      ],
      [
        "ĠáĬłáĪĿáĪĭ",
        "áĬŃ"
      ],
      [
        "ĠáĬ©",
        "áĬĲáĬĴ"
      ],
      [
        "ĠáĭĪáĬķ",
        "áī¡áĪŃ"
      ],
      [
        "ĠáĪĲ",
        "áĭĺ"
      ],
      [
        "Ġáī¥áĪ",
        "ŃáĪĥ"
      ],
      [
        "ĠáĬłáĪį",
        "áįĭáĬŃáĪµáĭµ"
      ],
      [
        "ĠáĪĺáĪĭ",
        "áĪįáĬ¤áĪį"
      ],
      [
        "ĠáĪĺáĭµáĬĢáĬĴ",
        "áī°"
      ],
      [
        "Ġáī°áĭĲ",
        "áĭµáĭİ"
      ],
      [
        "ĠáĭĪáĪįáĭµ",
        "áĭ¨"
      ],
      [
        "ĠáĬķáĮī",
        "áĪł"
      ],
      [
        "ĠáĪİ",
        "áĪĻ"
      ],
      [
        "ĠáĪİ",
        "áī±"
      ],
      [
        "ĠáĪĦáĬĸ",
        "áĪµ"
      ],
      [
        "ĠáĪĦáĬĸ",
        "áĬŃ"
      ],
      [
        "áĬķáĪ¥",
        "áĬ¦"
      ],
      [
        "ĠáĭĪáĬĲ",
        "áĪ¥"
      ],
      [
        "áįĮ",
        "áĬĳ"
      ],
      [
        "ĠáĬłáĭķ",
        "áĭŃ"
      ],
      [
        "ĠáĬłáīłáĭĬ",
        "áĪĨáĪĻ"
      ],
      [
        "áĪ¨áĭ°",
        "áīµ"
      ],
      [
        "Ġáĭĺáīł",
        "áĬ¥áĬķáī°"
      ],
      [
        "ĠáĮ£áĭĸ",
        "áī°"
      ],
      [
        "ĠáĬ¨áĬĵ",
        "áĬ£áĬķ"
      ],
      [
        "Ġáīħáĭµ",
        "áĪľáĪģ"
      ],
      [
        "ĠáĪĺáĬķáįĪ",
        "áĪµ"
      ],
      [
        "ĠáĭĪáĭĪáĪĢ",
        "áī¦"
      ],
      [
        "ĠáĪ¥áĮĭ",
        "áĪģ"
      ],
      [
        "ĠáĭĺáįĪáĮł",
        "áĪŃáĬ©"
      ],
      [
        "Ġáī°áįĪáĮ¥áĪ",
        "©"
      ],
      [
        "Ġáĭĵ",
        "áĪĪáĪĿ"
      ],
      [
        "ĠáĭĪáĪł",
        "áĪĿ"
      ],
      [
        "ĠáĭĪáī¥áĪŃ",
        "áīµ"
      ],
      [
        "ĠáĪ³",
        "áĪĭ"
      ],
      [
        "Ġáī£",
        "áĪķáĪŃ"
      ],
      [
        "áĪŃáīµ",
        "áĭķ"
      ],
      [
        "ĠáĬłáĪĽ",
        "áĪįáĬŃ"
      ],
      [
        "Ġáīłáĭ°",
        "áī¥áĪ¨"
      ],
      [
        "ĠáĬ¥áĪĻ",
        "áĬķáī±"
      ],
      [
        "ĠáĬ¥áĮĪ",
        "áĪªáĪģ"
      ],
      [
        "ĠáĪĺáīħ",
        "áĭ°áĪ±"
      ],
      [
        "áĪĽáĪµ",
        "áĬĵ"
      ],
      [
        "áĭ«áĭµáĬħ",
        "áĬķ"
      ],
      [
        "ĠáĬ¥áĪĿáīĢ",
        "áĭ³áĪļ"
      ],
      [
        "áĪ¥áĬ¥",
        "áĭİ"
      ],
      [
        "Ġáī°áĮĪ",
        "áī¥áĪ¨áīµ"
      ],
      [
        "ĠáĬ¢áīµ",
        "áįįáĪ«"
      ],
      [
        "ĠáĬĢáĪį",
        "áīģ"
      ],
      [
        "ĠáĬĢáĮ¢áĬł",
        "áī¶áĪĻ"
      ],
      [
        "ĠáĬķáĮ¹",
        "áĪķ"
      ],
      [
        "ĠáĮĪáī¥áĪŃ",
        "áĭĭ"
      ],
      [
        "ĠáįĪáĮł",
        "áĪ«"
      ],
      [
        "ĠáĬ«áĪħáĬĵ",
        "áīµ"
      ],
      [
        "ĠáĬłáĪĿáĪĭáĬª",
        "áĭ¨"
      ],
      [
        "ĠáĭĪáĭ¨áĭĲ",
        "áīħáī¥"
      ],
      [
        "ĠáĪ«áĬ¥",
        "áĭ©"
      ],
      [
        "«áį",
        "»áį"
      ],
      [
        "ĠáĭĪáĪ«",
        "áĪ´"
      ],
      [
        "ĠáĭĪáĪļ",
        "áĪĺ"
      ],
      [
        "ĠáĭĪáī¥áīµ",
        "áĬ¨"
      ],
      [
        "áĮİáĪŃ",
        "áĭ®áĪµ"
      ],
      [
        "áĬ¥áī£",
        "áĬķ"
      ],
      [
        "ĠáĬłáīħ",
        "áĭ²áĪĻ"
      ],
      [
        "ĠáĬłáĬŃ",
        "áĪĬáĪĭáī°"
      ],
      [
        "áĭŃáĪĽ",
        "áĬĸáīµ"
      ],
      [
        "ĠáīłáĪĿ",
        "áĬŃáĪ¨"
      ],
      [
        "Ġáīłáī¥",
        "áĭĿáĬĢ"
      ],
      [
        "Ġáīłáĭ²",
        "áīł"
      ],
      [
        "ĠáĪĪáĭĵ",
        "áĪĪáĪĿ"
      ],
      [
        "áĭķáīĨ",
        "áī¥"
      ],
      [
        "ĠáĮİáĪŃ",
        "áĮİáĪŃáĭ®áĪµ"
      ],
      [
        "ĠáĮ³áĮ",
        "³áĪ³áīµ"
      ],
      [
        "ĠáĪĺáĪĪáĬ®",
        "áīµ"
      ],
      [
        "ĠáĭŃáĭķáīĢ",
        "áī¡"
      ],
      [
        "ĠáĬ¥áĪĿáĭ®",
        "áĪĿ"
      ],
      [
        "ĠáĬ¥áĪĿáĭ°áīĤ",
        "áīĢ"
      ],
      [
        "áĭĲáĭĸ",
        "áĪĻ"
      ],
      [
        "ĠáĭįáĪīáĭ¶",
        "áĪĻ"
      ],
      [
        "áĮĭáĬķáĬķ",
        "áīµ"
      ],
      [
        "ĠáĭĪáĪĺáĪĽáĪ¥",
        "áĮł"
      ],
      [
        "ĠáĪĽáĪŃáĭ«",
        "áĪĿ"
      ],
      [
        "ĠáĪĽáī±áĪ³",
        "áĪĭ"
      ],
      [
        "ĠáĪĪáĬ¥áĬģ",
        "áĬ¨"
      ],
      [
        "ĠáĪĭáĪľ",
        "áĬħ"
      ],
      [
        "ĠáįįáĪŃáĪĢ",
        "áī°"
      ],
      [
        "ĠáįįáĮ¥áĪ¨",
        "áīµ"
      ],
      [
        "ĠáĬĲáī¢",
        "áĭ«áīµ"
      ],
      [
        "ĠáĭĪáįĪáĭµáįĭáĭ°",
        "áĪ°"
      ],
      [
        "ĠáĬłáĪĽáĪįáĬŃ",
        "áī°"
      ],
      [
        "ĠáĬ¢áīµáįįáĪ«",
        "áĪħ"
      ],
      [
        "«áį»áį",
        "²"
      ],
      [
        "¡",
        "áĭķ"
      ],
      [
        "¡",
        "áĪķ"
      ],
      [
        "¢",
        "áĪ¨"
      ],
      [
        "¢",
        "áĪĺáī°"
      ],
      [
        "¤",
        "áĭ"
      ],
      [
        "¤",
        "áĭİáĬķ"
      ],
      [
        "¤",
        "áįī"
      ],
      [
        "¥",
        "áĭ©"
      ],
      [
        "¦",
        "áĪŃ"
      ],
      [
        "¨",
        "áĪ¨"
      ],
      [
        "¨",
        "áĮ»"
      ],
      [
        "©",
        "áĪĢ"
      ],
      [
        "ª",
        "áĭ«"
      ],
      [
        "«",
        "áīħ"
      ],
      [
        "¬",
        "áĮ"
      ],
      [
        "¬",
        "áĪµ"
      ],
      [
        "®",
        "áĪŃ"
      ],
      [
        "®",
        "áĬĳ"
      ],
      [
        "°",
        "áĪ«"
      ],
      [
        "°",
        "áĪ³"
      ],
      [
        "±",
        "áĪ¨"
      ],
      [
        "²",
        "áĬĵ"
      ],
      [
        "³",
        "áīµ"
      ],
      [
        "³",
        "áĮ£"
      ],
      [
        "´",
        "áĬł"
      ],
      [
        "´",
        "áĭĽ"
      ],
      [
        "µ",
        "áĭ¨"
      ],
      [
        "µ",
        "áĭ«"
      ],
      [
        "µ",
        "áĪİ"
      ],
      [
        "µ",
        "áĪĽáīµ"
      ],
      [
        "ģ",
        "áĪĿ"
      ],
      [
        "ģ",
        "áĭķ"
      ],
      [
        "ģ",
        "áī¦"
      ],
      [
        "Ĥ",
        "áĮł"
      ],
      [
        "ĥ",
        "áĪŃ"
      ],
      [
        "ĥ",
        "áĬ¥"
      ],
      [
        "ĥ",
        "áĪį"
      ],
      [
        "ĥ",
        "áĮ¥"
      ],
      [
        "ĥ",
        "áĭŃáĪĽáĬĸáīµ"
      ],
      [
        "Ħ",
        "áĪ«"
      ],
      [
        "Ħ",
        "áĪī"
      ],
      [
        "Ħ",
        "áĪĬ"
      ],
      [
        "Ĩ",
        "áĪĺ"
      ],
      [
        "Ĩ",
        "áĮ»"
      ],
      [
        "Ī",
        "áĪŃ"
      ],
      [
        "ī",
        "áĪµ"
      ],
      [
        "ī",
        "áĪ¨"
      ],
      [
        "Ĭ",
        "áĭµ"
      ],
      [
        "ĭ",
        "áĬĶ"
      ],
      [
        "Į",
        "áĮĭ"
      ],
      [
        "Į",
        "áĭİáĬķ"
      ],
      [
        "į",
        "áĪĽ"
      ],
      [
        "İ",
        "áĪŀ"
      ],
      [
        "ĳ",
        "áĬĥ"
      ],
      [
        "ĵ",
        "áĪĲ"
      ],
      [
        "Ķ",
        "áĪ¨"
      ],
      [
        "Ķ",
        "áĪ±"
      ],
      [
        "ķ",
        "áĪ¨"
      ],
      [
        "ķ",
        "áĪŃáī°"
      ],
      [
        "ĸ",
        "áĪ¨"
      ],
      [
        "ĸ",
        "áĪĻ"
      ],
      [
        "ĸ",
        "áĪ©"
      ],
      [
        "ĺ",
        "áĬĴ"
      ],
      [
        "ĺ",
        "áĪ®"
      ],
      [
        "Ľ",
        "áĬħáĭ°áĪ¨"
      ],
      [
        "ľ",
        "áĬĵ"
      ],
      [
        "Ŀ",
        "áĪ®áĪĻ"
      ],
      [
        "ł",
        "áĪĿ"
      ],
      [
        "Ń",
        "áĮ"
      ],
      [
        "Ń",
        "áī¥áĪ«"
      ],
      [
        "áĪ",
        "¤áĪŀ"
      ],
      [
        "áĪ",
        "¡áĪķ"
      ],
      [
        "áĪ",
        "ĦáĪī"
      ],
      [
        "áĪ",
        "ĸáĪ©"
      ],
      [
        "áĬ",
        "ĤáĮł"
      ],
      [
        "áĬ",
        "ĦáĪĬ"
      ],
      [
        "áī",
        "ĪáĪŃ"
      ],
      [
        "Ġáĭ",
        "®áĪŃ"
      ],
      [
        "Ġáĭ",
        "µáĪĽáīµ"
      ],
      [
        "Ġáĭ",
        "ľáĬĵ"
      ],
      [
        "ĠáĬ",
        "ªáĭ³"
      ],
      [
        "ĠáĬ",
        "¤áįī"
      ],
      [
        "ĠáĬ",
        "¦áĪŃ"
      ],
      [
        "ĠáĬ",
        "®áĬĳ"
      ],
      [
        "ĠáĬ",
        "°áĪ³"
      ],
      [
        "ĠáĬ",
        "ĥáĮ¥"
      ],
      [
        "ĠáĬ",
        "ĦáĪ«"
      ],
      [
        "ĠáĬ",
        "ĳáĬĥ"
      ],
      [
        "ĠáĭĪ",
        "áĪŃ"
      ],
      [
        "ĠáĭĪ",
        "áĮį"
      ],
      [
        "ĠáĭĪ",
        "áĭµ"
      ],
      [
        "ĠáĭĪ",
        "áī¥áĪ"
      ],
      [
        "ĠáĭĪ",
        "áĭ«"
      ],
      [
        "ĠáĭĪ",
        "áī¤"
      ],
      [
        "ĠáĭĪ",
        "áįį"
      ],
      [
        "ĠáĭĪ",
        "áīĢ"
      ],
      [
        "ĠáĭĪ",
        "áĭĿ"
      ],
      [
        "ĠáĭĪ",
        "áĮ½"
      ],
      [
        "ĠáĭĪ",
        "áī¡"
      ],
      [
        "ĠáĭĪ",
        "áĪĬ"
      ],
      [
        "ĠáĭĪ",
        "áĪĲ"
      ],
      [
        "ĠáĭĪ",
        "áī£"
      ],
      [
        "ĠáĭĪ",
        "áĭĪáĪŃ"
      ],
      [
        "ĠáĭĪ",
        "áĪĥ"
      ],
      [
        "ĠáĭĪ",
        "áĭľ"
      ],
      [
        "ĠáĭĪ",
        "áĭįáĪµáī°"
      ],
      [
        "ĠáĭĪ",
        "áĪľ"
      ],
      [
        "ĠáĭĪ",
        "áĮ½áĭµáīħ"
      ],
      [
        "ĠáĭĪ",
        "áĮ»"
      ],
      [
        "ĠáĭĪ",
        "áī¥áĪ©"
      ],
      [
        "ĠáĭĪ",
        "áĮł"
      ],
      [
        "ĠáĭĪ",
        "áī£áĪ¨"
      ],
      [
        "ĠáĭĪ",
        "áĮ¸áĭį"
      ],
      [
        "ĠáĭĪ",
        "áĪ£"
      ],
      [
        "ĠáĭĪ",
        "áĮ¥áĪ"
      ],
      [
        "ĠáĭĪ",
        "áįĮ"
      ],
      [
        "ĠáĭĪ",
        "áĮĮ"
      ],
      [
        "ĠáĭĪ",
        "áįĢ"
      ],
      [
        "ĠáĭĪ",
        "áĭ«áĭµáĬħ"
      ],
      [
        "ĠáĭĪ",
        "áĪŃáī±áĭķ"
      ],
      [
        "ĠáĭĪ",
        "áĪ¦"
      ],
      [
        "ĠáĭĪ",
        "áĭ³áĭĬáīµáĬĴ"
      ],
      [
        "ĠáĭĪ",
        "áīĥáĪįáĭ¨"
      ],
      [
        "ĠáĭĪ",
        "áĭĽáī²"
      ],
      [
        "ĠáĭĪ",
        "áĭķáīłáĭŃ"
      ],
      [
        "ĠáĭĪ",
        "áĪ¨áĭ°áīµ"
      ],
      [
        "ĠáĭĪ",
        "áĪ¤áĪŀ"
      ],
      [
        "áĮ",
        "İ"
      ],
      [
        "áĮ",
        "µáĭ«"
      ],
      [
        "áĮ",
        "Ĭáĭµ"
      ],
      [
        "áĮ",
        "ķáĪ¨"
      ],
      [
        "ĠáĪ",
        "¥áĪ"
      ],
      [
        "ĠáĪ",
        "¤áĪŀ"
      ],
      [
        "ĠáĪ",
        "¡áĭķ"
      ],
      [
        "ĠáĪ",
        "¢áĪĺáī°"
      ],
      [
        "ĠáĪ",
        "²áĬĵ"
      ],
      [
        "ĠáĪ",
        "ĥáĭŃáĪĽáĬĸáīµ"
      ],
      [
        "ĠáĪ",
        "ĸáĪ¨"
      ],
      [
        "Ġáī",
        "£áĭĸ"
      ],
      [
        "Ġáī",
        "ģáĪĿ"
      ],
      [
        "Ġáī",
        "ĨáĪĺ"
      ],
      [
        "áĬķ",
        "áį"
      ],
      [
        "áĬķ",
        "áĮį"
      ],
      [
        "áĬķ",
        "áĭ³"
      ],
      [
        "áĬķ",
        "áĮ½"
      ],
      [
        "áĬķ",
        "áĭ©"
      ],
      [
        "áĬķ",
        "áīģ"
      ],
      [
        "áĬķ",
        "áīĨ"
      ],
      [
        "áĬķ",
        "áĬ¥áĪµ"
      ],
      [
        "áī°",
        "áĪĺ"
      ],
      [
        "áī°",
        "áĪĻ"
      ],
      [
        "áī°",
        "áĪŃáĬ¥áĭ¨"
      ],
      [
        "áĪŃ",
        "áĭ¨"
      ],
      [
        "áĪŃ",
        "áĪģ"
      ],
      [
        "áĪŃ",
        "áĬĲ"
      ],
      [
        "áĪŃ",
        "áĮĪ"
      ],
      [
        "áĪŃ",
        "áī¦"
      ],
      [
        "áĪŃ",
        "áĪĲ"
      ],
      [
        "áĪŃ",
        "áĬ¥áĪ"
      ],
      [
        "áĪŃ",
        "áĮī"
      ],
      [
        "áĪŃ",
        "áĭ©"
      ],
      [
        "áĪŃ",
        "áĬ®"
      ],
      [
        "áĪŃ",
        "áĭľ"
      ],
      [
        "áĪŃ",
        "áĮ¡"
      ],
      [
        "áĪŃ",
        "áĬ°"
      ],
      [
        "áĪŃ",
        "áĮĮ"
      ],
      [
        "áĪŃ",
        "áĬħáĭĪ"
      ],
      [
        "áĪŃ",
        "áĬŃáĭĭ"
      ],
      [
        "áīµ",
        "áĬĲ"
      ],
      [
        "áīµ",
        "áĪķ"
      ],
      [
        "áīµ",
        "áĭĲ"
      ],
      [
        "áīµ",
        "áĬ©"
      ],
      [
        "áīµ",
        "áī£áĪ¨"
      ],
      [
        "áīµ",
        "áĭķáī¢"
      ],
      [
        "áīµ",
        "áĬłáĪĺáĬķ"
      ],
      [
        "ĠáĭĪáĬ",
        "ªáĭ³áĬķ"
      ],
      [
        "ĠáĭĪáĬ",
        "¬áĬķáĭ«"
      ],
      [
        "ĠáĭĪáĬ",
        "¤áĭ"
      ],
      [
        "ĠáĭĪáĬ",
        "ªáĭ«"
      ],
      [
        "ĠáĭĪáĬ",
        "¬áĮ"
      ],
      [
        "ĠáĭĪáĬ",
        "µáĪİ"
      ],
      [
        "ĠáĭĪáĬ",
        "ĨáĮ»"
      ],
      [
        "ĠáĭĪáĬ",
        "ĵáĪĲ"
      ],
      [
        "ĠáĭĪáĬ",
        "Ńáī¥áĪ«"
      ],
      [
        "áį",
        "±"
      ],
      [
        "áį",
        "Ĩ"
      ],
      [
        "áį",
        "Ń"
      ],
      [
        "áį",
        "«áį»áį²"
      ],
      [
        "áį",
        "ģáĭķ"
      ],
      [
        "áį",
        "ĥáĪŃ"
      ],
      [
        "áĪµ",
        "áĪĺ"
      ],
      [
        "áĪµ",
        "áĪĿ"
      ],
      [
        "áĪµ",
        "áįĪ"
      ],
      [
        "áĪµ",
        "áī¥"
      ],
      [
        "áĪµ",
        "áĪķ"
      ],
      [
        "áĪµ",
        "áįĭ"
      ],
      [
        "áĪµ",
        "áī¥áĪĲ"
      ],
      [
        "áĪµ",
        "áĮ¡"
      ],
      [
        "áĪµ",
        "áīĨ"
      ],
      [
        "áĪµ",
        "áĪŃáĭ©"
      ],
      [
        "áĮį",
        "áĭµ"
      ],
      [
        "áĮį",
        "áĪį"
      ],
      [
        "áĮį",
        "áĭķ"
      ],
      [
        "áĮį",
        "áĪī"
      ],
      [
        "áĮį",
        "áī¥áĪŃ"
      ],
      [
        "áĮį",
        "áī£"
      ],
      [
        "áĮį",
        "áī¥áī°"
      ],
      [
        "áĮį",
        "áĪķáĪł"
      ],
      [
        "áĭµ",
        "áĮį"
      ],
      [
        "áĭµ",
        "áĭµ"
      ],
      [
        "áĭµ",
        "áĪ¨"
      ],
      [
        "áĭµ",
        "áĭ¨"
      ],
      [
        "áĭµ",
        "áĬ¨"
      ],
      [
        "áĭµ",
        "áĪĽ"
      ],
      [
        "áĭµ",
        "áĪĭ"
      ],
      [
        "áĭµ",
        "áĬ©"
      ],
      [
        "áĭµ",
        "áĭ®áĬķ"
      ],
      [
        "áĭµ",
        "áīĥ"
      ],
      [
        "áĭµ",
        "áĭ«áĬķ"
      ],
      [
        "áĬ¥",
        "áĭ¨"
      ],
      [
        "áĬ¥",
        "áĭ°"
      ],
      [
        "áĬ¥",
        "áĭľ"
      ],
      [
        "áī¥áĪ",
        "±"
      ],
      [
        "áī¥áĪ",
        "ĳ"
      ],
      [
        "áī¥áĪ",
        "ĸ"
      ],
      [
        "áī¥áĪ",
        "ķáĪŃáī°"
      ],
      [
        "ĠáĬł",
        "áįį"
      ],
      [
        "ĠáĬł",
        "áĪ«"
      ],
      [
        "ĠáĬł",
        "áĪľ"
      ],
      [
        "ĠáĬł",
        "áĬĥ"
      ],
      [
        "ĠáĬł",
        "áĪļ"
      ],
      [
        "ĠáĬł",
        "áĬķáĪ°"
      ],
      [
        "ĠáĬł",
        "áĪµáīµ"
      ],
      [
        "ĠáĬł",
        "áĭĺáĭĺ"
      ],
      [
        "ĠáĬł",
        "áĪŃáĬłáĭ«"
      ],
      [
        "ĠáĬł",
        "áī¥áĪįáĭĳ"
      ],
      [
        "ĠáĬł",
        "áĮ¥áĪ¨"
      ],
      [
        "ĠáĬł",
        "áī°áĭĪ"
      ],
      [
        "ĠáĬł",
        "áĪķáĪł"
      ],
      [
        "ĠáĬł",
        "áĭĿáĪĽáĭ²"
      ],
      [
        "ĠáĬł",
        "áĪ®áĬķ"
      ],
      [
        "ĠáĬł",
        "áī¥áĪŃáĪĥ"
      ],
      [
        "ĠáĬł",
        "áĪĲáī²"
      ],
      [
        "ĠáĬł",
        "áĪħáĮī"
      ],
      [
        "ĠáĬł",
        "áĬķáĪµáīµ"
      ],
      [
        "ĠáĬł",
        "áĬķáĪ¥áĬ¦"
      ],
      [
        "ĠáĬł",
        "áĬ¥áī£áĬķ"
      ],
      [
        "ĠáĬł",
        "áĮĭáĬķáĬķáīµ"
      ],
      [
        "ĠáĬł",
        "áĭµáĮį"
      ],
      [
        "áĭŃ",
        "áī°"
      ],
      [
        "áĭŃ",
        "áĭĪ"
      ],
      [
        "áĭŃ",
        "áĭĭ"
      ],
      [
        "áĭŃ",
        "áĬ©"
      ],
      [
        "áĭŃ",
        "áī´"
      ],
      [
        "áĭŃ",
        "áĮ¥"
      ],
      [
        "áĭŃ",
        "áĮ¦"
      ],
      [
        "áĭŃ",
        "áĪĿáĪ°"
      ],
      [
        "áĭŃ",
        "áĬŃáĭĭ"
      ],
      [
        "áĭŃ",
        "áĬĸáĪĻ"
      ],
      [
        "áĪĺ",
        "áĪŃ"
      ],
      [
        "áĪĺ",
        "áĭį"
      ],
      [
        "áĪĺ",
        "áĭ©"
      ],
      [
        "áĪĺ",
        "áĪ©"
      ],
      [
        "áĪĺ",
        "áĭµáĬ¨"
      ],
      [
        "Ġáīł",
        "áĪ¨"
      ],
      [
        "Ġáīł",
        "áĭį"
      ],
      [
        "Ġáīł",
        "áĪł"
      ],
      [
        "Ġáīł",
        "áĭĺ"
      ],
      [
        "Ġáīł",
        "áĮĪ"
      ],
      [
        "Ġáīł",
        "áįį"
      ],
      [
        "Ġáīł",
        "áĪķ"
      ],
      [
        "Ġáīł",
        "áĭĲ"
      ],
      [
        "Ġáīł",
        "áĪĲ"
      ],
      [
        "Ġáīł",
        "áĮ¥"
      ],
      [
        "Ġáīł",
        "áĬķáĪµ"
      ],
      [
        "Ġáīł",
        "áĪĿáĭµáĪŃ"
      ],
      [
        "Ġáīł",
        "áī°áĭĲ"
      ],
      [
        "Ġáīł",
        "áīħáĭµáĪĺ"
      ],
      [
        "Ġáīł",
        "áĭĿáĬĢ"
      ],
      [
        "Ġáīł",
        "áīµáĬ¥áĭĽáĭĻ"
      ],
      [
        "Ġáīł",
        "áĬµáĪī"
      ],
      [
        "Ġáīł",
        "áĪĺáĪ°"
      ],
      [
        "Ġáīł",
        "áĬĲáįį"
      ],
      [
        "Ġáīł",
        "áĪ°áĪĽáĭ«áīµ"
      ],
      [
        "Ġáīł",
        "áĪŃáĬ¥áĪµ"
      ],
      [
        "Ġáīł",
        "áĪ¥áĪĿáĪ¨"
      ],
      [
        "Ġáīł",
        "áĪŃáīµáĭķ"
      ],
      [
        "Ġáīł",
        "áĬĤáĮł"
      ],
      [
        "Ġáīł",
        "áīµáĭķáī¢"
      ],
      [
        "Ġáīł",
        "áĪµáĪĺ"
      ],
      [
        "Ġáīł",
        "áĮįáĭķ"
      ],
      [
        "áīł",
        "áīµ"
      ],
      [
        "áīł",
        "áĪį"
      ],
      [
        "áīł",
        "áĬĴ"
      ],
      [
        "áīł",
        "áĪ«"
      ],
      [
        "áīł",
        "áīĢ"
      ],
      [
        "áīł",
        "áĪ®"
      ],
      [
        "áīł",
        "áĭ±"
      ],
      [
        "áīł",
        "áĪİ"
      ],
      [
        "áīł",
        "áĭĿáĬħ"
      ],
      [
        "áīł",
        "áĭŃáī°"
      ],
      [
        "áĪĿ",
        "áī°"
      ],
      [
        "áĪĿ",
        "áĪį"
      ],
      [
        "áĪĿ",
        "áĭ°"
      ],
      [
        "áĪĿ",
        "áĬ¨"
      ],
      [
        "áĪĿ",
        "áĬŃ"
      ],
      [
        "áĪĿ",
        "áĪĭ"
      ],
      [
        "áĪĿ",
        "áĭĸ"
      ],
      [
        "áĪĿ",
        "áĬĵáĬķ"
      ],
      [
        "áĪĿ",
        "áĪ³áĪį"
      ],
      [
        "áĪĿ",
        "áĪĲáĪİáĪĻ"
      ],
      [
        "ĠáĪĪ",
        "áĬĲ"
      ],
      [
        "ĠáĪĪ",
        "áĪĪ"
      ],
      [
        "ĠáĪĪ",
        "áĬħ"
      ],
      [
        "ĠáĪĪ",
        "áĭĪ"
      ],
      [
        "ĠáĪĪ",
        "áī¥"
      ],
      [
        "ĠáĪĪ",
        "áĭ«"
      ],
      [
        "ĠáĪĪ",
        "áīĢ"
      ],
      [
        "ĠáĪĪ",
        "áĪ³"
      ],
      [
        "ĠáĪĪ",
        "áĪ¥áĪ"
      ],
      [
        "ĠáĪĪ",
        "áĪ´"
      ],
      [
        "ĠáĪĪ",
        "áĪŀ"
      ],
      [
        "ĠáĪĪ",
        "áĬŃáĪĻ"
      ],
      [
        "ĠáĪĪ",
        "áĬ«"
      ],
      [
        "ĠáĪĪ",
        "áĪŃáĬ©"
      ],
      [
        "ĠáĪĪ",
        "áīłáĭį"
      ],
      [
        "ĠáĪĪ",
        "áĭĪáĪįáĭµ"
      ],
      [
        "ĠáĪĪ",
        "áĪŃáĬ¥áĪ"
      ],
      [
        "ĠáĪĪ",
        "áĪµáī¥áĪĲ"
      ],
      [
        "ĠáĪĪ",
        "áĮįáĪį"
      ],
      [
        "áĪį",
        "áĪµ"
      ],
      [
        "áĪį",
        "áī¥"
      ],
      [
        "áĪį",
        "áįį"
      ],
      [
        "áĪį",
        "áĪĭ"
      ],
      [
        "áĪį",
        "áīĢ"
      ],
      [
        "áĪį",
        "áĬ©"
      ],
      [
        "áĪį",
        "áĭ±"
      ],
      [
        "áĪį",
        "áĮī"
      ],
      [
        "áĪį",
        "áĭ²"
      ],
      [
        "áĪį",
        "áĬ¦"
      ],
      [
        "áĪį",
        "áī²áĪĥ"
      ],
      [
        "áĪ¨",
        "áī°"
      ],
      [
        "áĪ¨",
        "áīµ"
      ],
      [
        "áĪ¨",
        "áĭ³"
      ],
      [
        "áĪ¨",
        "áĮĪ"
      ],
      [
        "áĪ¨",
        "áĪ±"
      ],
      [
        "áĪ¨",
        "áĬ®"
      ],
      [
        "áĪ¨",
        "áĬµ"
      ],
      [
        "áĪ¨",
        "áĪŃáĬ¨"
      ],
      [
        "áĪ¨",
        "áĮįáĭµ"
      ],
      [
        "áĪ¨",
        "áĭŃáĬŃáĭĭ"
      ],
      [
        "áĪ¨",
        "áĪĿáī°"
      ],
      [
        "ĠáĬ¥áĪ",
        "ģáī¦áĪĻ"
      ],
      [
        "ĠáĬ¥áĪ",
        "±áĪ¨"
      ],
      [
        "ĠáĬ¥áĪ",
        "ģáī¦"
      ],
      [
        "ĠáĬ¥áĪ",
        "ĽáĬħáĭ°áĪ¨"
      ],
      [
        "áĭ¨",
        "áĭµ"
      ],
      [
        "áĭ¨",
        "áĪĪ"
      ],
      [
        "áĭ¨",
        "áĮ¥"
      ],
      [
        "áĭ¨",
        "áĮ¡"
      ],
      [
        "áĭ¨",
        "áĭįáĪĢ"
      ],
      [
        "áĬł",
        "áĭ³áĪĿ"
      ],
      [
        "áĬł",
        "áĪ¶"
      ],
      [
        "áĬł",
        "áĪįáĭİ"
      ],
      [
        "áĬł",
        "áĪ®áĬķ"
      ],
      [
        "áĬł",
        "áĪħáĮī"
      ],
      [
        "áĪĻ",
        "áĪ«"
      ],
      [
        "Ġáĭĺ",
        "áĬĲ"
      ],
      [
        "Ġáĭĺ",
        "áĪ°"
      ],
      [
        "Ġáĭĺ",
        "áīħ"
      ],
      [
        "Ġáĭĺ",
        "áĬ£"
      ],
      [
        "Ġáĭĺ",
        "áĬŃ"
      ],
      [
        "Ġáĭĺ",
        "áĬĵ"
      ],
      [
        "Ġáĭĺ",
        "áĮĪ"
      ],
      [
        "Ġáĭĺ",
        "áī¦"
      ],
      [
        "Ġáĭĺ",
        "áī³"
      ],
      [
        "Ġáĭĺ",
        "áĪ®"
      ],
      [
        "Ġáĭĺ",
        "áĪİ"
      ],
      [
        "Ġáĭĺ",
        "áĬ¥áĬķáīł"
      ],
      [
        "Ġáĭĺ",
        "áĬ¨áĪĺ"
      ],
      [
        "Ġáĭĺ",
        "áĪŃáĬ¡"
      ],
      [
        "Ġáĭĺ",
        "áĬ®áĬĲ"
      ],
      [
        "Ġáĭĺ",
        "áĪ¦"
      ],
      [
        "Ġáĭĺ",
        "áī°áĭĪ"
      ],
      [
        "Ġáĭĺ",
        "áĪĺáīµ"
      ],
      [
        "Ġáĭĺ",
        "áĭ«áĪµáī°áĪŃáĬ¢"
      ],
      [
        "Ġáĭĺ",
        "áĬĢáĭ°"
      ],
      [
        "Ġáĭĺ",
        "áĭ«áĭµáĬħáĬķ"
      ],
      [
        "Ġáĭĺ",
        "áĪµáĪĿ"
      ],
      [
        "áĭ°",
        "áĪ°"
      ],
      [
        "áĭ°",
        "áĪī"
      ],
      [
        "áĭ°",
        "áĪĺáĪ°"
      ],
      [
        "áĭ°",
        "áĪĺáīµ"
      ],
      [
        "áĭ°",
        "áĪĺáĪ©"
      ],
      [
        "áĭ°",
        "áĪĿáĬ¨"
      ],
      [
        "áĪģ",
        "áĪ«"
      ],
      [
        "áĪģ",
        "áĬ¬"
      ],
      [
        "áĭķ",
        "áīµ"
      ],
      [
        "áĭķ",
        "áĭ¨"
      ],
      [
        "áĭķ",
        "áī¶"
      ],
      [
        "áĭķ",
        "áĪª"
      ],
      [
        "áĭķ",
        "áįħ"
      ],
      [
        "áĭķ",
        "áĭī"
      ],
      [
        "áĭķ",
        "áĪĬáĭŃ"
      ],
      [
        "áĭķ",
        "áĭ°áĪ°"
      ],
      [
        "áĬĲ",
        "áĬĲ"
      ],
      [
        "áĬĲ",
        "áĮįáĪ¥"
      ],
      [
        "áĬĲ",
        "áĪ¥áĬ¥"
      ],
      [
        "áĬĲ",
        "áĪĤ"
      ],
      [
        "áĬĲ",
        "áīłáī¥"
      ],
      [
        "áĬĲ",
        "áĮĪáĪŃ"
      ],
      [
        "áĬĲ",
        "áĭµáĭµ"
      ],
      [
        "áĪĪ",
        "áīµ"
      ],
      [
        "áĪĪ",
        "áĭį"
      ],
      [
        "áĪĪ",
        "áĬĴ"
      ],
      [
        "áĪĪ",
        "áĪµáī°"
      ],
      [
        "áĪĪ",
        "áĭĲ"
      ],
      [
        "áĪĪ",
        "áī³"
      ],
      [
        "áĪĪ",
        "áĭ©"
      ],
      [
        "áĪĪ",
        "áĬŃáĪĻ"
      ],
      [
        "áĪĪ",
        "áĪ°áīµ"
      ],
      [
        "áĪĪ",
        "áī¥áĪ°"
      ],
      [
        "áĪĪ",
        "áĭŃáĭİ"
      ],
      [
        "áĪĪ",
        "áī¥áĪ±"
      ],
      [
        "áĪĪ",
        "áĭŃáĬ©"
      ],
      [
        "áĬ¨",
        "áī°"
      ],
      [
        "áĬ¨",
        "áī¥"
      ],
      [
        "áĬ¨",
        "áĬĴ"
      ],
      [
        "áĬ¨",
        "áĪ¥"
      ],
      [
        "áĬ¨",
        "áĪ«"
      ],
      [
        "áĬ¨",
        "áī¥áī°"
      ],
      [
        "áĬ¨",
        "áī¥áīµ"
      ],
      [
        "áĬ¨",
        "áīłáĪİ"
      ],
      [
        "áįĪ",
        "áīħ"
      ],
      [
        "áįĪ",
        "áĪĭ"
      ],
      [
        "áįĪ",
        "áīĢ"
      ],
      [
        "áįĪ",
        "áĭĭ"
      ],
      [
        "áįĪ",
        "áĪī"
      ],
      [
        "áįĪ",
        "áĪ¥áĪ"
      ],
      [
        "áįĪ",
        "áĪŃáĪĨ"
      ],
      [
        "áįĪ",
        "áīµáĪķ"
      ],
      [
        "áĬħ",
        "áī±"
      ],
      [
        "áĬħ",
        "áī°áĪĺ"
      ],
      [
        "ĠáĬ¥",
        "áĭ°"
      ],
      [
        "ĠáĬ¥",
        "áī¤"
      ],
      [
        "ĠáĬ¥",
        "áĭľ"
      ],
      [
        "ĠáĬ¥",
        "áīµáĪĺ"
      ],
      [
        "ĠáĬ¥",
        "áĬ¨áĭįáĬķ"
      ],
      [
        "ĠáĬ¥",
        "áĭ°áĭĬáĪģ"
      ],
      [
        "ĠáĬ¥",
        "áĬ¨áĭ®áĪĻ"
      ],
      [
        "ĠáĬ¥",
        "áįĮáĬĳ"
      ],
      [
        "ĠáĬ¥",
        "áīłáĭ±"
      ],
      [
        "ĠáĬ¥",
        "áĬħáī±"
      ],
      [
        "ĠáĮ",
        "¥áĭ©"
      ],
      [
        "ĠáĮ",
        "°áĪ«"
      ],
      [
        "ĠáĮ",
        "ĭáĬĶ"
      ],
      [
        "ĠáĮ",
        "ĮáĮĭ"
      ],
      [
        "ĠáĮ",
        "İáĪŀ"
      ],
      [
        "áĪ°",
        "áĭ¨"
      ],
      [
        "áĪ°",
        "áĭ°"
      ],
      [
        "áĪ°",
        "áĬķáį"
      ],
      [
        "áĪ°",
        "áĮįáĪī"
      ],
      [
        "áĪ°",
        "áĪĺáĭ©"
      ],
      [
        "áĪ°",
        "áĪįáī¥"
      ],
      [
        "áĪ°",
        "áĬłáĪįáĭİ"
      ],
      [
        "áĭĪ",
        "áĪĪ"
      ],
      [
        "áĭĪ",
        "áĬŃ"
      ],
      [
        "áĭĪ",
        "áī±"
      ],
      [
        "áĭĪ",
        "áįħ"
      ],
      [
        "áĭĪ",
        "áĮ¥áĬķ"
      ],
      [
        "áĭĪ",
        "áĪ¨áĭ°áīµ"
      ],
      [
        "áĭį",
        "áĭ³"
      ],
      [
        "áĭį",
        "áįį"
      ],
      [
        "áĭį",
        "áĪĭ"
      ],
      [
        "áĭį",
        "áĪ¬"
      ],
      [
        "áĭį",
        "áĪ©"
      ],
      [
        "áĭį",
        "áĪħ"
      ],
      [
        "áĭį",
        "áĪįáĭµ"
      ],
      [
        "áĭį",
        "áĪ¥áĬ¥áĭİ"
      ],
      [
        "áĭį",
        "áĬ¨áĬĴ"
      ],
      [
        "áī¥",
        "áĭµ"
      ],
      [
        "áī¥",
        "áĭ¨"
      ],
      [
        "áī¥",
        "áĭĿ"
      ],
      [
        "áī¥",
        "áĬ¦"
      ],
      [
        "áī¥",
        "áĭ¨áīµ"
      ],
      [
        "áī¥",
        "áĭķáĭ¨"
      ],
      [
        "ĠáĪĺ",
        "áĬĵ"
      ],
      [
        "ĠáĪĺ",
        "áĪ«"
      ],
      [
        "ĠáĪĺ",
        "áĭĲ"
      ],
      [
        "ĠáĪĺ",
        "áĪ¬"
      ],
      [
        "ĠáĪĺ",
        "áĭĭ"
      ],
      [
        "ĠáĪĺ",
        "áīĥ"
      ],
      [
        "ĠáĪĺ",
        "áĭĵ"
      ],
      [
        "ĠáĪĺ",
        "áĭµáĬħ"
      ],
      [
        "ĠáĪĺ",
        "áĬĥ"
      ],
      [
        "ĠáĪĺ",
        "áĮł"
      ],
      [
        "ĠáĪĺ",
        "áĬ¨áĭŃ"
      ],
      [
        "ĠáĪĺ",
        "áĪĢáĭŃ"
      ],
      [
        "ĠáĪĺ",
        "áĪŃáĮ¡"
      ],
      [
        "ĠáĪĺ",
        "áĪµáįĪ"
      ],
      [
        "áĪĽ",
        "áĬķ"
      ],
      [
        "áĪĽ",
        "áī°"
      ],
      [
        "áĪĽ",
        "áĭ³"
      ],
      [
        "áĪĽ",
        "áĪķ"
      ],
      [
        "áĪĽ",
        "áĭĬ"
      ],
      [
        "áĪĽ",
        "áĭĬáīµ"
      ],
      [
        "áĪĽ",
        "áĬķáĭ«"
      ],
      [
        "áīħ",
        "áĪ¨"
      ],
      [
        "áīħ",
        "áĭ¨"
      ],
      [
        "áīħ",
        "áĪĬ"
      ],
      [
        "áīħ",
        "áĪŀ"
      ],
      [
        "áīħ",
        "áĭŃáĭĭ"
      ],
      [
        "áīħ",
        "áĭ°áĪĿáĬ¨"
      ],
      [
        "ĠáĭŃ",
        "áĪł"
      ],
      [
        "ĠáĭŃ",
        "áĭľ"
      ],
      [
        "ĠáĭŃ",
        "áī¥áĪį"
      ],
      [
        "ĠáĭŃ",
        "áĮ¸áĭį"
      ],
      [
        "ĠáĭŃ",
        "áĬķáĪ¥"
      ],
      [
        "ĠáĭŃ",
        "áīµáĪĪ"
      ],
      [
        "ĠáĭŃ",
        "áīĢáĭį"
      ],
      [
        "ĠáĭŃ",
        "áīµáī£áĪ¨"
      ],
      [
        "ĠáĭŃ",
        "áĪĺáĭį"
      ],
      [
        "ĠáĭŃ",
        "áĭ°áĪī"
      ],
      [
        "ĠáĭŃ",
        "áĬĲáĮįáĪ¥"
      ],
      [
        "ĠáĭŃ",
        "áĪĪáī¥áĪ±"
      ],
      [
        "ĠáĭŃ",
        "áįĪáĪŃáĪĨ"
      ],
      [
        "ĠáĭŃ",
        "áī¥áĭĿ"
      ],
      [
        "áĭ«",
        "áĮĪ"
      ],
      [
        "áĭ«",
        "áĭĭ"
      ],
      [
        "áĭ«",
        "áī¡"
      ],
      [
        "áĭ«",
        "áįĮ"
      ],
      [
        "áĭ³",
        "áī°"
      ],
      [
        "áĭ³",
        "áī¥"
      ],
      [
        "áĭ³",
        "áĬĸ"
      ],
      [
        "áĭ³",
        "áīµáĬĴ"
      ],
      [
        "áĭ³",
        "áĭ«áĬĴ"
      ],
      [
        "áĪł",
        "áįį"
      ],
      [
        "áĪł",
        "áĪ«"
      ],
      [
        "áĪł",
        "áĪŃáī°"
      ],
      [
        "áĭĺ",
        "áĪŃáĬ¡"
      ],
      [
        "áĭĺ",
        "áĬ¨áĪŃ"
      ],
      [
        "ĠáĭĪáĬł",
        "áĬķáī°"
      ],
      [
        "ĠáĭĪáĬł",
        "áĪµáī°"
      ],
      [
        "ĠáĭĪáĬł",
        "áĭĭ"
      ],
      [
        "ĠáĭĪáĬł",
        "áĬĢ"
      ],
      [
        "ĠáĭĪáĬł",
        "áĪ¥áĪ"
      ],
      [
        "ĠáĭĪáĬł",
        "áĪŃáĬł"
      ],
      [
        "ĠáĭĪáĬł",
        "áĬ®"
      ],
      [
        "ĠáĭĪáĬł",
        "áĬ¥áī°"
      ],
      [
        "ĠáĭĪáĬł",
        "áĭĺáĭŀ"
      ],
      [
        "ĠáĭĪáĬł",
        "áĪŃáĬłáĭ®"
      ],
      [
        "ĠáĭĪáĬł",
        "áĪŃáĬ¥áĪµ"
      ],
      [
        "ĠáĭĪáĬł",
        "áĭįáĪ¨"
      ],
      [
        "ĠáĭĪáĬł",
        "áĬŃáĪļ"
      ],
      [
        "ĠáĭĪáĬł",
        "áĭĿáĪĽáĭ²"
      ],
      [
        "ĠáĭĪáĬł",
        "áī¥áĪŃáĪĥ"
      ],
      [
        "ĠáĭĪáĬł",
        "áĬķáĪµáīµ"
      ],
      [
        "ĠáĭĪáĬł",
        "áĬķáĪ¥áĬ¦"
      ],
      [
        "ĠáĭĪáĬł",
        "áĪµáīĨ"
      ],
      [
        "ĠáĭĪáĬł",
        "áī¥áĪķáĪŃáī°"
      ],
      [
        "ĠáĭĪáĬł",
        "áĬĲáĪĤ"
      ],
      [
        "áĬ£",
        "áĬķáĪ°"
      ],
      [
        "áĬŃ",
        "áĪĪ"
      ],
      [
        "áĬŃ",
        "áĬķáī°"
      ],
      [
        "áĬŃ",
        "áĪķ"
      ],
      [
        "áĬŃ",
        "áĪ®áĪĻ"
      ],
      [
        "áĬŃ",
        "áī¥áĪ©"
      ],
      [
        "áĬŃ",
        "áĭķáĭī"
      ],
      [
        "áī±",
        "áĪŃ"
      ],
      [
        "áī±",
        "áĬ¨"
      ],
      [
        "áĭļ",
        "áīµ"
      ],
      [
        "áĭļ",
        "áĬłáĪģ"
      ],
      [
        "áĬĵ",
        "áĭĵ"
      ],
      [
        "áĬĵ",
        "áĭ²"
      ],
      [
        "áĬĵ",
        "áĬ¦"
      ],
      [
        "áĬĵ",
        "áī³áī°"
      ],
      [
        "áĬĵ",
        "áĭ³áī¥"
      ],
      [
        "áĮĪ",
        "áĭ°"
      ],
      [
        "áĮĪ",
        "áĬĴ"
      ],
      [
        "áĮĪ",
        "áĪŀ"
      ],
      [
        "áĮĪ",
        "áī¥áĪ©"
      ],
      [
        "áĮĪ",
        "áĬĲáīµ"
      ],
      [
        "áĮĪ",
        "áĭ¨áīµ"
      ],
      [
        "áĮĪ",
        "áįĨ"
      ],
      [
        "ĠáĬ¥áĪĿ",
        "áįį"
      ],
      [
        "ĠáĬ¥áĪĿ",
        "áĭįáĪµáī°"
      ],
      [
        "ĠáĬ¥áĪĿ",
        "áĬ¨áĪĺ"
      ],
      [
        "ĠáĬ¥áĪĿ",
        "áīħáĭµáĪĺ"
      ],
      [
        "ĠáĬ¥áĪĿ",
        "áĬ¥áĪĪ"
      ],
      [
        "ĠáĬ¥áĪĿ",
        "áĭķáĪĪ"
      ],
      [
        "ĠáĬ¥áĪĿ",
        "áĪ°áĪĽáĭ«áīµ"
      ],
      [
        "ĠáĬ¥áĪĿ",
        "áĭķáĭķ"
      ],
      [
        "ĠáĬ¥áĪĿ",
        "áĭ³áĮį"
      ],
      [
        "ĠáĬ¥áĪĿ",
        "áĭĿáĪĻáīµ"
      ],
      [
        "ĠáĬ¥áĪĿ",
        "áĭĽáī²"
      ],
      [
        "ĠáĬ¥áĪĿ",
        "áĭĪáĪįáĭµ"
      ],
      [
        "ĠáĬ¥áĪĿ",
        "áĭµáĪ¨"
      ],
      [
        "ĠáĬ¥áĪĿ",
        "áĬ¥áĭ°"
      ],
      [
        "ĠáĬ¥áĪĿ",
        "áĭķáįħ"
      ],
      [
        "ĠáĬ¥áĪĿ",
        "áĮĪáĬĲáīµ"
      ],
      [
        "áĪ¥",
        "áĮ½"
      ],
      [
        "áĪ¥",
        "áīĥ"
      ],
      [
        "áĪ¥",
        "áĬ¡"
      ],
      [
        "áī¤",
        "áĭµ"
      ],
      [
        "áī¤",
        "áĪģ"
      ],
      [
        "Ġáī°",
        "áĭĭ"
      ],
      [
        "Ġáī°",
        "áĮĭ"
      ],
      [
        "Ġáī°",
        "áĪ¨áįĪ"
      ],
      [
        "Ġáī°",
        "áĬ«"
      ],
      [
        "Ġáī°",
        "áī£áĪ¨"
      ],
      [
        "Ġáī°",
        "áĬķáĪ¥"
      ],
      [
        "Ġáī°",
        "áĬłáĪĿ"
      ],
      [
        "Ġáī°",
        "áĪĺáĪ°"
      ],
      [
        "Ġáī°",
        "áĪĢáĭŃ"
      ],
      [
        "Ġáī°",
        "áĬłáĪĺáĬķ"
      ],
      [
        "Ġáī°",
        "áĬŃáĪī"
      ],
      [
        "Ġáī°",
        "áįĥáĪŃ"
      ],
      [
        "Ġáī°",
        "áĪµáįĭ"
      ],
      [
        "Ġáī°",
        "áĮįáĪķáĪł"
      ],
      [
        "Ġáī°",
        "áīłáīĢ"
      ],
      [
        "Ġáī°",
        "áĬ¨áī¥áī°"
      ],
      [
        "Ġáī°",
        "áĭįáĪĭ"
      ],
      [
        "Ġáī°",
        "áĭĺáĬ¨áĪŃ"
      ],
      [
        "Ġáī°",
        "áĬŃáĪĪ"
      ],
      [
        "ĠáĭĪáĬ¥áĪ",
        "Ī"
      ],
      [
        "ĠáĭĪáĬ¥áĪ",
        "ŀ"
      ],
      [
        "ĠáĭĪáĬ¥áĪ",
        "ģáī¦áĪĻ"
      ],
      [
        "ĠáĭĪáĬ¥áĪ",
        "¬áĪµ"
      ],
      [
        "ĠáĭĪáĬ¥áĪ",
        "łáĪĿ"
      ],
      [
        "ĠáĭĪáĭŃ",
        "áīĢ"
      ],
      [
        "ĠáĭĪáĭŃ",
        "áĮįáīł"
      ],
      [
        "ĠáĭĪáĭŃ",
        "áĮĪáī¥áĪŃ"
      ],
      [
        "ĠáĭĪáĭŃ",
        "áī¥áĪİ"
      ],
      [
        "ĠáĭĪáĭŃ",
        "áĬ¨áĭį"
      ],
      [
        "ĠáĭĪáĭŃ",
        "áĪ°áīµ"
      ],
      [
        "ĠáĭĪáĭŃ",
        "áĮĮ"
      ],
      [
        "ĠáĭĪáĭŃ",
        "áĭĪáĪŃáĭµ"
      ],
      [
        "ĠáĭĪáĭŃ",
        "áĪĸáĪ©"
      ],
      [
        "ĠáĭĪáĭŃ",
        "áĬ¥áĭľ"
      ],
      [
        "ĠáĭĪáĭŃ",
        "áĪĿáĪį"
      ],
      [
        "ĠáĭĪáĭŃ",
        "áĬĲáĪ¥áĬ¥"
      ],
      [
        "ĠáĭĪáĭŃ",
        "áįĪáīµáĪķ"
      ],
      [
        "ĠáĭĪáĭŃ",
        "áĬŃáĭķáĭī"
      ],
      [
        "ĠáĭĪáĭŃ",
        "áĮĪáī¥áĪ©"
      ],
      [
        "áįį",
        "áĭ«"
      ],
      [
        "áįį",
        "áĭĲ"
      ],
      [
        "áįį",
        "áĪī"
      ],
      [
        "áįį",
        "áĬ©"
      ],
      [
        "áįį",
        "áĪĲ"
      ],
      [
        "áįį",
        "áĬĳ"
      ],
      [
        "áįį",
        "áĭĸ"
      ],
      [
        "áįį",
        "áĪŃáĪģ"
      ],
      [
        "áįį",
        "áĪįáī²áĪĥ"
      ],
      [
        "áįį",
        "áĪ¨áī°"
      ],
      [
        "áĪµáī°",
        "áĪµáĪŃáĭ©"
      ],
      [
        "áĪµáī°",
        "áįĪáĪ¥áĪ"
      ],
      [
        "áĪ«",
        "áī°"
      ],
      [
        "áĪ«",
        "áīł"
      ],
      [
        "áĪ«",
        "áĭĬ"
      ],
      [
        "áĪ«",
        "áĭįáĪ¬"
      ],
      [
        "áĪĭ",
        "áĪĺ"
      ],
      [
        "áĪĭ",
        "áĬŃ"
      ],
      [
        "áĪĭ",
        "áĭĬ"
      ],
      [
        "áĪĭ",
        "áĬ¥áī±"
      ],
      [
        "áĪĭ",
        "áĭ³áī°"
      ],
      [
        "áĪķ",
        "áĪį"
      ],
      [
        "áĪķ",
        "áī´"
      ],
      [
        "áĪķ",
        "áįįáīµ"
      ],
      [
        "áĪķ",
        "áĪ¨áīµ"
      ],
      [
        "áĭĲ",
        "áĪ¨"
      ],
      [
        "áĭĲ",
        "áĭ±"
      ],
      [
        "áĭĲ",
        "áĪİáĪĻ"
      ],
      [
        "áĭĲ",
        "áĪŃáĮī"
      ],
      [
        "áĭĲ",
        "áĪįáĬ©"
      ],
      [
        "áīĢ",
        "áĪŃáĬ©"
      ],
      [
        "áīĢ",
        "áĬķáĭ©"
      ],
      [
        "áīĢ",
        "áĪŃáī¦"
      ],
      [
        "áīĢ",
        "áĭµáĬ©"
      ],
      [
        "áĭ®",
        "áĮµáĭ«"
      ],
      [
        "áĭ®",
        "áī¤áĭµ"
      ],
      [
        "ĠáĬ¨",
        "áĭŃáĪ"
      ],
      [
        "ĠáĬ¨",
        "áĪĽáĪģ"
      ],
      [
        "ĠáĬ¨",
        "áī¥áĭµ"
      ],
      [
        "áĭĿ",
        "áĬ©"
      ],
      [
        "áĭĿ",
        "áĬĥ"
      ],
      [
        "áĭĿ",
        "áĭįáįį"
      ],
      [
        "ĠáĭĪáīł",
        "áĮ½"
      ],
      [
        "ĠáĭĪáīł",
        "áĪĬ"
      ],
      [
        "ĠáĭĪáīł",
        "áĭįáĬ¥áī±"
      ],
      [
        "ĠáĭĪáīł",
        "áĭĪáĪį"
      ],
      [
        "ĠáĭĪáīł",
        "áĮ½áĭµáīħ"
      ],
      [
        "ĠáĭĪáīł",
        "áĪĿáĭµáĪŃ"
      ],
      [
        "ĠáĭĪáīł",
        "áĪ¥áĮĭ"
      ],
      [
        "ĠáĭĪáīł",
        "áĬłáĪĿ"
      ],
      [
        "ĠáĭĪáīł",
        "áĪ°áĪĽáĭ«"
      ],
      [
        "ĠáĭĪáīł",
        "áĭĿáĬĢ"
      ],
      [
        "ĠáĭĪáīł",
        "áĮ½áĭ®áĬķ"
      ],
      [
        "ĠáĭĪáīł",
        "áĪ¥áĪŃáĭĲ"
      ],
      [
        "ĠáĭĪáīł",
        "áīµáĪ¨"
      ],
      [
        "ĠáĭĪáīł",
        "áĭķáĪį"
      ],
      [
        "ĠáĭĪáīł",
        "áĪĺáĬķáįĪáĪµ"
      ],
      [
        "ĠáĭĪáīł",
        "áĬ¥áĬķáī²áĬłáĪģ"
      ],
      [
        "ĠáĭĪáīł",
        "áĬ¨áĭ¨"
      ],
      [
        "ĠáĭĪáīł",
        "áĭ³áĮį"
      ],
      [
        "ĠáĭĪáīł",
        "áĭĿáĪĻáīµ"
      ],
      [
        "ĠáĭĪáīł",
        "áĪ¥áĪĿáĪ¨"
      ],
      [
        "ĠáĭĪáīł",
        "áīĥáĪįáĭ¨"
      ],
      [
        "ĠáĭĪáīł",
        "áĭķáīłáĭŃ"
      ],
      [
        "ĠáĭĪáīł",
        "áĪŃáīµáĭķ"
      ],
      [
        "ĠáĭĪáīł",
        "áĭ¨áĭįáĪĢ"
      ],
      [
        "ĠáĭĪáīł",
        "áĭķáĪª"
      ],
      [
        "ĠáĭĪáīł",
        "áĪĽáĪķ"
      ],
      [
        "ĠáĬ¢",
        "áĪ³"
      ],
      [
        "ĠáĬ¢",
        "áī³"
      ],
      [
        "ĠáĬ¢",
        "áĬ®"
      ],
      [
        "ĠáĬ¢",
        "áĬĢáĭ°"
      ],
      [
        "ĠáĬ¢",
        "áī°áĪŃáĬ¥áĭ¨"
      ],
      [
        "ĠáĬ¢",
        "áĪĪáī¥áĪ°"
      ],
      [
        "ĠáĬ¢",
        "áĭĪáĪ¨áĭ°áīµ"
      ],
      [
        "ĠáĬ¢",
        "áĭ®áī¤áĭµ"
      ],
      [
        "áĪ¬",
        "áĪµ"
      ],
      [
        "áĪ¬",
        "áĭİáĬķ"
      ],
      [
        "áĭĬ",
        "áī°"
      ],
      [
        "áĭĬ",
        "áĪ®áĪĻ"
      ],
      [
        "áĭĭ",
        "áĮį"
      ],
      [
        "áĭĭ",
        "áĭĵ"
      ],
      [
        "áĭĭ",
        "áĬĲáĭ©"
      ],
      [
        "áĭĭ",
        "áĬħáĭĪ"
      ],
      [
        "áĬĢ",
        "áĭĪ"
      ],
      [
        "áĬĢ",
        "áĭĬáĪģ"
      ],
      [
        "áĬĢ",
        "áī°áĪĻ"
      ],
      [
        "áĬĢ",
        "áĪįáįį"
      ],
      [
        "áĬĢ",
        "áĪĪáĭŃáĭİ"
      ],
      [
        "áĪ³",
        "áī°"
      ],
      [
        "áĪ³",
        "áĬĲ"
      ],
      [
        "áĪ³",
        "áĪĬ"
      ],
      [
        "áĪ³",
        "áĪĮáĪĿ"
      ],
      [
        "áĪ³",
        "áīħáĭ¨"
      ],
      [
        "áī³",
        "áĪĲ"
      ],
      [
        "áī³",
        "áĪķáī´"
      ],
      [
        "áī³",
        "áĭĬáī°"
      ],
      [
        "ĠáĪ°",
        "áĪ«áĭĬáīµ"
      ],
      [
        "ĠáĪ°",
        "áīłáĪ«"
      ],
      [
        "ĠáĪ°",
        "áĪ¨áĮĪ"
      ],
      [
        "ĠáĪ°",
        "áĪ«áĭĬ"
      ],
      [
        "ĠáĪ°",
        "áĪĭáĪĺ"
      ],
      [
        "áĪ®",
        "áĪĿ"
      ],
      [
        "áĪ®",
        "áĪķ"
      ],
      [
        "áĪ®",
        "áī¶áĪĻ"
      ],
      [
        "áĪ®",
        "áĪĤ"
      ],
      [
        "áĪī",
        "áīħ"
      ],
      [
        "áĬ©",
        "áĬŃáĪĻ"
      ],
      [
        "Ġáĭį",
        "áĭ´"
      ],
      [
        "ĠáĬ¨áĪĺ",
        "áĭĿ"
      ],
      [
        "áĮ½",
        "áĮ½"
      ],
      [
        "áĮ½",
        "áī£"
      ],
      [
        "áĮ½",
        "áĬĳ"
      ],
      [
        "áĮ½",
        "áĬĵáĭĵ"
      ],
      [
        "áīĤ",
        "áĭ¶"
      ],
      [
        "áī¥áĪŃ",
        "áī²áĪģ"
      ],
      [
        "áĪİ",
        "áīµáĭ¨"
      ],
      [
        "ĠáĮ½",
        "áĮĭ"
      ],
      [
        "ĠáĮ½",
        "áĪ©"
      ],
      [
        "ĠáĮ½",
        "áĪĭáī°"
      ],
      [
        "ĠáĮ½",
        "áĭµáīĢ"
      ],
      [
        "ĠáĮ½",
        "áĪĭáīµ"
      ],
      [
        "ĠáĮ½",
        "áĪŃáĪĲ"
      ],
      [
        "ĠáĪķ",
        "áĮĪ"
      ],
      [
        "ĠáĪķ",
        "áĪ±"
      ],
      [
        "ĠáĪķ",
        "áĮ¹"
      ],
      [
        "ĠáĪķ",
        "áĮİ"
      ],
      [
        "ĠáĪķ",
        "áĬķáĮ½"
      ],
      [
        "ĠáĪķ",
        "áĭ«áĭĭ"
      ],
      [
        "ĠáīłáĬ¥",
        "áĭ°"
      ],
      [
        "ĠáīłáĬ¥",
        "áĮįáĭļáĬ£áī¥áĪĶáĪŃ"
      ],
      [
        "ĠáīłáĬ¥",
        "áĭ´"
      ],
      [
        "ĠáīłáĬ¥",
        "áĬķáī²áĬłáĪģ"
      ],
      [
        "ĠáīłáĬ¥",
        "áĭ°áĭĬáĪģ"
      ],
      [
        "ĠáīłáĬ¥",
        "áĬ¨áĭ¨"
      ],
      [
        "ĠáīłáĬ¥",
        "áĬ¨áĭ®áĪĻ"
      ],
      [
        "áī¡",
        "áĭŃ"
      ],
      [
        "áī¡",
        "áĪ¨"
      ],
      [
        "áī¡",
        "áĬ¬"
      ],
      [
        "áī¡",
        "áīĥáĬĲ"
      ],
      [
        "áĪĢ",
        "áĪ®áĪĻ"
      ],
      [
        "áĪĢ",
        "áĪĪáĬĴ"
      ],
      [
        "áĪĢ",
        "áĭįáĬ¨áĬĴ"
      ],
      [
        "áĪĢ",
        "áĪ«áī°"
      ],
      [
        "áĪĬ",
        "áĬĵ"
      ],
      [
        "áĭİ",
        "áĪĻ"
      ],
      [
        "Ġáĭ°",
        "áī¥áĪ¨"
      ],
      [
        "Ġáĭ°",
        "áĪŃáĬ¨"
      ],
      [
        "Ġáĭ°",
        "áĬĥáĪª"
      ],
      [
        "Ġáĭ°",
        "áĪĿáĪ°"
      ],
      [
        "Ġáĭ°",
        "áĭŃáĬĸáĪĻ"
      ],
      [
        "Ġáĭ°",
        "áĭĪáĪĪ"
      ],
      [
        "ĠáĭĪáĪį",
        "áĮĲ"
      ],
      [
        "áĮĭ",
        "áĭ¨"
      ],
      [
        "áĮĭ",
        "áĭį"
      ],
      [
        "áĮĭ",
        "áĬĲáĭ©"
      ],
      [
        "áĮĭ",
        "áĬĵáī°"
      ],
      [
        "Ġáīħ",
        "áĬĵáī³áī°"
      ],
      [
        "Ġáį",
        "©"
      ],
      [
        "Ġáį",
        "°"
      ],
      [
        "Ġáį",
        "«áį»áį²"
      ],
      [
        "Ġáį",
        "ĥáĬ¥"
      ],
      [
        "áĪĲ",
        "áĭŃ"
      ],
      [
        "áĪĲ",
        "áįĪ"
      ],
      [
        "áĪĲ",
        "áīħ"
      ],
      [
        "áĪĲ",
        "áĪµáī¥"
      ],
      [
        "áĪĲ",
        "áĭįáĪ©"
      ],
      [
        "áĪĲ",
        "áįįáĬ©"
      ],
      [
        "áĪĲ",
        "áīĢáĪŃáĬ©"
      ],
      [
        "áĬ¥áĪ",
        "ĺáĬĴ"
      ],
      [
        "áĬ¥áĪ",
        "ĿáĪ®áĪĻ"
      ],
      [
        "ĠáĬĢ",
        "áĭ¨áĪ°"
      ],
      [
        "ĠáĬĢ",
        "áĭ°áĪ¨"
      ],
      [
        "ĠáĬĢ",
        "áĪĪáįĪ"
      ],
      [
        "ĠáĬĢ",
        "áĪ³áĪ¨"
      ],
      [
        "ĠáĬĢ",
        "áĪĬáĭŃ"
      ],
      [
        "ĠáĬĢ",
        "áĪ¨áĭŃáĬŃáĭĭ"
      ],
      [
        "ĠáĬĢ",
        "áĪĪáĭŃáĬ©"
      ],
      [
        "ĠáĬĢ",
        "áī¤áĪģ"
      ],
      [
        "ĠáĬĢ",
        "áĭĭáĬħáĭĪ"
      ],
      [
        "ĠáĭĪáĪĺ",
        "áīĥ"
      ],
      [
        "ĠáĭĪáĪĺ",
        "áĮ¸"
      ],
      [
        "ĠáĭĪáĪĺ",
        "áĭĽ"
      ],
      [
        "ĠáĭĪáĪĺ",
        "áĪĽáĪµ"
      ],
      [
        "ĠáĭĪáĪĺ",
        "áĪ³áĪ¨"
      ],
      [
        "ĠáĭĪáĪĺ",
        "áĪ¨áĮįáĭµ"
      ],
      [
        "ĠáĭĪáĪĺ",
        "áĬĲáĬĲ"
      ],
      [
        "ĠáĭĪáĪĺ",
        "áĪ³áīħáĭ¨"
      ],
      [
        "ĠáĭĪáĪĺ",
        "áĪĢáĪ®áĪĻ"
      ],
      [
        "ĠáĪĽ",
        "áĭŃ"
      ],
      [
        "ĠáĪĿ",
        "áĬķáī°"
      ],
      [
        "ĠáĪĿ",
        "áĬŃáĪ¨"
      ],
      [
        "ĠáĪĿ",
        "áĬŃáĪŃ"
      ],
      [
        "ĠáĪĿ",
        "áĬķáĭ³"
      ],
      [
        "ĠáĪĿ",
        "áĬŃáĪķ"
      ],
      [
        "ĠáĪĿ",
        "áĪķáĪ¨áīµ"
      ],
      [
        "ĠáĪĿ",
        "áĮ½áĬĵáĭĵ"
      ],
      [
        "ĠáĪĪáĬ¥",
        "áĬª"
      ],
      [
        "áĪĮ",
        "áīµ"
      ],
      [
        "áĪĮ",
        "áīħ"
      ],
      [
        "áī£",
        "áĪ°"
      ],
      [
        "áī£",
        "áĪŃáĬ®"
      ],
      [
        "ĠáĬķ",
        "áĮįáīł"
      ],
      [
        "ĠáĬķ",
        "áĮįáī£"
      ],
      [
        "áĮī",
        "áĪĿ"
      ],
      [
        "ĠáĪµ",
        "áĪĻ"
      ],
      [
        "ĠáĪµ",
        "áī¥áĪ¨"
      ],
      [
        "ĠáĪµ",
        "áįī"
      ],
      [
        "Ġáī³",
        "áĪĽáĪµáĬĵ"
      ],
      [
        "ĠáĮĪ",
        "áī¢"
      ],
      [
        "ĠáĮĪ",
        "áĮ¾"
      ],
      [
        "ĠáĮĪ",
        "áįįáĭĲ"
      ],
      [
        "áĪ¥áĪ",
        "Ļ"
      ],
      [
        "áĪ¥áĪ",
        "Ń"
      ],
      [
        "áĪ¥áĪ",
        "¨áĮ»"
      ],
      [
        "áĬĳ",
        "áĬĲ"
      ],
      [
        "áĬĳ",
        "áĪ°"
      ],
      [
        "áĬĳ",
        "áĬĴ"
      ],
      [
        "ĠáĭĪáī°",
        "áĪŀ"
      ],
      [
        "ĠáĭĪáī°",
        "áĬ¦"
      ],
      [
        "ĠáĭĪáī°",
        "áĭĪáĪįáĭ°"
      ],
      [
        "ĠáĭĪáī°",
        "áĬĵáĮĪ"
      ],
      [
        "ĠáĭĪáī°",
        "áĪĢáĭŃ"
      ],
      [
        "ĠáĭĪáī°",
        "áĪĺáĪį"
      ],
      [
        "ĠáĭĪáī°",
        "áĬłáĭĺáĭĺ"
      ],
      [
        "ĠáĭĪáī°",
        "áĪŃáĬħáĭĪ"
      ],
      [
        "ĠáĭĪáī°",
        "áĭµáĪĭ"
      ],
      [
        "ĠáĭĪáī°",
        "áĪĿáĭĸ"
      ],
      [
        "ĠáĭĪáī°",
        "áĪĪáĭĲ"
      ],
      [
        "ĠáĭĪáī°",
        "áĬ¨áĪ¥"
      ],
      [
        "ĠáĭĪáī°",
        "áĭĪáĬŃ"
      ],
      [
        "ĠáĭĪáī°",
        "áĭįáĪħ"
      ],
      [
        "Ġáīµ",
        "áĬ©áĬķ"
      ],
      [
        "Ġáīµ",
        "áĮ¸áĭįáĪŃáĭĭ"
      ],
      [
        "Ġáīµ",
        "áĭĿáĬħ"
      ],
      [
        "Ġáīµ",
        "áĬķáĮį"
      ],
      [
        "Ġáīµ",
        "áĭ°áĪĺáĪ°"
      ],
      [
        "Ġáīµ",
        "áĪ°áĪĺáĭ©"
      ],
      [
        "Ġáīµ",
        "áĭįáĪįáĭµ"
      ],
      [
        "Ġáīµ",
        "áĭĿáĭįáįį"
      ],
      [
        "ĠáĪĺáĬķ",
        "áīłáĪ¨"
      ],
      [
        "ĠáĪĺáĬķ",
        "áĬŃáĪŃ"
      ],
      [
        "ĠáĭĪáĭŃáī¤",
        "áĪįáĭİ"
      ],
      [
        "áīĥ",
        "áĭ¶"
      ],
      [
        "áīĥ",
        "áĪĭáīµ"
      ],
      [
        "áīĥ",
        "áĪ¥áīĥ"
      ],
      [
        "ĠáĪĿáĭµ",
        "áĪ®áĪĻ"
      ],
      [
        "ĠáīłáĬ¥áĬķáī°",
        "áĭĿ"
      ],
      [
        "áĪĥ",
        "áĬĲ"
      ],
      [
        "áĭ©",
        "áĬĴ"
      ],
      [
        "ĠáĭĪáĪĿ",
        "áĬŃáĪ¨"
      ],
      [
        "ĠáĭĪáĪĿ",
        "áĮº"
      ],
      [
        "ĠáĭĪáĪĿ",
        "áĪģáĪ«"
      ],
      [
        "ĠáĭĪáĪĿ",
        "áī±áĪŃ"
      ],
      [
        "ĠáĭĪáĪĿ",
        "áĬĳáĬĲ"
      ],
      [
        "áĮ¸",
        "áĪī"
      ],
      [
        "áĮ¸",
        "áĪ®áĪĻ"
      ],
      [
        "áĮ¸",
        "áĪĪáĭ©"
      ],
      [
        "áĮįáĪ¥",
        "áī°"
      ],
      [
        "áĪ©",
        "áĭ«áĬĴ"
      ],
      [
        "áĪ©",
        "áĪ³áĪĮáĪĿ"
      ],
      [
        "áĪħ",
        "áīģ"
      ],
      [
        "áĪħ",
        "áĪįáĭ¨"
      ],
      [
        "áĪħ",
        "áĬĲáīµ"
      ],
      [
        "ĠáĭĪáĭĪ",
        "áĪ¨áĭ°"
      ],
      [
        "ĠáĭĪáĭĪ",
        "áĬ¨áĭŃ"
      ],
      [
        "ĠáĭĪáĭĪ",
        "áĭµáīĢ"
      ],
      [
        "ĠáĭĪáĭĪ",
        "áĭ°áĭ¨"
      ],
      [
        "ĠáĭĪáĭĪ",
        "áįħáĬł"
      ],
      [
        "ĠáĭĪáĭĪ",
        "áĪ°áĭ°"
      ],
      [
        "ĠáĭĪáĭĪ",
        "áĪ«áĭįáĪ¬"
      ],
      [
        "ĠáīłáĬł",
        "áįĪ"
      ],
      [
        "ĠáīłáĬł",
        "áĮ»"
      ],
      [
        "ĠáīłáĬł",
        "áĬ°"
      ],
      [
        "ĠáīłáĬł",
        "áĬ¥áī£áĬķ"
      ],
      [
        "ĠáīłáĬł",
        "áĭŃáī´"
      ],
      [
        "ĠáīłáĬł",
        "áĪĿáĪ³áĪį"
      ],
      [
        "ĠáīłáĬł",
        "áĪĽáĬķ"
      ],
      [
        "ĠáīłáĬł",
        "áĮ½áī£"
      ],
      [
        "áĪĽáĭ«",
        "áĭĬáīµáĬĴ"
      ],
      [
        "ĠáĮ½áĭ®áĬķ",
        "áĪ°"
      ],
      [
        "áĪª",
        "áī°"
      ],
      [
        "áĪª",
        "áĪĥ"
      ],
      [
        "áĭĵ",
        "áĬĲ"
      ],
      [
        "áĭĵ",
        "áĭļáīµ"
      ],
      [
        "Ġáĭ«",
        "áĪĺáĪį"
      ],
      [
        "Ġáĭ«",
        "áīłáĭį"
      ],
      [
        "Ġáĭ«",
        "áĬłáīµ"
      ],
      [
        "Ġáĭ«",
        "áĭķáīĨáī¥"
      ],
      [
        "Ġáĭ«",
        "áĪ¨áĬµ"
      ],
      [
        "Ġáĭ«",
        "áĪ°áĮįáĪī"
      ],
      [
        "Ġáĭ«",
        "áīħáĪŀ"
      ],
      [
        "Ġáĭ«",
        "áĪµáī°áĪµáĪŃáĭ©"
      ],
      [
        "Ġáĭ«",
        "áĭĲáĪŃáĮī"
      ],
      [
        "Ġáĭ«",
        "áĬ¥áĪĿáĪ®áĪĻ"
      ],
      [
        "ĠáĬŃ",
        "áī¥áĪŃ"
      ],
      [
        "ĠáĬŃ",
        "áĭĳ"
      ],
      [
        "ĠáĬŃ",
        "áĪ¨áĪĿáī°"
      ],
      [
        "ĠáĬŃ",
        "áįįáĪī"
      ],
      [
        "ĠáĬŃ",
        "áĪħáĬĲáīµ"
      ],
      [
        "ĠáĭĪáīµ",
        "áĬĲáī¥áĪŃ"
      ],
      [
        "ĠáĭĪáīµ",
        "áĬ¨áĭįáĬķ"
      ],
      [
        "ĠáĭĪáīµ",
        "áĪĦáĪī"
      ],
      [
        "ĠáĭĪáīµ",
        "áĬ¨áī¥áīµ"
      ],
      [
        "ĠáĭĪáīµ",
        "áĪ°áĪįáī¥"
      ],
      [
        "ĠáĭĪáĬ¢",
        "áī°áĭĲáĭ°áĭĪ"
      ],
      [
        "ĠáĭĪáĬ¢",
        "áĭŃáĪ"
      ],
      [
        "ĠáĭĪáĬ¢",
        "áīµáĬ©"
      ],
      [
        "ĠáĭĪáĬ¢",
        "áĭŃáĪĿáĪ°"
      ],
      [
        "ĠáĭĪáĬ¢",
        "áĬĲáīłáī¥"
      ],
      [
        "ĠáĭĪáĬ¢",
        "áĪ°áĬłáĪįáĭİ"
      ],
      [
        "ĠáĭĪáĬ¢",
        "áĭ«áī¡"
      ],
      [
        "ĠáĭĪáĬ¢",
        "áĬĢáĪĪáĭŃáĭİ"
      ],
      [
        "ĠáĭĪáĬ¢",
        "áī³áĪĲ"
      ],
      [
        "ĠáĭĪáĬ¢",
        "áĮ¸áĪĪáĭ©"
      ],
      [
        "ĠáĭĪáĬ¥",
        "áĮįáĭļáĬ£áī¥áĪĶáĪŃ"
      ],
      [
        "ĠáĭĪáĬ¥",
        "áĬķáī°"
      ],
      [
        "ĠáĭĪáĬ¥",
        "áįĮáĬĳ"
      ],
      [
        "ĠáĭĪáĬ¥",
        "áĬĦáĪĬ"
      ],
      [
        "ĠáĭĪáĬ¥",
        "áī£áĪŃáĬ®"
      ],
      [
        "áĭµáĬħ",
        "áĬĳ"
      ],
      [
        "áĭµáĬħ",
        "áĬĸ"
      ],
      [
        "ĠáĭŃáĬ¥",
        "áī°"
      ],
      [
        "ĠáĭĪáĬ¥áĪĿ",
        "áĬłáĭ³áĪĿ"
      ],
      [
        "ĠáĭĪáĬ¥áĪĿ",
        "áĭĺáĪŃáĬ¡"
      ],
      [
        "ĠáĭĪáĬ¥áĪĿ",
        "áĪķáĪį"
      ],
      [
        "ĠáĭĪáĬ¥áĪĿ",
        "áī³áĪķáī´"
      ],
      [
        "áĭĽ",
        "áĭľ"
      ],
      [
        "áĬ®",
        "áĪŃ"
      ],
      [
        "ĠáĭĿ",
        "áĭ¨"
      ],
      [
        "ĠáĭĿ",
        "áĪ°"
      ],
      [
        "ĠáĭĿ",
        "áĮįáī¥áĪŃ"
      ],
      [
        "ĠáĭĿ",
        "áĪįáĮī"
      ],
      [
        "ĠáĪ´",
        "áĪ®áĪķ"
      ],
      [
        "ĠáĪŃ",
        "áĭĳ"
      ],
      [
        "ĠáĪŃ",
        "áĬ¥áĪµ"
      ],
      [
        "ĠáĪŃ",
        "áĬ¥áĭ¨"
      ],
      [
        "ĠáĪŃ",
        "áĮīáĪĿ"
      ],
      [
        "ĠáīĢ",
        "áĬķáĬł"
      ],
      [
        "ĠáīĢ",
        "áĭ³áĪļ"
      ],
      [
        "ĠáīĢ",
        "áīµáĪĪ"
      ],
      [
        "ĠáīĢ",
        "áĭ°áĪĺáīµ"
      ],
      [
        "ĠáīĢ",
        "áĬĵáĭ²"
      ],
      [
        "áįĭ",
        "áīĦ"
      ],
      [
        "áĬ¥áĬķáīł",
        "áĪĮáĪģ"
      ],
      [
        "ĠáĪĪáĬł",
        "áĬ®"
      ],
      [
        "ĠáĪĪáĬł",
        "áī¥áĪ«áĪĿ"
      ],
      [
        "ĠáĪĪáĬł",
        "áĮĭáĬķáĬķáīµ"
      ],
      [
        "ĠáĪĪáĬł",
        "áĪĿáĪĭ"
      ],
      [
        "ĠáĪĪáĬł",
        "áĭµáĬħáĬĸ"
      ],
      [
        "ĠáĭĺáĭŃ",
        "áĬ¬"
      ],
      [
        "ĠáĭĺáĭŃ",
        "áĬĲáįį"
      ],
      [
        "ĠáĭĺáĭŃ",
        "áĬ¨áĭįáĬķ"
      ],
      [
        "ĠáĭĺáĭŃ",
        "áīĪáĪŃ"
      ],
      [
        "ĠáĭĺáĭŃ",
        "áĬķáĬ¥áĪµ"
      ],
      [
        "ĠáĭĺáĭŃ",
        "áīłáĪį"
      ],
      [
        "ĠáĭĺáĭŃ",
        "áĬĲáĭµáĭµ"
      ],
      [
        "ĠáĭĺáĭŃ",
        "áĭĪáįħ"
      ],
      [
        "ĠáĭĺáĭŃ",
        "áĪłáĪ«"
      ],
      [
        "ĠáĬ¢áĭŃ",
        "áĪŃáĬłáĭ®"
      ],
      [
        "ĠáĬ¢áĭŃ",
        "áĪ¨áĪµ"
      ],
      [
        "ĠáĬ¢áĭŃ",
        "áīµáĭĲ"
      ],
      [
        "ĠáĬ¢áĭŃ",
        "áĭ°áĪĺáĪ©"
      ],
      [
        "ĠáĬ¢áĭŃ",
        "áįįáĪŃáĪģ"
      ],
      [
        "ĠáĪĭáĭķ",
        "áĪĮáĪģ"
      ],
      [
        "ĠáįĪáĮ",
        "¢áĪ¨"
      ],
      [
        "áĬ¢",
        "áĭ«áĪµáī°áĪŃáĬ¢"
      ],
      [
        "ĠáĭĪáĪĪ",
        "áĬ«"
      ],
      [
        "ĠáĭĪáĪĪ",
        "áĬķáĮīáĪł"
      ],
      [
        "ĠáĭĪáĪĪ",
        "áĪĺáĭµáĬĢáĬĴáī°"
      ],
      [
        "ĠáĭĪáĪĪ",
        "áĭ³áĭĬáīµáĬĴ"
      ],
      [
        "ĠáĭĪáĪĪ",
        "áĬłáĪ®áĬķ"
      ],
      [
        "ĠáĭĪáĪĪ",
        "áĭ«áįĮ"
      ],
      [
        "ĠáĭĪáĪĪ",
        "áĬŃáī¥áĪ©"
      ],
      [
        "ĠáĭĪáĪĪ",
        "áĬ¥áĪĺáĬĴ"
      ],
      [
        "ĠáĭĪáĬ£",
        "áĪŀ"
      ],
      [
        "ĠáĭĪáĬ£",
        "áĬłáīµ"
      ],
      [
        "ĠáĭĪáĬ£",
        "áĭĲáī¢"
      ],
      [
        "ĠáĭĪáĬ£",
        "áīĢáĭį"
      ],
      [
        "ĠáĭĪáĬ£",
        "áīłáĭĿáĬħ"
      ],
      [
        "ĠáĭĪáĬ£",
        "áĪµáī°áįĪáĪ¥áĪ"
      ],
      [
        "ĠáĪĪáĭ°áīĤ",
        "áīģ"
      ],
      [
        "ĠáĪĺáĬķáĮįáĪ¥",
        "áī±"
      ],
      [
        "ĠáĪĿáĭµáĪŃ",
        "áĬĴ"
      ],
      [
        "Ġáįį",
        "áĪ¬"
      ],
      [
        "Ġáįį",
        "áĬ«"
      ],
      [
        "Ġáįį",
        "áīħáĪ¨"
      ],
      [
        "áĪľ",
        "áī°"
      ],
      [
        "áĭ²",
        "áĭİ"
      ],
      [
        "áĬĥ",
        "áĪĪáįĪ"
      ],
      [
        "áī´",
        "áī±"
      ],
      [
        "ĠáĬĲ",
        "áī°"
      ],
      [
        "ĠáĬĲ",
        "áĭĵ"
      ],
      [
        "ĠáĬĲ",
        "áĬª"
      ],
      [
        "ĠáĬĲ",
        "áĬłáĪĿ"
      ],
      [
        "ĠáĬĲ",
        "áĮĪáĪŃ"
      ],
      [
        "ĠáĬĲ",
        "áĮĪáĪ¥"
      ],
      [
        "ĠáĬĲ",
        "áĬłáĪ¶"
      ],
      [
        "ĠáĭĪáĭĺ",
        "áĬķáī°"
      ],
      [
        "ĠáĭĪáĭĺ",
        "áĪŃáĬ¡"
      ],
      [
        "ĠáĭĪáĭĺ",
        "áĭįáĪĢ"
      ],
      [
        "ĠáĭĪáĭĺ",
        "áĬĲáĮĪáĪŃ"
      ],
      [
        "ĠáĭĪáĭĺ",
        "áĪ°áĬķáį"
      ],
      [
        "ĠáĭĪáĭĺ",
        "áĬ¥áĬķáīłáĪĮáĪģ"
      ],
      [
        "ĠáĭĪáĭĺ",
        "áĬ¢áĭ«áĪµáī°áĪŃáĬ¢"
      ],
      [
        "ĠáĭĪáĬ¨",
        "áī¥áĪ¨"
      ],
      [
        "ĠáĭĪáĬ¨",
        "áĬķáī±"
      ],
      [
        "ĠáĭĪáĬ¨",
        "áī¥áĪ¨áīµ"
      ],
      [
        "ĠáĭĪáĬ¨",
        "áĪŃáĬ¨"
      ],
      [
        "ĠáĭĪáĬ¨",
        "áĪĽáĪģ"
      ],
      [
        "ĠáĬłáī¡",
        "áĬĲ"
      ],
      [
        "ĠáĬłáī¡",
        "áĪĨáĪĻ"
      ],
      [
        "Ġáĭķ",
        "áĪĪáīµ"
      ],
      [
        "Ġáĭķ",
        "áįįáĪ¨áī°"
      ],
      [
        "Ġáĭķ",
        "áī¡áĭŃ"
      ],
      [
        "ĠáĭĪáĪ°",
        "áī¥áĬ¥"
      ],
      [
        "ĠáĭĪáĪ°",
        "áĮĬáĭµ"
      ],
      [
        "ĠáĭĪáĪ°",
        "áīłáĪ®"
      ],
      [
        "ĠáĭĪáĪ°",
        "áĮĪáĭ°"
      ],
      [
        "ĠáĭĪáĪ°",
        "áįįáĪĲ"
      ],
      [
        "ĠáĭĪáĪ°",
        "áĪĽáĭ«áĭĬáīµáĬĴ"
      ],
      [
        "ĠáĭĪáī¦",
        "áĪĻ"
      ],
      [
        "ĠáĭĪáī¦",
        "áī±"
      ],
      [
        "ĠáĬłáĪĿ",
        "áĪįáĬ®"
      ],
      [
        "ĠáĬłáĪĿ",
        "áĭķáĭķ"
      ],
      [
        "ĠáĬ¥áĪĺ",
        "áĬĴ"
      ],
      [
        "Ġáīħáĭ±",
        "áĪ³áĬķ"
      ],
      [
        "ĠáĪµáī¥áĪĲ",
        "áīµ"
      ],
      [
        "ĠáĮį",
        "áī¥áĪ«"
      ],
      [
        "ĠáĮį",
        "áī¥áĪ©"
      ],
      [
        "ĠáĮį",
        "áīłáĪŃ"
      ],
      [
        "ĠáĮį",
        "áĭµáĪĽ"
      ],
      [
        "ĠáĮį",
        "áĪĻáĪ«"
      ],
      [
        "áĬķáĬł",
        "áī°"
      ],
      [
        "ĠáĭĪáĬ®áĬĲ",
        "áīµ"
      ],
      [
        "áįħ",
        "áĬ¦"
      ],
      [
        "ĠáĪĪáĭĺ",
        "áĪĺáĭµáĬ¨"
      ],
      [
        "ĠáĭĺáĬł",
        "áīłáĭĬ"
      ],
      [
        "ĠáĭĺáĬł",
        "áĭĺáĭĺ"
      ],
      [
        "ĠáĭĺáĬł",
        "áĪŃáĬ°"
      ],
      [
        "ĠáĭĺáĬł",
        "áĪĿáĪĲáĪİáĪĻ"
      ],
      [
        "ĠáĭĺáĬł",
        "áĭįáĪ¥áĬ¥áĭİ"
      ],
      [
        "ĠáĭĺáĬł",
        "áīħáĭ°áĪĿáĬ¨"
      ],
      [
        "ĠáĭĺáĬł",
        "áĪ¥áĪ¨áĮ»"
      ],
      [
        "ĠáĮ¸",
        "áĭ°áĭ¨"
      ],
      [
        "ĠáĮ¸",
        "áĮķáĪ¨"
      ],
      [
        "ĠáĮ¸",
        "áĮĪáĭ¨áīµ"
      ],
      [
        "ĠáĮ¸",
        "áįįáĭĸ"
      ],
      [
        "ĠáĮ¸",
        "áĭĬáĪ®áĪĻ"
      ],
      [
        "ĠáĮ¸",
        "áĪİáīµáĭ¨"
      ],
      [
        "ĠáĮ¸",
        "áĪĢáĪ«áī°"
      ],
      [
        "Ġáĭ°áīĤ",
        "áīĨ"
      ],
      [
        "Ġáĭ°áīĤ",
        "áīĨáĪĻ"
      ],
      [
        "Ġáĭ°áīĤ",
        "áīħáĬ¨"
      ],
      [
        "ĠáįĪ",
        "áĪ¨áĪµ"
      ],
      [
        "ĠáįĪ",
        "áīĤáĭ¶"
      ],
      [
        "ĠáįĪ",
        "áīĥáĭ¶"
      ],
      [
        "ĠáĭĲ",
        "áīłáĭŃáī°"
      ],
      [
        "ĠáĭĲ",
        "áĭįáĭ³"
      ],
      [
        "ĠáĭĲ",
        "áĪłáĪŃáī°"
      ],
      [
        "ĠáĭĲ",
        "áĪĭáĭĬ"
      ],
      [
        "ĠáĬ«",
        "áĪĿ"
      ],
      [
        "ĠáĬħ",
        "áī¥áĪ¨áīµ"
      ],
      [
        "ĠáĬħ",
        "áī¥áĪµ"
      ],
      [
        "ĠáĬħ",
        "áĪīáīħ"
      ],
      [
        "ĠáĬħ",
        "áī¡áĪ¨"
      ],
      [
        "ĠáĭĪáįĪ",
        "áĪŃáĪĢ"
      ],
      [
        "ĠáĭĪáįĪ",
        "áĪŃáĪĨ"
      ],
      [
        "ĠáĭĪáįĪ",
        "áĪĪáĪ°áīµ"
      ],
      [
        "ĠáĭĪáįĪ",
        "áīĢáĭµáĬ©"
      ],
      [
        "ĠáĭĪáĪĽ",
        "áĬħáĭ°áĪ¨"
      ],
      [
        "ĠáĭĪáĪĽ",
        "áĪķáĪĭ"
      ],
      [
        "ĠáĪĢ",
        "áĪĪáĭį"
      ],
      [
        "ĠáĪĢ",
        "áī¡áĬ¬"
      ],
      [
        "ĠáĪł",
        "áĬĵáĭ¨"
      ],
      [
        "ĠáĪł",
        "áĪĪáĪµáī°"
      ],
      [
        "ĠáĪł",
        "áīĥáĪ¥áīĥ"
      ],
      [
        "ĠáĭĪáĬĢ",
        "áī¥áĪ©"
      ],
      [
        "ĠáĭĪáĬĢ",
        "áĮº"
      ],
      [
        "ĠáĭĪáĬĢ",
        "áĭ¨áĪ°"
      ],
      [
        "ĠáĭĪáĬĢ",
        "áĭ°áĪ¨"
      ],
      [
        "ĠáĭĪáĬĢ",
        "áĪįáīĢ"
      ],
      [
        "ĠáĭĪáĬĢ",
        "áī¥áĬ¦"
      ],
      [
        "ĠáĬłáī¥",
        "áĭĿáĬĥ"
      ],
      [
        "ĠáĭĺáĪŃáĬł",
        "áĬ¨"
      ],
      [
        "ĠáĭĪáĭŃáīµ",
        "áīĦ"
      ],
      [
        "ĠáĭĪáĭŃáīµ",
        "áĭĭáĬĲáĭ©"
      ],
      [
        "ĠáĭĪáĭŃáīµ",
        "áĬĢáī°áĪĻ"
      ],
      [
        "ĠáįĢ",
        "áĪ®"
      ],
      [
        "ĠáįĢ",
        "áĪ®áĪĻ"
      ],
      [
        "ĠáįĢ",
        "áī¥áĬ¥"
      ],
      [
        "ĠáįĢ",
        "áĪŃáĬĲ"
      ],
      [
        "ĠáįĢ",
        "áĭĭáĮį"
      ],
      [
        "ĠáįĢ",
        "áĪĲáĭŃ"
      ],
      [
        "ĠáĭĪáĪĺáĬķáįĪ",
        "áīĨáĪĻ"
      ],
      [
        "ĠáĭĪáĪĺáĬķáįĪ",
        "áĪ³áĭĬáīµ"
      ],
      [
        "ĠáĪµáĪĿ",
        "áĭĲ"
      ],
      [
        "ĠáĪµáĪĿ",
        "áĭĳ"
      ],
      [
        "ĠáįĪáĮ£",
        "áĪªáĪģ"
      ],
      [
        "ĠáĬłáĪĿáĪĭ",
        "áĬ©"
      ],
      [
        "ĠáĭĪáĪ¶áīł",
        "áĪ°"
      ],
      [
        "áĪµáī´áī³",
        "áĬĴ"
      ],
      [
        "ŃáĭĲ",
        "áīµ"
      ],
      [
        "áĭĻ",
        "áĬħ"
      ],
      [
        "áĬ«",
        "áĭ¨áĭµ"
      ],
      [
        "áĬĶ",
        "áĭİáĬķ"
      ],
      [
        "ĠáĭĪáĬķ",
        "áĭĪáĮ¥áĬķ"
      ],
      [
        "ĠáĭĪáĬķ",
        "áĮĪáĬĴ"
      ],
      [
        "ĠáĭĪáĬķ",
        "áĮįáĪ¥áī°"
      ],
      [
        "ĠáĭĪáĭ¨",
        "áī¥áĪµ"
      ],
      [
        "ĠáĭĪáĭ¨",
        "áĪĲáĭįáĪ©"
      ],
      [
        "áĮ¦",
        "áĪµ"
      ],
      [
        "ĠáĪĲ",
        "áĪ°áīµ"
      ],
      [
        "ĠáĪĲ",
        "áĪĺáĪŃ"
      ],
      [
        "ĠáĪĲ",
        "áĪľáī°"
      ],
      [
        "Ġáī¥",
        "áĭĻáĬħ"
      ],
      [
        "Ġáī¥áĪ",
        "©áĪĢ"
      ],
      [
        "Ġáī¥áĪ",
        "³áĮ£"
      ],
      [
        "Ġáī¥áĪ",
        "ĶáĪ¨"
      ],
      [
        "áī¥áĪį",
        "áī²áĪĥ"
      ],
      [
        "ĠáĬłáĪį",
        "áī¦"
      ],
      [
        "ĠáĬłáĪį",
        "áī¥áĭ¨"
      ],
      [
        "ĠáĬłáĪį",
        "áĭĲáĪįáĬ©"
      ],
      [
        "ĠáĬłáĭį",
        "áĪ¥áĬ¥áĭİ"
      ],
      [
        "ĠáĬłáĭį",
        "áĪ¨áĭ³"
      ],
      [
        "ĠáĬłáĭį",
        "áĪ¥áĬ¡"
      ],
      [
        "ĠáĬłáĭį",
        "áįħáĬ¦"
      ],
      [
        "ĠáĬłáĭŃáĬħ",
        "áĬĴ"
      ],
      [
        "ĠáīłáĬŃ",
        "áī¥áĪ¨"
      ],
      [
        "ĠáĭĺáĬ¢",
        "áĬłáĭĺáĭĺ"
      ],
      [
        "ĠáĭĺáĬ¢",
        "áĭ«áĭµáĬħáĬķ"
      ],
      [
        "ĠáĪĺáĭµáĬĢáĬĴ",
        "áīµ"
      ],
      [
        "ĠáĪĺáĭµáĬĢáĬĴ",
        "áĬĲ"
      ],
      [
        "ĠáĪĺáĭµáĬĢáĬĴ",
        "áī¶áĪĻ"
      ],
      [
        "ĠáĭĪáĬłáĪį",
        "áī¦áĪĻ"
      ],
      [
        "ĠáĭĪáĬłáĪį",
        "áī£áĪ°"
      ],
      [
        "Ġáī°áĭĲ",
        "áĭ±"
      ],
      [
        "Ġáī°áĭĲ",
        "áĭ°áĭĪ"
      ],
      [
        "Ġáī°áĭĲ",
        "áĭ²áĭİ"
      ],
      [
        "Ġáī°áĭĪáĪįáĭ°",
        "áīµ"
      ],
      [
        "Ġáī°áĭĪáĪįáĭ°",
        "áīµáĪ°"
      ],
      [
        "ĠáĭĪáĪįáĭµ",
        "áĬ¨"
      ],
      [
        "ĠáīħáĬķáĬł",
        "áī°"
      ],
      [
        "ĠáīħáĬķáĬł",
        "áīµ"
      ],
      [
        "áĪħáĬĵ",
        "áīµáĬĴ"
      ],
      [
        "áĪħáĬĵ",
        "áī²áĪĥ"
      ],
      [
        "áĪ£",
        "áĭ¨áĮ¡"
      ],
      [
        "áĬµ",
        "áĪ³áī°"
      ],
      [
        "ĠáĭĪáĭ°áīĤ",
        "áīĢ"
      ],
      [
        "ĠáĪ«",
        "áĮĭáĭį"
      ],
      [
        "ĠáĪį",
        "áĪħáīģ"
      ],
      [
        "áĬķáī²",
        "áĪĨáĪĻ"
      ],
      [
        "áĬķáĮī",
        "áįĢ"
      ],
      [
        "áĪŃáĪĢ",
        "áīµ"
      ],
      [
        "ĠáĭĪáĬ«",
        "áĪħáĬĵáīµáĬĴ"
      ],
      [
        "ĠáĭĪáĬĲ",
        "áĪĲáĪµáī¥"
      ],
      [
        "ĠáĭĪáĬĲ",
        "áĮ¸áĪ®áĪĻ"
      ],
      [
        "ĠáĬłáĮį",
        "áī¥áĬ¡"
      ],
      [
        "ĠáĬłáĮį",
        "áĪ¨áĪŃáĬ¨"
      ],
      [
        "ĠáĬłáĮį",
        "áī¥áĪŃáī²áĪģ"
      ],
      [
        "ĠáĬłáĮį",
        "áĭĵáĭļáīµ"
      ],
      [
        "ĠáĬłáĭķ",
        "áĪĽáĭ³"
      ],
      [
        "ĠáĬłáĭķ",
        "áĭ«áĮĪ"
      ],
      [
        "ĠáĬłáīłáĭĬ",
        "áĪģ"
      ],
      [
        "ĠáĬłáīłáĭĬ",
        "áĬ¨"
      ],
      [
        "ĠáīłáĪ¥áĮĭ",
        "áĪģ"
      ],
      [
        "áĬłáĪĿ",
        "áĪĭáĬŃ"
      ],
      [
        "Ġáĭĺáīł",
        "áĪ°áĪĽáĭ«áīµ"
      ],
      [
        "Ġáĭĺáīł",
        "áĬ¥áĬķáī²áĬłáĪģ"
      ],
      [
        "ĠáĮ£áĭĸ",
        "áīµ"
      ],
      [
        "ĠáĮ£áĭĸ",
        "áī³áī°"
      ],
      [
        "ĠáĭŃáĪģ",
        "áī¡"
      ],
      [
        "ĠáĬ¥áĪĿáĬł",
        "áī¥"
      ],
      [
        "ĠáĬ¥áĪĿáĬł",
        "áĭ³áĪĿ"
      ],
      [
        "ĠáĬ¥áĪĿáĬł",
        "áįī"
      ],
      [
        "ĠáĬ¥áĪĿáĬł",
        "áĬĢáĭĬáĪģ"
      ],
      [
        "ĠáĬ¨áĬĵ",
        "áĬ£áĬķáĪ°"
      ],
      [
        "ĠáĬ¨áĬĵ",
        "áĬĶáĭİáĬķ"
      ],
      [
        "ĠáĪ°áĪĽ",
        "áĭ¨"
      ],
      [
        "ĠáĭįáĬ¥áī±",
        "áĬĴ"
      ],
      [
        "Ġáīħáĭµ",
        "áĪµáī°"
      ],
      [
        "Ġáīħáĭµ",
        "áĪ³áīµ"
      ],
      [
        "ĠáĬķáĭĭ",
        "áĭ©"
      ],
      [
        "ĠáĮĪáī£",
        "áĪªáĪĥ"
      ],
      [
        "ĠáĪĺáĬķáįĪ",
        "áīĨáĪĻ"
      ],
      [
        "ĠáĪĺáĬķáįĪ",
        "áĪ³áĭĬáīµ"
      ],
      [
        "ĠáĭĪáĭĪáĪĢ",
        "áī¦áĪĻ"
      ],
      [
        "ĠáĭĪáĭĪáĪĢ",
        "áīłáĬĴ"
      ],
      [
        "ĠáĬŃáĪįáĬ¤",
        "áī°"
      ],
      [
        "ĠáĬŃáĪįáĬ¤",
        "áĪĨáĪĻ"
      ],
      [
        "Ġáĭ³áĮį",
        "áĪĽáĭĬ"
      ],
      [
        "ĠáĪĢáĮĪ",
        "áĪªáī°"
      ],
      [
        "Ġáī¥áĬ¥áĪ²",
        "áī°"
      ],
      [
        "Ġáī¥áĬ¥áĪ²",
        "áī±"
      ],
      [
        "ĠáĭĺáįĪáĮł",
        "áĪ¨"
      ],
      [
        "ĠáĭĺáįĪáĮł",
        "áĪ«"
      ],
      [
        "ĠáĪĺáĪ¥áĭĭ",
        "áĭķáī¶"
      ],
      [
        "Ġáī°áįĪáĮ¥áĪ",
        "¨"
      ],
      [
        "Ġáī°áįĪáĮ¥áĪ",
        "®"
      ],
      [
        "áĭ´",
        "áĬķ"
      ],
      [
        "áĬ°",
        "áĪ¶áĪĻ"
      ],
      [
        "Ġáĭ¨",
        "áī¥áĪ°"
      ],
      [
        "Ġáĭ¨",
        "áĭĲáĭ±"
      ],
      [
        "Ġáĭ¨",
        "áĪĢáĭįáĬ¨áĬĴ"
      ],
      [
        "Ġáĭĵ",
        "áĪ¥áĪŃ"
      ],
      [
        "ĠáĭĽáī²",
        "áĬ¬"
      ],
      [
        "ĠáĬµ",
        "áĪĭ"
      ],
      [
        "ĠáĬµ",
        "áĪİ"
      ],
      [
        "ĠáĬµ",
        "áĪİáĪĻ"
      ],
      [
        "ĠáĬĵ",
        "áĪģáĬ¬"
      ],
      [
        "ĠáĬĵ",
        "áĬ®áĪŃ"
      ],
      [
        "ĠáĬĵ",
        "áįĭáīĦ"
      ],
      [
        "ĠáĭĪáĪł",
        "áĬĲáĭ¨"
      ],
      [
        "ĠáĭĪáĮĪ",
        "áĪ®"
      ],
      [
        "ĠáĭĪáĮĪ",
        "áī¥áĪ®"
      ],
      [
        "ĠáĭĪáĮĪ",
        "áĭĲáĪ¨"
      ],
      [
        "ĠáĭĪáĪķ",
        "áī¥áĪ¨"
      ],
      [
        "ĠáĭĪáĪķ",
        "áī¥áĪ«"
      ],
      [
        "ĠáĭĪáĪķ",
        "áĭŃáĭĪ"
      ],
      [
        "ĠáĭĪáī¥áĪŃ",
        "áĪĥáĬĲ"
      ],
      [
        "ĠáĭĪáĪ¥áĪŃáĭĲ",
        "áīµ"
      ],
      [
        "ĠáĭĪáĪ¥áĪŃáĭĲ",
        "áī³"
      ],
      [
        "ĠáĭĪáĪ¥áĪŃáĭĲ",
        "áī¶"
      ],
      [
        "áĮº",
        "áī°"
      ],
      [
        "ĠáĪ³",
        "áĪĮáĪĿ"
      ],
      [
        "ĠáĪĬ",
        "áī°"
      ],
      [
        "ĠáĪĬ",
        "áīĢ"
      ],
[...]
