{
  "version": "1.0",
  "truncation": null,
  "padding": null,
  "added_tokens": [
    {
      "id": 0,
      "content": "<unk>",
      "single_word": false,
      "lstrip": false,
      "rstrip": false,
      "normalized": false,
      "special": true
    },
    {
      "id": 1,
      "content": "<s>",
      "single_word": false,
      "lstrip": false,
      "rstrip": false,
      "normalized": false,
      "special": true
    },
    {
      "id": 2,
      "content": "</s>",
      "single_word": false,
      "lstrip": false,
      "rstrip": false,
      "normalized": false,
      "special": true
    },
    {
      "id": 3,
      "content": "<pad>",
      "single_word": false,
      "lstrip": false,
      "rstrip": false,
      "normalized": false,
      "special": true
    },
    {
      "id": 4,
      "content": "<mask>",
      "single_word": false,
      "lstrip": false,
      "rstrip": false,
      "normalized": false,
      "special": true
    }
  ],
  "normalizer": {
    "type": "NFC"
  },
  "pre_tokenizer": {
    "type": "Whitespace"
  },
  "post_processor": null,
  "decoder": {
    "type": "WordPiece",
    "prefix": "##",
    "cleanup": true
  },
  "model": {
    "type": "WordPiece",
    "unk_token": "<unk>",
    "continuing_subword_prefix": "##",
    "max_input_chars_per_word": 100,
    "vocab": {
      "<unk>": 0,
      "<s>": 1,
      "</s>": 2,
      "<pad>": 3,
      "<mask>": 4,
      "!": 5,
      "\"": 6,
      "#": 7,
      "$": 8,
      "%": 9,
      "&": 10,
      "'": 11,
      "(": 12,
      ")": 13,
      "*": 14,
      "+": 15,
      ",": 16,
      "-": 17,
      ".": 18,
      "/": 19,
      "0": 20,
      "1": 21,
      "2": 22,
      "3": 23,
      "4": 24,
      "5": 25,
      "6": 26,
      "7": 27,
      "8": 28,
      "9": 29,
      ":": 30,
      ";": 31,
      "<": 32,
      "=": 33,
      ">": 34,
      "?": 35,
      "@": 36,
      "A": 37,
      "B": 38,
      "C": 39,
      "D": 40,
      "E": 41,
      "F": 42,
      "G": 43,
      "H": 44,
      "I": 45,
      "J": 46,
      "K": 47,
      "L": 48,
      "M": 49,
      "N": 50,
      "O": 51,
      "P": 52,
      "Q": 53,
      "R": 54,
      "S": 55,
      "T": 56,
      "U": 57,
      "V": 58,
      "W": 59,
      "X": 60,
      "Y": 61,
      "Z": 62,
      "[": 63,
      "\\": 64,
      "]": 65,
      "^": 66,
      "_": 67,
      "`": 68,
      "a": 69,
      "b": 70,
      "c": 71,
      "d": 72,
      "e": 73,
      "f": 74,
      "g": 75,
      "h": 76,
      "i": 77,
      "j": 78,
      "k": 79,
      "l": 80,
      "m": 81,
      "n": 82,
      "o": 83,
      "p": 84,
      "q": 85,
      "r": 86,
      "s": 87,
      "t": 88,
      "u": 89,
      "v": 90,
      "w": 91,
      "x": 92,
      "y": 93,
      "z": 94,
      "{": 95,
      "|": 96,
      "}": 97,
      "~": 98,
      "¡": 99,
      "¢": 100,
      "£": 101,
      "¤": 102,
      "¥": 103,
      "¦": 104,
      "§": 105,
      "©": 106,
      "¬": 107,
      "®": 108,
      "°": 109,
      "±": 110,
      "¶": 111,
      "·": 112,
      "¿": 113,
      "À": 114,
      "Á": 115,
      "Â": 116,
      "Ã": 117,
      "Ä": 118,
      "Å": 119,
      "Æ": 120,
      "Ç": 121,
      "È": 122,
      "É": 123,
      "Ê": 124,
      "Ë": 125,
      "Ì": 126,
      "Í": 127,
      "Î": 128,
      "Ï": 129,
      "Ð": 130,
      "Ñ": 131,
      "Ò": 132,
      "Ó": 133,
      "Ô": 134,
      "Õ": 135,
      "Ö": 136,
      "×": 137,
      "Ø": 138,
      "Ù": 139,
      "Ú": 140,
      "Û": 141,
      "Ü": 142,
      "Ý": 143,
      "Þ": 144,
      "ß": 145,
      "à": 146,
      "á": 147,
      "â": 148,
      "ã": 149,
      "ä": 150,
      "å": 151,
      "æ": 152,
      "ç": 153,
      "è": 154,
      "é": 155,
      "ê": 156,
      "ë": 157,
      "ì": 158,
      "í": 159,
      "î": 160,
      "ï": 161,
      "ð": 162,
      "ñ": 163,
      "ò": 164,
      "ó": 165,
      "ô": 166,
      "õ": 167,
      "ö": 168,
      "÷": 169,
      "ø": 170,
      "ù": 171,
      "ú": 172,
      "û": 173,
      "ü": 174,
      "ý": 175,
      "þ": 176,
      "ÿ": 177,
      "Ā": 178,
      "ā": 179,
      "Ă": 180,
      "ă": 181,
      "ą": 182,
      "Ć": 183,
      "ć": 184,
      "ĉ": 185,
      "Č": 186,
      "č": 187,
      "ď": 188,
      "Đ": 189,
      "đ": 190,
      "ē": 191,
      "ĕ": 192,
      "ė": 193,
      "ę": 194,
      "ě": 195,
      "Ğ": 196,
      "ğ": 197,
      "Ġ": 198,
      "ġ": 199,
      "Ħ": 200,
      "ħ": 201,
      "Ĩ": 202,
      "ī": 203,
      "Į": 204,
      "į": 205,
      "İ": 206,
      "ı": 207,
      "ķ": 208,
      "ĸ": 209,
      "ļ": 210,
      "Ľ": 211,
      "ľ": 212,
      "Ł": 213,
      "ł": 214,
      "ń": 215,
      "ň": 216,
      "ŋ": 217,
      "Ō": 218,
      "ō": 219,
      "ŏ": 220,
      "ő": 221,
      "Œ": 222,
      "œ": 223,
      "Ř": 224,
      "ř": 225,
      "Ś": 226,
      "ś": 227,
      "Ŝ": 228,
      "Ş": 229,
      "ş": 230,
      "Š": 231,
      "š": 232,
      "ţ": 233,
      "ť": 234,
      "Ŧ": 235,
      "Ū": 236,
      "ū": 237,
      "ŭ": 238,
      "ů": 239,
      "ű": 240,
      "ų": 241,
      "ŵ": 242,
      "Ÿ": 243,
      "Ź": 244,
      "ź": 245,
      "Ż": 246,
      "ż": 247,
      "Ž": 248,
      "ž": 249,
      "Ƃ": 250,
      "ƃ": 251,
      "Ƅ": 252,
      "ƅ": 253,
      "Ɔ": 254,
      "Ƈ": 255,
      "Ƌ": 256,
      "Ə": 257,
      "Ɛ": 258,
      "ƒ": 259,
      "Ơ": 260,
      "ơ": 261,
      "Ƭ": 262,
      "Ư": 263,
      "ư": 264,
      "ƿ": 265,
      "ǎ": 266,
      "ǐ": 267,
      "Ǒ": 268,
      "ǒ": 269,
      "Ǔ": 270,
      "ǔ": 271,
      "ǘ": 272,
      "Ǜ": 273,
      "ǜ": 274,
      "ǝ": 275,
      "Ǟ": 276,
      "Ǥ": 277,
      "ǫ": 278,
      "ǰ": 279,
      "Ș": 280,
      "ș": 281,
      "ț": 282,
      "ȝ": 283,
      "ɑ": 284,
      "ɒ": 285,
      "ɔ": 286,
      "ɗ": 287,
      "ə": 288,
      "ɛ": 289,
      "ɡ": 290,
      "ɢ": 291,
      "ɣ": 292,
      "ɨ": 293,
      "ɪ": 294,
      "ɭ": 295,
      "ɴ": 296,
      "ɹ": 297,
      "ɻ": 298,
      "ɽ": 299,
      "ɾ": 300,
      "ʀ": 301,
      "ʁ": 302,
      "ʃ": 303,
      "ʉ": 304,
      "ʊ": 305,
      "ʌ": 306,
      "ʏ": 307,
      "ʔ": 308,
      "ʕ": 309,
      "ʖ": 310,
      "ʘ": 311,
      "ʺ": 312,
      "ʻ": 313,
      "ʼ": 314,
      "ʽ": 315,
      "ʾ": 316,
      "ʿ": 317,
      "˃": 318,
      "ˆ": 319,
      "ˈ": 320,
      "ˉ": 321,
      "ˋ": 322,
      "ː": 323,
      "˗": 324,
      "˩": 325,
      "ˮ": 326,
      "˴": 327,
      "̀": 328,
      "́": 329,
      "̂": 330,
      "̃": 331,
      "̄": 332,
      "̇": 333,
      "̈": 334,
      "̊": 335,
      "̋": 336,
      "̎": 337,
      "̏": 338,
      "̕": 339,
      "̣": 340,
      "̧": 341,
      "̱": 342,
      "̵": 343,
      "̶": 344,
      "̸": 345,
      "̿": 346,
      "͇": 347,
      "͜": 348,
      "͡": 349,
      "Ά": 350,
      "Ί": 351,
      "Ύ": 352,
      "Ώ": 353,
      "Α": 354,
      "Β": 355,
      "Γ": 356,
      "Δ": 357,
      "Ε": 358,
      "Ζ": 359,
      "Η": 360,
      "Ι": 361,
      "Κ": 362,
      "Λ": 363,
      "Μ": 364,
      "Ν": 365,
      "Ο": 366,
      "Π": 367,
      "Ρ": 368,
      "Σ": 369,
      "Τ": 370,
      "Υ": 371,
      "Φ": 372,
      "Χ": 373,
      "Ω": 374,
      "ά": 375,
      "έ": 376,
      "ή": 377,
      "ί": 378,
      "α": 379,
      "β": 380,
      "γ": 381,
      "δ": 382,
      "ε": 383,
      "ζ": 384,
      "η": 385,
      "θ": 386,
      "ι": 387,
      "κ": 388,
      "λ": 389,
      "μ": 390,
      "ν": 391,
      "ξ": 392,
      "ο": 393,
      "π": 394,
      "ρ": 395,
      "ς": 396,
      "σ": 397,
      "τ": 398,
      "υ": 399,
      "φ": 400,
      "χ": 401,
      "ψ": 402,
      "ω": 403,
      "ϊ": 404,
      "ό": 405,
      "ύ": 406,
      "ώ": 407,
      "Ϝ": 408,
      "ϝ": 409,
      "ϟ": 410,
      "Ϻ": 411,
      "Ё": 412,
      "Ѕ": 413,
      "І": 414,
      "Ј": 415,
      "Њ": 416,
      "Ў": 417,
      "А": 418,
      "Б": 419,
      "В": 420,
      "Г": 421,
      "Д": 422,
      "Е": 423,
      "Ж": 424,
      "З": 425,
      "И": 426,
      "Й": 427,
      "К": 428,
      "Л": 429,
      "М": 430,
      "Н": 431,
      "О": 432,
      "П": 433,
      "Р": 434,
      "С": 435,
      "Т": 436,
      "У": 437,
      "Ф": 438,
      "Х": 439,
      "Ц": 440,
      "Ч": 441,
      "Ш": 442,
      "Щ": 443,
      "Ы": 444,
      "Ь": 445,
      "Э": 446,
      "Ю": 447,
      "Я": 448,
      "а": 449,
      "б": 450,
      "в": 451,
      "г": 452,
      "д": 453,
      "е": 454,
      "ж": 455,
      "з": 456,
      "и": 457,
      "й": 458,
      "к": 459,
      "л": 460,
      "м": 461,
      "н": 462,
      "о": 463,
      "п": 464,
      "р": 465,
      "с": 466,
      "т": 467,
      "у": 468,
      "ф": 469,
      "х": 470,
      "ц": 471,
      "ч": 472,
      "ш": 473,
      "щ": 474,
      "ъ": 475,
      "ы": 476,
      "ь": 477,
      "э": 478,
      "ю": 479,
      "я": 480,
      "ё": 481,
      "ђ": 482,
      "є": 483,
      "ѕ": 484,
      "і": 485,
      "ї": 486,
      "ј": 487,
      "љ": 488,
      "њ": 489,
      "ћ": 490,
      "ў": 491,
      "ѡ": 492,
      "ѵ": 493,
      "҉": 494,
      "Ғ": 495,
      "ғ": 496,
      "қ": 497,
      "ү": 498,
      "ҳ": 499,
      "һ": 500,
      "ӣ": 501,
      "Ԁ": 502,
      "ԁ": 503,
      "Ԍ": 504,
      "ԝ": 505,
      "Ա": 506,
      "Գ": 507,
      "Դ": 508,
      "Ե": 509,
      "Ը": 510,
      "Թ": 511,
      "Ժ": 512,
      "Ի": 513,
      "Խ": 514,
      "Մ": 515,
      "Ո": 516,
      "Պ": 517,
      "Ս": 518,
      "Փ": 519,
      "Օ": 520,
      "ա": 521,
      "բ": 522,
      "գ": 523,
      "դ": 524,
      "ե": 525,
      "է": 526,
      "ը": 527,
      "թ": 528,
      "ի": 529,
      "լ": 530,
      "խ": 531,
      "կ": 532,
      "հ": 533,
      "ձ": 534,
      "ղ": 535,
      "մ": 536,
      "յ": 537,
      "ն": 538,
      "ո": 539,
      "չ": 540,
      "պ": 541,
      "ջ": 542,
      "ռ": 543,
      "ս": 544,
      "վ": 545,
      "տ": 546,
      "ր": 547,
      "ց": 548,
      "ւ": 549,
      "փ": 550,
      "ք": 551,
      "֑": 552,
      "֖": 553,
      "֗": 554,
      "֙": 555,
      "֛": 556,
      "֞": 557,
      "֣": 558,
      "֥": 559,
      "֫": 560,
      "ְ": 561,
      "ֱ": 562,
      "ֲ": 563,
      "ֳ": 564,
      "ִ": 565,
      "ֵ": 566,
      "ֶ": 567,
      "ַ": 568,
      "ָ": 569,
      "ֹ": 570,
      "ֻ": 571,
      "ּ": 572,
      "ֽ": 573,
      "ׁ": 574,
      "ׂ": 575,
      "א": 576,
      "ב": 577,
      "ג": 578,
      "ד": 579,
      "ה": 580,
      "ו": 581,
      "ז": 582,
      "ח": 583,
      "ט": 584,
      "י": 585,
      "ך": 586,
      "כ": 587,
      "ל": 588,
      "ם": 589,
      "מ": 590,
      "ן": 591,
      "נ": 592,
      "ס": 593,
      "ע": 594,
      "ף": 595,
      "פ": 596,
      "ץ": 597,
      "צ": 598,
      "ק": 599,
      "ר": 600,
      "ש": 601,
      "ת": 602,
      "،": 603,
      "؟": 604,
      "ء": 605,
      "آ": 606,
      "أ": 607,
      "ؤ": 608,
      "إ": 609,
      "ئ": 610,
      "ا": 611,
      "ب": 612,
      "ة": 613,
      "ت": 614,
      "ث": 615,
      "ج": 616,
      "ح": 617,
      "خ": 618,
      "د": 619,
      "ذ": 620,
      "ر": 621,
      "ز": 622,
      "س": 623,
      "ش": 624,
      "ص": 625,
      "ض": 626,
      "ط": 627,
      "ظ": 628,
      "ع": 629,
      "غ": 630,
      "ـ": 631,
      "ف": 632,
      "ق": 633,
      "ك": 634,
      "ل": 635,
      "م": 636,
      "ن": 637,
      "ه": 638,
      "و": 639,
      "ى": 640,
      "ي": 641,
      "ً": 642,
      "ٌ": 643,
      "ٍ": 644,
      "َ": 645,
      "ُ": 646,
      "ِ": 647,
      "ّ": 648,
      "ْ": 649,
      "٠": 650,
      "١": 651,
      "٢": 652,
      "٤": 653,
      "٥": 654,
      "٦": 655,
      "٧": 656,
      "٨": 657,
      "٪": 658,
      "ٰ": 659,
      "ٱ": 660,
      "ٹ": 661,
      "ټ": 662,
      "ٽ": 663,
      "پ": 664,
      "ٿ": 665,
      "ڀ": 666,
      "چ": 667,
      "ڈ": 668,
      "ڌ": 669,
      "ڑ": 670,
      "ژ": 671,
      "ک": 672,
      "گ": 673,
      "ں": 674,
      "ڼ": 675,
      "ھ": 676,
      "ہ": 677,
      "ۃ": 678,
      "ۆ": 679,
      "ۇ": 680,
      "ۈ": 681,
      "ی": 682,
      "ې": 683,
      "ے": 684,
      "ۓ": 685,
      "ە": 686,
      "۞": 687,
      "۟": 688,
      "۩": 689,
      "۳": 690,
      "ܐ": 691,
      "ܗ": 692,
      "ܘ": 693,
      "ܛ": 694,
      "ܝ": 695,
      "ܠ": 696,
      "ܡ": 697,
      "ܣ": 698,
      "ܩ": 699,
      "ܪ": 700,
      "ܲ": 701,
      "ܵ": 702,
      "ހ": 703,
      "ނ": 704,
      "ރ": 705,
      "ބ": 706,
      "ކ": 707,
      "އ": 708,
      "ވ": 709,
      "ދ": 710,
      "ތ": 711,
      "ޓ": 712,
      "ޠ": 713,
      "ޡ": 714,
      "ި": 715,
      "ު": 716,
      "ެ": 717,
      "ޮ": 718,
      "ߋ": 719,
      "ߴ": 720,
      "ߵ": 721,
      "߹": 722,
      "ं": 723,
      "ः": 724,
      "अ": 725,
      "आ": 726,
      "इ": 727,
      "ई": 728,
      "उ": 729,
      "ए": 730,
      "औ": 731,
      "क": 732,
      "ख": 733,
      "ग": 734,
      "घ": 735,
      "च": 736,
      "छ": 737,
      "ज": 738,
      "झ": 739,
      "ट": 740,
      "ठ": 741,
      "ड": 742,
      "ण": 743,
      "त": 744,
      "थ": 745,
      "द": 746,
      "ध": 747,
      "न": 748,
      "प": 749,
      "फ": 750,
      "ब": 751,
      "भ": 752,
      "म": 753,
      "य": 754,
      "र": 755,
      "ल": 756,
      "व": 757,
      "श": 758,
      "ष": 759,
      "स": 760,
      "ह": 761,
      "़": 762,
      "ा": 763,
      "ि": 764,
      "ी": 765,
      "ु": 766,
      "ू": 767,
      "ृ": 768,
      "े": 769,
      "ै": 770,
      "ो": 771,
      "ौ": 772,
      "्": 773,
      "।": 774,
      "०": 775,
      "१": 776,
      "२": 777,
      "५": 778,
      "७": 779,
      "९": 780,
      "ং": 781,
      "আ": 782,
      "ই": 783,
      "উ": 784,
      "এ": 785,
      "ও": 786,
      "ক": 787,
      "চ": 788,
      "জ": 789,
      "ড": 790,
      "ত": 791,
      "থ": 792,
      "দ": 793,
      "ন": 794,
      "প": 795,
      "ফ": 796,
      "ব": 797,
      "ভ": 798,
      "ম": 799,
      "য": 800,
      "র": 801,
      "ল": 802,
      "শ": 803,
      "স": 804,
      "হ": 805,
      "়": 806,
      "া": 807,
      "ি": 808,
      "ী": 809,
      "ু": 810,
      "ে": 811,
      "ো": 812,
      "্": 813,
      "২": 814,
      "৷": 815,
      "ਂ": 816,
      "ਅ": 817,
      "ਈ": 818,
      "ਉ": 819,
      "ਊ": 820,
      "ਓ": 821,
      "ਕ": 822,
      "ਖ": 823,
      "ਗ": 824,
      "ਚ": 825,
      "ਛ": 826,
      "ਜ": 827,
      "ਡ": 828,
      "ਣ": 829,
      "ਤ": 830,
      "ਥ": 831,
      "ਦ": 832,
      "ਨ": 833,
      "ਪ": 834,
      "ਫ": 835,
      "ਬ": 836,
      "ਮ": 837,
      "ਰ": 838,
      "ਲ": 839,
      "ਵ": 840,
      "ਸ": 841,
      "ਹ": 842,
      "਼": 843,
      "ਾ": 844,
      "ਿ": 845,
      "ੀ": 846,
      "ੂ": 847,
      "ੇ": 848,
      "ੈ": 849,
      "ੋ": 850,
      "੧": 851,
      "੭": 852,
      "੮": 853,
      "੯": 854,
      "ੰ": 855,
      "ੱ": 856,
      "ગ": 857,
      "જ": 858,
      "ત": 859,
      "ર": 860,
      "ા": 861,
      "ી": 862,
      "ુ": 863,
      "அ": 864,
      "ஏ": 865,
      "க": 866,
      "ங": 867,
      "ச": 868,
      "ட": 869,
      "ண": 870,
      "த": 871,
      "ந": 872,
      "ன": 873,
      "ம": 874,
      "ர": 875,
      "ற": 876,
      "ல": 877,
      "ள": 878,
      "ழ": 879,
      "வ": 880,
      "ா": 881,
      "ி": 882,
      "ு": 883,
      "ே": 884,
      "ை": 885,
      "்": 886,
      "ௐ": 887,
      "ం": 888,
      "అ": 889,
      "ఏ": 890,
      "గ": 891,
      "ఘ": 892,
      "డ": 893,
      "త": 894,
      "థ": 895,
      "ధ": 896,
      "న": 897,
      "ప": 898,
      "మ": 899,
      "ర": 900,
      "ల": 901,
      "శ": 902,
      "స": 903,
      "ా": 904,
      "ి": 905,
      "ు": 906,
      "ె": 907,
      "్": 908,
      "ಂ": 909,
      "ಕ": 910,
      "ಚ": 911,
      "ಡ": 912,
      "ಣ": 913,
      "ನ": 914,
      "ಪ": 915,
      "ಮ": 916,
      "ರ": 917,
      "ವ": 918,
      "ಸ": 919,
      "ಹ": 920,
      "ಾ": 921,
      "ಿ": 922,
      "ು": 923,
      "ೈ": 924,
      "್": 925,
      "ം": 926,
      "എ": 927,
      "ഏ": 928,
      "ക": 929,
      "ഗ": 930,
      "ത": 931,
      "പ": 932,
      "ബ": 933,
      "ഭ": 934,
      "മ": 935,
      "യ": 936,
      "ല": 937,
      "ള": 938,
      "സ": 939,
      "ാ": 940,
      "ൂ": 941,
      "േ": 942,
      "്": 943,
      "ൗ": 944,
      "ൻ": 945,
      "ൾ": 946,
      "ං": 947,
      "ඇ": 948,
      "ඉ": 949,
      "උ": 950,
      "එ": 951,
      "ක": 952,
      "ජ": 953,
      "ත": 954,
      "ද": 955,
      "ධ": 956,
      "න": 957,
      "ම": 958,
      "ය": 959,
      "ර": 960,
      "ල": 961,
      "ස": 962,
      "හ": 963,
      "ෆ": 964,
      "්": 965,
      "ා": 966,
      "ි": 967,
      "ු": 968,
      "ේ": 969,
      "ෝ": 970,
      "ก": 971,
      "ข": 972,
      "ค": 973,
      "ง": 974,
      "จ": 975,
      "ฉ": 976,
      "ช": 977,
      "ซ": 978,
      "ญ": 979,
      "ฏ": 980,
      "ณ": 981,
      "ด": 982,
      "ต": 983,
      "ถ": 984,
      "ท": 985,
      "ธ": 986,
      "น": 987,
      "บ": 988,
      "ป": 989,
      "ผ": 990,
      "พ": 991,
      "ฟ": 992,
      "ภ": 993,
      "ม": 994,
      "ย": 995,
      "ร": 996,
      "ล": 997,
      "ว": 998,
      "ษ": 999,
      "ส": 1000,
      "ห": 1001,
      "ฬ": 1002,
      "อ": 1003,
      "ฮ": 1004,
      "ฯ": 1005,
      "ั": 1006,
      "า": 1007,
      "ิ": 1008,
      "ี": 1009,
      "ึ": 1010,
      "ื": 1011,
      "ุ": 1012,
      "ู": 1013,
      "฿": 1014,
      "เ": 1015,
      "แ": 1016,
      "โ": 1017,
      "ใ": 1018,
      "ไ": 1019,
      "ๆ": 1020,
      "็": 1021,
      "่": 1022,
      "้": 1023,
      "์": 1024,
      "ํ": 1025,
      "๏": 1026,
      "๑": 1027,
      "๒": 1028,
      "ຊ": 1029,
      "ມ": 1030,
      "ົ": 1031,
      "་": 1032,
      "།": 1033,
      "ཏ": 1034,
      "ཐ": 1035,
      "བ": 1036,
      "ཝ": 1037,
      "ར": 1038,
      "ཨ": 1039,
      "ེ": 1040,
      "ོ": 1041,
      "က": 1042,
      "ခ": 1043,
      "င": 1044,
      "စ": 1045,
      "ဆ": 1046,
      "ဒ": 1047,
      "န": 1048,
      "ပ": 1049,
      "ဖ": 1050,
      "ဗ": 1051,
      "မ": 1052,
      "ယ": 1053,
      "ရ": 1054,
      "ဝ": 1055,
      "သ": 1056,
      "အ": 1057,
      "ာ": 1058,
      "ိ": 1059,
      "ီ": 1060,
      "ု": 1061,
      "ေ": 1062,
      "ဲ": 1063,
      "့": 1064,
      "း": 1065,
      "္": 1066,
      "်": 1067,
      "ျ": 1068,
      "ြ": 1069,
      "ှ": 1070,
      "၁": 1071,
      "၅": 1072,
      "၇": 1073,
      "၈": 1074,
      "၊": 1075,
      "၏": 1076,
      "ა": 1077,
      "ბ": 1078,
      "გ": 1079,
      "დ": 1080,
      "ე": 1081,
      "ვ": 1082,
      "ზ": 1083,
      "თ": 1084,
      "ი": 1085,
      "კ": 1086,
      "ლ": 1087,
      "მ": 1088,
      "ნ": 1089,
      "ო": 1090,
      "პ": 1091,
      "რ": 1092,
      "ს": 1093,
      "ტ": 1094,
      "უ": 1095,
      "ფ": 1096,
      "ქ": 1097,
      "ღ": 1098,
      "ყ": 1099,
      "შ": 1100,
      "ც": 1101,
      "ძ": 1102,
      "წ": 1103,
      "ჭ": 1104,
      "ხ": 1105,
      "ჯ": 1106,
      "ᄂ": 1107,
      "ᄒ": 1108,
      "ᅲ": 1109,
      "ᅳ": 1110,
      "ᅵ": 1111,
      "ᆞ": 1112,
      "ᆯ": 1113,
      "ᆸ": 1114,
      "ᇬ": 1115,
      "ᇭ": 1116,
      "ሀ": 1117,
      "ሁ": 1118,
      "ሂ": 1119,
      "ሃ": 1120,
      "ሄ": 1121,
      "ህ": 1122,
      "ሆ": 1123,
      "ሇ": 1124,
      "ለ": 1125,
      "ሉ": 1126,
      "ሊ": 1127,
      "ላ": 1128,
      "ሌ": 1129,
      "ል": 1130,
      "ሎ": 1131,
      "ሏ": 1132,
      "ሐ": 1133,
      "ሑ": 1134,
      "ሒ": 1135,
      "ሓ": 1136,
      "ሔ": 1137,
      "ሕ": 1138,
      "ሖ": 1139,
      "ሗ": 1140,
      "መ": 1141,
      "ሙ": 1142,
      "ሚ": 1143,
      "ማ": 1144,
      "ሜ": 1145,
      "ም": 1146,
      "ሞ": 1147,
      "ሟ": 1148,
      "ሠ": 1149,
      "ሡ": 1150,
      "ሢ": 1151,
      "ሣ": 1152,
      "ሤ": 1153,
      "ሥ": 1154,
      "ሦ": 1155,
      "ሧ": 1156,
      "ረ": 1157,
      "ሩ": 1158,
      "ሪ": 1159,
      "ራ": 1160,
      "ሬ": 1161,
      "ር": 1162,
      "ሮ": 1163,
      "ሯ": 1164,
      "ሰ": 1165,
      "ሱ": 1166,
      "ሲ": 1167,
      "ሳ": 1168,
      "ሴ": 1169,
      "ስ": 1170,
      "ሶ": 1171,
      "ሷ": 1172,
      "ሸ": 1173,
      "ሹ": 1174,
      "ሺ": 1175,
      "ሻ": 1176,
      "ሼ": 1177,
      "ሽ": 1178,
      "ሾ": 1179,
      "ሿ": 1180,
      "ቀ": 1181,
      "ቁ": 1182,
      "ቂ": 1183,
      "ቃ": 1184,
      "ቄ": 1185,
      "ቅ": 1186,
      "ቆ": 1187,
      "ቇ": 1188,
      "ቈ": 1189,
      "ቊ": 1190,
      "ቋ": 1191,
      "ቌ": 1192,
      "ቍ": 1193,
      "ቐ": 1194,
      "ቑ": 1195,
      "ቒ": 1196,
      "ቓ": 1197,
      "ቔ": 1198,
      "ቕ": 1199,
      "ቖ": 1200,
      "ቘ": 1201,
      "ቚ": 1202,
      "ቛ": 1203,
      "ቜ": 1204,
      "ቝ": 1205,
      "በ": 1206,
      "ቡ": 1207,
      "ቢ": 1208,
      "ባ": 1209,
      "ቤ": 1210,
      "ብ": 1211,
      "ቦ": 1212,
      "ቧ": 1213,
      "ቨ": 1214,
      "ቩ": 1215,
      "ቪ": 1216,
      "ቫ": 1217,
      "ቬ": 1218,
      "ቭ": 1219,
      "ቮ": 1220,
      "ቯ": 1221,
      "ተ": 1222,
      "ቱ": 1223,
      "ቲ": 1224,
      "ታ": 1225,
      "ቴ": 1226,
      "ት": 1227,
      "ቶ": 1228,
      "ቷ": 1229,
      "ቸ": 1230,
      "ቹ": 1231,
      "ቺ": 1232,
      "ቻ": 1233,
      "ቼ": 1234,
      "ች": 1235,
      "ቾ": 1236,
      "ቿ": 1237,
      "ኀ": 1238,
      "ኁ": 1239,
      "ኂ": 1240,
      "ኃ": 1241,
      "ኄ": 1242,
      "ኅ": 1243,
      "ኆ": 1244,
      "ኇ": 1245,
      "ኈ": 1246,
      "ኊ": 1247,
      "ኋ": 1248,
      "ኌ": 1249,
      "ኍ": 1250,
      "ነ": 1251,
      "ኑ": 1252,
      "ኒ": 1253,
      "ና": 1254,
      "ኔ": 1255,
      "ን": 1256,
      "ኖ": 1257,
      "ኗ": 1258,
      "ኘ": 1259,
      "ኙ": 1260,
      "ኚ": 1261,
      "ኛ": 1262,
      "ኜ": 1263,
      "ኝ": 1264,
      "ኞ": 1265,
      "ኟ": 1266,
      "አ": 1267,
      "ኡ": 1268,
      "ኢ": 1269,
      "ኣ": 1270,
      "ኤ": 1271,
      "እ": 1272,
      "ኦ": 1273,
      "ኧ": 1274,
      "ከ": 1275,
      "ኩ": 1276,
      "ኪ": 1277,
      "ካ": 1278,
      "ኬ": 1279,
      "ክ": 1280,
      "ኮ": 1281,
      "ኯ": 1282,
      "ኰ": 1283,
      "ኲ": 1284,
      "ኳ": 1285,
      "ኴ": 1286,
      "ኵ": 1287,
      "ኸ": 1288,
      "ኹ": 1289,
      "ኺ": 1290,
      "ኻ": 1291,
      "ኼ": 1292,
      "ኽ": 1293,
      "ኾ": 1294,
      "ዀ": 1295,
      "ዂ": 1296,
      "ዃ": 1297,
      "ዄ": 1298,
      "ዅ": 1299,
      "ወ": 1300,
      "ዉ": 1301,
      "ዊ": 1302,
      "ዋ": 1303,
      "ዌ": 1304,
      "ው": 1305,
      "ዎ": 1306,
      "ዏ": 1307,
      "ዐ": 1308,
      "ዑ": 1309,
      "ዒ": 1310,
      "ዓ": 1311,
      "ዔ": 1312,
      "ዕ": 1313,
      "ዖ": 1314,
      "ዘ": 1315,
      "ዙ": 1316,
      "ዚ": 1317,
      "ዛ": 1318,
      "ዜ": 1319,
      "ዝ": 1320,
      "ዞ": 1321,
      "ዟ": 1322,
      "ዠ": 1323,
      "ዡ": 1324,
      "ዢ": 1325,
      "ዣ": 1326,
      "ዤ": 1327,
      "ዥ": 1328,
      "ዦ": 1329,
      "ዧ": 1330,
      "የ": 1331,
      "ዩ": 1332,
      "ዪ": 1333,
      "ያ": 1334,
      "ዬ": 1335,
      "ይ": 1336,
      "ዮ": 1337,
      "ዯ": 1338,
      "ደ": 1339,
      "ዱ": 1340,
      "ዲ": 1341,
      "ዳ": 1342,
      "ዴ": 1343,
      "ድ": 1344,
      "ዶ": 1345,
      "ዷ": 1346,
      "ዸ": 1347,
      "ዹ": 1348,
      "ዺ": 1349,
      "ዻ": 1350,
      "ዼ": 1351,
      "ዽ": 1352,
      "ዾ": 1353,
      "ዿ": 1354,
      "ጀ": 1355,
      "ጁ": 1356,
      "ጂ": 1357,
      "ጃ": 1358,
      "ጄ": 1359,
      "ጅ": 1360,
      "ጆ": 1361,
      "ጇ": 1362,
      "ገ": 1363,
      "ጉ": 1364,
      "ጊ": 1365,
      "ጋ": 1366,
      "ጌ": 1367,
      "ግ": 1368,
      "ጎ": 1369,
      "ጏ": 1370,
      "ጐ": 1371,
      "ጒ": 1372,
      "ጓ": 1373,
      "ጔ": 1374,
      "ጕ": 1375,
      "ጘ": 1376,
      "ጙ": 1377,
      "ጚ": 1378,
      "ጛ": 1379,
      "ጜ": 1380,
      "ጝ": 1381,
      "ጞ": 1382,
      "ጟ": 1383,
      "ጠ": 1384,
      "ጡ": 1385,
      "ጢ": 1386,
      "ጣ": 1387,
      "ጤ": 1388,
      "ጥ": 1389,
      "ጦ": 1390,
      "ጧ": 1391,
      "ጨ": 1392,
      "ጩ": 1393,
      "ጪ": 1394,
      "ጫ": 1395,
      "ጬ": 1396,
      "ጭ": 1397,
      "ጮ": 1398,
      "ጯ": 1399,
      "ጰ": 1400,
      "ጱ": 1401,
      "ጲ": 1402,
      "ጳ": 1403,
      "ጴ": 1404,
      "ጵ": 1405,
      "ጶ": 1406,
      "ጷ": 1407,
      "ጸ": 1408,
      "ጹ": 1409,
      "ጺ": 1410,
      "ጻ": 1411,
      "ጼ": 1412,
      "ጽ": 1413,
      "ጾ": 1414,
      "ጿ": 1415,
      "ፀ": 1416,
      "ፁ": 1417,
      "ፂ": 1418,
      "ፃ": 1419,
      "ፄ": 1420,
      "ፅ": 1421,
      "ፆ": 1422,
      "ፇ": 1423,
      "ፈ": 1424,
      "ፉ": 1425,
      "ፊ": 1426,
      "ፋ": 1427,
      "ፌ": 1428,
      "ፍ": 1429,
      "ፎ": 1430,
      "ፏ": 1431,
      "ፐ": 1432,
      "ፑ": 1433,
      "ፒ": 1434,
      "ፓ": 1435,
      "ፔ": 1436,
      "ፕ": 1437,
      "ፖ": 1438,
      "ፗ": 1439,
      "ፘ": 1440,
      "ፙ": 1441,
      "ፚ": 1442,
      "፝": 1443,
      "፞": 1444,
      "፟": 1445,
      "፠": 1446,
      "፡": 1447,
      "።": 1448,
      "፣": 1449,
      "፤": 1450,
      "፥": 1451,
      "፦": 1452,
      "፧": 1453,
      "፨": 1454,
      "፩": 1455,
      "፪": 1456,
      "፫": 1457,
      "፬": 1458,
      "፭": 1459,
      "፮": 1460,
      "፯": 1461,
      "፰": 1462,
      "፱": 1463,
      "፲": 1464,
      "፳": 1465,
      "፴": 1466,
      "፵": 1467,
      "፶": 1468,
      "፷": 1469,
      "፸": 1470,
      "፹": 1471,
      "፺": 1472,
      "፻": 1473,
      "፼": 1474,
      "ᎀ": 1475,
      "ᎁ": 1476,
      "ᎂ": 1477,
      "ᎃ": 1478,
      "ᎄ": 1479,
      "ᎆ": 1480,
      "ᎇ": 1481,
      "ᎈ": 1482,
      "ᎉ": 1483,
      "ᎊ": 1484,
      "ᎋ": 1485,
      "ᎌ": 1486,
      "ᎎ": 1487,
      "ᎏ": 1488,
      "᎐": 1489,
      "᎒": 1490,
      "᎓": 1491,
      "᎕": 1492,
      "᎖": 1493,
      "᎗": 1494,
      "᎘": 1495,
      "Ꮇ": 1496,
      "᐀": 1497,
      "ᐁ": 1498,
      "ᐃ": 1499,
      "ᐅ": 1500,
      "ᐈ": 1501,
      "ᐊ": 1502,
      "ᐧ": 1503,
      "ᐲ": 1504,
      "ᐳ": 1505,
      "ᑎ": 1506,
      "ᑐ": 1507,
      "ᑑ": 1508,
      "ᑕ": 1509,
      "ᑖ": 1510,
      "ᑭ": 1511,
      "ᑲ": 1512,
      "ᒃ": 1513,
      "ᒪ": 1514,
      "ᒻ": 1515,
      "ᓕ": 1516,
      "ᓗ": 1517,
      "ᓪ": 1518,
      "ᓯ": 1519,
      "ᔪ": 1520,
      "ᕆ": 1521,
      "ᖅ": 1522,
      "ᚠ": 1523,
      "ក": 1524,
      "គ": 1525,
      "ង": 1526,
      "ច": 1527,
      "ឆ": 1528,
      "ដ": 1529,
      "ត": 1530,
      "ទ": 1531,
      "ន": 1532,
      "ប": 1533,
      "ព": 1534,
      "យ": 1535,
      "រ": 1536,
      "វ": 1537,
      "ស": 1538,
      "អ": 1539,
      "ា": 1540,
      "ិ": 1541,
      "ី": 1542,
      "េ": 1543,
      "ំ": 1544,
      "៊": 1545,
      "្": 1546,
      "ᤰ": 1547,
      "ᥙ": 1548,
      "᧐": 1549,
      "ᯭ": 1550,
      "ᴅ": 1551,
      "ᴇ": 1552,
      "ᴍ": 1553,
      "ᴏ": 1554,
      "ᴛ": 1555,
      "ᴜ": 1556,
      "ḍ": 1557,
      "Ḥ": 1558,
      "ḥ": 1559,
      "ḵ": 1560,
      "ḷ": 1561,
      "ṁ": 1562,
      "ṃ": 1563,
      "ṇ": 1564,
      "ṗ": 1565,
      "ṭ": 1566,
      "ẖ": 1567,
      "ạ": 1568,
      "ả": 1569,
      "ấ": 1570,
      "ầ": 1571,
      "ậ": 1572,
      "ắ": 1573,
      "ẵ": 1574,
      "ặ": 1575,
      "Ế": 1576,
      "ế": 1577,
      "ể": 1578,
      "ễ": 1579,
      "ệ": 1580,
      "Ị": 1581,
      "ị": 1582,
      "ọ": 1583,
      "ố": 1584,
      "ồ": 1585,
      "ỗ": 1586,
      "ộ": 1587,
      "ớ": 1588,
      "ờ": 1589,
      "ỡ": 1590,
      "ụ": 1591,
      "ứ": 1592,
      "ừ": 1593,
      "ử": 1594,
      "ἀ": 1595,
      "ἄ": 1596,
      "ἐ": 1597,
      "ἑ": 1598,
      "ἔ": 1599,
      "ἕ": 1600,
      "ἡ": 1601,
      "ἥ": 1602,
      "ἰ": 1603,
      "ἶ": 1604,
      "ἷ": 1605,
      "Ἰ": 1606,
      "ὄ": 1607,
      "ὅ": 1608,
      "ὐ": 1609,
      "ὑ": 1610,
      "ὔ": 1611,
      "ὕ": 1612,
      "ὠ": 1613,
      "ὥ": 1614,
      "ὰ": 1615,
      "ὲ": 1616,
      "ὴ": 1617,
      "ὸ": 1618,
      "ὼ": 1619,
      "ᾶ": 1620,
      "ῆ": 1621,
      "ῦ": 1622,
      "ῳ": 1623,
      "ῴ": 1624,
      "ῶ": 1625,
      "ῷ": 1626,
      "‐": 1627,
      "‒": 1628,
      "―": 1629,
      "‖": 1630,
      "‛": 1631,
      "‟": 1632,
      "†": 1633,
      "‡": 1634,
      "•": 1635,
      "‣": 1636,
      "‧": 1637,
      "‰": 1638,
      "′": 1639,
      "‵": 1640,
      "‹": 1641,
      "›": 1642,
      "※": 1643,
      "‿": 1644,
      "⁃": 1645,
      "⁄": 1646,
      "⁝": 1647,
      "₦": 1648,
      "₩": 1649,
      "€": 1650,
      "₱": 1651,
      "₴": 1652,
      "₸": 1653,
      "₹": 1654,
      "₺": 1655,
      "₽": 1656,
      "₿": 1657,
      "⃣": 1658,
      "←": 1659,
      "↑": 1660,
      "→": 1661,
      "↓": 1662,
      "↔": 1663,
      "↖": 1664,
      "↗": 1665,
      "↘": 1666,
      "↙": 1667,
      "↠": 1668,
      "↩": 1669,
      "↪": 1670,
      "↮": 1671,
      "↳": 1672,
      "↻": 1673,
      "⇉": 1674,
      "⇊": 1675,
      "⇏": 1676,
      "⇐": 1677,
      "⇑": 1678,
      "⇒": 1679,
      "⇓": 1680,
      "⇔": 1681,
      "⇘": 1682,
      "⇝": 1683,
      "⇡": 1684,
      "⇢": 1685,
      "⇣": 1686,
      "⇧": 1687,
      "⇨": 1688,
      "⇿": 1689,
      "∀": 1690,
      "∅": 1691,
      "∆": 1692,
      "∈": 1693,
      "∉": 1694,
      "∎": 1695,
      "−": 1696,
      "∕": 1697,
      "∗": 1698,
      "∘": 1699,
      "∙": 1700,
      "√": 1701,
      "∞": 1702,
      "∠": 1703,
      "∦": 1704,
      "∧": 1705,
      "∨": 1706,
      "∪": 1707,
      "∫": 1708,
      "∴": 1709,
      "∵": 1710,
      "∷": 1711,
      "∼": 1712,
      "≅": 1713,
      "≈": 1714,
      "≔": 1715,
      "≠": 1716,
      "≢": 1717,
      "≤": 1718,
      "≥": 1719,
      "≦": 1720,
      "≧": 1721,
      "≪": 1722,
      "≫": 1723,
      "≮": 1724,
      "≯": 1725,
      "≱": 1726,
      "⊊": 1727,
      "⊖": 1728,
      "⊙": 1729,
      "⊛": 1730,
      "⊿": 1731,
      "⋅": 1732,
      "⋆": 1733,
      "⋕": 1734,
      "⋙": 1735,
      "⋮": 1736,
      "⋱": 1737,
      "⌊": 1738,
      "⌋": 1739,
      "⌘": 1740,
      "⌚": 1741,
      "⍆": 1742,
      "⎫": 1743,
      "⏏": 1744,
      "⏩": 1745,
      "⏪": 1746,
      "⏫": 1747,
      "⏬": 1748,
      "⏭": 1749,
      "⏰": 1750,
      "⏲": 1751,
      "⏳": 1752,
      "⏸": 1753,
      "⏹": 1754,
      "⏺": 1755,
      "⓫": 1756,
      "⓵": 1757,
      "⓶": 1758,
      "⓷": 1759,
      "─": 1760,
      "━": 1761,
      "│": 1762,
      "┇": 1763,
      "┈": 1764,
      "┗": 1765,
      "┣": 1766,
      "═": 1767,
      "║": 1768,
      "╔": 1769,
      "╗": 1770,
      "╚": 1771,
      "╝": 1772,
      "╤": 1773,
      "╦": 1774,
      "╩": 1775,
      "╬": 1776,
      "▁": 1777,
      "█": 1778,
      "▌": 1779,
      "░": 1780,
      "▒": 1781,
      "▓": 1782,
      "■": 1783,
      "□": 1784,
      "▣": 1785,
      "▪": 1786,
      "▫": 1787,
      "▬": 1788,
      "▲": 1789,
      "△": 1790,
      "▶": 1791,
      "▷": 1792,
      "▸": 1793,
      "▹": 1794,
      "►": 1795,
      "▻": 1796,
      "▼": 1797,
      "▽": 1798,
      "◀": 1799,
      "◁": 1800,
      "◂": 1801,
      "◄": 1802,
      "◆": 1803,
      "◇": 1804,
      "◈": 1805,
      "◉": 1806,
      "◊": 1807,
      "○": 1808,
      "◌": 1809,
      "◍": 1810,
      "◎": 1811,
      "●": 1812,
      "◑": 1813,
      "◙": 1814,
      "◠": 1815,
      "◡": 1816,
      "◥": 1817,
      "◦": 1818,
      "◪": 1819,
      "◯": 1820,
      "◼": 1821,
      "◽": 1822,
      "◾": 1823,
      "☀": 1824,
      "☁": 1825,
      "☂": 1826,
      "☃": 1827,
      "★": 1828,
      "☆": 1829,
      "☈": 1830,
      "☎": 1831,
      "☐": 1832,
      "☑": 1833,
      "☔": 1834,
      "☕": 1835,
      "☘": 1836,
      "☚": 1837,
      "☛": 1838,
      "☜": 1839,
      "☝": 1840,
      "☞": 1841,
      "☟": 1842,
      "☠": 1843,
      "☢": 1844,
      "☣": 1845,
      "☪": 1846,
      "☮": 1847,
      "☯": 1848,
      "☰": 1849,
      "☹": 1850,
      "☺": 1851,
      "☻": 1852,
      "☼": 1853,
      "☽": 1854,
      "☾": 1855,
      "♀": 1856,
      "♂": 1857,
      "♈": 1858,
      "♉": 1859,
      "♊": 1860,
      "♋": 1861,
      "♌": 1862,
      "♍": 1863,
      "♎": 1864,
      "♏": 1865,
      "♐": 1866,
      "♑": 1867,
      "♓": 1868,
      "♔": 1869,
      "♚": 1870,
      "♛": 1871,
      "♞": 1872,
      "♟": 1873,
      "♠": 1874,
      "♡": 1875,
      "♢": 1876,
      "♣": 1877,
      "♤": 1878,
      "♥": 1879,
      "♦": 1880,
      "♧": 1881,
      "♨": 1882,
      "♩": 1883,
      "♪": 1884,
      "♫": 1885,
      "♬": 1886,
      "♭": 1887,
      "♻": 1888,
      "♽": 1889,
      "♾": 1890,
      "♿": 1891,
      "⚀": 1892,
      "⚂": 1893,
      "⚄": 1894,
      "⚒": 1895,
      "⚔": 1896,
      "⚕": 1897,
      "⚖": 1898,
      "⚙": 1899,
      "⚜": 1900,
      "⚠": 1901,
      "⚡": 1902,
      "⚪": 1903,
      "⚫": 1904,
      "⚽": 1905,
      "⛄": 1906,
      "⛅": 1907,
      "⛈": 1908,
      "⛔": 1909,
      "⛪": 1910,
      "⛱": 1911,
      "⛴": 1912,
      "⛹": 1913,
      "⛽": 1914,
      "✂": 1915,
      "✅": 1916,
      "✆": 1917,
      "✈": 1918,
      "✉": 1919,
      "✊": 1920,
      "✋": 1921,
      "✌": 1922,
      "✍": 1923,
      "✎": 1924,
      "✏": 1925,
      "✒": 1926,
      "✓": 1927,
      "✔": 1928,
      "✕": 1929,
      "✖": 1930,
      "✗": 1931,
      "✘": 1932,
      "✝": 1933,
      "✞": 1934,
      "✟": 1935,
      "✡": 1936,
      "✤": 1937,
      "✥": 1938,
      "✦": 1939,
      "✧": 1940,
      "✨": 1941,
      "✩": 1942,
      "✪": 1943,
      "✭": 1944,
      "✮": 1945,
      "✯": 1946,
      "✰": 1947,
      "✱": 1948,
      "✲": 1949,
      "✳": 1950,
      "✴": 1951,
      "✸": 1952,
      "✻": 1953,
      "✽": 1954,
      "✿": 1955,
      "❀": 1956,
      "❁": 1957,
      "❄": 1958,
      "❆": 1959,
      "❇": 1960,
      "❈": 1961,
      "❉": 1962,
      "❌": 1963,
      "❍": 1964,
      "❎": 1965,
      "❐": 1966,
      "❑": 1967,
      "❒": 1968,
      "❓": 1969,
      "❔": 1970,
      "❕": 1971,
      "❖": 1972,
      "❗": 1973,
      "❝": 1974,
      "❞": 1975,
      "❣": 1976,
      "❤": 1977,
      "❥": 1978,
      "❦": 1979,
      "❧": 1980,
      "❶": 1981,
      "❷": 1982,
      "❸": 1983,
      "❹": 1984,
      "❺": 1985,
      "❻": 1986,
      "❽": 1987,
      "❾": 1988,
      "➀": 1989,
      "➊": 1990,
      "➋": 1991,
      "➌": 1992,
      "➍": 1993,
      "➏": 1994,
      "➐": 1995,
      "➑": 1996,
      "➒": 1997,
      "➓": 1998,
      "➔": 1999,
      "➕": 2000,
      "➖": 2001,
      "➗": 2002,
      "➙": 2003,
      "➚": 2004,
      "➛": 2005,
      "➜": 2006,
      "➟": 2007,
      "➠": 2008,
      "➡": 2009,
      "➢": 2010,
      "➣": 2011,
      "➤": 2012,
      "➥": 2013,
      "➦": 2014,
      "➧": 2015,
      "➨": 2016,
      "➩": 2017,
      "➪": 2018,
      "➫": 2019,
      "➮": 2020,
      "➱": 2021,
      "➲": 2022,
      "➳": 2023,
      "➵": 2024,
      "➶": 2025,
      "➸": 2026,
      "➹": 2027,
      "➺": 2028,
      "➻": 2029,
      "➽": 2030,
      "➾": 2031,
      "➿": 2032,
      "⟨": 2033,
      "⟩": 2034,
      "⟵": 2035,
      "⟶": 2036,
      "⠀": 2037,
      "⤴": 2038,
      "⤵": 2039,
      "⦁": 2040,
      "⦿": 2041,
      "⧊": 2042,
      "⨳": 2043,
      "⬅": 2044,
      "⬇": 2045,
      "⬛": 2046,
      "⬤": 2047,
      "⭐": 2048,
      "⭕": 2049,
      "⮚": 2050,
      "Ⲟ": 2051,
      "ⲟ": 2052,
      "ⲣ": 2053,
      "Ⲩ": 2054,
      "ⵆ": 2055,
      "ⵑ": 2056,
      "ⵓ": 2057,
      "ⶀ": 2058,
      "ⶁ": 2059,
      "ⶂ": 2060,
      "ⶄ": 2061,
      "ⶅ": 2062,
      "ⶆ": 2063,
      "ⶇ": 2064,
      "ⶈ": 2065,
      "ⶉ": 2066,
      "ⶋ": 2067,
      "ⶌ": 2068,
      "ⶏ": 2069,
      "ⶐ": 2070,
      "ⶒ": 2071,
      "ⶖ": 2072,
      "ⶥ": 2073,
      "ⶨ": 2074,
      "ⶩ": 2075,
      "ⶫ": 2076,
      "ⶬ": 2077,
      "ⶭ": 2078,
      "ⶰ": 2079,
      "ⶴ": 2080,
      "ⶽ": 2081,
      "ⷀ": 2082,
      "ⷃ": 2083,
      "ⷄ": 2084,
      "ⷅ": 2085,
      "ⷈ": 2086,
      "ⷌ": 2087,
      "ⷍ": 2088,
      "ⷐ": 2089,
      "ⷔ": 2090,
      "ⷕ": 2091,
      "ⷘ": 2092,
      "ⷛ": 2093,
      "ⷝ": 2094,
      "、": 2095,
      "。": 2096,
      "々": 2097,
      "〇": 2098,
      "〈": 2099,
      "〉": 2100,
      "《": 2101,
      "》": 2102,
      "「": 2103,
      "」": 2104,
      "【": 2105,
      "】": 2106,
      "あ": 2107,
      "い": 2108,
      "う": 2109,
      "え": 2110,
      "お": 2111,
      "か": 2112,
      "が": 2113,
      "き": 2114,
      "く": 2115,
      "ぐ": 2116,
      "こ": 2117,
      "ご": 2118,
      "さ": 2119,
      "し": 2120,
      "じ": 2121,
      "す": 2122,
      "ず": 2123,
      "そ": 2124,
      "た": 2125,
      "だ": 2126,
      "ち": 2127,
      "っ": 2128,
      "つ": 2129,
      "て": 2130,
      "で": 2131,
      "と": 2132,
      "ど": 2133,
      "な": 2134,
      "に": 2135,
      "ね": 2136,
      "の": 2137,
      "は": 2138,
      "ば": 2139,
      "ふ": 2140,
      "ぶ": 2141,
      "べ": 2142,
      "ほ": 2143,
      "ぼ": 2144,
      "ま": 2145,
      "み": 2146,
      "も": 2147,
      "ゃ": 2148,
      "や": 2149,
      "ゅ": 2150,
      "ゆ": 2151,
      "ょ": 2152,
      "よ": 2153,
      "ら": 2154,
      "り": 2155,
      "る": 2156,
      "れ": 2157,
      "を": 2158,
      "ん": 2159,
      "゚": 2160,
      "ア": 2161,
      "ィ": 2162,
      "イ": 2163,
      "オ": 2164,
      "カ": 2165,
      "ガ": 2166,
      "キ": 2167,
      "ギ": 2168,
      "ク": 2169,
      "グ": 2170,
      "ケ": 2171,
      "コ": 2172,
      "ゴ": 2173,
      "サ": 2174,
      "ザ": 2175,
      "シ": 2176,
      "ス": 2177,
      "セ": 2178,
      "タ": 2179,
      "ダ": 2180,
      "チ": 2181,
      "ッ": 2182,
      "ツ": 2183,
      "テ": 2184,
      "ト": 2185,
      "ド": 2186,
      "ナ": 2187,
      "ニ": 2188,
      "ノ": 2189,
      "ハ": 2190,
      "バ": 2191,
      "パ": 2192,
      "ビ": 2193,
      "ピ": 2194,
      "プ": 2195,
      "ベ": 2196,
      "ホ": 2197,
      "ボ": 2198,
      "マ": 2199,
      "ミ": 2200,
      "ム": 2201,
      "メ": 2202,
      "モ": 2203,
      "ラ": 2204,
      "ル": 2205,
      "レ": 2206,
      "ロ": 2207,
      "ワ": 2208,
      "ン": 2209,
      "ヶ": 2210,
      "・": 2211,
      "ー": 2212,
      "ヽ": 2213,
      "㕲": 2214,
      "㗹": 2215,
      "㙀": 2216,
      "㜎": 2217,
      "㦻": 2218,
      "䓖": 2219,
      "䞷": 2220,
      "䧏": 2221,
      "䫃": 2222,
      "一": 2223,
      "七": 2224,
      "万": 2225,
      "三": 2226,
      "上": 2227,
      "下": 2228,
      "不": 2229,
      "业": 2230,
      "东": 2231,
      "丝": 2232,
      "丨": 2233,
      "个": 2234,
      "中": 2235,
      "为": 2236,
      "主": 2237,
      "丽": 2238,
      "么": 2239,
      "义": 2240,
      "乐": 2241,
      "乙": 2242,
      "九": 2243,
      "也": 2244,
      "了": 2245,
      "予": 2246,
      "二": 2247,
      "五": 2248,
      "亚": 2249,
      "些": 2250,
      "产": 2251,
      "京": 2252,
      "人": 2253,
      "什": 2254,
      "今": 2255,
      "仕": 2256,
      "他": 2257,
      "以": 2258,
      "们": 2259,
      "仰": 2260,
      "件": 2261,
      "休": 2262,
      "会": 2263,
      "伪": 2264,
      "伯": 2265,
      "似": 2266,
      "住": 2267,
      "体": 2268,
      "何": 2269,
      "作": 2270,
      "你": 2271,
      "俄": 2272,
      "俊": 2273,
      "保": 2274,
      "信": 2275,
      "俩": 2276,
      "修": 2277,
      "個": 2278,
      "借": 2279,
      "偕": 2280,
      "做": 2281,
      "停": 2282,
      "像": 2283,
      "僕": 2284,
      "儿": 2285,
      "元": 2286,
      "兄": 2287,
      "充": 2288,
      "克": 2289,
      "免": 2290,
      "入": 2291,
      "內": 2292,
      "全": 2293,
      "八": 2294,
      "公": 2295,
      "六": 2296,
      "共": 2297,
      "兴": 2298,
      "典": 2299,
      "内": 2300,
      "円": 2301,
      "再": 2302,
      "军": 2303,
      "冰": 2304,
      "出": 2305,
      "刀": 2306,
      "分": 2307,
      "切": 2308,
      "利": 2309,
      "别": 2310,
      "到": 2311,
      "制": 2312,
      "前": 2313,
      "副": 2314,
      "劇": 2315,
      "力": 2316,
      "加": 2317,
      "动": 2318,
      "助": 2319,
      "劳": 2320,
      "勇": 2321,
      "動": 2322,
      "包": 2323,
      "化": 2324,
      "北": 2325,
      "区": 2326,
      "医": 2327,
      "十": 2328,
      "千": 2329,
      "午": 2330,
      "华": 2331,
      "单": 2332,
      "単": 2333,
      "危": 2334,
      "历": 2335,
      "厦": 2336,
      "厨": 2337,
      "去": 2338,
      "参": 2339,
      "反": 2340,
      "发": 2341,
      "取": 2342,
      "变": 2343,
      "古": 2344,
      "叫": 2345,
      "叭": 2346,
      "可": 2347,
      "史": 2348,
      "号": 2349,
      "司": 2350,
      "合": 2351,
      "名": 2352,
      "后": 2353,
      "向": 2354,
      "吗": 2355,
      "告": 2356,
      "员": 2357,
      "周": 2358,
      "味": 2359,
      "和": 2360,
      "品": 2361,
      "哈": 2362,
      "哥": 2363,
      "哪": 2364,
      "商": 2365,
      "啤": 2366,
      "喂": 2367,
      "善": 2368,
      "喇": 2369,
      "喺": 2370,
      "嘅": 2371,
      "器": 2372,
      "噴": 2373,
      "四": 2374,
      "回": 2375,
      "囧": 2376,
      "国": 2377,
      "國": 2378,
      "園": 2379,
      "圣": 2380,
      "在": 2381,
      "地": 2382,
      "场": 2383,
      "坐": 2384,
      "埃": 2385,
      "城": 2386,
      "堡": 2387,
      "報": 2388,
      "塞": 2389,
      "增": 2390,
      "壊": 2391,
      "士": 2392,
      "备": 2393,
      "夏": 2394,
      "夕": 2395,
      "多": 2396,
      "大": 2397,
      "天": 2398,
      "太": 2399,
      "夫": 2400,
      "失": 2401,
      "奇": 2402,
      "女": 2403,
      "奶": 2404,
      "她": 2405,
      "好": 2406,
      "如": 2407,
      "妖": 2408,
      "妹": 2409,
      "妻": 2410,
      "姆": 2411,
      "姉": 2412,
      "始": 2413,
      "姐": 2414,
      "威": 2415,
      "娘": 2416,
      "媒": 2417,
      "嫂": 2418,
      "嬉": 2419,
      "嬴": 2420,
      "子": 2421,
      "孔": 2422,
      "字": 2423,
      "学": 2424,
      "學": 2425,
      "安": 2426,
      "定": 2427,
      "客": 2428,
      "室": 2429,
      "家": 2430,
      "富": 2431,
      "察": 2432,
      "对": 2433,
      "対": 2434,
      "将": 2435,
      "尊": 2436,
      "小": 2437,
      "少": 2438,
      "尾": 2439,
      "局": 2440,
      "展": 2441,
      "山": 2442,
      "川": 2443,
      "州": 2444,
      "巢": 2445,
      "工": 2446,
      "巧": 2447,
      "差": 2448,
      "巴": 2449,
      "布": 2450,
      "帝": 2451,
      "带": 2452,
      "常": 2453,
      "幫": 2454,
      "干": 2455,
      "平": 2456,
      "年": 2457,
      "广": 2458,
      "庆": 2459,
      "庇": 2460,
      "库": 2461,
      "店": 2462,
      "府": 2463,
      "度": 2464,
      "庭": 2465,
      "廣": 2466,
      "延": 2467,
      "开": 2468,
      "异": 2469,
      "弋": 2470,
      "式": 2471,
      "強": 2472,
      "当": 2473,
      "录": 2474,
      "彙": 2475,
      "彡": 2476,
      "彦": 2477,
      "彩": 2478,
      "影": 2479,
      "彼": 2480,
      "往": 2481,
      "待": 2482,
      "很": 2483,
      "後": 2484,
      "従": 2485,
      "得": 2486,
      "御": 2487,
      "微": 2488,
      "徴": 2489,
      "心": 2490,
      "必": 2491,
      "态": 2492,
      "怎": 2493,
      "思": 2494,
      "恆": 2495,
      "想": 2496,
      "意": 2497,
      "愛": 2498,
      "愺": 2499,
      "憑": 2500,
      "應": 2501,
      "懲": 2502,
      "成": 2503,
      "我": 2504,
      "战": 2505,
      "戲": 2506,
      "户": 2507,
      "房": 2508,
      "手": 2509,
      "打": 2510,
      "扰": 2511,
      "承": 2512,
      "抐": 2513,
      "択": 2514,
      "抦": 2515,
      "押": 2516,
      "拉": 2517,
      "招": 2518,
      "捨": 2519,
      "据": 2520,
      "捷": 2521,
      "接": 2522,
      "推": 2523,
      "摩": 2524,
      "改": 2525,
      "放": 2526,
      "政": 2527,
      "敏": 2528,
      "教": 2529,
      "散": 2530,
      "数": 2531,
      "文": 2532,
      "料": 2533,
      "斯": 2534,
      "新": 2535,
      "方": 2536,
      "於": 2537,
      "旅": 2538,
      "无": 2539,
      "日": 2540,
      "早": 2541,
      "时": 2542,
      "明": 2543,
      "星": 2544,
      "春": 2545,
      "昨": 2546,
      "是": 2547,
      "時": 2548,
      "晚": 2549,
      "晶": 2550,
      "暇": 2551,
      "曜": 2552,
      "曲": 2553,
      "更": 2554,
      "曼": 2555,
      "最": 2556,
      "月": 2557,
      "有": 2558,
      "服": 2559,
      "期": 2560,
      "木": 2561,
      "末": 2562,
      "本": 2563,
      "机": 2564,
      "杜": 2565,
      "条": 2566,
      "来": 2567,
      "杯": 2568,
      "東": 2569,
      "松": 2570,
      "析": 2571,
      "枕": 2572,
      "柴": 2573,
      "标": 2574,
      "校": 2575,
      "株": 2576,
      "格": 2577,
      "案": 2578,
      "條": 2579,
      "業": 2580,
      "楽": 2581,
      "構": 2582,
      "様": 2583,
      "標": 2584,
      "樣": 2585,
      "横": 2586,
      "機": 2587,
      "欢": 2588,
      "歌": 2589,
      "歐": 2590,
      "正": 2591,
      "步": 2592,
      "武": 2593,
      "歩": 2594,
      "歳": 2595,
      "死": 2596,
      "母": 2597,
      "比": 2598,
      "毕": 2599,
      "民": 2600,
      "气": 2601,
      "気": 2602,
      "氣": 2603,
      "水": 2604,
      "氷": 2605,
      "永": 2606,
      "汉": 2607,
      "法": 2608,
      "波": 2609,
      "泳": 2610,
      "洗": 2611,
      "活": 2612,
      "浜": 2613,
      "海": 2614,
      "涨": 2615,
      "添": 2616,
      "港": 2617,
      "游": 2618,
      "満": 2619,
      "滑": 2620,
      "满": 2621,
      "潮": 2622,
      "澳": 2623,
      "火": 2624,
      "灵": 2625,
      "為": 2626,
      "烟": 2627,
      "無": 2628,
      "然": 2629,
      "照": 2630,
      "爪": 2631,
      "爱": 2632,
      "父": 2633,
      "爾": 2634,
      "片": 2635,
      "牙": 2636,
      "物": 2637,
      "特": 2638,
      "狐": 2639,
      "狗": 2640,
      "独": 2641,
      "猫": 2642,
      "獲": 2643,
      "王": 2644,
      "玩": 2645,
      "现": 2646,
      "班": 2647,
      "理": 2648,
      "瓜": 2649,
      "瓦": 2650,
      "瓶": 2651,
      "甘": 2652,
      "生": 2653,
      "用": 2654,
      "甫": 2655,
      "田": 2656,
      "申": 2657,
      "电": 2658,
      "男": 2659,
      "画": 2660,
      "界": 2661,
      "痛": 2662,
      "発": 2663,
      "登": 2664,
      "發": 2665,
      "的": 2666,
      "皇": 2667,
      "益": 2668,
      "目": 2669,
      "直": 2670,
      "相": 2671,
      "看": 2672,
      "真": 2673,
      "知": 2674,
      "石": 2675,
      "码": 2676,
      "砂": 2677,
      "砍": 2678,
      "確": 2679,
      "示": 2680,
      "社": 2681,
      "祖": 2682,
      "祝": 2683,
      "神": 2684,
      "票": 2685,
      "禅": 2686,
      "私": 2687,
      "秋": 2688,
      "秘": 2689,
      "秦": 2690,
      "称": 2691,
      "突": 2692,
      "站": 2693,
      "童": 2694,
      "端": 2695,
      "第": 2696,
      "等": 2697,
      "筋": 2698,
      "答": 2699,
      "简": 2700,
      "算": 2701,
      "簿": 2702,
      "米": 2703,
      "类": 2704,
      "粉": 2705,
      "素": 2706,
      "細": 2707,
      "組": 2708,
      "結": 2709,
      "網": 2710,
      "線": 2711,
      "繁": 2712,
      "细": 2713,
      "给": 2714,
      "继": 2715,
      "维": 2716,
      "缉": 2717,
      "网": 2718,
      "罗": 2719,
      "罰": 2720,
      "義": 2721,
      "翁": 2722,
      "習": 2723,
      "翻": 2724,
      "考": 2725,
      "者": 2726,
      "耳": 2727,
      "職": 2728,
      "聽": 2729,
      "育": 2730,
      "胖": 2731,
      "胡": 2732,
      "能": 2733,
      "膏": 2734,
      "臨": 2735,
      "自": 2736,
      "至": 2737,
      "與": 2738,
      "興": 2739,
      "航": 2740,
      "般": 2741,
      "节": 2742,
      "芬": 2743,
      "芭": 2744,
      "花": 2745,
      "苒": 2746,
      "英": 2747,
      "茨": 2748,
      "荏": 2749,
      "荒": 2750,
      "落": 2751,
      "蒙": 2752,
      "蕉": 2753,
      "行": 2754,
      "表": 2755,
      "衫": 2756,
      "装": 2757,
      "裤": 2758,
      "裸": 2759,
      "製": 2760,
      "要": 2761,
      "視": 2762,
      "親": 2763,
      "见": 2764,
      "视": 2765,
      "角": 2766,
      "言": 2767,
      "訂": 2768,
      "訊": 2769,
      "訳": 2770,
      "評": 2771,
      "詞": 2772,
      "試": 2773,
      "話": 2774,
      "詳": 2775,
      "誕": 2776,
      "語": 2777,
      "読": 2778,
      "誰": 2779,
      "論": 2780,
      "諾": 2781,
      "警": 2782,
      "譯": 2783,
      "讀": 2784,
      "认": 2785,
      "记": 2786,
      "许": 2787,
      "论": 2788,
      "设": 2789,
      "证": 2790,
      "评": 2791,
      "诉": 2792,
      "词": 2793,
      "译": 2794,
      "话": 2795,
      "详": 2796,
      "语": 2797,
      "误": 2798,
      "说": 2799,
      "请": 2800,
      "诺": 2801,
      "读": 2802,
      "谢": 2803,
      "谷": 2804,
      "象": 2805,
      "費": 2806,
      "資": 2807,
      "贛": 2808,
      "购": 2809,
      "贺": 2810,
      "资": 2811,
      "赞": 2812,
      "赫": 2813,
      "走": 2814,
      "起": 2815,
      "趣": 2816,
      "足": 2817,
      "車": 2818,
      "載": 2819,
      "輕": 2820,
      "转": 2821,
      "轴": 2822,
      "辞": 2823,
      "过": 2824,
      "迎": 2825,
      "运": 2826,
      "近": 2827,
      "还": 2828,
      "这": 2829,
      "进": 2830,
      "追": 2831,
      "退": 2832,
      "通": 2833,
      "速": 2834,
      "連": 2835,
      "遊": 2836,
      "運": 2837,
      "道": 2838,
      "達": 2839,
      "選": 2840,
      "那": 2841,
      "部": 2842,
      "酒": 2843,
      "酷": 2844,
      "里": 2845,
      "重": 2846,
      "銭": 2847,
      "鋤": 2848,
      "錄": 2849,
      "鐘": 2850,
      "钢": 2851,
      "钱": 2852,
      "铃": 2853,
      "链": 2854,
      "門": 2855,
      "間": 2856,
      "關": 2857,
      "门": 2858,
      "问": 2859,
      "间": 2860,
      "阿": 2861,
      "附": 2862,
      "降": 2863,
      "限": 2864,
      "陸": 2865,
      "陽": 2866,
      "階": 2867,
      "随": 2868,
      "隨": 2869,
      "集": 2870,
      "雑": 2871,
      "離": 2872,
      "雨": 2873,
      "雪": 2874,
      "電": 2875,
      "霜": 2876,
      "靈": 2877,
      "青": 2878,
      "非": 2879,
      "靠": 2880,
      "面": 2881,
      "音": 2882,
      "頭": 2883,
      "頻": 2884,
      "題": 2885,
      "類": 2886,
      "页": 2887,
      "顺": 2888,
      "预": 2889,
      "频": 2890,
      "颗": 2891,
      "题": 2892,
      "風": 2893,
      "飞": 2894,
      "饮": 2895,
      "首": 2896,
      "香": 2897,
      "験": 2898,
      "马": 2899,
      "體": 2900,
      "高": 2901,
      "鬆": 2902,
      "鳥": 2903,
      "鸟": 2904,
      "麼": 2905,
      "點": 2906,
      "ꙗ": 2907,
      "ꬁ": 2908,
      "ꬂ": 2909,
      "ꬃ": 2910,
      "ꬄ": 2911,
      "ꬅ": 2912,
      "ꬆ": 2913,
      "ꬊ": 2914,
      "ꬋ": 2915,
      "ꬌ": 2916,
      "ꬎ": 2917,
      "ꬓ": 2918,
      "가": 2919,
      "갈": 2920,
      "감": 2921,
      "갑": 2922,
      "같": 2923,
      "개": 2924,
      "객": 2925,
      "거": 2926,
      "건": 2927,
      "걸": 2928,
      "것": 2929,
      "게": 2930,
      "겠": 2931,
      "겨": 2932,
      "결": 2933,
      "계": 2934,
      "고": 2935,
      "공": 2936,
      "관": 2937,
      "교": 2938,
      "구": 2939,
      "국": 2940,
      "그": 2941,
      "글": 2942,
      "금": 2943,
      "기": 2944,
      "길": 2945,
      "꺼": 2946,
      "꽁": 2947,
      "끝": 2948,
      "나": 2949,
      "낚": 2950,
      "난": 2951,
      "날": 2952,
      "남": 2953,
      "낱": 2954,
      "내": 2955,
      "냈": 2956,
      "너": 2957,
      "널": 2958,
      "넣": 2959,
      "네": 2960,
      "년": 2961,
      "녕": 2962,
      "노": 2963,
      "논": 2964,
      "눈": 2965,
      "뉴": 2966,
      "는": 2967,
      "니": 2968,
      "다": 2969,
      "달": 2970,
      "답": 2971,
      "당": 2972,
      "대": 2973,
      "댓": 2974,
      "더": 2975,
      "덩": 2976,
      "데": 2977,
      "돈": 2978,
      "동": 2979,
      "됐": 2980,
      "된": 2981,
      "됩": 2982,
      "두": 2983,
      "둑": 2984,
      "뒤": 2985,
      "드": 2986,
      "든": 2987,
      "들": 2988,
      "등": 2989,
      "디": 2990,
      "따": 2991,
      "때": 2992,
      "뚱": 2993,
      "뜨": 2994,
      "라": 2995,
      "람": 2996,
      "랑": 2997,
      "러": 2998,
      "런": 2999,
      "럼": 3000,
      "렇": 3001,
      "레": 3002,
      "렌": 3003,
      "려": 3004,
      "력": 3005,
      "로": 3006,
      "루": 3007,
      "륙": 3008,
      "르": 3009,
      "른": 3010,
      "를": 3011,
      "름": 3012,
      "리": 3013,
      "린": 3014,
      "림": 3015,
      "링": 3016,
      "마": 3017,
      "만": 3018,
      "많": 3019,
      "말": 3020,
      "머": 3021,
      "먹": 3022,
      "메": 3023,
      "멘": 3024,
      "명": 3025,
      "모": 3026,
      "목": 3027,
      "못": 3028,
      "묅": 3029,
      "무": 3030,
      "문": 3031,
      "뭐": 3032,
      "미": 3033,
      "믹": 3034,
      "바": 3035,
      "반": 3036,
      "발": 3037,
      "방": 3038,
      "백": 3039,
      "번": 3040,
      "벌": 3041,
      "법": 3042,
      "별": 3043,
      "병": 3044,
      "보": 3045,
      "복": 3046,
      "봇": 3047,
      "봐": 3048,
      "부": 3049,
      "뷰": 3050,
      "비": 3051,
      "빌": 3052,
      "뿔": 3053,
      "사": 3054,
      "산": 3055,
      "상": 3056,
      "생": 3057,
      "서": 3058,
      "선": 3059,
      "설": 3060,
      "성": 3061,
      "세": 3062,
      "센": 3063,
      "셀": 3064,
      "션": 3065,
      "소": 3066,
      "송": 3067,
      "쇼": 3068,
      "숍": 3069,
      "수": 3070,
      "스": 3071,
      "슨": 3072,
      "습": 3073,
      "시": 3074,
      "식": 3075,
      "신": 3076,
      "실": 3077,
      "싶": 3078,
      "쓰": 3079,
      "아": 3080,
      "악": 3081,
      "안": 3082,
      "않": 3083,
      "암": 3084,
      "앞": 3085,
      "애": 3086,
      "앱": 3087,
      "야": 3088,
      "약": 3089,
      "양": 3090,
      "어": 3091,
      "엄": 3092,
      "업": 3093,
      "없": 3094,
      "었": 3095,
      "엉": 3096,
      "에": 3097,
      "여": 3098,
      "역": 3099,
      "연": 3100,
      "영": 3101,
      "오": 3102,
      "올": 3103,
      "옵": 3104,
      "와": 3105,
      "왔": 3106,
      "왼": 3107,
      "요": 3108,
      "욕": 3109,
      "용": 3110,
      "우": 3111,
      "운": 3112,
      "울": 3113,
      "워": 3114,
      "원": 3115,
      "월": 3116,
      "위": 3117,
      "유": 3118,
      "육": 3119,
      "은": 3120,
      "을": 3121,
      "음": 3122,
      "의": 3123,
      "이": 3124,
      "인": 3125,
      "일": 3126,
      "읽": 3127,
      "임": 3128,
      "입": 3129,
      "있": 3130,
      "자": 3131,
      "작": 3132,
      "잘": 3133,
      "잠": 3134,
      "장": 3135,
      "재": 3136,
      "저": 3137,
      "적": 3138,
      "전": 3139,
      "절": 3140,
      "정": 3141,
      "제": 3142,
      "조": 3143,
      "좋": 3144,
      "죄": 3145,
      "주": 3146,
      "즈": 3147,
      "즐": 3148,
      "지": 3149,
      "직": 3150,
      "진": 3151,
      "질": 3152,
      "집": 3153,
      "째": 3154,
      "쪽": 3155,
      "차": 3156,
      "창": 3157,
      "책": 3158,
      "챦": 3159,
      "첫": 3160,
      "체": 3161,
      "총": 3162,
      "추": 3163,
      "출": 3164,
      "춤": 3165,
      "츠": 3166,
      "치": 3167,
      "친": 3168,
      "침": 3169,
      "칭": 3170,
      "카": 3171,
      "캠": 3172,
      "커": 3173,
      "컨": 3174,
      "컴": 3175,
      "케": 3176,
      "켓": 3177,
      "코": 3178,
      "콘": 3179,
      "큰": 3180,
      "키": 3181,
      "탈": 3182,
      "탕": 3183,
      "터": 3184,
      "테": 3185,
      "텐": 3186,
      "텔": 3187,
      "토": 3188,
      "톱": 3189,
      "통": 3190,
      "트": 3191,
      "특": 3192,
      "틀": 3193,
      "티": 3194,
      "파": 3195,
      "팠": 3196,
      "퍼": 3197,
      "편": 3198,
      "평": 3199,
      "포": 3200,
      "폴": 3201,
      "표": 3202,
      "품": 3203,
      "퓨": 3204,
      "프": 3205,
      "플": 3206,
      "피": 3207,
      "픽": 3208,
      "필": 3209,
      "핑": 3210,
      "하": 3211,
      "학": 3212,
      "한": 3213,
      "할": 3214,
      "함": 3215,
      "합": 3216,
      "항": 3217,
      "해": 3218,
      "했": 3219,
      "행": 3220,
      "향": 3221,
      "현": 3222,
      "호": 3223,
      "혼": 3224,
      "홈": 3225,
      "홍": 3226,
      "화": 3227,
      "환": 3228,
      "활": 3229,
      "회": 3230,
      "후": 3231,
      "휴": 3232,
      "흡": 3233,
      "﮲": 3234,
      "﮳": 3235,
      "﮴": 3236,
      "﮵": 3237,
      "﮶": 3238,
      "﴾": 3239,
      "﷽": 3240,
      "︎": 3241,
      "️": 3242,
      "￼": 3243,
      "�": 3244,
      "𐌌": 3245,
      "𐌎": 3246,
      "𐌓": 3247,
      "𐌖": 3248,
      "🅐": 3249,
      "🅒": 3250,
      "🅓": 3251,
      "🅔": 3252,
      "🅕": 3253,
      "🅗": 3254,
      "🅘": 3255,
      "🅜": 3256,
      "🅝": 3257,
      "🅞": 3258,
      "🅡": 3259,
      "🅢": 3260,
      "🅥": 3261,
      "🅦": 3262,
      "🅩": 3263,
      "🅱": 3264,
      "🅲": 3265,
      "🅴": 3266,
      "🅶": 3267,
      "🅸": 3268,
      "🅼": 3269,
      "🅽": 3270,
      "🅿": 3271,
      "🆁": 3272,
      "🆂": 3273,
      "🆄": 3274,
      "🆑": 3275,
      "🆓": 3276,
      "🆚": 3277,
      "🇦": 3278,
      "🇧": 3279,
      "🇨": 3280,
      "🇩": 3281,
      "🇪": 3282,
      "🇫": 3283,
      "🇬": 3284,
      "🇭": 3285,
      "🇮": 3286,
      "🇯": 3287,
      "🇰": 3288,
      "🇱": 3289,
      "🇲": 3290,
      "🇳": 3291,
      "🇴": 3292,
      "🇵": 3293,
      "🇶": 3294,
      "🇷": 3295,
      "🇸": 3296,
      "🇹": 3297,
      "🇺": 3298,
      "🇻": 3299,
      "🇼": 3300,
      "🇽": 3301,
      "🇾": 3302,
      "🇿": 3303,
      "🌀": 3304,
      "🌃": 3305,
      "🌄": 3306,
      "🌅": 3307,
      "🌆": 3308,
      "🌈": 3309,
      "🌊": 3310,
      "🌍": 3311,
      "🌎": 3312,
      "🌏": 3313,
      "🌐": 3314,
      "🌑": 3315,
      "🌒": 3316,
      "🌓": 3317,
      "🌕": 3318,
      "🌖": 3319,
      "🌗": 3320,
      "🌘": 3321,
      "🌙": 3322,
      "🌚": 3323,
      "🌛": 3324,
      "🌜": 3325,
      "🌝": 3326,
      "🌞": 3327,
      "🌟": 3328,
      "🌤": 3329,
      "🌧": 3330,
      "🌭": 3331,
      "🌱": 3332,
      "🌲": 3333,
      "🌳": 3334,
      "🌴": 3335,
      "🌷": 3336,
      "🌸": 3337,
      "🌹": 3338,
      "🌺": 3339,
      "🌻": 3340,
      "🌼": 3341,
      "🌿": 3342,
      "🍀": 3343,
      "🍁": 3344,
      "🍂": 3345,
      "🍃": 3346,
      "🍄": 3347,
      "🍅": 3348,
      "🍇": 3349,
      "🍉": 3350,
      "🍌": 3351,
      "🍎": 3352,
      "🍏": 3353,
      "🍓": 3354,
      "🍔": 3355,
      "🍕": 3356,
      "🍛": 3357,
      "🍝": 3358,
      "🍟": 3359,
      "🍢": 3360,
      "🍥": 3361,
      "🍦": 3362,
      "🍬": 3363,
      "🍭": 3364,
      "🍮": 3365,
      "🍯": 3366,
      "🍵": 3367,
      "🍷": 3368,
      "🍽": 3369,
      "🎀": 3370,
      "🎁": 3371,
      "🎂": 3372,
      "🎄": 3373,
      "🎅": 3374,
      "🎆": 3375,
      "🎈": 3376,
      "🎉": 3377,
      "🎒": 3378,
      "🎙": 3379,
      "🎞": 3380,
      "🎟": 3381,
      "🎢": 3382,
      "🎣": 3383,
      "🎤": 3384,
      "🎥": 3385,
      "🎧": 3386,
      "🎨": 3387,
      "🎩": 3388,
      "🎬": 3389,
      "🎭": 3390,
      "🎮": 3391,
      "🎯": 3392,
      "🎲": 3393,
      "🎵": 3394,
      "🎶": 3395,
      "🎷": 3396,
      "🎸": 3397,
      "🎺": 3398,
      "🎼": 3399,
      "🏁": 3400,
      "🏃": 3401,
      "🏅": 3402,
      "🏆": 3403,
      "🏈": 3404,
      "🏍": 3405,
      "🏎": 3406,
      "🏔": 3407,
      "🏖": 3408,
      "🏘": 3409,
      "🏙": 3410,
      "🏝": 3411,
      "🏞": 3412,
      "🏠": 3413,
      "🏡": 3414,
      "🏢": 3415,
      "🏣": 3416,
      "🏪": 3417,
      "🏫": 3418,
      "🏮": 3419,
      "🏯": 3420,
      "🏰": 3421,
      "🏴": 3422,
      "🏹": 3423,
      "🏻": 3424,
      "🏼": 3425,
      "🏽": 3426,
      "🏾": 3427,
      "🏿": 3428,
      "🐉": 3429,
      "🐌": 3430,
      "🐜": 3431,
      "🐠": 3432,
      "🐱": 3433,
      "🐴": 3434,
      "🐶": 3435,
      "🐹": 3436,
      "🐺": 3437,
      "🐾": 3438,
      "👀": 3439,
      "👁": 3440,
      "👂": 3441,
      "👃": 3442,
      "👄": 3443,
      "👅": 3444,
      "👆": 3445,
      "👇": 3446,
      "👈": 3447,
      "👉": 3448,
      "👊": 3449,
      "👋": 3450,
      "👌": 3451,
      "👍": 3452,
      "👎": 3453,
      "👏": 3454,
      "👑": 3455,
      "👓": 3456,
      "👗": 3457,
      "👙": 3458,
      "👚": 3459,
      "👜": 3460,
      "👝": 3461,
      "👠": 3462,
      "👡": 3463,
      "👤": 3464,
      "👥": 3465,
      "👦": 3466,
      "👧": 3467,
      "👨": 3468,
      "👩": 3469,
      "👪": 3470,
      "👫": 3471,
      "👬": 3472,
      "👭": 3473,
      "👯": 3474,
      "👱": 3475,
      "👲": 3476,
      "👳": 3477,
      "👴": 3478,
      "👶": 3479,
      "👸": 3480,
      "👹": 3481,
      "👻": 3482,
      "👽": 3483,
      "👾": 3484,
      "👿": 3485,
      "💁": 3486,
      "💂": 3487,
      "💃": 3488,
      "💄": 3489,
      "💆": 3490,
      "💇": 3491,
      "💉": 3492,
      "💋": 3493,
      "💌": 3494,
      "💍": 3495,
      "💎": 3496,
      "💏": 3497,
      "💐": 3498,
      "💑": 3499,
      "💒": 3500,
      "💓": 3501,
      "💔": 3502,
      "💕": 3503,
      "💖": 3504,
      "💗": 3505,
      "💘": 3506,
      "💙": 3507,
      "💚": 3508,
      "💛": 3509,
      "💜": 3510,
      "💝": 3511,
      "💞": 3512,
      "💟": 3513,
      "💠": 3514,
      "💡": 3515,
      "💢": 3516,
      "💥": 3517,
      "💦": 3518,
      "💧": 3519,
      "💨": 3520,
      "💩": 3521,
      "💪": 3522,
      "💫": 3523,
      "💬": 3524,
      "💭": 3525,
      "💯": 3526,
      "💰": 3527,
      "💲": 3528,
      "💵": 3529,
      "💶": 3530,
      "💸": 3531,
      "💻": 3532,
      "💾": 3533,
      "💿": 3534,
      "📀": 3535,
      "📃": 3536,
      "📈": 3537,
      "📊": 3538,
      "📋": 3539,
      "📌": 3540,
      "📍": 3541,
      "📎": 3542,
      "📑": 3543,
      "📓": 3544,
      "📖": 3545,
      "📚": 3546,
      "📛": 3547,
      "📜": 3548,
      "📝": 3549,
      "📞": 3550,
      "📡": 3551,
      "📢": 3552,
      "📣": 3553,
      "📥": 3554,
      "📨": 3555,
      "📩": 3556,
      "📫": 3557,
      "📬": 3558,
      "📮": 3559,
      "📯": 3560,
      "📰": 3561,
      "📱": 3562,
      "📲": 3563,
      "📴": 3564,
      "📵": 3565,
      "📶": 3566,
      "📷": 3567,
      "📸": 3568,
      "📻": 3569,
      "📽": 3570,
      "🔀": 3571,
      "🔂": 3572,
      "🔄": 3573,
      "🔆": 3574,
      "🔈": 3575,
      "🔊": 3576,
      "🔌": 3577,
      "🔍": 3578,
      "🔎": 3579,
      "🔐": 3580,
      "🔑": 3581,
      "🔒": 3582,
      "🔔": 3583,
      "🔖": 3584,
      "🔗": 3585,
      "🔘": 3586,
      "🔙": 3587,
      "🔜": 3588,
      "🔞": 3589,
      "🔟": 3590,
      "🔢": 3591,
      "🔤": 3592,
      "🔥": 3593,
      "🔦": 3594,
      "🔧": 3595,
      "🔯": 3596,
      "🔰": 3597,
      "🔱": 3598,
      "🔴": 3599,
      "🔵": 3600,
      "🔶": 3601,
      "🔷": 3602,
      "🔸": 3603,
      "🔹": 3604,
      "🔺": 3605,
      "🔻": 3606,
      "🔽": 3607,
      "🕊": 3608,
      "🕍": 3609,
      "🕑": 3610,
      "🕒": 3611,
      "🕖": 3612,
      "🕙": 3613,
      "🕚": 3614,
      "🕛": 3615,
      "🕜": 3616,
      "🕟": 3617,
      "🕯": 3618,
      "🕰": 3619,
      "🕳": 3620,
      "🕴": 3621,
      "🕸": 3622,
      "🕺": 3623,
      "🖍": 3624,
      "🖎": 3625,
      "🖐": 3626,
      "🖖": 3627,
      "🖤": 3628,
      "🖥": 3629,
      "🖲": 3630,
      "🖼": 3631,
      "🗂": 3632,
      "🗄": 3633,
      "🗞": 3634,
      "🗡": 3635,
      "🗣": 3636,
      "🗨": 3637,
      "🗯": 3638,
      "🗲": 3639,
      "😀": 3640,
      "😁": 3641,
      "😂": 3642,
      "😃": 3643,
      "😄": 3644,
      "😅": 3645,
      "😆": 3646,
      "😇": 3647,
      "😈": 3648,
      "😉": 3649,
      "😊": 3650,
      "😋": 3651,
      "😌": 3652,
      "😍": 3653,
      "😎": 3654,
      "😏": 3655,
      "😐": 3656,
      "😑": 3657,
      "😒": 3658,
      "😓": 3659,
      "😔": 3660,
      "😕": 3661,
      "😖": 3662,
      "😗": 3663,
      "😘": 3664,
      "😙": 3665,
      "😛": 3666,
      "😜": 3667,
      "😝": 3668,
      "😞": 3669,
      "😟": 3670,
      "😠": 3671,
      "😡": 3672,
      "😢": 3673,
      "😣": 3674,
      "😤": 3675,
      "😥": 3676,
      "😦": 3677,
      "😧": 3678,
      "😨": 3679,
      "😩": 3680,
      "😪": 3681,
      "😫": 3682,
      "😭": 3683,
      "😯": 3684,
      "😰": 3685,
      "😱": 3686,
      "😲": 3687,
      "😳": 3688,
      "😴": 3689,
      "😵": 3690,
      "😶": 3691,
      "😷": 3692,
      "😸": 3693,
      "😹": 3694,
      "😺": 3695,
      "😻": 3696,
      "🙀": 3697,
      "🙁": 3698,
      "🙂": 3699,
      "🙃": 3700,
      "🙄": 3701,
      "🙅": 3702,
      "🙆": 3703,
      "🙇": 3704,
      "🙈": 3705,
      "🙉": 3706,
      "🙊": 3707,
      "🙋": 3708,
      "🙌": 3709,
      "🙍": 3710,
      "🙎": 3711,
      "🙏": 3712,
      "🚀": 3713,
      "🚆": 3714,
      "🚇": 3715,
      "🚒": 3716,
      "🚓": 3717,
      "🚔": 3718,
      "🚕": 3719,
      "🚗": 3720,
      "🚘": 3721,
      "🚚": 3722,
      "🚦": 3723,
      "🚧": 3724,
      "🚨": 3725,
      "🚩": 3726,
      "🚫": 3727,
      "🚮": 3728,
      "🚵": 3729,
      "🚶": 3730,
      "🚷": 3731,
      "🚽": 3732,
      "🚿": 3733,
      "🛀": 3734,
      "🛂": 3735,
      "🛌": 3736,
      "🛍": 3737,
      "🛐": 3738,
      "🛑": 3739,
      "🛠": 3740,
      "🛣": 3741,
      "🞄": 3742,
      "🟠": 3743,
      "🟡": 3744,
      "🟢": 3745,
      "🟣": 3746,
      "🟥": 3747,
      "🤐": 3748,
      "🤑": 3749,
      "🤓": 3750,
      "🤔": 3751,
      "🤕": 3752,
      "🤖": 3753,
      "🤗": 3754,
      "🤙": 3755,
      "🤚": 3756,
      "🤛": 3757,
      "🤜": 3758,
      "🤝": 3759,
      "🤞": 3760,
      "🤟": 3761,
      "🤠": 3762,
      "🤡": 3763,
      "🤣": 3764,
      "🤥": 3765,
      "🤦": 3766,
      "🤨": 3767,
      "🤩": 3768,
      "🤪": 3769,
      "🤭": 3770,
      "🤮": 3771,
      "🤰": 3772,
      "🤲": 3773,
      "🤷": 3774,
      "🤾": 3775,
      "🥂": 3776,
      "🥄": 3777,
      "🥅": 3778,
      "🥇": 3779,
      "🥘": 3780,
      "🥤": 3781,
      "🥰": 3782,
      "🥴": 3783,
      "🥺": 3784,
      "🦁": 3785,
      "🦄": 3786,
      "🦅": 3787,
      "🦇": 3788,
      "🦋": 3789,
      "🦡": 3790,
      "🦧": 3791,
      "🦱": 3792,
      "🦼": 3793,
      "🦽": 3794,
      "🧀": 3795,
      "🧊": 3796,
      "🧏": 3797,
      "🧐": 3798,
      "🧑": 3799,
      "🧒": 3800,
      "🧖": 3801,
      "🧗": 3802,
      "🧚": 3803,
      "🧜": 3804,
      "🧡": 3805,
      "🧤": 3806,
      "🧫": 3807,
      "🧹": 3808,
      "🧼": 3809,
      "🪐": 3810,
      "##ረ": 3811,
      "##ና": 3812,
      "##ል": 3813,
      "##ገ": 3814,
      "##ዛ": 3815,
      "##ሽ": 3816,
      "##ዳ": 3817,
      "##በ": 3818,
      "##ሪ": 3819,
      "##ያ": 3820,
      "##ው": 3821,
      "##ለ": 3822,
      "##ት": 3823,
      "##ን": 3824,
      "##ሚ": 3825,
      "##ሐ": 3826,
      "##ዱ": 3827,
      "##ይ": 3828,
      "##ጫ": 3829,
      "##ሊ": 3830,
      "##ም": 3831,
      "##ፈ": 3832,
      "##ፍ": 3833,
      "##ተ": 3834,
      "##ሰ": 3835,
      "##ነ": 3836,
      "##ቀ": 3837,
      "##ጥ": 3838,
      "##ቅ": 3839,
      "##ቶ": 3840,
      "##ሎ": 3841,
      "##ኝ": 3842,
      "##መ": 3843,
      "##ዓ": 3844,
      "##ማ": 3845,
      "##ኅ": 3846,
      "##ባ": 3847,
      "##ጮ": 3848,
      "##ች": 3849,
      "##ክ": 3850,
      "##ራ": 3851,
      "##የ": 3852,
      "##አ": 3853,
      "##ድ": 3854,
      "##ሌ": 3855,
      "##ቡ": 3856,
      "##እ": 3857,
      "##ብ": 3858,
      "##ታ": 3859,
      "##ጋ": 3860,
      "##ግ": 3861,
      "##ሮ": 3862,
      "##ቤ": 3863,
      "##ቱ": 3864,
      "##ዲ": 3865,
      "##ወ": 3866,
      "##ጡ": 3867,
      "##ስ": 3868,
      "##ሶ": 3869,
      "##ህ": 3870,
      "##ሕ": 3871,
      "##ዉ": 3872,
      "##ደ": 3873,
      "##ኛ": 3874,
      "##ር": 3875,
      "##ጊ": 3876,
      "##ሱ": 3877,
      "##ዘ": 3878,
      "##ሸ": 3879,
      "##ሩ": 3880,
      "##ሬ": 3881,
      "##ቃ": 3882,
      "##ዎ": 3883,
      "##ቻ": 3884,
      "##ጿ": 3885,
      "##ከ": 3886,
      "##ጅ": 3887,
      "##ኒ": 3888,
      "##ላ": 3889,
      "##g": 3890,
      "##ዴ": 3891,
      "##N": 3892,
      "##I": 3893,
      "##G": 3894,
      "##E": 3895,
      "##ኗ": 3896,
      "##ቸ": 3897,
      "##ቆ": 3898,
      "##ጠ": 3899,
      "##ሳ": 3900,
      "##o": 3901,
      "##c": 3902,
      "##ጭ": 3903,
      "##ኚ": 3904,
      "##ፋ": 3905,
      "##ዑ": 3906,
      "##ዊ": 3907,
      "##ቴ": 3908,
      "##ቁ": 3909,
      "##ዋ": 3910,
      "##ጉ": 3911,
      "##ዮ": 3912,
      "##ኑ": 3913,
      "##ዝ": 3914,
      "##ዙ": 3915,
      "##ኡ": 3916,
      "##ሁ": 3917,
      "##ፕ": 3918,
      "##ዞ": 3919,
      "##ቋ": 3920,
      "##ካ": 3921,
      "##ጸ": 3922,
      "##l": 3923,
      "##a": 3924,
      "##b": 3925,
      "##ሺ": 3926,
      "##ሆ": 3927,
      "##ቓ": 3928,
      "##ቹ": 3929,
      "##ሟ": 3930,
      "##ፃ": 3931,
      "##ፊ": 3932,
      "##ቼ": 3933,
      "##ጣ": 3934,
      "##ኪ": 3935,
      "##ዶ": 3936,
      "##ዕ": 3937,
      "##ቺ": 3938,
      "##ዚ": 3939,
      "##h": 3940,
      "##e": 3941,
      "##ጀ": 3942,
      "##ኞ": 3943,
      "##ኋ": 3944,
      "##ሉ": 3945,
      "##ኩ": 3946,
      "##5": 3947,
      "##8": 3948,
      "##ቢ": 3949,
      "##P": 3950,
      "##免": 3951,
      "##費": 3952,
      "##下": 3953,
      "##載": 3954,
      "##媒": 3955,
      "##體": 3956,
      "##與": 3957,
      "##影": 3958,
      "##ሥ": 3959,
      "##V": 3960,
      "##ሻ": 3961,
      "##ዬ": 3962,
      "##n": 3963,
      "##d": 3964,
      "##r": 3965,
      "##C": 3966,
      "##i": 3967,
      "##9": 3968,
      "##ኤ": 3969,
      "##ፏ": 3970,
      "##t": 3971,
      "##y": 3972,
      "##k": 3973,
      "##T": 3974,
      "##A": 3975,
      "##W": 3976,
      "##ሠ": 3977,
      "##ዩ": 3978,
      "##ሀ": 3979,
      "##ዜ": 3980,
      "##ጕ": 3981,
      "##ሃ": 3982,
      "##ቨ": 3983,
      "##ጂ": 3984,
      "##_": 3985,
      "##B": 3986,
      "##ኸ": 3987,
      "##ጎ": 3988,
      "##ሞ": 3989,
      "##w": 3990,
      "##s": 3991,
      "##ቂ": 3992,
      "##ፉ": 3993,
      "##m": 3994,
      "##2": 3995,
      "##ጦ": 3996,
      "##ሴ": 3997,
      "##ቿ": 3998,
      "##ቲ": 3999,
      "##p": 4000,
      "##ጽ": 4001,
      "##0": 4002,
      "##1": 4003,
      "##6": 4004,
      "##ቷ": 4005,
      "##ዪ": 4006,
      "##ሙ": 4007,
      "##ኘ": 4008,
      "##ኢ": 4009,
      "##ፔ": 4010,
      "##ኮ": 4011,
      "##â": 4012,
      "##ቬ": 4013,
      "##ኬ": 4014,
      "##ቦ": 4015,
      "##ኔ": 4016,
      "##ጨ": 4017,
      "##ጌ": 4018,
      "##ኳ": 4019,
      "##M": 4020,
      "##S": 4021,
      "##ኣ": 4022,
      "##ጓ": 4023,
      "##v": 4024,
      "##ሂ": 4025,
      "##ሄ": 4026,
      "##ኙ": 4027,
      "##ቧ": 4028,
      "##ፅ": 4029,
      "##ኽ": 4030,
      "##ቪ": 4031,
      "##3": 4032,
      "##u": 4033,
      "##ኖ": 4034,
      "##ኹ": 4035,
      "##ፁ": 4036,
      "##O": 4037,
      "##D": 4038,
      "##ሔ": 4039,
      "##ፌ": 4040,
      "##‿": 4041,
      "##ʘ": 4042,
      "##R": 4043,
      "##U": 4044,
      "##ጻ": 4045,
      "##ፓ": 4046,
      "##ኦ": 4047,
      "##🙄": 4048,
      "##ፖ": 4049,
      "##ፒ": 4050,
      "##ሜ": 4051,
      "##ዢ": 4052,
      "##ዌ": 4053,
      "##ጧ": 4054,
      "##ፎ": 4055,
      "##ጃ": 4056,
      "##ሣ": 4057,
      "##ፆ": 4058,
      "##ኾ": 4059,
      "##ቫ": 4060,
      "##ጩ": 4061,
      "##ዐ": 4062,
      "##ሒ": 4063,
      "##Y": 4064,
      "##İ": 4065,
      "##H": 4066,
      "##L": 4067,
      "##K": 4068,
      "##ዖ": 4069,
      "##ل": 4070,
      "##ش": 4071,
      "##ر": 4072,
      "##ي": 4073,
      "##ع": 4074,
      "##ة": 4075,
      "##ጢ": 4076,
      "##ቭ": 4077,
      "##ሏ": 4078,
      "##ጁ": 4079,
      "##ሹ": 4080,
      "##ቾ": 4081,
      "##፮": 4082,
      "##)": 4083,
      "##ሡ": 4084,
      "##ፐ": 4085,
      "##x": 4086,
      "##ቈ": 4087,
      "##ጆ": 4088,
      "##̃": 4089,
      "##፴": 4090,
      "##፬": 4091,
      "##ጤ": 4092,
      "##-": 4093,
      "##<": 4094,
      "##/": 4095,
      "##7": 4096,
      "##ቊ": 4097,
      "##X": 4098,
      "##ጴ": 4099,
      "##!": 4100,
      "##ቄ": 4101,
      "##ዠ": 4102,
      "##ፀ": 4103,
      "##ሗ": 4104,
      "##ا": 4105,
      "##ت": 4106,
      "##ص": 4107,
      "##ኜ": 4108,
      "##ሇ": 4109,
      "##ኀ": 4110,
      "##ሲ": 4111,
      "##ሑ": 4112,
      "##ሯ": 4113,
      "##f": 4114,
      "##ዔ": 4115,
      "##፥": 4116,
      "##፯": 4117,
      "##፰": 4118,
      "##።": 4119,
      "##q": 4120,
      "##给": 4121,
      "##我": 4122,
      "##一": 4123,
      "##杯": 4124,
      "##饮": 4125,
      "##料": 4126,
      "##吗": 4127,
      "##.": 4128,
      "##?": 4129,
      "##Z": 4130,
      "##ቮ": 4131,
      "##4": 4132,
      "##ሾ": 4133,
      "##ጄ": 4134,
      "##ሓ": 4135,
      "##;": 4136,
      "##ጲ": 4137,
      "##ኟ": 4138,
      "##ጐ": 4139,
      "##z": 4140,
      "##ጔ": 4141,
      "##ጵ": 4142,
      "##ዥ": 4143,
      "##ኃ": 4144,
      "##ፇ": 4145,
      "##j": 4146,
      "##ى": 4147,
      "##ፄ": 4148,
      "##ጹ": 4149,
      "##ሿ": 4150,
      "##F": 4151,
      "##ዺ": 4152,
      "##ሼ": 4153,
      "##ş": 4154,
      "##ሷ": 4155,
      "##ি": 4156,
      "##স": 4157,
      "##া": 4158,
      "##ব": 4159,
      "##ে": 4160,
      "##ኰ": 4161,
      "##ኻ": 4162,
      "##💚": 4163,
      "##ዯ": 4164,
      "##è": 4165,
      "##Q": 4166,
      "##፵": 4167,
      "##ዟ": 4168,
      "##ዷ": 4169,
      "##ጳ": 4170,
      "##ዣ": 4171,
      "##፻": 4172,
      "##፹": 4173,
      "##፭": 4174,
      "##ጒ": 4175,
      "##,": 4176,
      "##ֱ": 4177,
      "##ጪ": 4178,
      "##ኁ": 4179,
      "##ሦ": 4180,
      "##ፑ": 4181,
      "##영": 4182,
      "##합": 4183,
      "##니": 4184,
      "##다": 4185,
      "##ኺ": 4186,
      "##ኵ": 4187,
      "##፦": 4188,
      "##м": 4189,
      "##о": 4190,
      "##т": 4191,
      "##р": 4192,
      "##е": 4193,
      "##ь": 4194,
      "##ዦ": 4195,
      "##ዡ": 4196,
      "##፲": 4197,
      "##፫": 4198,
      "##🇲": 4199,
      "##ä": 4200,
      "##と": 4201,
      "##\"": 4202,
      "##ı": 4203,
      "##፣": 4204,
      "##ጯ": 4205,
      "##🇸": 4206,
      "##у": 4207,
      "##፡": 4208,
      "##س": 4209,
      "##و": 4210,
      "##د": 4211,
      "##ጾ": 4212,
      "##ጺ": 4213,
      "##ב": 4214,
      "##י": 4215,
      "##ת": 4216,
      "##育": 4217,
      "##二": 4218,
      "##J": 4219,
      "##ኍ": 4220,
      "##ቖ": 4221,
      "##д": 4222,
      "##а": 4223,
      "##ч": 4224,
      "##і": 4225,
      "##ك": 4226,
      "##ب": 4227,
      "##፩": 4228,
      "##é": 4229,
      "##ᎃ": 4230,
      "##ኆ": 4231,
      "##፱": 4232,
      "##童": 4233,
      "##室": 4234,
      "##内": 4235,
      "##游": 4236,
      "##乐": 4237,
      "##场": 4238,
      "##设": 4239,
      "##备": 4240,
      "##ጬ": 4241,
      "##👆": 4242,
      "##ዒ": 4243,
      "##ሤ": 4244,
      "##ג": 4245,
      "##ה": 4246,
      "##ቍ": 4247,
      "##ç": 4248,
      "##😉": 4249,
      "##😇": 4250,
      "##😡": 4251,
      "##👈": 4252,
      "##落": 4253,
      "##ᤰ": 4254,
      "##条": 4255,
      "##巧": 4256,
      "##克": 4257,
      "##力": 4258,
      "##η": 4259,
      "##σ": 4260,
      "##ο": 4261,
      "##ῦ": 4262,
      "##ቐ": 4263,
      "##사": 4264,
      "##Ý": 4265,
      "##ù": 4266,
      "##ኧ": 4267,
      "##ዂ": 4268,
      "##💜": 4269,
      "##♓": 4270,
      "##'": 4271,
      "##~": 4272,
      "##ጰ": 4273,
      "##з": 4274,
      "##й": 4275,
      "##፤": 4276,
      "##ጶ": 4277,
      "##즈": 4278,
      "##ዅ": 4279,
      "##表": 4280,
      "##於": 4281,
      "##*": 4282,
      "##ጛ": 4283,
      "##ï": 4284,
      "##ሖ": 4285,
      "##可": 4286,
      "##道": 4287,
      "##ώ": 4288,
      "##α": 4289,
      "##፳": 4290,
      "##ü": 4291,
      "##ዏ": 4292,
      "##፪": 4293,
      "##ዃ": 4294,
      "##и": 4295,
      "##н": 4296,
      "##ы": 4297,
      "##ሢ": 4298,
      "##ጇ": 4299,
      "##ó": 4300,
      "##:": 4301,
      "##🤲": 4302,
      "##፟": 4303,
      "##ج": 4304,
      "##ኼ": 4305,
      "##작": 4306,
      "##위": 4307,
      "##ዤ": 4308,
      "##🏽": 4309,
      "##=": 4310,
      "##ۆ": 4311,
      "##ö": 4312,
      "##ֶ": 4313,
      "##ُ": 4314,
      "##ָ": 4315,
      "##Ã": 4316,
      "##ኲ": 4317,
      "##፶": 4318,
      "##ֲ": 4319,
      "##›": 4320,
      "##А": 4321,
      "##К": 4322,
      "##М": 4323,
      "##❖": 4324,
      "##ד": 4325,
      "##ọ": 4326,
      "##️": 4327,
      "##ቕ": 4328,
      "##ኊ": 4329,
      "##á": 4330,
      "##烟": 4331,
      "##区": 4332,
      "##ፂ": 4333,
      "##ñ": 4334,
      "##в": 4335,
      "##с": 4336,
      "##к": 4337,
      "##Ö": 4338,
      "##å": 4339,
      "##ጼ": 4340,
      "##В": 4341,
      "##Э": 4342,
      "##Д": 4343,
      "##😍": 4344,
      "##∙": 4345,
      "##曼": 4346,
      "##語": 4347,
      "##ቩ": 4348,
      "##ፗ": 4349,
      "##ρ": 4350,
      "##χ": 4351,
      "##ὴ": 4352,
      "##ዀ": 4353,
      "##ị": 4354,
      "##|": 4355,
      "##$": 4356,
      "##❤": 4357,
      "##ו": 4358,
      "##ש": 4359,
      "##ך": 4360,
      "##ⷕ": 4361,
      "##💸": 4362,
      "##🏆": 4363,
      "##م": 4364,
      "##ё": 4365,
      "##天": 4366,
      "##了": 4367,
      "##ѕ": 4368,
      "##े": 4369,
      "##व": 4370,
      "##ा": 4371,
      "##+": 4372,
      "##京": 4373,
      "##ộ": 4374,
      "##🇶": 4375,
      "##ט": 4376,
      "##ר": 4377,
      "##מ": 4378,
      "##נ": 4379,
      "##ל": 4380,
      "##х": 4381,
      "##ʼ": 4382,
      "##Ǒ": 4383,
      "##}": 4384,
      "##😂": 4385,
      "##욕": 4386,
      "##에": 4387,
      "##서": 4388,
      "##ጏ": 4389,
      "##{": 4390,
      "##፺": 4391,
      "##я": 4392,
      "##]": 4393,
      "##ⷛ": 4394,
      "##ෆ": 4395,
      "##්": 4396,
      "##ኌ": 4397,
      "##>": 4398,
      "##ዽ": 4399,
      "##ੈ": 4400,
      "##ሧ": 4401,
      "##ã": 4402,
      "##ቚ": 4403,
      "##ጝ": 4404,
      "##🌹": 4405,
      "##錄": 4406,
      "##製": 4407,
      "##發": 4408,
      "##音": 4409,
      "##ⷄ": 4410,
      "##ო": 4411,
      "##გ": 4412,
      "##ჯ": 4413,
      "##ე": 4414,
      "##რ": 4415,
      "##🇹": 4416,
      "##🙌": 4417,
      "##✋": 4418,
      "##ř": 4419,
      "##í": 4420,
      "##‹": 4421,
      "##【": 4422,
      "##마": 4423,
      "##워": 4424,
      "##요": 4425,
      "##°": 4426,
      "##Ω": 4427,
      "##송": 4428,
      "##하": 4429,
      "##지": 4430,
      "##만": 4431,
      "##ั": 4432,
      "##น": 4433,
      "##แ": 4434,
      "##พ": 4435,
      "##้": 4436,
      "##ก": 4437,
      "##ล": 4438,
      "##ู": 4439,
      "##เ": 4440,
      "##ต": 4441,
      "##🇭": 4442,
      "##ׂ": 4443,
      "##ĕ": 4444,
      "##ê": 4445,
      "##★": 4446,
      "##ę": 4447,
      "##မ": 4448,
      "##်": 4449,
      "##÷": 4450,
      "##👏": 4451,
      "##ш": 4452,
      "##ğ": 4453,
      "##ق": 4454,
      "##책": 4455,
      "##Ü": 4456,
      "##Ş": 4457,
      "##л": 4458,
      "##ⶀ": 4459,
      "##😌": 4460,
      "##🎬": 4461,
      "##Æ": 4462,
      "##ቌ": 4463,
      "##👊": 4464,
      "##ח": 4465,
      "##َ": 4466,
      "##ْ": 4467,
      "##ن": 4468,
      "##[": 4469,
      "##ม": 4470,
      "##ใ": 4471,
      "##ส": 4472,
      "##่": 4473,
      "##ไ": 4474,
      "##ซ": 4475,
      "##์": 4476,
      "##ห": 4477,
      "##ญ": 4478,
      "##ら": 4479,
      "##ጷ": 4480,
      "##ـ": 4481,
      "##ه": 4482,
      "##🎲": 4483,
      "##μ": 4484,
      "##ዧ": 4485,
      "##🇪": 4486,
      "##🇷": 4487,
      "##ኂ": 4488,
      "##家": 4489,
      "##๏": 4490,
      "##Í": 4491,
      "##г": 4492,
      "##ף": 4493,
      "##፷": 4494,
      "##א": 4495,
      "##ⵆ": 4496,
      "##᧐": 4497,
      "##ዼ": 4498,
      "##ی": 4499,
      "##î": 4500,
      "##Ï": 4501,
      "##爱": 4502,
      "##你": 4503,
      "##ꬃ": 4504,
      "###": 4505,
      "##੯": 4506,
      "##੮": 4507,
      "##੭": 4508,
      "##һ": 4509,
      "##ড": 4510,
      "##়": 4511,
      "##🏿": 4512,
      "##💕": 4513,
      "##🦅": 4514,
      "##С": 4515,
      "##П": 4516,
      "##У": 4517,
      "##💃": 4518,
      "##ł": 4519,
      "##፸": 4520,
      "##Ç": 4521,
      "##ቒ": 4522,
      "##♫": 4523,
      "##ོ": 4524,
      "##ہ": 4525,
      "##ں": 4526,
      "##ቇ": 4527,
      "##ኴ": 4528,
      "##蒙": 4529,
      "##古": 4530,
      "##ž": 4531,
      "##━": 4532,
      "##•": 4533,
      "##😁": 4534,
      "##ዻ": 4535,
      "##ዾ": 4536,
      "##ै": 4537,
      "##स": 4538,
      "##➏": 4539,
      "##ő": 4540,
      "##्": 4541,
      "##र": 4542,
      "##б": 4543,
      "##ⷘ": 4544,
      "##က": 4545,
      "##ý": 4546,
      "##Â": 4547,
      "##ˮ": 4548,
      "##ਲ": 4549,
      "##਼": 4550,
      "##ਵ": 4551,
      "##ਾ": 4552,
      "##ਂ": 4553,
      "##Ğ": 4554,
      "##🌟": 4555,
      "##ⶉ": 4556,
      "##ְ": 4557,
      "##ּ": 4558,
      "##ַ": 4559,
      "##ú": 4560,
      "##ि": 4561,
      "##प": 4562,
      "##š": 4563,
      "##시": 4564,
      "##가": 4565,
      "##고": 4566,
      "##ቛ": 4567,
      "##أ": 4568,
      "##ئ": 4569,
      "##ح": 4570,
      "##ė": 4571,
      "##غ": 4572,
      "##ข": 4573,
      "##า": 4574,
      "##😓": 4575,
      "##어": 4576,
      "##п": 4577,
      "##ц": 4578,
      "##à": 4579,
      "##罰": 4580,
      "##̎": 4581,
      "##庇": 4582,
      "##ف": 4583,
      "##레": 4584,
      "##나": 4585,
      "##¡": 4586,
      "##粉": 4587,
      "##☞": 4588,
      "##✞": 4589,
      "##🇳": 4590,
      "##둑": 4591,
      "##이": 4592,
      "##Ó": 4593,
      "##ቑ": 4594,
      "##ա": 4595,
      "##έ": 4596,
      "##ε": 4597,
      "##ι": 4598,
      "##ِ": 4599,
      "##ቔ": 4600,
      "##￼": 4601,
      "##ю": 4602,
      "##�": 4603,
      "##ס": 4604,
      "##语": 4605,
      "##ῷ": 4606,
      "##&": 4607,
      "##ň": 4608,
      "##ษ": 4609,
      "##😅": 4610,
      "##ዄ": 4611,
      "##ጘ": 4612,
      "##ɪ": 4613,
      "##ᎀ": 4614,
      "##−": 4615,
      "##უ": 4616,
      "##ი": 4617,
      "##ø": 4618,
      "##Ф": 4619,
      "##٨": 4620,
      "##ٍ": 4621,
      "##ా": 4622,
      "##న": 4623,
      "##్": 4624,
      "##理": 4625,
      "##さ": 4626,
      "##れ": 4627,
      "##た": 4628,
      "##も": 4629,
      "##の": 4630,
      "##🇨": 4631,
      "##🇬": 4632,
      "##ิ": 4633,
      "##โ": 4634,
      "##ዸ": 4635,
      "##🇽": 4636,
      "##ض": 4637,
      "##🧐": 4638,
      "##^": 4639,
      "##年": 4640,
      "##त": 4641,
      "##±": 4642,
      "##क": 4643,
      "##ो": 4644,
      "##ა": 4645,
      "##მ": 4646,
      "##ტ": 4647,
      "##ბ": 4648,
      "##인": 4649,
      "##ֵ": 4650,
      "##ק": 4651,
      "##گ": 4652,
      "##✔": 4653,
      "##📡": 4654,
      "##×": 4655,
      "##ؤ": 4656,
      "##ć": 4657,
      "##٤": 4658,
      "##ꬊ": 4659,
      "##Ø": 4660,
      "##ጙ": 4661,
      "##려": 4662,
      "##ኄ": 4663,
      "##始": 4664,
      "##라": 4665,
      "##와": 4666,
      "##주": 4667,
      "##세": 4668,
      "##的": 4669,
      "##相": 4670,
      "##似": 4671,
      "##應": 4672,
      "##用": 4673,
      "##丨": 4674,
      "##פ": 4675,
      "##ग": 4676,
      "##ल": 4677,
      "##🌞": 4678,
      "##🙏": 4679,
      "##न": 4680,
      "##य": 4681,
      "##學": 4682,
      "##習": 4683,
      "##目": 4684,
      "##標": 4685,
      "##ə": 4686,
      "##☕": 4687,
      "##ō": 4688,
      "##😆": 4689,
      "##♥": 4690,
      "##星": 4691,
      "##ʻ": 4692,
      "##Ä": 4693,
      "##្": 4694,
      "##រ": 4695,
      "##ី": 4696,
      "##ቯ": 4697,
      "##э": 4698,
      "##ᎈ": 4699,
      "##ץ": 4700,
      "##ذ": 4701,
      "##þ": 4702,
      "##ā": 4703,
      "##ᎌ": 4704,
      "##→": 4705,
      "##√": 4706,
      "##Ł": 4707,
      "##À": 4708,
      "##방": 4709,
      "##小": 4710,
      "##И": 4711,
      "##정": 4712,
      "##을": 4713,
      "##ี": 4714,
      "##ย": 4715,
      "##ם": 4716,
      "##ŋ": 4717,
      "##ს": 4718,
      "##ි": 4719,
      "##ං": 4720,
      "##හ": 4721,
      "##ල": 4722,
      "##产": 4723,
      "##̸": 4724,
      "##ু": 4725,
      "##হ": 4726,
      "##ম": 4727,
      "##্": 4728,
      "##দ": 4729,
      "##じ": 4730,
      "##ゃ": 4731,
      "##ん": 4732,
      "##ぐ": 4733,
      "##チ": 4734,
      "##コ": 4735,
      "##マ": 4736,
      "##ð": 4737,
      "##析": 4738,
      "##⠀": 4739,
      "##■": 4740,
      "##ᔪ": 4741,
      "##ᒃ": 4742,
      "##ᑕ": 4743,
      "##ᖅ": 4744,
      "##′": 4745,
      "##̋": 4746,
      "##٢": 4747,
      "##🔥": 4748,
      "##♍": 4749,
      "##好": 4750,
      "##き": 4751,
      "##な": 4752,
      "##作": 4753,
      "##ᎄ": 4754,
      "##🤣": 4755,
      "##ᆸ": 4756,
      "##ᅳ": 4757,
      "##ᆯ": 4758,
      "##벌": 4759,
      "##리": 4760,
      "##바": 4761,
      "##ว": 4762,
      "##¿": 4763,
      "##👉": 4764,
      "##ъ": 4765,
      "##ă": 4766,
      "##ᎂ": 4767,
      "##ⶅ": 4768,
      "##😘": 4769,
      "##酒": 4770,
      "##店": 4771,
      "##€": 4772,
      "##ௐ": 4773,
      "##Ú": 4774,
      "##☺": 4775,
      "##ⶆ": 4776,
      "##†": 4777,
      "##æ": 4778,
      "##发": 4779,
      "##ึ": 4780,
      "##ّ": 4781,
      "##ḵ": 4782,
      "##ई": 4783,
      "##ִ": 4784,
      "##ן": 4785,
      "##₺": 4786,
      "##ī": 4787,
      "##集": 4788,
      "##々": 4789,
      "##副": 4790,
      "##詞": 4791,
      "##ⷈ": 4792,
      "##£": 4793,
      "##ز": 4794,
      "##ж": 4795,
      "##력": 4796,
      "##⃣": 4797,
      "##ዿ": 4798,
      "##Ñ": 4799,
      "##♑": 4800,
      "##Я": 4801,
      "##፨": 4802,
      "##🏼": 4803,
      "##ቝ": 4804,
      "##ጱ": 4805,
      "##ᑭ": 4806,
      "##ᐅ": 4807,
      "##خ": 4808,
      "##ط": 4809,
      "##κ": 4810,
      "##φ": 4811,
      "##ν": 4812,
      "##ր": 4813,
      "##ո": 4814,
      "##կ": 4815,
      "##®": 4816,
      "##阿": 4817,
      "##姆": 4818,
      "##哈": 4819,
      "##拉": 4820,
      "##入": 4821,
      "##面": 4822,
      "##點": 4823,
      "##讀": 4824,
      "##象": 4825,
      "##彩": 4826,
      "##票": 4827,
      "##登": 4828,
      "##(": 4829,
      "##何": 4830,
      "##З": 4831,
      "##९": 4832,
      "##१": 4833,
      "##२": 4834,
      "##무": 4835,
      "##Ơ": 4836,
      "##🙆": 4837,
      "##ፘ": 4838,
      "##ⶥ": 4839,
      "##👍": 4840,
      "##ⷀ": 4841,
      "##ぶ": 4842,
      "##あ": 4843,
      "##ท": 4844,
      "##😭": 4845,
      "##산": 4846,
      "##צ": 4847,
      "##ז": 4848,
      "##‐": 4849,
      "##❉": 4850,
      "##보": 4851,
      "##Ÿ": 4852,
      "##🇻": 4853,
      "##斯": 4854,
      "##劳": 4855,
      "##🏅": 4856,
      "##õ": 4857,
      "##ֳ": 4858,
      "##⋆": 4859,
      "##訳": 4860,
      "##🎺": 4861,
      "##🎸": 4862,
      "##ụ": 4863,
      "##Т": 4864,
      "##🇱": 4865,
      "##ጚ": 4866,
      "##ड": 4867,
      "##ע": 4868,
      "##글": 4869,
      "##〈": 4870,
      "##¬": 4871,
      "##ῶ": 4872,
      "##ς": 4873,
      "##́": 4874,
      "##歌": 4875,
      "##🏾": 4876,
      "##😱": 4877,
      "##ễ": 4878,
      "##ē": 4879,
      "##ⷅ": 4880,
      "##두": 4881,
      "##통": 4882,
      "##창": 4883,
      "##👌": 4884,
      "##✩": 4885,
      "##ʿ": 4886,
      "##ک": 4887,
      "##፼": 4888,
      "##想": 4889,
      "##问": 4890,
      "##ᎇ": 4891,
      "##⭕": 4892,
      "##🇧": 4893,
      "##本": 4894,
      "##味": 4895,
      "##が": 4896,
      "##る": 4897,
      "##λ": 4898,
      "##τ": 4899,
      "##ě": 4900,
      "##✖": 4901,
      "##ɣ": 4902,
      "##頭": 4903,
      "##Ế": 4904,
      "##ጞ": 4905,
      "##ظ": 4906,
      "##ន": 4907,
      "##យ": 4908,
      "##ា": 4909,
      "##@": 4910,
      "##🎶": 4911,
      "##🎤": 4912,
      "##·": 4913,
      "##✅": 4914,
      "##ή": 4915,
      "##ω": 4916,
      "##ɨ": 4917,
      "##Õ": 4918,
      "##ʔ": 4919,
      "##能": 4920,
      "##带": 4921,
      "##去": 4922,
      "##机": 4923,
      "##§": 4924,
      "##▽": 4925,
      "##地": 4926,
      "##亚": 4927,
      "##哥": 4928,
      "##雪": 4929,
      "##📫": 4930,
      "##分": 4931,
      "##ᎎ": 4932,
      "##ⶂ": 4933,
      "##ह": 4934,
      "##←": 4935,
      "##র": 4936,
      "##ী": 4937,
      "##ⶬ": 4938,
      "##🙂": 4939,
      "##氣": 4940,
      "##怎": 4941,
      "##麼": 4942,
      "##樣": 4943,
      "##்": 4944,
      "##は": 4945,
      "##グ": 4946,
      "##ル": 4947,
      "##テ": 4948,
      "##ン": 4949,
      "##に": 4950,
      "##ア": 4951,
      "##レ": 4952,
      "##ギ": 4953,
      "##ー": 4954,
      "##💦": 4955,
      "##ś": 4956,
      "##ì": 4957,
      "##추": 4958,
      "##ܘ": 4959,
      "##ܪ": 4960,
      "##θ": 4961,
      "##ά": 4962,
      "##ိ": 4963,
      "##ု": 4964,
      "##ရ": 4965,
      "##ԝ": 4966,
      "##ी": 4967,
      "##☆": 4968,
      "##录": 4969,
      "##制": 4970,
      "##ф": 4971,
      "##ṃ": 4972,
      "##ء": 4973,
      "##😎": 4974,
      "##裤": 4975,
      "##ô": 4976,
      "##표": 4977,
      "##ʊ": 4978,
      "##ற": 4979,
      "##ி": 4980,
      "##வ": 4981,
      "##ா": 4982,
      "##ட": 4983,
      "##ம": 4984,
      "##加": 4985,
      "##▬": 4986,
      "##😃": 4987,
      "##Ì": 4988,
      "##ब": 4989,
      "##😢": 4990,
      "##○": 4991,
      "##ま": 4992,
      "##そ": 4993,
      "##ւ": 4994,
      "##յ": 4995,
      "##ኯ": 4996,
      "##◄": 4997,
      "##Г": 4998,
      "##ⷃ": 4999,
      "##🍟": 5000,
      "##🍦": 5001,
      "##르": 5002,
      "##겠": 5003,
      "##실": 5004,
      "##気": 5005,
      "##で": 5006,
      "##す": 5007,
      "##か": 5008,
      "##铃": 5009,
      "##č": 5010,
      "##🤖": 5011,
      "##方": 5012,
      "##🔈": 5013,
      "##\\": 5014,
      "##△": 5015,
      "##ḍ": 5016,
      "##ů": 5017,
      "##π": 5018,
      "##ί": 5019,
      "##ζ": 5020,
      "##➡": 5021,
      "##를": 5022,
      "##⁄": 5023,
      "##스": 5024,
      "##로": 5025,
      "##ֹ": 5026,
      "##⟨": 5027,
      "##녕": 5028,
      "##ண": 5029,
      "##ங": 5030,
      "##க": 5031,
      "##ு": 5032,
      "##ே": 5033,
      "##ன": 5034,
      "##≠": 5035,
      "##ƒ": 5036,
      "##¦": 5037,
      "##ɡ": 5038,
      "##❗": 5039,
      "##ʁ": 5040,
      "##ɔ": 5041,
      "##%": 5042,
      "##速": 5043,
      "##၈": 5044,
      "##၅": 5045,
      "##၇": 5046,
      "##ׁ": 5047,
      "##É": 5048,
      "##ⶄ": 5049,
      "##ờ": 5050,
      "##を": 5051,
      "##当": 5052,
      "##愛": 5053,
      "##し": 5054,
      "##て": 5055,
      "##є": 5056,
      "##¶": 5057,
      "##Å": 5058,
      "##人": 5059,
      "##间": 5060,
      "##在": 5061,
      "##ዹ": 5062,
      "##ڑ": 5063,
      "##ն": 5064,
      "##դ": 5065,
      "##մ": 5066,
      "##ի": 5067,
      "##ջ": 5068,
      "##🇿": 5069,
      "##ῆ": 5070,
      "##💛": 5071,
      "##💋": 5072,
      "##อ": 5073,
      "##ง": 5074,
      "##ป": 5075,
      "##ด": 5076,
      "##ë": 5077,
      "##֗": 5078,
      "##保": 5079,
      "##资": 5080,
      "##格": 5081,
      "##😀": 5082,
      "##싶": 5083,
      "##Ƅ": 5084,
      "##음": 5085,
      "##악": 5086,
      "##학": 5087,
      "##원": 5088,
      "##፠": 5089,
      "##ස": 5090,
      "##ද": 5091,
      "##ය": 5092,
      "##取": 5093,
      "##▷": 5094,
      "##ာ": 5095,
      "##စ": 5096,
      "##👇": 5097,
      "##Ù": 5098,
      "##ᎉ": 5099,
      "##ǎ": 5100,
      "##ŭ": 5101,
      "##식": 5102,
      "##명": 5103,
      "##칭": 5104,
      "##ू": 5105,
      "##ज": 5106,
      "##🍀": 5107,
      "##💎": 5108,
      "##ਤ": 5109,
      "##ੇ": 5110,
      "##ٿ": 5111,
      "##щ": 5112,
      "##대": 5113,
      "##ნ": 5114,
      "##ロ": 5115,
      "##화": 5116,
      "##는": 5117,
      "##ੀ": 5118,
      "##ਗ": 5119,
      "##陽": 5120,
      "##답": 5121,
      "##➍": 5122,
      "##間": 5123,
      "##ನ": 5124,
      "##್": 5125,
      "##ಡ": 5126,
      "##լ": 5127,
      "##խ": 5128,
      "##վ": 5129,
      "##ツ": 5130,
      "##ጟ": 5131,
      "##💗": 5132,
      "##성": 5133,
      "##华": 5134,
      "##民": 5135,
      "##共": 5136,
      "##和": 5137,
      "##国": 5138,
      "##아": 5139,
      "##ި": 5140,
      "##ތ": 5141,
      "##ު": 5142,
      "##ރ": 5143,
      "##ò": 5144,
      "##记": 5145,
      "##员": 5146,
      "##ệ": 5147,
      "##텔": 5148,
      "##സ": 5149,
      "##്": 5150,
      "##ế": 5151,
      "##ꬆ": 5152,
      "##제": 5153,
      "##품": 5154,
      "##😒": 5155,
      "##😏": 5156,
      "##ꬂ": 5157,
      "##ß": 5158,
      "##🅡": 5159,
      "##🅔": 5160,
      "##父": 5161,
      "##姐": 5162,
      "##妹": 5163,
      "##ゅ": 5164,
      "##ٰ": 5165,
      "##定": 5166,
      "##😥": 5167,
      "##厨": 5168,
      "##🇦": 5169,
      "##전": 5170,
      "##➠": 5171,
      "##═": 5172,
      "##থ": 5173,
      "##ও": 5174,
      "##Ð": 5175,
      "##β": 5176,
      "##‛": 5177,
      "##🌛": 5178,
      "##✦": 5179,
      "##ば": 5180,
      "##構": 5181,
      "##테": 5182,
      "##프": 5183,
      "##आ": 5184,
      "##ौ": 5185,
      "##म": 5186,
      "##读": 5187,
      "##❀": 5188,
      "##ត": 5189,
      "##♉": 5190,
      "##翁": 5191,
      "##失": 5192,
      "##马": 5193,
      "##ύ": 5194,
      "##إ": 5195,
      "##္": 5196,
      "##့": 5197,
      "##Ո": 5198,
      "##Ի": 5199,
      "##ս": 5200,
      "##ե": 5201,
      "##😔": 5202,
      "##🕴": 5203,
      "##对": 5204,
      "##筋": 5205,
      "##过": 5206,
      "##敏": 5207,
      "##¤": 5208,
      "##考": 5209,
      "##ư": 5210,
      "##ớ": 5211,
      "##ү": 5212,
      "##≈": 5213,
      "##ֽ": 5214,
      "##Ò": 5215,
      "##ܡ": 5216,
      "##ܝ": 5217,
      "##ܐ": 5218,
      "##个": 5219,
      "##品": 5220,
      "##च": 5221,
      "##ण": 5222,
      "##Р": 5223,
      "##О": 5224,
      "##🤔": 5225,
      "##េ": 5226,
      "##ង": 5227,
      "##ᓪ": 5228,
      "##ᓗ": 5229,
      "##ᕆ": 5230,
      "##ᐊ": 5231,
      "##ɑ": 5232,
      "##Ê": 5233,
      "##ፙ": 5234,
      "##혼": 5235,
      "##子": 5236,
      "##后": 5237,
      "##💻": 5238,
      "##¥": 5239,
      "##◆": 5240,
      "##─": 5241,
      "##🇰": 5242,
      "##ኈ": 5243,
      "##න": 5244,
      "##֑": 5245,
      "##♣": 5246,
      "##ʏ": 5247,
      "##͡": 5248,
      "##ʃ": 5249,
      "##ⶽ": 5250,
      "##来": 5251,
      "##波": 5252,
      "##罗": 5253,
      "##🥺": 5254,
      "##💔": 5255,
      "##」": 5256,
      "##፧": 5257,
      "##প": 5258,
      "##ভ": 5259,
      "##ত": 5260,
      "##메": 5261,
      "##탈": 5262,
      "##오": 5263,
      "##렌": 5264,
      "##類": 5265,
      "##Ŝ": 5266,
      "##ⶴ": 5267,
      "##般": 5268,
      "##द": 5269,
      "##砍": 5270,
      "##柴": 5271,
      "##డ": 5272,
      "##ٹ": 5273,
      "##ʾ": 5274,
      "##너": 5275,
      "##야": 5276,
      "##ᄂ": 5277,
      "##ǔ": 5278,
      "##ⲟ": 5279,
      "##ാ": 5280,
      "##ബ": 5281,
      "##ൂ": 5282,
      "##ള": 5283,
      "##ۇ": 5284,
      "##。": 5285,
      "##ό": 5286,
      "##➋": 5287,
      "##ถ": 5288,
      "##ạ": 5289,
      "##ุ": 5290,
      "##😛": 5291,
      "##그": 5292,
      "##▶": 5293,
      "##ム": 5294,
      "##ハ": 5295,
      "##ラ": 5296,
      "##イ": 5297,
      "##დ": 5298,
      "##ವ": 5299,
      "##ಾ": 5300,
      "##ಮ": 5301,
      "##ु": 5302,
      "##़": 5303,
      "##🅓": 5304,
      "##ⶨ": 5305,
      "##γ": 5306,
      "##υ": 5307,
      "##✌": 5308,
      "##È": 5309,
      "##ꬄ": 5310,
      "##🤑": 5311,
      "##ޡ": 5312,
      "##们": 5313,
      "##트": 5314,
      "##ᎏ": 5315,
      "##᎗": 5316,
      "##Î": 5317,
      "##🏍": 5318,
      "##🇾": 5319,
      "##💖": 5320,
      "##这": 5321,
      "##里": 5322,
      "##做": 5323,
      "##生": 5324,
      "##意": 5325,
      "##、": 5326,
      "##🇵": 5327,
      "##ⶇ": 5328,
      "##०": 5329,
      "##자": 5330,
      "##◇": 5331,
      "##🇼": 5332,
      "##购": 5333,
      "##物": 5334,
      "##上": 5335,
      "##문": 5336,
      "##ེ": 5337,
      "##ї": 5338,
      "##ヽ": 5339,
      "##叭": 5340,
      "##😊": 5341,
      "##ⶋ": 5342,
      "##ং": 5343,
      "##ল": 5344,
      "##姉": 5345,
      "##ⶭ": 5346,
      "##ლ": 5347,
      "##♪": 5348,
      "##♋": 5349,
      "##ো": 5350,
      "##ξ": 5351,
      "##œ": 5352,
      "##😜": 5353,
      "##🥰": 5354,
      "##ⶈ": 5355,
      "##ả": 5356,
      "##봇": 5357,
      "##〉": 5358,
      "##》": 5359,
      "##许": 5360,
      "##多": 5361,
      "##新": 5362,
      "##房": 5363,
      "##💌": 5364,
      "##금": 5365,
      "##切": 5366,
      "##כ": 5367,
      "##ச": 5368,
      "##ர": 5369,
      "##ܲ": 5370,
      "##ܠ": 5371,
      "##ܵ": 5372,
      "##ܗ": 5373,
      "##♔": 5374,
      "##հ": 5375,
      "##랑": 5376,
      "##해": 5377,
      "##ژ": 5378,
      "##말": 5379,
      "##活": 5380,
      "##ą": 5381,
      "##ż": 5382,
      "##거": 5383,
      "##ꬓ": 5384,
      "##💰": 5385,
      "##ਮ": 5386,
      "##ਹ": 5387,
      "##ਰ": 5388,
      "##ਿ": 5389,
      "##ਕ": 5390,
      "##➤": 5391,
      "##톱": 5392,
      "##看": 5393,
      "##至": 5394,
      "##머": 5395,
      "##▪": 5396,
      "##👶": 5397,
      "##২": 5398,
      "##ᎊ": 5399,
      "##ქ": 5400,
      "##╝": 5401,
      "##ʺ": 5402,
      "##শ": 5403,
      "##홈": 5404,
      "##ち": 5405,
      "##ầ": 5406,
      "##ŏ": 5407,
      "##😠": 5408,
      "##谢": 5409,
      "##器": 5410,
      "##添": 5411,
      "##🇩": 5412,
      "##轴": 5413,
      "##杜": 5414,
      "##瓦": 5415,
      "##⚖": 5416,
      "##러": 5417,
      "##진": 5418,
      "##≤": 5419,
      "##翻": 5420,
      "##譯": 5421,
      "##🅞": 5422,
      "##🅥": 5423,
      "##🅘": 5424,
      "##û": 5425,
      "##别": 5426,
      "##핑": 5427,
      "##관": 5428,
      "##ș": 5429,
      "##١": 5430,
      "##٥": 5431,
      "##ħ": 5432,
      "##以": 5433,
      "##借": 5434,
      "##手": 5435,
      "##充": 5436,
      "##电": 5437,
      "##थ": 5438,
      "##Ɔ": 5439,
      "##ꬅ": 5440,
      "##💓": 5441,
      "##드": 5442,
      "##게": 5443,
      "##임": 5444,
      "##∗": 5445,
      "##※": 5446,
      "##ီ": 5447,
      "##ဒ": 5448,
      "##ယ": 5449,
      "##ំ": 5450,
      "##ḥ": 5451,
      "##ڈ": 5452,
      "##ழ": 5453,
      "##ˋ": 5454,
      "##٠": 5455,
      "##🆄": 5456,
      "##🅱": 5457,
      "##🆂": 5458,
      "##🅲": 5459,
      "##🆁": 5460,
      "##🅸": 5461,
      "##🅴": 5462,
      "##🏁": 5463,
      "##⛽": 5464,
      "##기": 5465,
      "##̶": 5466,
      "##용": 5467,
      "##됩": 5468,
      "##ร": 5469,
      "##末": 5470,
      "##增": 5471,
      "##̱": 5472,
      "##ὸ": 5473,
      "##ې": 5474,
      "##灵": 5475,
      "##風": 5476,
      "##🏻": 5477,
      "##🌼": 5478,
      "##ค": 5479,
      "##ɛ": 5480,
      "##👬": 5481,
      "##ন": 5482,
      "##য": 5483,
      "##💉": 5484,
      "##ಿ": 5485,
      "##ರ": 5486,
      "##‵": 5487,
      "##皇": 5488,
      "##ū": 5489,
      "##😷": 5490,
      "##ず": 5491,
      "##흡": 5492,
      "##연": 5493,
      "##구": 5494,
      "##역": 5495,
      "##ے": 5496,
      "##👂": 5497,
      "##ᎋ": 5498,
      "##ὰ": 5499,
      "##루": 5500,
      "##ռ": 5501,
      "##չ": 5502,
      "##ք": 5503,
      "##̣": 5504,
      "##ử": 5505,
      "##울": 5506,
      "##陸": 5507,
      "##ј": 5508,
      "##﷽": 5509,
      "##렇": 5510,
      "##個": 5511,
      "##視": 5512,
      "##頻": 5513,
      "##中": 5514,
      "##有": 5515,
      "##條": 5516,
      "##評": 5517,
      "##論": 5518,
      "##ϊ": 5519,
      "##益": 5520,
      "##北": 5521,
      "##川": 5522,
      "##行": 5523,
      "##đ": 5524,
      "##თ": 5525,
      "##ṇ": 5526,
      "##Н": 5527,
      "##안": 5528,
      "##ţ": 5529,
      "##ത": 5530,
      "##ക": 5531,
      "##孔": 5532,
      "##䧏": 5533,
      "##ⷐ": 5534,
      "##֛": 5535,
      "##🤭": 5536,
      "##‣": 5537,
      "##ෝ": 5538,
      "##개": 5539,
      "##질": 5540,
      "##♏": 5541,
      "##视": 5542,
      "##频": 5543,
      "##ቜ": 5544,
      "##🇮": 5545,
      "##オ": 5546,
      "##ス": 5547,
      "##や": 5548,
      "##✨": 5549,
      "##発": 5550,
      "##兴": 5551,
      "##ʖ": 5552,
      "##티": 5553,
      "##피": 5554,
      "##Ž": 5555,
      "##घ": 5556,
      "##ų": 5557,
      "##明": 5558,
      "##日": 5559,
      "##ね": 5560,
      "##재": 5561,
      "##ⶩ": 5562,
      "##ھ": 5563,
      "##鬆": 5564,
      "##ῴ": 5565,
      "##ේ": 5566,
      "##ť": 5567,
      "##ผ": 5568,
      "##ː": 5569,
      "##ꬎ": 5570,
      "##ณ": 5571,
      "##✊": 5572,
      "##ं": 5573,
      "##᎓": 5574,
      "##ơ": 5575,
      "##̇": 5576,
      "##͇": 5577,
      "##̿": 5578,
      "##บ": 5579,
      "##δ": 5580,
      "##∞": 5581,
      "##త": 5582,
      "##ు": 5583,
      "##ฏ": 5584,
      "##🅗": 5585,
      "##🅐": 5586,
      "##🅝": 5587,
      "##Á": 5588,
      "##Ж": 5589,
      "##Е": 5590,
      "##➊": 5591,
      "##💙": 5592,
      "##➓": 5593,
      "##Ľ": 5594,
      "##ď": 5595,
      "##🤞": 5596,
      "##➒": 5597,
      "##ꬋ": 5598,
      "##동": 5599,
      "##往": 5600,
      "##►": 5601,
      "##ĸ": 5602,
      "##♡": 5603,
      "##🇺": 5604,
      "##ฟ": 5605,
      "##❌": 5606,
      "##छ": 5607,
      "##코": 5608,
      "##멘": 5609,
      "##ⷍ": 5610,
      "##ぼ": 5611,
      "##🐌": 5612,
      "##ฯ": 5613,
      "##细": 5614,
      "##说": 5615,
      "##ʽ": 5616,
      "##든": 5617,
      "##ኇ": 5618,
      "##り": 5619,
      "##ト": 5620,
      "##의": 5621,
      "##ń": 5622,
      "##ೈ": 5623,
      "##კ": 5624,
      "##ὔ": 5625,
      "##ấ": 5626,
      "##켓": 5627,
      "##ὐ": 5628,
      "##ṭ": 5629,
      "##痛": 5630,
      "##Ц": 5631,
      "##職": 5632,
      "##😲": 5633,
      "##장": 5634,
      "##Χ": 5635,
      "##Ι": 5636,
      "##ļ": 5637,
      "##습": 5638,
      "##ᓕ": 5639,
      "##🔌": 5640,
      "##💭": 5641,
      "##ほ": 5642,
      "##ご": 5643,
      "##車": 5644,
      "##男": 5645,
      "##ვ": 5646,
      "##動": 5647,
      "##ً": 5648,
      "##甘": 5649,
      "##字": 5650,
      "##母": 5651,
      "##چ": 5652,
      "##式": 5653,
      "##会": 5654,
      "##社": 5655,
      "##➢": 5656,
      "##ព": 5657,
      "##ľ": 5658,
      "##译": 5659,
      "##̀": 5660,
      "##等": 5661,
      "##え": 5662,
      "##န": 5663,
      "##̵": 5664,
      "##航": 5665,
      "##班": 5666,
      "##延": 5667,
      "##误": 5668,
      "##ర": 5669,
      "##ి": 5670,
      "##శ": 5671,
      "##ధ": 5672,
      "##示": 5673,
      "##威": 5674,
      "##ղ": 5675,
      "##տ": 5676,
      "##園": 5677,
      "##걸": 5678,
      "##۳": 5679,
      "##🇴": 5680,
      "##፞": 5681,
      "##ੰ": 5682,
      "##ਜ": 5683,
      "##ਬ": 5684,
      "##ፚ": 5685,
      "##💿": 5686,
      "##巢": 5687,
      "##😋": 5688,
      "##션": 5689,
      "##午": 5690,
      "##节": 5691,
      "##限": 5692,
      "##公": 5693,
      "##司": 5694,
      "##ই": 5695,
      "##潮": 5696,
      "##ⶁ": 5697,
      "##ὲ": 5698,
      "##후": 5699,
      "##嬉": 5700,
      "##い": 5701,
      "##ը": 5702,
      "##プ": 5703,
      "##浜": 5704,
      "##캠": 5705,
      "##퍼": 5706,
      "##🤙": 5707,
      "##💪": 5708,
      "##ỡ": 5709,
      "##趣": 5710,
      "##터": 5711,
      "##ǒ": 5712,
      "##直": 5713,
      "##お": 5714,
      "##答": 5715,
      "##년": 5716,
      "##✰": 5717,
      "##🙊": 5718,
      "##👀": 5719,
      "##💨": 5720,
      "##✈": 5721,
      "##词": 5722,
      "##动": 5723,
      "##😗": 5724,
      "##ὼ": 5725,
      "##苒": 5726,
      "##🔎": 5727,
      "##ڼ": 5728,
      "##ᎆ": 5729,
      "##非": 5730,
      "##常": 5731,
      "##슨": 5732,
      "##็": 5733,
      "##┈": 5734,
      "##부": 5735,
      "##月": 5736,
      "##照": 5737,
      "##片": 5738,
      "##💐": 5739,
      "##ਡ": 5740,
      "##尾": 5741,
      "##芭": 5742,
      "##蕉": 5743,
      "##숍": 5744,
      "##њ": 5745,
      "##禅": 5746,
      "##号": 5747,
      "##码": 5748,
      "##是": 5749,
      "##少": 5750,
      "##⭐": 5751,
      "##항": 5752,
      "##パ": 5753,
      "##ィ": 5754,
      "##誰": 5755,
      "##招": 5756,
      "##待": 5757,
      "##法": 5758,
      "##膏": 5759,
      "##ቘ": 5760,
      "##©": 5761,
      "##鳥": 5762,
      "##ᑖ": 5763,
      "##ᑐ": 5764,
      "##ᐁ": 5765,
      "##ᐧ": 5766,
      "##¢": 5767,
      "##遊": 5768,
      "##戲": 5769,
      "##⋙": 5770,
      "##み": 5771,
      "##ხ": 5772,
      "##네": 5773,
      "##很": 5774,
      "##べ": 5775,
      "##よ": 5776,
      "##っ": 5777,
      "##ਥ": 5778,
      "##◡": 5779,
      "##◉": 5780,
      "##兄": 5781,
      "##起": 5782,
      "##继": 5783,
      "##ⶒ": 5784,
      "##냈": 5785,
      "##✝": 5786,
      "##᎐": 5787,
      "##̕": 5788,
      "##☝": 5789,
      "##ல": 5790,
      "##į": 5791,
      "##🤦": 5792,
      "##း": 5793,
      "##🇫": 5794,
      "##‡": 5795,
      "##Й": 5796,
      "##㗹": 5797,
      "##●": 5798,
      "##思": 5799,
      "##近": 5800,
      "##警": 5801,
      "##察": 5802,
      "##局": 5803,
      "##哪": 5804,
      "##信": 5805,
      "##告": 5806,
      "##诉": 5807,
      "##助": 5808,
      "##ⵑ": 5809,
      "##ձ": 5810,
      "##🅼": 5811,
      "##🅽": 5812,
      "##қ": 5813,
      "##🎄": 5814,
      "##≥": 5815,
      "##난": 5816,
      "##ἰ": 5817,
      "##̈": 5818,
      "##린": 5819,
      "##政": 5820,
      "##🔊": 5821,
      "##ɴ": 5822,
      "##ɢ": 5823,
      "##独": 5824,
      "##自": 5825,
      "##Ǥ": 5826,
      "##토": 5827,
      "##람": 5828,
      "##離": 5829,
      "##치": 5830,
      "##된": 5831,
      "##ǝ": 5832,
      "##ਖ": 5833,
      "##㜎": 5834,
      "##海": 5835,
      "##🤕": 5836,
      "##ẖ": 5837,
      "##월": 5838,
      "##🔤": 5839,
      "##👑": 5840,
      "##時": 5841,
      "##🌲": 5842,
      "##ĉ": 5843,
      "##ਓ": 5844,
      "##ɒ": 5845,
      "##⇐": 5846,
      "##〇": 5847,
      "##訊": 5848,
      "##🍌": 5849,
      "##▼": 5850,
      "##ಣ": 5851,
      "##ಕ": 5852,
      "##ಸ": 5853,
      "##ು": 5854,
      "##♦": 5855,
      "##ꬌ": 5856,
      "##Ч": 5857,
      "##👎": 5858,
      "##□": 5859,
      "##육": 5860,
      "##Б": 5861,
      "##ֻ": 5862,
      "##֣": 5863,
      "##륙": 5864,
      "##ट": 5865,
      "##भ": 5866,
      "##체": 5867,
      "##ဝ": 5868,
      "##뚱": 5869,
      "##者": 5870,
      "##ත": 5871,
      "##ු": 5872,
      "##ර": 5873,
      "##Ǜ": 5874,
      "##േ": 5875,
      "##ൾ": 5876,
      "##文": 5877,
      "##ț": 5878,
      "##֥": 5879,
      "##ె": 5880,
      "##ల": 5881,
      "##గ": 5882,
      "##텐": 5883,
      "##츠": 5884,
      "##ٽ": 5885,
      "##然": 5886,
      "##উ": 5887,
      "##내": 5888,
      "##ြ": 5889,
      "##💒": 5890,
      "##ꬁ": 5891,
      "##Ū": 5892,
      "##👃": 5893,
      "##校": 5894,
      "##冰": 5895,
      "##部": 5896,
      "##ṗ": 5897,
      "##آ": 5898,
      "##ứ": 5899,
      "##ƅ": 5900,
      "##ൻ": 5901,
      "##厦": 5902,
      "##ắ": 5903,
      "##ല": 5904,
      "##യ": 5905,
      "##ം": 5906,
      "##ื": 5907,
      "##ช": 5908,
      "##ᥙ": 5909,
      "##现": 5910,
      "##时": 5911,
      "##什": 5912,
      "##么": 5913,
      "##满": 5914,
      "##ỗ": 5915,
      "##☛": 5916,
      "##链": 5917,
      "##接": 5918,
      "##善": 5919,
      "##算": 5920,
      "##७": 5921,
      "##ừ": 5922,
      "##❓": 5923,
      "##ǫ": 5924,
      "##💟": 5925,
      "##✟": 5926,
      "##Š": 5927,
      "##̂": 5928,
      "##ⷝ": 5929,
      "##카": 5930,
      "##노": 5931,
      "##📝": 5932,
      "##➑": 5933,
      "##◎": 5934,
      "##ʀ": 5935,
      "##ᴇ": 5936,
      "##ᴅ": 5937,
      "##ᴏ": 5938,
      "##ᴍ": 5939,
      "##📖": 5940,
      "##ނ": 5941,
      "##계": 5942,
      "##올": 5943,
      "##림": 5944,
      "##픽": 5945,
      "##회": 5946,
      "##囧": 5947,
      "##ჭ": 5948,
      "##ᾶ": 5949,
      "##後": 5950,
      "##ⷔ": 5951,
      "##₹": 5952,
      "##▒": 5953,
      "##░": 5954,
      "##▓": 5955,
      "##晶": 5956,
      "##态": 5957,
      "##户": 5958,
      "##评": 5959,
      "##论": 5960,
      "##일": 5961,
      "##ਚ": 5962,
      "##ਨ": 5963,
      "##ķ": 5964,
      "##컨": 5965,
      "##🎂": 5966,
      "##鐘": 5967,
      "##前": 5968,
      "##ध": 5969,
      "##ൗ": 5970,
      "##ഭ": 5971,
      "##ഗ": 5972,
      "##Л": 5973,
      "##㦻": 5974,
      "##♠": 5975,
      "##話": 5976,
      "##😧": 5977,
      "##پ": 5978,
      "##➿": 5979,
      "##装": 5980,
      "##ガ": 5981,
      "##🚚": 5982,
      "##⚠": 5983,
      "##▲": 5984,
      "##ố": 5985,
      "##仕": 5986,
      "##Ġ": 5987,
      "##恆": 5988,
      "##🗯": 5989,
      "##ʉ": 5990,
      "##州": 5991,
      "##Ə": 5992,
      "##✥": 5993,
      "##📞": 5994,
      "##အ": 5995,
      "##😄": 5996,
      "##☈": 5997,
      "##門": 5998,
      "##🌍": 5999,
      "##🕊": 6000,
      "##ƃ": 6001,
      "##Ƃ": 6002,
      "##Ƌ": 6003,
      "##🧡": 6004,
      "##カ": 6005,
      "##サ": 6006,
      "##タ": 6007,
      "##ナ": 6008,
      "##Ο": 6009,
      "##Υ": 6010,
      "##俊": 6011,
      "##ပ": 6012,
      "##再": 6013,
      "##֞": 6014,
      "##将": 6015,
      "##業": 6016,
      "##۟": 6017,
      "##̄": 6018,
      "##页": 6019,
      "##话": 6020,
      "##叫": 6021,
      "##医": 6022,
      "##쪽": 6023,
      "##暇": 6024,
      "##士": 6025,
      "##停": 6026,
      "##靠": 6027,
      "##站": 6028,
      "##ေ": 6029,
      "##ှ": 6030,
      "##င": 6031,
      "##커": 6032,
      "##👅": 6033,
      "##🖥": 6034,
      "##ậ": 6035,
      "##💘": 6036,
      "##ű": 6037,
      "##😞": 6038,
      "##ⶌ": 6039,
      "##😕": 6040,
      "##―": 6041,
      "##🔻": 6042,
      "##摩": 6043,
      "##🚨": 6044,
      "##झ": 6045,
      "##🅢": 6046,
      "##細": 6047,
      "##些": 6048,
      "##ゆ": 6049,
      "##歳": 6050,
      "##ޮ": 6051,
      "##ބ": 6052,
      "##ޓ": 6053,
      "##合": 6054,
      "##🔶": 6055,
      "##🔷": 6056,
      "##ᑎ": 6057,
      "##ᒻ": 6058,
      "##ᐳ": 6059,
      "##♌": 6060,
      "##✯": 6061,
      "##バ": 6062,
      "##🚽": 6063,
      "##թ": 6064,
      "##ѵ": 6065,
      "##ÿ": 6066,
      "##फ": 6067,
      "##ồ": 6068,
      "##十": 6069,
      "##比": 6070,
      "##战": 6071,
      "##ិ": 6072,
      "##ច": 6073,
      "##ឆ": 6074,
      "##ក": 6075,
      "##🤗": 6076,
      "##링": 6077,
      "##港": 6078,
      "##Ƈ": 6079,
      "##🙇": 6080,
      "##🍁": 6081,
      "##Ŧ": 6082,
      "##✧": 6083,
      "##汉": 6084,
      "##堡": 6085,
      "##包": 6086,
      "##钱": 6087,
      "##🤐": 6088,
      "##🤝": 6089,
      "##₩": 6090,
      "##∨": 6091,
      "##体": 6092,
      "##連": 6093,
      "##く": 6094,
      "##だ": 6095,
      "##ψ": 6096,
      "##ẵ": 6097,
      "##メ": 6098,
      "##义": 6099,
      "##靈": 6100,
      "##山": 6101,
      "##뷰": 6102,
      "##ḷ": 6103,
      "##ҳ": 6104,
      "##ӣ": 6105,
      "##类": 6106,
      "##ົ": 6107,
      "##ມ": 6108,
      "##ῳ": 6109,
      "##할": 6110,
      "##还": 6111,
      "##府": 6112,
      "##ੱ": 6113,
      "##ਣ": 6114,
      "##ृ": 6115,
      "##♎": 6116,
      "##ⶐ": 6117,
      "##ἷ": 6118,
      "##ღ": 6119,
      "##😯": 6120,
      "##५": 6121,
      "##째": 6122,
      "##Ś": 6123,
      "##ष": 6124,
      "##ǐ": 6125,
      "##จ": 6126,
      "##女": 6127,
      "##ŵ": 6128,
      "##😤": 6129,
      "##ث": 6130,
      "##ᇬ": 6131,
      "##东": 6132,
      "##ᴛ": 6133,
      "##ђ": 6134,
      "##ภ": 6135,
      "##ฬ": 6136,
      "##๒": 6137,
      "##ɭ": 6138,
      "##ᐃ": 6139,
      "##降": 6140,
      "##商": 6141,
      "##₿": 6142,
      "##扰": 6143,
      "##ᅲ": 6144,
      "##言": 6145,
      "##ߴ": 6146,
      "##‟": 6147,
      "##ธ": 6148,
      "##ం": 6149,
      "##ఘ": 6150,
      "##స": 6151,
      "##థ": 6152,
      "##ప": 6153,
      "##╦": 6154,
      "##赫": 6155,
      "##達": 6156,
      "##爾": 6157,
      "##标": 6158,
      "##题": 6159,
      "##玩": 6160,
      "##枕": 6161,
      "##奇": 6162,
      "##პ": 6163,
      "##మ": 6164,
      "##미": 6165,
      "##신": 6166,
      "##ܛ": 6167,
      "##ܩ": 6168,
      "##・": 6169,
      "##👚": 6170,
      "##👙": 6171,
      "##👠": 6172,
      "##ڌ": 6173,
      "##历": 6174,
      "##横": 6175,
      "##承": 6176,
      "##🙍": 6177,
      "##ํ": 6178,
      "##劇": 6179,
      "##Β": 6180,
      "##⛪": 6181,
      "##酷": 6182,
      "##狗": 6183,
      "##伯": 6184,
      "##생": 6185,
      "##활": 6186,
      "##함": 6187,
      "##ক": 6188,
      "##ძ": 6189,
      "##었": 6190,
      "##த": 6191,
      "##ை": 6192,
      "##ා": 6193,
      "##ධ": 6194,
      "##】": 6195,
      "##상": 6196,
      "##❞": 6197,
      "##🏃": 6198,
      "##🙉": 6199,
      "##겨": 6200,
      "##պ": 6201,
      "##Ǔ": 6202,
      "##ǘ": 6203,
      "##🖐": 6204,
      "##ە": 6205,
      "##֫": 6206,
      "##向": 6207,
      "##😑": 6208,
      "##😐": 6209,
      "##բ": 6210,
      "##চ": 6211,
      "##ġ": 6212,
      "##ǜ": 6213,
      "##🙈": 6214,
      "##◈": 6215,
      "##█": 6216,
      "##題": 6217,
      "##❁": 6218,
      "##出": 6219,
      "##差": 6220,
      "##🤨": 6221,
      "##🤓": 6222,
      "##҉": 6223,
      "##집": 6224,
      "##Ô": 6225,
      "##↑": 6226,
      "##╚": 6227,
      "##∷": 6228,
      "##ὕ": 6229,
      "##ⶏ": 6230,
      "##Į": 6231,
      "##ダ": 6232,
      "##選": 6233,
      "##単": 6234,
      "##љ": 6235,
      "##팠": 6236,
      "##退": 6237,
      "##ુ": 6238,
      "##જ": 6239,
      "##ર": 6240,
      "##ા": 6241,
      "##ત": 6242,
      "##ી": 6243,
      "##ٌ": 6244,
      "##ۃ": 6245,
      "##목": 6246,
      "##ခ": 6247,
      "##ျ": 6248,
      "##件": 6249,
      "##🐱": 6250,
      "##╗": 6251,
      "##ᎁ": 6252,
      "##ੋ": 6253,
      "##조": 6254,
      "##선": 6255,
      "##機": 6256,
      "##⇣": 6257,
      "##╩": 6258,
      "##丽": 6259,
      "##丝": 6260,
      "##៊": 6261,
      "##缉": 6262,
      "##埃": 6263,
      "##塞": 6264,
      "##俄": 6265,
      "##은": 6266,
      "##데": 6267,
      "##䓖": 6268,
      "##愺": 6269,
      "##真": 6270,
      "##ボ": 6271,
      "##ッ": 6272,
      "##ṁ": 6273,
      "##운": 6274,
      "##更": 6275,
      "##名": 6276,
      "##称": 6277,
      "##通": 6278,
      "##知": 6279,
      "##✆": 6280,
      "##ۈ": 6281,
      "##런": 6282,
      "##祝": 6283,
      "##顺": 6284,
      "##利": 6285,
      "##认": 6286,
      "##证": 6287,
      "##東": 6288,
      "##徴": 6289,
      "##꺼": 6290,
      "##典": 6291,
      "##‰": 6292,
      "##诺": 6293,
      "##史": 6294,
      "##श": 6295,
      "##瓶": 6296,
      "##차": 6297,
      "##Ν": 6298,
      "##😳": 6299,
      "##御": 6300,
      "##ょ": 6301,
      "##う": 6302,
      "##要": 6303,
      "##散": 6304,
      "##步": 6305,
      "##♐": 6306,
      "##당": 6307,
      "##٧": 6308,
      "##ɗ": 6309,
      "##것": 6310,
      "##🌷": 6311,
      "##널": 6312,
      "##♚": 6313,
      "##💞": 6314,
      "##䞷": 6315,
      "##ʌ": 6316,
      "##ਛ": 6317,
      "##😩": 6318,
      "##㕲": 6319,
      "##狐": 6320,
      "##娘": 6321,
      "##탕": 6322,
      "##Φ": 6323,
      "##予": 6324,
      "##報": 6325,
      "##英": 6326,
      "##贺": 6327,
      "##ฮ": 6328,
      "##♈": 6329,
      "##∼": 6330,
      "##♬": 6331,
      "##安": 6332,
      "##ټ": 6333,
      "##迎": 6334,
      "##별": 6335,
      "##銭": 6336,
      "##像": 6337,
      "##气": 6338,
      "##ਊ": 6339,
      "##절": 6340,
      "##🎧": 6341,
      "##⚽": 6342,
      "##ठ": 6343,
      "##♊": 6344,
      "##Х": 6345,
      "##ಂ": 6346,
      "##ಚ": 6347,
      "##֙": 6348,
      "##ピ": 6349,
      "##른": 6350,
      "##彙": 6351,
      "##雨": 6352,
      "##🌿": 6353,
      "##Ư": 6354,
      "##布": 6355,
      "##周": 6356,
      "##期": 6357,
      "##❧": 6358,
      "##胡": 6359,
      "##曲": 6360,
      "##首": 6361,
      "##ザ": 6362,
      "##ク": 6363,
      "##株": 6364,
      "##ប": 6365,
      "##ਦ": 6366,
      "##◠": 6367,
      "##름": 6368,
      "##瓜": 6369,
      "##ể": 6370,
      "##🦁": 6371,
      "##展": 6372,
      "##预": 6373,
      "##ⶰ": 6374,
      "##ặ": 6375,
      "##据": 6376,
      "##库": 6377,
      "##必": 6378,
      "##공": 6379,
      "##편": 6380,
      "##입": 6381,
      "##덩": 6382,
      "##등": 6383,
      "##改": 6384,
      "##见": 6385,
      "##高": 6386,
      "##毕": 6387,
      "##业": 6388,
      "##때": 6389,
      "##ੂ": 6390,
      "##ᯭ": 6391,
      "##Ԁ": 6392,
      "##附": 6393,
      "##勇": 6394,
      "##军": 6395,
      "##进": 6396,
      "##🎁": 6397,
      "##✍": 6398,
      "##ⷌ": 6399,
      "##믹": 6400,
      "##ဲ": 6401,
      "##သ": 6402,
      "##֖": 6403,
      "##럼": 6404,
      "##ⶫ": 6405,
      "##🎼": 6406,
      "##ވ": 6407,
      "##ެ": 6408,
      "##ހ": 6409,
      "##案": 6410,
      "##甫": 6411,
      "##ћ": 6412,
      "##♾": 6413,
      "##📌": 6414,
      "##ᇭ": 6415,
      "##💥": 6416,
      "##퓨": 6417,
      "##한": 6418,
      "##법": 6419,
      "##Ғ": 6420,
      "##백": 6421,
      "##ź": 6422,
      "##城": 6423,
      "##♭": 6424,
      "##ფ": 6425,
      "እን": 6426,
      "ነው": 6427,
      "##ቸው": 6428,
      "የሚ": 6429,
      "እና": 6430,
      "##ዎች": 6431,
      "እንደ": 6432,
      "አን": 6433,
      "ላይ": 6434,
      "##ዚህ": 6435,
      "##ነት": 6436,
      "የተ": 6437,
      "አይ": 6438,
      "##ስጥ": 6439,
      "ይህ": 6440,
      "##ንም": 6441,
      "ውስጥ": 6442,
      "##ገር": 6443,
      "##ለው": 6444,
      "##ችን": 6445,
      "##ለም": 6446,
      "##በር": 6447,
      "ወደ": 6448,
      "ጊዜ": 6449,
      "ግን": 6450,
      "##በት": 6451,
      "እንዲ": 6452,
      "ለመ": 6453,
      "ስለ": 6454,
      "አስ": 6455,
      "##ሆን": 6456,
      "##ንድ": 6457,
      "በመ": 6458,
      "##ውን": 6459,
      "##ሪያ": 6460,
      "##ቶች": 6461,
      "##ለሁ": 6462,
      "ሁሉ": 6463,
      "አለ": 6464,
      "##ላል": 6465,
      "ለማ": 6466,
      "ነገር": 6467,
      "##ሆነ": 6468,
      "የመ": 6469,
      "በአ": 6470,
      "##ለት": 6471,
      "ነበር": 6472,
      "ጋር": 6473,
      "##ዋል": 6474,
      "አንድ": 6475,
      "##ርስ": 6476,
      "በእ": 6477,
      "በተ": 6478,
      "አል": 6479,
      "መን": 6480,
      "##ችሁ": 6481,
      "የአ": 6482,
      "##ተኛ": 6483,
      "የእ": 6484,
      "እኔ": 6485,
      "##ስት": 6486,
      "የም": 6487,
      "ወይ": 6488,
      "##ፈል": 6489,
      "##ናል": 6490,
      "##ደር": 6491,
      "እነ": 6492,
      "ይች": 6493,
      "##ሆኑ": 6494,
      "##ትን": 6495,
      "##ጣም": 6496,
      "##ለን": 6497,
      "##ድር": 6498,
      "በጣም": 6499,
      "ሰው": 6500,
      "##ሁን": 6501,
      "ምን": 6502,
      "##ደረ": 6503,
      "##ያን": 6504,
      "የማ": 6505,
      "አይደ": 6506,
      "የሚያ": 6507,
      "##ድረ": 6508,
      "##አብ": 6509,
      "እየ": 6510,
      "##ግዚ": 6511,
      "ብዙ": 6512,
      "##..": 6513,
      "##በረ": 6514,
      "ወይም": 6515,
      "##ርሱ": 6516,
      "እስ": 6517,
      "##ግዚአብ": 6518,
      "##ሔር": 6519,
      "##ራት": 6520,
      "ብቻ": 6521,
      "##ስተ": 6522,
      "##ግዚአብሔር": 6523,
      "##ዚያ": 6524,
      "ናቸው": 6525,
      "ይህን": 6526,
      "##ቸውን": 6527,
      "##ገባ": 6528,
      "##ምን": 6529,
      "##ላይ": 6530,
      "##ንያ": 6531,
      "##ሮች": 6532,
      "##ጀመ": 6533,
      "እንዳ": 6534,
      "በዚህ": 6535,
      "##ውም": 6536,
      "መል": 6537,
      "በማ": 6538,
      "##ላሉ": 6539,
      "እንደሚ": 6540,
      "ሰዎች": 6541,
      "ደግ": 6542,
      "##ረት": 6543,
      "##ረጃ": 6544,
      "##ታል": 6545,
      "ዓመ": 6546,
      "##መለ": 6547,
      "ምክ": 6548,
      "ደግሞ": 6549,
      "##ንተ": 6550,
      "##ሎች": 6551,
      "##ርት": 6552,
      "##ገድ": 6553,
      "ከእ": 6554,
      "##ትም": 6555,
      "...": 6556,
      "##ማሪ": 6557,
      "አይደለም": 6558,
      "አላ": 6559,
      "ያለ": 6560,
      "##ቅር": 6561,
      "ከተ": 6562,
      "አገ": 6563,
      "እኛ": 6564,
      "አሁን": 6565,
      "##ኋላ": 6566,
      "##ቱን": 6567,
      "##ድረግ": 6568,
      "##ልም": 6569,
      "##ሰብ": 6570,
      "በሚ": 6571,
      "ያለው": 6572,
      "##ርስዎ": 6573,
      "##ዳን": 6574,
      "መስ": 6575,
      "##ንግ": 6576,
      "20": 6577,
      "ቀን": 6578,
      "እንዴ": 6579,
      "ይችላል": 6580,
      "በኋላ": 6581,
      "##የት": 6582,
      "##ይወ": 6583,
      "ምክንያ": 6584,
      "ጉዳ": 6585,
      "ይመ": 6586,
      "##ከል": 6587,
      "##ባት": 6588,
      "##ጠቀ": 6589,
      "ባለ": 6590,
      "አም": 6591,
      "##ዎችን": 6592,
      "##ታት": 6593,
      "##ነው": 6594,
      "##መን": 6595,
      "ማን": 6596,
      "ለእ": 6597,
      "ያስ": 6598,
      "##ኔታ": 6599,
      "ክፍ": 6600,
      "ቤት": 6601,
      "##ከተ": 6602,
      "ነገ": 6603,
      "##ጀመሪያ": 6604,
      "እያ": 6605,
      "ምር": 6606,
      "##ኖር": 6607,
      "ሁኔታ": 6608,
      "ተመ": 6609,
      "##ቅም": 6610,
      "##ኛል": 6611,
      "ማለት": 6612,
      "እንዴት": 6613,
      "##ግር": 6614,
      "##ላቸው": 6615,
      "##ፊት": 6616,
      "##ረው": 6617,
      "ምንም": 6618,
      "##ዲስ": 6619,
      "##ሉም": 6620,
      "እር": 6621,
      "ይችላሉ": 6622,
      "ከመ": 6623,
      "አብ": 6624,
      "ከአ": 6625,
      "አመ": 6626,
      "##ናት": 6627,
      "##ያው": 6628,
      "##ሉት": 6629,
      "እግዚአብሔር": 6630,
      "አስተ": 6631,
      "##ራል": 6632,
      "እንዲህ": 6633,
      "##ላት": 6634,
      "##ገና": 6635,
      "##ኛው": 6636,
      "##ኘት": 6637,
      "##ሪካ": 6638,
      "አካ": 6639,
      "##ሰማ": 6640,
      "በላይ": 6641,
      "ስለዚህ": 6642,
      "##ኞች": 6643,
      "##ቀር": 6644,
      "##ቱም": 6645,
      "##ሳይ": 6646,
      "##ራዊ": 6647,
      "##ስታ": 6648,
      "##ለያ": 6649,
      "መንገድ": 6650,
      "መጠ": 6651,
      "ከፍ": 6652,
      "##ረስ": 6653,
      "አንተ": 6654,
      "እው": 6655,
      "ጥሩ": 6656,
      "##ህን": 6657,
      "##ባቸው": 6658,
      "እሱ": 6659,
      "ይሆ": 6660,
      "ቦታ": 6661,
      "ሥራ": 6662,
      "ሁሉም": 6663,
      "ሆኖ": 6664,
      "##ጨማሪ": 6665,
      "##ሰው": 6666,
      "##ቢያ": 6667,
      "##ለች": 6668,
      "እስከ": 6669,
      "እነዚህ": 6670,
      "##ግባ": 6671,
      "##በሩ": 6672,
      "ሌላ": 6673,
      "አው": 6674,
      "##መር": 6675,
      "##ልቅ": 6676,
      "ሳይ": 6677,
      "አሉ": 6678,
      "ዓመት": 6679,
      "##ዝብ": 6680,
      "##ፈልጋ": 6681,
      "##ወቅ": 6682,
      "##ብር": 6683,
      "መንግ": 6684,
      "##ነበረ": 6685,
      "##ጆች": 6686,
      "አባ": 6687,
      "##ያስ": 6688,
      "ከዚህ": 6689,
      "መካ": 6690,
      "##ጠቃ": 6691,
      "የበ": 6692,
      "##ህል": 6693,
      "##ሰራ": 6694,
      "##ከት": 6695,
      "##ለህ": 6696,
      "##ልክ": 6697,
      "##ምሮ": 6698,
      "ይሆናል": 6699,
      "##ጨረ": 6700,
      "##ላችሁ": 6701,
      "##ወሰ": 6702,
      "ድር": 6703,
      "##ድን": 6704,
      "##ቦች": 6705,
      "##ጣት": 6706,
      "የሆነ": 6707,
      "ዛሬ": 6708,
      "##ዎቹ": 6709,
      "እንኳ": 6710,
      "በቀ": 6711,
      "##ይወት": 6712,
      "##ጥር": 6713,
      "##ታው": 6714,
      "ለአ": 6715,
      "እንዲሁ": 6716,
      "አድር": 6717,
      "ከሆነ": 6718,
      "##ዶች": 6719,
      "##ገን": 6720,
      "ማድረግ": 6721,
      "##ዎን": 6722,
      "ብሎ": 6723,
      "ደረጃ": 6724,
      "##ግኘት": 6725,
      "ዓይ": 6726,
      "##ይል": 6727,
      "አት": 6728,
      "በፊት": 6729,
      "##ያቄ": 6730,
      "##ምህ": 6731,
      "ልጅ": 6732,
      "እርሱ": 6733,
      "##ላክ": 6734,
      "##ተው": 6735,
      "##በል": 6736,
      "##ቷል": 6737,
      "እየተ": 6738,
      "##ዓት": 6739,
      "አማ": 6740,
      "የለም": 6741,
      "መካከል": 6742,
      "##ምር": 6743,
      "##ገው": 6744,
      "ሆነ": 6745,
      "የወ": 6746,
      "ከዚያ": 6747,
      "ያል": 6748,
      "መሆኑ": 6749,
      "##ዘብ": 6750,
      "##ፍት": 6751,
      "ድረስ": 6752,
      "##ትዮ": 6753,
      "##ግብ": 6754,
      "ጥያቄ": 6755,
      "አዲስ": 6756,
      "##00": 6757,
      "##ጨረሻ": 6758,
      "##ችል": 6759,
      "##ባል": 6760,
      "##ረጋ": 6761,
      "##ፈለ": 6762,
      "##ናገ": 6763,
      "##ንስ": 6764,
      "ይህንን": 6765,
      "የት": 6766,
      "##ጠር": 6767,
      "##ልግ": 6768,
      "##ሚያ": 6769,
      "##መጣ": 6770,
      "##ታዊ": 6771,
      "##ለጠ": 6772,
      "##ባቢ": 6773,
      "መረጃ": 6774,
      "በር": 6775,
      "##ክል": 6776,
      "##ረዳ": 6777,
      "መሆን": 6778,
      "##ሄድ": 6779,
      "ስም": 6780,
      "##ኖች": 6781,
      "ዘንድ": 6782,
      "##ሳት": 6783,
      "እጅ": 6784,
      "ሁለት": 6785,
      "##ግል": 6786,
      "##ኛውም": 6787,
      "ቤተ": 6788,
      "ጉዳይ": 6789,
      "እዚህ": 6790,
      "##ትዮጵ": 6791,
      "ይሄ": 6792,
      "##ሱስ": 6793,
      "ያህል": 6794,
      "##ርድ": 6795,
      "አንዳ": 6796,
      "አስፈ": 6797,
      "##ንን": 6798,
      "እንጂ": 6799,
      "አንዱ": 6800,
      "##ሎት": 6801,
      "ተስ": 6802,
      "##የሱስ": 6803,
      "##ታቸው": 6804,
      "##ቶችን": 6805,
      "##ሪክ": 6806,
      "##ምና": 6807,
      "የማይ": 6808,
      "##ግራ": 6809,
      "ቃል": 6810,
      "##ማት": 6811,
      "##ገኘ": 6812,
      "##ጣል": 6813,
      "ይጠ": 6814,
      "##ዎት": 6815,
      "ሁለ": 6816,
      "##ሰጠ": 6817,
      "ምክንያት": 6818,
      "##ነቱ": 6819,
      "ይገ": 6820,
      "##ላጊ": 6821,
      "##ርግ": 6822,
      "##ስራ": 6823,
      "እንደሆነ": 6824,
      "በዓ": 6825,
      "##ቀት": 6826,
      "ዓለም": 6827,
      "እነሱ": 6828,
      "ትን": 6829,
      "በየ": 6830,
      "ከፍተኛ": 6831,
      "##ሜሪካ": 6832,
      "ለምን": 6833,
      "##re": 6834,
      "አለው": 6835,
      "##ክት": 6836,
      "ማስ": 6837,
      "##ደን": 6838,
      "በም": 6839,
      "ተቀ": 6840,
      "##ቸዋል": 6841,
      "‹‹": 6842,
      "##ቃል": 6843,
      "##ረብ": 6844,
      "##ጠቀም": 6845,
      "##ታችን": 6846,
      "ወቅ": 6847,
      "##ኩል": 6848,
      "##ሳብ": 6849,
      "ነኝ": 6850,
      "##ገኙ": 6851,
      "##ሳሌ": 6852,
      "ገን": 6853,
      "##ነሳ": 6854,
      "##ጊዜ": 6855,
      "የኢ": 6856,
      "##ገኝ": 6857,
      "አያ": 6858,
      "##ሞች": 6859,
      "##ቀው": 6860,
      "##ወስ": 6861,
      "##ዘጋ": 6862,
      "##ገለ": 6863,
      "አገልግ": 6864,
      "ስራ": 6865,
      "እናንተ": 6866,
      "##ትዮጵያ": 6867,
      "##ይት": 6868,
      "##ደው": 6869,
      "##ለያዩ": 6870,
      "ይመስ": 6871,
      "##ወዳ": 6872,
      "ትምህ": 6873,
      "አስፈላጊ": 6874,
      "ፕሮ": 6875,
      "##ጣን": 6876,
      "ልጆች": 6877,
      "##ናው": 6878,
      "ነገሮች": 6879,
      "እንኳን": 6880,
      "ችግር": 6881,
      "##መስ": 6882,
      "ውጤ": 6883,
      "እናም": 6884,
      "ሙሉ": 6885,
      "አሳ": 6886,
      "##ኝነት": 6887,
      "እርስዎ": 6888,
      "##ተር": 6889,
      "ይህም": 6890,
      "##ቤት": 6891,
      "የመጀመሪያ": 6892,
      "201": 6893,
      "##ጽሐ": 6894,
      "##መል": 6895,
      "##ረን": 6896,
      "##ወጣ": 6897,
      "##ችላ": 6898,
      "##ማር": 6899,
      "##ንት": 6900,
      "መተ": 6901,
      "##ቀጥ": 6902,
      "የታ": 6903,
      "##ሳሳይ": 6904,
      "##ዲያ": 6905,
      "እንዲሁም": 6906,
      "##ዋታ": 6907,
      "10": 6908,
      "##ስተኛ": 6909,
      "አንዳንድ": 6910,
      "##የር": 6911,
      "##or": 6912,
      "##ኤል": 6913,
      "ሊያ": 6914,
      "##ያንዳን": 6915,
      "ክፍል": 6916,
      "አቀ": 6917,
      "##ጠና": 6918,
      "ሌሎች": 6919,
      "መግ": 6920,
      "መሆኑን": 6921,
      "##ደርጋ": 6922,
      "የምት": 6923,
      "አለበት": 6924,
      "የምን": 6925,
      "አሁ": 6926,
      "##ከር": 6927,
      "##ካም": 6928,
      "##ፈልግ": 6929,
      "መብ": 6930,
      "ሊሆን": 6931,
      "ክርስ": 6932,
      "ዓመታት": 6933,
      "19": 6934,
      "##ደት": 6935,
      "ወን": 6936,
      "##ደም": 6937,
      "የሚያስ": 6938,
      "በሙ": 6939,
      "በጥ": 6940,
      "ለም": 6941,
      "##ቂያ": 6942,
      "የለ": 6943,
      "በእርግ": 6944,
      "የው": 6945,
      "##ኝም": 6946,
      "የነ": 6947,
      "ልዩ": 6948,
      "በአንድ": 6949,
      "ስር": 6950,
      "ሲሆን": 6951,
      "##ሁሉም": 6952,
      "##ሠራ": 6953,
      "##ሞክ": 6954,
      "ዋጋ": 6955,
      "መሰ": 6956,
      "በት": 6957,
      "ከሚ": 6958,
      "##ለይ": 6959,
      "##ጠበ": 6960,
      "እንዲያ": 6961,
      "ያሉ": 6962,
      "የቀ": 6963,
      "##ራቸው": 6964,
      "ቅዱ": 6965,
      "##ቻችን": 6966,
      "አደ": 6967,
      "ወቅት": 6968,
      "##ችልም": 6969,
      "ኢየሱስ": 6970,
      "ጌታ": 6971,
      "##ገል": 6972,
      "አሁንም": 6973,
      "##በብ": 6974,
      "##ላው": 6975,
      "ተጨማሪ": 6976,
      "ይሰ": 6977,
      "##ሩን": 6978,
      "##ሪዎች": 6979,
      "የበለጠ": 6980,
      "##ላም": 6981,
      "##ሩት": 6982,
      "ተስፋ": 6983,
      "##ግበ": 6984,
      "ወር": 6985,
      "ጨዋታ": 6986,
      "ይሁን": 6987,
      "ምስ": 6988,
      "##ቻል": 6989,
      "##ከራ": 6990,
      "##መረ": 6991,
      "##ጠራ": 6992,
      "##ፈው": 6993,
      "##ተዋል": 6994,
      "ከተማ": 6995,
      "##ዮች": 6996,
      "ብር": 6997,
      "##ዲህ": 6998,
      "##ደረገ": 6999,
      "በፍ": 7000,
      "##ሱን": 7001,
      "##ትና": 7002,
      "##ከታ": 7003,
      "የህ": 7004,
      "ዕድ": 7005,
      "እድ": 7006,
      "##ፈልጉ": 7007,
      "##ሥራ": 7008,
      "ለዚህ": 7009,
      "ገንዘብ": 7010,
      "ጀምሮ": 7011,
      "አምላክ": 7012,
      "መጥ": 7013,
      "የሰ": 7014,
      "የስ": 7015,
      "ዓይነት": 7016,
      "ቀላል": 7017,
      "ይገባ": 7018,
      "በስ": 7019,
      "ትምህርት": 7020,
      "##ምነት": 7021,
      "##ብን": 7022,
      "ወንድ": 7023,
      "አልተ": 7024,
      "##ላቅ": 7025,
      "እጅግ": 7026,
      "በኢ": 7027,
      "እንድ": 7028,
      "##ሁኑ": 7029,
      "የእርስዎ": 7030,
      "##ያንዳንዱ": 7031,
      "ብዬ": 7032,
      "በታ": 7033,
      "##ነዚህ": 7034,
      "##መው": 7035,
      "##ካታ": 7036,
      "፡-": 7037,
      "መር": 7038,
      "በተጨማሪ": 7039,
      "በሌ": 7040,
      "##ሽን": 7041,
      "##ታወ": 7042,
      "##ቀመ": 7043,
      "##ብኝ": 7044,
      "የራ": 7045,
      "##ዛት": 7046,
      "##ለቲ": 7047,
      "##ሆንም": 7048,
      "ዘመን": 7049,
      "##ላማ": 7050,
      "##ቂት": 7051,
      "##ናገር": 7052,
      "ነበረ": 7053,
      "##ሻለ": 7054,
      "››": 7055,
      "እንግ": 7056,
      "##ሥት": 7057,
      "##በው": 7058,
      "ተግባ": 7059,
      "##ፋት": 7060,
      "##ለኛ": 7061,
      "መጽሐ": 7062,
      "አድ": 7063,
      "መጠን": 7064,
      "መለ": 7065,
      "ትልቅ": 7066,
      "##ቻቸው": 7067,
      "ትክ": 7068,
      "##er": 7069,
      "የሚል": 7070,
      "##on": 7071,
      "በሙሉ": 7072,
      "ያው": 7073,
      "ምክንያቱም": 7074,
      "##ነጋ": 7075,
      "የእግዚአብሔር": 7076,
      "ልብ": 7077,
      "##ዮን": 7078,
      "በሰ": 7079,
      "##ሏል": 7080,
      "##ለዋል": 7081,
      "ማህ": 7082,
      "##ገራ": 7083,
      "##ሳቸው": 7084,
      "ለው": 7085,
      "##ላለ": 7086,
      "የግ": 7087,
      "በው": 7088,
      "##ዲዮ": 7089,
      "ቅዱስ": 7090,
      "##ኩት": 7091,
      "ሁሉንም": 7092,
      "በእርግጥ": 7093,
      "ካል": 7094,
      "##ግና": 7095,
      "የሕ": 7096,
      "##ምት": 7097,
      "##ነሱ": 7098,
      "የባ": 7099,
      "##ጫወ": 7100,
      "##ጠት": 7101,
      "##ባንያ": 7102,
      "ትንሽ": 7103,
      "አጋ": 7104,
      "ለሚ": 7105,
      "##ርዝ": 7106,
      "ከማ": 7107,
      "እውነ": 7108,
      "አዳ": 7109,
      "በዚያ": 7110,
      "##ብረ": 7111,
      "##ልን": 7112,
      "አገር": 7113,
      "##ከፍ": 7114,
      "##ናንተ": 7115,
      "##ቤተ": 7116,
      "በኩል": 7117,
      "ተብ": 7118,
      "##in": 7119,
      "##ልፍ": 7120,
      "ድን": 7121,
      "አር": 7122,
      "##ደርግ": 7123,
      "##ግበሪያ": 7124,
      "ስል": 7125,
      "በሕ": 7126,
      "ታሪክ": 7127,
      "##ፈር": 7128,
      "::": 7129,
      "ችግ": 7130,
      "ከባ": 7131,
      "##ከላ": 7132,
      "መልካም": 7133,
      "ለማድረግ": 7134,
      "ቁጥር": 7135,
      "ለተ": 7136,
      "##ደረግ": 7137,
      "##ለቲካ": 7138,
      "##ናቸው": 7139,
      "መሠ": 7140,
      "አማራ": 7141,
      "ዋና": 7142,
      "ያለውን": 7143,
      "በራ": 7144,
      "ፍላ": 7145,
      "ሁል": 7146,
      "##ሰጥ": 7147,
      "##የው": 7148,
      "እንደገና": 7149,
      "እኔም": 7150,
      "ለማግኘት": 7151,
      "ባህ": 7152,
      "##ርያ": 7153,
      "ምንድ": 7154,
      "እነርሱ": 7155,
      "ንግ": 7156,
      "##ንቀ": 7157,
      "##ሃል": 7158,
      "ድም": 7159,
      "ተመሳሳይ": 7160,
      "በእው": 7161,
      "##ረጥ": 7162,
      "እውነት": 7163,
      "##ዝቡ": 7164,
      "##ችንን": 7165,
      "##ችኋ": 7166,
      "አይነት": 7167,
      "ማግኘት": 7168,
      "ስለሆነ": 7169,
      "##ሮችን": 7170,
      "##ክር": 7171,
      "የሚለው": 7172,
      "ይዘ": 7173,
      "##ጥነት": 7174,
      "ድርጅ": 7175,
      "አካባቢ": 7176,
      "##ዳል": 7177,
      "ስት": 7178,
      "##መሰ": 7179,
      "ሆይ": 7180,
      "ተፈ": 7181,
      "##ችሉ": 7182,
      "##ከቱ": 7183,
      "##ታይ": 7184,
      "##ውል": 7185,
      "ስሜ": 7186,
      "ሲያ": 7187,
      "ነፃ": 7188,
      "እንዳለ": 7189,
      "ትር": 7190,
      "ቢሆን": 7191,
      "የተለያዩ": 7192,
      "ፍቅር": 7193,
      "ግንኙ": 7194,
      "##ሰባ": 7195,
      "12": 7196,
      "ምርጫ": 7197,
      "##ደኛ": 7198,
      "ሰዓት": 7199,
      "መተግበሪያ": 7200,
      "አገልግሎት": 7201,
      "በነ": 7202,
      "ይላል": 7203,
      "##መለስ": 7204,
      "ያሳ": 7205,
      "##ጠብ": 7206,
      "ፍላጎ": 7207,
      "ሆኖም": 7208,
      "##ፈስ": 7209,
      "##መራ": 7210,
      "##ገብ": 7211,
      "##ከሰ": 7212,
      "15": 7213,
      "##ዋለሁ": 7214,
      "##ምንት": 7215,
      "የተለ": 7216,
      "ሳይሆን": 7217,
      "##ጠቃሚ": 7218,
      "##ክስ": 7219,
      "##ct": 7220,
      "ብለው": 7221,
      "ጥቅም": 7222,
      "የነበረ": 7223,
      "ፊት": 7224,
      "##መና": 7225,
      "##ገኛ": 7226,
      "##ገቡ": 7227,
      "##ብዙ": 7228,
      "##ኖሩ": 7229,
      "##ሰጡ": 7230,
      "በተለይ": 7231,
      "##ድሞ": 7232,
      "እንቅ": 7233,
      "ደን": 7234,
      "ሕይወት": 7235,
      "ሴት": 7236,
      "መቀ": 7237,
      "ነበሩ": 7238,
      "##ቹን": 7239,
      "መመ": 7240,
      "##ፍራ": 7241,
      "##ቅድ": 7242,
      "ኩባንያ": 7243,
      "በል": 7244,
      "##ንቋ": 7245,
      "እንደተ": 7246,
      "ግብ": 7247,
      "በደ": 7248,
      "መንግስት": 7249,
      "ቀናት": 7250,
      "##ራሉ": 7251,
      "አቅ": 7252,
      "##ቃት": 7253,
      "##ተኞች": 7254,
      "##ረጋገ": 7255,
      "መው": 7256,
      "አላቸው": 7257,
      "##ችንም": 7258,
      "ስን": 7259,
      "በርካታ": 7260,
      "##ርቲ": 7261,
      "አብዛ": 7262,
      "##ማይ": 7263,
      "##ደረጉ": 7264,
      "ኢን": 7265,
      "11": 7266,
      "##ሰቡ": 7267,
      "##ንኛውም": 7268,
      "##ስብ": 7269,
      "መደ": 7270,
      "ስብ": 7271,
      "##ፖርት": 7272,
      "##ተት": 7273,
      "##ጠሩ": 7274,
      "##ቶስ": 7275,
      "መጽሐፍ": 7276,
      "እርግ": 7277,
      "በዓለም": 7278,
      "Me": 7279,
      "ማሳ": 7280,
      "ጠቅ": 7281,
      "መንገ": 7282,
      "##ሣሪያ": 7283,
      "ምድር": 7284,
      "የል": 7285,
      "ማንም": 7286,
      "##ለውም": 7287,
      "##ነገ": 7288,
      "##ደርጉ": 7289,
      "##ብረት": 7290,
      "ውድ": 7291,
      "##ሻሻ": 7292,
      "ተገ": 7293,
      "ነን": 7294,
      "ዝግ": 7295,
      "##ክርስ": 7296,
      "በተጨማሪም": 7297,
      "ይቻ": 7298,
      "##ናወ": 7299,
      "ከዚያም": 7300,
      "##ተኛው": 7301,
      "##መት": 7302,
      "እንዳይ": 7303,
      "ፈቃ": 7304,
      "ተጠ": 7305,
      "ደስ": 7306,
      "በግ": 7307,
      "የእኔ": 7308,
      "##ዛሬ": 7309,
      "ከሌ": 7310,
      "##ምጃ": 7311,
      "ገጽ": 7312,
      "##ጥሮ": 7313,
      "##ይን": 7314,
      "ምናል": 7315,
      "ገና": 7316,
      "##ደግ": 7317,
      "ጣቢያ": 7318,
      "አፍ": 7319,
      "ማስተ": 7320,
      "##መድ": 7321,
      "እባ": 7322,
      "መዝ": 7323,
      "ኃይል": 7324,
      "##ይና": 7325,
      "##ዓለም": 7326,
      "##ያል": 7327,
      "ተማሪ": 7328,
      "18": 7329,
      "ይልቅ": 7330,
      "##መለከተ": 7331,
      "ተቋ": 7332,
      "ናት": 7333,
      "ይቻላል": 7334,
      "##ሊዮን": 7335,
      "Cor": 7336,
      "##ጀት": 7337,
      "##ያዝ": 7338,
      "##ጠቃላይ": 7339,
      "##ወደ": 7340,
      "ታላቅ": 7341,
      "ይገባል": 7342,
      "አበ": 7343,
      "##ጅም": 7344,
      "##ዋን": 7345,
      "ባል": 7346,
      "ሲል": 7347,
      "ንጉ": 7348,
      "##ላፊ": 7349,
      "##ርነት": 7350,
      "##ቲያን": 7351,
      "የተሻለ": 7352,
      "##ጠፋ": 7353,
      "##ሁለ": 7354,
      "ሕዝብ": 7355,
      "ቅር": 7356,
      "##ረድ": 7357,
      "ምርጥ": 7358,
      "##በትን": 7359,
      "##ጠይ": 7360,
      "##rect": 7361,
      "ይፈልጋ": 7362,
      "የፈ": 7363,
      "ህዝብ": 7364,
      "##ጠረ": 7365,
      "ቅድ": 7366,
      "##ንካ": 7367,
      "##ባይ": 7368,
      "##ሶች": 7369,
      "ለማስ": 7370,
      "##ተን": 7371,
      "ተመል": 7372,
      "የሌ": 7373,
      "##ረዋል": 7374,
      "##ጀመር": 7375,
      "Correct": 7376,
      "ይቀ": 7377,
      "አካል": 7378,
      "##ከብ": 7379,
      "##ህም": 7380,
      "##ቀም": 7381,
      "##ስን": 7382,
      "እራ": 7383,
      "##ታቸውን": 7384,
      "መቼ": 7385,
      "##ሳል": 7386,
      "መልስ": 7387,
      "ዝርዝ": 7388,
      "ሥር": 7389,
      "##ሁት": 7390,
      "መሣሪያ": 7391,
      "አልነበረ": 7392,
      "##ለማ": 7393,
      "##ንዳ": 7394,
      "ልክ": 7395,
      "አቀፍ": 7396,
      "ግንኙነት": 7397,
      "##ውያን": 7398,
      "የሰው": 7399,
      "አለመ": 7400,
      "##ውቃ": 7401,
      "14": 7402,
      "##ላዊ": 7403,
      "መሳ": 7404,
      "##አት": 7405,
      "መንግሥት": 7406,
      "##በያ": 7407,
      "በወ": 7408,
      "ቋንቋ": 7409,
      "##ያንስ": 7410,
      "##ረም": 7411,
      "##ህና": 7412,
      "በመሆኑ": 7413,
      "##ስታወ": 7414,
      "##ንግድ": 7415,
      "ተጠቃሚ": 7416,
      "##ኑን": 7417,
      "አለኝ": 7418,
      "##ሙያ": 7419,
      "##ራሽ": 7420,
      "##ስቃ": 7421,
      "##le": 7422,
      "አሜሪካ": 7423,
      "##ጠው": 7424,
      "የተወሰ": 7425,
      "##ገት": 7426,
      "##በቃ": 7427,
      "ግል": 7428,
      "ከባድ": 7429,
      "##20": 7430,
      "መም": 7431,
      "ውጭ": 7432,
      "##ጠኛ": 7433,
      "መታ": 7434,
      "ማየት": 7435,
      "##ጋት": 7436,
      "መድረ": 7437,
      "እነዚህን": 7438,
      "##ሁለት": 7439,
      "ድጋ": 7440,
      "##ሉን": 7441,
      "##ችው": 7442,
      "##ካት": 7443,
      "እያንዳንዱ": 7444,
      "መጣ": 7445,
      "##በራዊ": 7446,
      "ያልተ": 7447,
      "##ሯል": 7448,
      "##ጠቀሙ": 7449,
      "##ይታ": 7450,
      "የዘ": 7451,
      "##ማማ": 7452,
      "እርምጃ": 7453,
      "##ከናወ": 7454,
      "ትኩ": 7455,
      "##ነስ": 7456,
      "##ሮፓ": 7457,
      "##ፉት": 7458,
      "ትክክ": 7459,
      "የጥ": 7460,
      "የእኛ": 7461,
      "##ጎች": 7462,
      "##ሆና": 7463,
      "##st": 7464,
      "ሴቶች": 7465,
      "##ልቁ": 7466,
      "ወጣ": 7467,
      "አስደ": 7468,
      "ቢያንስ": 7469,
      "##ሬት": 7470,
      "ማወቅ": 7471,
      "13": 7472,
      "የገ": 7473,
      "##ታማ": 7474,
      "ጥቂት": 7475,
      "##ልኝ": 7476,
      "ዙሪያ": 7477,
      "ቀጥ": 7478,
      "##ዳት": 7479,
      "አይችልም": 7480,
      "እርሱም": 7481,
      "##ቆም": 7482,
      "ተና": 7483,
      "##ያዘ": 7484,
      "##በኛ": 7485,
      "##ወድ": 7486,
      "በህ": 7487,
      "##ቆጣ": 7488,
      "##ነግ": 7489,
      "##ኪና": 7490,
      "አግ": 7491,
      "የዚህ": 7492,
      "##ዎታል": 7493,
      "ይሆን": 7494,
      "ነጻ": 7495,
      "##በቅ": 7496,
      "እሷ": 7497,
      "##ቨር": 7498,
      "እኮ": 7499,
      "##ስቃሴ": 7500,
      "መሠረት": 7501,
      "##ራን": 7502,
      "ተጫ": 7503,
      "##ሰድ": 7504,
      "በአሁኑ": 7505,
      "በቅር": 7506,
      "##ላሽ": 7507,
      "##ጀም": 7508,
      "##ነርሱ": 7509,
      "##ትምህ": 7510,
      "##ምገ": 7511,
      "200": 7512,
      "ያን": 7513,
      "##ሳኔ": 7514,
      "ሚኒ": 7515,
      "##ችሁን": 7516,
      "ምልክ": 7517,
      "##ፎች": 7518,
      "ይፈ": 7519,
      "በማለት": 7520,
      "አስተያ": 7521,
      "##ገነ": 7522,
      "##ሪቱ": 7523,
      "ተብሎ": 7524,
      "ካለ": 7525,
      "ምግብ": 7526,
      "ማዕ": 7527,
      "ይታ": 7528,
      "አሰ": 7529,
      "የፍ": 7530,
      "##ወለ": 7531,
      "##ለኛል": 7532,
      "##an": 7533,
      "ያላቸው": 7534,
      "ዜና": 7535,
      "##ማል": 7536,
      "ክል": 7537,
      "##ካል": 7538,
      "##ርክ": 7539,
      "እስኪ": 7540,
      "ባይ": 7541,
      "##ብራ": 7542,
      "##ሞት": 7543,
      "ይበል": 7544,
      "##ቴን": 7545,
      "##ጡት": 7546,
      "በታች": 7547,
      "ሀገር": 7548,
      "ቡድን": 7549,
      "ማንኛውም": 7550,
      "የተፈ": 7551,
      "##ሊዝ": 7552,
      "##ሃን": 7553,
      "ልጆ": 7554,
      "##at": 7555,
      "የሆኑ": 7556,
      "መፍት": 7557,
      "##ቾች": 7558,
      "መግለ": 7559,
      "አጥ": 7560,
      "##ኞቹ": 7561,
      "##ጠል": 7562,
      "ኢትዮጵያ": 7563,
      "ለውጥ": 7564,
      "ወዳ": 7565,
      "##ቅረብ": 7566,
      "##ቃሉ": 7567,
      "##ክምና": 7568,
      "ሁልጊዜ": 7569,
      "##ኮኖ": 7570,
      "የለውም": 7571,
      "እዚያ": 7572,
      "ፕሮግራ": 7573,
      "በመጨረሻ": 7574,
      "ለምሳሌ": 7575,
      "ነጥ": 7576,
      "እንቅስቃሴ": 7577,
      "##ዋቂ": 7578,
      "ይኖ": 7579,
      "ስለሚ": 7580,
      "ዘር": 7581,
      "##ar": 7582,
      "ፓርቲ": 7583,
      "የደ": 7584,
      "16": 7585,
      "30": 7586,
      "ለመስ": 7587,
      "ይመስላል": 7588,
      "ምናልባት": 7589,
      "ፍላጎት": 7590,
      "##ባለ": 7591,
      "አደጋ": 7592,
      "##ጋራ": 7593,
      "መጨረሻ": 7594,
      "##ቃለሁ": 7595,
      "##ቂቃ": 7596,
      "የፖ": 7597,
      "##ንክ": 7598,
      "በይ": 7599,
      "አንዳን": 7600,
      "17": 7601,
      "ድጋፍ": 7602,
      "##ሎችን": 7603,
      "አመት": 7604,
      "ጽሑ": 7605,
      "##ፈራ": 7606,
      "##ou": 7607,
      "ይገኛል": 7608,
      "ያላ": 7609,
      "ውጤት": 7610,
      "ይቅር": 7611,
      "##ሎጂ": 7612,
      "ማለ": 7613,
      "##ችለው": 7614,
      "##ልጣ": 7615,
      "ጉዞ": 7616,
      "እባክ": 7617,
      "ርዕ": 7618,
      "መጀመሪያ": 7619,
      "##ነቶች": 7620,
      "ትክክለኛ": 7621,
      "##በላ": 7622,
      "##በታል": 7623,
      "ቢሆንም": 7624,
      "ቪዲዮ": 7625,
      "##ትምህርት": 7626,
      "##ይማ": 7627,
      "##ሰጠው": 7628,
      "##ገንዘብ": 7629,
      "##ሰን": 7630,
      "አያስ": 7631,
      "ብት": 7632,
      "##ሳተ": 7633,
      "እምነት": 7634,
      "##ምገማ": 7635,
      "##ያት": 7636,
      "##ሰበ": 7637,
      "##መልከት": 7638,
      "##ንና": 7639,
      "ሂደት": 7640,
      "መብት": 7641,
      "ስሜት": 7642,
      "ውሳኔ": 7643,
      "ሰላም": 7644,
      "ይመል": 7645,
      "እነሆ": 7646,
      "##በትም": 7647,
      "ለእኔ": 7648,
      "ተደ": 7649,
      "##ጠየ": 7650,
      "##ድም": 7651,
      "##ሲቲ": 7652,
      "በሌላ": 7653,
      "ጥቅ": 7654,
      "በትክ": 7655,
      "##ይማኖ": 7656,
      "ይኖር": 7657,
      "##ጋሪ": 7658,
      "በረ": 7659,
      "እንዳል": 7660,
      "እንደዚህ": 7661,
      "##ከለ": 7662,
      "በመጀመሪያ": 7663,
      "አዎ": 7664,
      "ዩኒ": 7665,
      "##ፈለግ": 7666,
      "በመስ": 7667,
      "##ላቀ": 7668,
      "##ኗል": 7669,
      "ተወ": 7670,
      "ደቂቃ": 7671,
      "ያስፈልጋ": 7672,
      "##ቋቋ": 7673,
      "##ባሉ": 7674,
      "##ስራኤል": 7675,
      "እስካ": 7676,
      "ገብ": 7677,
      "##ቨርሲቲ": 7678,
      "ያደርጋ": 7679,
      "በቂ": 7680,
      "##ታዎች": 7681,
      "ዘመ": 7682,
      "##ገኘው": 7683,
      "ጠቃ": 7684,
      "ግምገማ": 7685,
      "በበ": 7686,
      "የንግድ": 7687,
      "##ሰር": 7688,
      "##ደል": 7689,
      "ነህ": 7690,
      "##ጫወት": 7691,
      "ፎቶ": 7692,
      "ዓላማ": 7693,
      "አለባቸው": 7694,
      "መፍ": 7695,
      "ግድ": 7696,
      "ጠቃሚ": 7697,
      "በሽ": 7698,
      "ፖሊ": 7699,
      "ዝርዝር": 7700,
      "ቀር": 7701,
      "ማስታወ": 7702,
      "ብለዋል": 7703,
      "ታዲያ": 7704,
      "##ሰሩ": 7705,
      "መጠቀም": 7706,
      "ቀደም": 7707,
      "ሚሊዮን": 7708,
      "መንፈስ": 7709,
      "ሳምንት": 7710,
      "24": 7711,
      "መድ": 7712,
      "##om": 7713,
      "##ቶቹ": 7714,
      "ወረ": 7715,
      "##ለኝ": 7716,
      "##ገዛ": 7717,
      "መነ": 7718,
      "##ዳር": 7719,
      "በመቶ": 7720,
      "##ዚሁ": 7721,
      "በቀላሉ": 7722,
      "##ፈልገ": 7723,
      "እፈልጋ": 7724,
      "##ወጥ": 7725,
      "##ኮች": 7726,
      "##ጣሉ": 7727,
      "አዝ": 7728,
      "እንደሚያ": 7729,
      "ምክር": 7730,
      "##ደርስ": 7731,
      "የሚከተ": 7732,
      "ምሳሌ": 7733,
      "##ቸውም": 7734,
      "ነፍ": 7735,
      "ይወ": 7736,
      "##ቁም": 7737,
      "##ራሲ": 7738,
      "##ረጋግ": 7739,
      "##ደረገው": 7740,
      "##ተና": 7741,
      "##ካሄ": 7742,
      "##ቻለሁ": 7743,
      "##ዳደር": 7744,
      "##en": 7745,
      "##ሙን": 7746,
      "አታ": 7747,
      "##ነትን": 7748,
      "አግኝ": 7749,
      "##ከፈ": 7750,
      "##ንቅ": 7751,
      "##ሳዊ": 7752,
      "ወጥ": 7753,
      "##ሰት": 7754,
      "የመጨረሻ": 7755,
      "##ኖረው": 7756,
      "##ያዊ": 7757,
      "25": 7758,
      "ሁላ": 7759,
      "##ቡር": 7760,
      "ተቃ": 7761,
      "##ቀረ": 7762,
      "ጉዳዮች": 7763,
      "ሀገ": 7764,
      "##ክብ": 7765,
      "##ላር": 7766,
      "የሙ": 7767,
      "አመሰ": 7768,
      "የብ": 7769,
      "ስላ": 7770,
      "##it": 7771,
      "##ጠበቅ": 7772,
      "ስህ": 7773,
      "አልነበረም": 7774,
      "##ችላለን": 7775,
      "መኖር": 7776,
      "##ክኖ": 7777,
      "##ቦት": 7778,
      "##ያኔ": 7779,
      "##ጉም": 7780,
      "##ቀቅ": 7781,
      "እንችላለን": 7782,
      "አሸ": 7783,
      "እፈልጋለሁ": 7784,
      "መግለጫ": 7785,
      "ቤቱ": 7786,
      "##ቀኑ": 7787,
      "የሞ": 7788,
      "ከወ": 7789,
      "ሕግ": 7790,
      "##ዘን": 7791,
      "የካ": 7792,
      "በሆነ": 7793,
      "እርስ": 7794,
      "##ጣሚ": 7795,
      "አገልግሎ": 7796,
      "##ጹም": 7797,
      "##ጮች": 7798,
      "የሚችል": 7799,
      "መመሪያ": 7800,
      "የዓለም": 7801,
      "ሰር": 7802,
      "##ዱት": 7803,
      "ልም": 7804,
      "ቁጥ": 7805,
      "##ቀመጥ": 7806,
      "##ፊያ": 7807,
      "ተራ": 7808,
      "ራስ": 7809,
      "##ስቱ": 7810,
      "##ዛዝ": 7811,
      "ፕሮጀ": 7812,
      "ከም": 7813,
      "##ለመ": 7814,
      "ተጫዋ": 7815,
      "##ገደ": 7816,
      "ብለን": 7817,
      "##ቀስ": 7818,
      "##ic": 7819,
      "\">": 7820,
      "አፈ": 7821,
      "አባት": 7822,
      "ፕሬ": 7823,
      "የግል": 7824,
      "##ዱስት": 7825,
      "ፈቃድ": 7826,
      "ዘዴ": 7827,
      "ለማሳ": 7828,
      "ትኩረት": 7829,
      "##ቀበ": 7830,
      "ውሃ": 7831,
      "የመጀመሪያው": 7832,
      "##ታን": 7833,
      "##ዬን": 7834,
      "##ረተ": 7835,
      "ተናግ": 7836,
      "የሚቆ": 7837,
      "ያንን": 7838,
      "##ያለሁ": 7839,
      "በእግዚአብሔር": 7840,
      "##ዚቃ": 7841,
      "ተደር": 7842,
      "እም": 7843,
      "##ጥታ": 7844,
      "አላው": 7845,
      "##ኮኖሚ": 7846,
      "መስጠት": 7847,
      "##ለል": 7848,
      "አቶ": 7849,
      "##ከፋ": 7850,
      "አነ": 7851,
      "##ፈለጉ": 7852,
      "አድርጎ": 7853,
      "##ro": 7854,
      "አይደሉም": 7855,
      "ደር": 7856,
      "##ባለው": 7857,
      "መሪ": 7858,
      "##ዘር": 7859,
      "ገል": 7860,
      "ሀብ": 7861,
      "መሥ": 7862,
      "ችሎ": 7863,
      "##ሩም": 7864,
      "የተመ": 7865,
      "ድርጅት": 7866,
      "##ፈጸ": 7867,
      "##ላን": 7868,
      "ያሉት": 7869,
      "ስፍራ": 7870,
      "##ክኖሎጂ": 7871,
      "ጥራት": 7872,
      "ያድር": 7873,
      "ጤና": 7874,
      "##ቁት": 7875,
      "##ዊት": 7876,
      "##ታችሁ": 7877,
      "##ልጣን": 7878,
      "##ብዎት": 7879,
      "##oo": 7880,
      "መሳሪያ": 7881,
      "##ዋት": 7882,
      "##ውሮፓ": 7883,
      "##ጓል": 7884,
      "ይመልከቱ": 7885,
      "##ችኋል": 7886,
      "ማው": 7887,
      "##ንካራ": 7888,
      "ክርስቶስ": 7889,
      "እኛም": 7890,
      "አዳዲስ": 7891,
      "##ጠን": 7892,
      "##ነበር": 7893,
      "መልኩ": 7894,
      "ልን": 7895,
      "##ሰቦች": 7896,
      "ክፍያ": 7897,
      "እንግዲህ": 7898,
      "በግል": 7899,
      "ባለው": 7900,
      "ዕድሜ": 7901,
      "ምንድን": 7902,
      "አማካ": 7903,
      "እኔን": 7904,
      "በጭ": 7905,
      "##ልህ": 7906,
      "እውነተኛ": 7907,
      "ተማሪዎች": 7908,
      "ለመቀ": 7909,
      "ደህን": 7910,
      "##ተናል": 7911,
      "ይበልጥ": 7912,
      "##ገራችን": 7913,
      "የሚሰጡ": 7914,
      "ይመስለኛል": 7915,
      "ምላሽ": 7916,
      "ለመግ": 7917,
      "##ንቀሳ": 7918,
      "##ቻቸውን": 7919,
      "በፍጥነት": 7920,
      "አያው": 7921,
      "##ቲያ": 7922,
      "የመስ": 7923,
      "##ሰጣ": 7924,
      "##ሊት": 7925,
      "የአሜሪካ": 7926,
      "ቆይ": 7927,
      "በብ": 7928,
      "ከአንድ": 7929,
      "##ጣሪ": 7930,
      "##ዕራ": 7931,
      "እሱን": 7932,
      "ኳስ": 7933,
      "##ኩም": 7934,
      "ወይስ": 7935,
      "በስተ": 7936,
      "ዶላር": 7937,
      "ግለ": 7938,
      "21": 7939,
      "ትዕ": 7940,
      "በዚህም": 7941,
      "##ማን": 7942,
      "##ፈልግም": 7943,
      "##ነፍ": 7944,
      "አራት": 7945,
      "ገደ": 7946,
      "በትክክል": 7947,
      "ባለሙያ": 7948,
      "ለእርስዎ": 7949,
      "##ረዳት": 7950,
      "##ዲያው": 7951,
      "##ለፍ": 7952,
      "ሁለቱም": 7953,
      "##ጭር": 7954,
      "በተመ": 7955,
      "እርግጠኛ": 7956,
      "ለዘ": 7957,
      "አማራጭ": 7958,
      "በተመለከተ": 7959,
      "ከሰ": 7960,
      "የተለየ": 7961,
      "ኃጢ": 7962,
      "##ሴት": 7963,
      "22": 7964,
      "##ዚያን": 7965,
      "##በሩት": 7966,
      "ነገሮችን": 7967,
      "##ረጋገጥ": 7968,
      "##ጠቅ": 7969,
      "በማንኛውም": 7970,
      "ሦስት": 7971,
      "በየቀኑ": 7972,
      "ቤቶች": 7973,
      "ጓደኛ": 7974,
      "##ሜን": 7975,
      "##ዳታ": 7976,
      "ይሰማ": 7977,
      "ስለሆነም": 7978,
      "ውይ": 7979,
      "##ጋይ": 7980,
      "ክርስቲያን": 7981,
      "ቅድሚያ": 7982,
      "መላ": 7983,
      "##ዳሚ": 7984,
      "አመሰግና": 7985,
      "በባ": 7986,
      "##ምፒ": 7987,
      "##ደገ": 7988,
      "የመጣ": 7989,
      "ዩኒቨርሲቲ": 7990,
      "##ርም": 7991,
      "##አል": 7992,
      "ችግሮች": 7993,
      "ይፈልጋሉ": 7994,
      "መኪና": 7995,
      "ፍርድ": 7996,
      "የሆነው": 7997,
      "እንድት": 7998,
      "ጠንካራ": 7999,
      "አላውቅም": 8000,
      "ነውና": 8001,
      "ሆነው": 8002,
      "አስቸ": 8003,
      "ወጪ": 8004,
      "ተወዳ": 8005,
      "##ጥም": 8006,
      "አቅር": 8007,
      "አለብን": 8008,
      "##ዱስትሪ": 8009,
      "##የሁ": 8010,
      "##ርባ": 8011,
      "##ባዊ": 8012,
      "##ቀድ": 8013,
      "....": 8014,
      "እስካሁን": 8015,
      "##በኞች": 8016,
      "የፖለቲካ": 8017,
      "ጓደ": 8018,
      "ለሌ": 8019,
      "##ምላክ": 8020,
      "የሥራ": 8021,
      "##ቻለ": 8022,
      "በድ": 8023,
      "##ዲሱ": 8024,
      "ሀሳብ": 8025,
      "##ቋል": 8026,
      "የቆ": 8027,
      "##ነጋገር": 8028,
      "##ፈት": 8029,
      "ጽሑፍ": 8030,
      "ስርዓት": 8031,
      "##ከተማ": 8032,
      "##al": 8033,
      "ጋዜ": 8034,
      "አለን": 8035,
      "ዝም": 8036,
      "የሚፈልጉ": 8037,
      "በሁሉም": 8038,
      "##ገረ": 8039,
      "የጎ": 8040,
      "##ላለም": 8041,
      "##ቡብ": 8042,
      "##መጡ": 8043,
      "አመሰግናለሁ": 8044,
      "አስተያየት": 8045,
      "ተሰ": 8046,
      "##ደርገ": 8047,
      "ግራ": 8048,
      "##መም": 8049,
      "በእውነቱ": 8050,
      "ያስፈልጋል": 8051,
      "##ፋል": 8052,
      "ይባ": 8053,
      "##ሳቸውን": 8054,
      "ሚኒስት": 8055,
      "መልእ": 8056,
      "ተግባር": 8057,
      "##ንግስት": 8058,
      "##ከው": 8059,
      "በደን": 8060,
      "ሌላው": 8061,
      "አሉት": 8062,
      "##ስር": 8063,
      "##ቤቱ": 8064,
      "ጥያቄዎች": 8065,
      "##ረዱ": 8066,
      "በምድር": 8067,
      "ወላ": 8068,
      "ስብሰባ": 8069,
      "ሰዎችን": 8070,
      "ምርት": 8071,
      "ነዉ": 8072,
      "##ኬት": 8073,
      "##es": 8074,
      "ተጽ": 8075,
      "ተከታ": 8076,
      "23": 8077,
      "##ዲት": 8078,
      "ይሰጣል": 8079,
      "ኖሮ": 8080,
      "##ጅት": 8081,
      "መቅ": 8082,
      "##ሎስ": 8083,
      "የሚገባ": 8084,
      "ክልል": 8085,
      "ትልቁ": 8086,
      "##ቦችን": 8087,
      "##ባብ": 8088,
      "100": 8089,
      "##ካከ": 8090,
      "ያግ": 8091,
      "ሁላችንም": 8092,
      "የምታ": 8093,
      "##መቱ": 8094,
      "ሺህ": 8095,
      "በመን": 8096,
      "ለሁሉም": 8097,
      "ፈጣን": 8098,
      "##ራው": 8099,
      "##ብዛ": 8100,
      "##ገሪቱ": 8101,
      "##ቅና": 8102,
      "መስመር": 8103,
      "##ጋል": 8104,
      "ትችላ": 8105,
      "##ጥረት": 8106,
      "##ውልድ": 8107,
      "የነበረው": 8108,
      "##ናቂ": 8109,
      "ለራ": 8110,
      "አምስት": 8111,
      "ጦርነት": 8112,
      "ያስተ": 8113,
      "ብቸ": 8114,
      "##ግም": 8115,
      "ይቆ": 8116,
      "እነሱን": 8117,
      "##ያዙ": 8118,
      "የሚታ": 8119,
      "##ችሉም": 8120,
      "##ጋና": 8121,
      "##ጣይ": 8122,
      "ልት": 8123,
      "ያድርጉ": 8124,
      "ሰብ": 8125,
      "ቡድ": 8126,
      "እነርሱም": 8127,
      "በተመሳሳይ": 8128,
      "የኮ": 8129,
      "አቅም": 8130,
      "ደስታ": 8131,
      "አባላት": 8132,
      "መሄድ": 8133,
      "ይናገ": 8134,
      "የምና": 8135,
      "ክፉ": 8136,
      "ከል": 8137,
      "##መጥ": 8138,
      "ህይወት": 8139,
      "መለያ": 8140,
      "ቤተሰብ": 8141,
      "##ጌታ": 8142,
      "ሕዝ": 8143,
      "ንግድ": 8144,
      "##ጥፍ": 8145,
      "መንገዶች": 8146,
      "ዝቅ": 8147,
      "##ሴቶች": 8148,
      "ከላይ": 8149,
      "ሰጥ": 8150,
      "##ስቡ": 8151,
      "መሰረት": 8152,
      "አክ": 8153,
      "##ሴን": 8154,
      "አይመስ": 8155,
      "##ነቱን": 8156,
      "ወገ": 8157,
      "ጨምሮ": 8158,
      "ይላሉ": 8159,
      "##ደረሰ": 8160,
      "##ላቸውም": 8161,
      "አብዛኛ": 8162,
      "ክብር": 8163,
      "ስልክ": 8164,
      "##ጋሚ": 8165,
      "ሰዓ": 8166,
      "ሲሉ": 8167,
      "መቶ": 8168,
      "ግልጽ": 8169,
      "##ከታተ": 8170,
      "አበባ": 8171,
      "##ካባቢ": 8172,
      "##ውስ": 8173,
      "##ርሃ": 8174,
      "የቤተ": 8175,
      "የክ": 8176,
      "##ሳች": 8177,
      "ተስማ": 8178,
      "##ራር": 8179,
      "##ቅርብ": 8180,
      "##ኛሉ": 8181,
      "የኢትዮጵያ": 8182,
      "##ሃለሁ": 8183,
      "አውቃለሁ": 8184,
      "ገበያ": 8185,
      "መጥፎ": 8186,
      "በማድረግ": 8187,
      "በጉ": 8188,
      "##ደርገው": 8189,
      "##ሻሻል": 8190,
      "##ስና": 8191,
      "ሰማ": 8192,
      "መልክ": 8193,
      "##ላንድ": 8194,
      "እግዚአብሔርን": 8195,
      "##ጠላ": 8196,
      "የኤ": 8197,
      "##ደጋ": 8198,
      "ሠራ": 8199,
      "መዋ": 8200,
      "በመሆኑም": 8201,
      "በተለይም": 8202,
      "መጻ": 8203,
      "ተሳ": 8204,
      "##ከፍተኛ": 8205,
      "ይኸ": 8206,
      "በቅ": 8207,
      "እችላ": 8208,
      "##ፖር": 8209,
      "ከጥ": 8210,
      "እንደማ": 8211,
      "##ዝና": 8212,
      "በእውነት": 8213,
      "ኃይ": 8214,
      "##ኪያ": 8215,
      "##ቁር": 8216,
      "ግንባ": 8217,
      "ተነ": 8218,
      "የተቀ": 8219,
      "ኃላፊ": 8220,
      "ጥረት": 8221,
      "##ንደ": 8222,
      "##ምረ": 8223,
      "አባል": 8224,
      "ዝግጁ": 8225,
      "ምንድነው": 8226,
      "እንደም": 8227,
      "እናት": 8228,
      "አጋጣሚ": 8229,
      "በክ": 8230,
      "ሕዝቡ": 8231,
      "##ፈልገው": 8232,
      "##ፈን": 8233,
      "በ1": 8234,
      "መልዕ": 8235,
      "##ቡን": 8236,
      "በቅርቡ": 8237,
      "የእርስዎን": 8238,
      "ሶስት": 8239,
      "##ንቃ": 8240,
      "ለማወቅ": 8241,
      "የሀ": 8242,
      "##ጤና": 8243,
      "##ወር": 8244,
      "እያለ": 8245,
      "##በረሰብ": 8246,
      "ክስተ": 8247,
      "ምርቶች": 8248,
      "በእርሱ": 8249,
      "ወዲያው": 8250,
      "##ከተል": 8251,
      "##የም": 8252,
      "ይበ": 8253,
      "##ሄር": 8254,
      "##ቀርብ": 8255,
      "ራሱ": 8256,
      "እችላለሁ": 8257,
      "ለማየት": 8258,
      "ብዙውን": 8259,
      "##ቀል": 8260,
      "በእኔ": 8261,
      "##ሳን": 8262,
      "ክፍሎች": 8263,
      "##ሪት": 8264,
      "አስታው": 8265,
      "ደስተኛ": 8266,
      "የአየር": 8267,
      "ለመሆን": 8268,
      "በሀ": 8269,
      "አላህ": 8270,
      "ሆኗል": 8271,
      "##ንተር": 8272,
      "ትርጉም": 8273,
      "##ጦች": 8274,
      "ወስ": 8275,
      "በቃ": 8276,
      "መክ": 8277,
      "##ቀጥለው": 8278,
      "የቀረ": 8279,
      "ትክክል": 8280,
      "##ለጋ": 8281,
      "##ናሉ": 8282,
      "##ያቸው": 8283,
      "##ነበ": 8284,
      "##ከላከ": 8285,
      "##ጥረ": 8286,
      "አየር": 8287,
      "ዳር": 8288,
      "##ችኋለሁ": 8289,
      "##መኑ": 8290,
      "##ዱን": 8291,
      "ፕሮግራም": 8292,
      "ንጉሥ": 8293,
      "##ከባ": 8294,
      "አስደሳች": 8295,
      "##ሊያ": 8296,
      "አቋ": 8297,
      "##እምሮ": 8298,
      "##ሙት": 8299,
      "##ሷል": 8300,
      "ግምገማዎች": 8301,
      "ሞት": 8302,
      "አደርጋ": 8303,
      "አስቸጋሪ": 8304,
      "ሚዲያ": 8305,
      "ፖለቲካ": 8306,
      "በደንብ": 8307,
      "##ላህ": 8308,
      "000": 8309,
      "ከእኔ": 8310,
      "መፍትሄ": 8311,
      "በጎ": 8312,
      "##ሆነው": 8313,
      "የሚለውን": 8314,
      "የትምህርት": 8315,
      "##ጠበቀ": 8316,
      "##ቡት": 8317,
      "ሁኔታዎች": 8318,
      "##የን": 8319,
      "##ዕኖ": 8320,
      "ዕድል": 8321,
      "ቀድሞ": 8322,
      "##ወጡ": 8323,
      "በአጠቃላይ": 8324,
      "ብርሃን": 8325,
      "ከእርሱ": 8326,
      "ወራት": 8327,
      "ፍጥነት": 8328,
      "##ገሩ": 8329,
      "##ሔራዊ": 8330,
      "መኖ": 8331,
      "##ድረስ": 8332,
      "##ራለሁ": 8333,
      "##ድስት": 8334,
      "##ልድ": 8335,
      "መንግሥ": 8336,
      "##ማሽ": 8337,
      "ፈጽ": 8338,
      "26": 8339,
      "ሰራ": 8340,
      "ያደርጋል": 8341,
      "ጉዳት": 8342,
      "##one": 8343,
      "የይ": 8344,
      "ወጣት": 8345,
      "ፍጹም": 8346,
      "ነዋ": 8347,
      "ተገቢ": 8348,
      "ስህተት": 8349,
      "##ንጉ": 8350,
      "አልቻ": 8351,
      "ምልክት": 8352,
      "እንደማይ": 8353,
      "##ረፍ": 8354,
      "ትራ": 8355,
      "##ሬን": 8356,
      "##ac": 8357,
      "ድምፅ": 8358,
      "የአንድ": 8359,
      "ማህበራዊ": 8360,
      "ፋይ": 8361,
      "##ሻል": 8362,
      "ተዋ": 8363,
      "ሁለተኛ": 8364,
      "በተለያዩ": 8365,
      "ውጤታማ": 8366,
      "##et": 8367,
      "##ኔት": 8368,
      "##ማቸው": 8369,
      "ከታ": 8370,
      "##ሉትን": 8371,
      "##ጨነ": 8372,
      "ይወስ": 8373,
      "የሚፈ": 8374,
      "ፈተና": 8375,
      "ደጋ": 8376,
      "ይዞ": 8377,
      "ታውቃ": 8378,
      "##ዳም": 8379,
      "##ትር": 8380,
      "ለመፍ": 8381,
      "በፈ": 8382,
      "##ሞከር": 8383,
      "ወገን": 8384,
      "##ዋቸውን": 8385,
      "##መለከት": 8386,
      "ተጋ": 8387,
      "እስራ": 8388,
      "በዘ": 8389,
      "በውስ": 8390,
      "የዋ": 8391,
      "##ሰማይ": 8392,
      "##ሂብ": 8393,
      "ሁለቱ": 8394,
      "እሱም": 8395,
      "ወንዶች": 8396,
      "አጠቃላይ": 8397,
      "##ታም": 8398,
      "ጥናት": 8399,
      "##ዋለን": 8400,
      "##ሌክት": 8401,
      "ደህና": 8402,
      "የጉ": 8403,
      "ጠብ": 8404,
      "ድርጊ": 8405,
      "በገ": 8406,
      "ደብ": 8407,
      "##ከን": 8408,
      "አይችሉም": 8409,
      "ባለፈው": 8410,
      "ዮሐ": 8411,
      "እንድን": 8412,
      "##ረጅም": 8413,
      "የሚገኙ": 8414,
      "##ረቱ": 8415,
      "##...": 8416,
      "##ሄዱ": 8417,
      "ጥር": 8418,
      "##ፊቱ": 8419,
      "##ለውን": 8420,
      "በጭራሽ": 8421,
      "##ያይ": 8422,
      "ቴክኖሎጂ": 8423,
      "ልዩነት": 8424,
      "##ብረተ": 8425,
      "በሁለ": 8426,
      "እግር": 8427,
      "##ደሰ": 8428,
      "ችሎታ": 8429,
      "አደርጋለሁ": 8430,
      "##ናን": 8431,
      "##ኞችን": 8432,
      "ሰም": 8433,
      "##ሞክራሲ": 8434,
      "##ሪው": 8435,
      "##ሖዋ": 8436,
      "##ጀል": 8437,
      "የተነሳ": 8438,
      "##ጣጫ": 8439,
      "የውጭ": 8440,
      "ቦታዎች": 8441,
      "ቃላት": 8442,
      "ፍሬ": 8443,
      "##ገም": 8444,
      "50": 8445,
      "ካር": 8446,
      "##ጠኝነት": 8447,
      "ታላ": 8448,
      "አለብዎት": 8449,
      "##ዘጋጅ": 8450,
      "##ሰል": 8451,
      "##ራለን": 8452,
      "ባሕ": 8453,
      "##ex": 8454,
      "የምር": 8455,
      "##ረታዊ": 8456,
      "##am": 8457,
      "ለል": 8458,
      "ምክንያቶች": 8459,
      "##ታደ": 8460,
      "##ፍሪካ": 8461,
      "ወዲህ": 8462,
      "ገቢ": 8463,
      "እድል": 8464,
      "##ሮፕ": 8465,
      "##የሩ": 8466,
      "##በረታ": 8467,
      "የሚሰጡዋቸውን": 8468,
      "ጉዳዩ": 8469,
      "##ጓዝ": 8470,
      "በአን": 8471,
      "ብል": 8472,
      "አልፎ": 8473,
      "##ወሰነ": 8474,
      "##ታለሁ": 8475,
      "##ናይት": 8476,
      "እንዲሆን": 8477,
      "ለመጀመሪያ": 8478,
      "ተጠቃሚዎች": 8479,
      "በእኛ": 8480,
      "ሰነ": 8481,
      "የሚሆኑ": 8482,
      "##ይማኖት": 8483,
      "ሕይወ": 8484,
      "##ከረ": 8485,
      "በራሱ": 8486,
      "አዋ": 8487,
      "##ዳንት": 8488,
      "መሬት": 8489,
      "መገ": 8490,
      "##ቶቻችን": 8491,
      "##ጋዊ": 8492,
      "መጋ": 8493,
      "##ኛውንም": 8494,
      "ልማት": 8495,
      "##id": 8496,
      "አምላ": 8497,
      "በብዙ": 8498,
      "አንቀ": 8499,
      "ሁሌ": 8500,
      "ነጥብ": 8501,
      "##ዶቹ": 8502,
      "በቀጥታ": 8503,
      "አይደል": 8504,
      "የሃ": 8505,
      "የሚችሉ": 8506,
      "በምን": 8507,
      "የሚሆን": 8508,
      "##መደ": 8509,
      "ይስ": 8510,
      "ሃሳብ": 8511,
      "ምድ": 8512,
      "አንቺ": 8513,
      "አድራ": 8514,
      "አስተዋ": 8515,
      "##ጊዜው": 8516,
      "ያግኙ": 8517,
      "ከሆኑ": 8518,
      "ከሌሎች": 8519,
      "እህ": 8520,
      "ይጠይ": 8521,
      "ከስ": 8522,
      "ይሄን": 8523,
      "ለምንድ": 8524,
      "##ag": 8525,
      "የሽ": 8526,
      "##ላለሁ": 8527,
      "የድር": 8528,
      "የስራ": 8529,
      "##ሳችን": 8530,
      "##ባለሁ": 8531,
      "ከእነዚህ": 8532,
      "ደረ": 8533,
      "28": 8534,
      "ከእናንተ": 8535,
      "ይጀም": 8536,
      "አይሆንም": 8537,
      "አይቻ": 8538,
      "ኮሚ": 8539,
      "ይቅርታ": 8540,
      "##ወገድ": 8541,
      "##መነ": 8542,
      "ለስ": 8543,
      "##ፊዎች": 8544,
      "ይረዳ": 8545,
      "##ቸዉ": 8546,
      "የቅ": 8547,
      "የቤት": 8548,
      "ይቀጥ": 8549,
      "##ጭት": 8550,
      "ታዋቂ": 8551,
      "##ስክ": 8552,
      "ንብረት": 8553,
      "በሚያ": 8554,
      "የኦ": 8555,
      "##መናዊ": 8556,
      "እርዳታ": 8557,
      "ሥርዓት": 8558,
      "ሙዚቃ": 8559,
      "ማኅ": 8560,
      "##ንነት": 8561,
      "##ዘጋጀ": 8562,
      "በዋ": 8563,
      "##ወቅቱ": 8564,
      "ይታወ": 8565,
      "##ረንሳይ": 8566,
      "ቆን": 8567,
      "##ሽከር": 8568,
      "ይዘት": 8569,
      "በዝ": 8570,
      "መቆ": 8571,
      "##ውና": 8572,
      "ገባ": 8573,
      "##ከላከል": 8574,
      "##ላስ": 8575,
      "##ሊዝኛ": 8576,
      "##ምም": 8577,
      "የኃ": 8578,
      "##ርመን": 8579,
      "ትውልድ": 8580,
      "##ሎቹ": 8581,
      "ቁር": 8582,
      "አመለ": 8583,
      "##ሽት": 8584,
      "ጠየ": 8585,
      "የተወሰነ": 8586,
      "ይመጣል": 8587,
      "ጨዋታዎች": 8588,
      "##ታችንን": 8589,
      "የሚያሳ": 8590,
      "##ከናወን": 8591,
      "##ሌት": 8592,
      "##ታሉ": 8593,
      "ለእኛ": 8594,
      "የወደ": 8595,
      "##ay": 8596,
      "##ችም": 8597,
      "እንስ": 8598,
      "አቅጣጫ": 8599,
      "ራሱን": 8600,
      "በኢትዮጵያ": 8601,
      "##መለሱ": 8602,
      "ጥበብ": 8603,
      "##ቢት": 8604,
      "ተከ": 8605,
      "##ናገሩ": 8606,
      "ከ1": 8607,
      "በአሜሪካ": 8608,
      "##ስቶ": 8609,
      "ከነ": 8610,
      "##ብቻ": 8611,
      "ሙከራ": 8612,
      "ሚስት": 8613,
      "ወደፊት": 8614,
      "አገኘ": 8615,
      "##መሩ": 8616,
      "##ንጫ": 8617,
      "##ቋቋም": 8618,
      "ስጦ": 8619,
      "ትምህር": 8620,
      "ይፈልጋል": 8621,
      "ምዕራ": 8622,
      "ማስታወቂያ": 8623,
      "ተሸ": 8624,
      "በመጠቀም": 8625,
      "##ወቀ": 8626,
      "አለም": 8627,
      "ለህ": 8628,
      "##ቴት": 8629,
      "##ዘው": 8630,
      "ምንጭ": 8631,
      "ያለበት": 8632,
      "##ናይትድ": 8633,
      "##ሙር": 8634,
      "##ደራ": 8635,
      "መከራ": 8636,
      "##ሟል": 8637,
      "##ግባር": 8638,
      "ትእ": 8639,
      "ክርስቲያ": 8640,
      "##ጊያ": 8641,
      "##ሞላ": 8642,
      "መቼም": 8643,
      "የገንዘብ": 8644,
      "##ሏቸው": 8645,
      "በሚል": 8646,
      "##በስ": 8647,
      "ክብ": 8648,
      "##ዳሉ": 8649,
      "27": 8650,
      "##ሾች": 8651,
      "መውሰድ": 8652,
      "##ቀደ": 8653,
      "የእግዚአብሔርን": 8654,
      "##ኖረ": 8655,
      "ስምምነት": 8656,
      "##ጨት": 8657,
      "ከግ": 8658,
      "##ext": 8659,
      "ለማስተ": 8660,
      "##ራችሁ": 8661,
      "##ክርስቲያን": 8662,
      "##ዎቹን": 8663,
      "##ዳቸው": 8664,
      "##nd": 8665,
      "##ያጭ": 8666,
      "ተግባራዊ": 8667,
      "አገሮች": 8668,
      "##ሠሩ": 8669,
      "ዛሬም": 8670,
      "##ፍትዌ": 8671,
      "አብሮ": 8672,
      "እስቲ": 8673,
      "##ሐይ": 8674,
      "40": 8675,
      "##ንባ": 8676,
      "የተሻ": 8677,
      "በሰው": 8678,
      "ውይይት": 8679,
      "ተን": 8680,
      "ህይወ": 8681,
      "##ነሰ": 8682,
      "##ክተር": 8683,
      "እኛን": 8684,
      "ይገኛሉ": 8685,
      "ውጪ": 8686,
      "አፍሪካ": 8687,
      "መፈ": 8688,
      "ከእንግ": 8689,
      "ያላቸውን": 8690,
      "ማግ": 8691,
      "ብላ": 8692,
      "ቆንጆ": 8693,
      "የቴ": 8694,
      "ብሏል": 8695,
      "##ኒት": 8696,
      "የሚቆጠሩ": 8697,
      "ማንኛውንም": 8698,
      "##ክሲ": 8699,
      "የድ": 8700,
      "ከእኛ": 8701,
      "ከው": 8702,
      "##ጠባ": 8703,
      "ከሁሉም": 8704,
      "##ad": 8705,
      "በስተቀር": 8706,
      "ለአንድ": 8707,
      "በእነዚህ": 8708,
      "እኩል": 8709,
      "የኔ": 8710,
      "አይቻልም": 8711,
      "##ብህ": 8712,
      "ለወ": 8713,
      "ማር": 8714,
      "አስተዳደር": 8715,
      "##ድቅ": 8716,
      "ቢያ": 8717,
      "ባለቤት": 8718,
      "የተወሰኑ": 8719,
      "ልጁ": 8720,
      "ጉባ": 8721,
      "##as": 8722,
      "አድርገ": 8723,
      "የዕ": 8724,
      "##ኩኝ": 8725,
      "##ካከል": 8726,
      "ተለ": 8727,
      "ታሪ": 8728,
      "አና": 8729,
      "አነስተኛ": 8730,
      "##ሁፍ": 8731,
      "መሸ": 8732,
      "አይገባ": 8733,
      "##ጠኝ": 8734,
      "##ዳቤ": 8735,
      "ዳዊት": 8736,
      "##ከላከያ": 8737,
      "ጥሪ": 8738,
      "ተስማሚ": 8739,
      "መጠበቅ": 8740,
      "##ed": 8741,
      "iP": 8742,
      "ብዛት": 8743,
      "##ለኝም": 8744,
      "ሽል": 8745,
      "ከበ": 8746,
      "ተሞክ": 8747,
      "##ልስ": 8748,
      "መድረክ": 8749,
      "##ላላ": 8750,
      "ተወዳጅ": 8751,
      "##ፉን": 8752,
      "##ዳና": 8753,
      "ስታ": 8754,
      "ያውቃል": 8755,
      "ምርመራ": 8756,
      "##ለሽ": 8757,
      "##ዩት": 8758,
      "##ስቴ": 8759,
      "ዜጎች": 8760,
      "##ሳሰብ": 8761,
      "##ፈለገ": 8762,
      "ሰይ": 8763,
      "ፍት": 8764,
      "መጠየ": 8765,
      "ያውቃሉ": 8766,
      "እንደሌ": 8767,
      "ለማን": 8768,
      "አራ": 8769,
      "የነበሩ": 8770,
      "ለዚህም": 8771,
      "##ቀዋል": 8772,
      "##ባቸዋል": 8773,
      "ዕው": 8774,
      "ይጠብ": 8775,
      "ሰፊ": 8776,
      "ግብር": 8777,
      "ወያኔ": 8778,
      "ፈጽሞ": 8779,
      "በዓል": 8780,
      "##ዳጅ": 8781,
      "የፕ": 8782,
      "አገል": 8783,
      "ጉድ": 8784,
      "##ነኛ": 8785,
      "ሄደ": 8786,
      "##ናገረ": 8787,
      "##ዘገ": 8788,
      "የፀ": 8789,
      "የእስራኤል": 8790,
      "##ቻይና": 8791,
      "የተባ": 8792,
      "##ህር": 8793,
      "ህግ": 8794,
      "ሰባት": 8795,
      "ማጥ": 8796,
      "ፈል": 8797,
      "ደህንነት": 8798,
      "በእርስዎ": 8799,
      "##ing": 8800,
      "##ቧል": 8801,
      "ሳምን": 8802,
      "ወዲያውኑ": 8803,
      "##ስቡክ": 8804,
      "መጽ": 8805,
      "መናገር": 8806,
      "እንደምት": 8807,
      "ለመስጠት": 8808,
      "ኩባንያዎች": 8809,
      "##ሳካ": 8810,
      "ከእነርሱ": 8811,
      "##ዝም": 8812,
      "##ባችሁ": 8813,
      "##ነሣ": 8814,
      "አንተም": 8815,
      "አዎን": 8816,
      "##ዎቻችን": 8817,
      "##ፍን": 8818,
      "እንደሚችል": 8819,
      "የማያ": 8820,
      "አረ": 8821,
      "በሽታ": 8822,
      "ግዴ": 8823,
      "ቀጠ": 8824,
      "ወሰ": 8825,
      "ሀሳ": 8826,
      "##ያሉ": 8827,
      "ዋናው": 8828,
      "##ታረ": 8829,
      "ተሞክሮ": 8830,
      "##ታለን": 8831,
      "መሆና": 8832,
      "ኢንዱስትሪ": 8833,
      "ስንት": 8834,
      "ቅን": 8835,
      "##ቷን": 8836,
      "##ለሁም": 8837,
      "አንደ": 8838,
      "##ክርስቶስ": 8839,
      "##ቆጣጠር": 8840,
      "የመን": 8841,
      "ይፋ": 8842,
      "##ረኛ": 8843,
      "እይታ": 8844,
      "##ለጥ": 8845,
      "##ቀን": 8846,
      "ቁልፍ": 8847,
      "##ሳኝ": 8848,
      "##th": 8849,
      "##ሳሉ": 8850,
      "ዕቃ": 8851,
      "##ሁድ": 8852,
      "የጤና": 8853,
      "##ስም": 8854,
      "##ፀም": 8855,
      "##የሩሳሌ": 8856,
      "##ሳችሁ": 8857,
      "##ሲያ": 8858,
      "በሕይወት": 8859,
      "##ቻችሁ": 8860,
      "##ጠረው": 8861,
      "ለዘላለም": 8862,
      "መስራት": 8863,
      "##ዋወ": 8864,
      "በወቅቱ": 8865,
      "ተቀባይ": 8866,
      "እወዳ": 8867,
      "##ካሪ": 8868,
      "መንፈ": 8869,
      "በከፍተኛ": 8870,
      "አደረገ": 8871,
      "ይሆናሉ": 8872,
      "ማቅረብ": 8873,
      "የመስመር": 8874,
      "##ሆናቸው": 8875,
      "##ያቂ": 8876,
      "##ሮን": 8877,
      "##ምጣት": 8878,
      "##ከማ": 8879,
      "ደም": 8880,
      "##መለከቱ": 8881,
      "##ሸት": 8882,
      "መነሻ": 8883,
      "ማታ": 8884,
      "##ገናኘት": 8885,
      "##ለብ": 8886,
      "##ጉት": 8887,
      "የተሰ": 8888,
      "የቁ": 8889,
      "አስደናቂ": 8890,
      "ተጽዕኖ": 8891,
      "ለጥ": 8892,
      "##ኑም": 8893,
      "##ውቃለን": 8894,
      "እግ": 8895,
      "##ንቃቄ": 8896,
      "በሃ": 8897,
      "ሁሉን": 8898,
      "ያም": 8899,
      "ጠይ": 8900,
      "ይተ": 8901,
      "የቅርብ": 8902,
      "##ቸዋለሁ": 8903,
      "##ለበት": 8904,
      "##is": 8905,
      "29": 8906,
      "##ስትና": 8907,
      "ማረ": 8908,
      "##ናለሁ": 8909,
      "##ሸነፍ": 8910,
      "ፕሮጀክት": 8911,
      "በሳ": 8912,
      "መልእክት": 8913,
      "ማሰብ": 8914,
      "የለበትም": 8915,
      "ተቋማት": 8916,
      "##el": 8917,
      "እንዲያውም": 8918,
      "የዩ": 8919,
      "##ሞን": 8920,
      "ከእንግዲህ": 8921,
      "የሆነውን": 8922,
      "ደቂቃዎች": 8923,
      "##ራዊት": 8924,
      "አህ": 8925,
      "ካልሆነ": 8926,
      "አንዴ": 8927,
      "ብዙም": 8928,
      "መፍትሔ": 8929,
      "ብሔራዊ": 8930,
      "##ጾች": 8931,
      "ባለፉት": 8932,
      "በማስ": 8933,
      "ዝቅተኛ": 8934,
      "##ላለፍ": 8935,
      "##ረፍት": 8936,
      "ይው": 8937,
      "ሊያስ": 8938,
      "ለማለት": 8939,
      "አወ": 8940,
      "እንደሚቻል": 8941,
      "##ርቶ": 8942,
      "ክፍለ": 8943,
      "ባህሪ": 8944,
      "##ጧል": 8945,
      "##ካሄድ": 8946,
      "ሚና": 8947,
      "አይደለሁም": 8948,
      "##ጀመረ": 8949,
      "##ያያዘ": 8950,
      "የግብ": 8951,
      "ድርጅቶች": 8952,
      "ያደርገ": 8953,
      "አጠቃ": 8954,
      "በመጨረሻም": 8955,
      "ይባላል": 8956,
      "##ቲክ": 8957,
      "በሌሎች": 8958,
      "##መኝ": 8959,
      "ውስ": 8960,
      "እነዚያ": 8961,
      "##ነበሩ": 8962,
      "አይቀር": 8963,
      "##ቃወ": 8964,
      "##ዘጋጀት": 8965,
      "##ባቸውን": 8966,
      "በቁ": 8967,
      "##ናገረው": 8968,
      "##ደስ": 8969,
      "የሚያው": 8970,
      "ባለቤ": 8971,
      "ለሕ": 8972,
      "##ግዚአብሄር": 8973,
      "##201": 8974,
      "ጥበቃ": 8975,
      "ሪፖርት": 8976,
      "##ለቅ": 8977,
      "አካላት": 8978,
      "ኪዳን": 8979,
      "ከዚህም": 8980,
      "ያቀር": 8981,
      "##ጫን": 8982,
      "##ንቲ": 8983,
      "አጠ": 8984,
      "ልጄ": 8985,
      "##ቀድሞ": 8986,
      "ስለም": 8987,
      "##ግዳ": 8988,
      "ምስጋና": 8989,
      "መደበኛ": 8990,
      "##ደድ": 8991,
      "አገልግሎቶች": 8992,
      "##ስፒ": 8993,
      "##ኒያ": 8994,
      "ጎን": 8995,
      "ድምጽ": 8996,
      "ረገድ": 8997,
      "መምረጥ": 8998,
      "##ንሰ": 8999,
      "በራስ": 9000,
      "##ሱት": 9001,
      "ፊልም": 9002,
      "መልሶ": 9003,
      "##ርቅ": 9004,
      "ደብዳቤ": 9005,
      "ባን": 9006,
      "አዲሱ": 9007,
      "የህዝብ": 9008,
      "##ራኒ": 9009,
      "እነሱም": 9010,
      "##hone": 9011,
      "ጊዜው": 9012,
      "በጥሩ": 9013,
      "ሰማይ": 9014,
      "እድሜ": 9015,
      "ከዛ": 9016,
      "##ሪስ": 9017,
      "ካሉ": 9018,
      "##ሁሉ": 9019,
      "መምህ": 9020,
      "##ፏል": 9021,
      "የፌ": 9022,
      "ታው": 9023,
      "ተናግረዋል": 9024,
      "##ሳስ": 9025,
      "##ጎብ": 9026,
      "ሶፍትዌ": 9027,
      "በእጅ": 9028,
      "##ውሎስ": 9029,
      "አንድም": 9030,
      "ነጋ": 9031,
      "##ዘዝ": 9032,
      "##ኖርም": 9033,
      "##ሰቦ": 9034,
      "ያገኛ": 9035,
      "ርዕስ": 9036,
      "##ዶችን": 9037,
      "ብዙዎች": 9038,
      "##አዴ": 9039,
      "ሁለተኛው": 9040,
      "በቀን": 9041,
      "ጀመር": 9042,
      "##ወስድ": 9043,
      "##ወሓ": 9044,
      "አደረ": 9045,
      "የግድ": 9046,
      "ጠላ": 9047,
      "##ባትም": 9048,
      "እናውቃለን": 9049,
      "ተጨ": 9050,
      "##ገባት": 9051,
      "##ጣው": 9052,
      "አድርገው": 9053,
      "##ዛሬው": 9054,
      "ስርዓ": 9055,
      "##ገንባት": 9056,
      "ስቴት": 9057,
      "ጀመረ": 9058,
      "##ወሰን": 9059,
      "ክት": 9060,
      "አየ": 9061,
      "##ጣቸው": 9062,
      "መሥራት": 9063,
      "ያስፈልገ": 9064,
      "ህዝቡ": 9065,
      "ዮሐንስ": 9066,
      "##ጣዩ": 9067,
      "ቀለም": 9068,
      "ሁሌም": 9069,
      "##ገባው": 9070,
      "ረጅም": 9071,
      "##መለክ": 9072,
      "ብለህ": 9073,
      "##ሠረተ": 9074,
      "ሂደ": 9075,
      "ጥቃት": 9076,
      "##ሊክ": 9077,
      "##ጠናቀ": 9078,
      "ወሳኝ": 9079,
      "በግልጽ": 9080,
      "አንዲት": 9081,
      "##ፃናት": 9082,
      "ወጣቶች": 9083,
      "አያውቅም": 9084,
      "##ልበት": 9085,
      "ይኖራል": 9086,
      "በቤት": 9087,
      "##ካከት": 9088,
      "በዩ": 9089,
      "ከተሞች": 9090,
      "##ጦር": 9091,
      "ያሉትን": 9092,
      "ህዝ": 9093,
      "##ዛል": 9094,
      "ማስረጃ": 9095,
      "ብን": 9096,
      "ጨረ": 9097,
      "##ቆች": 9098,
      "የለኝም": 9099,
      "በቤተ": 9100,
      "ሊቀ": 9101,
      "ትችላለህ": 9102,
      "በሚቀጥለው": 9103,
      "የእርሱ": 9104,
      "##ዕል": 9105,
      "##ኖራቸው": 9106,
      "ክፍት": 9107,
      "ዘመናዊ": 9108,
      "##ሳው": 9109,
      "በሁለት": 9110,
      "##ዘም": 9111,
      "##ናፊ": 9112,
      "##ሁዳ": 9113,
      "##ውው": 9114,
      "##ዛቤ": 9115,
      "ውሂብ": 9116,
      "የሚጠ": 9117,
      "ደግሞም": 9118,
      "ለመጠቀም": 9119,
      "ያለን": 9120,
      "ምና": 9121,
      "ለመሆኑ": 9122,
      "##ስበው": 9123,
      "አለብኝ": 9124,
      "እንደሆኑ": 9125,
      "አሳል": 9126,
      "##ዥን": 9127,
      "##ስሊ": 9128,
      "ለእናንተ": 9129,
      "##ሥር": 9130,
      "##ንተርኔት": 9131,
      "##ብት": 9132,
      "አልችልም": 9133,
      "ቀረ": 9134,
      "2020": 9135,
      "አለች": 9136,
      "##ነታቸው": 9137,
      "ፕሬዚ": 9138,
      "##ቼን": 9139,
      "##ዳሪ": 9140,
      "##ማሉ": 9141,
      "የሚመጣ": 9142,
      "እመ": 9143,
      "##ጫው": 9144,
      "##ጀምር": 9145,
      "ሊሆኑ": 9146,
      "##ራይ": 9147,
      "##ክቶች": 9148,
      "##ጉር": 9149,
      "##ዷል": 9150,
      "ከኢ": 9151,
      "ልምድ": 9152,
      "##he": 9153,
      "መዳ": 9154,
      "##ራቢ": 9155,
      "##ናዳ": 9156,
      "የፓ": 9157,
      "እያሉ": 9158,
      "##ጠይቅ": 9159,
      "የጋራ": 9160,
      "##ጡን": 9161,
      "ማህበረሰብ": 9162,
      "ፊል": 9163,
      "ሐሳብ": 9164,
      "ጥና": 9165,
      "ጠቅላይ": 9166,
      "የአምላክ": 9167,
      "##ባባ": 9168,
      "እንደምን": 9169,
      "የጨ": 9170,
      "##አዊ": 9171,
      "##ጠየቅ": 9172,
      "የምግብ": 9173,
      "እውቀት": 9174,
      "ለመው": 9175,
      "ተከት": 9176,
      "##ንግሥት": 9177,
      "##ፈጸም": 9178,
      "አብረው": 9179,
      "በካ": 9180,
      "##ረገ": 9181,
      "##ፈረ": 9182,
      "ጊዜም": 9183,
      "ቁጥጥር": 9184,
      "ሰዓታት": 9185,
      "31": 9186,
      "ፍለጋ": 9187,
      "##ገራሚ": 9188,
      "ከአንተ": 9189,
      "የሚባል": 9190,
      "ይመለ": 9191,
      ").": 9192,
      "የሚሆነው": 9193,
      "ካልተ": 9194,
      "ወታደ": 9195,
      "መጠየቅ": 9196,
      "##ለኛው": 9197,
      "##gle": 9198,
      "ታማ": 9199,
      "##ከሰት": 9200,
      "ሥጋ": 9201,
      "##ርሻ": 9202,
      "ኋላ": 9203,
      "##ናዊ": 9204,
      "እናደርጋ": 9205,
      "ይሞክ": 9206,
      "አጭር": 9207,
      "ፖሊሲ": 9208,
      "##ፋን": 9209,
      "##ረግ": 9210,
      "እሳት": 9211,
      "##ርሽ": 9212,
      "##ለናል": 9213,
      "ከእግዚአብሔር": 9214,
      "እባክዎን": 9215,
      "የሚወ": 9216,
      "እርግጥ": 9217,
      "የዳ": 9218,
      "##ሌቪ": 9219,
      "##ዋዕ": 9220,
      "##ገናኛ": 9221,
      "##ዎትም": 9222,
      "በኃ": 9223,
      "አውሮፕ": 9224,
      "እድገት": 9225,
      "##ገናኝ": 9226,
      "##ገለግ": 9227,
      "እግዚአብሔርም": 9228,
      "በዚያን": 9229,
      "##ሌክትሪክ": 9230,
      "ይደረ": 9231,
      "##ዛብ": 9232,
      "ባሪያ": 9233,
      "ለብዙ": 9234,
      "ስጦታ": 9235,
      "ያገኛሉ": 9236,
      "ታይ": 9237,
      "ስኬ": 9238,
      "የሶ": 9239,
      "አስገራሚ": 9240,
      "በዕ": 9241,
      "ድል": 9242,
      "ስድስት": 9243,
      "ፈር": 9244,
      "##ol": 9245,
      "የሚችለው": 9246,
      "ቢሮ": 9247,
      "በኮ": 9248,
      "##ዛው": 9249,
      "ይታያል": 9250,
      "##ጨመር": 9251,
      "ስለዚህም": 9252,
      "ምሽት": 9253,
      "##ናኝ": 9254,
      "##መሰግና": 9255,
      "ተቀባይነት": 9256,
      "ሚኒስትር": 9257,
      "ለሰ": 9258,
      "ኢኮኖሚ": 9259,
      "ዝግጅት": 9260,
      "ወገኖች": 9261,
      "##ዕቆ": 9262,
      "##ገልግ": 9263,
      "የአውሮፓ": 9264,
      "በተቻለ": 9265,
      "የዓ": 9266,
      "አይመስለኝም": 9267,
      "##ሱም": 9268,
      "ሞዴ": 9269,
      "አሳይ": 9270,
      "##il": 9271,
      "32": 9272,
      "##ተህ": 9273,
      "ይወዳ": 9274,
      "##ጆቹ": 9275,
      "##oogle": 9276,
      "እንደነበር": 9277,
      "ነች": 9278,
      "የራስ": 9279,
      "ሙሴ": 9280,
      "መማር": 9281,
      "ውኃ": 9282,
      "ደረጃዎች": 9283,
      "##መልከ": 9284,
      "ሲባል": 9285,
      "እወዳለሁ": 9286,
      "አብዛኞቹ": 9287,
      "ማመን": 9288,
      "መገለ": 9289,
      "##ብሪካ": 9290,
      "##ሰስ": 9291,
      "በይፋ": 9292,
      "የውሃ": 9293,
      "ማክ": 9294,
      "ትላ": 9295,
      "ምት": 9296,
      "##ንታ": 9297,
      "ወድ": 9298,
      "##op": 9299,
      "መዛ": 9300,
      "ይኖርብ": 9301,
      "ማንበብ": 9302,
      "##ራችን": 9303,
      "##ለያየ": 9304,
      "##የሩሳሌም": 9305,
      "##ion": 9306,
      "##ላቸዋል": 9307,
      "በአብዛ": 9308,
      "##ሞችን": 9309,
      "መሣሪያዎች": 9310,
      "ያሳያል": 9311,
      "##መዱ": 9312,
      "##ከበር": 9313,
      "ገበ": 9314,
      "ደንበኞች": 9315,
      "ጦር": 9316,
      "ኃጢአት": 9317,
      "በላ": 9318,
      "##ግሩ": 9319,
      "ጥቁር": 9320,
      "በእርግጠኝነት": 9321,
      "ከፈለጉ": 9322,
      "ስሙ": 9323,
      "እናደርጋለን": 9324,
      "##አቸው": 9325,
      "አስተሳሰብ": 9326,
      "##ማሩ": 9327,
      "ወለ": 9328,
      "##ቆይ": 9329,
      "ተገኝ": 9330,
      "አይቀርም": 9331,
      "ሰላ": 9332,
      "ይሻ": 9333,
      "እየሰራ": 9334,
      "ሆቴ": 9335,
      "##ብል": 9336,
      "ዳርቻ": 9337,
      "ሥነ": 9338,
      "ስላል": 9339,
      "##ዎችም": 9340,
      "ለእግዚአብሔር": 9341,
      "##መዋል": 9342,
      "አንዱን": 9343,
      "##ጨም": 9344,
      "ለኢ": 9345,
      "ጳውሎስ": 9346,
      "iPhone": 9347,
      "##ካባቢው": 9348,
      "##ስፋ": 9349,
      "##ከረም": 9350,
      "አስባለሁ": 9351,
      "አመለካከት": 9352,
      "ዳግም": 9353,
      "ግንባታ": 9354,
      "##ከም": 9355,
      "ዝና": 9356,
      "በፊ": 9357,
      "##ነበረው": 9358,
      "መጫወት": 9359,
      "የሚመ": 9360,
      "የቀድሞ": 9361,
      "ኑሮ": 9362,
      "##ኒክ": 9363,
      "የሰማ": 9364,
      "ጭምር": 9365,
      "ስለተ": 9366,
      "ስደ": 9367,
      "ኤል": 9368,
      "እስራኤል": 9369,
      "አመታት": 9370,
      "##ጥን": 9371,
      "የላቸውም": 9372,
      "ተጫዋቾች": 9373,
      "ላለ": 9374,
      "##ማዊ": 9375,
      "##ሄዳ": 9376,
      "##ow": 9377,
      "መመለስ": 9378,
      "ጸሎት": 9379,
      "የደን": 9380,
      "ንጉሡ": 9381,
      "እንደሆን": 9382,
      "መፍጠር": 9383,
      "አስተዳ": 9384,
      "##ቀኝ": 9385,
      "ገለ": 9386,
      "እንደሚችሉ": 9387,
      "የተወለ": 9388,
      "አሻ": 9389,
      "የእኛን": 9390,
      "የፋ": 9391,
      "ናችሁ": 9392,
      "##ቃሽ": 9393,
      "##በቃል": 9394,
      "##ራጭ": 9395,
      "##ገናኙ": 9396,
      "በቅርብ": 9397,
      "የሚገኝ": 9398,
      "ንድ": 9399,
      "##ናሽ": 9400,
      "ቀጣይ": 9401,
      "ተቋም": 9402,
      "##ግን": 9403,
      "ስለመ": 9404,
      "##ማረ": 9405,
      "ወንጌ": 9406,
      "ዋስትና": 9407,
      "ለማንኛውም": 9408,
      "##ምረት": 9409,
      "ይሠ": 9410,
      "ተሰጥ": 9411,
      "የቪ": 9412,
      "##ሳሰ": 9413,
      "በየት": 9414,
      "##ዳው": 9415,
      "##ገለጸ": 9416,
      "##ስተር": 9417,
      "ግዜ": 9418,
      "መድሃ": 9419,
      "##በለ": 9420,
      "ቻይና": 9421,
      "የሚያስችል": 9422,
      "##ስተኛው": 9423,
      "ይሸ": 9424,
      "##ድሜ": 9425,
      "ሰለ": 9426,
      "ፈጣሪ": 9427,
      "##ባረ": 9428,
      "##ለቀ": 9429,
      "ይሖዋ": 9430,
      "##ኑት": 9431,
      "አድርጓል": 9432,
      "ታስ": 9433,
      "ሊኖር": 9434,
      "የራሱ": 9435,
      "ችግሩ": 9436,
      "ያኔ": 9437,
      "##ዝገባ": 9438,
      "##ጽሐፍ": 9439,
      "##ውሞ": 9440,
      "አብዛኛዎቹ": 9441,
      "##ናይ": 9442,
      "ምቹ": 9443,
      "ጥላ": 9444,
      "ባህሪያ": 9445,
      "##ቃቸው": 9446,
      "መጻሕ": 9447,
      "##ጀራ": 9448,
      "ሞተ": 9449,
      "ንግግር": 9450,
      "##ንዳንድ": 9451,
      "ጉባኤ": 9452,
      "መረ": 9453,
      "ያልሆነ": 9454,
      "አገራት": 9455,
      "ዘርፍ": 9456,
      "ተቀም": 9457,
      "ማጣ": 9458,
      "አስተያየ": 9459,
      "##ዋሚ": 9460,
      "በ19": 9461,
      "ካለው": 9462,
      "##ሁም": 9463,
      "ልብስ": 9464,
      "ከየት": 9465,
      "ጠፍ": 9466,
      "##ሰራው": 9467,
      "አንዳንዶቹ": 9468,
      "ያረጋግ": 9469,
      "የኃይል": 9470,
      "##ማሪዎች": 9471,
      "ትግል": 9472,
      "202": 9473,
      "ቀይ": 9474,
      "##ዛን": 9475,
      "##ኤስ": 9476,
      "ማስታወሻ": 9477,
      "ይሁንና": 9478,
      "##ia": 9479,
      "##ጠነ": 9480,
      "ያደርገዋል": 9481,
      "##ላችን": 9482,
      "የምርት": 9483,
      "ባህል": 9484,
      "እቅድ": 9485,
      "##ናንት": 9486,
      "##ብቅ": 9487,
      "##ዕቆብ": 9488,
      "ውድድር": 9489,
      "##ክሮ": 9490,
      "##በሉ": 9491,
      "##ሦስት": 9492,
      "##ለወጥ": 9493,
      "ተሳት": 9494,
      "የለብ": 9495,
      "ነዎት": 9496,
      "በድን": 9497,
      "##ግሬ": 9498,
      "ከሁለት": 9499,
      "##መስል": 9500,
      "##ወሓት": 9501,
      "እሺ": 9502,
      "በኢየሱስ": 9503,
      "##ch": 9504,
      "ሌሊት": 9505,
      "##ኝን": 9506,
      "ብቃት": 9507,
      "ይታወቃል": 9508,
      "##መቻ": 9509,
      "##ጣጥ": 9510,
      "##ለየ": 9511,
      "##200": 9512,
      "##ቤን": 9513,
      "##ሳቢ": 9514,
      "##ትል": 9515,
      "በዳ": 9516,
      "199": 9517,
      "##ነገር": 9518,
      "ይጀምራል": 9519,
      "የሚያደርጉ": 9520,
      "ስቴትስ": 9521,
      "የሐ": 9522,
      "##ሰዋል": 9523,
      "</": 9524,
      "ስልጣን": 9525,
      "##ስትራ": 9526,
      "ይወስዳል": 9527,
      "##ከሩ": 9528,
      "እናመሰግና": 9529,
      "ግልፅ": 9530,
      "ዕለት": 9531,
      "##በሳ": 9532,
      "##ሕዛብ": 9533,
      "በቀር": 9534,
      "ያመጣ": 9535,
      "አልቻል": 9536,
      "ያገኘ": 9537,
      "ተል": 9538,
      "##ምፕ": 9539,
      "ለረጅም": 9540,
      "አባቴ": 9541,
      "አውታረ": 9542,
      "ለምንድን": 9543,
      "##ባይል": 9544,
      "##መረብ": 9545,
      "ማርያ": 9546,
      "##ልቃ": 9547,
      "ባንክ": 9548,
      "##ከታተል": 9549,
      "የኢን": 9550,
      "የሕይወት": 9551,
      "መልዕክት": 9552,
      "ሶፍትዌር": 9553,
      "ልጃ": 9554,
      "እናመሰግናለን": 9555,
      "የመንግስት": 9556,
      "ሆና": 9557,
      "ህብረት": 9558,
      "ኃላፊነት": 9559,
      "ማነው": 9560,
      "አካባቢዎች": 9561,
      "ባሉ": 9562,
      "##ወረ": 9563,
      "##ደረጉት": 9564,
      "##ባር": 9565,
      "ምርምር": 9566,
      "የተሳ": 9567,
      "...\"": 9568,
      "ጠዋት": 9569,
      "##...]": 9570,
      "ኢዮ": 9571,
      "አንብ": 9572,
      "የፍቅር": 9573,
      "##ሊን": 9574,
      "[...]": 9575,
      "በእያንዳንዱ": 9576,
      "ምኞ": 9577,
      "ማዕከል": 9578,
      "እንዳለው": 9579,
      "##ላማዊ": 9580,
      "##ርማ": 9581,
      "ምህ": 9582,
      "##ሳቁ": 9583,
      "##ሟላ": 9584,
      "አድራሻ": 9585,
      "35": 9586,
      "##ቱት": 9587,
      "ይኼ": 9588,
      "የደረ": 9589,
      "ካርድ": 9590,
      "##ገኙት": 9591,
      "##ከባቢ": 9592,
      "በኤ": 9593,
      "##ንፃ": 9594,
      "##ሃት": 9595,
      "ቁም": 9596,
      "አቤቱ": 9597,
      "##ሌቪዥን": 9598,
      "መፅ": 9599,
      "##ቀርቡ": 9600,
      "በጨ": 9601,
      "##ድሩ": 9602,
      "##ዴት": 9603,
      "##ይነ": 9604,
      "##ባለን": 9605,
      "አውሮፓ": 9606,
      "##ታለች": 9607,
      "##ካተ": 9608,
      "የአባ": 9609,
      "አቋም": 9610,
      "ስለማ": 9611,
      "ይናገራል": 9612,
      "ወይንም": 9613,
      "##ኘው": 9614,
      "##በዋል": 9615,
      "አዘ": 9616,
      "ጥን": 9617,
      "ልታ": 9618,
      "መሆናቸውን": 9619,
      "##መልከቻ": 9620,
      "##ካይ": 9621,
      "##ማማኝ": 9622,
      "ድንቅ": 9623,
      "አታው": 9624,
      "መረጃዎች": 9625,
      "##ስታን": 9626,
      "የቡ": 9627,
      "እንዳት": 9628,
      "ተዘ": 9629,
      "##ሆኑም": 9630,
      "##ተም": 9631,
      "የቱ": 9632,
      "የሥ": 9633,
      "አሸናፊ": 9634,
      "ግንዛቤ": 9635,
      "##ላችሁም": 9636,
      "በዚያም": 9637,
      "##ረሳ": 9638,
      "ተፈጥሮ": 9639,
      "##ሰሙ": 9640,
      "##ቀበል": 9641,
      "##ማግ": 9642,
      "ነገሩ": 9643,
      "አስቀድሞ": 9644,
      "ሥራዎች": 9645,
      "አሰራ": 9646,
      "ሰጠ": 9647,
      "##ገመ": 9648,
      "በዚሁ": 9649,
      "33": 9650,
      "ወንጀል": 9651,
      "##ሯቸው": 9652,
      "መንግስ": 9653,
      "ለመጀመር": 9654,
      "ነበረች": 9655,
      "##ፍና": 9656,
      "ቀድሞው": 9657,
      "com": 9658,
      "##ንበት": 9659,
      "ማለትም": 9660,
      "##ከተለው": 9661,
      "ወሬ": 9662,
      "##ስተዋ": 9663,
      "እቃ": 9664,
      "ዕቅድ": 9665,
      "ሥልጣን": 9666,
      "ያስፈልግ": 9667,
      "##ቻለው": 9668,
      "##ኮር": 9669,
      "##ረጋገጫ": 9670,
      ":-": 9671,
      "ጀም": 9672,
      "መሪዎች": 9673,
      "##ጣጣ": 9674,
      "የመጨረሻው": 9675,
      "አልቻለም": 9676,
      "በእናንተ": 9677,
      "ድርሻ": 9678,
      "ተጠቅ": 9679,
      "##ባቸውም": 9680,
      "##ዘጋጁ": 9681,
      "ለሌሎች": 9682,
      "አማራጮች": 9683,
      "ውጤቶች": 9684,
      "አማካኝነት": 9685,
      "##ረምት": 9686,
      "##ኸው": 9687,
      "የላ": 9688,
      "ያጋ": 9689,
      "##ንቀሳቃሽ": 9690,
      "##ቁን": 9691,
      "ኃጢአ": 9692,
      "##ለቱ": 9693,
      "##ላለን": 9694,
      "ክስተት": 9695,
      "##ደሩ": 9696,
      "ቅድመ": 9697,
      "##ፓን": 9698,
      "Google": 9699,
      "##ላቸውን": 9700,
      "ተራራ": 9701,
      "ሆስፒ": 9702,
      "In": 9703,
      "የማን": 9704,
      "ነፍስ": 9705,
      "ልማ": 9706,
      "##ባችን": 9707,
      "##ደብ": 9708,
      "##ፊው": 9709,
      "ሐዋ": 9710,
      "ትዝ": 9711,
      "##ጉን": 9712,
      "ርዕሰ": 9713,
      "ከራ": 9714,
      "አእምሮ": 9715,
      "ስሪት": 9716,
      "ብቸኛው": 9717,
      "ተቆ": 9718,
      "##ክቱ": 9719,
      "የጠ": 9720,
      "ኮምፒ": 9721,
      "ጊዜያት": 9722,
      "አንተን": 9723,
      "##ወግ": 9724,
      "##ዳሜ": 9725,
      "የሚከተሉትን": 9726,
      "የጸ": 9727,
      "መስፈር": 9728,
      "##ኩበት": 9729,
      "##ስቶች": 9730,
      "በተፈ": 9731,
      "ሳምንታት": 9732,
      "ፖሊስ": 9733,
      "##ወጣው": 9734,
      "##ጠሪያ": 9735,
      "##ost": 9736,
      "##ቀሳ": 9737,
      "ስማ": 9738,
      "ተጫዋች": 9739,
      "ሀብት": 9740,
      "ምስክር": 9741,
      "መግባት": 9742,
      "ወላጆች": 9743,
      "##ናፍ": 9744,
      "ምልክቶች": 9745,
      "##ፊክ": 9746,
      "የወን": 9747,
      "##ማራ": 9748,
      "##ካሄደ": 9749,
      "ተደርጎ": 9750,
      "በዙ": 9751,
      "ማድረ": 9752,
      "ማረጋገጥ": 9753,
      "የሚተ": 9754,
      "ተቀብ": 9755,
      "##ሮቹ": 9756,
      "የተመሠረተ": 9757,
      "##ሜል": 9758,
      "##vi": 9759,
      "በውስጡ": 9760,
      "ካላ": 9761,
      "##ወቁ": 9762,
      "ታውቃለህ": 9763,
      "##ድና": 9764,
      "##ኖችን": 9765,
      "በጽ": 9766,
      "መግዛት": 9767,
      "##ዱም": 9768,
      "የትኛው": 9769,
      "ግዴታ": 9770,
      "ኢትዮጵ": 9771,
      "በሕይወ": 9772,
      "ተጠያቂ": 9773,
      "ሊፈ": 9774,
      "##ሰጣቸው": 9775,
      "ከእነሱ": 9776,
      "አይፈ": 9777,
      "##ቆየት": 9778,
      "ፋይል": 9779,
      "##ሸን": 9780,
      "ለይ": 9781,
      "እውነታ": 9782,
      "##ምረጡ": 9783,
      "##ሰለ": 9784,
      "##ዋም": 9785,
      "በጋራ": 9786,
      "##ጻፍ": 9787,
      "Re": 9788,
      "ያደረገ": 9789,
      "ተከታታይ": 9790,
      "ከህ": 9791,
      "ብቸኛ": 9792,
      "##pp": 9793,
      "ነፃነት": 9794,
      "ከሕ": 9795,
      "##ርን": 9796,
      "እየጨ": 9797,
      "እርሷ": 9798,
      "እንደመ": 9799,
      "ሆን": 9800,
      "ከፈ": 9801,
      "##ግራይ": 9802,
      "ለማረጋገጥ": 9803,
      "##ጠናቀቅ": 9804,
      "የከተማ": 9805,
      "##ገግ": 9806,
      "##ጅነት": 9807,
      "ከቀ": 9808,
      "በድር": 9809,
      "##በርካታ": 9810,
      "ሳለ": 9811,
      "አጠቃቀም": 9812,
      "መራ": 9813,
      "ለመር": 9814,
      "መጀመር": 9815,
      "##ወያ": 9816,
      "##ሙና": 9817,
      "ተደርጓል": 9818,
      "##un": 9819,
      "##ፍል": 9820,
      "በትን": 9821,
      "##ወራ": 9822,
      "##ባው": 9823,
      "ሜዳ": 9824,
      "##ኩን": 9825,
      "ኮን": 9826,
      "ማንነት": 9827,
      "አድርጌ": 9828,
      "በአውሮፓ": 9829,
      "##ያውቁ": 9830,
      "ግብይት": 9831,
      "ሳያ": 9832,
      "##ዋታው": 9833,
      "ህመም": 9834,
      "##ጋው": 9835,
      "በመላው": 9836,
      "##um": 9837,
      "ይምረጡ": 9838,
      "ቀጥሎ": 9839,
      "ብሎግ": 9840,
      "##ስታወስ": 9841,
      "ያቀርባል": 9842,
      "አልፈልግም": 9843,
      "##ሀል": 9844,
      "##ግባብ": 9845,
      "ለሙ": 9846,
      "##ጀርመን": 9847,
      "ምግ": 9848,
      "##ሳችንን": 9849,
      "##ራቸውን": 9850,
      "መስክ": 9851,
      "ከእርስዎ": 9852,
      "##ጓጓ": 9853,
      "በመሆን": 9854,
      "##ሎን": 9855,
      "ከት": 9856,
      "የተመሰ": 9857,
      "##ንስፖርት": 9858,
      "##ሻው": 9859,
      "ማዳ": 9860,
      "##ለታል": 9861,
      "##መንት": 9862,
      "ይጠቀ": 9863,
      "##ub": 9864,
      "##ከበ": 9865,
      "##ምስት": 9866,
      "##ጫኑ": 9867,
      "ቤተክርስቲያን": 9868,
      "በመግ": 9869,
      "ሃሳ": 9870,
      "##ፈዋል": 9871,
      "ይሠራል": 9872,
      "በተሻለ": 9873,
      "##ጀመሩ": 9874,
      "ይን": 9875,
      "##ልኮ": 9876,
      "##ችሁም": 9877,
      "መጡ": 9878,
      "እንደሚሆን": 9879,
      "አይገባም": 9880,
      "ማሳያ": 9881,
      "##ኳይ": 9882,
      "ተገል": 9883,
      "የጽ": 9884,
      "##ያውያን": 9885,
      "##ረሱ": 9886,
      "##ጠዋል": 9887,
      "##ቻሉ": 9888,
      "##መኛ": 9889,
      "##ous": 9890,
      "##ቢይ": 9891,
      "አጀ": 9892,
      "##ነን": 9893,
      "ለመረዳት": 9894,
      "ቅሬ": 9895,
      "ትናንት": 9896,
      "##ዝን": 9897,
      "መሳሪያዎች": 9898,
      "##ደጋጋሚ": 9899,
      "ድርጊት": 9900,
      "ትእዛዝ": 9901,
      "##ነታችን": 9902,
      "##ደርሱ": 9903,
      "የእንግ": 9904,
      "አብረን": 9905,
      "አምናለሁ": 9906,
      "አላት": 9907,
      "በሚገባ": 9908,
      "ቡድኖች": 9909,
      "በሞ": 9910,
      "ባለሙያዎች": 9911,
      "##ጠብቅ": 9912,
      "ቢኖር": 9913,
      "የዛሬ": 9914,
      "##ህበራዊ": 9915,
      "ለመፍጠር": 9916,
      "ጤናማ": 9917,
      "ለመስራት": 9918,
      "##ርዱ": 9919,
      "##ማመን": 9920,
      "ሚኒስቴ": 9921,
      "##ፋሉ": 9922,
      "አንጻ": 9923,
      "ቡና": 9924,
      "36": 9925,
      "ይገል": 9926,
      "አንችልም": 9927,
      "የተለመደ": 9928,
      "ተነሳ": 9929,
      "ባለስ": 9930,
      "##ሄደ": 9931,
      "መከላከያ": 9932,
      "ግምት": 9933,
      "መንፈሳዊ": 9934,
      "ምናልባትም": 9935,
      "##ረፈ": 9936,
      "የወጣ": 9937,
      "ዓመቱ": 9938,
      "ስራዎች": 9939,
      "##ቋረጥ": 9940,
      "##ቢያው": 9941,
      "ይነ": 9942,
      "ባሕር": 9943,
      "##ቅን": 9944,
      "ለመም": 9945,
      "ክለ": 9946,
      "እንዳሉ": 9947,
      "##ቃይ": 9948,
      "##ሳለሁ": 9949,
      "በተደጋጋሚ": 9950,
      "ከቤተ": 9951,
      "መኖሪያ": 9952,
      "ጓደኞች": 9953,
      "ተከትሎ": 9954,
      "ፈለ": 9955,
      "ገልጸ": 9956,
      "##ሊስ": 9957,
      "ማራ": 9958,
      "የተባለው": 9959,
      "ሽልማት": 9960,
      "##ጸል": 9961,
      "አስተማማኝ": 9962,
      "ሠራተኞች": 9963,
      "##ረሻ": 9964,
      "ስኬት": 9965,
      "##ቀፍ": 9966,
      "##ላሳ": 9967,
      "##ቨስት": 9968,
      "##ve": 9969,
      "##ገኝም": 9970,
      "ዘገባ": 9971,
      "ቁሳቁ": 9972,
      "ያንብ": 9973,
      "ያካት": 9974,
      "ሰባ": 9975,
      "##ዮችን": 9976,
      "ማረፊያ": 9977,
      "መስማት": 9978,
      "የኢኮኖሚ": 9979,
      "የቤተሰብ": 9980,
      "ግዛት": 9981,
      "##ሴፍ": 9982,
      "ታሪካ": 9983,
      "##ካችሁ": 9984,
      "እንፈልጋ": 9985,
      "የሁለ": 9986,
      "ባት": 9987,
      "የሚሉ": 9988,
      "##ርፍ": 9989,
      "Next": 9990,
      "ሙስሊ": 9991,
      "##ችሉት": 9992,
      "##ሳሽ": 9993,
      "በሶ": 9994,
      "ውብ": 9995,
      "ጥንካ": 9996,
      "##መለሰ": 9997,
      "ከጥቂት": 9998,
      "ምል": 9999,
      "ዘመቻ": 10000,
      "ተር": 10001,
      "##ክተ": 10002,
      "ቅጣት": 10003,
      "ፍቅ": 10004,
      "የን": 10005,
      "በፖ": 10006,
      "የአፍሪካ": 10007,
      "አልባ": 10008,
      "##ላችኋለሁ": 10009,
      "##ቲን": 10010,
      "ለመጠበቅ": 10011,
      "በፍቅር": 10012,
      "በህይወት": 10013,
      "##ጨምር": 10014,
      "እንዳለበት": 10015,
      "##ንሰር": 10016,
      "በአዲስ": 10017,
      "##ዋቸው": 10018,
      "##አለሁ": 10019,
      "2018": 10020,
      "##ነዋል": 10021,
      "ፋብሪካ": 10022,
      "አስመ": 10023,
      "እራስ": 10024,
      "##ማው": 10025,
      "##ፋስ": 10026,
      "አንቀጽ": 10027,
      "በጀት": 10028,
      "ነጥቦች": 10029,
      "##ዥም": 10030,
      "##ኮት": 10031,
      "ቀና": 10032,
      "##ይቱ": 10033,
      "2017": 10034,
      "ፕሬዝ": 10035,
      "##ህነት": 10036,
      "ጥቅሞች": 10037,
      "አለቃ": 10038,
      "ይጠበቃል": 10039,
      "በተያያዘ": 10040,
      "##ክን": 10041,
      "##ላቂ": 10042,
      "ለት": 10043,
      "ይጠቀሙ": 10044,
      "##ሟላት": 10045,
      "ድንጋ": 10046,
      "##ገዙ": 10047,
      "ግለሰብ": 10048,
      "መረዳት": 10049,
      "ተፅ": 10050,
      "##ጋቸው": 10051,
      "##ነውን": 10052,
      "##ቃለን": 10053,
      "##ፈሩ": 10054,
      "በተቃ": 10055,
      "##ዋዕት": 10056,
      "በሉ": 10057,
      "ይኸው": 10058,
      "ገንዘ": 10059,
      "ማረጋገጫ": 10060,
      "እንፈልጋለን": 10061,
      "ይቀጥላል": 10062,
      "##ጓደ": 10063,
      "እንግዳ": 10064,
      "ቅጽ": 10065,
      "የሕዝብ": 10066,
      "ንድፍ": 10067,
      "60": 10068,
      "##ጥል": 10069,
      "በአብዛኛው": 10070,
      "##ደዋል": 10071,
      "##ርሃት": 10072,
      "የፊ": 10073,
      "ጠላት": 10074,
      "##ቶቻቸው": 10075,
      "##ዉን": 10076,
      "የሰጠ": 10077,
      "ንጹ": 10078,
      "ህል": 10079,
      "ነጭ": 10080,
      "እንመልከት": 10081,
      "ሥርዓ": 10082,
      "ሞክ": 10083,
      "##ድሮ": 10084,
      "ባቡር": 10085,
      "እንጅ": 10086,
      "የጋ": 10087,
      "የእግር": 10088,
      "ያየ": 10089,
      "##ፃን": 10090,
      "በሥራ": 10091,
      "ጠባ": 10092,
      "ቫይ": 10093,
      "ነጋዴ": 10094,
      "ነበረው": 10095,
      "መቀበል": 10096,
      "የሚፈልጉትን": 10097,
      "የተሰጠ": 10098,
      "በርግ": 10099,
      "ፓርቲዎች": 10100,
      "##ደባ": 10101,
      "እንዳያ": 10102,
      "በእሱ": 10103,
      "ዘግ": 10104,
      "2019": 10105,
      "ለመድረስ": 10106,
      "ነዋሪዎች": 10107,
      "##ለስ": 10108,
      "##ኖስ": 10109,
      "የሚሆኑት": 10110,
      "የላቀ": 10111,
      "በምር": 10112,
      "##ገልግሎት": 10113,
      "##ካዊ": 10114,
      "ትዕዛዝ": 10115,
      "##ራም": 10116,
      "##ነገሩ": 10117,
      "ስኬታማ": 10118,
      "ይሻላል": 10119,
      "ዘይት": 10120,
      "አለማ": 10121,
      "And": 10122,
      "##ent": 10123,
      "##ዞች": 10124,
      "ስለእ": 10125,
      "መለስ": 10126,
      "የአን": 10127,
      "ግንቦት": 10128,
      "ሰራተኞች": 10129,
      "##ጁን": 10130,
      "Pre": 10131,
      "የእው": 10132,
      "ቆይቷል": 10133,
      "##ጻፈ": 10134,
      "##ሸጥ": 10135,
      "##ማግሌ": 10136,
      "ማያ": 10137,
      "አውቶ": 10138,
      "ይጠይቃል": 10139,
      "የባህር": 10140,
      "##ኔን": 10141,
      "መንግስታት": 10142,
      "አቅራቢ": 10143,
      "በእንግ": 10144,
      "##ጀመረው": 10145,
      "##ጻጸ": 10146,
      "##ሲብ": 10147,
      "##ሮት": 10148,
      "##ራቴ": 10149,
      "##ብረተሰቡ": 10150,
      "በሐ": 10151,
      "ዶክተር": 10152,
      "ደንበ": 10153,
      "አመራ": 10154,
      "ለቤተ": 10155,
      "የምስ": 10156,
      "የማስ": 10157,
      "ወንድሞ": 10158,
      "##us": 10159,
      "ይሁኑ": 10160,
      "##ጠም": 10161,
      "ጥቂ": 10162,
      "##ላፊነት": 10163,
      "የገባ": 10164,
      "##ot": 10165,
      "ይግ": 10166,
      "##ri": 10167,
      "አምራ": 10168,
      "በምት": 10169,
      "##ችሁት": 10170,
      "ማብ": 10171,
      "ደመ": 10172,
      "እንደሚያስ": 10173,
      "የያዘ": 10174,
      "ለመሄድ": 10175,
      "መግቢያ": 10176,
      "##ፈልገውን": 10177,
      "እንቅልፍ": 10178,
      "በን": 10179,
      "##ያም": 10180,
      "ተው": 10181,
      "2016": 10182,
      "ጎዳና": 10183,
      "በነፃ": 10184,
      "ዛፍ": 10185,
      "መልአ": 10186,
      "##ዋዋ": 10187,
      "መቁ": 10188,
      "በከተማ": 10189,
      "##አዴግ": 10190,
      "##ከበረ": 10191,
      "ቤተሰቦች": 10192,
      "የባቡር": 10193,
      "የበላይ": 10194,
      "ለሰው": 10195,
      "አድርግ": 10196,
      "መውጣት": 10197,
      "##ሰማው": 10198,
      "##ጿል": 10199,
      "ከሰው": 10200,
      "ይደረጋል": 10201,
      "ያንብቡ": 10202,
      "##ስራቅ": 10203,
      "ዳግ": 10204,
      "በመቀ": 10205,
      "ይናገራሉ": 10206,
      "##ከፊ": 10207,
      "እርሱን": 10208,
      "የሌለው": 10209,
      "እንደዚያ": 10210,
      "##ሌን": 10211,
      "ሳይንስ": 10212,
      "##ዝቃ": 10213,
      "ጎል": 10214,
      "##ኪም": 10215,
      "##መለከተው": 10216,
      "##ነቴ": 10217,
      "የጦር": 10218,
      "##ክም": 10219,
      "ቆይታ": 10220,
      "##ሰቢያ": 10221,
      "##roid": 10222,
      "##ላትን": 10223,
      "ከን": 10224,
      "አምባ": 10225,
      "የአሁኑ": 10226,
      "በዛ": 10227,
      "##ረዝ": 10228,
      "እናንተም": 10229,
      "በቦ": 10230,
      "የሩ": 10231,
      "አብዛኛውን": 10232,
      "መገለጫ": 10233,
      "ይል": 10234,
      "##ያዎች": 10235,
      "እናቴ": 10236,
      "##ከተሉ": 10237,
      "ማቴ": 10238,
      "የዲ": 10239,
      "እያንዳን": 10240,
      "##ቶቹን": 10241,
      "ጉብኝ": 10242,
      "የሳ": 10243,
      "##ረኝ": 10244,
      "##ስተው": 10245,
      "##መለከ": 10246,
      "ላይም": 10247,
      "##ጋቢ": 10248,
      "ያስታው": 10249,
      "አብዛኛው": 10250,
      "አንዳንዴ": 10251,
      "##ዩም": 10252,
      "አዛ": 10253,
      "ዘይ": 10254,
      "##ore": 10255,
      "ይዘው": 10256,
      "ድረ": 10257,
      "በኦ": 10258,
      "ከሚያ": 10259,
      "መጻሕፍት": 10260,
      "በመስመር": 10261,
      "መፈለግ": 10262,
      "ግለሰቦች": 10263,
      "##ሪያው": 10264,
      "ያደረ": 10265,
      "##ቲት": 10266,
      "##ያውቅ": 10267,
      "መላእ": 10268,
      "የተጠቀ": 10269,
      "ምዕራፍ": 10270,
      "##ምንቱ": 10271,
      "ጆሮ": 10272,
      "##ግባባት": 10273,
      "##ኳቸው": 10274,
      "##ደበ": 10275,
      "ጣቢያዎች": 10276,
      "መዘ": 10277,
      "ቅርብ": 10278,
      "##ፍረት": 10279,
      "##ዝገብ": 10280,
      "ለወደ": 10281,
      "##ነበብ": 10282,
      "ማመልከቻ": 10283,
      "ለመርዳት": 10284,
      "መድኃ": 10285,
      "ህገ": 10286,
      "ጥቃ": 10287,
      "ለኔ": 10288,
      "ባለመ": 10289,
      "ተያይ": 10290,
      "##ዎቻቸው": 10291,
      "##ቀና": 10292,
      "ደሞ": 10293,
      "ገጾች": 10294,
      "00": 10295,
      "ሕገ": 10296,
      "##ፎችን": 10297,
      "እየጨመረ": 10298,
      "##ነካ": 10299,
      "ያለፈ": 10300,
      "የሚያደርግ": 10301,
      "በማን": 10302,
      "የተጠበቀ": 10303,
      "##ደነ": 10304,
      "በግብ": 10305,
      "የተመረ": 10306,
      "##ርሷ": 10307,
      "መተግበሪያዎች": 10308,
      "አቃ": 10309,
      "የእኔን": 10310,
      "##ሻገር": 10311,
      "እንዳልሆነ": 10312,
      "እባክዎ": 10313,
      "##ጢር": 10314,
      "##ክቶ": 10315,
      "ስጋት": 10316,
      "##ፁም": 10317,
      "ያሰ": 10318,
      "ስልጠና": 10319,
      "በአንተ": 10320,
      "እል": 10321,
      "##ዓዊ": 10322,
      "ተካ": 10323,
      "ያስፈልግዎታል": 10324,
      "##ገናኘ": 10325,
      "ወዘ": 10326,
      "##ስታው": 10327,
      "##ቀጥል": 10328,
      "ጽሁፍ": 10329,
      "ቃለ": 10330,
      "##ሥራት": 10331,
      "ግማሽ": 10332,
      "##››": 10333,
      "ምዝገባ": 10334,
      "ማርያም": 10335,
      "ይሄንን": 10336,
      "የትም": 10337,
      "##ከሰተ": 10338,
      "ምስል": 10339,
      "ዳን": 10340,
      "የምድር": 10341,
      "ይልቁ": 10342,
      "##ነብ": 10343,
      "ወረቀት": 10344,
      "ስህተ": 10345,
      "አጣ": 10346,
      "ሪፖር": 10347,
      "በሺ": 10348,
      "ተግባራት": 10349,
      "ወንድም": 10350,
      "የጊዜ": 10351,
      "ፕሬዚዳንት": 10352,
      "##ዝግ": 10353,
      "##ወሰድ": 10354,
      "የአካል": 10355,
      "##ግባቡ": 10356,
      "ገዳ": 10357,
      "##ኩባንያ": 10358,
      "34": 10359,
      "##ኖቹ": 10360,
      "##ሮሞ": 10361,
      "ደቡብ": 10362,
      "ተሳትፎ": 10363,
      "2013": 10364,
      "የተቀመ": 10365,
      "እላለሁ": 10366,
      "ዓይነቱ": 10367,
      "አደገኛ": 10368,
      "ለካ": 10369,
      "አፈፃ": 10370,
      "ሊኖረው": 10371,
      "እንግሊዝኛ": 10372,
      "የቦ": 10373,
      "አንባቢ": 10374,
      "የሚገር": 10375,
      "##በዛ": 10376,
      "##ራለች": 10377,
      "ደረሰ": 10378,
      "ባህር": 10379,
      "Android": 10380,
      "##ናጋ": 10381,
      "##ሶችን": 10382,
      "እንክብ": 10383,
      "ቀድሞውኑ": 10384,
      "##ካቤ": 10385,
      "##ጪው": 10386,
      "##ርያት": 10387,
      "ምሥ": 10388,
      "መለወጥ": 10389,
      "ብሩ": 10390,
      "ለማቅረብ": 10391,
      "አማካይ": 10392,
      "ለመናገር": 10393,
      "##ገዱ": 10394,
      "የመረጃ": 10395,
      "መያዝ": 10396,
      "##ዋለህ": 10397,
      "ይሉ": 10398,
      "##ገስ": 10399,
      "ደቀ": 10400,
      "##ቸት": 10401,
      "##ኞቻችን": 10402,
      "##ለችም": 10403,
      "##ናቱ": 10404,
      "##ባጭ": 10405,
      "ጥንካሬ": 10406,
      "የሚባለው": 10407,
      "##ጎዳ": 10408,
      "ሳል": 10409,
      "ይለኛል": 10410,
      "##ሽም": 10411,
      "ከዋ": 10412,
      "ለብ": 10413,
      "የጣ": 10414,
      "ህክምና": 10415,
      "##ዊተር": 10416,
      "##ካን": 10417,
      "ሀገራት": 10418,
      "##ስማማ": 10419,
      "ለፍ": 10420,
      "በሩ": 10421,
      "##ሊያን": 10422,
      "##ጎብኘት": 10423,
      "##ወል": 10424,
      "ሆኑ": 10425,
      "##ብብር": 10426,
      "እስር": 10427,
      "ወንጌል": 10428,
      "ለዚያ": 10429,
      "አንጻር": 10430,
      "ጴጥሮ": 10431,
      "##ግሪ": 10432,
      "መዳረሻ": 10433,
      "ሚኒስቴር": 10434,
      "ለመከላከል": 10435,
      "##50": 10436,
      "ቀለ": 10437,
      "##ዩን": 10438,
      "በዛሬው": 10439,
      "ነበርኩ": 10440,
      "##ጻናት": 10441,
      "አለዎት": 10442,
      "ይመስል": 10443,
      "ዲዛ": 10444,
      "##ዎታለን": 10445,
      "ከብ": 10446,
      "ጫማ": 10447,
      "##ሮው": 10448,
      "መሠረታዊ": 10449,
      "መሰረታዊ": 10450,
      "የእሱ": 10451,
      "ከጊዜ": 10452,
      "##ንቀት": 10453,
      "##ጂታል": 10454,
      "አንድነት": 10455,
      "አገልጋ": 10456,
      "##ጭሩ": 10457,
      "##ገዝ": 10458,
      "ኮሚቴ": 10459,
      "ብሄ": 10460,
      "አውጥ": 10461,
      "##ሙም": 10462,
      "ቋንቋዎች": 10463,
      "##ብረተሰብ": 10464,
      "ቀርቶ": 10465,
      "በፌ": 10466,
      "በሥ": 10467,
      "##vious": 10468,
      "እየሆነ": 10469,
      "ዓይነቶች": 10470,
      "ከቶ": 10471,
      "##ers": 10472,
      "##ርሳ": 10473,
      "##ላዊነት": 10474,
      "ከጎ": 10475,
      "##ቅል": 10476,
      "##ur": 10477,
      "Previous": 10478,
      "80": 10479,
      "ጋዜጣ": 10480,
      "##ለጽ": 10481,
      "አዲ": 10482,
      "##ገልገል": 10483,
      "ተመልክ": 10484,
      "በነጻ": 10485,
      "ከቤት": 10486,
      "ያገ": 10487,
      "ገብቶ": 10488,
      "##ባበር": 10489,
      "የሚከተሉት": 10490,
      "##ሠራው": 10491,
      "ተሽከር": 10492,
      "ስትራቴ": 10493,
      "ከብዙ": 10494,
      "ክር": 10495,
      "##ተኩ": 10496,
      "##ዎስ": 10497,
      "##ሻለሁ": 10498,
      "አስቀድ": 10499,
      "ፈጥ": 10500,
      "በፓ": 10501,
      "የባለ": 10502,
      "ቶሎ": 10503,
      "የነበረውን": 10504,
      "ዳይ": 10505,
      "በድጋሚ": 10506,
      "##ጠለ": 10507,
      "ገልጸዋል": 10508,
      "##ውተር": 10509,
      "አያውቁም": 10510,
      "የኛ": 10511,
      "ወደዚህ": 10512,
      "ራሳቸውን": 10513,
      "ጥልቅ": 10514,
      "ለማው": 10515,
      "ኤም": 10516,
      "ጥፋት": 10517,
      "አውሮፕላን": 10518,
      "ዴሞክራሲ": 10519,
      "##ሳተፍ": 10520,
      "ወዘተ": 10521,
      "አላማ": 10522,
      "##ኤም": 10523,
      "ተነስ": 10524,
      "አመራር": 10525,
      "ሕዝቦች": 10526,
      "##ኤልም": 10527,
      "ማሻሻ": 10528,
      "በማይ": 10529,
      "አጀንዳ": 10530,
      "##ዟል": 10531,
      "በመስጠት": 10532,
      "ታማኝ": 10533,
      "##ረናል": 10534,
      "አይኖርም": 10535,
      "የአው": 10536,
      "እንድታ": 10537,
      "##ንሲ": 10538,
      "ገደማ": 10539,
      "ንጥረ": 10540,
      "ደርሶ": 10541,
      "##ቆት": 10542,
      "ከሁሉ": 10543,
      "ሃይማኖ": 10544,
      "ይጨም": 10545,
      "መድረስ": 10546,
      "እባክህ": 10547,
      "ደጋግ": 10548,
      "ክስተቶች": 10549,
      "ክብደት": 10550,
      "ፍቃ": 10551,
      "ሰውን": 10552,
      "በስራ": 10553,
      "##ናቀ": 10554,
      "መቃ": 10555,
      "##ስቸ": 10556,
      "የሚገኘው": 10557,
      "የትራ": 10558,
      "##ነቃ": 10559,
      "##ኛለሁ": 10560,
      "##ስተም": 10561,
      "አዋጅ": 10562,
      "ቤተሰቦ": 10563,
      "ማሰ": 10564,
      "ነበ": 10565,
      "##ሽኑ": 10566,
      "ለመክ": 10567,
      "ሃይማኖት": 10568,
      "የሚኖሩ": 10569,
      "ፈረንሳይ": 10570,
      "##ዕምሮ": 10571,
      "ፈቃደኛ": 10572,
      "##ነም": 10573,
      "##OS": 10574,
      "የኑ": 10575,
      "##eb": 10576,
      "የራሱን": 10577,
      "ፈገግ": 10578,
      "ለአንተ": 10579,
      "##ዓመቱ": 10580,
      "##መልስ": 10581,
      "ቀጣዩ": 10582,
      "የምርጫ": 10583,
      "ስትራቴጂ": 10584,
      "##ጀርባ": 10585,
      "መረብ": 10586,
      "በ201": 10587,
      "ተሰማ": 10588,
      "ከእሱ": 10589,
      "ሳን": 10590,
      "##ባቢያ": 10591,
      "ለቀ": 10592,
      "ወቅታዊ": 10593,
      "ብታ": 10594,
      "##ርላማ": 10595,
      "አንደኛው": 10596,
      "ተጓ": 10597,
      "ለበ": 10598,
      "##ባበ": 10599,
      "እንደዚሁ": 10600,
      "የዜ": 10601,
      "ይሄዳል": 10602,
      "##ጢአት": 10603,
      "መብቶች": 10604,
      "ቦርድ": 10605,
      "ባዶ": 10606,
      "ለመኖር": 10607,
      "ቀኝ": 10608,
      "##ነር": 10609,
      "##ስተዳ": 10610,
      "ርቀት": 10611,
      "##ዘረ": 10612,
      "ስና": 10613,
      "በመተ": 10614,
      "##ረበ": 10615,
      "በተግባር": 10616,
      "ዜጋ": 10617,
      "አንድን": 10618,
      "ልና": 10619,
      "የጌታ": 10620,
      "##ሪዝም": 10621,
      "ሃይ": 10622,
      "የጉዞ": 10623,
      "ይህንንም": 10624,
      "##ጠንቀ": 10625,
      "በፕ": 10626,
      "የሲ": 10627,
      "ውበት": 10628,
      "አንዳንዶች": 10629,
      "የከፋ": 10630,
      "ራስህን": 10631,
      "##ጥፋት": 10632,
      "በሰላም": 10633,
      "አሮ": 10634,
      "የሕግ": 10635,
      "##ስተዋል": 10636,
      "ምነው": 10637,
      "##ህንነት": 10638,
      "##ወሰኑ": 10639,
      "የቀረበ": 10640,
      "ይሞክሩ": 10641,
      "##ሊና": 10642,
      "ኮሌ": 10643,
      "የሠ": 10644,
      "ሰነድ": 10645,
      "አንፃ": 10646,
      "##ረጋጋ": 10647,
      "ገጽታ": 10648,
      "ብቻውን": 10649,
      "መመልከት": 10650,
      "ለማሻሻል": 10651,
      "አየሁ": 10652,
      "ሆስፒታል": 10653,
      "ማይ": 10654,
      "##ድርግ": 10655,
      "##ታች": 10656,
      "ሕክምና": 10657,
      "ይኖራሉ": 10658,
      "ተአ": 10659,
      "ስጋ": 10660,
      "መሞከር": 10661,
      "ለመፍታት": 10662,
      "ጨለማ": 10663,
      "##ክልሉ": 10664,
      "##ሂዱ": 10665,
      "##ገለግል": 10666,
      "##ካሄደው": 10667,
      "ጥገና": 10668,
      "##በዝ": 10669,
      "##ነዚያ": 10670,
      "ይሞ": 10671,
      "መጥቶ": 10672,
      "##ዳሴ": 10673,
      "እርምጃዎች": 10674,
      "የጭ": 10675,
      "አጠገብ": 10676,
      "እግዚአብሄር": 10677,
      "ለማንበብ": 10678,
      "ደካ": 10679,
      "ሽማግሌ": 10680,
      "በጋ": 10681,
      "ታች": 10682,
      "ትሆና": 10683,
      "##ነተኛ": 10684,
      "አለመሆኑ": 10685,
      "ከመስ": 10686,
      "መስከረም": 10687,
      "##ረጠ": 10688,
      "አሠራ": 10689,
      "ተመራ": 10690,
      "##ሪቱን": 10691,
      "አባባል": 10692,
      "##ጎት": 10693,
      "መዝሙር": 10694,
      "ትርፍ": 10695,
      "##ተኝነት": 10696,
      "##ሜት": 10697,
      "##ሪን": 10698,
      "##ፍሬ": 10699,
      "ያወ": 10700,
      "##ክልት": 10701,
      "##ገነዘ": 10702,
      "ኮር": 10703,
      "##ታኝ": 10704,
      "አብይ": 10705,
      "##ምሌ": 10706,
      "የሚሰጥ": 10707,
      "##ዮቹ": 10708,
      "የተባበሩት": 10709,
      "##os": 10710,
      "##ሂድ": 10711,
      "ምሁ": 10712,
      "##ማጭ": 10713,
      "ከመጀመሪያ": 10714,
      "ለመግዛት": 10715,
      "በሰማይ": 10716,
      "እውን": 10717,
      "ወንድሞች": 10718,
      "##ሜራ": 10719,
      "##ፕል": 10720,
[...]
