{
  "version": "1.0",
  "truncation": null,
  "padding": null,
  "added_tokens": [
    {
      "id": 0,
      "content": "<unk>",
      "single_word": false,
      "lstrip": false,
      "rstrip": false,
      "normalized": false,
      "special": true
    },
    {
      "id": 1,
      "content": "<s>",
      "single_word": false,
      "lstrip": false,
      "rstrip": false,
      "normalized": false,
      "special": true
    },
    {
      "id": 2,
      "content": "</s>",
      "single_word": false,
      "lstrip": false,
      "rstrip": false,
      "normalized": false,
      "special": true
    },
    {
      "id": 3,
      "content": "<pad>",
      "single_word": false,
      "lstrip": false,
      "rstrip": false,
      "normalized": false,
      "special": true
    },
    {
      "id": 4,
      "content": "<mask>",
      "single_word": false,
      "lstrip": false,
      "rstrip": false,
      "normalized": false,
      "special": true
    }
  ],
  "normalizer": {
    "type": "NFC"
  },
  "pre_tokenizer": {
    "type": "Whitespace"
  },
  "post_processor": null,
  "decoder": {
    "type": "WordPiece",
    "prefix": "##",
    "cleanup": true
  },
  "model": {
    "type": "WordPiece",
    "unk_token": "<unk>",
    "continuing_subword_prefix": "##",
    "max_input_chars_per_word": 100,
    "vocab": {
      "<unk>": 0,
      "<s>": 1,
      "</s>": 2,
      "<pad>": 3,
      "<mask>": 4,
      "!": 5,
      "\"": 6,
      "#": 7,
      "$": 8,
      "%": 9,
      "&": 10,
      "'": 11,
      "(": 12,
      ")": 13,
      "*": 14,
      "+": 15,
      ",": 16,
      "-": 17,
      ".": 18,
      "/": 19,
      "0": 20,
      "1": 21,
      "2": 22,
      "3": 23,
      "4": 24,
      "5": 25,
      "6": 26,
      "7": 27,
      "8": 28,
      "9": 29,
      ":": 30,
      ";": 31,
      "<": 32,
      "=": 33,
      ">": 34,
      "?": 35,
      "@": 36,
      "A": 37,
      "B": 38,
      "C": 39,
      "D": 40,
      "E": 41,
      "F": 42,
      "G": 43,
      "H": 44,
      "I": 45,
      "J": 46,
      "K": 47,
      "L": 48,
      "M": 49,
      "N": 50,
      "O": 51,
      "P": 52,
      "Q": 53,
      "R": 54,
      "S": 55,
      "T": 56,
      "U": 57,
      "V": 58,
      "W": 59,
      "X": 60,
      "Y": 61,
      "Z": 62,
      "[": 63,
      "\\": 64,
      "]": 65,
      "^": 66,
      "_": 67,
      "a": 68,
      "b": 69,
      "c": 70,
      "d": 71,
      "e": 72,
      "f": 73,
      "g": 74,
      "h": 75,
      "i": 76,
      "j": 77,
      "k": 78,
      "l": 79,
      "m": 80,
      "n": 81,
      "o": 82,
      "p": 83,
      "q": 84,
      "r": 85,
      "s": 86,
      "t": 87,
      "u": 88,
      "v": 89,
      "w": 90,
      "x": 91,
      "y": 92,
      "z": 93,
      "{": 94,
      "|": 95,
      "}": 96,
      "~": 97,
      "¡": 98,
      "£": 99,
      "¥": 100,
      "¦": 101,
      "§": 102,
      "©": 103,
      "¬": 104,
      "®": 105,
      "°": 106,
      "±": 107,
      "¶": 108,
      "·": 109,
      "¿": 110,
      "À": 111,
      "Â": 112,
      "Ã": 113,
      "Ä": 114,
      "Å": 115,
      "Æ": 116,
      "È": 117,
      "É": 118,
      "Õ": 119,
      "Ö": 120,
      "×": 121,
      "Ø": 122,
      "Ù": 123,
      "Ú": 124,
      "Ü": 125,
      "Ý": 126,
      "Þ": 127,
      "ß": 128,
      "à": 129,
      "á": 130,
      "â": 131,
      "ã": 132,
      "ä": 133,
      "å": 134,
      "æ": 135,
      "ç": 136,
      "è": 137,
      "é": 138,
      "ê": 139,
      "ë": 140,
      "í": 141,
      "î": 142,
      "ï": 143,
      "ð": 144,
      "ñ": 145,
      "ò": 146,
      "ó": 147,
      "ô": 148,
      "õ": 149,
      "ö": 150,
      "÷": 151,
      "ø": 152,
      "ù": 153,
      "ú": 154,
      "û": 155,
      "ü": 156,
      "ý": 157,
      "þ": 158,
      "ÿ": 159,
      "Ā": 160,
      "ā": 161,
      "č": 162,
      "ę": 163,
      "ě": 164,
      "ğ": 165,
      "ħ": 166,
      "ī": 167,
      "İ": 168,
      "ı": 169,
      "ł": 170,
      "ō": 171,
      "Œ": 172,
      "œ": 173,
      "ř": 174,
      "Ş": 175,
      "ş": 176,
      "Š": 177,
      "ť": 178,
      "ū": 179,
      "Ÿ": 180,
      "ƒ": 181,
      "ǎ": 182,
      "Ǐ": 183,
      "Ǜ": 184,
      "ǝ": 185,
      "ɔ": 186,
      "ɛ": 187,
      "ɾ": 188,
      "ʔ": 189,
      "ʻ": 190,
      "ʼ": 191,
      "ʽ": 192,
      "ʾ": 193,
      "ʿ": 194,
      "˂": 195,
      "˃": 196,
      "˅": 197,
      "ˆ": 198,
      "ˈ": 199,
      "́": 200,
      "̂": 201,
      "̄": 202,
      "̇": 203,
      "̈": 204,
      "̋": 205,
      "̎": 206,
      "̔": 207,
      "̕": 208,
      "̧": 209,
      "̷": 210,
      "Α": 211,
      "Δ": 212,
      "Ε": 213,
      "Η": 214,
      "Ι": 215,
      "Κ": 216,
      "Μ": 217,
      "Π": 218,
      "Τ": 219,
      "Υ": 220,
      "Φ": 221,
      "Ω": 222,
      "ά": 223,
      "ί": 224,
      "α": 225,
      "γ": 226,
      "δ": 227,
      "ε": 228,
      "ζ": 229,
      "η": 230,
      "θ": 231,
      "ι": 232,
      "κ": 233,
      "λ": 234,
      "μ": 235,
      "ν": 236,
      "ο": 237,
      "π": 238,
      "ρ": 239,
      "ς": 240,
      "σ": 241,
      "τ": 242,
      "υ": 243,
      "φ": 244,
      "χ": 245,
      "ψ": 246,
      "ό": 247,
      "ύ": 248,
      "ώ": 249,
      "Г": 250,
      "Д": 251,
      "И": 252,
      "К": 253,
      "Л": 254,
      "Н": 255,
      "О": 256,
      "П": 257,
      "Р": 258,
      "С": 259,
      "Т": 260,
      "а": 261,
      "б": 262,
      "в": 263,
      "г": 264,
      "д": 265,
      "е": 266,
      "з": 267,
      "и": 268,
      "й": 269,
      "к": 270,
      "л": 271,
      "м": 272,
      "н": 273,
      "о": 274,
      "п": 275,
      "р": 276,
      "с": 277,
      "т": 278,
      "у": 279,
      "ф": 280,
      "ц": 281,
      "ч": 282,
      "ш": 283,
      "ъ": 284,
      "ы": 285,
      "ь": 286,
      "ю": 287,
      "я": 288,
      "ё": 289,
      "і": 290,
      "ј": 291,
      "ѣ": 292,
      "҆": 293,
      "҉": 294,
      "ֳ": 295,
      "ִ": 296,
      "ֵ": 297,
      "ֶ": 298,
      "ַ": 299,
      "ָ": 300,
      "ֹ": 301,
      "ּ": 302,
      "ׁ": 303,
      "א": 304,
      "ב": 305,
      "ג": 306,
      "ד": 307,
      "ה": 308,
      "ו": 309,
      "ז": 310,
      "ח": 311,
      "ט": 312,
      "י": 313,
      "כ": 314,
      "ל": 315,
      "ם": 316,
      "מ": 317,
      "ן": 318,
      "נ": 319,
      "ס": 320,
      "ע": 321,
      "ף": 322,
      "פ": 323,
      "צ": 324,
      "ק": 325,
      "ר": 326,
      "ש": 327,
      "ת": 328,
      "،": 329,
      "؟": 330,
      "ء": 331,
      "آ": 332,
      "أ": 333,
      "ؤ": 334,
      "إ": 335,
      "ئ": 336,
      "ا": 337,
      "ب": 338,
      "ة": 339,
      "ت": 340,
      "ج": 341,
      "ح": 342,
      "خ": 343,
      "د": 344,
      "ذ": 345,
      "ر": 346,
      "ز": 347,
      "س": 348,
      "ش": 349,
      "ص": 350,
      "ض": 351,
      "ط": 352,
      "ظ": 353,
      "ع": 354,
      "غ": 355,
      "ف": 356,
      "ق": 357,
      "ك": 358,
      "ل": 359,
      "م": 360,
      "ن": 361,
      "ه": 362,
      "و": 363,
      "ى": 364,
      "ي": 365,
      "ٍ": 366,
      "ُ": 367,
      "ِ": 368,
      "٤": 369,
      "پ": 370,
      "ڑ": 371,
      "ک": 372,
      "گ": 373,
      "ۆ": 374,
      "ی": 375,
      "ے": 376,
      "ܐ": 377,
      "ܒ": 378,
      "ܘ": 379,
      "ܛ": 380,
      "ܣ": 381,
      "ܦ": 382,
      "ܪ": 383,
      "ܬ": 384,
      "ߴ": 385,
      "߹": 386,
      "अ": 387,
      "आ": 388,
      "क": 389,
      "ख": 390,
      "ग": 391,
      "ज": 392,
      "ड": 393,
      "ण": 394,
      "त": 395,
      "न": 396,
      "प": 397,
      "फ": 398,
      "ब": 399,
      "भ": 400,
      "म": 401,
      "य": 402,
      "र": 403,
      "ल": 404,
      "ळ": 405,
      "व": 406,
      "श": 407,
      "स": 408,
      "ह": 409,
      "़": 410,
      "ा": 411,
      "ि": 412,
      "ी": 413,
      "ु": 414,
      "े": 415,
      "ै": 416,
      "ो": 417,
      "्": 418,
      "ం": 419,
      "క": 420,
      "చ": 421,
      "డ": 422,
      "త": 423,
      "న": 424,
      "ప": 425,
      "మ": 426,
      "య": 427,
      "ర": 428,
      "ల": 429,
      "స": 430,
      "ి": 431,
      "ీ": 432,
      "ు": 433,
      "ై": 434,
      "్": 435,
      "ಕ": 436,
      "ಡ": 437,
      "ನ": 438,
      "್": 439,
      "ก": 440,
      "ง": 441,
      "ต": 442,
      "บ": 443,
      "พ": 444,
      "ฟ": 445,
      "ม": 446,
      "ย": 447,
      "ร": 448,
      "ล": 449,
      "ส": 450,
      "ห": 451,
      "อ": 452,
      "ั": 453,
      "า": 454,
      "ิ": 455,
      "ี": 456,
      "เ": 457,
      "โ": 458,
      "่": 459,
      "စ": 460,
      "ဒ": 461,
      "ပ": 462,
      "ာ": 463,
      "ိ": 464,
      "ု": 465,
      "်": 466,
      "၊": 467,
      "ვ": 468,
      "თ": 469,
      "ი": 470,
      "ნ": 471,
      "ს": 472,
      "წ": 473,
      "ሀ": 474,
      "ሁ": 475,
      "ሂ": 476,
      "ሃ": 477,
      "ሄ": 478,
      "ህ": 479,
      "ሆ": 480,
      "ሇ": 481,
      "ለ": 482,
      "ሉ": 483,
      "ሊ": 484,
      "ላ": 485,
      "ሌ": 486,
      "ል": 487,
      "ሎ": 488,
      "ሏ": 489,
      "ሐ": 490,
      "ሑ": 491,
      "ሒ": 492,
      "ሓ": 493,
      "ሔ": 494,
      "ሕ": 495,
      "ሖ": 496,
      "ሗ": 497,
      "መ": 498,
      "ሙ": 499,
      "ሚ": 500,
      "ማ": 501,
      "ሜ": 502,
      "ም": 503,
      "ሞ": 504,
      "ሟ": 505,
      "ሠ": 506,
      "ሡ": 507,
      "ሢ": 508,
      "ሣ": 509,
      "ሤ": 510,
      "ሥ": 511,
      "ሦ": 512,
      "ረ": 513,
      "ሩ": 514,
      "ሪ": 515,
      "ራ": 516,
      "ሬ": 517,
      "ር": 518,
      "ሮ": 519,
      "ሯ": 520,
      "ሰ": 521,
      "ሱ": 522,
      "ሲ": 523,
      "ሳ": 524,
      "ሴ": 525,
      "ስ": 526,
      "ሶ": 527,
      "ሷ": 528,
      "ሸ": 529,
      "ሹ": 530,
      "ሺ": 531,
      "ሻ": 532,
      "ሼ": 533,
      "ሽ": 534,
      "ሾ": 535,
      "ሿ": 536,
      "ቀ": 537,
      "ቁ": 538,
      "ቂ": 539,
      "ቃ": 540,
      "ቄ": 541,
      "ቅ": 542,
      "ቆ": 543,
      "ቇ": 544,
      "ቈ": 545,
      "ቊ": 546,
      "ቋ": 547,
      "ቌ": 548,
      "ቍ": 549,
      "ቐ": 550,
      "ቑ": 551,
      "ቒ": 552,
      "ቓ": 553,
      "ቔ": 554,
      "ቕ": 555,
      "ቖ": 556,
      "ቘ": 557,
      "ቚ": 558,
      "ቛ": 559,
      "ቜ": 560,
      "ቝ": 561,
      "በ": 562,
      "ቡ": 563,
      "ቢ": 564,
      "ባ": 565,
      "ቤ": 566,
      "ብ": 567,
      "ቦ": 568,
      "ቧ": 569,
      "ቨ": 570,
      "ቩ": 571,
      "ቪ": 572,
      "ቫ": 573,
      "ቬ": 574,
      "ቭ": 575,
      "ቮ": 576,
      "ቯ": 577,
      "ተ": 578,
      "ቱ": 579,
      "ቲ": 580,
      "ታ": 581,
      "ቴ": 582,
      "ት": 583,
      "ቶ": 584,
      "ቷ": 585,
      "ቸ": 586,
      "ቹ": 587,
      "ቺ": 588,
      "ቻ": 589,
      "ቼ": 590,
      "ች": 591,
      "ቾ": 592,
      "ቿ": 593,
      "ኀ": 594,
      "ኁ": 595,
      "ኂ": 596,
      "ኃ": 597,
      "ኄ": 598,
      "ኅ": 599,
      "ኆ": 600,
      "ኈ": 601,
      "ኊ": 602,
      "ኋ": 603,
      "ኌ": 604,
      "ኍ": 605,
      "ነ": 606,
      "ኑ": 607,
      "ኒ": 608,
      "ና": 609,
      "ኔ": 610,
      "ን": 611,
      "ኖ": 612,
      "ኗ": 613,
      "ኘ": 614,
      "ኙ": 615,
      "ኚ": 616,
      "ኛ": 617,
      "ኜ": 618,
      "ኝ": 619,
      "ኞ": 620,
      "ኟ": 621,
      "አ": 622,
      "ኡ": 623,
      "ኢ": 624,
      "ኣ": 625,
      "ኤ": 626,
      "እ": 627,
      "ኦ": 628,
      "ኧ": 629,
      "ከ": 630,
      "ኩ": 631,
      "ኪ": 632,
      "ካ": 633,
      "ኬ": 634,
      "ክ": 635,
      "ኮ": 636,
      "ኯ": 637,
      "ኰ": 638,
      "ኲ": 639,
      "ኳ": 640,
      "ኴ": 641,
      "ኵ": 642,
      "ኸ": 643,
      "ኹ": 644,
      "ኺ": 645,
      "ኻ": 646,
      "ኼ": 647,
      "ኽ": 648,
      "ኾ": 649,
      "ዀ": 650,
      "ዂ": 651,
      "ዃ": 652,
      "ዄ": 653,
      "ዅ": 654,
      "ወ": 655,
      "ዉ": 656,
      "ዊ": 657,
      "ዋ": 658,
      "ዌ": 659,
      "ው": 660,
      "ዎ": 661,
      "ዏ": 662,
      "ዐ": 663,
      "ዑ": 664,
      "ዒ": 665,
      "ዓ": 666,
      "ዔ": 667,
      "ዕ": 668,
      "ዖ": 669,
      "ዘ": 670,
      "ዙ": 671,
      "ዚ": 672,
      "ዛ": 673,
      "ዜ": 674,
      "ዝ": 675,
      "ዞ": 676,
      "ዟ": 677,
      "ዠ": 678,
      "ዡ": 679,
      "ዢ": 680,
      "ዣ": 681,
      "ዤ": 682,
      "ዥ": 683,
      "ዦ": 684,
      "ዧ": 685,
      "የ": 686,
      "ዩ": 687,
      "ዪ": 688,
      "ያ": 689,
      "ዬ": 690,
      "ይ": 691,
      "ዮ": 692,
      "ዯ": 693,
      "ደ": 694,
      "ዱ": 695,
      "ዲ": 696,
      "ዳ": 697,
      "ዴ": 698,
      "ድ": 699,
      "ዶ": 700,
      "ዷ": 701,
      "ዸ": 702,
      "ዹ": 703,
      "ዺ": 704,
      "ዻ": 705,
      "ዼ": 706,
      "ዽ": 707,
      "ዾ": 708,
      "ጀ": 709,
      "ጁ": 710,
      "ጂ": 711,
      "ጃ": 712,
      "ጄ": 713,
      "ጅ": 714,
      "ጆ": 715,
      "ጇ": 716,
      "ገ": 717,
      "ጉ": 718,
      "ጊ": 719,
      "ጋ": 720,
      "ጌ": 721,
      "ግ": 722,
      "ጎ": 723,
      "ጏ": 724,
      "ጐ": 725,
      "ጒ": 726,
      "ጓ": 727,
      "ጔ": 728,
      "ጕ": 729,
      "ጘ": 730,
      "ጙ": 731,
      "ጚ": 732,
      "ጛ": 733,
      "ጜ": 734,
      "ጝ": 735,
      "ጞ": 736,
      "ጟ": 737,
      "ጠ": 738,
      "ጡ": 739,
      "ጢ": 740,
      "ጣ": 741,
      "ጤ": 742,
      "ጥ": 743,
      "ጦ": 744,
      "ጧ": 745,
      "ጨ": 746,
      "ጩ": 747,
      "ጪ": 748,
      "ጫ": 749,
      "ጬ": 750,
      "ጭ": 751,
      "ጮ": 752,
      "ጯ": 753,
      "ጰ": 754,
      "ጱ": 755,
      "ጲ": 756,
      "ጳ": 757,
      "ጴ": 758,
      "ጵ": 759,
      "ጶ": 760,
      "ጷ": 761,
      "ጸ": 762,
      "ጹ": 763,
      "ጺ": 764,
      "ጻ": 765,
      "ጼ": 766,
      "ጽ": 767,
      "ጾ": 768,
      "ጿ": 769,
      "ፀ": 770,
      "ፁ": 771,
      "ፂ": 772,
      "ፃ": 773,
      "ፄ": 774,
      "ፅ": 775,
      "ፆ": 776,
      "ፇ": 777,
      "ፈ": 778,
      "ፉ": 779,
      "ፊ": 780,
      "ፋ": 781,
      "ፌ": 782,
      "ፍ": 783,
      "ፎ": 784,
      "ፏ": 785,
      "ፐ": 786,
      "ፑ": 787,
      "ፒ": 788,
      "ፓ": 789,
      "ፔ": 790,
      "ፕ": 791,
      "ፖ": 792,
      "ፗ": 793,
      "ፘ": 794,
      "ፙ": 795,
      "ፚ": 796,
      "፞": 797,
      "፟": 798,
      "፠": 799,
      "፡": 800,
      "።": 801,
      "፣": 802,
      "፤": 803,
      "፥": 804,
      "፦": 805,
      "፧": 806,
      "፨": 807,
      "፩": 808,
      "፪": 809,
      "፫": 810,
      "፬": 811,
      "፭": 812,
      "፮": 813,
      "፯": 814,
      "፰": 815,
      "፱": 816,
      "፲": 817,
      "፳": 818,
      "፴": 819,
      "፵": 820,
      "፶": 821,
      "፷": 822,
      "፸": 823,
      "፹": 824,
      "፺": 825,
      "፻": 826,
      "፼": 827,
      "ᎁ": 828,
      "ᎄ": 829,
      "ᎅ": 830,
      "ᎏ": 831,
      "᎐": 832,
      "᎒": 833,
      "᎓": 834,
      "᎖": 835,
      "᎘": 836,
      "ḥ": 837,
      "ḧ": 838,
      "ḱ": 839,
      "Ἐ": 840,
      "ὰ": 841,
      "‐": 842,
      "‛": 843,
      "‟": 844,
      "†": 845,
      "‡": 846,
      "•": 847,
      "‰": 848,
      "′": 849,
      "‹": 850,
      "›": 851,
      "⁄": 852,
      "₩": 853,
      "€": 854,
      "₸": 855,
      "⃣": 856,
      "℗": 857,
      "←": 858,
      "↑": 859,
      "→": 860,
      "↓": 861,
      "↔": 862,
      "↩": 863,
      "⇐": 864,
      "⇒": 865,
      "−": 866,
      "∕": 867,
      "∙": 868,
      "√": 869,
      "∞": 870,
      "∶": 871,
      "≈": 872,
      "≠": 873,
      "≡": 874,
      "≤": 875,
      "≥": 876,
      "⋅": 877,
      "⋮": 878,
      "│": 879,
      "▁": 880,
      "□": 881,
      "▢": 882,
      "▪": 883,
      "▶": 884,
      "►": 885,
      "▼": 886,
      "◄": 887,
      "◅": 888,
      "◆": 889,
      "○": 890,
      "◎": 891,
      "●": 892,
      "☀": 893,
      "☂": 894,
      "★": 895,
      "☆": 896,
      "☘": 897,
      "☝": 898,
      "☞": 899,
      "☠": 900,
      "☹": 901,
      "☺": 902,
      "♀": 903,
      "♂": 904,
      "♛": 905,
      "♡": 906,
      "♥": 907,
      "♦": 908,
      "♩": 909,
      "♪": 910,
      "♫": 911,
      "♬": 912,
      "⚜": 913,
      "⚪": 914,
      "⛔": 915,
      "⛰": 916,
      "✅": 917,
      "✈": 918,
      "✊": 919,
      "✋": 920,
      "✌": 921,
      "✍": 922,
      "✓": 923,
      "✔": 924,
      "✝": 925,
      "✦": 926,
      "✿": 927,
      "❖": 928,
      "❗": 929,
      "❤": 930,
      "❸": 931,
      "➜": 932,
      "➡": 933,
      "➢": 934,
      "➣": 935,
      "➤": 936,
      "➳": 937,
      "➿": 938,
      "⟶": 939,
      "⦁": 940,
      "⭐": 941,
      "⭕": 942,
      "ⵗ": 943,
      "ⶀ": 944,
      "ⶁ": 945,
      "ⶂ": 946,
      "ⶅ": 947,
      "ⶆ": 948,
      "ⶉ": 949,
      "ⶊ": 950,
      "ⶖ": 951,
      "ⷅ": 952,
      "、": 953,
      "。": 954,
      "〇": 955,
      "〉": 956,
      "《": 957,
      "》": 958,
      "「": 959,
      "」": 960,
      "【": 961,
      "】": 962,
      "あ": 963,
      "い": 964,
      "う": 965,
      "か": 966,
      "こ": 967,
      "し": 968,
      "す": 969,
      "だ": 970,
      "ち": 971,
      "で": 972,
      "と": 973,
      "ど": 974,
      "に": 975,
      "の": 976,
      "は": 977,
      "む": 978,
      "よ": 979,
      "ら": 980,
      "る": 981,
      "ろ": 982,
      "を": 983,
      "ん": 984,
      "ア": 985,
      "イ": 986,
      "エ": 987,
      "ガ": 988,
      "グ": 989,
      "ザ": 990,
      "ス": 991,
      "ダ": 992,
      "ッ": 993,
      "デ": 994,
      "ト": 995,
      "ナ": 996,
      "ハ": 997,
      "ビ": 998,
      "ホ": 999,
      "ボ": 1000,
      "マ": 1001,
      "ム": 1002,
      "ラ": 1003,
      "ル": 1004,
      "ロ": 1005,
      "ン": 1006,
      "・": 1007,
      "丘": 1008,
      "中": 1009,
      "了": 1010,
      "人": 1011,
      "仕": 1012,
      "住": 1013,
      "体": 1014,
      "供": 1015,
      "修": 1016,
      "個": 1017,
      "僕": 1018,
      "共": 1019,
      "制": 1020,
      "前": 1021,
      "加": 1022,
      "単": 1023,
      "发": 1024,
      "吗": 1025,
      "和": 1026,
      "嘅": 1027,
      "器": 1028,
      "国": 1029,
      "國": 1030,
      "在": 1031,
      "增": 1032,
      "士": 1033,
      "夏": 1034,
      "天": 1035,
      "她": 1036,
      "子": 1037,
      "安": 1038,
      "小": 1039,
      "州": 1040,
      "市": 1041,
      "幫": 1042,
      "幽": 1043,
      "录": 1044,
      "彙": 1045,
      "彼": 1046,
      "待": 1047,
      "您": 1048,
      "想": 1049,
      "我": 1050,
      "改": 1051,
      "文": 1052,
      "新": 1053,
      "方": 1054,
      "日": 1055,
      "旧": 1056,
      "晋": 1057,
      "暇": 1058,
      "有": 1059,
      "束": 1060,
      "果": 1061,
      "校": 1062,
      "條": 1063,
      "機": 1064,
      "民": 1065,
      "水": 1066,
      "注": 1067,
      "港": 1068,
      "澳": 1069,
      "熊": 1070,
      "熱": 1071,
      "猫": 1072,
      "発": 1073,
      "發": 1074,
      "白": 1075,
      "的": 1076,
      "皿": 1077,
      "私": 1078,
      "结": 1079,
      "给": 1080,
      "者": 1081,
      "育": 1082,
      "胖": 1083,
      "至": 1084,
      "華": 1085,
      "製": 1086,
      "西": 1087,
      "視": 1088,
      "言": 1089,
      "評": 1090,
      "詞": 1091,
      "語": 1092,
      "論": 1093,
      "追": 1094,
      "達": 1095,
      "選": 1096,
      "錄": 1097,
      "録": 1098,
      "門": 1099,
      "闲": 1100,
      "隨": 1101,
      "音": 1102,
      "頻": 1103,
      "香": 1104,
      "ꗺ": 1105,
      "ꬁ": 1106,
      "ꬂ": 1107,
      "ꬃ": 1108,
      "ꬄ": 1109,
      "ꬅ": 1110,
      "ꬆ": 1111,
      "ꬉ": 1112,
      "ꬊ": 1113,
      "ꬋ": 1114,
      "ꬌ": 1115,
      "ꬎ": 1116,
      "ꬑ": 1117,
      "ꬓ": 1118,
      "강": 1119,
      "건": 1120,
      "겨": 1121,
      "계": 1122,
      "고": 1123,
      "꿈": 1124,
      "남": 1125,
      "낱": 1126,
      "녁": 1127,
      "년": 1128,
      "녕": 1129,
      "누": 1130,
      "더": 1131,
      "드": 1132,
      "또": 1133,
      "로": 1134,
      "루": 1135,
      "를": 1136,
      "리": 1137,
      "말": 1138,
      "메": 1139,
      "멘": 1140,
      "무": 1141,
      "바": 1142,
      "발": 1143,
      "봇": 1144,
      "사": 1145,
      "삼": 1146,
      "서": 1147,
      "세": 1148,
      "아": 1149,
      "안": 1150,
      "어": 1151,
      "에": 1152,
      "요": 1153,
      "월": 1154,
      "위": 1155,
      "으": 1156,
      "을": 1157,
      "음": 1158,
      "의": 1159,
      "이": 1160,
      "읽": 1161,
      "저": 1162,
      "전": 1163,
      "쩝": 1164,
      "카": 1165,
      "케": 1166,
      "코": 1167,
      "키": 1168,
      "테": 1169,
      "트": 1170,
      "팔": 1171,
      "함": 1172,
      "해": 1173,
      "히": 1174,
      "﷽": 1175,
      "️": 1176,
      "￼": 1177,
      "�": 1178,
      "𓁹": 1179,
      "🇦": 1180,
      "🇧": 1181,
      "🇨": 1182,
      "🇪": 1183,
      "🇬": 1184,
      "🇭": 1185,
      "🇱": 1186,
      "🇲": 1187,
      "🇳": 1188,
      "🇷": 1189,
      "🇸": 1190,
      "🇹": 1191,
      "🇻": 1192,
      "🇼": 1193,
      "🇿": 1194,
      "🌅": 1195,
      "🌉": 1196,
      "🌞": 1197,
      "🌟": 1198,
      "🌷": 1199,
      "🌹": 1200,
      "🌼": 1201,
      "🌽": 1202,
      "🌿": 1203,
      "🍀": 1204,
      "🍄": 1205,
      "🍅": 1206,
      "🎋": 1207,
      "🎍": 1208,
      "🎤": 1209,
      "🎵": 1210,
      "🎸": 1211,
      "🏫": 1212,
      "🏺": 1213,
      "🏻": 1214,
      "🏼": 1215,
      "🏽": 1216,
      "🏾": 1217,
      "🏿": 1218,
      "🐅": 1219,
      "🐐": 1220,
      "🐕": 1221,
      "👀": 1222,
      "👇": 1223,
      "👈": 1224,
      "👉": 1225,
      "👊": 1226,
      "👋": 1227,
      "👌": 1228,
      "👍": 1229,
      "👎": 1230,
      "👏": 1231,
      "👑": 1232,
      "👬": 1233,
      "👳": 1234,
      "👻": 1235,
      "💋": 1236,
      "💌": 1237,
      "💎": 1238,
      "💐": 1239,
      "💓": 1240,
      "💔": 1241,
      "💕": 1242,
      "💖": 1243,
      "💗": 1244,
      "💘": 1245,
      "💙": 1246,
      "💚": 1247,
      "💛": 1248,
      "💜": 1249,
      "💝": 1250,
      "💞": 1251,
      "💟": 1252,
      "💥": 1253,
      "💪": 1254,
      "💫": 1255,
      "💭": 1256,
      "💯": 1257,
      "💽": 1258,
      "📆": 1259,
      "📌": 1260,
      "📒": 1261,
      "📖": 1262,
      "📚": 1263,
      "📜": 1264,
      "📷": 1265,
      "📻": 1266,
      "🔑": 1267,
      "🔔": 1268,
      "🔤": 1269,
      "🔥": 1270,
      "🔴": 1271,
      "🔶": 1272,
      "🕊": 1273,
      "🕳": 1274,
      "😀": 1275,
      "😁": 1276,
      "😂": 1277,
      "😃": 1278,
      "😄": 1279,
      "😅": 1280,
      "😆": 1281,
      "😉": 1282,
      "😊": 1283,
      "😋": 1284,
      "😍": 1285,
      "😎": 1286,
      "😏": 1287,
      "😔": 1288,
      "😕": 1289,
      "😖": 1290,
      "😘": 1291,
      "😚": 1292,
      "😛": 1293,
      "😜": 1294,
      "😝": 1295,
      "😞": 1296,
      "😠": 1297,
      "😡": 1298,
      "😢": 1299,
      "😥": 1300,
      "😪": 1301,
      "😫": 1302,
      "😭": 1303,
      "😮": 1304,
      "😰": 1305,
      "😱": 1306,
      "😲": 1307,
      "😳": 1308,
      "😷": 1309,
      "😹": 1310,
      "😻": 1311,
      "😼": 1312,
      "🙁": 1313,
      "🙂": 1314,
      "🙄": 1315,
      "🙆": 1316,
      "🙈": 1317,
      "🙉": 1318,
      "🙋": 1319,
      "🙌": 1320,
      "🙏": 1321,
      "🚗": 1322,
      "🚴": 1323,
      "🚵": 1324,
      "🛅": 1325,
      "🛑": 1326,
      "🤐": 1327,
      "🤓": 1328,
      "🤔": 1329,
      "🤗": 1330,
      "🤘": 1331,
      "🤙": 1332,
      "🤞": 1333,
      "🤟": 1334,
      "🤣": 1335,
      "🤥": 1336,
      "🤦": 1337,
      "🤧": 1338,
      "🤨": 1339,
      "🤩": 1340,
      "🤬": 1341,
      "🤭": 1342,
      "🤲": 1343,
      "🤴": 1344,
      "🤷": 1345,
      "🤸": 1346,
      "🥇": 1347,
      "🥒": 1348,
      "🥦": 1349,
      "🥰": 1350,
      "🥺": 1351,
      "🧐": 1352,
      "🧑": 1353,
      "🧘": 1354,
      "🧸": 1355,
      "##ጻ": 1356,
      "##ረ": 1357,
      "##ሮ": 1358,
      "##ሕ": 1359,
      "##ላ": 1360,
      "##ም": 1361,
      "##ን": 1362,
      "##ይ": 1363,
      "##ተ": 1364,
      "##ጋ": 1365,
      "##ገ": 1366,
      "##ጸ": 1367,
      "##ኅ": 1368,
      "##ነ": 1369,
      "##ት": 1370,
      "##መ": 1371,
      "##ር": 1372,
      "##ሐ": 1373,
      "##ሽ": 1374,
      "##ፍ": 1375,
      "##ና": 1376,
      "##ኣ": 1377,
      "##ፈ": 1378,
      "##ራ": 1379,
      "##ሀ": 1380,
      "##ግ": 1381,
      "##ዕ": 1382,
      "##ኛ": 1383,
      "##ዛ": 1384,
      "##ብ": 1385,
      "##ኹ": 1386,
      "##ኽ": 1387,
      "##ዘ": 1388,
      "##ኦ": 1389,
      "##በ": 1390,
      "##ቢ": 1391,
      "##ለ": 1392,
      "##ማ": 1393,
      "##ቃ": 1394,
      "##ቂ": 1395,
      "##ው": 1396,
      "##ፊ": 1397,
      "##ዎ": 1398,
      "##እ": 1399,
      "##ዒ": 1400,
      "##ሌ": 1401,
      "##ሓ": 1402,
      "##ዓ": 1403,
      "##ኡ": 1404,
      "##ኸ": 1405,
      "##ባ": 1406,
      "##ክ": 1407,
      "##ፋ": 1408,
      "##ል": 1409,
      "##ደ": 1410,
      "##ቅ": 1411,
      "##ጺ": 1412,
      "##ካ": 1413,
      "##ስ": 1414,
      "##ፖ": 1415,
      "##ታ": 1416,
      "##ሰ": 1417,
      "##ሉ": 1418,
      "##ዝ": 1419,
      "##ኒ": 1420,
      "##ዮ": 1421,
      "##ሎ": 1422,
      "##ኔ": 1423,
      "##ع": 1424,
      "##ل": 1425,
      "##ا": 1426,
      "##ن": 1427,
      "##ወ": 1428,
      "##ሊ": 1429,
      "##ዳ": 1430,
      "##ድ": 1431,
      "##ቲ": 1432,
      "##ቐ": 1433,
      "##ቈ": 1434,
      "##ጹ": 1435,
      "##ዲ": 1436,
      "##ኑ": 1437,
      "##ያ": 1438,
      "##ኖ": 1439,
      "##ሃ": 1440,
      "##ጾ": 1441,
      "##ዶ": 1442,
      "##ጠ": 1443,
      "##ቕ": 1444,
      "##ኩ": 1445,
      "##ጐ": 1446,
      "##ጥ": 1447,
      "##ጽ": 1448,
      "##የ": 1449,
      "##c": 1450,
      "##u": 1451,
      "##m": 1452,
      "##e": 1453,
      "##n": 1454,
      "##i": 1455,
      "##s": 1456,
      "##ዙ": 1457,
      "##ከ": 1458,
      "##ዩ": 1459,
      "##ኪ": 1460,
      "##ቀ": 1461,
      "##ሳ": 1462,
      "##ኻ": 1463,
      "##ዱ": 1464,
      "##ሙ": 1465,
      "##ቡ": 1466,
      "##ዊ": 1467,
      "##ሑ": 1468,
      "##ፎ": 1469,
      "##ዖ": 1470,
      "##ሄ": 1471,
      "##ሱ": 1472,
      "##ቱ": 1473,
      "##ጉ": 1474,
      "##ቖ": 1475,
      "##ዐ": 1476,
      "##ጅ": 1477,
      "##ቶ": 1478,
      "##8": 1479,
      "##4": 1480,
      "##ሪ": 1481,
      "##ቦ": 1482,
      "##አ": 1483,
      "##ዚ": 1484,
      "##ዂ": 1485,
      "##ዑ": 1486,
      "##ሲ": 1487,
      "##ሩ": 1488,
      "##ፉ": 1489,
      "##ዉ": 1490,
      "##ቆ": 1491,
      "##ፀ": 1492,
      "##ዪ": 1493,
      "##E": 1494,
      "##o": 1495,
      "##l": 1496,
      "##a": 1497,
      "##t": 1498,
      "##ህ": 1499,
      "##ቨ": 1500,
      "##ቘ": 1501,
      "##ጡ": 1502,
      "##ዞ": 1503,
      "##ቑ": 1504,
      "##ኺ": 1505,
      "##ቒ": 1506,
      "##ዋ": 1507,
      "##ፃ": 1508,
      "##ሻ": 1509,
      "##ቋ": 1510,
      "##ቓ": 1511,
      "##ኾ": 1512,
      "##ሞ": 1513,
      "##ሔ": 1514,
      "##ኳ": 1515,
      "##r": 1516,
      "##g": 1517,
      "##ቼ": 1518,
      "##ጂ": 1519,
      "##ኤ": 1520,
      "##ö": 1521,
      "##ä": 1522,
      "##k": 1523,
      "##ቝ": 1524,
      "##ጓ": 1525,
      "##ꬂ": 1526,
      "##ኮ": 1527,
      "##ሂ": 1528,
      "##ጣ": 1529,
      "##ዅ": 1530,
      "##A": 1531,
      "##b": 1532,
      "##1": 1533,
      "##ጎ": 1534,
      "##9": 1535,
      "##3": 1536,
      "##5": 1537,
      "##ሒ": 1538,
      "##ቚ": 1539,
      "##ሜ": 1540,
      "##ሚ": 1541,
      "##ዴ": 1542,
      "##ሯ": 1543,
      "##ቤ": 1544,
      "##ሶ": 1545,
      "##ጦ": 1546,
      "##ጵ": 1547,
      "##ኢ": 1548,
      "##ב": 1549,
      "##י": 1550,
      "##ת": 1551,
      "##ጊ": 1552,
      "##ቁ": 1553,
      "##ቷ": 1554,
      "##ሸ": 1555,
      "##œ": 1556,
      "##ፓ": 1557,
      "##ጨ": 1558,
      "##ሬ": 1559,
      "##R": 1560,
      "##d": 1561,
      "##ሖ": 1562,
      "##ቪ": 1563,
      "##ሾ": 1564,
      "##ሹ": 1565,
      "##ጫ": 1566,
      "##p": 1567,
      "##x": 1568,
      "##y": 1569,
      "##ቍ": 1570,
      "##ጀ": 1571,
      "##ፔ": 1572,
      "##h": 1573,
      "##ሢ": 1574,
      "##ኃ": 1575,
      "##v": 1576,
      "##ቹ": 1577,
      "##ፅ": 1578,
      "##ጢ": 1579,
      "##ፌ": 1580,
      "##ቛ": 1581,
      "##ዔ": 1582,
      "##ኵ": 1583,
      "##፩": 1584,
      "##C": 1585,
      "##ፁ": 1586,
      "##P": 1587,
      "##I": 1588,
      "##F": 1589,
      "##🇷": 1590,
      "##💚": 1591,
      "##❤": 1592,
      "##ዌ": 1593,
      "##0": 1594,
      "##ች": 1595,
      "##2": 1596,
      "##ጁ": 1597,
      "##ጃ": 1598,
      "##ሥ": 1599,
      "##ጭ": 1600,
      "##ዬ": 1601,
      "##ፒ": 1602,
      "##ሴ": 1603,
      "##ሣ": 1604,
      "##Z": 1605,
      "##L": 1606,
      "##ሁ": 1607,
      "##w": 1608,
      "##z": 1609,
      "##ዀ": 1610,
      "##ዜ": 1611,
      "##ፕ": 1612,
      "##ጮ": 1613,
      "##ቻ": 1614,
      "##ቊ": 1615,
      "##ሼ": 1616,
      "##ቴ": 1617,
      "##?": 1618,
      "##ሠ": 1619,
      "##ጳ": 1620,
      "##M": 1621,
      "##å": 1622,
      "##N": 1623,
      "##V": 1624,
      "##ፂ": 1625,
      "##ጕ": 1626,
      "##O": 1627,
      "##T": 1628,
      "##f": 1629,
      "##ኝ": 1630,
      "##ጒ": 1631,
      "##6": 1632,
      "##ቄ": 1633,
      "##ጌ": 1634,
      "##፧": 1635,
      "##ו": 1636,
      "##ח": 1637,
      "##ፐ": 1638,
      "##ፑ": 1639,
      "##ቺ": 1640,
      "##ʼ": 1641,
      "##ꬃ": 1642,
      "##ኰ": 1643,
      "##ኲ": 1644,
      "##ዃ": 1645,
      "##ቭ": 1646,
      "##፳": 1647,
      "##፬": 1648,
      "##)": 1649,
      "##/": 1650,
      "##፡": 1651,
      "##፲": 1652,
      "##ꬊ": 1653,
      "##ⵗ": 1654,
      "##፻": 1655,
      "##፫": 1656,
      "##ኁ": 1657,
      "##ጪ": 1658,
      "##_": 1659,
      "##ኼ": 1660,
      "##D": 1661,
      "##к": 1662,
      "##а": 1663,
      "##ч": 1664,
      "##т": 1665,
      "##ь": 1666,
      "##ኀ": 1667,
      "##ቫ": 1668,
      "##🤣": 1669,
      "##😂": 1670,
      "##ፆ": 1671,
      "##ጔ": 1672,
      "##ሇ": 1673,
      "##<": 1674,
      "##ሆ": 1675,
      "##ኞ": 1676,
      "##።": 1677,
      "##Y": 1678,
      "##ü": 1679,
      "##Â": 1680,
      "##٤": 1681,
      "##ֶ": 1682,
      "##ָ": 1683,
      "##7": 1684,
      "##S": 1685,
      "##U": 1686,
      "##G": 1687,
      "##ኬ": 1688,
      "##}": 1689,
      "##ዥ": 1690,
      "##ቸ": 1691,
      "##ጶ": 1692,
      "##ዏ": 1693,
      "##ቧ": 1694,
      "##W": 1695,
      "##ኂ": 1696,
      "##ሺ": 1697,
      "##-": 1698,
      "##🇪": 1699,
      "##ኘ": 1700,
      "##ጰ": 1701,
      "##ዄ": 1702,
      "##門": 1703,
      "##j": 1704,
      "##ቔ": 1705,
      "##ኙ": 1706,
      "##\"": 1707,
      "##፨": 1708,
      "##X": 1709,
      "##ጄ": 1710,
      "##H": 1711,
      "##ቮ": 1712,
      "##ኆ": 1713,
      "##ጩ": 1714,
      "##ጲ": 1715,
      "##ዽ": 1716,
      "##ጤ": 1717,
      "##ዟ": 1718,
      "##:": 1719,
      "##ጆ": 1720,
      "##ꬌ": 1721,
      "##.": 1722,
      "##ጼ": 1723,
      "##ꬅ": 1724,
      "##[": 1725,
      "##ě": 1726,
      "##í": 1727,
      "##B": 1728,
      "##፥": 1729,
      "##፪": 1730,
      "##፮": 1731,
      "##፟": 1732,
      "##፭": 1733,
      "##ቬ": 1734,
      "##ኴ": 1735,
      "##'": 1736,
      "##ኗ": 1737,
      "##፱": 1738,
      "##Ä": 1739,
      "##ፏ": 1740,
      "##🏼": 1741,
      "##ύ": 1742,
      "##q": 1743,
      "##+": 1744,
      "##ኋ": 1745,
      "##ሗ": 1746,
      "##ጱ": 1747,
      "##~": 1748,
      "##🇲": 1749,
      "##🇱": 1750,
      "##ፄ": 1751,
      "##✌": 1752,
      "##(": 1753,
      "##ሤ": 1754,
      "##፤": 1755,
      "##!": 1756,
      "##̂": 1757,
      "##ó": 1758,
      "##ዯ": 1759,
      "##፯": 1760,
      "##á": 1761,
      "##]": 1762,
      "##ቾ": 1763,
      "##ዾ": 1764,
      "##Ã": 1765,
      "##,": 1766,
      "##Ω": 1767,
      "##ი": 1768,
      "##ნ": 1769,
      "##💘": 1770,
      "##😏": 1771,
      "##ꬎ": 1772,
      "##K": 1773,
      "##う": 1774,
      "##ዣ": 1775,
      "##፣": 1776,
      "##ቩ": 1777,
      "##🙏": 1778,
      "##ጏ": 1779,
      "##፶": 1780,
      "##é": 1781,
      "##ዡ": 1782,
      "##ß": 1783,
      "##ë": 1784,
      "##â": 1785,
      "##💪": 1786,
      "##;": 1787,
      "##ጟ": 1788,
      "##👍": 1789,
      "##🍀": 1790,
      "##ዠ": 1791,
      "##፴": 1792,
      "##о": 1793,
      "##р": 1794,
      "##г": 1795,
      "##в": 1796,
      "##л": 1797,
      "##я": 1798,
      "##ጝ": 1799,
      "##√": 1800,
      "##ሡ": 1801,
      "##🇼": 1802,
      "##*": 1803,
      "##ዷ": 1804,
      "##ዻ": 1805,
      "##î": 1806,
      "##ण": 1807,
      "##र": 1808,
      "##ा": 1809,
      "##ज": 1810,
      "##्": 1811,
      "##य": 1812,
      "##>": 1813,
      "##ኜ": 1814,
      "##ꬄ": 1815,
      "##ल": 1816,
      "##ጛ": 1817,
      "##ዦ": 1818,
      "##ي": 1819,
      "##ሟ": 1820,
      "##خ": 1821,
      "##ب": 1822,
      "##ر": 1823,
      "##ד": 1824,
      "##ם": 1825,
      "##💎": 1826,
      "##ꬋ": 1827,
      "##ጧ": 1828,
      "##ح": 1829,
      "##፦": 1830,
      "##ሏ": 1831,
      "##е": 1832,
      "##с": 1833,
      "##Q": 1834,
      "##ኟ": 1835,
      "##ጴ": 1836,
      "##μ": 1837,
      "##発": 1838,
      "##音": 1839,
      "##を": 1840,
      "##録": 1841,
      "##す": 1842,
      "##る": 1843,
      "##🌹": 1844,
      "##É": 1845,
      "##ሦ": 1846,
      "##̇": 1847,
      "##년": 1848,
      "##н": 1849,
      "##ኄ": 1850,
      "##ā": 1851,
      "##è": 1852,
      "##J": 1853,
      "##ጬ": 1854,
      "##👇": 1855,
      "##●": 1856,
      "##›": 1857,
      "##ン": 1858,
      "##ダ": 1859,
      "##ム": 1860,
      "##に": 1861,
      "##選": 1862,
      "##ん": 1863,
      "##だ": 1864,
      "##単": 1865,
      "##語": 1866,
      "##ڑ": 1867,
      "##ے": 1868,
      "##פ": 1869,
      "##ש": 1870,
      "##ׁ": 1871,
      "##🔶": 1872,
      "##ዤ": 1873,
      "##ه": 1874,
      "###": 1875,
      "##ř": 1876,
      "##ጙ": 1877,
      "##ꬆ": 1878,
      "##ዺ": 1879,
      "##د": 1880,
      "##ጜ": 1881,
      "##녁": 1882,
      "##ى": 1883,
      "##ñ": 1884,
      "##Å": 1885,
      "##🎋": 1886,
      "##👀": 1887,
      "##👉": 1888,
      "##💝": 1889,
      "##👈": 1890,
      "##☆": 1891,
      "##ç": 1892,
      "##æ": 1893,
      "##ኚ": 1894,
      "##봇": 1895,
      "##Õ": 1896,
      "##፵": 1897,
      "##ሷ": 1898,
      "##ሿ": 1899,
      "##þ": 1900,
      "##🇻": 1901,
      "##🇳": 1902,
      "##�": 1903,
      "##👌": 1904,
      "##ئ": 1905,
      "##س": 1906,
      "##ة": 1907,
      "##፺": 1908,
      "##፼": 1909,
      "##म": 1910,
      "##न": 1911,
      "##፞": 1912,
      "##ᎁ": 1913,
      "##à": 1914,
      "##😜": 1915,
      "##ⶖ": 1916,
      "##ह": 1917,
      "##ु": 1918,
      "##ख": 1919,
      "##़": 1920,
      "##፸": 1921,
      "##°": 1922,
      "##ꬑ": 1923,
      "##🤔": 1924,
      "##ቇ": 1925,
      "##ï": 1926,
      "##፰": 1927,
      "##ዧ": 1928,
      "##😍": 1929,
      "##🏿": 1930,
      "##̕": 1931,
      "##ᎄ": 1932,
      "##🤲": 1933,
      "##ɛ": 1934,
      "##ዢ": 1935,
      "##😘": 1936,
      "##ี": 1937,
      "##💫": 1938,
      "##😀": 1939,
      "##ጿ": 1940,
      "##ጚ": 1941,
      "##쩝": 1942,
      "##ی": 1943,
      "##Ü": 1944,
      "##ጷ": 1945,
      "##£": 1946,
      "##•": 1947,
      "##¶": 1948,
      "##π": 1949,
      "##η": 1950,
      "##ρ": 1951,
      "##ε": 1952,
      "##σ": 1953,
      "##ί": 1954,
      "##α": 1955,
      "##😭": 1956,
      "##፠": 1957,
      "##ַ": 1958,
      "##ִ": 1959,
      "##ּ": 1960,
      "##💞": 1961,
      "##🇹": 1962,
      "##מ": 1963,
      "##ר": 1964,
      "##ה": 1965,
      "##ኍ": 1966,
      "##👎": 1967,
      "##ц": 1968,
      "##и": 1969,
      "##￼": 1970,
      "##😪": 1971,
      "##و": 1972,
      "##Ö": 1973,
      "##́": 1974,
      "##😳": 1975,
      "##😡": 1976,
      "##፹": 1977,
      "##ቌ": 1978,
      "##🎍": 1979,
      "##ֹ": 1980,
      "##א": 1981,
      "##%": 1982,
      "##🙌": 1983,
      "##✋": 1984,
      "##ኊ": 1985,
      "##ቿ": 1986,
      "##ि": 1987,
      "##′": 1988,
      "##ీ": 1989,
      "##ర": 1990,
      "##ి": 1991,
      "##క": 1992,
      "##🏾": 1993,
      "##ʾ": 1994,
      "##ፚ": 1995,
      "##🤞": 1996,
      "##🏽": 1997,
      "##ボ": 1998,
      "##ッ": 1999,
      "##ト": 2000,
      "##よ": 2001,
      "##ጘ": 2002,
      "##ο": 2003,
      "##่": 2004,
      "##💖": 2005,
      "##🙁": 2006,
      "##ዼ": 2007,
      "##ł": 2008,
      "##테": 2009,
      "##코": 2010,
      "##멘": 2011,
      "##트": 2012,
      "##를": 2013,
      "##🤩": 2014,
      "##ኯ": 2015,
      "##م": 2016,
      "##‹": 2017,
      "##ق": 2018,
      "##ت": 2019,
      "##ቯ": 2020,
      "##♥": 2021,
      "##ψ": 2022,
      "##ι": 2023,
      "##λ": 2024,
      "##ν": 2025,
      "##¬": 2026,
      "##ð": 2027,
      "##👏": 2028,
      "##🌷": 2029,
      "##ኧ": 2030,
      "##ς": 2031,
      "##᎐": 2032,
      "##🙄": 2033,
      "##ê": 2034,
      "##에": 2035,
      "##서": 2036,
      "##機": 2037,
      "##詞": 2038,
      "##彙": 2039,
      "##😕": 2040,
      "##😥": 2041,
      "##港": 2042,
      "##&": 2043,
      "##§": 2044,
      "##ቜ": 2045,
      "##ط": 2046,
      "##ꬁ": 2047,
      "##と": 2048,
      "##🤙": 2049,
      "##ፇ": 2050,
      "##ø": 2051,
      "##©": 2052,
      "##=": 2053,
      "##ã": 2054,
      "##พ": 2055,
      "##ิ": 2056,
      "##ม": 2057,
      "##🧸": 2058,
      "##💔": 2059,
      "##ز": 2060,
      "##想": 2061,
      "##ⶉ": 2062,
      "##💯": 2063,
      "##市": 2064,
      "##$": 2065,
      "##🐐": 2066,
      "##፷": 2067,
      "##‰": 2068,
      "##†": 2069,
      "##أ": 2070,
      "##ę": 2071,
      "##ܘ": 2072,
      "##ܣ": 2073,
      "##ܦ": 2074,
      "##ܬ": 2075,
      "##ܐ": 2076,
      "##ج": 2077,
      "##↩": 2078,
      "##Ø": 2079,
      "##ኌ": 2080,
      "##😁": 2081,
      "##🇭": 2082,
      "##🇬": 2083,
      "##增": 2084,
      "##д": 2085,
      "##ù": 2086,
      "##ء": 2087,
      "##文": 2088,
      "##ן": 2089,
      "##ጞ": 2090,
      "##ጯ": 2091,
      "##з": 2092,
      "##華": 2093,
      "##人": 2094,
      "##民": 2095,
      "##共": 2096,
      "##和": 2097,
      "##国": 2098,
      "##व": 2099,
      "##क": 2100,
      "##श": 2101,
      "##は": 2102,
      "##¡": 2103,
      "##ُ": 2104,
      "##해": 2105,
      "##在": 2106,
      "##個": 2107,
      "##視": 2108,
      "##頻": 2109,
      "##中": 2110,
      "##有": 2111,
      "##條": 2112,
      "##評": 2113,
      "##論": 2114,
      "##Æ": 2115,
      "##💛": 2116,
      "##ؤ": 2117,
      "##고": 2118,
      "##리": 2119,
      "##❖": 2120,
      "##키": 2121,
      "##낱": 2122,
      "##말": 2123,
      "##사": 2124,
      "##전": 2125,
      "##😆": 2126,
      "##😄": 2127,
      "##‐": 2128,
      "##υ": 2129,
      "##θ": 2130,
      "##ὰ": 2131,
      "##Œ": 2132,
      "##ף": 2133,
      "##小": 2134,
      "##吗": 2135,
      "##🤐": 2136,
      "##👬": 2137,
      "##̎": 2138,
      "##त": 2139,
      "##ั": 2140,
      "##ง": 2141,
      "##เ": 2142,
      "##ล": 2143,
      "##🤧": 2144,
      "##⚪": 2145,
      "##Ǜ": 2146,
      "##↓": 2147,
      "##@": 2148,
      "##ı": 2149,
      "##🧐": 2150,
      "##무": 2151,
      "##로": 2152,
      "##ú": 2153,
      "##州": 2154,
      "##ħ": 2155,
      "##暇": 2156,
      "##ώ": 2157,
      "##ы": 2158,
      "##ý": 2159,
      "##✊": 2160,
      "##ዸ": 2161,
      "##😅": 2162,
      "##γ": 2163,
      "##κ": 2164,
      "##|": 2165,
      "##ร": 2166,
      "##й": 2167,
      "##ş": 2168,
      "##บ": 2169,
      "##อ": 2170,
      "##ต": 2171,
      "##ꬓ": 2172,
      "##{": 2173,
      "##월": 2174,
      "##û": 2175,
      "##ḧ": 2176,
      "##ⷅ": 2177,
      "##प": 2178,
      "##ड": 2179,
      "##े": 2180,
      "##ⶊ": 2181,
      "##ာ": 2182,
      "##ပ": 2183,
      "##ိ": 2184,
      "##ု": 2185,
      "##ဒ": 2186,
      "##်": 2187,
      "##ف": 2188,
      "##ض": 2189,
      "##ፗ": 2190,
      "##至": 2191,
      "##む": 2192,
      "##ろ": 2193,
      "##ვ": 2194,
      "##ს": 2195,
      "##ळ": 2196,
      "##ע": 2197,
      "##ጇ": 2198,
      "##♡": 2199,
      "##改": 2200,
      "##č": 2201,
      "##м": 2202,
      "##💙": 2203,
      "##า": 2204,
      "##ก": 2205,
      "##ส": 2206,
      "##ย": 2207,
      "##̔": 2208,
      "##🕊": 2209,
      "##😉": 2210,
      "##ό": 2211,
      "##ᎅ": 2212,
      "##ш": 2213,
      "##🥰": 2214,
      "##ÿ": 2215,
      "##🏻": 2216,
      "##ά": 2217,
      "##ش": 2218,
      "##🌿": 2219,
      "##💐": 2220,
      "##ⶅ": 2221,
      "##נ": 2222,
      "##ƒ": 2223,
      "##ф": 2224,
      "##ю": 2225,
      "##루": 2226,
      "##팔": 2227,
      "##À": 2228,
      "##이": 2229,
      "##🇦": 2230,
      "##×": 2231,
      "##ī": 2232,
      "##Δ": 2233,
      "##Ι": 2234,
      "##Κ": 2235,
      "##Α": 2236,
      "##★": 2237,
      "##ג": 2238,
      "##ק": 2239,
      "##τ": 2240,
      "##🇸": 2241,
      "##세": 2242,
      "##요": 2243,
      "##녕": 2244,
      "##히": 2245,
      "##∞": 2246,
      "##✅": 2247,
      "##÷": 2248,
      "##ѣ": 2249,
      "##ъ": 2250,
      "##ɔ": 2251,
      "##ˈ": 2252,
      "##ɾ": 2253,
      "##加": 2254,
      "##₩": 2255,
      "##ನ": 2256,
      "##್": 2257,
      "##ಡ": 2258,
      "##ܒ": 2259,
      "##ܛ": 2260,
      "##國": 2261,
      "##ò": 2262,
      "##צ": 2263,
      "##ص": 2264,
      "##گ": 2265,
      "##ū": 2266,
      "##҆": 2267,
      "##者": 2268,
      "##ⶀ": 2269,
      "##ై": 2270,
      "##న": 2271,
      "##్": 2272,
      "##య": 2273,
      "##మ": 2274,
      "##ు": 2275,
      "##ظ": 2276,
      "##Ý": 2277,
      "##發": 2278,
      "##꿈": 2279,
      "##供": 2280,
      "##🤦": 2281,
      "##ら": 2282,
      "##的": 2283,
      "##发": 2284,
      "##ፙ": 2285,
      "##💋": 2286,
      "##ኈ": 2287,
      "##ك": 2288,
      "##ナ": 2289,
      "##ť": 2290,
      "##♪": 2291,
      "##🙉": 2292,
      "##ᎏ": 2293,
      "##ğ": 2294,
      "##○": 2295,
      "##п": 2296,
      "##і": 2297,
      "##ס": 2298,
      "##☀": 2299,
      "##φ": 2300,
      "##錄": 2301,
      "##製": 2302,
      "##→": 2303,
      "##ֳ": 2304,
      "##ל": 2305,
      "##🤭": 2306,
      "##🎵": 2307,
      "##😲": 2308,
      "##育": 2309,
      "##😃": 2310,
      "##غ": 2311,
      "##💕": 2312,
      "##̋": 2313,
      "##Ş": 2314,
      "##ǝ": 2315,
      "##డ": 2316,
      "##ల": 2317,
      "##€": 2318,
      "##ߴ": 2319,
      "##🇧": 2320,
      "##음": 2321,
      "##을": 2322,
      "##‛": 2323,
      "##χ": 2324,
      "##束": 2325,
      "##了": 2326,
      "##õ": 2327,
      "##Ǐ": 2328,
      "##ो": 2329,
      "##ذ": 2330,
      "##ʔ": 2331,
      "##ט": 2332,
      "##グ": 2333,
      "##ザ": 2334,
      "##ビ": 2335,
      "##エ": 2336,
      "##ル": 2337,
      "##イ": 2338,
      "##マ": 2339,
      "##ス": 2340,
      "##ガ": 2341,
      "##ۆ": 2342,
      "##ک": 2343,
      "##あ": 2344,
      "##白": 2345,
      "##い": 2346,
      "##猫": 2347,
      "##ô": 2348,
      "##♩": 2349,
      "##¿": 2350,
      "##ⶂ": 2351,
      "##ハ": 2352,
      "##ラ": 2353,
      "##💗": 2354,
      "##录": 2355,
      "##制": 2356,
      "##の": 2357,
      "##仕": 2358,
      "##方": 2359,
      "##達": 2360,
      "##😱": 2361,
      "##😖": 2362,
      "##ё": 2363,
      "##ी": 2364,
      "##ḱ": 2365,
      "##←": 2366,
      "##🌟": 2367,
      "##﷽": 2368,
      "##🤓": 2369,
      "##🍅": 2370,
      "##🥦": 2371,
      "##🥒": 2372,
      "##🌽": 2373,
      "##🥺": 2374,
      "##ం": 2375,
      "##₸": 2376,
      "##강": 2377,
      "##果": 2378,
      "##어": 2379,
      "##ō": 2380,
      "##̄": 2381,
      "##ḥ": 2382,
      "##҉": 2383,
      "##☘": 2384,
      "##ै": 2385,
      "##待": 2386,
      "##ち": 2387,
      "##🍄": 2388,
      "##💜": 2389,
      "##☂": 2390,
      "##器": 2391,
      "##כ": 2392,
      "##️": 2393,
      "##⃣": 2394,
      "##ǎ": 2395,
      "##함": 2396,
      "##💥": 2397,
      "##겨": 2398,
      "##ⶆ": 2399,
      "ኣብ": 2400,
      "እዩ": 2401,
      "ከም": 2402,
      "እን": 2403,
      "ኣይ": 2404,
      "##ታት": 2405,
      "ናይ": 2406,
      "ካብ": 2407,
      "እቲ": 2408,
      "##ውን": 2409,
      "ድማ": 2410,
      "እዚ": 2411,
      "ምስ": 2412,
      "##ቶም": 2413,
      "##ነት": 2414,
      "##ኩም": 2415,
      "ዘይ": 2416,
      "ናብ": 2417,
      "እንተ": 2418,
      "መን": 2419,
      "ስለ": 2420,
      "##ዮም": 2421,
      "##ትን": 2422,
      "##ሎም": 2423,
      "ዝተ": 2424,
      "ኣለ": 2425,
      "##በር": 2426,
      "##ምላ": 2427,
      "##ብል": 2428,
      "ሰብ": 2429,
      "##ኽእ": 2430,
      "ሓደ": 2431,
      "ክት": 2432,
      "##ታይ": 2433,
      "ክን": 2434,
      "##ምላኽ": 2435,
      "##ገር": 2436,
      "##በረ": 2437,
      "ከኣ": 2438,
      "ኣሎ": 2439,
      "ዘለ": 2440,
      "##ብር": 2441,
      "##ኽእል": 2442,
      "##ዓል": 2443,
      "ኣምላኽ": 2444,
      "##ባት": 2445,
      "##ምን": 2446,
      "ዘሎ": 2447,
      "እየ": 2448,
      "ግን": 2449,
      "ነቲ": 2450,
      "##ኹም": 2451,
      "እውን": 2452,
      "እዮም": 2453,
      "##ራት": 2454,
      "ወይ": 2455,
      "##ፈል": 2456,
      "ነይ": 2457,
      "ውን": 2458,
      "ግና": 2459,
      "ንም": 2460,
      "ህዝ": 2461,
      "##ያን": 2462,
      "##ራሕ": 2463,
      "ዓመ": 2464,
      "##ኸውን": 2465,
      "ዝነ": 2466,
      "እንታይ": 2467,
      "##ኦም": 2468,
      "##ኾነ": 2469,
      "##ለት": 2470,
      "ኢና": 2471,
      "##ዕባ": 2472,
      "እም": 2473,
      "##ራይ": 2474,
      "ብም": 2475,
      "ብዙ": 2476,
      "##ያት": 2477,
      "##ንቲ": 2478,
      "ግዜ": 2479,
      "##ይኑ": 2480,
      "##ለም": 2481,
      "ኣነ": 2482,
      "ካል": 2483,
      "##ስቲ": 2484,
      "##መይ": 2485,
      "ዝበ": 2486,
      "##ልና": 2487,
      "##ግዚ": 2488,
      "ኢዩ": 2489,
      "##ዎም": 2490,
      "ብዛ": 2491,
      "##በይ": 2492,
      "##ነን": 2493,
      "##ወት": 2494,
      "##ላት": 2495,
      "ሰባት": 2496,
      "ብዛዕባ": 2497,
      "መዓል": 2498,
      "##ኣብ": 2499,
      "እቶም": 2500,
      "##ሮም": 2501,
      "ኩሉ": 2502,
      "##ዘይ": 2503,
      "ኸኣ": 2504,
      "##ገል": 2505,
      "##ሕሪ": 2506,
      "ከይ": 2507,
      "##ረት": 2508,
      "##ሓት": 2509,
      "ነዚ": 2510,
      "##ዓት": 2511,
      "##ናን": 2512,
      "##ሳብ": 2513,
      "##ስተ": 2514,
      "##ገብ": 2515,
      "ንሱ": 2516,
      "##ባር": 2517,
      "##መን": 2518,
      "ንስ": 2519,
      "##ለን": 2520,
      "እግዚ": 2521,
      "##ዕሊ": 2522,
      "##ርስ": 2523,
      "##ይን": 2524,
      "እተ": 2525,
      "ነገር": 2526,
      "እና": 2527,
      "ኣብዚ": 2528,
      "##ዋን": 2529,
      "ኣይኮ": 2530,
      "እሞ": 2531,
      "##ታዊ": 2532,
      "##ራዊ": 2533,
      "እያ": 2534,
      "##መስ": 2535,
      "ቅድ": 2536,
      "ህዝቢ": 2537,
      "##ሰር": 2538,
      "##ልካ": 2539,
      "##ብሉ": 2540,
      "ክል": 2541,
      "ዓመት": 2542,
      "##ህር": 2543,
      "ቤት": 2544,
      "ብሓ": 2545,
      "20": 2546,
      "##መር": 2547,
      "እት": 2548,
      "ኣን": 2549,
      "##ርከ": 2550,
      "ምድ": 2551,
      "##ሱስ": 2552,
      "ኣይት": 2553,
      "ዓለም": 2554,
      "##ርእ": 2555,
      "ሕጂ": 2556,
      "ነይሩ": 2557,
      "##..": 2558,
      "ኢሉ": 2559,
      "ምኽ": 2560,
      "##ልን": 2561,
      "ከምዝ": 2562,
      "ሃገር": 2563,
      "##ናት": 2564,
      "##ርት": 2565,
      "ኢኻ": 2566,
      "እታ": 2567,
      "##ተይ": 2568,
      "ንኣ": 2569,
      "ምዃ": 2570,
      "ዝሓ": 2571,
      "##ውያን": 2572,
      "ተመ": 2573,
      "ብዙሕ": 2574,
      "ስለዚ": 2575,
      "ኣብቲ": 2576,
      "እዋን": 2577,
      "ርእ": 2578,
      "መል": 2579,
      "መዓልቲ": 2580,
      "##ገብር": 2581,
      "ሃገ": 2582,
      "ብዝ": 2583,
      "ጥራይ": 2584,
      "ማለት": 2585,
      "ከምዚ": 2586,
      "ከምኡ": 2587,
      "መንግ": 2588,
      "ከተ": 2589,
      "##ምህር": 2590,
      "ሎሚ": 2591,
      "መጽ": 2592,
      "##ሔር": 2593,
      "##ሓፍ": 2594,
      "##ለይ": 2595,
      "##ፈልጥ": 2596,
      "##ዛረ": 2597,
      "መሰ": 2598,
      "ኣይኮነን": 2599,
      "##ድል": 2600,
      "##ይወት": 2601,
      "##በሩ": 2602,
      "ቅዱ": 2603,
      "ምእ": 2604,
      "ምን": 2605,
      "መስ": 2606,
      "ዝኾነ": 2607,
      "እግዚኣብ": 2608,
      "##ኣይ": 2609,
      "##በል": 2610,
      "ድሕሪ": 2611,
      "ንዓ": 2612,
      "ንሕ": 2613,
      "ስራሕ": 2614,
      "##ማይ": 2615,
      "ኣቦ": 2616,
      "እስ": 2617,
      "##ተን": 2618,
      "ዝብል": 2619,
      "##ናይ": 2620,
      "ቅድሚ": 2621,
      "##ላይ": 2622,
      "##ንን": 2623,
      "##ጽእ": 2624,
      "##ዳይ": 2625,
      "##ኹን": 2626,
      "##ምር": 2627,
      "##ዳእ": 2628,
      "ኣባ": 2629,
      "##ገዲ": 2630,
      "##ኣት": 2631,
      "ኮይኑ": 2632,
      "ኣፍ": 2633,
      "ክርስ": 2634,
      "ልዕሊ": 2635,
      "ዝነበረ": 2636,
      "ኸም": 2637,
      "##ሃል": 2638,
      "ክሳብ": 2639,
      "ደቂ": 2640,
      "ንስኻ": 2641,
      "##ርያ": 2642,
      "ይኽእል": 2643,
      "##ቦም": 2644,
      "##ደይ": 2645,
      "##ላለ": 2646,
      "##ስት": 2647,
      "ቅዱስ": 2648,
      "ከመይ": 2649,
      "ወዲ": 2650,
      "...": 2651,
      "ካልእ": 2652,
      "##ርን": 2653,
      "##ሰብ": 2654,
      "##ረኽ": 2655,
      "ቃል": 2656,
      "ዝመ": 2657,
      "ብር": 2658,
      "ትምህር": 2659,
      "ስም": 2660,
      "##ዞም": 2661,
      "##ግባ": 2662,
      "ንሓ": 2663,
      "ነገ": 2664,
      "ምር": 2665,
      "ዓይ": 2666,
      "##ደል": 2667,
      "እምበር": 2668,
      "##ይታ": 2669,
      "ነበረ": 2670,
      "##ኤል": 2671,
      "ምኽን": 2672,
      "ኤርት": 2673,
      "ክልተ": 2674,
      "ገለ": 2675,
      "##ርና": 2676,
      "ኣለዎ": 2677,
      "##ድን": 2678,
      "##ርከብ": 2679,
      "##ነታት": 2680,
      "##ላም": 2681,
      "ስር": 2682,
      "ቦታ": 2683,
      "ኣዝ": 2684,
      "መጽሓፍ": 2685,
      "##ትና": 2686,
      "ይኹን": 2687,
      "##ኦት": 2688,
      "ብዘይ": 2689,
      "##ደን": 2690,
      "ክፍ": 2691,
      "ኣገ": 2692,
      "##ኖም": 2693,
      "##ብረ": 2694,
      "ኣይተ": 2695,
      "የሱስ": 2696,
      "ኣየ": 2697,
      "ሕቶ": 2698,
      "ንሳ": 2699,
      "##ክብ": 2700,
      "ገዛ": 2701,
      "##ማት": 2702,
      "ምሳ": 2703,
      "##ርካ": 2704,
      "##ምል": 2705,
      "እኳ": 2706,
      "ኣስ": 2707,
      "ዘለዎ": 2708,
      "##ምንታይ": 2709,
      "በዚ": 2710,
      "ንዝ": 2711,
      "##ስን": 2712,
      "##ከኣ": 2713,
      "ሓንቲ": 2714,
      "ኤርትራ": 2715,
      "ንእ": 2716,
      "##ትኩም": 2717,
      "ምድሪ": 2718,
      "##ቡቕ": 2719,
      "##ማዕ": 2720,
      "ንኽ": 2721,
      "ኣካ": 2722,
      "##ፈት": 2723,
      "መንግስቲ": 2724,
      "##ሬታ": 2725,
      "##ድሕ": 2726,
      "##ካን": 2727,
      "##ክት": 2728,
      "ከምቲ": 2729,
      "##ባብ": 2730,
      "ማሕ": 2731,
      "ዝወ": 2732,
      "ኣመ": 2733,
      "##ሎት": 2734,
      "ሓበ": 2735,
      "##ሰም": 2736,
      "ትምህርቲ": 2737,
      "##በለ": 2738,
      "##ንዘ": 2739,
      "መር": 2740,
      "ምዃኑ": 2741,
      "##ሉእ": 2742,
      "ንሕና": 2743,
      "##ብሪ": 2744,
      "ተወ": 2745,
      "ሓቂ": 2746,
      "ኢኹም": 2747,
      "##ጣን": 2748,
      "##ገልግ": 2749,
      "ነቶም": 2750,
      "##ግባር": 2751,
      "ምእንቲ": 2752,
      "##በት": 2753,
      "በለ": 2754,
      "ዝገ": 2755,
      "ክኸውን": 2756,
      "##ታትን": 2757,
      "##ብን": 2758,
      "##ሳዕ": 2759,
      "##ይቲ": 2760,
      "ገይ": 2761,
      "ህይወት": 2762,
      "ብዙሓት": 2763,
      "##ብለ": 2764,
      "##ሉን": 2765,
      "ቤተ": 2766,
      "ሓድ": 2767,
      "እዚኣ": 2768,
      "##ይድ": 2769,
      "ስለዝ": 2770,
      "##ድራ": 2771,
      "ዝኣ": 2772,
      "##ባል": 2773,
      "##ህል": 2774,
      "10": 2775,
      "##ሕቲ": 2776,
      "ብኣ": 2777,
      "##ሄር": 2778,
      "##ስፋ": 2779,
      "ዓይነት": 2780,
      "##ቶስ": 2781,
      "ሽዑ": 2782,
      "ሓበሬታ": 2783,
      "##ተር": 2784,
      "19": 2785,
      "##ግደ": 2786,
      "ከተማ": 2787,
      "ምሕ": 2788,
      "##ደሊ": 2789,
      "እስራ": 2790,
      "ደኣ": 2791,
      "##ባዕ": 2792,
      "ኢየ": 2793,
      "ገሊ": 2794,
      "ወር": 2795,
      "ውሽ": 2796,
      "ንመ": 2797,
      "ኣሕ": 2798,
      "ተቐ": 2799,
      "##ዳን": 2800,
      "ኣለዉ": 2801,
      "##ኛታት": 2802,
      "ማእ": 2803,
      "ጽቡቕ": 2804,
      "መግ": 2805,
      "ኣይነ": 2806,
      "201": 2807,
      "ባዕ": 2808,
      "##ሃን": 2809,
      "##ዶም": 2810,
      "ከምዘ": 2811,
      "ቀዳ": 2812,
      "ብመ": 2813,
      "ዝበለ": 2814,
      "##ሪካ": 2815,
      "ኣው": 2816,
      "ነፍ": 2817,
      "ኵሉ": 2818,
      "መወ": 2819,
      "ጉዳይ": 2820,
      "ፍር": 2821,
      "##ብና": 2822,
      "ትግ": 2823,
      "ኣር": 2824,
      "##ክእ": 2825,
      "በቲ": 2826,
      "##ፈላለ": 2827,
      "##ሰን": 2828,
      "##ሰይ": 2829,
      "##ዳእታ": 2830,
      "##ጉስ": 2831,
      "ብኸ": 2832,
      "ገንዘ": 2833,
      "ዝዀ": 2834,
      "ሓይ": 2835,
      "##ገም": 2836,
      "ሃገራት": 2837,
      "ካብቲ": 2838,
      "ካልኦት": 2839,
      "ሰላም": 2840,
      "##ስዕ": 2841,
      "ተስፋ": 2842,
      "ኣእ": 2843,
      "ሰለ": 2844,
      "##ዮን": 2845,
      "##ክል": 2846,
      "መደ": 2847,
      "##ፈር": 2848,
      "ሕማ": 2849,
      "##በሉ": 2850,
      "##ሆዋ": 2851,
      "ስል": 2852,
      "ዝኸ": 2853,
      "ኢሎም": 2854,
      "##ርኢ": 2855,
      "ብፍ": 2856,
      "መንፈ": 2857,
      "##ዊት": 2858,
      "##ለስ": 2859,
      "##ላእ": 2860,
      "ኻብ": 2861,
      "ይብል": 2862,
      "ፍል": 2863,
      "##ረን": 2864,
      "##ራን": 2865,
      "##ኽእሉ": 2866,
      "##ባይ": 2867,
      "እግዚኣብሔር": 2868,
      "##ጠን": 2869,
      "ነገራት": 2870,
      "ታሪ": 2871,
      "ባህ": 2872,
      "##ዛረብ": 2873,
      "ተሓ": 2874,
      "##ነብር": 2875,
      "##ጻኢ": 2876,
      "##ኮነ": 2877,
      "##ርብ": 2878,
      "እዛ": 2879,
      "ምም": 2880,
      "##ልእ": 2881,
      "ከሎ": 2882,
      "##ረባ": 2883,
      "ፍቕ": 2884,
      "ዓመታት": 2885,
      "##ተሓ": 2886,
      "ኣዝዩ": 2887,
      "የለን": 2888,
      "ውድ": 2889,
      "##ጸን": 2890,
      "ኽት": 2891,
      "##በይቲ": 2892,
      "##ርሕ": 2893,
      "##ሃብ": 2894,
      "ብተ": 2895,
      "##ትዮ": 2896,
      "ክርስቶስ": 2897,
      "##ግባእ": 2898,
      "##ዘን": 2899,
      "##ገዝ": 2900,
      "##ሶም": 2901,
      "##ደት": 2902,
      "##በሮ": 2903,
      "##ባቢ": 2904,
      "##ባዊ": 2905,
      "ብስ": 2906,
      "##ሙን": 2907,
      "##ግበር": 2908,
      "አብ": 2909,
      "መወዳእታ": 2910,
      "##ንቋ": 2911,
      "ኩነታት": 2912,
      "##ምቲ": 2913,
      "##አብ": 2914,
      "##ከፍ": 2915,
      "##ላን": 2916,
      "##ኽቲ": 2917,
      "የሆዋ": 2918,
      "እስራኤል": 2919,
      "ምል": 2920,
      "ኣብኡ": 2921,
      "##ድና": 2922,
      "##ማን": 2923,
      "ገንዘብ": 2924,
      "##ዕና": 2925,
      "ተፈ": 2926,
      "##ልኩም": 2927,
      "ብእ": 2928,
      "##ብሎ": 2929,
      "##ገብሮ": 2930,
      "ጊዜ": 2931,
      "##ረኸ": 2932,
      "ጀሚ": 2933,
      "ድዩ": 2934,
      "##ብሩ": 2935,
      "##ርድ": 2936,
      "##ምና": 2937,
      "##ይና": 2938,
      "ስርዓት": 2939,
      "ስለምንታይ": 2940,
      "##ቱን": 2941,
      "##ቲካ": 2942,
      "እግዚኣብሄር": 2943,
      "ኣለኹ": 2944,
      "##ለጥ": 2945,
      "##ዕል": 2946,
      "##ኾኑ": 2947,
      "ዕድ": 2948,
      "ዘለዉ": 2949,
      "ኣል": 2950,
      "##ፍቲ": 2951,
      "ተባ": 2952,
      "ዝሓለ": 2953,
      "ጽሑ": 2954,
      "##ታን": 2955,
      "##አብሔር": 2956,
      "መብ": 2957,
      "ተሰ": 2958,
      "##ሓን": 2959,
      "ትኽእል": 2960,
      "ንዘ": 2961,
      "ስድራ": 2962,
      "መገዲ": 2963,
      "##በብ": 2964,
      "ሕጊ": 2965,
      "##ፈልጦ": 2966,
      "##ረብ": 2967,
      "##ላማ": 2968,
      "##ከት": 2969,
      "ወለ": 2970,
      "ዝዓ": 2971,
      "##ከውን": 2972,
      "##ወስ": 2973,
      "ንህ": 2974,
      "##ነትን": 2975,
      "ንብ": 2976,
      "##መል": 2977,
      "##ዎን": 2978,
      "##ክን": 2979,
      "##ክር": 2980,
      "ኣይኰ": 2981,
      "ንግ": 2982,
      "##ያዊ": 2983,
      "##ያቱ": 2984,
      "ኣም": 2985,
      "##ሕግ": 2986,
      "##ንታ": 2987,
      "እንዳ": 2988,
      "ሓድሽ": 2989,
      "##ጀመር": 2990,
      "##ዕቲ": 2991,
      "##እቲ": 2992,
      "ሰለስተ": 2993,
      "##ኩን": 2994,
      "ኣጋ": 2995,
      "##ንካ": 2996,
      "ንነ": 2997,
      "ተኣ": 2998,
      "ክሳዕ": 2999,
      "እንተኾነ": 3000,
      "ኣቢ": 3001,
      "12": 3002,
      "ተገ": 3003,
      "15": 3004,
      "ድም": 3005,
      "ጥራሕ": 3006,
      "ጐይታ": 3007,
      "ብኸመይ": 3008,
      "በል": 3009,
      "ንጉስ": 3010,
      "በዓል": 3011,
      "ምኽንያት": 3012,
      "ኢትዮ": 3013,
      "##ትካ": 3014,
      "ምፍ": 3015,
      "ናይቲ": 3016,
      "##ግደፍ": 3017,
      "ኣት": 3018,
      "ኣይን": 3019,
      "ኣገዳ": 3020,
      "ማይ": 3021,
      "ፖለ": 3022,
      "##ሞም": 3023,
      "##ግብ": 3024,
      "ምው": 3025,
      "ኢለ": 3026,
      "##ገድ": 3027,
      "##ሰርሕ": 3028,
      "##ሳት": 3029,
      "ኣድ": 3030,
      "##00": 3031,
      "ታሪኽ": 3032,
      "##ስና": 3033,
      "ዝዀነ": 3034,
      "ዋላ": 3035,
      "##ረኣ": 3036,
      "ዓብ": 3037,
      "##ጥቀ": 3038,
      "ክንደይ": 3039,
      "ምዕ": 3040,
      "##ንዲ": 3041,
      "ማዕ": 3042,
      "##ሳይ": 3043,
      "##መጽእ": 3044,
      "ንገ": 3045,
      "ወርሒ": 3046,
      "ዮም": 3047,
      "##ረክብ": 3048,
      "ኣለና": 3049,
      "ዓቢ": 3050,
      "ኣገልግ": 3051,
      "##ያዳ": 3052,
      "መድ": 3053,
      "##ብሉን": 3054,
      "ውሽጢ": 3055,
      "ንሳቶም": 3056,
      "##ይቶ": 3057,
      "ምሉእ": 3058,
      "##ጻእ": 3059,
      "ትካ": 3060,
      "መንእ": 3061,
      "##ይወ": 3062,
      "መዓ": 3063,
      "ከለ": 3064,
      "##ተኛታት": 3065,
      "እዞም": 3066,
      "እንከ": 3067,
      "##ከኣል": 3068,
      "ብል": 3069,
      "11": 3070,
      "ኢልካ": 3071,
      "##ግር": 3072,
      "##ረጋ": 3073,
      "##ላዊ": 3074,
      "እግዚአብሔር": 3075,
      "ዓዲ": 3076,
      "ከባቢ": 3077,
      "ኢትዮጵ": 3078,
      "ክብል": 3079,
      "ነታ": 3080,
      "ካብዚ": 3081,
      "##ያስ": 3082,
      "##ሕት": 3083,
      "እምነት": 3084,
      "ዝም": 3085,
      "ዘይተ": 3086,
      "18": 3087,
      "##ገብረ": 3088,
      "ነብ": 3089,
      "ዝፈ": 3090,
      "14": 3091,
      "##ጽል": 3092,
      "ዝሰ": 3093,
      "##ነይ": 3094,
      "በሎ": 3095,
      "ፖለቲካ": 3096,
      "##ክዕ": 3097,
      "ፍቕሪ": 3098,
      "ህግደፍ": 3099,
      "ቋንቋ": 3100,
      "መንጎ": 3101,
      "ኢን": 3102,
      "##ጽን": 3103,
      "ግብ": 3104,
      "##ዳር": 3105,
      "ብሓቂ": 3106,
      "ብድ": 3107,
      "ደገ": 3108,
      "ይኸውን": 3109,
      "ኢየሱስ": 3110,
      "ክህ": 3111,
      "##ድልየ": 3112,
      "ንደ": 3113,
      "##በኣ": 3114,
      "##መስል": 3115,
      "ተጠ": 3116,
      "ሞት": 3117,
      "##ጻሕ": 3118,
      "##ረጃ": 3119,
      "ሰማ": 3120,
      "##በን": 3121,
      "መዝ": 3122,
      "##ራር": 3123,
      "ኣዋ": 3124,
      "##ጽሕ": 3125,
      "ብዘ": 3126,
      "ሓሳብ": 3127,
      "##ወን": 3128,
      "##ሕዝ": 3129,
      "ትር": 3130,
      "##ዋት": 3131,
      "##ከል": 3132,
      "ተዋ": 3133,
      "##ደለ": 3134,
      "ክነ": 3135,
      "ንሰ": 3136,
      "መልሲ": 3137,
      "ምት": 3138,
      "##ፋል": 3139,
      "##ላል": 3140,
      "ሓይሊ": 3141,
      "##ፍን": 3142,
      "##ዕን": 3143,
      "##ኻን": 3144,
      "ዝነበሩ": 3145,
      "ዝኽእል": 3146,
      "ምግ": 3147,
      "##ሳስ": 3148,
      "ተባሂ": 3149,
      "ንኹ": 3150,
      "እየን": 3151,
      "መጺ": 3152,
      "ንዕ": 3153,
      "ኣይነበረ": 3154,
      "ክርስት": 3155,
      "##አን": 3156,
      "የብሉን": 3157,
      "##መራ": 3158,
      "##ደም": 3159,
      "##ገብሩ": 3160,
      "##ልዑ": 3161,
      "ምኽንያቱ": 3162,
      "ኣማ": 3163,
      "ለው": 3164,
      "ዝተፈላለ": 3165,
      "ዘለና": 3166,
      "ኩሎም": 3167,
      "##ቦን": 3168,
      "ኣገዳሲ": 3169,
      "##ረስ": 3170,
      "ዘይኮነ": 3171,
      "ዘየ": 3172,
      "##ለማ": 3173,
      "ኪኸውን": 3174,
      "ፍሉ": 3175,
      "##ድካ": 3176,
      "ወሲ": 3177,
      "##re": 3178,
      "ሓገዝ": 3179,
      "ኣሎና": 3180,
      "መንገዲ": 3181,
      "##ድሊ": 3182,
      "ሰዓት": 3183,
      "ኢትዮጵያ": 3184,
      "መለ": 3185,
      "##ልም": 3186,
      "መንፈስ": 3187,
      "ሃይ": 3188,
      "መግለ": 3189,
      "በሎም": 3190,
      "##ሓስ": 3191,
      "##ሽተ": 3192,
      "ተጋ": 3193,
      "ኣሜ": 3194,
      "ስነ": 3195,
      "ሓላ": 3196,
      "##በየ": 3197,
      "ብግ": 3198,
      "ወረ": 3199,
      "ሰብኣይ": 3200,
      "ሰማይ": 3201,
      "ኣላ": 3202,
      "##ፈልጡ": 3203,
      "ብሕ": 3204,
      "##ራብ": 3205,
      "##ካየ": 3206,
      "ክም": 3207,
      "##ዊሕ": 3208,
      "እወ": 3209,
      "##ስም": 3210,
      "##ዙይ": 3211,
      "##ናዊ": 3212,
      "ተረ": 3213,
      "##ቡር": 3214,
      "##ታቶም": 3215,
      "ኣብታ": 3216,
      "##ሳኺ": 3217,
      "ነፍሲ": 3218,
      "ንላ": 3219,
      "ወከፍ": 3220,
      "##ደር": 3221,
      "##ቢት": 3222,
      "ተኸ": 3223,
      "ነይሮም": 3224,
      "ክፍሊ": 3225,
      "##ዓተ": 3226,
      "##ድር": 3227,
      "##ንቀ": 3228,
      "ተራ": 3229,
      "ኣበይ": 3230,
      "እንሆ": 3231,
      "##ግጽ": 3232,
      "##ኸይድ": 3233,
      "ደቀ": 3234,
      "ተዓ": 3235,
      "ከነ": 3236,
      "ናብቲ": 3237,
      "##ኻትኩም": 3238,
      "ዘላ": 3239,
      "13": 3240,
      "##ብሃል": 3241,
      "ፍቓ": 3242,
      "ዝሓለፈ": 3243,
      "ዝር": 3244,
      "መብዛ": 3245,
      "##ፍቅ": 3246,
      "መጀመር": 3247,
      "ኽን": 3248,
      "##ሕን": 3249,
      "##ሃር": 3250,
      "ክር": 3251,
      "ጸኒ": 3252,
      "##ፍር": 3253,
      "ነበሩ": 3254,
      "ዕለት": 3255,
      "##በራ": 3256,
      "##ናል": 3257,
      "ሃብ": 3258,
      "##ፍት": 3259,
      "መልእ": 3260,
      "##ተት": 3261,
      "##ልፍ": 3262,
      "16": 3263,
      "ደው": 3264,
      "##ሓይ": 3265,
      "##ንግ": 3266,
      "ኣገልግሎት": 3267,
      "##ላው": 3268,
      "ገና": 3269,
      "##ብላ": 3270,
      "##ልዓ": 3271,
      "ፍት": 3272,
      "##ገልጽ": 3273,
      "ኣደ": 3274,
      "##ሙር": 3275,
      "##ብሎም": 3276,
      "17": 3277,
      "ኣኼ": 3278,
      "ቀዳማይ": 3279,
      "ኣይኰነን": 3280,
      "ይቕ": 3281,
      "##ራዊት": 3282,
      "ስደ": 3283,
      "ብሰ": 3284,
      "##ምልከት": 3285,
      "ትሕቲ": 3286,
      "ነይረ": 3287,
      "##ናዮ": 3288,
      "##ኣን": 3289,
      "##ዳም": 3290,
      "ብዓ": 3291,
      "ንላዕሊ": 3292,
      "##መረ": 3293,
      "##ጥም": 3294,
      "##ሎን": 3295,
      "ሰበይቲ": 3296,
      "ስልጣን": 3297,
      "እንተዘይ": 3298,
      "ካልኣይ": 3299,
      "መጠን": 3300,
      "ጸገም": 3301,
      "ሓቢ": 3302,
      "ትን": 3303,
      "መሰል": 3304,
      "ትግራይ": 3305,
      "ወጻኢ": 3306,
      "ተማ": 3307,
      "##ኢት": 3308,
      "##ርእዮ": 3309,
      "##ኽን": 3310,
      "##ይኖም": 3311,
      "##ዉን": 3312,
      "##ኡን": 3313,
      "##ህበ": 3314,
      "እተን": 3315,
      "##ጥቃ": 3316,
      "##የን": 3317,
      "ከቢ": 3318,
      "ብቐ": 3319,
      "::": 3320,
      "##ሳን": 3321,
      "##ዖም": 3322,
      "ምህ": 3323,
      "ይግባእ": 3324,
      "##ዝቢ": 3325,
      "##ፎም": 3326,
      "ኣኼባ": 3327,
      "ንኣብ": 3328,
      "##ቅስ": 3329,
      "##ግረ": 3330,
      "##ገን": 3331,
      "ጽሑፍ": 3332,
      "##ባሕ": 3333,
      "##መት": 3334,
      "ሰብኣ": 3335,
      "##ራኸ": 3336,
      "##ማኖ": 3337,
      "##ሞክ": 3338,
      "ኣባላት": 3339,
      "ሰዓ": 3340,
      "ርክብ": 3341,
      "ዝቐ": 3342,
      "ፈተ": 3343,
      "ኣይነበረን": 3344,
      "##እን": 3345,
      "ዘይት": 3346,
      "መግለጺ": 3347,
      "ተን": 3348,
      "ደረጃ": 3349,
      "##ምሮ": 3350,
      "ለውጢ": 3351,
      "ዝፍ": 3352,
      "ተቓ": 3353,
      "ምጽ": 3354,
      "ደጊ": 3355,
      "##ሳዊ": 3356,
      "##ዋይ": 3357,
      "እናተ": 3358,
      "ዝለ": 3359,
      "##ብረት": 3360,
      "ውሳ": 3361,
      "ሳዕ": 3362,
      "##ርጋ": 3363,
      "ንኽእል": 3364,
      "አይ": 3365,
      "ንኣምላኽ": 3366,
      "##ኑዕ": 3367,
      "##ባን": 3368,
      "መሊ": 3369,
      "ሰሙን": 3370,
      "ብፍላይ": 3371,
      "ሰሚ": 3372,
      "##የት": 3373,
      "ዅሉ": 3374,
      "##ሬት": 3375,
      "ኣይክእ": 3376,
      "##ግም": 3377,
      "ዘለዎም": 3378,
      "##ብራ": 3379,
      "##ጠፍ": 3380,
      "##ሽን": 3381,
      "##ጅለ": 3382,
      "ሕማም": 3383,
      "ዘይም": 3384,
      "ስጋ": 3385,
      "ዘመ": 3386,
      "ምዝ": 3387,
      "ካብኡ": 3388,
      "ተዛ": 3389,
      "ንዅ": 3390,
      "ገይሩ": 3391,
      "ድሕ": 3392,
      "##ተወ": 3393,
      "ኢዮም": 3394,
      "##ረድ": 3395,
      "ሕዚ": 3396,
      "ኰይኑ": 3397,
      "ዝኸውን": 3398,
      "##ነቱ": 3399,
      "ባሕሪ": 3400,
      "ዜና": 3401,
      "##ዳያት": 3402,
      "ጓል": 3403,
      "ሓለ": 3404,
      "##ጥፍ": 3405,
      "ንስኻትኩም": 3406,
      "##ለኒ": 3407,
      "ግናኸ": 3408,
      "##ቡራት": 3409,
      "##ቐት": 3410,
      "ከምዘይ": 3411,
      "ዘበለ": 3412,
      "ብት": 3413,
      "##ሖም": 3414,
      "##በኣር": 3415,
      "ትእ": 3416,
      "##ፈልጥን": 3417,
      "##ለዉ": 3418,
      "ሃገራዊ": 3419,
      "ኣሜሪካ": 3420,
      "ኣበ": 3421,
      "ዕላማ": 3422,
      "##ህብ": 3423,
      "##ጢኣት": 3424,
      "ዳዊት": 3425,
      "ጥዕና": 3426,
      "##ግለ": 3427,
      "ብወ": 3428,
      "##ኑን": 3429,
      "ኢልና": 3430,
      "##ግእ": 3431,
      "ንኣብነት": 3432,
      "##ባዕተ": 3433,
      "##ስትዮ": 3434,
      "##ክዎ": 3435,
      "ዕድል": 3436,
      "ዓቕ": 3437,
      "ኣፍሪ": 3438,
      "##ኻል": 3439,
      "ኣዕ": 3440,
      "ትብል": 3441,
      "የል": 3442,
      "ግብሪ": 3443,
      "ወይስ": 3444,
      "##ዘር": 3445,
      "##ስዕብ": 3446,
      "መላእ": 3447,
      "ተባሂሉ": 3448,
      "ሙሴ": 3449,
      ":-": 3450,
      "##ኩምን": 3451,
      "መሪ": 3452,
      "##ሓደ": 3453,
      "ጀሚሩ": 3454,
      "##ስታት": 3455,
      "ሓያ": 3456,
      "ዝያዳ": 3457,
      "ዝው": 3458,
      "##ሮጳ": 3459,
      "ንክ": 3460,
      "ንድ": 3461,
      "ሓዲ": 3462,
      "ኣለዋ": 3463,
      "ንወ": 3464,
      "ብምባል": 3465,
      "ሓሳ": 3466,
      "መደብ": 3467,
      "ዘመን": 3468,
      "ደር": 3469,
      "##ግን": 3470,
      "ይሕ": 3471,
      "ነበር": 3472,
      "ኣካል": 3473,
      "ምግባር": 3474,
      "፧\"": 3475,
      "##ጉም": 3476,
      "ክህል": 3477,
      "##ፋት": 3478,
      "ውል": 3479,
      "##ሳተ": 3480,
      "ኣሰ": 3481,
      "##ጥን": 3482,
      "ከቢድ": 3483,
      "##ዕለ": 3484,
      "200": 3485,
      "ረኺ": 3486,
      "##ዕዞ": 3487,
      "##ረይ": 3488,
      "ዘተ": 3489,
      "ዓብዪ": 3490,
      "ተበ": 3491,
      "##ዋር": 3492,
      "##ጻር": 3493,
      "##ደልዩ": 3494,
      "##ጥሮ": 3495,
      "ዝጸ": 3496,
      "##ልፊ": 3497,
      "ኣቐ": 3498,
      "ገጽ": 3499,
      "ምስኡ": 3500,
      "ዜጋ": 3501,
      "##ጥር": 3502,
      "##ሓር": 3503,
      "በብ": 3504,
      "ካብቶም": 3505,
      "##ካዮ": 3506,
      "ክልቲ": 3507,
      "ምርጫ": 3508,
      "ልም": 3509,
      "ጸጋ": 3510,
      "ቀንዲ": 3511,
      "##ጽሪ": 3512,
      "ይም": 3513,
      "ኮነ": 3514,
      "ኢድ": 3515,
      "24": 3516,
      "##ሃበ": 3517,
      "የልቦን": 3518,
      "ኣመሪካ": 3519,
      "ይፍ": 3520,
      "ህይወ": 3521,
      "##ዳት": 3522,
      "ሓሙ": 3523,
      "ኣህ": 3524,
      "##ወይ": 3525,
      "ጸሎት": 3526,
      "##ሞን": 3527,
      "ወን": 3528,
      "ደም": 3529,
      "መሳ": 3530,
      "##ልዎ": 3531,
      "##መሰ": 3532,
      "##ሞክራ": 3533,
      "30": 3534,
      "##ቤት": 3535,
      "ዋጋ": 3536,
      "ሓደጋ": 3537,
      "##ታሕ": 3538,
      "##ሪቡ": 3539,
      "ፍሉይ": 3540,
      "ዘይብሉ": 3541,
      "##ቡእ": 3542,
      "አሎ": 3543,
      "22": 3544,
      "ክወ": 3545,
      "ንሓደ": 3546,
      "ልቢ": 3547,
      "ኣታ": 3548,
      "ነዊሕ": 3549,
      "ኸተ": 3550,
      "##ጠር": 3551,
      "ውድብ": 3552,
      "ኣኽ": 3553,
      "ሃይማኖ": 3554,
      "##ሊፉ": 3555,
      "##ድም": 3556,
      "ማሕበ": 3557,
      "ብመን": 3558,
      "##ራም": 3559,
      "##በሃል": 3560,
      "ክፋል": 3561,
      "ሕይወት": 3562,
      "ኣጸ": 3563,
      "##ሩብ": 3564,
      "ንምንታይ": 3565,
      "ኔሩ": 3566,
      "ንኸ": 3567,
      "እምበኣር": 3568,
      "##ካየድ": 3569,
      "##ጽበ": 3570,
      "ወት": 3571,
      "ንው": 3572,
      "##ትታት": 3573,
      "ኣለዎም": 3574,
      "ቃልሲ": 3575,
      "ምናል": 3576,
      "ፖሊ": 3577,
      "##ኣቶም": 3578,
      "ብህ": 3579,
      "ፕሮ": 3580,
      "ባዕሉ": 3581,
      "ኣርባዕተ": 3582,
      "ኣፍሪቃ": 3583,
      "ሰን": 3584,
      "##ልቲ": 3585,
      "##ምካ": 3586,
      "ይስ": 3587,
      "ክርስትያን": 3588,
      "ዘሎና": 3589,
      "##ሮን": 3590,
      "ድምጺ": 3591,
      "##ዒት": 3592,
      "እንተኾ": 3593,
      "ፖለቲካዊ": 3594,
      "##ጣዕ": 3595,
      "መቕ": 3596,
      "##ሰርተ": 3597,
      "##ነበረ": 3598,
      "ሰይ": 3599,
      "##ውት": 3600,
      "##ረም": 3601,
      "እንከሎ": 3602,
      "እንት": 3603,
      "መብዛሕት": 3604,
      "##ቕን": 3605,
      "ንኹሉ": 3606,
      "ዝኽ": 3607,
      "##ዝን": 3608,
      "ሚኒ": 3609,
      "ኣቦይ": 3610,
      "ኣገባብ": 3611,
      "25": 3612,
      "##ልው": 3613,
      "ብው": 3614,
      "##ስነት": 3615,
      "##ስኻ": 3616,
      "##ህለ": 3617,
      "ስለዝኾነ": 3618,
      "ፍርዲ": 3619,
      "ከይተ": 3620,
      "ጀር": 3621,
      "ንመን": 3622,
      "ኢያ": 3623,
      "##ኣኽ": 3624,
      "##ርቲ": 3625,
      "ብርሃን": 3626,
      "ስእ": 3627,
      "##ባኤ": 3628,
      "በሉ": 3629,
      "##ርከቡ": 3630,
      "ንጥ": 3631,
      "##ስካ": 3632,
      "ምበር": 3633,
      "አምላኽ": 3634,
      "##ስቲያን": 3635,
      "ዕድመ": 3636,
      "##ኣቱ": 3637,
      "ዝስ": 3638,
      "ኣይክእልን": 3639,
      "ዝርከብ": 3640,
      "##ለና": 3641,
      "ዝተፈ": 3642,
      "መሬት": 3643,
      "##መድ": 3644,
      "##en": 3645,
      "##ርያም": 3646,
      "ኣቕ": 3647,
      "ሰናይ": 3648,
      "መዛ": 3649,
      "##ርዎ": 3650,
      "ሓላፍ": 3651,
      "መልእኽቲ": 3652,
      "ዝተወ": 3653,
      "##ሳሳ": 3654,
      "መረ": 3655,
      "##ሎስ": 3656,
      "ኣለው": 3657,
      "##ልኪ": 3658,
      "ሳል": 3659,
      "21": 3660,
      "ዘረባ": 3661,
      "ብዝተ": 3662,
      "##ልያ": 3663,
      "##ርክ": 3664,
      "##ሳሌ": 3665,
      "##ላትና": 3666,
      "ፍልጠ": 3667,
      "##ማም": 3668,
      "ካባ": 3669,
      "ዕዮ": 3670,
      "መንእሰ": 3671,
      "##ልዩ": 3672,
      "##ደንት": 3673,
      "ናይዚ": 3674,
      "##ሪት": 3675,
      "##ኽእልን": 3676,
      "ትም": 3677,
      "##እት": 3678,
      "ክቕ": 3679,
      "ጉጅለ": 3680,
      "ሓን": 3681,
      "ይኽእሉ": 3682,
      "ቃላት": 3683,
      "ነዛ": 3684,
      "##ኣለም": 3685,
      "23": 3686,
      "ሕቶታት": 3687,
      "##በሪ": 3688,
      "በታ": 3689,
      "##ሰምዕ": 3690,
      "##ደገ": 3691,
      "ሕቡራት": 3692,
      "ኣዚ": 3693,
      "##ሰት": 3694,
      "ምቕ": 3695,
      "ሰነ": 3696,
      "ሕብረ": 3697,
      "ዘጋ": 3698,
      "ዘለኹ": 3699,
      "ክው": 3700,
      "የብል": 3701,
      "##ረፈ": 3702,
      "ኵሎም": 3703,
      "ኣተ": 3704,
      "ክንዲ": 3705,
      "ሽሕ": 3706,
      "##ላጥ": 3707,
      "ግብጺ": 3708,
      "ኣምላ": 3709,
      "ኤው": 3710,
      "ፈጺ": 3711,
      "ንጽ": 3712,
      "##ርግ": 3713,
      "##ጽነት": 3714,
      "ህያ": 3715,
      "ዝሕ": 3716,
      "ይከኣል": 3717,
      "ተጻ": 3718,
      "ሓር": 3719,
      "##ሃሮ": 3720,
      "እዋ": 3721,
      "ምዃን": 3722,
      "##ሊል": 3723,
      "##ርኩም": 3724,
      "##ኣም": 3725,
      "##ሞት": 3726,
      "ስደተኛታት": 3727,
      "ኣይከኣ": 3728,
      "##ረኽቡ": 3729,
      "ሰራዊት": 3730,
      "ጌጋ": 3731,
      "##ደስ": 3732,
      "ኣሎኹ": 3733,
      "ኢላ": 3734,
      "##ዓለ": 3735,
      "ህጻ": 3736,
      "##መሉ": 3737,
      "ጉባኤ": 3738,
      "##ቀት": 3739,
      "ፕረ": 3740,
      "ክሕ": 3741,
      "ህዝብ": 3742,
      "##ሳሳሊ": 3743,
      "ፍቓድ": 3744,
      "##ህሉ": 3745,
      "ቀረባ": 3746,
      "ብሰን": 3747,
      "ተደ": 3748,
      "ኣስተ": 3749,
      "##ዋዕ": 3750,
      "ዘለዋ": 3751,
      "##ንብ": 3752,
      "ጽሕ": 3753,
      "ክመ": 3754,
      "##ክእል": 3755,
      "ንዓይ": 3756,
      "ጀርመን": 3757,
      "ጸብ": 3758,
      "ብጣዕ": 3759,
      "##ጸም": 3760,
      "ትእዛ": 3761,
      "ምምሕ": 3762,
      "ዘይኰ": 3763,
      "ባይቶ": 3764,
      "##ህን": 3765,
      "##ቅን": 3766,
      "ወላ": 3767,
      "ወትሩ": 3768,
      "ነጻ": 3769,
      "ዓበይቲ": 3770,
      "##ታል": 3771,
      "##ፍራ": 3772,
      "##er": 3773,
      "##ተኛ": 3774,
      "ብዕ": 3775,
      "ነጥ": 3776,
      "ጥቕ": 3777,
      "ርእሱ": 3778,
      "ንኽት": 3779,
      "ዓሰርተ": 3780,
      "ኪዳን": 3781,
      "ምናልባት": 3782,
      "እዝ": 3783,
      "ልክዕ": 3784,
      "ድኣ": 3785,
      "##ስሳ": 3786,
      "##ጹም": 3787,
      "##ሓትት": 3788,
      "ግድን": 3789,
      "##ልድ": 3790,
      "##ታው": 3791,
      "መሰረት": 3792,
      "ኣርእ": 3793,
      "ውግእ": 3794,
      "መጀመርታ": 3795,
      "ዝበሃል": 3796,
      "ብቕ": 3797,
      "ብጣዕሚ": 3798,
      "##ጣሚ": 3799,
      "መስርሕ": 3800,
      "ዞባ": 3801,
      "ልዑ": 3802,
      "እነ": 3803,
      "##ታትና": 3804,
      "##ድዮ": 3805,
      "ይው": 3806,
      "ተመሊ": 3807,
      "ማሕበር": 3808,
      "##ድሪ": 3809,
      "##ይዎ": 3810,
      "መጸ": 3811,
      "ትግር": 3812,
      "ኣእምሮ": 3813,
      "##on": 3814,
      "ኣተሓ": 3815,
      "##ውሎስ": 3816,
      "##ድኣ": 3817,
      "##ርሲ": 3818,
      "ይመስ": 3819,
      "ሓው": 3820,
      "ኣይክ": 3821,
      "መጻኢ": 3822,
      "ዝነበር": 3823,
      "ይርከብ": 3824,
      "ኣብዛ": 3825,
      "##ሩሳሌ": 3826,
      "ግም": 3827,
      "ዕዳ": 3828,
      "ጽባሕ": 3829,
      "##ታተ": 3830,
      "ዝኾ": 3831,
      "##ሰድ": 3832,
      "ሕብረተ": 3833,
      "ኣሕዋ": 3834,
      "##ኦን": 3835,
      "ዝኾኑ": 3836,
      "ይብሉ": 3837,
      "##ጠቕ": 3838,
      "ትግርኛ": 3839,
      "##ብካ": 3840,
      "ሰራሕ": 3841,
      "##ነብሩ": 3842,
      "##ደና": 3843,
      "##ዛብ": 3844,
      "ንርእ": 3845,
      "##ዓዝ": 3846,
      "ብዘይካ": 3847,
      "ሃገርና": 3848,
      "ጻዕ": 3849,
      "##ሓድ": 3850,
      "ክእ": 3851,
      "እግ": 3852,
      "##ፍል": 3853,
      "##ጅምር": 3854,
      "##ዛረቡ": 3855,
      "ክፉ": 3856,
      "ኤውሮጳ": 3857,
      "##ሃደ": 3858,
      "##ለወ": 3859,
      "ኣቐዲ": 3860,
      "##ቱም": 3861,
      "ማእከል": 3862,
      "ዝቕ": 3863,
      "##ወስድ": 3864,
      "፡-": 3865,
      "ብርግጽ": 3866,
      "ምኽሪ": 3867,
      "##ብቲ": 3868,
      "ቆልዑ": 3869,
      "ትማ": 3870,
      "##ድሚ": 3871,
      "ገዛእ": 3872,
      "ትካል": 3873,
      "##ረና": 3874,
      "##ልሚ": 3875,
      "ዝበዝ": 3876,
      "ብሓደ": 3877,
      "ደስ": 3878,
      "##ግሊ": 3879,
      "##ሸት": 3880,
      "ብመሰ": 3881,
      "ክስ": 3882,
      "ንሰብ": 3883,
      "ዳርጋ": 3884,
      "ህዝባዊ": 3885,
      "ብሓባር": 3886,
      "##ሕል": 3887,
      "ጉዕዞ": 3888,
      "ኹሉ": 3889,
      "##ዛእ": 3890,
      "በጃ": 3891,
      "መንእሰያት": 3892,
      "ምባል": 3893,
      "##ጽር": 3894,
      "ንዘለ": 3895,
      "ንጹ": 3896,
      "##ti": 3897,
      "##ምለ": 3898,
      "ሓጢኣት": 3899,
      "ጽን": 3900,
      "##ታቱ": 3901,
      "ውጽ": 3902,
      "መንእሰይ": 3903,
      "ክርስቲያን": 3904,
      "ክገብር": 3905,
      "ሽወ": 3906,
      "ተጸ": 3907,
      "ወንጌ": 3908,
      "ለይቲ": 3909,
      "እቲኣ": 3910,
      "መቐ": 3911,
      "##ምስ": 3912,
      "መሓ": 3913,
      "ፍረ": 3914,
      "##በና": 3915,
      "##ውቲ": 3916,
      "ምዕራ": 3917,
      "ሕብረት": 3918,
      "##ንና": 3919,
      "##ክሮ": 3920,
      "ኣዒ": 3921,
      "##ሩን": 3922,
      "ብተወ": 3923,
      "መዓስ": 3924,
      "ብን": 3925,
      "ኣዲ": 3926,
      "##ልታት": 3927,
      "##ጾም": 3928,
      "ኸይ": 3929,
      "ይግ": 3930,
      "መራሕ": 3931,
      "##ጻብ": 3932,
      "ትርጉም": 3933,
      "ሰልፊ": 3934,
      "ብደ": 3935,
      "ማሕበራዊ": 3936,
      "##ረበ": 3937,
      "ባህር": 3938,
      "መዓልታት": 3939,
      "##ሩሳሌም": 3940,
      "ኰነ": 3941,
      "##ክርስ": 3942,
      "ጳውሎስ": 3943,
      "##ንዳ": 3944,
      "##ርአ": 3945,
      "ምስቲ": 3946,
      "ተነ": 3947,
      "ሓዊ": 3948,
      "ንእግዚ": 3949,
      "ብኽ": 3950,
      "፣+": 3951,
      "ሕማቕ": 3952,
      "ኣንስትዮ": 3953,
      "##ዳስ": 3954,
      "ዓው": 3955,
      "##ጋዊ": 3956,
      "መሰረ": 3957,
      "ዝተፈላለዩ": 3958,
      "##ኣና": 3959,
      "##ቦት": 3960,
      "##ሕግዘ": 3961,
      "ኮን": 3962,
      "##ኣል": 3963,
      "ኣዘ": 3964,
      "ፈሊ": 3965,
      "ብድሕሪ": 3966,
      "##ቕር": 3967,
      "ቀደም": 3968,
      "ክብሪ": 3969,
      "##ሶት": 3970,
      "ርእይቶ": 3971,
      "ዘፍ": 3972,
      "ትኽእሉ": 3973,
      "ዓወት": 3974,
      "##ሰርሑ": 3975,
      "##ክክ": 3976,
      "##ዀነ": 3977,
      "ኣብነት": 3978,
      "##ውዕ": 3979,
      "ንየ": 3980,
      "ሚል": 3981,
      "ምኻ": 3982,
      "##ዓኒ": 3983,
      "##ህቦ": 3984,
      "ኣባል": 3985,
      "26": 3986,
      "ጸገ": 3987,
      "##ኣምን": 3988,
      "ኸተማ": 3989,
      "##ዝር": 3990,
      "ዀይኑ": 3991,
      "ሓሙሽተ": 3992,
      "ክተ": 3993,
      "##ይነ": 3994,
      "##ረኽቦ": 3995,
      "መከ": 3996,
      "ዝግ": 3997,
      "ምንቅስ": 3998,
      "ዝጸን": 3999,
      "##ኩዎ": 4000,
      "##ሳእ": 4001,
      "ደቡ": 4002,
      "ዚብል": 4003,
      "##ፈሻ": 4004,
      "##ርሃ": 4005,
      "ፊልም": 4006,
      "ሓላፍነት": 4007,
      "ብብ": 4008,
      "##ናዕቲ": 4009,
      "ናጽነት": 4010,
      "፡+": 4011,
      "ረኣ": 4012,
      "ንምፍ": 4013,
      "ይወ": 4014,
      "ጌርካ": 4015,
      "ነይራ": 4016,
      "##ድቕ": 4017,
      "ብተወሳኺ": 4018,
      "##ሱን": 4019,
      "ኮይኖም": 4020,
      "ቅኑዕ": 4021,
      "##ለካ": 4022,
      "ገዲ": 4023,
      "ኣይፈልጥን": 4024,
      "ንእሽ": 4025,
      "##ቃስ": 4026,
      "መስዋ": 4027,
      "##ጠመ": 4028,
      "ማእከ": 4029,
      "ዝኣመሰ": 4030,
      "ዲኻ": 4031,
      "##ኻኽ": 4032,
      "##ጐስ": 4033,
      "ልዑል": 4034,
      "ንተ": 4035,
      "##ላቶም": 4036,
      "##ብዎ": 4037,
      "##ኪና": 4038,
      "መግቢ": 4039,
      "ብናይ": 4040,
      "ቀል": 4041,
      "ጥን": 4042,
      "ልብ": 4043,
      "ናባ": 4044,
      "ንቕ": 4045,
      "ማቴ": 4046,
      "ሰበይ": 4047,
      "ዝሃ": 4048,
      "ወያ": 4049,
      "ህወ": 4050,
      "##ከም": 4051,
      "##ዩን": 4052,
      "ተም": 4053,
      "መጋ": 4054,
      "##ፈቱ": 4055,
      "ኣጋጣሚ": 4056,
      "ደጊም": 4057,
      "ኣወ": 4058,
      "##ፈለ": 4059,
      "ኮይና": 4060,
      "##ሰነ": 4061,
      "ብሰንኪ": 4062,
      "ተግባር": 4063,
      "መራ": 4064,
      "ማርያም": 4065,
      "ዕን": 4066,
      "ኣቢሉ": 4067,
      "##ጥታ": 4068,
      "እዙይ": 4069,
      "ሽወደን": 4070,
      "ይጽ": 4071,
      "##ደሉ": 4072,
      "መድረኽ": 4073,
      "ምስጢ": 4074,
      "##ከር": 4075,
      "ትማሊ": 4076,
      "ንዓኻ": 4077,
      "ከምዘሎ": 4078,
      "ግዝ": 4079,
      "##ዕር": 4080,
      "ገሊኦም": 4081,
      "በረ": 4082,
      "ዝመጽእ": 4083,
      "ይመ": 4084,
      "ኣይም": 4085,
      "ተግባ": 4086,
      "##ልል": 4087,
      "ሰብኣዊ": 4088,
      "ምሳይ": 4089,
      "ሰይጣን": 4090,
      "በጺ": 4091,
      "ፍልጠት": 4092,
      "##ሰሉ": 4093,
      "ተሳ": 4094,
      "##ለዎ": 4095,
      "ዝደ": 4096,
      "ፍትሒ": 4097,
      "##ረኒ": 4098,
      "እንድ": 4099,
      "##ልዋ": 4100,
      "\"።": 4101,
      "ውሉ": 4102,
      "##ጥረት": 4103,
      "ጥበ": 4104,
      "ስለዘ": 4105,
      "ተኻ": 4106,
      "ዝምልከት": 4107,
      "##ግና": 4108,
      "##ላንድ": 4109,
      "28": 4110,
      "##ውጽ": 4111,
      "##ይሩ": 4112,
      "ሰሪ": 4113,
      "ኣይመስ": 4114,
      "ክትከውን": 4115,
      "ውሑ": 4116,
      "ኣለካ": 4117,
      "እንግሊ": 4118,
      "ዝግበር": 4119,
      "ትሕዝ": 4120,
      "##ላኢ": 4121,
      "##ራትን": 4122,
      "##ልማት": 4123,
      "መና": 4124,
      "##ንጻ": 4125,
      "##ካብ": 4126,
      "##ካል": 4127,
      "ድል": 4128,
      "##ካይ": 4129,
      "ኣዳ": 4130,
      "ክንድ": 4131,
      "ሓቀ": 4132,
      "ብምዃ": 4133,
      "ኣስመራ": 4134,
      "ጎይታ": 4135,
      "ናብኡ": 4136,
      "ከመይሲ": 4137,
      "ዝገበረ": 4138,
      "ፍጻ": 4139,
      "ዝገበር": 4140,
      "##ጎስ": 4141,
      "##ቀል": 4142,
      "ተገሊ": 4143,
      "ክኸ": 4144,
      "##ቡን": 4145,
      "መበል": 4146,
      "##ኩሉ": 4147,
      "ዝብሉ": 4148,
      "ጉዳያት": 4149,
      "መሲ": 4150,
      "##ጽም": 4151,
      "ጋዜ": 4152,
      "##ኒት": 4153,
      "##ልተ": 4154,
      "ቀጺ": 4155,
      "##በላ": 4156,
      "ንዕኡ": 4157,
      "##ርኣ": 4158,
      "ሂወት": 4159,
      "##or": 4160,
      "ብሉ": 4161,
      "ዓር": 4162,
      "##ቆብ": 4163,
      "##ይት": 4164,
      "ዝገብር": 4165,
      "ትጽ": 4166,
      "ኣፈ": 4167,
      "ዝበሎ": 4168,
      "ኢሳ": 4169,
      "##ምዕ": 4170,
      "##በጽ": 4171,
      "ርእሲ": 4172,
      "##ብሓ": 4173,
      "##ዚደንት": 4174,
      "##ሃንስ": 4175,
      "ኣብርሃ": 4176,
      "ምስጋ": 4177,
      "የድሊ": 4178,
      "ምሕረት": 4179,
      "እስከ": 4180,
      "##ሴፍ": 4181,
      "መዛሙር": 4182,
      "##ያታት": 4183,
      "ትካላት": 4184,
      "ኣይኮን": 4185,
      "##ስተር": 4186,
      "ሰላ": 4187,
      "##ea": 4188,
      "ፈሪ": 4189,
      "##ጥረ": 4190,
      "ይፈልጥ": 4191,
      "##ምህ": 4192,
      "##in": 4193,
      "ሞይ": 4194,
      "ንጉ": 4195,
      "ምብ": 4196,
      "ምዕባ": 4197,
      "ከይት": 4198,
      "##መና": 4199,
      "##ውነት": 4200,
      "ሕክ": 4201,
      "##ሓዝ": 4202,
      "##ምነት": 4203,
      "ድን": 4204,
      "ኲናት": 4205,
      "ማእሰር": 4206,
      "ወጺ": 4207,
      "##ያተ": 4208,
      "መበ": 4209,
      "ብጽ": 4210,
      "ከምዝተ": 4211,
      "ተወሳኺ": 4212,
      "እንተተ": 4213,
      "##ማር": 4214,
      "##om": 4215,
      "ዉን": 4216,
      "ድኻ": 4217,
      "ኣስታት": 4218,
      "ቀሊል": 4219,
      "##ዓልቲ": 4220,
      "##ንት": 4221,
      "ትዕ": 4222,
      "ህወሓት": 4223,
      "ውሳነ": 4224,
      "##ድሕን": 4225,
      "ወንጌል": 4226,
      "##ደራ": 4227,
      "ባን": 4228,
      "ብሩ": 4229,
      "ዘይኰነ": 4230,
      "ብመሰረት": 4231,
      "##ፍና": 4232,
      "ንዅሉ": 4233,
      "ኣጽ": 4234,
      "27": 4235,
      "##ጋሚ": 4236,
      "ወለዶ": 4237,
      "ዛንታ": 4238,
      "##ዕብ": 4239,
      "ውልቀ": 4240,
      "ሰሜ": 4241,
      "##ያትን": 4242,
      "ላዕሊ": 4243,
      "ቓል": 4244,
      "ዚኽእል": 4245,
      "##ፍካ": 4246,
      "ውሕ": 4247,
      "ክኢ": 4248,
      "ኮም": 4249,
      "##ስራ": 4250,
      "ሰዓታት": 4251,
      "ይመስል": 4252,
      "ዝዓበየ": 4253,
      "ሕብረተሰብ": 4254,
      "ቁጠ": 4255,
      "##ስታ": 4256,
      "##ዋርያ": 4257,
      "ድሕሪኡ": 4258,
      "ሓጺ": 4259,
      "##በሎ": 4260,
      "##ወር": 4261,
      "##ሓስብ": 4262,
      "ኲሉ": 4263,
      "##ዘራ": 4264,
      "ፍጹም": 4265,
      "##ሕና": 4266,
      "##ጻሊ": 4267,
      "እዚኣቶም": 4268,
      "##መስግ": 4269,
      "ኸምዚ": 4270,
      "ተሪ": 4271,
      "ኣገል": 4272,
      "ተመሳሳሊ": 4273,
      "ዘይኮነስ": 4274,
      "ዝተፈላለየ": 4275,
      "ጥበብ": 4276,
      "ምሸት": 4277,
      "መንበሪ": 4278,
      "እኮ": 4279,
      "ርኢ": 4280,
      "##ሁዳ": 4281,
      "ኤርትራውያን": 4282,
      "##ኻዊ": 4283,
      "ፍልል": 4284,
      "ዝጠ": 4285,
      "##ሁድ": 4286,
      "##ነቶም": 4287,
      "ክሓ": 4288,
      "##ቢሩ": 4289,
      "ተመል": 4290,
      "ፍቅ": 4291,
      "##ጸር": 4292,
      "ዘን": 4293,
      "ትሕዝቶ": 4294,
      "ጽድ": 4295,
      "ሰማያት": 4296,
      "##ሞክራሲ": 4297,
      "ጉድ": 4298,
      "ንዓና": 4299,
      "ኢኺ": 4300,
      "ንህዝቢ": 4301,
      "ኮሚ": 4302,
      "መጺኡ": 4303,
      "ኣቱም": 4304,
      "ይገብር": 4305,
      "ግደ": 4306,
      "##ዀኑ": 4307,
      "ፈር": 4308,
      "##ረአ": 4309,
      "##ሃሉ": 4310,
      "202": 4311,
      "ብእኡ": 4312,
      "ክታ": 4313,
      "ደቡብ": 4314,
      "##ሌት": 4315,
      "##ገበረ": 4316,
      "##ባእ": 4317,
      "##ማዊ": 4318,
      "##an": 4319,
      "ንል": 4320,
      "##በዝ": 4321,
      "ዝደሊ": 4322,
      "##ብዓ": 4323,
      "ሒዝ": 4324,
      "ንኻል": 4325,
      "ክብ": 4326,
      "ዘይን": 4327,
      "##ለው": 4328,
      "ይሓ": 4329,
      "##ለንን": 4330,
      "ሕክምና": 4331,
      "መስከ": 4332,
      "##የይ": 4333,
      "##ዋርያት": 4334,
      "##ሳስባ": 4335,
      "ዚኸውን": 4336,
      "##ልኻ": 4337,
      "ምንቅስቓ": 4338,
      "##ለየ": 4339,
      "ኣቲ": 4340,
      "##ረጽ": 4341,
      "##ገለ": 4342,
      "እዚኦም": 4343,
      "##ንኩ": 4344,
      "ምስክር": 4345,
      "ኣይኪ": 4346,
      "እንስሳ": 4347,
      "ዝተሓ": 4348,
      "ሓሳባት": 4349,
      "ዘለው": 4350,
      "ዝድ": 4351,
      "ምቅ": 4352,
      "##ይታይ": 4353,
      "##ጠራ": 4354,
      "ወተ": 4355,
      "##ላዕ": 4356,
      "እስራኤ": 4357,
      "##ጠረ": 4358,
      "ከብ": 4359,
      "ዝበሉ": 4360,
      "ምሳና": 4361,
      "ዝረኣ": 4362,
      "ገበር": 4363,
      "ክብሉ": 4364,
      "##ቕቲ": 4365,
      "ትፈልጥ": 4366,
      "##ርሒ": 4367,
      "##ዋም": 4368,
      "ምልክት": 4369,
      "ዝደለ": 4370,
      "ግበር": 4371,
      "##ብሮ": 4372,
      "##ልደ": 4373,
      "##ጋገ": 4374,
      "ወደ": 4375,
      "ዩኒ": 4376,
      "ትሕ": 4377,
      "ናትካ": 4378,
      "ወሰ": 4379,
      "##ኣክል": 4380,
      "ንሓድሕ": 4381,
      "ሓተ": 4382,
      "መንግስ": 4383,
      "ብጸ": 4384,
      "##ou": 4385,
      "ንን": 4386,
      "##ላውያን": 4387,
      "ናተይ": 4388,
      "ኣካላት": 4389,
      "##ባህለ": 4390,
      "መጽናዕቲ": 4391,
      "ስብ": 4392,
      "ዝስዕብ": 4393,
      "ጥዑ": 4394,
      "ንፈ": 4395,
      "##ጠና": 4396,
      "##ቡቅ": 4397,
      "እምብ": 4398,
      "ምሳኻ": 4399,
      "ተለ": 4400,
      "ራእ": 4401,
      "ኣንጻር": 4402,
      "መኣ": 4403,
      "ሰም": 4404,
      "ክህሉ": 4405,
      "ምንባር": 4406,
      "##ክስ": 4407,
      "##ድልዮ": 4408,
      "ገይረ": 4409,
      "ሚልዮን": 4410,
      "ዘሕ": 4411,
      "##ንቱ": 4412,
      "እንተኾይኑ": 4413,
      "ስእሊ": 4414,
      "ብ1": 4415,
      "ከዓ": 4416,
      "መንፈሳዊ": 4417,
      "ኤል": 4418,
      "ማእሰርቲ": 4419,
      "##ዕላ": 4420,
      "##ይረስ": 4421,
      "##ለድ": 4422,
      "Ne": 4423,
      "ሸው": 4424,
      "##የና": 4425,
      "ኣብያተ": 4426,
      "ህዝብና": 4427,
      "ኣዋርሕ": 4428,
      "##ዓን": 4429,
      "##ፎን": 4430,
      "ኢንተር": 4431,
      "##ዛረቦ": 4432,
      "##ሳቐ": 4433,
      "ንነፍ": 4434,
      "ጥር": 4435,
      "ዓባይ": 4436,
      "ንጸ": 4437,
      "##ውር": 4438,
      "ብምሉእ": 4439,
      "##ገስ": 4440,
      "##ore": 4441,
      "ዓቕሚ": 4442,
      "መብዛሕትኡ": 4443,
      "ክቡር": 4444,
      "ዘም": 4445,
      "መዝሙር": 4446,
      "ደብ": 4447,
      "መራሕቲ": 4448,
      "29": 4449,
      "ቻይና": 4450,
      "ነዞም": 4451,
      "ደን": 4452,
      "ግር": 4453,
      "ስለዘይ": 4454,
      "ዕዳጋ": 4455,
      "[.": 4456,
      "ይነ": 4457,
      "##እካ": 4458,
      "መምር": 4459,
      "##ረጋገ": 4460,
      "ጽሕፈት": 4461,
      "ቀልጢ": 4462,
      "ኽሳዕ": 4463,
      "##ዎስ": 4464,
      "ሞያ": 4465,
      "ኣቶ": 4466,
      "ጸኒሑ": 4467,
      "ርእሰ": 4468,
      "ንእሽቶ": 4469,
      "ሓሊፉ": 4470,
      "##ክርስት": 4471,
      "ያእ": 4472,
      "ይኸ": 4473,
      "ናቱ": 4474,
      "ዝረኸ": 4475,
      "##ጦም": 4476,
      "##ጽኡ": 4477,
      "##ወታ": 4478,
      "ደሊ": 4479,
      "##ፖርት": 4480,
      "##ሎምን": 4481,
      "##ጥሮስ": 4482,
      "##እና": 4483,
      "ንጥፈ": 4484,
      "....": 4485,
      "ዕለ": 4486,
      "##ውስ": 4487,
      "ምስሊ": 4488,
      "##ህልወ": 4489,
      "ንእግዚኣብ": 4490,
      "##ርእዩ": 4491,
      "ረብሓ": 4492,
      "መዓልትታት": 4493,
      "##ገልግል": 4494,
      "##ደልን": 4495,
      "ድሮ": 4496,
      "##ኹል": 4497,
      "ኣለኻ": 4498,
      "መዋ": 4499,
      "##አት": 4500,
      "ጸብጻብ": 4501,
      "መጻ": 4502,
      "ኣሕዋት": 4503,
      "እዘን": 4504,
      "##ሰል": 4505,
      "ሓራ": 4506,
      "ጸሎ": 4507,
      "##ናትን": 4508,
      "ኣትሒ": 4509,
      "ክርስትያ": 4510,
      "##ረፍ": 4511,
      "##ፋስ": 4512,
      "##ታዊት": 4513,
      "ሰፊ": 4514,
      "##ረሉ": 4515,
      "##ናዕ": 4516,
      "መጥቃ": 4517,
      "ዩኒቨ": 4518,
      "000": 4519,
      "ሃይማኖት": 4520,
      "ፖሊስ": 4521,
      "##ባትን": 4522,
      "##ላዉ": 4523,
      "ስጉ": 4524,
      "##ደኣ": 4525,
      "##ሊጡ": 4526,
      "##ኤን": 4527,
      "ምብራ": 4528,
      "##ውሞ": 4529,
      "ማዕረ": 4530,
      "ኣለኒ": 4531,
      "የብልናን": 4532,
      "ፕረዚደንት": 4533,
      "ኣይፈ": 4534,
      "እናበለ": 4535,
      "የሩሳሌም": 4536,
      "እንግሊዝ": 4537,
      "ንት": 4538,
      "የድልየ": 4539,
      "መስከረም": 4540,
      "##ስያ": 4541,
      "ዀነ": 4542,
      "##ጸል": 4543,
      "ኾይኑ": 4544,
      "##ፋን": 4545,
      "ዝበል": 4546,
      "ዝሓዘ": 4547,
      "ነበረት": 4548,
      "ቁጽሪ": 4549,
      "ቀይ": 4550,
      "ዋና": 4551,
      "##ሊሉ": 4552,
      "ዝመጸ": 4553,
      "ሽግር": 4554,
      "ከምዝኾነ": 4555,
      "ሓቲ": 4556,
      "ምምሕዳር": 4557,
      "##st": 4558,
      "መርዓ": 4559,
      "በልዎ": 4560,
      "ገሊጹ": 4561,
      "መራሒ": 4562,
      "ንሃ": 4563,
      "ገም": 4564,
      "##ትኻ": 4565,
      "ዮሴፍ": 4566,
      "ዝበለጸ": 4567,
      "ዶላ": 4568,
      "ምጥ": 4569,
      "መሪሕ": 4570,
      "ቅር": 4571,
      "ዘርኢ": 4572,
      "ዜጋታት": 4573,
      "ሓሶት": 4574,
      "ገይሮም": 4575,
      "ባር": 4576,
      "ደቅ": 4577,
      "##ዙሕ": 4578,
      "ከየ": 4579,
      "ዝተዋ": 4580,
      "ርሑ": 4581,
      "##በልና": 4582,
      "##ቐን": 4583,
      "ዝን": 4584,
      "##ኻልእ": 4585,
      "31": 4586,
      "##ሃት": 4587,
      "እንተዝ": 4588,
      "##ገልጸ": 4589,
      "##መጥ": 4590,
      "ሳልሳይ": 4591,
      "##ግስ": 4592,
      "##ላትን": 4593,
      "##ለሉ": 4594,
      "ፈተና": 4595,
      "ምዉ": 4596,
      "ባይታ": 4597,
      "##ለኹ": 4598,
      "ይብለ": 4599,
      "##ምድ": 4600,
      "ብኢ": 4601,
      "##ርካብ": 4602,
      "ሓያል": 4603,
      "ንባዕ": 4604,
      "ዘለኻ": 4605,
      "##ፈስ": 4606,
      "ሰንበት": 4607,
      "ሱዳን": 4608,
      "የብለ": 4609,
      "መምህር": 4610,
      "##ኻየ": 4611,
      "##ሞቱ": 4612,
      "ተራእ": 4613,
      "ኣጸቢ": 4614,
      "ታሕ": 4615,
      "ዳግ": 4616,
      "##ጸመ": 4617,
      "##ቱዕ": 4618,
      "##ቃል": 4619,
      "ማሕበረ": 4620,
      "ስጉምቲ": 4621,
      "##ልዮ": 4622,
      "ፈረን": 4623,
      "ብነ": 4624,
      "መገ": 4625,
      "መስዋእቲ": 4626,
      "ንኻልኦት": 4627,
      "ኣረ": 4628,
      "ቆልዓ": 4629,
      "##በጽሕ": 4630,
      "##ፈላለየ": 4631,
      "ኩልና": 4632,
      "##ደልዮ": 4633,
      "ቶም": 4634,
      "##ጢሩ": 4635,
      "ሕዝቢ": 4636,
      "ክልቲኦም": 4637,
      "ማን": 4638,
      "##እተ": 4639,
      "##የር": 4640,
      "ዝነበረት": 4641,
      "ንህዝ": 4642,
      "ስዒ": 4643,
      "ናበይ": 4644,
      "##ኹምን": 4645,
      "ከአ": 4646,
      "ፈለማ": 4647,
      "ልበይ": 4648,
      "##ንስ": 4649,
      "ምዕራፍ": 4650,
      "መዳይ": 4651,
      "ናትና": 4652,
      "##ትሪ": 4653,
      "ብዓል": 4654,
      "ዮሃንስ": 4655,
      "ዝነበሮ": 4656,
      "##ሮና": 4657,
      "##ገርም": 4658,
      "ይቕረ": 4659,
      "##ዓሉ": 4660,
      "##ማል": 4661,
      "##ክርስትያን": 4662,
      "##ቆም": 4663,
      "እኹል": 4664,
      "ተባዕ": 4665,
      "##ቃን": 4666,
      "##ከይ": 4667,
      "##ቓይ": 4668,
      "መንነት": 4669,
      "ከምኡውን": 4670,
      "ጸላኢ": 4671,
      "##ቶን": 4672,
      "ክብር": 4673,
      "ቅድም": 4674,
      "##ለሱ": 4675,
      "ኣህዛብ": 4676,
      "ብኡ": 4677,
      "##ደግ": 4678,
      "ክልል": 4679,
      "ጸላእ": 4680,
      "ዝተመ": 4681,
      "ሙሉእ": 4682,
      "##ላሽ": 4683,
      "ክዕ": 4684,
      "ክትገብር": 4685,
      "ንግሆ": 4686,
      "##ጥቀም": 4687,
      "ወድ": 4688,
      "##ቖም": 4689,
      "ኣብኣ": 4690,
      "መቕደስ": 4691,
      "ወያነ": 4692,
      "##ለይቲ": 4693,
      "ሓድነት": 4694,
      "ነቢ": 4695,
      "መዓልታዊ": 4696,
      "ሸውዓተ": 4697,
      "ጸገማት": 4698,
      "##ሓይሽ": 4699,
      "ንምስ": 4700,
      "ተዳ": 4701,
      "##ራእ": 4702,
      "ምትእ": 4703,
      "##ጽኣ": 4704,
      "##ፈን": 4705,
      "ካብታ": 4706,
      "ብዝያዳ": 4707,
      "ዝምድና": 4708,
      "መምርሒ": 4709,
      "40": 4710,
      "የሎን": 4711,
      "ዝኣመሰለ": 4712,
      "የብለይን": 4713,
      "ይን": 4714,
      "መጀመርያ": 4715,
      "ክድ": 4716,
      "##le": 4717,
      "ማር": 4718,
      "ዓንቀ": 4719,
      "መት": 4720,
      "መፍት": 4721,
      "ዝነብር": 4722,
      "ሐዚ": 4723,
      "##ለስተ": 4724,
      "ርግ": 4725,
      "ንናይ": 4726,
      "ኣየር": 4727,
      "ዝገበሮ": 4728,
      "ብኸም": 4729,
      "ተዋሂ": 4730,
      "##ቕርብ": 4731,
      "##ጥቀመሉ": 4732,
      "ክፉእ": 4733,
      "ክኽ": 4734,
      "##ዲኡ": 4735,
      "መሰረታዊ": 4736,
      "ይዝ": 4737,
      "ኣብርሃም": 4738,
      "##ዓና": 4739,
      "ዘው": 4740,
      "##ናብ": 4741,
      "##ምልከ": 4742,
      "ጽሑፋት": 4743,
      "ቃለ": 4744,
      "ንምግባር": 4745,
      "መሰላት": 4746,
      "ኣሎኒ": 4747,
      "መርበብ": 4748,
      "##ዛት": 4749,
      "##ሕግዝ": 4750,
      "ዝዕ": 4751,
      "ባህሊ": 4752,
      "##ለብ": 4753,
      "ስምምዕ": 4754,
      "ክታበት": 4755,
      "ንኺ": 4756,
      "##ዓቢ": 4757,
      "ኣተሓሳስባ": 4758,
      "##ሓሉ": 4759,
      "##ኸይ": 4760,
      "ዶላር": 4761,
      "ኮፍ": 4762,
      "##ታም": 4763,
      "ኣጋጢ": 4764,
      "የብ": 4765,
      "መላእኽቲ": 4766,
      "##ስትሪ": 4767,
      "ደገፍ": 4768,
      "መጥቃዕቲ": 4769,
      "በላ": 4770,
      "##ፅእ": 4771,
      "ዝሓሸ": 4772,
      "መልኣኽ": 4773,
      "ዝመስ": 4774,
      "ጌርና": 4775,
      "ጸሓይ": 4776,
      "##ግጋ": 4777,
      "ምልክ": 4778,
      "##ኖስ": 4779,
      "ናብራ": 4780,
      "ላዕለ": 4781,
      "ሒዙ": 4782,
      "ገበረ": 4783,
      "መኪና": 4784,
      "ክንብል": 4785,
      "ልኡ": 4786,
      "ንምርካብ": 4787,
      "##ራርሓ": 4788,
      "እሱ": 4789,
      "ሰሜን": 4790,
      "ንፍ": 4791,
      "##ጠቓ": 4792,
      "199": 4793,
      "ክትብል": 4794,
      "##ጣሪ": 4795,
      "##ጠፍእ": 4796,
      "ኢዱ": 4797,
      "ብህይወት": 4798,
      "##ኽእሎ": 4799,
      "ነጥቢ": 4800,
      "ወገን": 4801,
      "ጀመረ": 4802,
      "##በሮም": 4803,
      "ዝርከቡ": 4804,
      "##ig": 4805,
      "##ead": 4806,
      "##ደገና": 4807,
      "ንበ": 4808,
      "ኮይን": 4809,
      "ወተሃደ": 4810,
      "ስቕ": 4811,
      "##ስእ": 4812,
      "ወለዲ": 4813,
      "ሓቀኛ": 4814,
      "ረኸ": 4815,
      "##ለል": 4816,
      "##ምለስ": 4817,
      "ትኸውን": 4818,
      "ዘር": 4819,
      "##ረቡ": 4820,
      "ኣእዳ": 4821,
      "##ዓካ": 4822,
      "50": 4823,
      "እኩ": 4824,
      "ቁሩብ": 4825,
      "##ለማዊ": 4826,
      "##ቶምን": 4827,
      "ቦታታት": 4828,
      "ይሁዳ": 4829,
      "ክፍለ": 4830,
      "ተጠቒ": 4831,
      "ውጽኢት": 4832,
      "ህጻናት": 4833,
      "ግምት": 4834,
      "ደብዳ": 4835,
      "ጽቡቅ": 4836,
      "##የኒ": 4837,
      "ሕያ": 4838,
      "##ተሉ": 4839,
      "##ሰምዑ": 4840,
      "##ብለኩም": 4841,
      "መስተ": 4842,
      "##በኒ": 4843,
      "##ክተር": 4844,
      "##ድመ": 4845,
      "ንደቂ": 4846,
      "ምስጋና": 4847,
      "ግብረ": 4848,
      "ሓጺር": 4849,
      "ቪድዮ": 4850,
      "##ድኩም": 4851,
      "ብስም": 4852,
      "መከራ": 4853,
      "ዝጽ": 4854,
      "##ንቂ": 4855,
      "##ዛን": 4856,
      "##ኦል": 4857,
      "##ከይድ": 4858,
      "መዘ": 4859,
      "ናጻ": 4860,
      "ፍርቂ": 4861,
      "ሕር": 4862,
      "ገነት": 4863,
      "##ልጡ": 4864,
      "የማ": 4865,
      "##ግለጽ": 4866,
      "ኣካይ": 4867,
      "ዋዕላ": 4868,
      "ሓዳር": 4869,
      "##ግስቲ": 4870,
      "##ኾን": 4871,
      "ምንቅስቓስ": 4872,
      "##ሃድ": 4873,
      "ዝተኣ": 4874,
      "##ልየ": 4875,
      "ኣደይ": 4876,
      "ትእዛዝ": 4877,
      "ዶብ": 4878,
      "##ወጽእ": 4879,
      "ሰራሕተኛታት": 4880,
      "ስሙ": 4881,
      "ዝግብ": 4882,
      "ክኣ": 4883,
      "##ገበር": 4884,
      "##ዓር": 4885,
      "ዓይኒ": 4886,
      "ኩለን": 4887,
      "ናብታ": 4888,
      "ሽማ": 4889,
      "ነጊ": 4890,
      "##ብሎምን": 4891,
      "ዝኸፍ": 4892,
      "መጻሕ": 4893,
      "እንደገና": 4894,
      "##ባሩ": 4895,
      "ምግቢ": 4896,
      "ኣረጋ": 4897,
      "ክነብር": 4898,
      "ነን": 4899,
      "##ኽንያት": 4900,
      "ከፊ": 4901,
      "ይግብ": 4902,
      "##ደደ": 4903,
      "ክፍሊት": 4904,
      "ዝገብሮ": 4905,
      "ሕልሚ": 4906,
      "##መይቲ": 4907,
      "ጸልማት": 4908,
      "ተቓውሞ": 4909,
      "ደሓን": 4910,
      "##በልካ": 4911,
      "ኣበር": 4912,
      "ዕብ": 4913,
      "ውሳኔ": 4914,
      "ጥቅ": 4915,
      "##ላታት": 4916,
      "ከማ": 4917,
      "ምዃኖም": 4918,
      "##መልክት": 4919,
      "ኣርእስቲ": 4920,
      "ፍቅሪ": 4921,
      "ሙዚ": 4922,
      "ግቡእ": 4923,
      "ወገ": 4924,
      "##በካ": 4925,
      "ዝለዓለ": 4926,
      "ግል": 4927,
      "ሚእ": 4928,
      "##ቓል": 4929,
      "##ላኸ": 4930,
      "ንኢ": 4931,
      "ዕር": 4932,
      "##እዝ": 4933,
      "##ሰምዖ": 4934,
      "እፈልጥ": 4935,
      "ንምሕ": 4936,
      "##ጋም": 4937,
      "ተቐቢ": 4938,
      "ዘብ": 4939,
      "ፍጥረት": 4940,
      "ልምዓት": 4941,
      "ዝብ": 4942,
      "ፀገም": 4943,
      "##ሃይ": 4944,
      "ስምዒት": 4945,
      "ከተማታት": 4946,
      "ክንገብር": 4947,
      "ክንከውን": 4948,
      "ኣለኩም": 4949,
      "ጠፊ": 4950,
      "##ህናት": 4951,
      "ኣይሁድ": 4952,
      "ብምን": 4953,
      "ንዚ": 4954,
      "ህዝብን": 4955,
      "ፈጺሙ": 4956,
      "ሓሊ": 4957,
      "ከቶ": 4958,
      "ዘይኮ": 4959,
      "ብሰላም": 4960,
      "32": 4961,
      "ፈቲ": 4962,
      "##ቃዊ": 4963,
      "##ዳድ": 4964,
      "ጴጥሮስ": 4965,
      "ዘል": 4966,
      "ብጥ": 4967,
      "ኣሎካ": 4968,
      "ክኸይድ": 4969,
      "##ኾም": 4970,
      "ኣግ": 4971,
      "##ሕታ": 4972,
      "ባህሪ": 4973,
      "##ብብ": 4974,
      "ኦም": 4975,
      "##ኣዊ": 4976,
      "ሕግ": 4977,
      "##ውያንን": 4978,
      "ከለኹ": 4979,
      "ብርቱዕ": 4980,
      "##ረኣእ": 4981,
      "##ራህ": 4982,
      "ንብረት": 4983,
      "##ጻት": 4984,
      "ክሰ": 4985,
      "##ፍሪ": 4986,
      "##ክልኻል": 4987,
      "##ኻኽር": 4988,
      "በለት": 4989,
      "##ዱን": 4990,
      "##በልዕ": 4991,
      "##ረቱ": 4992,
      "##ዱሽተ": 4993,
      "ዝብሎ": 4994,
      "##ሕብ": 4995,
      "ግንቦት": 4996,
      "ኣይኮኑን": 4997,
      "ሂቡ": 4998,
      "##ስዕቡ": 4999,
      "ልሙ": 5000,
      "ናብዚ": 5001,
      "ስምዒ": 5002,
      "ባርያ": 5003,
      "ወሪ": 5004,
      "ብምስ": 5005,
      "ፍልልይ": 5006,
      "ምንጪ": 5007,
      "ምንም": 5008,
      "ኸአ": 5009,
      "ስደት": 5010,
      "ትደሊ": 5011,
      "የን": 5012,
      "ምምላ": 5013,
      "መሊሱ": 5014,
      "##ዒሉ": 5015,
      "##ሓዊ": 5016,
      "መደባት": 5017,
      "ዝዝ": 5018,
      "##ብታት": 5019,
      "ኢልኩም": 5020,
      "ሃገረ": 5021,
      "##መሓ": 5022,
      "##ሎጂ": 5023,
      "##ገድስ": 5024,
      "##የሱስ": 5025,
      "##ናስ": 5026,
      "እንጌ": 5027,
      "ያእቆብ": 5028,
      "ንምው": 5029,
      "##ሐን": 5030,
      "##ብያ": 5031,
      "ዝፈልጦ": 5032,
      "ሓጥ": 5033,
      "ዝተረ": 5034,
      "ድሕነት": 5035,
      "መላ": 5036,
      "ብሪ": 5037,
      "ካር": 5038,
      "ውላ": 5039,
      "ገበ": 5040,
      "፡\"": 5041,
      "ቤተክርስትያን": 5042,
      "##ቶት": 5043,
      "ሒደት": 5044,
      "##ተል": 5045,
      "##ሪያ": 5046,
      "##ኻየደ": 5047,
      "ዝተሰ": 5048,
      "ብዝኾነ": 5049,
      "ዝተቐ": 5050,
      "ነተን": 5051,
      "##ጸራ": 5052,
      "ክኾኑ": 5053,
      "ምስቶም": 5054,
      "መስቀል": 5055,
      "##ብለካ": 5056,
      "ኣዴ": 5057,
      "ድያ": 5058,
      "##ዙሓት": 5059,
      "ቤቱ": 5060,
      "ብወገ": 5061,
      "ብጾ": 5062,
      "##ኣለ": 5063,
      "##ዓትን": 5064,
      "በረኻ": 5065,
      "ኻል": 5066,
      "##al": 5067,
      "##xt": 5068,
      "ምስጢር": 5069,
      "ህዝበይ": 5070,
      "ኣንስቲ": 5071,
      "እግሪ": 5072,
      "በረኸ": 5073,
      "##ጣዊ": 5074,
      "ጥቓ": 5075,
      "##ልጦ": 5076,
      "##ስር": 5077,
      "ንጥፈታት": 5078,
      "ርእስኻ": 5079,
      "##ረፍቲ": 5080,
      "##...": 5081,
      "ንቡር": 5082,
      "ዓለምና": 5083,
      "ጐይታይ": 5084,
      "##ኳን": 5085,
      "ሰማዕ": 5086,
      "ተላ": 5087,
      "ዝብሃል": 5088,
      "##ይሊ": 5089,
      "##ወል": 5090,
      "ኣይሰ": 5091,
      "ቅን": 5092,
      "##ጊዕ": 5093,
      "##ሃሩ": 5094,
      "Read": 5095,
      "##ክቶ": 5096,
      "መንግስታት": 5097,
      "ኣቡ": 5098,
      "##ዓብ": 5099,
      "ተዘ": 5100,
      "ዝኣክል": 5101,
      "##ነካ": 5102,
      "##በኛ": 5103,
      "ዳሕ": 5104,
      "##ባሪ": 5105,
      "##it": 5106,
      "ዝመስል": 5107,
      "ክዝ": 5108,
      "ግንባር": 5109,
      "ታሕቲ": 5110,
      "##ንያ": 5111,
      "##ar": 5112,
      "ኣንታ": 5113,
      "ሓርነት": 5114,
      "ሳዕቤ": 5115,
      "ብቀ": 5116,
      "ተሸ": 5117,
      "ስግ": 5118,
      "ህዝብታት": 5119,
      "የብሎምን": 5120,
      "ፍልስ": 5121,
      "ተማሂ": 5122,
      "##ግል": 5123,
      "ኸሎ": 5124,
      "ዂሉ": 5125,
      "ምሃብ": 5126,
      "ንከ": 5127,
      "ዚርከብ": 5128,
      "##ምባ": 5129,
      "ምድርን": 5130,
      "##ድሕር": 5131,
      "ብገ": 5132,
      "##እለ": 5133,
      "##ስፒ": 5134,
      "##ሳኤ": 5135,
      "ንምም": 5136,
      "ኤርትራዊ": 5137,
      "100": 5138,
      "##ጺሩ": 5139,
      "##ድግ": 5140,
      "መስመር": 5141,
      "##ኣምኑ": 5142,
      "##ኦምን": 5143,
      "##የሉ": 5144,
      "እንተድኣ": 5145,
      "ኣረኣእ": 5146,
      "ኖር": 5147,
      "ተዛሪ": 5148,
      "##ጋጊ": 5149,
      "##እዎ": 5150,
      "ቅድሚኡ": 5151,
      "ምርኣይ": 5152,
      "##ለዋ": 5153,
      "##ዓታት": 5154,
      "መዛሙርቱ": 5155,
      "ዑቕ": 5156,
      "##ጸት": 5157,
      "ቅድሜ": 5158,
      "ናይቶም": 5159,
      "ኣዝዮም": 5160,
      "ሓቢሩ": 5161,
      "ማህ": 5162,
      "##ኣኒ": 5163,
      "##ቅዕ": 5164,
      "ምንታይ": 5165,
      "ኣህጉ": 5166,
      "ኣይመስለንን": 5167,
      "##መኒ": 5168,
      "##ድያ": 5169,
      "መራኸ": 5170,
      "ጋንታ": 5171,
      "ሕጋዊ": 5172,
      "ዓሚ": 5173,
      "ይት": 5174,
      "ጸሓ": 5175,
      "##ንኩም": 5176,
      "በሊ": 5177,
      "##ሙናት": 5178,
      "ኣነን": 5179,
      "ዝኽእሉ": 5180,
      "##ላስ": 5181,
      "ንነዊሕ": 5182,
      "በር": 5183,
      "ዝተኸ": 5184,
      "ኢሳይ": 5185,
      "እንተሎ": 5186,
      "##ዘዝ": 5187,
      "ኣይረኸ": 5188,
      "ቫይረስ": 5189,
      "ክዛረብ": 5190,
      "##ፋእ": 5191,
      "ዘዳ": 5192,
      "##መታት": 5193,
      "መለሰ": 5194,
      "ረሲ": 5195,
      "ብምኽንያት": 5196,
      "ግጥ": 5197,
      "ዓረብ": 5198,
      "ክህልወ": 5199,
      "ኣይነበሮ": 5200,
      "##ተይን": 5201,
      "##ዐን": 5202,
      "ፕሮጀ": 5203,
      "ሕጻ": 5204,
      "ወግ": 5205,
      "ሓጐስ": 5206,
      "##ዱስ": 5207,
      "##ልናን": 5208,
      "መቐለ": 5209,
      "ጽድቂ": 5210,
      "ገበን": 5211,
      "##ወሰ": 5212,
      "ውድባት": 5213,
      "ድኽ": 5214,
      "##ምዎ": 5215,
      "##ረኽበ": 5216,
      "##ጋጥ": 5217,
      "ብዝሒ": 5218,
      "##ድልዮም": 5219,
      "ዝካየድ": 5220,
      "ብምግባር": 5221,
      "##ላሊ": 5222,
      "##ዛዝ": 5223,
      "##ደጋ": 5224,
      "##ሶን": 5225,
      "ምሳሌ": 5226,
      "ሓያሎ": 5227,
      "ተገሊጹ": 5228,
      "መነ": 5229,
      "ዛዕባ": 5230,
      "ጥሪ": 5231,
      "##ንጎ": 5232,
      "ሆስፒ": 5233,
      "ንሶም": 5234,
      "ኸዓ": 5235,
      "ዓለ": 5236,
      "ንነብ": 5237,
      "ውሕስነት": 5238,
      "ዝርዝር": 5239,
      "##ኣያ": 5240,
      "##ግድ": 5241,
      "ወይኒ": 5242,
      "ዘይሕ": 5243,
      "ስልጣ": 5244,
      "ጥፍ": 5245,
      "##ነታ": 5246,
      "##ጥና": 5247,
      "ኣይኮንኩን": 5248,
      "##ጣር": 5249,
      "##ሒፉ": 5250,
      "ሓይልታት": 5251,
      "ቀጺሉ": 5252,
      "ክዳ": 5253,
      "ግዳ": 5254,
      "##ረር": 5255,
      "ምዕባለ": 5256,
      "ኪቕ": 5257,
      "ክሳ": 5258,
      "##ላጽ": 5259,
      "##ሰና": 5260,
      "መልክዕ": 5261,
      "33": 5262,
      "ይደሊ": 5263,
      "##ክኖ": 5264,
      "2018": 5265,
      "ኣትዩ": 5266,
      "ብና": 5267,
      "ከይዱ": 5268,
      "ንዓለም": 5269,
      "##መላለ": 5270,
      "ክምለስ": 5271,
      "ፈርኦን": 5272,
      "ሽማግለ": 5273,
      "ትው": 5274,
      "##ጐይታ": 5275,
      "##ኡስ": 5276,
      "##ላማዊ": 5277,
      "መተ": 5278,
      "በጽ": 5279,
      "##ፍለ": 5280,
      "ተወሊ": 5281,
      "ንድሕሪ": 5282,
      "ተኽ": 5283,
      "##መጡ": 5284,
      "##ድሽ": 5285,
      "##ሊእ": 5286,
      "ስመይ": 5287,
      "ነጋ": 5288,
      "ኣምላኽና": 5289,
      "ጸዊ": 5290,
      "ኣዳም": 5291,
      "ዝረ": 5292,
      "ኣከ": 5293,
      "##ደብ": 5294,
      "2020": 5295,
      "ሰበ": 5296,
      "##ብሎስ": 5297,
      "##ሽሓት": 5298,
      "##ፃኢ": 5299,
      "ንምር": 5300,
      "ተረኺ": 5301,
      "ይኽ": 5302,
      "ኣለኹም": 5303,
      "##መስግን": 5304,
      "##ፍቀ": 5305,
      "##ዓይ": 5306,
      "##ኻት": 5307,
      "ብጻ": 5308,
      "ዓድ": 5309,
      "ይሰ": 5310,
      "##ሓና": 5311,
      "ንዝተ": 5312,
      "##ፈልጡን": 5313,
      "##ፈሻዊ": 5314,
      "##ንደ": 5315,
      "##ጊት": 5316,
      "##ሃቦ": 5317,
      "##ሩኽ": 5318,
      "ኣባይ": 5319,
      "ኢሳይያስ": 5320,
      "##ሓሰ": 5321,
      "##መውት": 5322,
      "እንኮ": 5323,
      "##ብላዕ": 5324,
      "ሞተ": 5325,
      "ደቁ": 5326,
      "ሃብቲ": 5327,
      "ብቑ": 5328,
      "ሕዝ": 5329,
      "ዝግባእ": 5330,
      "ምዃና": 5331,
      "##ሊት": 5332,
      "ብርሃ": 5333,
      "ትጽቢት": 5334,
      "##ህቡ": 5335,
      "ዕዉ": 5336,
      "##ህቦም": 5337,
      "ኣቀ": 5338,
      "ዘርእ": 5339,
      "##ዓዊ": 5340,
      "ዙርያ": 5341,
      "##ውራ": 5342,
      "ተጋዳ": 5343,
      "ክመጽእ": 5344,
      "##at": 5345,
      "መርመራ": 5346,
      "ሽዱሽተ": 5347,
      "ጸወታ": 5348,
      "##በሳ": 5349,
      "##ጀመረ": 5350,
      "እንጌራ": 5351,
      "ወሳ": 5352,
      "##ስያዊ": 5353,
      "ሓሲ": 5354,
      "ንገዛእ": 5355,
      "##ስል": 5356,
      "##በባ": 5357,
      "ድሕር": 5358,
      "ወላዲ": 5359,
      "ዘይኰነስ": 5360,
      "ዝነብሩ": 5361,
      "ብድሕሪኡ": 5362,
      "ይዕ": 5363,
      "##ጠይ": 5364,
      "ነፍስ": 5365,
      "ስልጠና": 5366,
      "መጻሕፍቲ": 5367,
      "ብ19": 5368,
      "መቓ": 5369,
      "ጾታዊ": 5370,
      "ኣማራ": 5371,
      "ህያው": 5372,
      "##ብሃ": 5373,
      "##ረደ": 5374,
      "##ኣኸ": 5375,
      "ዘሎካ": 5376,
      "ወረቐት": 5377,
      "ንግዲ": 5378,
      "ኣጥ": 5379,
      "ይነብር": 5380,
      "##ሓኒ": 5381,
      "ንጹር": 5382,
      "ቀጻሊ": 5383,
      "ዝመል": 5384,
      "ኣሚ": 5385,
      "መሰኻኽር": 5386,
      "Next": 5387,
      "ሮሜ": 5388,
      "##ክፍ": 5389,
      "##ቕካ": 5390,
      "##ቲት": 5391,
      "##ቐር": 5392,
      "ተዛሪቡ": 5393,
      "ራእይ": 5394,
      "ንዘይ": 5395,
      "##ተና": 5396,
      "##ገደ": 5397,
      "##ነግ": 5398,
      "##ድእ": 5399,
      "##ፈትዎ": 5400,
      "መብዛሕትኦም": 5401,
      "##ሓለ": 5402,
      "2017": 5403,
      "ተቀ": 5404,
      "ካበይ": 5405,
      "ወደይ": 5406,
      "ኣቦና": 5407,
      "##ልጡፍ": 5408,
      "35": 5409,
      "##ቐርብ": 5410,
      "##ኪም": 5411,
      "ክርስትያናት": 5412,
      "##ሮት": 5413,
      "##ፋይ": 5414,
      "##ስቡ": 5415,
      "##ህና": 5416,
      "##ታትካ": 5417,
      "ናባይ": 5418,
      "ፈጣሪ": 5419,
      "##ጹጽ": 5420,
      "ምፍላጥ": 5421,
      "ብዘየ": 5422,
      "ማእከላይ": 5423,
      "##ጻል": 5424,
      "መሪሕነት": 5425,
      "##ለመ": 5426,
      "##ልያን": 5427,
      "ንዘለኣለም": 5428,
      "##ላፍ": 5429,
      "##ገት": 5430,
      "##ብኡ": 5431,
      "##ሞንተ": 5432,
      "ሓወይ": 5433,
      "ኢድካ": 5434,
      "ኣረኣእያ": 5435,
      "ኩላትና": 5436,
      "##ሊም": 5437,
      "ኢንተርነት": 5438,
      "ንድሕሪት": 5439,
      "ምብራቕ": 5440,
      "##የካ": 5441,
      "ወዘ": 5442,
      "ንሰባት": 5443,
      "ርአ": 5444,
      "ኣገልግሎ": 5445,
      "ስድራቤ": 5446,
      "ሓዲሽ": 5447,
      "##ላዪ": 5448,
      "ብኻልእ": 5449,
      "ንሙ": 5450,
      "ንዅሎም": 5451,
      "መሳርሒ": 5452,
      "መፍትሒ": 5453,
      "ለበ": 5454,
      "እምኒ": 5455,
      "ቅዱሳን": 5456,
      "ሕሉ": 5457,
      "ይፍለጥ": 5458,
      "መፅ": 5459,
      "##ራጽ": 5460,
      "እንኽእል": 5461,
      "ንዑ": 5462,
      "##ትር": 5463,
      "##ጥዕ": 5464,
      "##ሳተፉ": 5465,
      "ቈልዑ": 5466,
      "መገድ": 5467,
      "##ሽቱ": 5468,
      "እሙን": 5469,
      "ክሰርሕ": 5470,
      "##ረታ": 5471,
      "##ሓቕ": 5472,
      "##ጎም": 5473,
      "ሓባር": 5474,
      "ንማ": 5475,
      "##ስብ": 5476,
      "ክትረክብ": 5477,
      "ብዝብል": 5478,
      "##ርድኦ": 5479,
      "ብማ": 5480,
      "##ሩይ": 5481,
      "##ማውያን": 5482,
      "ርሕ": 5483,
      "ታይ": 5484,
      "##ርም": 5485,
      "ምስራሕ": 5486,
      "ሓጢ": 5487,
      "ልዕል": 5488,
      "##ሓትን": 5489,
      "ዘይብል": 5490,
      "ባዕልኻ": 5491,
      "ዝመር": 5492,
      "ዘይብሎም": 5493,
      "##ርኪ": 5494,
      "ኣይንኽእልን": 5495,
      "ዑቕባ": 5496,
      "##ኣሉ": 5497,
      "ተሰሚ": 5498,
      "ኣሳ": 5499,
      "ንምዃ": 5500,
      "በጃኻ": 5501,
      "##መሩ": 5502,
      "##ውዓል": 5503,
      "ብሄ": 5504,
      "ኮሮና": 5505,
      "ዳን": 5506,
      "##ag": 5507,
      "##ጥቀሙ": 5508,
      "ወሲዱ": 5509,
      "##ደረ": 5510,
      "ፕሮግ": 5511,
      "ዘጋጠመ": 5512,
      "##ምነ": 5513,
      "ፕሮጀክት": 5514,
      "መዕ": 5515,
      "ብሽ": 5516,
      "ተመስ": 5517,
      "ተጠን": 5518,
      "ውሉድ": 5519,
      "ስኢ": 5520,
      "ንፈልጥ": 5521,
      "##ከታተ": 5522,
      "ቀሪቡ": 5523,
      "ደይ": 5524,
      "ድቃስ": 5525,
      "##ኣትዉ": 5526,
      "ክጽ": 5527,
      "##ጻወ": 5528,
      "ሓደገ": 5529,
      "ንምድ": 5530,
      "ሕጉ": 5531,
      "መም": 5532,
      "ዳግም": 5533,
      "##ሕካ": 5534,
      "##ፀን": 5535,
      "##igr": 5536,
      "ዘድሊ": 5537,
      "ፍራን": 5538,
      "##ብልን": 5539,
      "ደሓር": 5540,
      "##ፈሉ": 5541,
      "##ለኩም": 5542,
      "መንበር": 5543,
      "ወርቂ": 5544,
      "እስራኤላውያን": 5545,
      "##ጋኑ": 5546,
      "ዓንቀጽ": 5547,
      "ይበል": 5548,
      "##ንድ": 5549,
      "##ኻዮ": 5550,
      "##ራምፕ": 5551,
      "ክረክብ": 5552,
      "ኽልተ": 5553,
      "ዕረፍቲ": 5554,
      "እናበሉ": 5555,
      "ኣልቦ": 5556,
      "ኣጋጢሙ": 5557,
      "##ገረ": 5558,
      "ሓጎስ": 5559,
      "##ተርፍ": 5560,
      "ክግ": 5561,
      "መካ": 5562,
      "ስራ": 5563,
      "##ጠው": 5564,
      "እንቋ": 5565,
      "ዝኸይድ": 5566,
      "መጋቢት": 5567,
      "ክበሃል": 5568,
      "ለካ": 5569,
      "ሓፈሻዊ": 5570,
      "##ልወ": 5571,
      "ዝተባህለ": 5572,
      "##ስትራ": 5573,
      "ጋዜጠ": 5574,
      "ዳግማይ": 5575,
      "##ዳዊ": 5576,
      "##ed": 5577,
      "ዝተኻየደ": 5578,
      "ብኸምዚ": 5579,
      "ሙዚቃ": 5580,
      "ፍጻሜ": 5581,
      "ሰፊሕ": 5582,
      "ሆስፒታል": 5583,
      "##ክኖሎጂ": 5584,
      "ሓጋ": 5585,
      "መሸ": 5586,
      "##ሽቲ": 5587,
      "##ፈተ": 5588,
      "##ታታ": 5589,
      "ይገልጽ": 5590,
      "##ጸንሕ": 5591,
      "##ሳተፍ": 5592,
      "ግድ": 5593,
      "ኣቐዲሙ": 5594,
      "ኣሉ": 5595,
      "##ፍለጥ": 5596,
      "ኣዚዩ": 5597,
      "ኢሳያስ": 5598,
      "ተጓ": 5599,
      "##ማትን": 5600,
      "##ደድ": 5601,
      "ቋንቋታት": 5602,
      "##ታቲ": 5603,
      "ዝነበርኩ": 5604,
      "##ic": 5605,
      "##ገዳ": 5606,
      "ትንሳኤ": 5607,
      "ለይ": 5608,
      "ቀሪ": 5609,
      "##ፆም": 5610,
      "ይበሃል": 5611,
      "በለኒ": 5612,
      "ሃዋርያ": 5613,
      "##ራኸብ": 5614,
      "ነው": 5615,
      "ንአ": 5616,
      "##ዝያ": 5617,
      "ገዝ": 5618,
      "ዝጸንሐ": 5619,
      "##ይሽ": 5620,
      "ኣዲስ": 5621,
      "ይግበር": 5622,
      "##ሻይ": 5623,
      "ዘለኹም": 5624,
      "ትፈልጡ": 5625,
      "ከው": 5626,
      "ረአ": 5627,
      "ይኹ": 5628,
      "##ነግረ": 5629,
      "ብስራት": 5630,
      "ሓም": 5631,
      "ዝፈልጥ": 5632,
      "2016": 5633,
      "መድሃ": 5634,
      "##ዘብ": 5635,
      "##ዳዲ": 5636,
      "ህን": 5637,
      "ትራምፕ": 5638,
      "ዓሳ": 5639,
      "ጽም": 5640,
      "ከለኻ": 5641,
      "ልሙድ": 5642,
      "ሕልና": 5643,
      "ዘድልየ": 5644,
      "##ጸሩ": 5645,
      "##መነ": 5646,
      "##በረሉ": 5647,
      "##ያይ": 5648,
      "ሕይወ": 5649,
      "ካባይ": 5650,
      "ተንሲ": 5651,
      "ካኣ": 5652,
      "ውህ": 5653,
      "##ሚሩ": 5654,
      "ንኽን": 5655,
      "ማእኸ": 5656,
      "##ሪኽ": 5657,
      "ልዕ": 5658,
      "ይእ": 5659,
      "ይኣክል": 5660,
      "##ረግ": 5661,
      "ብመል": 5662,
      "ትርጉ": 5663,
      "##ጹር": 5664,
      "ኣየናይ": 5665,
      "##ay": 5666,
      "ኣበባ": 5667,
      "ጥዑም": 5668,
      "ትኽ": 5669,
      "ብግቡእ": 5670,
      "ሚኒስተር": 5671,
      "ጥም": 5672,
      "##ሞተ": 5673,
      "ልደት": 5674,
      "መታን": 5675,
      "ኔርና": 5676,
      "ፍታሕ": 5677,
      "ኣፍልጦ": 5678,
      "ብመንፈስ": 5679,
      "ጻድ": 5680,
      "##ሳውያን": 5681,
      "##ፈልጠ": 5682,
      "ውዕል": 5683,
      "ህይወተይ": 5684,
      "የሕ": 5685,
      "##ነታዊ": 5686,
      "ዘይነ": 5687,
      "ኣቦኡ": 5688,
      "ምርካብ": 5689,
      "ገሊኡ": 5690,
      "ሰሎ": 5691,
      "ኣነስ": 5692,
      "ብእምነት": 5693,
      "ንኣይ": 5694,
      "ግዘ": 5695,
      "##ራል": 5696,
      "##ቡል": 5697,
      "##ኮይኑ": 5698,
      "ብምዃኑ": 5699,
      "00": 5700,
      "ሓቅ": 5701,
      "ክግበር": 5702,
      "ምሳኻትኩም": 5703,
      "ስዊ": 5704,
      "እብለኩም": 5705,
      "##ኮነን": 5706,
      "መልእኽ": 5707,
      "ወዘተ": 5708,
      "ሞንጎ": 5709,
      "ብሓፈሻ": 5710,
      "ውድድር": 5711,
      "ተተ": 5712,
      "ኵነታት": 5713,
      "ይፈ": 5714,
      "##ባህ": 5715,
      "ናይታ": 5716,
      "ቀዳሞት": 5717,
      "ምጥቃ": 5718,
      "##ኹሉ": 5719,
      "##ዝም": 5720,
      "መንግስት": 5721,
      "ዘስ": 5722,
      "ብድሆ": 5723,
      "ተጋሩ": 5724,
      "ሕጉስ": 5725,
      "##ኣካ": 5726,
      "##ቲን": 5727,
      "ቐዳ": 5728,
      "##ለኻ": 5729,
      "##ገብረሉ": 5730,
      "##ent": 5731,
      "ዩኒቨርሲ": 5732,
      "ቅልው": 5733,
      "ይሓይሽ": 5734,
      "ወረዳ": 5735,
      "ጌሩ": 5736,
      "##ካይድ": 5737,
      "##ስኮ": 5738,
      "##ዛረበ": 5739,
      "ይዛረብ": 5740,
      "##ናሕ": 5741,
      "##ቀቕ": 5742,
      "more": 5743,
      "ምላሽ": 5744,
      "ንምን": 5745,
      "##ኤት": 5746,
      "ብዝምልከት": 5747,
      "ፖሊሲ": 5748,
      "##ንጫ": 5749,
      "##ራሲ": 5750,
      "##ዕካ": 5751,
      "##ገልጾ": 5752,
      "ሕድሪ": 5753,
      "ፈላ": 5754,
      "##ማማዕ": 5755,
      "ዓቢይ": 5756,
      "ዝሃበ": 5757,
      "ግብር": 5758,
      "ላዕለዋይ": 5759,
      "ዚመጽእ": 5760,
      "##ቃለስ": 5761,
      "ይስም": 5762,
      "ገብረ": 5763,
      "ፍጡ": 5764,
      "መርከብ": 5765,
      "ተኽእሎ": 5766,
      "ምክልኻል": 5767,
      "##ሕዝን": 5768,
      "ጻዕሪ": 5769,
      "ድር": 5770,
      "ሓላፊ": 5771,
      "ይብ": 5772,
      "##ጠቅ": 5773,
      "ሓዘን": 5774,
      "ፍሽ": 5775,
      "ንዳ": 5776,
      "##እታ": 5777,
      "##ዝጊ": 5778,
      "ክትቅ": 5779,
      "ዝወስ": 5780,
      "##ሳድ": 5781,
      "ተጋዳላይ": 5782,
      "Tigr": 5783,
      "ኣጆ": 5784,
      "##ይይ": 5785,
      "ነበርኩ": 5786,
      "ተገይሩ": 5787,
      "##ስክ": 5788,
      "መልክ": 5789,
      "##ንብብ": 5790,
      "ከደ": 5791,
      "ሓቢሮም": 5792,
      "ዘቕ": 5793,
      "##ዕዎ": 5794,
      "ዝተዓ": 5795,
      "ብሪጣን": 5796,
      "34": 5797,
      "##ድሚት": 5798,
      "እምብኣ": 5799,
      "ክልቲኡ": 5800,
      "ዝኾነት": 5801,
      "ገጹ": 5802,
      "##ግዒ": 5803,
      "##ሩኒ": 5804,
      "መራኸቢ": 5805,
      "ሚሊ": 5806,
      "##ጋጥም": 5807,
      "##ፈኒ": 5808,
      "ኣዋልድ": 5809,
      "ሰላምን": 5810,
      "ዓሻ": 5811,
      "ዝስዕቡ": 5812,
      "እትብል": 5813,
      "ኣይትኽእልን": 5814,
      "በረኸት": 5815,
      "ሚእቲ": 5816,
      "##መጠ": 5817,
      "##ሰርሐ": 5818,
      "ምሁ": 5819,
      "ኪድ": 5820,
      "ዶክተር": 5821,
      "##ውዕል": 5822,
      "ንምዕ": 5823,
      "ንእስራ": 5824,
      "ሓደገኛ": 5825,
      "ኣይደልን": 5826,
      "##ኽዎ": 5827,
      "ህጻን": 5828,
      "ስን": 5829,
      "##ረገ": 5830,
      "ክፈ": 5831,
      "ንየሱስ": 5832,
      "##ኖት": 5833,
      "##ገሲ": 5834,
      "ምስተ": 5835,
      "ምዝራብ": 5836,
      "ሉቃ": 5837,
      "ስፖርት": 5838,
      "##ሩዕ": 5839,
      "ሽግ": 5840,
      "ይመጽእ": 5841,
      "##ምት": 5842,
      "##ወምቲ": 5843,
      "##ሒቱ": 5844,
      "ሕገ": 5845,
      "ኣምል": 5846,
      "ጀጋኑ": 5847,
      "##ኩምዎ": 5848,
      "ጾም": 5849,
      "##ራዕ": 5850,
      "ኣውራ": 5851,
      "ዝሓለፉ": 5852,
      "##ሳሰ": 5853,
      "ሞይቱ": 5854,
      "##ዝሒ": 5855,
      "ዘፍቅ": 5856,
      "##ዎት": 5857,
      "##ደሙ": 5858,
      "##ካዊ": 5859,
      "ምስት": 5860,
      "ዮሃ": 5861,
      "ጽልዋ": 5862,
      "ዝዀኑ": 5863,
      "ተሓቢሩ": 5864,
      "##ዘርላንድ": 5865,
      "ብዘየገድስ": 5866,
      "##is": 5867,
      "መርገ": 5868,
      "ስፍራ": 5869,
      "##ባራዊ": 5870,
      "ኣይመ": 5871,
      "ስራሕቲ": 5872,
      "አን": 5873,
      "ወዱ": 5874,
      "##ለፍ": 5875,
      "ቁጠባዊ": 5876,
      "ሓኪም": 5877,
      "##ሜት": 5878,
      "##ንጋ": 5879,
      "##ተቱ": 5880,
      "ይመስለኒ": 5881,
      "ኣና": 5882,
      "ክንክን": 5883,
      "ብምሕ": 5884,
      "መማ": 5885,
      "ዝዛረብ": 5886,
      "##ወከፍ": 5887,
      "ከለዉ": 5888,
      "መጓ": 5889,
      "##ሃህ": 5890,
      "ዚሕ": 5891,
      "##ቢሲ": 5892,
      "##ቕና": 5893,
      "##ደልቲ": 5894,
      "##ህልዎ": 5895,
      "ኣውጺ": 5896,
      "ወፃኢ": 5897,
      "ጥቅምቲ": 5898,
      "##ልዕ": 5899,
      "እትኽእል": 5900,
      "##ገልግሉ": 5901,
      "ከለና": 5902,
      "ሃዋርያት": 5903,
      "##ገበ": 5904,
      "##ውንቲ": 5905,
      "ዘይክእል": 5906,
      "##ውም": 5907,
      "ኮይነ": 5908,
      "ዚገብር": 5909,
      "ነጥብታት": 5910,
      "##ርዎም": 5911,
      "##ናዳ": 5912,
      "##ከብ": 5913,
      "##ኣስ": 5914,
      "##ርከባ": 5915,
      "ተመር": 5916,
      "ድዮም": 5917,
      "##ነኽ": 5918,
      "##ኢታዊ": 5919,
      "2019": 5920,
      "ኣሸ": 5921,
      "ዕሽ": 5922,
      "##ነቕ": 5923,
      "##es": 5924,
      "ኣይከኣለን": 5925,
      "ዝባ": 5926,
      "##ፈልየ": 5927,
      "##ርኒ": 5928,
      "ሃገርን": 5929,
      "መጺኦም": 5930,
      "ነበርቲ": 5931,
      "##ፋር": 5932,
      "##ማስ": 5933,
      "##ጽኦ": 5934,
      "##ዑኒ": 5935,
      "ወሳኒ": 5936,
      "በይኑ": 5937,
      "##መካ": 5938,
      "ካብተን": 5939,
      "ሰብን": 5940,
      "ንብዙሓት": 5941,
      "ዝሰማዕ": 5942,
      "ክህልዎ": 5943,
      "##ነጽ": 5944,
      "##ስትር": 5945,
      "##ወስደ": 5946,
      "##ለጡ": 5947,
      "##ሕግዘካ": 5948,
      "##ረተ": 5949,
      "##ርዳ": 5950,
      "ሰነድ": 5951,
      "ሕርሻ": 5952,
      "ቅዋም": 5953,
      "ዘበ": 5954,
      "ድሌት": 5955,
      "##ለሰ": 5956,
      "ርእሶም": 5957,
      "ርግጸ": 5958,
      "ምክ": 5959,
      "##ረካ": 5960,
      "##ረጋግ": 5961,
      "ተታ": 5962,
      "ንፋስ": 5963,
      "ዝና": 5964,
      "ካባና": 5965,
      "ይኸይድ": 5966,
      "##ጥዓ": 5967,
      "ንስኺ": 5968,
      "##ጽሕፍ": 5969,
      "ሰር": 5970,
      "##ሓል": 5971,
      "ኣዋጅ": 5972,
      "ትሑ": 5973,
      "ማንም": 5974,
      "##ቅር": 5975,
      "ወገናት": 5976,
      "ክሊ": 5977,
      "##ሒት": 5978,
      "ኣይክት": 5979,
      "ሓረስ": 5980,
      "ተሰም": 5981,
      "ደቀን": 5982,
      "ልብና": 5983,
      "እንድሕር": 5984,
      "ዝፍለጥ": 5985,
      "እዮ": 5986,
      "ዘጸ": 5987,
      "ዝከኣል": 5988,
      "ታሕሳስ": 5989,
      "##ጽዕ": 5990,
      "ኣይወ": 5991,
      "ልብኻ": 5992,
      "ወሰን": 5993,
      "ዝበጽ": 5994,
      "ማሕበረሰብ": 5995,
      "##ሰይቲ": 5996,
      "ሓምለ": 5997,
      "##ነይቲ": 5998,
      "##ስተይቲ": 5999,
      "ኣሕሊ": 6000,
      "ደሞ": 6001,
      "##ግኡ": 6002,
      "ቀዳመይቲ": 6003,
      "ጥቕሚ": 6004,
      "##ዋስ": 6005,
      "ተግባራት": 6006,
      "ነቦ": 6007,
      "ኣሃ": 6008,
      "ተፈጥሮ": 6009,
      "ውሑዳት": 6010,
      "ተዋሂቡ": 6011,
      "38": 6012,
      "እኽእል": 6013,
      "##ኻብ": 6014,
      "ንኣቦ": 6015,
      "ህያብ": 6016,
      "ሰዲ": 6017,
      "##ንዛ": 6018,
      "##ጸሉ": 6019,
      "##ልጠ": 6020,
      "ንእግዚኣብሔር": 6021,
      "ሰብኡ": 6022,
      "ኣይኰን": 6023,
      "##ድስ": 6024,
      "ንምግ": 6025,
      "ዝመጹ": 6026,
      "መበገሲ": 6027,
      "ንነፍሲ": 6028,
      "ብጹ": 6029,
      "ንኩሉ": 6030,
      "ሕሉፍ": 6031,
      "##ትኡ": 6032,
      "##ራሪ": 6033,
      "ዝነበራ": 6034,
      "ሳላ": 6035,
      "##በዩ": 6036,
      "##ንጻሩ": 6037,
      "ኩነት": 6038,
      "ክመር": 6039,
      "##ውዓ": 6040,
      "ምዉታት": 6041,
      "ብሓድሽ": 6042,
      "##በልኩ": 6043,
      "ዝት": 6044,
      "##ሉስ": 6045,
      "##ጽዓ": 6046,
      "##ፈርቲ": 6047,
      "ተኣም": 6048,
      "ብቐሊሉ": 6049,
      "ኣማራጺ": 6050,
      "ኣዒን": 6051,
      "ግዴ": 6052,
      "ግበሩ": 6053,
      "##ይር": 6054,
      "##ካኤል": 6055,
      "ኣይበ": 6056,
      "ሰማይን": 6057,
      "ግጥሚ": 6058,
      "ሰሎሞን": 6059,
      "ሓንሳብ": 6060,
      "መኽ": 6061,
      "ምጅ": 6062,
      "ምክን": 6063,
      "ዝሰርሕ": 6064,
      "##ብዓተ": 6065,
      "##ድኡ": 6066,
      "ዝገለ": 6067,
      "ዘሎኹ": 6068,
      "##ትራ": 6069,
      "##ግሶ": 6070,
      "ሓዳስ": 6071,
      "##ኣትን": 6072,
      "ኣማል": 6073,
      "ፍሉጥ": 6074,
      "##ኮኖ": 6075,
      "ረኺበ": 6076,
      "ልቡ": 6077,
      "ጕዳይ": 6078,
      "##ሰስ": 6079,
      "ከምት": 6080,
      "መረዳእታ": 6081,
      "##ተኣ": 6082,
      "##ነተይ": 6083,
      "##ብሊ": 6084,
      "##ፉን": 6085,
      "ደርፊ": 6086,
      "ብዚ": 6087,
      "እንተደኣ": 6088,
      "ተምሃሮ": 6089,
      "ርሑቕ": 6090,
      "ተመራ": 6091,
      "ብሉጽ": 6092,
      "ሕዳር": 6093,
      "ተመሊሱ": 6094,
      "ከመ": 6095,
      "##ጋዝ": 6096,
      "##ውሕ": 6097,
      "##ዑን": 6098,
      "ኣንቢ": 6099,
      "ውሽጣዊ": 6100,
      "ሚያ": 6101,
      "ብሙ": 6102,
      "ንኩ": 6103,
      "ክገብሩ": 6104,
      "##መኑ": 6105,
      "እዋናዊ": 6106,
      "ጀነ": 6107,
      "ኣድላዪ": 6108,
      "ምህላ": 6109,
      "ጎን": 6110,
      "ኣብተን": 6111,
      "መዝገብ": 6112,
      "ኖርወይ": 6113,
      "ማለ": 6114,
      "ፈት": 6115,
      "##ምሩ": 6116,
      "ቅድመ": 6117,
      "ኪዀኑ": 6118,
      "ኻልእ": 6119,
      "##ራውያን": 6120,
      "ዓለምለ": 6121,
      "ጽብ": 6122,
      "ውልቃዊ": 6123,
      "ኣትሒዙ": 6124,
      "ዚነብሩ": 6125,
      "ዝተገብረ": 6126,
      "ዝኽሪ": 6127,
      "የግ": 6128,
      "##ገልጹ": 6129,
      "ከይን": 6130,
      "ኣምላኸይ": 6131,
      "ክፋ": 6132,
      "##tion": 6133,
      "ንየሆዋ": 6134,
      "ተቐሚ": 6135,
      "ከላ": 6136,
      "ሕግታት": 6137,
      "ሓፍ": 6138,
      "ባሕ": 6139,
      "በደ": 6140,
      "##ዱሽ": 6141,
      "ክትዕ": 6142,
      "በይን": 6143,
      "ተር": 6144,
      "ጠጠው": 6145,
      "##ራኽ": 6146,
      "##ከቡ": 6147,
      "ዝኸፍአ": 6148,
      "##ገብራ": 6149,
      "##ኢሉ": 6150,
      "ንስድራ": 6151,
      "ኣቦታት": 6152,
      "ዩኒቨርሲቲ": 6153,
      "ፋይ": 6154,
      "##ሉው": 6155,
      "አብዚ": 6156,
      "ንኹሎም": 6157,
      "ዝእ": 6158,
      "##ስሕ": 6159,
      "##ዶን": 6160,
      "ድንግ": 6161,
      "ካህናት": 6162,
      "ዲኹም": 6163,
      "##ዓለም": 6164,
      "##ድዎ": 6165,
      "##ሃቦም": 6166,
      "##ጠቐ": 6167,
      "ፈተነ": 6168,
      "##ሞክራስያዊ": 6169,
      "ቆጸራ": 6170,
      "ንደሊ": 6171,
      "ክገብሮ": 6172,
      "ቅልውላው": 6173,
      "ዓመጽ": 6174,
      "መብዛሕ": 6175,
      "ዝሃቦ": 6176,
      "##ሃራይ": 6177,
      "አሎኹ": 6178,
      "##ጋል": 6179,
      "##ራስ": 6180,
      "##ዕናን": 6181,
      "ርእስና": 6182,
      "##ግባእን": 6183,
      "ንባብ": 6184,
      "##ዋሩ": 6185,
      "ኔሮም": 6186,
      "ዝሃብ": 6187,
      "##ፍዎ": 6188,
      "##ከስ": 6189,
      "እንተዀነ": 6190,
      "ብሪጣንያ": 6191,
      "ኩባን": 6192,
      "ዘለካ": 6193,
      "##ቲካዊ": 6194,
      "##ናውያን": 6195,
      "##ብኩ": 6196,
      "ምኻኑ": 6197,
      "መሲሉ": 6198,
      "ሕል": 6199,
      "እባ": 6200,
      "ዓን": 6201,
      "##ፍትን": 6202,
      "2013": 6203,
      "እብ": 6204,
      "ይመር": 6205,
      "##ታተይ": 6206,
      "ዝወሰ": 6207,
      "መመ": 6208,
      "ንገብር": 6209,
      "ክትሕ": 6210,
      "ኣምላክ": 6211,
      "ቁጠባ": 6212,
      "ሸቶ": 6213,
      "ኣድራ": 6214,
      "##ፉእ": 6215,
      "ኣዝየ": 6216,
      "ህንጻ": 6217,
      "##ረኩም": 6218,
      "ነፋ": 6219,
      "ህይወትና": 6220,
      "ትንቢት": 6221,
      "ማሕበራት": 6222,
      "##ሪካን": 6223,
      "##ኮኑ": 6224,
      "ነጻነት": 6225,
      "በጺሑ": 6226,
      "ስዉ": 6227,
      "ድሌ": 6228,
      "ማዕጾ": 6229,
      "ህጹጽ": 6230,
      "##ፈለጥ": 6231,
      "##መሃር": 6232,
      "ርእየ": 6233,
      "ኣምላኽን": 6234,
      "ምልክታት": 6235,
      "##ቋር": 6236,
      "ኣይትፍር": 6237,
      "ኣእጋ": 6238,
      "ተቖ": 6239,
      "##እሰይ": 6240,
      "ሾብዓተ": 6241,
      "##ፈላለዩ": 6242,
      "ዲሞክራሲ": 6243,
      "37": 6244,
      "ውፅ": 6245,
      "##ደስቲ": 6246,
      "##ሓንስ": 6247,
      "ንሽ": 6248,
      "ዓስ": 6249,
      "##ሳል": 6250,
      "ሃብታም": 6251,
      "2015": 6252,
      "ፕሮግራም": 6253,
      "ወል": 6254,
      "ጠንቂ": 6255,
      "##ክለ": 6256,
      "ዘለኣለም": 6257,
      "የለ": 6258,
      "##ጋስ": 6259,
      "##ዱእ": 6260,
      "ደቒ": 6261,
      "ኣየድልየ": 6262,
      "ዝኣተ": 6263,
      "ሰራሕተኛ": 6264,
      "##ገሩ": 6265,
      "##ኮር": 6266,
      "##ing": 6267,
      "##ነና": 6268,
      "##ልባ": 6269,
      "##ጽሊ": 6270,
      "##id": 6271,
      "ኣይከ": 6272,
      "መሕ": 6273,
      "ትብሉ": 6274,
      "ነይርዎ": 6275,
      "ትርከብ": 6276,
      "ንክት": 6277,
      "ይድ": 6278,
      "ጀሚሮም": 6279,
      "##ሳሲ": 6280,
      "##ጀመ": 6281,
      "##ህበካ": 6282,
      "36": 6283,
      "##ሓዘ": 6284,
      "##ዩኒ": 6285,
      "##ህወ": 6286,
      "መእተ": 6287,
      "ሸሞንተ": 6288,
      "##ላላ": 6289,
      "##ዋህ": 6290,
      "ተመለስ": 6291,
      "ድሕርዚ": 6292,
      "##ኔት": 6293,
      "##ፍሕ": 6294,
      "39": 6295,
      "##ውዒ": 6296,
      "ስርዓተ": 6297,
      "ዓውዲ": 6298,
      "ጥፍኣት": 6299,
      "##ጻጸ": 6300,
      "ብተመ": 6301,
      "ንፈለማ": 6302,
      "እኽ": 6303,
      "ግዲ": 6304,
      "ሓደስቲ": 6305,
      "ንኤ": 6306,
      "##ማሚ": 6307,
      "በልኩ": 6308,
      "##ይሮ": 6309,
      "መንግሥ": 6310,
      "ተጋደልቲ": 6311,
      "ኣህጉራዊ": 6312,
      "ኾነ": 6313,
      "ንምቕ": 6314,
      "[...": 6315,
      "ዝህብ": 6316,
      "##ዕሉ": 6317,
      "እንክ": 6318,
      "ኣሎዎ": 6319,
      "##ራርባ": 6320,
      "[...]": 6321,
      "ህል": 6322,
      "ብፁ": 6323,
      "ብምእ": 6324,
      "ለባ": 6325,
      "ቅዳ": 6326,
      "##ያር": 6327,
      "##መጸ": 6328,
      "##ሊና": 6329,
      "ዓመተ": 6330,
      "ምንባሩ": 6331,
      "ዓርቢ": 6332,
      "ሓወ": 6333,
      "##እቱ": 6334,
      "ክካየድ": 6335,
      "ጎረ": 6336,
      "##el": 6337,
      "##vi": 6338,
      "ሕሙ": 6339,
      "እንተወ": 6340,
      "እተወ": 6341,
      "##ርእይዎ": 6342,
      "ሃንደ": 6343,
      "በይ": 6344,
      "##ዋሕ": 6345,
      "##ሑን": 6346,
      "ፈረንሳ": 6347,
      "ሓባራዊ": 6348,
      "##ሕግዙ": 6349,
      "ንሓድሕዶም": 6350,
      "ምቁ": 6351,
      "ትገብር": 6352,
      "##ኣዩ": 6353,
      "##ሑፍ": 6354,
      "ኣሎኻ": 6355,
      "ምድሓን": 6356,
      "ስድራቤት": 6357,
      "2ይ": 6358,
      "ቴክኖሎጂ": 6359,
      "ኣጀ": 6360,
      "ይርከቡ": 6361,
      "##ኩሮ": 6362,
      "ግፍ": 6363,
      "##ct": 6364,
      "ኣሕሊፉ": 6365,
      "ኣድላይ": 6366,
      "##ህበና": 6367,
      "ዝሰር": 6368,
      "ተመሃሮ": 6369,
      "ንቤ": 6370,
      "ንብል": 6371,
      "##መጹ": 6372,
      "##ዛእቲ": 6373,
      "##ለዩ": 6374,
      "##ቡስ": 6375,
      "ኣገደስቲ": 6376,
      "ዘሎኒ": 6377,
      "ንመጀመር": 6378,
      "ሽም": 6379,
      "ብከ": 6380,
      "ፋሕ": 6381,
      "##ቓት": 6382,
      "##ፋሽ": 6383,
      "ሥጋ": 6384,
      "ሩስያ": 6385,
      "በዓ": 6386,
      "ግዳይ": 6387,
      "ምሽ": 6388,
      "ካን": 6389,
      "ክእለት": 6390,
      "ደጋጊ": 6391,
      "##ጋሊ": 6392,
      "##ዛር": 6393,
      "##ባልነት": 6394,
      "##ረጋግጽ": 6395,
      "##ጻሕፈ": 6396,
      "##ጥፍእ": 6397,
      "ክዳን": 6398,
      "##በሎም": 6399,
      "ኣባይቲ": 6400,
      "ናባኻ": 6401,
      "ካሊእ": 6402,
      "##ልዎም": 6403,
      "##ድድ": 6404,
      "##ዲት": 6405,
      "ብምው": 6406,
      "መዚ": 6407,
      "ጀመር": 6408,
      "##የናይ": 6409,
      "ዘይፈልጥ": 6410,
      "ብዙኅ": 6411,
      "ዝወጸ": 6412,
      "ጠፊኡ": 6413,
      "ምምላስ": 6414,
      "ሕራይ": 6415,
      "ክብረ": 6416,
      "##ቃወ": 6417,
      "ተወሲ": 6418,
      "ብ2": 6419,
      "##ኣተ": 6420,
      "ከምዘለዎ": 6421,
      "60": 6422,
      "ትብ": 6423,
      "ጅግና": 6424,
      "##ስስ": 6425,
      "ዝወሃብ": 6426,
      "ዝገልጽ": 6427,
      "##ስኹም": 6428,
      "ንእግዚኣብሄር": 6429,
      "ኣይነበሮን": 6430,
      "##ሊን": 6431,
      "ኣይግባእን": 6432,
      "ኣመልኪ": 6433,
      "ተኣሲ": 6434,
      "ሕን": 6435,
      "ይሰርሕ": 6436,
      "ገን": 6437,
      "ንምእ": 6438,
      "ኣይኮነትን": 6439,
      "ነብዪ": 6440,
      "ሰላማዊ": 6441,
      "##ሪክ": 6442,
      "ህይወቱ": 6443,
      "ትኸ": 6444,
      "ዚው": 6445,
      "##ምበር": 6446,
      "ብዛዕባኡ": 6447,
      "##ክእሉ": 6448,
      "ተሪፉ": 6449,
      "ፕሬ": 6450,
      "##ሎማ": 6451,
      "ጋዜጣ": 6452,
      "ተመን": 6453,
      "ብዘሎ": 6454,
      "ተበጊ": 6455,
      "ውር": 6456,
      "ዘብል": 6457,
      "ፓርቲ": 6458,
      "##ጸግ": 6459,
      "እንቋዕ": 6460,
      "##ርዕ": 6461,
      "##ሙና": 6462,
      "እንበር": 6463,
      "##ብርን": 6464,
      "ምንባብ": 6465,
      "ትርኢ": 6466,
      "##ውና": 6467,
      "ዝተረፈ": 6468,
      "ህላ": 6469,
      "ሓዳ": 6470,
      "ንርአ": 6471,
      "##የለ": 6472,
      "ኸመይ": 6473,
      "ንቅ": 6474,
      "ውዳ": 6475,
      "##ይዱ": 6476,
      "##ኩኹም": 6477,
      "ብዝበለ": 6478,
      "ሰብኣይን": 6479,
      "እዋናት": 6480,
      "ባንክ": 6481,
      "ኣድራሻ": 6482,
      "ንእኡ": 6483,
      "ደሊኻ": 6484,
      "ኣሽሓት": 6485,
      "ኪዳ": 6486,
      "##ርነት": 6487,
      "ምስማዕ": 6488,
      "ብምም": 6489,
      "እከይ": 6490,
      "ክረ": 6491,
      "ወፍሪ": 6492,
      "ጸረ": 6493,
      "##ልዮም": 6494,
      "##ቀር": 6495,
      "##ሩና": 6496,
      "##ጠፍኡ": 6497,
      "ሚኒስትር": 6498,
      "ሰራ": 6499,
      "ዄንካ": 6500,
      "##ውል": 6501,
      "##ሓልፍ": 6502,
      "ዝበልካ": 6503,
      "##ስተን": 6504,
      "ብሓን": 6505,
      "ሓተት": 6506,
      "ሶርያ": 6507,
      "##ፈይ": 6508,
      "ዝበዝሕ": 6509,
      "መጻእ": 6510,
      "##ሙኒ": 6511,
      "##ፃእ": 6512,
      "ብቐጥታ": 6513,
      "ንሙሴ": 6514,
      "ዓርከ": 6515,
      "##ምጽእ": 6516,
      "ምኻድ": 6517,
      "ዕላል": 6518,
      "ዘድልዮ": 6519,
      "##ለጠ": 6520,
      "##ዳለወ": 6521,
      "ጌርኩም": 6522,
      "ኸምኡ": 6523,
      "ኣጸጋሚ": 6524,
      "ኔረ": 6525,
      "##ሰያስ": 6526,
      "ባህርያት": 6527,
      "እሱራት": 6528,
      "##ጸበ": 6529,
      "ኣይፋ": 6530,
      "ኣዛ": 6531,
      "ጽል": 6532,
      "##ጻም": 6533,
      "##ልጣን": 6534,
      "##ብረሉ": 6535,
      "ኣታዊ": 6536,
      "ዝፈት": 6537,
      "##ግራ": 6538,
      "ንምፍላጥ": 6539,
      "ብማዕ": 6540,
      "##na": 6541,
      "የግዳስ": 6542,
      "ሳኦል": 6543,
      "ከከም": 6544,
      "ዮሓ": 6545,
      "ጸጥታ": 6546,
      "በለቶ": 6547,
      "##ብለኒ": 6548,
      "2014": 6549,
      "ኣይከኣልን": 6550,
      "ሕድ": 6551,
      "ሬሳ": 6552,
      "ሰውራ": 6553,
      "##ከላኸ": 6554,
      "ሓለዋ": 6555,
      "መቓብር": 6556,
      "ረድ": 6557,
      "ንበይ": 6558,
      "ኻባ": 6559,
      "##ኒን": 6560,
      "##ጥኤ": 6561,
      "ብምል": 6562,
      "##ጻወት": 6563,
      "ብንጹር": 6564,
      "ክንድዚ": 6565,
      "ቅል": 6566,
      "ከል": 6567,
      "ብዘይካዚ": 6568,
      "ኣማልኽቲ": 6569,
      "##ለለ": 6570,
      "ደቀይ": 6571,
      "\"'": 6572,
      "፧'": 6573,
      "ቤትካ": 6574,
      "ንደቀ": 6575,
      "##ነበሩ": 6576,
      "##ሐጕ": 6577,
      "##ማድ": 6578,
      "ንስኹም": 6579,
      "መእተዊ": 6580,
      "ልቦም": 6581,
      "ከን": 6582,
      "ሓሰ": 6583,
      "ሳሙ": 6584,
      "ጠው": 6585,
      "##ታውን": 6586,
      "##ንዘብ": 6587,
      "ኣሰራርሓ": 6588,
      "ይብለና": 6589,
      "ወተሃደራዊ": 6590,
      "##ኸት": 6591,
      "ነይርና": 6592,
      "ብቕዓት": 6593,
      "ቀይሕ": 6594,
      "ርክ": 6595,
      "ስማዕ": 6596,
      "አነ": 6597,
      "ኣውስትራ": 6598,
      "ዝምልከ": 6599,
      "##ሪኡ": 6600,
      "ብምቕ": 6601,
      "መዓልትን": 6602,
      "ትዝ": 6603,
      "ከምዝነበረ": 6604,
      "##ርትዖ": 6605,
      "ኣፍሊጡ": 6606,
      "ምኽንያታት": 6607,
      "ኣምልኾ": 6608,
      "ወጋ": 6609,
      "##ሮፓ": 6610,
      "ንምዝ": 6611,
      "ይግበረ": 6612,
      "መጹ": 6613,
      "##ደፍ": 6614,
      "##ዋኽ": 6615,
      "ኣምጺ": 6616,
      "ንዂ": 6617,
      "ብሓይሊ": 6618,
      "##ብናዮ": 6619,
      "45": 6620,
      "##ሌፎን": 6621,
      "##ቅል": 6622,
      "##ያድ": 6623,
      "##ቶሊ": 6624,
      "ስምካ": 6625,
      "ባዕለይ": 6626,
      "ምክት": 6627,
      "ትሽ": 6628,
      "ዘጽ": 6629,
      "##ጋፍ": 6630,
      "##ብዎም": 6631,
      "ህይወትካ": 6632,
      "ተሰሪ": 6633,
      "ተገሊፁ": 6634,
      "ሚእታዊት": 6635,
      "ስግኣት": 6636,
      "##ጸይ": 6637,
      "ብዓይ": 6638,
      "##ous": 6639,
      "ዚገልጽ": 6640,
      "ሰልፍ": 6641,
      "ቀን": 6642,
      "ቤተይ": 6643,
      "ኸለዉ": 6644,
      "##ro": 6645,
      "ኣብቶም": 6646,
      "ዓም": 6647,
      "##ፍጸም": 6648,
      "##ጕም": 6649,
      "ዓመታዊ": 6650,
      "ኻብቲ": 6651,
      "##ome": 6652,
      "ድንግል": 6653,
      "ዋሕ": 6654,
      "ቀዳም": 6655,
      "ከይተረፈ": 6656,
      "ፈረ": 6657,
      "##ብኩም": 6658,
      "##ፅል": 6659,
      "ብተመሳሳሊ": 6660,
      "ሰል": 6661,
      "ተልእ": 6662,
      "ክወስድ": 6663,
      "ዘገርም": 6664,
      "ሞይቶም": 6665,
      "##ራሽ": 6666,
      "ገምጋም": 6667,
      "ምእታው": 6668,
      "44": 6669,
      "##ርእይ": 6670,
      "##ኮኖሚ": 6671,
      "ኢደይ": 6672,
      "ሂወ": 6673,
      "##ሓላለ": 6674,
      "##ቕሪ": 6675,
      "##ዝና": 6676,
      "##ምልስ": 6677,
      "ይቅ": 6678,
      "ይኾኑ": 6679,
      "##ሮስ": 6680,
      "##ብርሃ": 6681,
      "ሚያዝያ": 6682,
      "ዝቑ": 6683,
      "##ሆም": 6684,
      "ዝተበ": 6685,
      "ሰብነት": 6686,
      "ርግጽ": 6687,
      "ፅቡቕ": 6688,
      "ከረን": 6689,
      "ጻድቕ": 6690,
      "ተፈጢሩ": 6691,
      "የድልየና": 6692,
      "ንልዕሊ": 6693,
      "##et": 6694,
      "ተስ": 6695,
      "ወጺኡ": 6696,
      "ህንዲ": 6697,
      "ሓዋርያ": 6698,
      "መርትዖ": 6699,
      "##ጢር": 6700,
      "መብራህ": 6701,
      "ሓንጎ": 6702,
      "ተራእዩ": 6703,
      "1ይ": 6704,
      "ኸደ": 6705,
      "##ያሽ": 6706,
      "ምእንታ": 6707,
      "ጐይታና": 6708,
      "ማቴዎስ": 6709,
      "##ልቦ": 6710,
      "##ጽና": 6711,
      "##ሱም": 6712,
      "ምዕራብ": 6713,
      "ኣካይዳ": 6714,
      "ሕጉሳት": 6715,
      "ባቢ": 6716,
      "ዚቕ": 6717,
      "ዝበዝሐ": 6718,
      "70": 6719,
      "##መቱ": 6720,
      "##እሰ": 6721,
      "ዘይከኣ": 6722,
      "እስኪ": 6723,
      "ኣውቶ": 6724,
      "ጀሚረ": 6725,
      "##ደጋጋሚ": 6726,
      "##ጭት": 6727,
      "##ጸለ": 6728,
      "ውህበት": 6729,
      "ሒዞም": 6730,
      "ዲዩ": 6731,
      "ልዕሊኡ": 6732,
      "ፍሽኽ": 6733,
      "መሃ": 6734,
      "ብዅ": 6735,
      "ናቶም": 6736,
      "ይህብ": 6737,
      "##ብድ": 6738,
      "ተመክሮ": 6739,
      "ዓሌ": 6740,
      "##ካኒ": 6741,
      "ነገስታት": 6742,
      "##tic": 6743,
      "ኣተወ": 6744,
      "ኣይከኣል": 6745,
      "##በልኩም": 6746,
      "ብሕጊ": 6747,
      "ንታ": 6748,
      "ኢለን": 6749,
      "##ላይን": 6750,
      "ፍልስጥኤ": 6751,
      "ክሲ": 6752,
      "##አይ": 6753,
      "ንሓዋሩ": 6754,
      "ንርእሱ": 6755,
      "ሜዳ": 6756,
      "ንካል": 6757,
      "##ገቡ": 6758,
      "ስደተኛ": 6759,
      "ዝረአ": 6760,
      "ይብሃል": 6761,
      "ክትወ": 6762,
      "ነፈርቲ": 6763,
      "##መተ": 6764,
      "##ዕሶ": 6765,
      "##ሉይ": 6766,
      "ምሕደራ": 6767,
      "ብግዜ": 6768,
      "##ኛን": 6769,
      "##ውዒት": 6770,
      "##ክዎም": 6771,
      "##ላትኩም": 6772,
      "ኣይኮናን": 6773,
      "ቅዱሳት": 6774,
      "ምብጻሕ": 6775,
      "##ሕብባር": 6776,
      "ብጀ": 6777,
      "ደሴ": 6778,
      "ዘሎኻ": 6779,
      "ርእሰይ": 6780,
      "ለይትን": 6781,
      "ተጀ": 6782,
      "ክፈልጥ": 6783,
      "ግዚ": 6784,
      "##ልኹም": 6785,
      "ተታሒ": 6786,
      "ንፉ": 6787,
      "##ነሉ": 6788,
      "ምስኣ": 6789,
      "ሰማእ": 6790,
      "ኣገልገል": 6791,
      "42": 6792,
      "ሞትን": 6793,
      "ካቶሊ": 6794,
      "ወጸ": 6795,
      "##ዮስ": 6796,
      "ኣምሓ": 6797,
      "ደብረ": 6798,
      "ዲፕ": 6799,
      "ፈጢሩ": 6800,
      "##ስኡ": 6801,
      "ብተደጋጋሚ": 6802,
      "43": 6803,
      "ግዳያት": 6804,
      "ንምብ": 6805,
      "ነቢይ": 6806,
      "ወብ": 6807,
      "ወጻእ": 6808,
      "##ትለት": 6809,
      "ኣንብብ": 6810,
      "ምዃነይ": 6811,
      "መንግስተ": 6812,
      "##ደንቕ": 6813,
      "ዝፈር": 6814,
      "ጨን": 6815,
      "##ቤል": 6816,
      "ሓዱሽ": 6817,
      "ኪኸ": 6818,
      "ዕላ": 6819,
      "##ዕዝ": 6820,
      "ከይደ": 6821,
      "ስምዑ": 6822,
      "ዝቐረበ": 6823,
      "ንንጉስ": 6824,
      "ዮሓንስ": 6825,
      "##ወስዶ": 6826,
      "አሎና": 6827,
      "ተዛረብ": 6828,
      "##ቲካን": 6829,
      "ኣምላኽካ": 6830,
      "ክርስትና": 6831,
      "ተፈሊጡ": 6832,
      "ክበ": 6833,
      "##ናፍ": 6834,
      "ረኣየ": 6835,
      "##ውታ": 6836,
      "##ልቀ": 6837,
      "##ጽሎ": 6838,
      "ንስኻን": 6839,
      "ባዕሎም": 6840,
      "ቓላት": 6841,
      "##ዖን": 6842,
      "ተፈጺ": 6843,
      "##ኑይ": 6844,
      "ብምት": 6845,
      "ኣይትሕ": 6846,
      "ምህላዉ": 6847,
      "##ምማን": 6848,
      "##ፍታ": 6849,
      "##ግሪ": 6850,
      "ኣይሓ": 6851,
      "##ፈልጣ": 6852,
      "ኣዕሩኽ": 6853,
      "##መላለስ": 6854,
      "##ምም": 6855,
      "##ጦስ": 6856,
      "ኣዝያ": 6857,
      "ሓቢርና": 6858,
      "ዚግበር": 6859,
      "ደድ": 6860,
      "##ላውን": 6861,
      "##ነኒ": 6862,
      "##ጓስ": 6863,
      "ንምድሪ": 6864,
      "ኣመና": 6865,
      "ብኣንጻሩ": 6866,
      "##ሳተፍቲ": 6867,
      "ኣረጋጊ": 6868,
      "ክለ": 6869,
      "##መናን": 6870,
      "##ዋሚ": 6871,
      "##መርቲ": 6872,
      "ዓብይ": 6873,
      "ዓሰርተው": 6874,
      "ጥበበኛ": 6875,
      "ምተ": 6876,
      "ኮርያ": 6877,
      "ዘይክ": 6878,
      "##ፈልጦን": 6879,
      "##ልካን": 6880,
      "2009": 6881,
      "ብደረጃ": 6882,
      "More": 6883,
      "##ፍጽም": 6884,
      "##ፋሕ": 6885,
      "##ገብሮም": 6886,
      "ርግጸኛ": 6887,
      "ቈልዓ": 6888,
      "ተበግሶ": 6889,
      "ኣይከኣልኩን": 6890,
      "መዳ": 6891,
      "##ረኸበ": 6892,
      "ረኺቡ": 6893,
      "ጥቕሲ": 6894,
      "ሊብያ": 6895,
      "##ደቕ": 6896,
      "##ክልተ": 6897,
      "ንባዕሉ": 6898,
      "መዓት": 6899,
      "ኢጣ": 6900,
      "##ፈረ": 6901,
      "ኣውሮጳ": 6902,
      "ብብዙሕ": 6903,
      "ኮሚቴ": 6904,
      "ኬንያ": 6905,
      "##ጋራ": 6906,
      "እትርከብ": 6907,
      "ምድላው": 6908,
      "##revi": 6909,
      "ኸነ": 6910,
      "ዲና": 6911,
      "ድሒ": 6912,
      "##ጻዕቲ": 6913,
      "##ኩር": 6914,
      "##ወስዱ": 6915,
      "ነፋሪት": 6916,
      "ተሃ": 6917,
      "ኃጢኣት": 6918,
      "ዓሊ": 6919,
      "2012": 6920,
      "ኣምባ": 6921,
      "ንገለ": 6922,
      "ኣገልጋሊ": 6923,
      "ሕሰ": 6924,
      "ይቀ": 6925,
      "##በልዑ": 6926,
      "ብርክት": 6927,
      "##መስግነካ": 6928,
      "##revious": 6929,
      "ሰፈር": 6930,
      "ስው": 6931,
      "ቅሩብ": 6932,
      "ብሃ": 6933,
      "##ሐት": 6934,
      "ዕድሚ": 6935,
      "ብብዝሒ": 6936,
      "ኣቃ": 6937,
      "##ሪስ": 6938,
      "##ቦና": 6939,
      "እምባ": 6940,
      "198": 6941,
      "ኣውራጃ": 6942,
      "ዓርከይ": 6943,
      "80": 6944,
      "ጸቕ": 6945,
      "ቅድመይ": 6946,
      "ብዝተፈላለየ": 6947,
      "ፍቓደ": 6948,
      "እደሊ": 6949,
      "##ጠል": 6950,
      "ጻድቃን": 6951,
      "ዛጊት": 6952,
      "ጸን": 6953,
      "መናእሰይ": 6954,
      "ሚስ": 6955,
      "ተርእዮ": 6956,
      "##ይል": 6957,
      "##ክሲ": 6958,
      "ንዘሎ": 6959,
      "ሰሚዐ": 6960,
      "ተገዲ": 6961,
      "መቸ": 6962,
      "መባእ": 6963,
      "ዘኽ": 6964,
      "##ዘኒ": 6965,
      "ባርነት": 6966,
      "ቡን": 6967,
      "ብሚ": 6968,
      "ኩን": 6969,
      "##he": 6970,
      "##ድሕድ": 6971,
      "197": 6972,
      "መሬ": 6973,
      "ተሳት": 6974,
      "ዝል": 6975,
      "ይበ": 6976,
      "በዓልቲ": 6977,
      "ሓሚ": 6978,
      "ምባ": 6979,
      "ትነብር": 6980,
      "##ንዱ": 6981,
      "ሓደራ": 6982,
      "##ስትዮን": 6983,
      "ግዝኣት": 6984,
      "ደቀንስትዮ": 6985,
      "ሚካኤል": 6986,
      "ቀትሪ": 6987,
      "##ገሰ": 6988,
      "ሊቀ": 6989,
      "##ርዓት": 6990,
      "ተመሪ": 6991,
      "ኣፍሪካ": 6992,
      "ደብዳበ": 6993,
      "ዅሎም": 6994,
      "##ቡዕ": 6995,
      "ዝተጠቕ": 6996,
      "ኣስዒ": 6997,
      "ሕጻን": 6998,
      "ያዕ": 6999,
      "ይገብሩ": 7000,
      "##ላቱ": 7001,
      "##ደመ": 7002,
      "ምዃንካ": 7003,
      "ሳሙኤል": 7004,
      "ዘዕ": 7005,
      "ፍጻመ": 7006,
      "መድሃኒት": 7007,
      "መጥ": 7008,
      "ኣመስ": 7009,
      "ክክክ": 7010,
      "ጳጳ": 7011,
      "##ሰባት": 7012,
      "ዕብየት": 7013,
      "ነሓሰ": 7014,
      "ኲሎም": 7015,
      "##ቪድ": 7016,
      "ውጽኢ": 7017,
      "ተረኺቡ": 7018,
      "##ትዩ": 7019,
      "ግዴታ": 7020,
      "ባቢሎን": 7021,
      "በቃ": 7022,
      "ዕማም": 7023,
      "ድራ": 7024,
      "ጸሓፍ": 7025,
      "##ጋእ": 7026,
      "##ዳል": 7027,
      "ዘመነ": 7028,
      "ወጋሕታ": 7029,
      "ተጣ": 7030,
      "ንዮ": 7031,
      "ዝደልዩ": 7032,
      "##ምሃር": 7033,
      "ካብዞም": 7034,
      "ክህብ": 7035,
      "ጭንቀ": 7036,
      "##ፍረ": 7037,
      "መለስ": 7038,
      "##ጀት": 7039,
      "ደሞዝ": 7040,
      "ብሃን": 7041,
      "##ቓሕ": 7042,
      "ከምዝኽእል": 7043,
      "ኣትዮም": 7044,
      "ዝርርብ": 7045,
      "ፈሊጥ": 7046,
      "ብራ": 7047,
      "ንጐይታ": 7048,
      "ኩናት": 7049,
      "ኰን": 7050,
      "ከይዲ": 7051,
      "ዝኸበር": 7052,
      "ሜላ": 7053,
      "ምርግጋ": 7054,
      "ኢዮ": 7055,
      "##ርፊ": 7056,
      "##ሓቱ": 7057,
      "##ቸስኮ": 7058,
      "ውሑድ": 7059,
      "ሰብኡት": 7060,
      "ቃንዛ": 7061,
      "ዓድና": 7062,
      "ክንቅ": 7063,
      "ብውሑ": 7064,
      "ዕለተ": 7065,
      "Home": 7066,
      "ዝጎ": 7067,
      "ጠቕ": 7068,
      "##ትሮ": 7069,
      "##ካር": 7070,
      "##ጹን": 7071,
      "ድንኳን": 7072,
      "ለበዳ": 7073,
      "ወሲኹ": 7074,
      "ድኅ": 7075,
      "ድራር": 7076,
      "##ርዳእ": 7077,
      "##ፍቅር": 7078,
      "መምህ": 7079,
      "##በስ": 7080,
      "##ጥቅ": 7081,
      "##ዋእ": 7082,
      "ገሊፆም": 7083,
      "ኣበርክቶ": 7084,
      "ክኣቱ": 7085,
      "##በኦ": 7086,
      "##ካልእ": 7087,
      "##ስኽ": 7088,
      "ድልየት": 7089,
      "ሰባትን": 7090,
      "ነባሪ": 7091,
      "##ፍተ": 7092,
      "ዘይወ": 7093,
      "ኣነውን": 7094,
      "ህልው": 7095,
      "ንኡስ": 7096,
      "##ህበኒ": 7097,
      "ተኻይዱ": 7098,
      "ኢህወ": 7099,
      "ደቓይ": 7100,
      "ሊቃ": 7101,
      "##ፈና": 7102,
      "ወከፍና": 7103,
      "##ዘራረብ": 7104,
      "ዓወ": 7105,
      "ደሃይ": 7106,
      "ፍቃ": 7107,
      "ዘኽእል": 7108,
      "ክንዳ": 7109,
      "ብሓዊ": 7110,
      "ብርኪ": 7111,
      "ጽኑዕ": 7112,
      "##ናኸ": 7113,
      "ክንርኢ": 7114,
      "ኩባንያ": 7115,
      "ንቤተ": 7116,
      "ብቓ": 7117,
      "##ደዱ": 7118,
      "##ኻእለ": 7119,
      "ሃገሮም": 7120,
      "ንዝኾነ": 7121,
      "ጥንሲ": 7122,
      "##ውዑ": 7123,
      "##ፋፍ": 7124,
      "##ምህርቲ": 7125,
      "ድምፂ": 7126,
      "አይኮነን": 7127,
      "እንድዩ": 7128,
      "ወሪዱ": 7129,
      "ንቤት": 7130,
      "ካህን": 7131,
      "##ሃቡ": 7132,
      "##ጥሕ": 7133,
      "ባዕልና": 7134,
      "ክፉት": 7135,
      "ቅድሜኻ": 7136,
      "ነዳዲ": 7137,
      "ክውን": 7138,
      "ሰማያዊ": 7139,
      "ዝበዝሑ": 7140,
      "ተፈጺሙ": 7141,
      "ዋይ": 7142,
      "##ከለ": 7143,
      "ኣብዘን": 7144,
      "መረፃ": 7145,
      "ምጥቃም": 7146,
      "ሕጽ": 7147,
      "መኸ": 7148,
      "ፀገ": 7149,
      "ብቅ": 7150,
      "ግራት": 7151,
      "##ድኩ": 7152,
      "##ቋንቋ": 7153,
      "ክትው": 7154,
      "ክርኢ": 7155,
      "ይክ": 7156,
      "##ኖን": 7157,
      "ክትረኽቡ": 7158,
      "ንብዓት": 7159,
      "ዝሰርሑ": 7160,
      "ይዛረቡ": 7161,
      "##ብለና": 7162,
      "ምህላው": 7163,
      "ድኻታት": 7164,
      "ሓዋርያት": 7165,
      "በቶም": 7166,
      "ተዘር": 7167,
      "ተሳተፍቲ": 7168,
      "##ሮምን": 7169,
      "##ፊት": 7170,
      "##ኻኸ": 7171,
      "##ጉይ": 7172,
      "ፍርሒ": 7173,
      "##ሃህላ": 7174,
      "ሓጊ": 7175,
      "##ዛዘ": 7176,
      "##ጋብ": 7177,
      "##በኹ": 7178,
      "ገሊጾም": 7179,
      "ንቕድሚት": 7180,
      "ንእስራኤል": 7181,
      "ተጀሚሩ": 7182,
      "ዕጽ": 7183,
      "ይጸ": 7184,
      "##ተም": 7185,
      "##ለዎም": 7186,
      "ለካቲት": 7187,
      "ንጎ": 7188,
      "##ኮን": 7189,
      "##በዝሕ": 7190,
      "መንግስትን": 7191,
      "ኤፍ": 7192,
      "##ኮት": 7193,
      "ዘይብ": 7194,
      "ኣመንቲ": 7195,
      "ተቐባልነት": 7196,
      "ሰበይቱ": 7197,
      "ኮይንካ": 7198,
      "ደድሕሪ": 7199,
      "ንበል": 7200,
      "##ላሴ": 7201,
      "ኣመሓ": 7202,
      "##ክርስቶስ": 7203,
      "ፍራንቸስኮ": 7204,
      "ትርጉሙ": 7205,
      "Previous": 7206,
      "##ሉኡ": 7207,
      "ዝርአ": 7208,
      "ዝቕጽል": 7209,
      "መጨ": 7210,
      "ጥንቲ": 7211,
      "##ኣኩም": 7212,
      "ኰይኖም": 7213,
      "ይግባ": 7214,
      "ሓደሽቲ": 7215,
      "ተወልደ": 7216,
      "ታሪኻዊ": 7217,
      "ነሩ": 7218,
      "##ኣነ": 7219,
      "##ፖር": 7220,
      "##ጡን": 7221,
      "ኣንፈት": 7222,
      "ምሳታቶም": 7223,
      "ዝፈጠ": 7224,
      "ብሂ": 7225,
      "##ነር": 7226,
      "##ኽእሉን": 7227,
      "እንስሳታት": 7228,
      "ዝሐ": 7229,
      "ደራሲ": 7230,
      "##አና": 7231,
      "ኣቕሪ": 7232,
      "ዘጋጠ": 7233,
      "ድኽነት": 7234,
      "Me": 7235,
      "ማል": 7236,
      "ዘድ": 7237,
      "##ፍጽ": 7238,
      "##ሠር": 7239,
      "ኣይደለ": 7240,
      "ተቐቲ": 7241,
      "ጸብጻ": 7242,
      "መጻምድ": 7243,
      "ክትን": 7244,
      "##ዲሙ": 7245,
      "ኣይሕ": 7246,
      "ንምት": 7247,
      "ምጉ": 7248,
      "ትቕ": 7249,
      "ዘሰ": 7250,
      "##ጽዎ": 7251,
      "##ss": 7252,
      "ሓለቓ": 7253,
      "መላኺ": 7254,
      "ስሩዕ": 7255,
      "ዞም": 7256,
      "ጽሒ": 7257,
      "##ልምና": 7258,
      "ከምቶም": 7259,
      "ካብኣ": 7260,
      "ተቃ": 7261,
      "ኵናት": 7262,
      "ዝሞቱ": 7263,
      "ደልየ": 7264,
      "##ክዋ": 7265,
      "ኣብዝ": 7266,
      "ዝነበሮም": 7267,
      "ክእለ": 7268,
      "መገድታት": 7269,
      "ኒው": 7270,
      "ዚኣ": 7271,
      "ክንገብሮ": 7272,
      "ብዘይም": 7273,
      "ብብር": 7274,
      "ነበራ": 7275,
      "እገዳ": 7276,
      "ጎደና": 7277,
      "##መዝ": 7278,
      "ምስዚ": 7279,
      "ንብዘ": 7280,
      "##ግረና": 7281,
      "በደል": 7282,
      "##ch": 7283,
      "ዓይነታት": 7284,
      "ቤተሰብ": 7285,
      "ኣይክእሉን": 7286,
      "ሓለፍቲ": 7287,
      "ኣኽራን": 7288,
      "መንግስታዊ": 7289,
      "##ፈሩ": 7290,
      "##ቢይ": 7291,
      "ንኣኻ": 7292,
      "ጻዕዳ": 7293,
      "ንበይኑ": 7294,
      "ፍጡር": 7295,
      "ብጉ": 7296,
      "ጸበባ": 7297,
      "እንታ": 7298,
      "እናሰ": 7299,
      "ንምዃኑ": 7300,
      "48": 7301,
      "##ሐይ": 7302,
      "ህይወቶም": 7303,
      "ዲፕሎማ": 7304,
      "የመን": 7305,
      "##ድማ": 7306,
      "##ኩሞ": 7307,
      "##ኽእላ": 7308,
      "መሰው": 7309,
      "ኣካላዊ": 7310,
      "ተረዲ": 7311,
      "እዝስ": 7312,
      "##ስቡክ": 7313,
      "ትደልዩ": 7314,
      "ንኸውን": 7315,
      "ዝገብሩ": 7316,
      "##ሕድሕ": 7317,
      "ግዜን": 7318,
      "ኣልዒ": 7319,
      "ሳይ": 7320,
      "ብኹሉ": 7321,
      "እማ": 7322,
      "ክብረት": 7323,
      "ኵለን": 7324,
      "##ረስዕ": 7325,
      "ብምግ": 7326,
      "ኣእዳው": 7327,
      "ጸዊዑ": 7328,
      "##ማሪ": 7329,
      "##ጽጻር": 7330,
      "እተቐ": 7331,
      "ኣሕመድ": 7332,
      "መደም": 7333,
      "ተኣኪ": 7334,
      "ደቓይቕ": 7335,
      "ሓመድ": 7336,
      "ዝቀ": 7337,
      "ገዚ": 7338,
      "ጥሜት": 7339,
      "ዘየለ": 7340,
      "ዝኾና": 7341,
      "ኣጽዋር": 7342,
      "##ጠቓልል": 7343,
      "--": 7344,
      "ቁፅ": 7345,
      "ተው": 7346,
      "##ተተ": 7347,
      "##ያየ": 7348,
      "##ሩም": 7349,
      "እዋኑ": 7350,
      "ሓብ": 7351,
      "ኢሰያስ": 7352,
      "##ይዎም": 7353,
      "##ሓየ": 7354,
      "##ዝብ": 7355,
      "##ቴር": 7356,
      "##ርእያ": 7357,
      "ጀመሩ": 7358,
      "##በኛታት": 7359,
      "ኣንበብ": 7360,
      "##ርእዮም": 7361,
      "ዝተረፉ": 7362,
      "ንመር": 7363,
      "መግዛእቲ": 7364,
      "ሕማማት": 7365,
      "ነብያት": 7366,
      "##ንግሊ": 7367,
      "ሓልዮ": 7368,
      "##ዛይ": 7369,
      "##ሪን": 7370,
      "ብግብሪ": 7371,
      "500": 7372,
      "##nd": 7373,
      "##ዳምነት": 7374,
      "ስቓይ": 7375,
      "ውዒ": 7376,
      "ኣንስተይቲ": 7377,
      "2010": 7378,
      "ተባዕትዮ": 7379,
      "##ሎሚ": 7380,
      "##ኪን": 7381,
      "##ረድእ": 7382,
      "ዘካ": 7383,
      "##ሊኡ": 7384,
      "ከይዶም": 7385,
      "##በልዎ": 7386,
      "ታቦት": 7387,
      "የዕ": 7388,
      "ገዳም": 7389,
      "ግጥም": 7390,
      "ክገብረ": 7391,
      "##ግዝ": 7392,
      "ዘለኒ": 7393,
      "##ዛረቦም": 7394,
      "የብልካን": 7395,
      "##ብዓይ": 7396,
      "ኵላትና": 7397,
      "ዓቅ": 7398,
      "##ሕግዘና": 7399,
      "ሓፋሽ": 7400,
      "##ገባ": 7401,
      "##ታተን": 7402,
      "##ጽካ": 7403,
      "##ኾና": 7404,
      "ኣይኽእልን": 7405,
      "ኣንበሳ": 7406,
      "ምርዳእ": 7407,
      "ብነጻ": 7408,
      "ወሊ": 7409,
      "ነይረን": 7410,
      "ኣገዳስነት": 7411,
      "ልኢ": 7412,
      "ሕሰብ": 7413,
      "ከንቱ": 7414,
      "ወኪ": 7415,
      "##ክቱ": 7416,
      "##ቐም": 7417,
      "ባህላዊ": 7418,
      "ንእግዚአብሔር": 7419,
      "##ነወ": 7420,
      "##ri": 7421,
      "ዘለወን": 7422,
      "ባንኪ": 7423,
      "እስራኤልን": 7424,
      "የብላን": 7425,
      "ጸቕጢ": 7426,
      "ዝጀመረ": 7427,
      "##እል": 7428,
      "ተሳትፎ": 7429,
      "ሰራዊ": 7430,
      "ምሕሳብ": 7431,
      "ተጠቀ": 7432,
      "##ከልቲ": 7433,
      "ንድኻ": 7434,
      "ወሃብ": 7435,
      "ዝደል": 7436,
      "##ሕዎ": 7437,
      "##ዕኩም": 7438,
      "ኣንስ": 7439,
      "መግለፂ": 7440,
      "እንተዘይኮይኑ": 7441,
      "##ቕርቡ": 7442,
      "ቍጽሪ": 7443,
      "ዚነብር": 7444,
      "ስዒቡ": 7445,
      "ፍልስጥኤማውያን": 7446,
      "ቢቢሲ": 7447,
      "ኔራ": 7448,
      "##ራረ": 7449,
      "##ዐት": 7450,
      "##ሓስቡ": 7451,
      "ተቓወምቲ": 7452,
      "ዅነታት": 7453,
      "ዝኮነ": 7454,
      "ዲያ": 7455,
      "ምንባ": 7456,
      "ምርምር": 7457,
      "ድያብሎስ": 7458,
      "ኣኺ": 7459,
      "ካርድ": 7460,
      "ዘሕዝን": 7461,
      "ደቆም": 7462,
      "##ጸረ": 7463,
      "##ዩና": 7464,
      "ተስፋይ": 7465,
      "ኣዒንቲ": 7466,
      "ኣጀንዳ": 7467,
      "##ሕድ": 7468,
      "##ሓብ": 7469,
      "##ክታ": 7470,
      "##ደላ": 7471,
      "ብኣምላኽ": 7472,
      "ተንሲኡ": 7473,
      "መብር": 7474,
      "##ርኻ": 7475,
      "##ws": 7476,
      "ዝተመር": 7477,
      "##ጥፍኡ": 7478,
      "##ጽሓፍ": 7479,
      "##በርቲ": 7480,
      "##በሩን": 7481,
      "##ፈልጦም": 7482,
      "ይቕጽል": 7483,
      "##ዓዝያ": 7484,
      "ሓጥያት": 7485,
      "እዉን": 7486,
      "ድየ": 7487,
      "##ሰለ": 7488,
      "##ኩኻ": 7489,
      "ንዝብል": 7490,
      "2011": 7491,
      "ብቋንቋ": 7492,
      "እቶት": 7493,
      "##ትስ": 7494,
      "##ሽጢ": 7495,
      "ደምበ": 7496,
      "መዛሙርቲ": 7497,
      "ህው": 7498,
      "ሲቪ": 7499,
      "ስትራ": 7500,
      "ኤር": 7501,
      "##ዘና": 7502,
      "##ቡጥ": 7503,
      "ኣይፍቀ": 7504,
      "ኣባጊዕ": 7505,
      "##ማንነት": 7506,
      "እንተዘይተ": 7507,
      "ንክርስ": 7508,
      "ክብርን": 7509,
      "ስዑ": 7510,
      "ሽጋራ": 7511,
      "እኒ": 7512,
      "##ረትን": 7513,
      "##ነበር": 7514,
      "##ጥታት": 7515,
      "ብልክዕ": 7516,
      "##ርግጋ": 7517,
      "መገሻ": 7518,
      "##ጋን": 7519,
      "ሃገሩ": 7520,
      "ሓድሓደ": 7521,
      "ከባቢታት": 7522,
      "ሓጋዚ": 7523,
      "ኣምባሳ": 7524,
      "ምግባ": 7525,
      "በሃ": 7526,
      "ምስታ": 7527,
      "ብሓንሳብ": 7528,
      "እቶ": 7529,
      "##ተንስ": 7530,
      "ፍልይ": 7531,
      "##ገዝእ": 7532,
      "ልብኹም": 7533,
      "ዓለምለኻዊ": 7534,
      "ቃሉ": 7535,
      "ጠቓ": 7536,
      "##ታውያን": 7537,
      "ፈሪሳውያን": 7538,
      "ብወገነይ": 7539,
      "##ቃር": 7540,
      "መሓዙ": 7541,
      "ገበነ": 7542,
      "41": 7543,
      "ኢኮኖሚ": 7544,
      "##ዓዪ": 7545,
      "##ታትኩም": 7546,
      "ዘይሰ": 7547,
      "##ምርዓ": 7548,
      "ብመገዲ": 7549,
      "ትግራ": 7550,
      "ንብረ": 7551,
      "##በትን": 7552,
      "##ሰኒ": 7553,
      "ኤፌ": 7554,
      "ዚወ": 7555,
      "##ጻዕ": 7556,
      "መኣዲ": 7557,
      "መቸም": 7558,
      "ብለይቲ": 7559,
      "ዓለማዊ": 7560,
      "ዝቖ": 7561,
      "ዝተዛረቦ": 7562,
      "እናኣ": 7563,
      "##ርጋሕ": 7564,
      "ዓውደ": 7565,
      "ውላድ": 7566,
      "ብቛ": 7567,
      "ኣያ": 7568,
      "##ሚን": 7569,
      "ኣልኮ": 7570,
      "ባህርያዊ": 7571,
      "##ቕርቦ": 7572,
      "ተመስገን": 7573,
      "ሃፍቲ": 7574,
      "ጥዕናን": 7575,
      "##ዓም": 7576,
      "ኣርብዓ": 7577,
      "ምውጻእ": 7578,
      "ክወጽእ": 7579,
      "##ህልወካ": 7580,
      "መደምደም": 7581,
      "ዚስዕብ": 7582,
      "ገድሊ": 7583,
      "##በደ": 7584,
      "ምስላ": 7585,
      "ምርመራ": 7586,
      "##ነትና": 7587,
      "ዘሎን": 7588,
      "እጃ": 7589,
      "ብኡብኡ": 7590,
      "ትሑት": 7591,
      "ጨንፈር": 7592,
      "ሃቦም": 7593,
      "##ርቶ": 7594,
      "እናሃ": 7595,
      "##ርከስ": 7596,
      "ዕድሜ": 7597,
      "ድልየ": 7598,
      "ሞባይ": 7599,
      "ትኽእ": 7600,
      "ን1": 7601,
      "##ሕዋ": 7602,
      "##በዮ": 7603,
      "##እምሮ": 7604,
      "##ጽአ": 7605,
      "##ደልየ": 7606,
      "ንህይወት": 7607,
      "ብክርስቶስ": 7608,
      "ገዛና": 7609,
      "##ክርስቲያን": 7610,
      "##ፍቅሮ": 7611,
      "ካባኻ": 7612,
      "ወግዓዊ": 7613,
      "##ርስቲ": 7614,
      "##ክቲ": 7615,
      "##ጐሱ": 7616,
      "እተፈላለየ": 7617,
      "ከምዘለዉ": 7618,
      "ኻብቶም": 7619,
      "ዚስም": 7620,
      "##ዕቢ": 7621,
      "##ደሎም": 7622,
      "ዘይኣ": 7623,
      "ሸነኽ": 7624,
      "ኖህ": 7625,
      "##ውትን": 7626,
      "ገዛኢ": 7627,
      "ብኣካል": 7628,
      "መደረ": 7629,
      "ትመስል": 7630,
      "ኃጢ": 7631,
      "##ካስ": 7632,
      "ዘይከኣል": 7633,
      "ኣባና": 7634,
      "ኣሰና": 7635,
      "ሚኒስትሪ": 7636,
      "ስለዝተ": 7637,
      "##ሚት": 7638,
      "ተጻሒፉ": 7639,
      "##ፍራህ": 7640,
      "ቀልጢፉ": 7641,
      "ምትእምማን": 7642,
      "ዝደልዮ": 7643,
      "ካባኻትኩም": 7644,
      "ብጻይ": 7645,
      "ሰሙናት": 7646,
      "ነቒ": 7647,
      "##ረክ": 7648,
      "##ጋዕ": 7649,
      "##ባውያን": 7650,
      "##ጽሉ": 7651,
      "ምስኦም": 7652,
      "ንምባል": 7653,
      "##ባብሮ": 7654,
      "ማእኸል": 7655,
      "ሃና": 7656,
      "ጽዮን": 7657,
      "##መላ": 7658,
      "##ስታን": 7659,
      "##ሰላ": 7660,
      "##ድልን": 7661,
      "com": 7662,
      "ሕሳብ": 7663,
      "ኣራዊት": 7664,
      "ደረት": 7665,
      "##ለኹም": 7666,
      "ብዛዕብ": 7667,
      "ስለዝነበረ": 7668,
      "ሳዕቤን": 7669,
      "ቅብ": 7670,
      "ዜድልየ": 7671,
      "ዝሞተ": 7672,
      "##ላዕለ": 7673,
      "##ጋር": 7674,
      "##ኸፍ": 7675,
      "##ዥን": 7676,
      "ንመጻኢ": 7677,
      "ሰበይትን": 7678,
      "ኮሚሽን": 7679,
      "ንቐ": 7680,
      "ሒዝካ": 7681,
      "to": 7682,
      "ርሒ": 7683,
      "እፈቱ": 7684,
      "ክራይ": 7685,
      "ደቃ": 7686,
      "ድሓር": 7687,
      "##ነፍ": 7688,
      "##ለዮ": 7689,
      "##ዋፍ": 7690,
      "ክንሕ": 7691,
      "ተራኺ": 7692,
      "ሓንሳእ": 7693,
      "ነንሕድሕ": 7694,
      "ሕግን": 7695,
      "ይካየድ": 7696,
      "##ኦትን": 7697,
      "##በኩም": 7698,
      "ንዓመታት": 7699,
      "##በጽሑ": 7700,
      "ወተሃደራት": 7701,
      "ብቑዕ": 7702,
      "ሃንደበት": 7703,
      "ደየ": 7704,
      "ዓገብ": 7705,
      "##በለት": 7706,
      "##ዝገብ": 7707,
      "##ኃት": 7708,
      "ብሩህ": 7709,
      "ምሂ": 7710,
      "##ሰምዓ": 7711,
      "ብዘላ": 7712,
      "ክሓልፍ": 7713,
      "ርዱእ": 7714,
      "##ጸብ": 7715,
      "##ርባ": 7716,
      "##ዜኡ": 7717,
      "ኣኼባታት": 7718,
      "ጽንዓት": 7719,
      "ብምዃን": 7720,
      "በይንኻ": 7721,
      "ሓገ": 7722,
      "ወታ": 7723,
      "ጽባ": 7724,
      "##ጸሙ": 7725,
      "ንሓንቲ": 7726,
      "ክነግረ": 7727,
      "ህይወትን": 7728,
      "ንቑ": 7729,
      "እብል": 7730,
      "ዘበን": 7731,
      "ይጽበ": 7732,
      "ዝድለ": 7733,
      "መሰውኢ": 7734,
      "ጎቦ": 7735,
      "##ፈራ": 7736,
      "ብተግባር": 7737,
      "ተዋሳ": 7738,
      "ዓለምን": 7739,
      "መፂ": 7740,
      "ኣቋ": 7741,
      "##ዓዮ": 7742,
      "##ታታት": 7743,
      "##ኸውንን": 7744,
      "ዕድላት": 7745,
      "ንወዲ": 7746,
      "ኣጸቢቑ": 7747,
      "ኻልኣይ": 7748,
      "ተና": 7749,
      "##ግዕ": 7750,
      "##ልክ": 7751,
      "##ዳሪ": 7752,
      "ርእዩ": 7753,
      "ኣመራርሓ": 7754,
      "ክቕጽል": 7755,
      "ዝኣመሰሉ": 7756,
      "ዝግብኦ": 7757,
      "መጨረ": 7758,
      "ንና": 7759,
      "##ትኹም": 7760,
      "##ደቐ": 7761,
      "ፕረሲ": 7762,
      "ቅቡል": 7763,
      "ኩኑ": 7764,
      "ዘክር": 7765,
      "##ሰካ": 7766,
      "ዝብልዎ": 7767,
      "2008": 7768,
      "መረጻ": 7769,
      "ትእዛዛ": 7770,
      "ኣቡነ": 7771,
      "ተወሊዱ": 7772,
      "ቕድሚ": 7773,
      "ኮር": 7774,
      "ደለይቲ": 7775,
      "ጉዳ": 7776,
      "##ወንታዊ": 7777,
      "ትእዛዛት": 7778,
      "በጃኹም": 7779,
      "ስጕ": 7780,
      "ጌረ": 7781,
      "##ብዒ": 7782,
      "##ወና": 7783,
      "እንተይ": 7784,
      "ፍርሃት": 7785,
      "##መልከ": 7786,
      "ቐዳማይ": 7787,
      "መብርሂ": 7788,
      "ሃቡ": 7789,
      "ተፋ": 7790,
      "ዜግ": 7791,
      "##አል": 7792,
      "ስርሑ": 7793,
      "ኢየን": 7794,
      "ሚኢ": 7795,
      "##ውድ": 7796,
      "ከምታ": 7797,
      "ተማሃሮ": 7798,
      "ኮቪድ": 7799,
      "ዘይብላ": 7800,
      "ኣለወን": 7801,
      "ሃይማኖታዊ": 7802,
      "ኤልያስ": 7803,
      "ተኣምራት": 7804,
      "ደሞክራሲ": 7805,
      "##መረት": 7806,
      "ካብኣቶም": 7807,
      "ብሓጺሩ": 7808,
      "ትምህርትን": 7809,
      "መድሓኒ": 7810,
      "##ስምዕ": 7811,
      "ዝነበርና": 7812,
      "ጋዜጠኛ": 7813,
      "ቛንቋ": 7814,
      "ተጨ": 7815,
      "ትኹ": 7816,
      "##ፍረት": 7817,
      "##ኽልቲ": 7818,
      "##ra": 7819,
      "ስርዓታት": 7820,
      "ኣሉታዊ": 7821,
      "ንዳዊት": 7822,
      "ዓይን": 7823,
      "##ጸባር": 7824,
      "ኣይኣ": 7825,
      "ኣቦኹም": 7826,
      "ናባኻትኩም": 7827,
      "ጀመርኩ": 7828,
      "ትኽእሊ": 7829,
      "ኩዕሶ": 7830,
      "ካሕ": 7831,
      "ኵላ": 7832,
      "ውዕ": 7833,
      "ጻውዒት": 7834,
      "##ጅመር": 7835,
      "ንምርግጋ": 7836,
      "ጀሚራ": 7837,
      "ይቕሬታ": 7838,
      "ዝናብ": 7839,
      "ይነብሩ": 7840,
      "ግቡ": 7841,
      "##ሸል": 7842,
      "ኣይትፈልጡን": 7843,
      "ዝተፈጸመ": 7844,
      "መደምደምታ": 7845,
      "ክጅምር": 7846,
      "ድሙ": 7847,
      "##ውዎ": 7848,
      "##ህዶ": 7849,
      "##መንት": 7850,
      "ኣፍሊ": 7851,
      "ንኸይ": 7852,
      "ይስሃ": 7853,
      "ጠለብ": 7854,
      "##ገዱ": 7855,
      "##ግዚኣብ": 7856,
      "ፍቕርን": 7857,
      "ተመልሰ": 7858,
      "በይነይ": 7859,
      "ኢጣልያ": 7860,
      "ሒዘ": 7861,
      "ርስቲ": 7862,
      "ኪወ": 7863,
      "##ቃለ": 7864,
      "##__": 7865,
      "ኣሎዉ": 7866,
      "##ራኸቡ": 7867,
      "ዓርኪ": 7868,
      "ኣፉ": 7869,
      "ዓሪ": 7870,
      "የድልዮ": 7871,
      "ይደልዩ": 7872,
      "##ተካ": 7873,
      "##ቃቐ": 7874,
      "ኣዋል": 7875,
      "ተባሂሎም": 7876,
      "ሃይለ": 7877,
      "መቕጻዕቲ": 7878,
      "እምብዛ": 7879,
      "ለም": 7880,
      "ሠለስተ": 7881,
      "ብምንታይ": 7882,
      "ኣሰር": 7883,
      "ክርከብ": 7884,
      "##ተየ": 7885,
      "##ዩም": 7886,
      "ኣይረኣ": 7887,
      "መብጽዓ": 7888,
      "ጉድኣት": 7889,
      "ንባ": 7890,
      "##ረቕ": 7891,
      "##ክሩ": 7892,
      "ዘይነበረ": 7893,
      "ዝመጻእ": 7894,
      "ማሕበራ": 7895,
      "ማዕከ": 7896,
      "እነሆ": 7897,
      "ብመልክዕ": 7898,
      "ደቒቕ": 7899,
      "ar": 7900,
      "ምሓ": 7901,
      "ካናዳ": 7902,
      "ክረኽቡ": 7903,
      "ኣቢሎም": 7904,
      "##ርዳኖስ": 7905,
      "ሲኦል": 7906,
      "ብኣይ": 7907,
      "ጠቒ": 7908,
      "##em": 7909,
      "##ኳኑ": 7910,
      "ልኡኽ": 7911,
      "Cor": 7912,
      "ኣድል": 7913,
      "##ዲያ": 7914,
      "##ቓን": 7915,
      "ካብኦም": 7916,
      "ኢሉኒ": 7917,
      "ዝዓቢ": 7918,
      "ንሃገር": 7919,
      "ሕጋ": 7920,
      "ምህር": 7921,
      "##ግሮ": 7922,
      "##ቫይረስ": 7923,
      "##መርጽ": 7924,
      "መዓር": 7925,
      "ውፅኢት": 7926,
      "##ticle": 7927,
      "ብጀካ": 7928,
      "ሃየ": 7929,
      "ይትረፍ": 7930,
      "ትዛረብ": 7931,
      "እሙናት": 7932,
      "ክፈት": 7933,
      "ጌና": 7934,
      "##ራታት": 7935,
      "##በያ": 7936,
      "##ልናዮ": 7937,
      "ብመዓልቲ": 7938,
      "ብወገን": 7939,
      "ንውሉ": 7940,
      "ቅኑ": 7941,
      "ክቅ": 7942,
      "ክመል": 7943,
      "ጠን": 7944,
      "ጠለ": 7945,
      "ስራሕን": 7946,
      "ዝገበሩ": 7947,
      "ብፍቕሪ": 7948,
      "በብዓ": 7949,
      "መትከ": 7950,
      "ብጭ": 7951,
      "ኪን": 7952,
      "ውራይ": 7953,
      "##ምኩም": 7954,
      "##ወካ": 7955,
      "##ሊያ": 7956,
      "ምትእስሳ": 7957,
      "ደብዳቤ": 7958,
      "መልክዑ": 7959,
      "ባሮት": 7960,
      "ይር": 7961,
      "ጃፓ": 7962,
      "##ዓዙ": 7963,
      "##ስዎ": 7964,
      "##ጠባዊ": 7965,
      "##በርት": 7966,
      "ልዕሌ": 7967,
      "ሚሊዮን": 7968,
      "ንርኢ": 7969,
      "ኽፉእ": 7970,
      "##ዓስ": 7971,
      "##ክተ": 7972,
      "##ወሉ": 7973,
      "ካብዛ": 7974,
      "ንግበር": 7975,
      "ወዳ": 7976,
      "##ልዉ": 7977,
      "ክትገብሮ": 7978,
      "ዑደት": 7979,
      "ፈራ": 7980,
      "##ሕዱ": 7981,
      "##ነኩም": 7982,
      "##ኣይዎ": 7983,
      "ንብዙሕ": 7984,
      "ይሓትት": 7985,
      "ጽሩይ": 7986,
      "##ik": 7987,
      "##ቀን": 7988,
      "ንምምላ": 7989,
      "##rect": 7990,
      "##ተወሰነ": 7991,
      "እዮብ": 7992,
      "ስቅ": 7993,
      "ዘማ": 7994,
      "ዚብሃል": 7995,
      "ዝዘ": 7996,
      "ዝከኣ": 7997,
      "##ቃዕ": 7998,
      "##ታቱን": 7999,
      "ንስም": 8000,
      "ጽሑፋ": 8001,
      "ዘመናዊ": 8002,
      "ንሞት": 8003,
      "ውጹ": 8004,
      "##ሉል": 8005,
      "##ጠም": 8006,
      "ኣይትፈልጥን": 8007,
      "ንእስ": 8008,
      "ተጠቃ": 8009,
      "2021": 8010,
      "ሠናይ": 8011,
      "##ማህ": 8012,
      "ክትነብር": 8013,
      "ሪኢ": 8014,
      "ቀስ": 8015,
      "ነበሮ": 8016,
      "##ደካ": 8017,
      "##ሒታት": 8018,
      "ግብጻ": 8019,
      "መለሰሉ": 8020,
      "ድሕረ": 8021,
      "መለሰሎም": 8022,
      "ኽኣ": 8023,
      "ይወስድ": 8024,
      "##ቢብ": 8025,
      "ከምእት": 8026,
      "ንምኽ": 8027,
      "ብፍጹም": 8028,
      "##ሕትት": 8029,
      "ሕነ": 8030,
      "##በኽ": 8031,
      "ነይሩኒ": 8032,
      "ዝኣምን": 8033,
      "ርኢና": 8034,
      "ንኢየሱስ": 8035,
      "ሉቃስ": 8036,
      "ማያት": 8037,
      "##መዓኒ": 8038,
      "##ግዚኡ": 8039,
      "ኣድማ": 8040,
      "ግበርዎ": 8041,
      "ዚም": 8042,
      "ጋሻ": 8043,
      "##ላዩ": 8044,
      "##ቕል": 8045,
      "##ህባ": 8046,
      "ክንነብር": 8047,
      "ገይራ": 8048,
      "ከሎና": 8049,
      "ክህልወና": 8050,
      "ንኻልእ": 8051,
      "ገበሩ": 8052,
      "##ኣሰ": 8053,
      "##ሳሕ": 8054,
      "ዘይቅ": 8055,
      "##ጠቅም": 8056,
      "ምሥ": 8057,
      "ምትካ": 8058,
      "ዓራት": 8059,
      "ክትፈልጥ": 8060,
      "ንኽብሪ": 8061,
      "ምሕታት": 8062,
      "##ንቀሳቐ": 8063,
      "ሰምዑ": 8064,
      "ዳንኤል": 8065,
      "ኣሲ": 8066,
      "ኣሮን": 8067,
      "ዕቤት": 8068,
      "ዝጽበ": 8069,
      "##ሔት": 8070,
      "ዝፍጸም": 8071,
      "ዘጋጥም": 8072,
      "ሳም": 8073,
      "##ይነን": 8074,
      "##ፃፅ": 8075,
      "ቀዳምነት": 8076,
      "ኣቢለ": 8077,
      "ናእ": 8078,
      "ኣፋ": 8079,
      "##ይዋ": 8080,
      "##ፈረን": 8081,
      "##ውጽእ": 8082,
      "##ጊድ": 8083,
      "##ቫል": 8084,
      "ኣበሃህላ": 8085,
      "##ዋዕታ": 8086,
      "ሰልፍታት": 8087,
      "ስጕምቲ": 8088,
      "ቕዱስ": 8089,
      "ወዮ": 8090,
      "ጾር": 8091,
      "ፈጻ": 8092,
      "##ሊስ": 8093,
      "ብርሃነ": 8094,
      "ሓዉ": 8095,
      "መዐ": 8096,
      "ዚስ": 8097,
      "##ጋድ": 8098,
      "##ሰዱ": 8099,
      "ዘይሓ": 8100,
      "ቤተክርስቲያን": 8101,
      "ጸኒሖም": 8102,
      "ብቐጻሊ": 8103,
      "መብራህቲ": 8104,
      "##ኽብር": 8105,
      "##ost": 8106,
      "##ህሉን": 8107,
      "##ጓድ": 8108,
      "ናይዛ": 8109,
      "ኣይኰኑን": 8110,
      "ጥበብን": 8111,
      "እኽሊ": 8112,
      "ረድኤት": 8113,
      "ብዅሉ": 8114,
      "Correct": 8115,
      "ነቐ": 8116,
      "ጭር": 8117,
      "##ርበት": 8118,
      "##ራቱ": 8119,
      "##ልጣ": 8120,
      "##il": 8121,
      "ስሚ": 8122,
      "ኣቦታትና": 8123,
      "ኣቢልካ": 8124,
      "ኣሜን": 8125,
      "በዛ": 8126,
      "ዘይምር": 8127,
      "እምብኣርሲ": 8128,
      "ባይ": 8129,
      "ነዘን": 8130,
      "ጓሳ": 8131,
      "##ሳር": 8132,
      "እተዋ": 8133,
      "መጽሓፍቲ": 8134,
      "ዝተፈላለያ": 8135,
      "ዘለናዮ": 8136,
      "ንመንግስቲ": 8137,
      "ዝተወሰነ": 8138,
      "መናፍ": 8139,
      "ርኤ": 8140,
      "##እም": 8141,
      "ፍርያት": 8142,
      "ፍትሕን": 8143,
      "ኣይክሓድ": 8144,
      "ሓጎ": 8145,
      "መሠ": 8146,
      "ጕድ": 8147,
      "ፖሎ": 8148,
      "##ኮስ": 8149,
      "ኣዒንት": 8150,
      "ብናጻ": 8151,
      "ትዊ": 8152,
      "##ያል": 8153,
      "ምምሃር": 8154,
      "##ላውነት": 8155,
      "ኣዲኡ": 8156,
      "ራብዓይ": 8157,
      "ፅሕ": 8158,
      "##ፊሑ": 8159,
      "##ልዮን": 8160,
      "##ዶምን": 8161,
      "ኣይፈልጡን": 8162,
      "196": 8163,
      "ተኸፊ": 8164,
      "ቆልዑት": 8165,
      "##ፈለጠ": 8166,
      "ክኢሉ": 8167,
      "ይብለኒ": 8168,
      "እኩይ": 8169,
      "ኣጥፊ": 8170,
      "ረቛ": 8171,
      "ንነብር": 8172,
      "##ለይን": 8173,
      "##ባሽ": 8174,
      "ሕብሪ": 8175,
      "ምጽን": 8176,
      "ትልሚ": 8177,
      "ጠበ": 8178,
      "‹‹": 8179,
      "##ቢድ": 8180,
      "ኣይፋል": 8181,
      "ዘሎዎ": 8182,
      "እንዳተ": 8183,
      "መትከል": 8184,
      "ተመራመርቲ": 8185,
      "እንተወሓደ": 8186,
      "ንሎሚ": 8187,
      "አዩ": 8188,
      "##ሪኦ": 8189,
      "ንሱን": 8190,
      "ንዘል": 8191,
      "ተኸታተ": 8192,
      "ተግባራዊ": 8193,
      "ሓቀይ": 8194,
      "ትሕትና": 8195,
      "በዳ": 8196,
      "ትሓ": 8197,
      "ኣቑ": 8198,
      "##ነቑ": 8199,
      "መስፍን": 8200,
      "ብቕልጡፍ": 8201,
      "ንእሽተይ": 8202,
      "ፀገማት": 8203,
      "##ፍሉ": 8204,
      "##ራውን": 8205,
      "##ባስ": 8206,
      "ክትከይድ": 8207,
      "ተሓጒ": 8208,
      "##ሕግዞም": 8209,
      "ንደቅ": 8210,
      "ንካልኦት": 8211,
      "ርኹ": 8212,
      "ሮማ": 8213,
      "ወልድ": 8214,
      "##ኣዮ": 8215,
      "ኣይበል": 8216,
      "ዘለኩም": 8217,
      "##ሰብኩ": 8218,
      "ስለዘሎ": 8219,
      "ስድ": 8220,
      "ዝጅምር": 8221,
      "##ለያ": 8222,
      "##ደበት": 8223,
      "##ቆጻ": 8224,
      "ኣለም": 8225,
      "ተዓጽ": 8226,
      "ትንሣ": 8227,
      "በሪ": 8228,
      "ብረ": 8229,
      "ትሰርሕ": 8230,
      "ዝዋ": 8231,
      "##ድሽተ": 8232,
      "ሕይወትና": 8233,
      "ምስትውዓል": 8234,
      "ርኽ": 8235,
      "ይግደ": 8236,
      "##ንዚ": 8237,
      "##ማቕ": 8238,
      "##ማምን": 8239,
      "ንኣሽቱ": 8240,
      "ኣይንፈልጥን": 8241,
      "ሒዛ": 8242,
      "በጊዕ": 8243,
      "ባቡር": 8244,
      "##መቕ": 8245,
      "##ክሕ": 8246,
      "##ታማት": 8247,
      "ብምፍ": 8248,
      "ምውሳድ": 8249,
      "ነብሱ": 8250,
      "ሓዲስ": 8251,
      "ሽልማት": 8252,
      "ይከ": 8253,
      "##ምርምር": 8254,
      "##ረኽባ": 8255,
      "ነፍሰይ": 8256,
      "ሰነዳት": 8257,
      "ጀነራል": 8258,
      "ፈው": 8259,
      "##ሓጎ": 8260,
      "ሳልሰይቲ": 8261,
      "ን2": 8262,
      "ኵላቶም": 8263,
      "##ቕፋ": 8264,
      "ክንዝ": 8265,
      "እያሱ": 8266,
      "ተመኩሮ": 8267,
      "ንኽልተ": 8268,
      "ተመሊሶም": 8269,
      "ንጹህ": 8270,
      "##መስግኖ": 8271,
      "ርክባት": 8272,
      "##ዋኽብቲ": 8273,
      "##ናኒ": 8274,
      "##ኸብ": 8275,
      "##ክም": 8276,
      "ኣይተር": 8277,
      "ልምዲ": 8278,
      "46": 8279,
      "ኢራን": 8280,
      "ሓበሬታታት": 8281,
      "ተሰማሚ": 8282,
      "##ህልወና": 8283,
      "##ሮንን": 8284,
      "##ፈሪ": 8285,
      "##ኩዋ": 8286,
      "##ol": 8287,
      "ንሓቂ": 8288,
      "ምትሕብባር": 8289,
      "ኣታኽልቲ": 8290,
      "ምጅማር": 8291,
      "መረጋገ": 8292,
      "ብጐይታ": 8293,
      "ትፈልጦ": 8294,
      "እገብር": 8295,
      "ገላዉ": 8296,
      "##ኅን": 8297,
      "##ርታት": 8298,
      "ሃገረይ": 8299,
      "ኣልኣ": 8300,
      "ምምሕዳ": 8301,
      "ጸሓፊ": 8302,
      "ስዊዘርላንድ": 8303,
      "ዓስቢ": 8304,
      "ጽልኢ": 8305,
      "መጠ": 8306,
      "ዝአ": 8307,
      "ዮርዳኖስ": 8308,
      "##ፍንቲ": 8309,
      "##ድቅ": 8310,
      "##ቆሮ": 8311,
      "##ጵያ": 8312,
      "ዘሎኹም": 8313,
      "ካም": 8314,
      "ዓሌት": 8315,
      "ዝርከባ": 8316,
      "ይፈልጡ": 8317,
      "##ዘዘ": 8318,
      "እዚአን": 8319,
      "እንተደሊ": 8320,
      "ህዝባ": 8321,
      "ብምር": 8322,
      "ብመንገዲ": 8323,
      "ብጸሎት": 8324,
      "ማኪና": 8325,
      "##ዛም": 8326,
      "##ድሕኑ": 8327,
      "መጠንቀቕ": 8328,
      "##ሃበካ": 8329,
      "ትምኒት": 8330,
      "ኤውሮጳዊ": 8331,
      "መዳያት": 8332,
      "ኔርካ": 8333,
      "ፈለ": 8334,
      "##ገና": 8335,
      "##ርዋ": 8336,
      "##ልስ": 8337,
      "ክንዕ": 8338,
      "##ለምቲ": 8339,
      "##ሕልፎ": 8340,
      "ዕዉት": 8341,
      "ሞቱ": 8342,
      "ተቘ": 8343,
      "ተሞክ": 8344,
      "##ርሑ": 8345,
      "##ሊኦም": 8346,
      "መንገድ": 8347,
      "ዝኸኣለ": 8348,
      "ንሰለስተ": 8349,
      "ሓቅን": 8350,
      "ሰጊ": 8351,
      "ባእ": 8352,
      "ዘዘ": 8353,
      "##ላላይ": 8354,
      "##ብጽ": 8355,
      "##ኹዎ": 8356,
      "እንተሃ": 8357,
      "ቅድስቲ": 8358,
      "...\"": 8359,
      "##ኣምኖ": 8360,
      "ስብከት": 8361,
      "ኣይፈለጥ": 8362,
      "ንጓ": 8363,
      "##ኔን": 8364,
      "##0ታት": 8365,
      "ክትገብሩ": 8366,
      "ተባሂላ": 8367,
      "##ህበኩም": 8368,
      "ክፋላት": 8369,
      "ብምእታው": 8370,
      "ትኸይድ": 8371,
      "ክትርኢ": 8372,
      "##ገብርን": 8373,
      "ኽትከውን": 8374,
      "መሪር": 8375,
      "ይሃብ": 8376,
      "ጕጅለ": 8377,
      "፣\"": 8378,
      "##ጸናን": 8379,
      "##ጠባ": 8380,
      "ምድረ": 8381,
      "ነገድ": 8382,
      "ቦታን": 8383,
      "ተቓሊ": 8384,
      "ኣጽኒ": 8385,
      "ሕያው": 8386,
      "ጠቓሚ": 8387,
      "ብሞት": 8388,
      "ዋን": 8389,
      "##ሰቲ": 8390,
      "ኣቦኻ": 8391,
      "ኣፍንጫ": 8392,
      "ብእንግሊ": 8393,
      "ምፍጣር": 8394,
      "ምግላጽ": 8395,
      "ምክንያቱ": 8396,
      "<<": 8397,
      "ሱር": 8398,
      "ስሒ": 8399,
      "ቁጽ": 8400,
      "ትራ": 8401,
      "ክኾነ": 8402,
      "##ጋንዳ": 8403,
      "##ምርዖ": 8404,
      "ታሪክ": 8405,
      "ኣገልገልቲ": 8406,
      "ህፃ": 8407,
      "ብርእ": 8408,
      "ዝጠፍ": 8409,
      "##ተማ": 8410,
      "##ሳው": 8411,
      "##ሙሉ": 8412,
      "##ህኤ": 8413,
      "ንኣኻትኩም": 8414,
      "ሒዝና": 8415,
      "ዘይሕጋዊ": 8416,
      "ኣሃዱ": 8417,
      "ሃቦ": 8418,
      "ቐሪቡ": 8419,
      "ዓዋ": 8420,
      "ፍቑ": 8421,
      "##ሕትና": 8422,
      "##ኒና": 8423,
      "ብዓይኒ": 8424,
      "ti": 8425,
      "ቫቲካን": 8426,
      "##ተባብ": 8427,
      "##ባባ": 8428,
      "##ቀስ": 8429,
      "ክልቲአን": 8430,
      "ዘፍጥረት": 8431,
      "ዝጸንሑ": 8432,
      "ልቦና": 8433,
      "ተዘይ": 8434,
      "ቱርኪ": 8435,
      "ክሽ": 8436,
      "##ቅድ": 8437,
      "##ዳደር": 8438,
      "ክሰርሑ": 8439,
      "ይዓቢ": 8440,
      "##ራቢ": 8441,
      "##ድኒ": 8442,
      "##ሃቢ": 8443,
      "##ጠብ": 8444,
      "እንዲ": 8445,
      "እንተዘ": 8446,
      "እንተሃል": 8447,
      "ንወለ": 8448,
      "ሓሙስ": 8449,
      "ትኹን": 8450,
      "ፀብ": 8451,
      "##ደሎ": 8452,
      "##ዱሳት": 8453,
      "ንስሓ": 8454,
      "ቅድስት": 8455,
      "ኣይነበር": 8456,
      "ተባዕታይ": 8457,
      "ኣውቶቡስ": 8458,
      "ግእዝ": 8459,
      "ፈን": 8460,
      "##ግሩ": 8461,
      "እተገብረ": 8462,
      "ርእዮም": 8463,
      "ፍልልያት": 8464,
      "ብቛንቋ": 8465,
      ">>": 8466,
      "ፕላ": 8467,
      "##መም": 8468,
      "##ዎምን": 8469,
      "##ደበ": 8470,
      "##ደኒ": 8471,
      "##ህብን": 8472,
      "##ስተውዕ": 8473,
      "##ላለስ": 8474,
      "ባህጊ": 8475,
      "ዕም": 8476,
      "##ነየ": 8477,
      "##ጥሪ": 8478,
      "##ከረ": 8479,
      "##ቆስ": 8480,
      "ምቕራብ": 8481,
      "ብሉይ": 8482,
      "ዝገብርዎ": 8483,
      "ምሃ": 8484,
      "ሸይ": 8485,
      "ኣሻ": 8486,
      "ክቡራት": 8487,
      "##ሓካ": 8488,
      "##ጭታት": 8489,
      "##ይንካ": 8490,
      "ወርሓዊ": 8491,
      "ተሓቢ": 8492,
      "በቢ": 8493,
      "ኣኅ": 8494,
      "ኪቐት": 8495,
      "ወልደ": 8496,
      "ደልዩ": 8497,
      "##ላድ": 8498,
      "##ረኣዩ": 8499,
      "መነባብሮ": 8500,
      "ቅትለት": 8501,
      "##ረበሉ": 8502,
      "##th": 8503,
      "ዝወረደ": 8504,
      "ዓዱ": 8505,
      "ጕዕዞ": 8506,
      "ጸባ": 8507,
      "##ስተውዕል": 8508,
      "##ፈርህ": 8509,
      "ኣጋይሽ": 8510,
      "ኣሕዋቱ": 8511,
      "##የረ": 8512,
      "ህዝቡ": 8513,
      "ብምኽ": 8514,
      "ኣመልኪቱ": 8515,
      "ኽፍ": 8516,
      "ይጅምር": 8517,
      "ይፈቱ": 8518,
      "ርእሳ": 8519,
      "ኣይመስልን": 8520,
      "እንግሊዝኛ": 8521,
      "ተዛሪቦም": 8522,
      "ኣይረኸብ": 8523,
      "ናቕፋ": 8524,
      "ዕጡ": 8525,
      "ዝገርም": 8526,
      "ጥራ": 8527,
      "ፈታዊ": 8528,
      "##ሃነ": 8529,
      "##ቀኒ": 8530,
      "ኣባኻ": 8531,
      "ምምስ": 8532,
      "ንብዘሎ": 8533,
      "ልደ": 8534,
      "ክሰር": 8535,
      "##ረፉ": 8536,
      "##ኻድ": 8537,
      "ነገሩ": 8538,
      "ነብስኻ": 8539,
      "ረኣዩ": 8540,
      "ንጉሥ": 8541,
      "##ብሃለ": 8542,
      "ዕስ": 8543,
      "ጃልባ": 8544,
      "##ርፍ": 8545,
      "##ርቂ": 8546,
      "##ጊሑ": 8547,
      "ፍርድ": 8548,
      "ኣስተብ": 8549,
      "ሂቦም": 8550,
      "ትስ": 8551,
      "##ንክ": 8552,
      "ኣብይ": 8553,
      "ኣይትፍራህ": 8554,
      "ኢየሩሳሌም": 8555,
      "ይምህ": 8556,
      "ዝተፈጥረ": 8557,
      "እዝኒ": 8558,
      "ኣዳራሽ": 8559,
      "ንዘልኣለም": 8560,
      "ኣበየ": 8561,
      "ክትም": 8562,
      "ክትሰርሕ": 8563,
      "ዕርቂ": 8564,
      "ኣኪ": 8565,
      "ከሕ": 8566,
      "ዮናስ": 8567,
      "ዳኣ": 8568,
      "ድሓን": 8569,
      "##መሃ": 8570,
      "##ኻእ": 8571,
      "መስለኒ": 8572,
      "ውድቀት": 8573,
      "ተሰዊ": 8574,
      "News": 8575,
      "ቘልዓ": 8576,
      "ብየ": 8577,
      "ብረት": 8578,
      "ንቓ": 8579,
      "ኪዱ": 8580,
      "ክገልጽ": 8581,
      "ዘዋ": 8582,
      "ጎኒ": 8583,
      "ጭብ": 8584,
      "##ኣለማዊ": 8585,
      "##ቴና": 8586,
      "ዘይቲ": 8587,
      "ምውሳ": 8588,
      "ንገረኒ": 8589,
      "ኢንዱ": 8590,
      "ብዕድመ": 8591,
      "እመ": 8592,
      "##ዳሉ": 8593,
      "##ዲዮ": 8594,
      "ገዛኻ": 8595,
      "እንከለዉ": 8596,
      "መዝሙ": 8597,
      "ምናልባሽ": 8598,
      "ጥዑይ": 8599,
      "ማይን": 8600,
      "ኢካ": 8601,
      "ኣሞ": 8602,
      "ዚኣክል": 8603,
      "ፓስ": 8604,
      "##ቁን": 8605,
      "ናብኣ": 8606,
      "ደገፍቲ": 8607,
      "ሰይፊ": 8608,
      "ዕንቅ": 8609,
      "ግርም": 8610,
      "ምትእስሳር": 8611,
      "ወስ": 8612,
      "ውግ": 8613,
      "ዝሸ": 8614,
      "ይግለጽ": 8615,
      "ዳይ": 8616,
      "ግጉይ": 8617,
      "ፈጠረ": 8618,
      "##ተሎ": 8619,
      "##ገፍ": 8620,
      "##ዘዞ": 8621,
      "##ጣት": 8622,
      "ክንርእዮ": 8623,
      "ተቐመጠ": 8624,
      "##ሳይት": 8625,
      "##ልዮናት": 8626,
      "መሮ": 8627,
      "ቁር": 8628,
      "ዝሰምዕ": 8629,
      "የማን": 8630,
      "ይገብሮ": 8631,
      "##እኩም": 8632,
      "ብእተ": 8633,
      "ሽኮር": 8634,
      "ደኺ": 8635,
      "##ሳትን": 8636,
      "ዝፈጠረ": 8637,
      "ብመሰረቱ": 8638,
      "መፈ": 8639,
      "ሶማ": 8640,
      "ፓር": 8641,
      "፡*": 8642,
      "##ጓዓዝ": 8643,
      "ዝተጸ": 8644,
      "እሞኸ": 8645,
      "##ርከቦ": 8646,
      "ዝሰዓ": 8647,
      "ቅዳሴ": 8648,
      "ጥልያን": 8649,
      "##am": 8650,
      "እንተት": 8651,
      "እኩያት": 8652,
      "ፕረሲደንት": 8653,
      "AT": 8654,
      "ዝተመስ": 8655,
      "ብደሓን": 8656,
      "ኻልኦት": 8657,
      "ተጠቀምቲ": 8658,
      "article": 8659,
      "ሞያዊ": 8660,
      "ነና": 8661,
      "አረ": 8662,
      "ኣክ": 8663,
      "ወከ": 8664,
      "ይፈልጦ": 8665,
      "##ንሳ": 8666,
      "##ድዳእ": 8667,
      "ከይወ": 8668,
      "እስልምና": 8669,
      "ብግል": 8670,
      "ኣይከኣሉን": 8671,
      "ጭንቀት": 8672,
      "ክዋ": 8673,
      "ናብቶም": 8674,
      "ምርኻብ": 8675,
      "ማዕበል": 8676,
      "ነብሲ": 8677,
      "ዘጋጥ": 8678,
      "ግልጋ": 8679,
      "ዘርእስታ": 8680,
      "ኣምር": 8681,
      "ዓንዲ": 8682,
      "ደበና": 8683,
      "##ለፈ": 8684,
      "##ጠሩ": 8685,
      "##ፅን": 8686,
      "##ኬት": 8687,
      "ኤርትራን": 8688,
      "ንሰበይ": 8689,
      "ክምስ": 8690,
      "ምጽሓፍ": 8691,
      "ነበርና": 8692,
      "ጥምቀት": 8693,
      "ሓረስቶት": 8694,
      "ማለተይ": 8695,
      "ሆቴ": 8696,
      "ዮና": 8697,
      "ትምኒ": 8698,
      "ሃለ": 8699,
      "ስሕ": 8700,
      "ናት": 8701,
      "ክዓ": 8702,
      "ይካ": 8703,
      "##ደሰ": 8704,
      "##ድብ": 8705,
      "##ng": 8706,
      "##ation": 8707,
      "ክንከይድ": 8708,
      "##መርሕ": 8709,
      "ገሊኣቶም": 8710,
      "##ጥምት": 8711,
      "ጸሎትን": 8712,
      "የድልየካ": 8713,
      "ፅሕፈት": 8714,
      "ሓዘ": 8715,
      "መቅ": 8716,
      "ንፈልጦ": 8717,
      "ጸልዩ": 8718,
      "ፈጢ": 8719,
      "##ናግ": 8720,
      "ንኣምን": 8721,
      "ብሰሪ": 8722,
      "ስጋዊ": 8723,
      "##ሃደራዊ": 8724,
      "ንምፍታሕ": 8725,
      "##ርምያስ": 8726,
      "ጎረባብ": 8727,
      "ራህ": 8728,
      "ሳይን": 8729,
      "ቦርድ": 8730,
      "ትብሎ": 8731,
      "ዝስም": 8732,
      "##ተጂ": 8733,
      "##ርማ": 8734,
      "##ኽብ": 8735,
      "##በሊ": 8736,
      "##ክኒ": 8737,
      "##ወቲ": 8738,
      "ኣይስ": 8739,
      "##ክትሪክ": 8740,
      "ምልኪ": 8741,
      "ይሕብር": 8742,
      "ኣሕዋትን": 8743,
      "##ምህሮ": 8744,
      "##ዕብያ": 8745,
      "ብሙሉእ": 8746,
      "ቃልካ": 8747,
      "ተሐ": 8748,
      "እምን": 8749,
      "ዚዛረብ": 8750,
      "ዝሽ": 8751,
      "ይርአ": 8752,
      "ፌደራ": 8753,
      "##ተለ": 8754,
      "##ነቱን": 8755,
      "ንስራሕ": 8756,
      "እትኸውን": 8757,
      "ንዓኻትኩም": 8758,
      "##ተሓሳስ": 8759,
      "ንደሓር": 8760,
      "ብውሕዱ": 8761,
      "47": 8762,
      "ዜደንቕ": 8763,
      "የመልክት": 8764,
      "ጌሮም": 8765,
      "ግለ": 8766,
      "##መጽ": 8767,
      "##ጠቀ": 8768,
      "##ip": 8769,
      "ገይርና": 8770,
      "ወለድ": 8771,
      "ብወግዒ": 8772,
      "ዘፍቀ": 8773,
      "##ካይዱ": 8774,
      "ኣይኰንኩን": 8775,
      "ድራማ": 8776,
      "ከዱ": 8777,
      "##ረየ": 8778,
      "##ራቕ": 8779,
      "##ሳሰል": 8780,
      "##ርካዮ": 8781,
      "ወጻኢታት": 8782,
      "ክህልዎም": 8783,
      "ንጽባ": 8784,
      "ቅርጺ": 8785,
      "ርሑስ": 8786,
      "ሚዛን": 8787,
      "ሳን": 8788,
      "ዓጽ": 8789,
      "ዝህቦ": 8790,
      "ገጻት": 8791,
      "ጣዕ": 8792,
      "##ሕዛ": 8793,
      "ምምጻእ": 8794,
      "ንነቢይ": 8795,
      "ተጠንቀ": 8796,
      "ግድብ": 8797,
      "ማራ": 8798,
      "ሰኑይ": 8799,
      "ኤስ": 8800,
      "ክቐት": 8801,
      "ደጋ": 8802,
      "##ሙሽተ": 8803,
      "ብኣኻ": 8804,
      "ብዝተኻእለ": 8805,
      "ክኸዉን": 8806,
      "ሕያዋይ": 8807,
      "ንምዃን": 8808,
      "ዕሽነት": 8809,
      "መጠንቀቕታ": 8810,
      "ሓሪ": 8811,
      "ብመስ": 8812,
      "ኪሎ": 8813,
      "##ሓፈ": 8814,
      "##ፋዕ": 8815,
      "##ve": 8816,
      "##ኰኑ": 8817,
      "ብከመይ": 8818,
      "ኣምሓራ": 8819,
      "ኣምባሳደር": 8820,
      "ሕደ": 8821,
      "ብታ": 8822,
      "ውጥን": 8823,
      "ዓደይ": 8824,
      "ዘርኣ": 8825,
      "ይቐ": 8826,
      "ግጭት": 8827,
      "ጓለይ": 8828,
      "##ቱብ": 8829,
      "##በኣና": 8830,
      "ትብዓት": 8831,
      "ብሄር": 8832,
      "ንዋ": 8833,
      "##ገጽ": 8834,
      "##ኩል": 8835,
      "##ፅር": 8836,
      "##ዛረበሉ": 8837,
      "ህዝብኻ": 8838,
      "ተመሊሰ": 8839,
      "ገዝኡ": 8840,
      "ግፍዒ": 8841,
      "ንፉዕ": 8842,
      "##ማቱ": 8843,
      "ንዓኹም": 8844,
      "ውሽጥ": 8845,
      "ትርጕም": 8846,
      "ርኢቶ": 8847,
      "ንመጀመርያ": 8848,
      "አቦ": 8849,
      "##ነስ": 8850,
      "##ፍኩም": 8851,
      "##ውዐ": 8852,
      "##ኮም": 8853,
      "ክፍልታት": 8854,
      "ንህዝቡ": 8855,
      "ጸብጻባት": 8856,
      "ቅጥ": 8857,
      "ክበጽሕ": 8858,
      "ዚምልከት": 8859,
      "##ጥሩ": 8860,
      "እንዶ": 8861,
      "ኣይፈለ": 8862,
      "ኣድጊ": 8863,
      "አይት": 8864,
      "ዕለታዊ": 8865,
      "ይቕረታ": 8866,
      "ተቐሚጡ": 8867,
      "ሰማእታት": 8868,
      "ራዕ": 8869,
      "ቤታ": 8870,
      "##ጥርን": 8871,
      "##ጅን": 8872,
      "ኣዝማ": 8873,
      "ኣውሮፓ": 8874,
      "ኣቕሓ": 8875,
      "ክረምቲ": 8876,
      "ርስ": 8877,
      "ይብሎ": 8878,
      "፧+": 8879,
      "##ስፈ": 8880,
      "ምስዝ": 8881,
      "ምሳኹም": 8882,
      "ተዓዊ": 8883,
      "ጌጋታት": 8884,
      "ብጽቡቕ": 8885,
      "##ክዮ": 8886,
      "##ጅምሩ": 8887,
      "##ህናትን": 8888,
      "##ህልዎም": 8889,
      "ዝኸዱ": 8890,
      "ኢትዮጵያን": 8891,
      "ዝምስ": 8892,
      "ዝተወለድ": 8893,
      "ንሃገ": 8894,
      "ላይ": 8895,
      "ናትኩም": 8896,
      "##ገጥ": 8897,
      "ምድላ": 8898,
      "ሰሚና": 8899,
      "ንምርኣይ": 8900,
      "ጠውቑ": 8901,
      "ATV": 8902,
      "ቀቲ": 8903,
      "ይደል": 8904,
      "ደዊ": 8905,
      "ጆን": 8906,
      "ፋብሪ": 8907,
      "ፍጥረ": 8908,
      "##ሽታ": 8909,
      "##በጥ": 8910,
      "##ልብ": 8911,
      "##ad": 8912,
      "ክንዛረብ": 8913,
      "እናበልና": 8914,
      "ኣንብ": 8915,
      "ሃገራትን": 8916,
      "ንህይወ": 8917,
      "##ውጽኦ": 8918,
      "ሄዋን": 8919,
      "ሎም": 8920,
      "ፃዕ": 8921,
      "##መዓ": 8922,
      "##ሰሰ": 8923,
      "##ድሎ": 8924,
      "ውሽጠይ": 8925,
      "ፍልጠትን": 8926,
      "ኣይነበሮምን": 8927,
      "ሓረስታይ": 8928,
      "ውጽኢቱ": 8929,
      "ኮለ": 8930,
      "##ረጸ": 8931,
      "##የኩም": 8932,
      "ዝበላ": 8933,
      "ብመጀመር": 8934,
      "ብፍሉይ": 8935,
      "መድረ": 8936,
      "ስራሓት": 8937,
      "ተሰምዩ": 8938,
      "ንኤርት": 8939,
      "ዝፈጠሮ": 8940,
      "ባዶ": 8941,
      "ኰይና": 8942,
      "ዝከ": 8943,
      "ደፊ": 8944,
      "ጸል": 8945,
      "##ተኒ": 8946,
      "##መሎም": 8947,
      "##ሓዙ": 8948,
      "##ፅሕ": 8949,
      "ዝገደደ": 8950,
      "ባዕላ": 8951,
      "ስእልታት": 8952,
      "ትሽዓተ": 8953,
      "90": 8954,
      "ሓግ": 8955,
      "ኣወንታዊ": 8956,
      "ክምል": 8957,
      "ጸሊ": 8958,
      "##ክልና": 8959,
      "እንገብሮ": 8960,
      "ንምጥ": 8961,
      "እትገብሮ": 8962,
      "ምድላይ": 8963,
      "##መሓላል": 8964,
      "ተሞክሮ": 8965,
      "ቀርኒ": 8966,
      "ኪገብር": 8967,
      "ክስዕ": 8968,
      "##ይብ": 8969,
      "##የትን": 8970,
      "ገይርካ": 8971,
      "መሊኡ": 8972,
      "በደልካ": 8973,
      "ብማዕረ": 8974,
      "ትንሣኤ": 8975,
      "በተን": 8976,
      "ቴሌ": 8977,
      "ነዝ": 8978,
      "ክጸ": 8979,
      "ዜማ": 8980,
      "##ሩት": 8981,
      "ክትከፍ": 8982,
      "ዝዀነት": 8983,
      "ብሩኽ": 8984,
      "##ልወጥ": 8985,
      "ብዝበለጸ": 8986,
      "ኢንዱስትሪ": 8987,
      "ይሁ": 8988,
      "##ኣንን": 8989,
      "##ዋኑ": 8990,
      "ዝተፈልየ": 8991,
      "ኣይኮንካን": 8992,
      "300": 8993,
      "እዋይ": 8994,
      "ይፈት": 8995,
      "##ለትን": 8996,
      "##ውዋ": 8997,
      "##ፅኡ": 8998,
      "##ርሕቕ": 8999,
      "ዝዓይ": 9000,
      "ንብጻ": 9001,
      "ሰብኣያ": 9002,
      "ብዋ": 9003,
      "አዚ": 9004,
      "ክብሎ": 9005,
      "ጭፍራ": 9006,
      "##ረጹ": 9007,
      "##ግበረ": 9008,
      "##ዘዙ": 9009,
      "##ቐሉ": 9010,
      "##ያም": 9011,
      "##ቦምን": 9012,
      "##አይቲ": 9013,
      "ፍቃድ": 9014,
      "ሐደ": 9015,
      "ነፃ": 9016,
      "ኪት": 9017,
      "##ብዕ": 9018,
      "##ህሪ": 9019,
      "##ፃሊ": 9020,
      "##ቴኹም": 9021,
      "##ዃኑ": 9022,
      "ወሲዶም": 9023,
      "##ግጋር": 9024,
      "ሚእትን": 9025,
      "በጽሐ": 9026,
      "##ጻወቱ": 9027,
      "ዝወስድ": 9028,
      "ሰዲህኤ": 9029,
      "ሚድያ": 9030,
      "ረቡዕ": 9031,
      "ኣጠቓ": 9032,
      "ድሉው": 9033,
      "ጉል": 9034,
      "##ዳትን": 9035,
      "##ዚሙ": 9036,
      "ዝበጽሕ": 9037,
      "መጽናዕ": 9038,
      "ኣኽብሮ": 9039,
      "##በጽሖ": 9040,
      "ሕጻናት": 9041,
      "ብድሆታት": 9042,
      "55": 9043,
      "ጣልያን": 9044,
      "ፍለጥ": 9045,
      "##ናው": 9046,
      "##ራንን": 9047,
      "##ውው": 9048,
      "##እመን": 9049,
      "##ኸስ": 9050,
      "##ዋውያን": 9051,
      "ክትሓ": 9052,
      "ምፍል": 9053,
      "ገጽካ": 9054,
      "መበቆ": 9055,
      "ዝተሓተ": 9056,
      "ወከልቲ": 9057,
      "##ጠቅስ": 9058,
      "ብምድ": 9059,
      "ካልኦትን": 9060,
      "ዝነበረኒ": 9061,
      "ልምምድ": 9062,
      "ባህርይ": 9063,
      "ንኺድ": 9064,
      "መረጋገጺ": 9065,
      "ፋብሪካ": 9066,
      "##ረዮ": 9067,
      "##ንቛ": 9068,
      "##ፈጥር": 9069,
      "እዚኣተን": 9070,
      "ኣዘራርባ": 9071,
      "ደቁን": 9072,
      "on": 9073,
      "ህግ": 9074,
      "ላዕ": 9075,
      "ብቕን": 9076,
      "ንፍር": 9077,
      "ወሓደ": 9078,
      "ውዒሉ": 9079,
      "##ሃድም": 9080,
      "ኣብሪ": 9081,
      "ብስመይ": 9082,
      "ሓለፋ": 9083,
      "##ምባሲ": 9084,
      "ኮሮናቫይረስ": 9085,
      "መሸፈኒ": 9086,
      "ሸለል": 9087,
      "ኪመጽእ": 9088,
      "##ኽብሮ": 9089,
      "##ድለ": 9090,
      "ክንምለስ": 9091,
      "##ራይን": 9092,
      "ኣባኻትኩም": 9093,
      "ኣስማት": 9094,
      "ሰላምታ": 9095,
      "ተኣምር": 9096,
      "ተመልሱ": 9097,
      "ደቅና": 9098,
      "ዳሕሮት": 9099,
      "ሰረገ": 9100,
      "ስኒ": 9101,
      "ንቀ": 9102,
      "ንመስ": 9103,
      "ኻህናት": 9104,
      "##ፈጸመ": 9105,
      "##ራረብ": 9106,
      "##ዱብ": 9107,
      "ምውዳ": 9108,
      "ክርአ": 9109,
      "ዳግመ": 9110,
      "ዝበልካዮ": 9111,
      "ጽላል": 9112,
      "##ሰማማዕ": 9113,
      "ምእመናን": 9114,
      "ምርኢት": 9115,
      "ዝፈቱ": 9116,
      "ይግብኦ": 9117,
      "ኣፕ": 9118,
      "ይኣኽ": 9119,
      "ዮው": 9120,
      "##ረሙ": 9121,
      "##ub": 9122,
      "##ሪቱ": 9123,
      "##ቆት": 9124,
      "ዝበለት": 9125,
      "አብቲ": 9126,
      "ጭርሖ": 9127,
      "ትወ": 9128,
      "##ርር": 9129,
      "ቤትና": 9130,
      "ሙሴን": 9131,
      "##ሓለፈ": 9132,
      "ለባም": 9133,
      "ብውሑዱ": 9134,
      "##ሁን": 9135,
      "ምእን": 9136,
      "ሓሳባ": 9137,
      "ህላወ": 9138,
      "ፍቓደኛ": 9139,
      "ብሃንደበት": 9140,
      "##ይላ": 9141,
      "ኣሎኹም": 9142,
      "ቃልስና": 9143,
      "መተካ": 9144,
      "400": 9145,
      "ሃረር": 9146,
      "ቀጥ": 9147,
      "ተኾ": 9148,
      "ድሕን": 9149,
      "##ራድ": 9150,
      "##ብዛ": 9151,
      "##ውንን": 9152,
      "##ገልካን": 9153,
      "ተቐማ": 9154,
      "ንወዱ": 9155,
      "ምህርቲ": 9156,
      "ሙስ": 9157,
      "ራኢ": 9158,
      "ተዘራ": 9159,
      "ይክእል": 9160,
      "ገደብ": 9161,
      "##ሃለ": 9162,
      "ዘይከ": 9163,
      "ክትዛረብ": 9164,
      "##ረኽበሉ": 9165,
      "ባህልን": 9166,
      "ክኢላ": 9167,
      "ዘይኮኑ": 9168,
      "መዲ": 9169,
      "ጭቡጥ": 9170,
      "እምበኣ": 9171,
      "##ርናዮ": 9172,
      "ምቕባል": 9173,
      "ቀይዲ": 9174,
      "##ምነገር": 9175,
      "ትግራዋይ": 9176,
      "ይል": 9177,
      "ፈል": 9178,
      "##ትዕ": 9179,
      "##ግብር": 9180,
      "##ፋፊ": 9181,
      "ኣይቀ": 9182,
      "##ስቲቫል": 9183,
      "##ኣትና": 9184,
      "ፈሊጠ": 9185,
      "ገበርኩም": 9186,
      "ዩኒቨርስቲ": 9187,
      "መርገጺ": 9188,
      "ፋይናን": 9189,
      "ንዂሉ": 9190,
      "ትኹረት": 9191,
      "ጃፓን": 9192,
      "ቅሳ": 9193,
      "ኦሪት": 9194,
      "ከስ": 9195,
      "ፀሓይ": 9196,
      "##ፍእ": 9197,
      "##ቀሳቐ": 9198,
      "##ትንስእ": 9199,
      "ኣምላኽኩም": 9200,
      "ዓመትን": 9201,
      "ኣይትስ": 9202,
      "##ህልዉ": 9203,
      "ኣሜሪካን": 9204,
      "ከምዘይኮነ": 9205,
      "ከማኻ": 9206,
      "ኣይክሓድገልካን": 9207,
      "መው": 9208,
      "ናጽ": 9209,
      "አለዎ": 9210,
      "ኴንካ": 9211,
      "ዓቐን": 9212,
      "ግሪኽ": 9213,
      "##ሮሞ": 9214,
      "##ድዩ": 9215,
      "##ቓቕ": 9216,
      "መንገ": 9217,
      "ተወሰ": 9218,
      "ብዓቢ": 9219,
      "ደርጊ": 9220,
      "ብኽብሪ": 9221,
      "በርት": 9222,
      "ኣሓትን": 9223,
      "እዝን": 9224,
      "ኪው": 9225,
      "ክኽእል": 9226,
      "ዝሓትት": 9227,
      "##ዲን": 9228,
      "ዝተገበረ": 9229,
      "ዝተረኽበ": 9230,
      "ስጋብ": 9231,
      "ረኣኹ": 9232,
      "ቀዋሚ": 9233,
      "ተጎ": 9234,
      "ትፅ": 9235,
      "ዓዶም": 9236,
      "ዘድል": 9237,
      "ዚግብ": 9238,
      "ደረ": 9239,
      "##ርኩ": 9240,
      "##በድ": 9241,
      "##ዝነት": 9242,
      "##op": 9243,
      "##ጣይ": 9244,
      "ኣይብልን": 9245,
      "ኣዚና": 9246,
      "ብዕለት": 9247,
      "ክዳውን": 9248,
      "ዝዓይነቱ": 9249,
      "##ርኽ": 9250,
      "##ዝካ": 9251,
      "በለስ": 9252,
      "##ማምዑ": 9253,
      "ነፍስወከፍ": 9254,
      "ኣዒንቶም": 9255,
      "ንክርስቶስ": 9256,
      "ኣሓት": 9257,
      "##ሓፉ": 9258,
      "##ቕኩም": 9259,
      "##ቆብን": 9260,
      "ኣይረ": 9261,
      "##ላትኒ": 9262,
      "ውሳነታት": 9263,
      "የማነ": 9264,
      "ኣቤ": 9265,
      "መልሱ": 9266,
      "ገዛይ": 9267,
      "ሳልሕ": 9268,
      "ሽግራት": 9269,
      "ቀረብ": 9270,
      "ተአ": 9271,
      "ዕስራ": 9272,
      "ዚደሊ": 9273,
      "ጫፍ": 9274,
      "##ጽራ": 9275,
      "##ቡብ": 9276,
      "##ቪዥን": 9277,
      "ክትድ": 9278,
      "##መስለኒ": 9279,
      "ብሓንቲ": 9280,
      "ኣርኣያ": 9281,
      "ብኢድ": 9282,
      "ጸላእቲ": 9283,
      "ኣኺሉ": 9284,
      "ሥልጣን": 9285,
      "ሶማል": 9286,
      "ትረክብ": 9287,
      "ኤረት": 9288,
      "ዘራ": 9289,
      "ዘድልዮም": 9290,
      "ዚነ": 9291,
      "የፍቅ": 9292,
      "##ረዳ": 9293,
      "##መጻ": 9294,
      "##ውዖ": 9295,
      "##እስ": 9296,
      "##ዮምን": 9297,
      "##ግርኛ": 9298,
      "ብጸጋ": 9299,
      "##እሰያት": 9300,
      "49": 9301,
      "Tag": 9302,
      "ለሚ": 9303,
      "##ሃሃ": 9304,
      "ሃገራ": 9305,
      "ነገረ": 9306,
      "ጽቡቕን": 9307,
      "ገንዘባዊ": 9308,
      "##ጸንሑ": 9309,
      "ናባና": 9310,
      "##ብሊክ": 9311,
      "ዜግነት": 9312,
      "ዓረ": 9313,
      "ገፅ": 9314,
      "ፊደ": 9315,
      "ኸምቲ": 9316,
      "##ገዝኡ": 9317,
      "መድኃ": 9318,
      "ለውጥታት": 9319,
      "ተማሂረ": 9320,
      "ኣውስትራልያ": 9321,
      "ምልካ": 9322,
      "ቅልጡፍ": 9323,
      "ትገልጽ": 9324,
      "ዓበይ": 9325,
      "ዕግ": 9326,
      "ዘት": 9327,
      "የጋጥ": 9328,
      "ግዳም": 9329,
      "##ድኦ": 9330,
      "##BC": 9331,
      "ክንረክብ": 9332,
      "ክፍለጥ": 9333,
      "ብልሽ": 9334,
      "መዓስከር": 9335,
      "ክህልወካ": 9336,
      "ሚኢታዊት": 9337,
      "ምይይ": 9338,
      "ቀዲ": 9339,
      "ብባ": 9340,
      "ከር": 9341,
      "ዘበሉ": 9342,
      "##ምብ": 9343,
      "##ትል": 9344,
      "##ሓቐ": 9345,
      "##ዝዎ": 9346,
      "ዝተው": 9347,
      "ክትከ": 9348,
      "##ዓልቱ": 9349,
      "##ስተብ": 9350,
      "ዝሓሰ": 9351,
      "ኣይተቐ": 9352,
      "##ሃንጽ": 9353,
      "ብመንፈ": 9354,
      "ብፁዕ": 9355,
      "ምፅ": 9356,
      "ብሸ": 9357,
      "##ሳነ": 9358,
      "ክንሰርሕ": 9359,
      "ኣይትረስ": 9360,
      "ዝኣተወ": 9361,
      "##ተሓባ": 9362,
      "ላዕለዎት": 9363,
      "ትነ": 9364,
      "ንኡ": 9365,
      "ዓይኑ": 9366,
      "ጐደና": 9367,
      "››": 9368,
      "##ዮናት": 9369,
      "ዝበሎም": 9370,
      "ተመዝጊ": 9371,
      "ንዓኺ": 9372,
      "ንመላእ": 9373,
      "መጺእካ": 9374,
      "ኣይሰማዕ": 9375,
      "ንአምላኽ": 9376,
      "መንግስትታት": 9377,
      "ምልእ": 9378,
      "ስማ": 9379,
      "እቱ": 9380,
      "ኩል": 9381,
      "ዝቅ": 9382,
      "ፌስቡክ": 9383,
      "##ረቦ": 9384,
      "##ስጋ": 9385,
      "##ጥዎ": 9386,
      "##የም": 9387,
      "መንጐ": 9388,
      "ንምሉእ": 9389,
      "ኣይትረስዕ": 9390,
      "ውሽጡ": 9391,
      "ኣትየ": 9392,
      "ረኺብና": 9393,
      "ሰሪሑ": 9394,
      "ዝተዋህበ": 9395,
      "መዘና": 9396,
      "መካይን": 9397,
      "ትዊተር": 9398,
      "በየ": 9399,
      "ዓማ": 9400,
      "ዘገድ": 9401,
      "ዜፍቅ": 9402,
      "ጨው": 9403,
      "##ተው": 9404,
      "##ሃበና": 9405,
      "ብኽልተ": 9406,
      "ንሓድሕድኩም": 9407,
      "ሄን": 9408,
      "ሚኢታዊ": 9409,
      "ምሩ": 9410,
      "ምጭ": 9411,
      "ርድ": 9412,
      "ቤቶም": 9413,
      "ኣኸ": 9414,
      "##ቲከ": 9415,
      "##ዴራ": 9416,
      "ኣለኩ": 9417,
      "ንዓኣ": 9418,
      "ኣስፊ": 9419,
      "ጸኒሐ": 9420,
      "ጉጅለታት": 9421,
      "ብገዛእ": 9422,
      "ተኽሊ": 9423,
      "ግዙ": 9424,
      "##ረኽቦም": 9425,
      "መርገም": 9426,
      "ሓበሬታን": 9427,
      "ከሎኻ": 9428,
      "##ከውንን": 9429,
      "##ራእየ": 9430,
      "ንምብጻሕ": 9431,
      "ንምርግጋጽ": 9432,
      "ኤሌ": 9433,
      "##ሕሉ": 9434,
      "##ኸኣ": 9435,
      "##ክረ": 9436,
      "##ልታ": 9437,
      "##ኑኤል": 9438,
      "##ራንስ": 9439,
      "ኽንደይ": 9440,
      "ህያዋን": 9441,
      "ነናብ": 9442,
      "ንያ": 9443,
      "ኢዶም": 9444,
      "ኣመን": 9445,
      "ድጋፍ": 9446,
      "ጓና": 9447,
      "##ዳኢ": 9448,
      "##ment": 9449,
      "##ሩሉ": 9450,
      "ኣይግ": 9451,
      "ዝተዳለወ": 9452,
      "ዝበሃሉ": 9453,
      "##ዳንት": 9454,
      "ዝዓበኹ": 9455,
      "ምምሕያሽ": 9456,
      "ገበናት": 9457,
      "ዝሃበና": 9458,
      "መድሕን": 9459,
      "ሰና": 9460,
      "ዓያ": 9461,
      "ፍን": 9462,
      "##ምኑ": 9463,
      "##ጋሪ": 9464,
      "##በይኑ": 9465,
      "##ልዲ": 9466,
      "ዝተዘር": 9467,
      "እትደሊ": 9468,
      "ኣጋን": 9469,
      "##ጠይቕ": 9470,
      "ግልጋሎት": 9471,
      "ሰደ": 9472,
      "ብአ": 9473,
      "ንፖ": 9474,
      "ዘካየ": 9475,
      "ዜብል": 9476,
      "ይብላ": 9477,
      "ድርብ": 9478,
      "ጊልያ": 9479,
      "ጽርግ": 9480,
      "ስለቲ": 9481,
      "ብምጥ": 9482,
      "ከምዚኦም": 9483,
      "##ብራውያን": 9484,
      "ይሕሸ": 9485,
      "ዝተፈለየ": 9486,
      "ተቐቲሎም": 9487,
      "ኤለ": 9488,
      "ዚገብሮ": 9489,
      "ዝማ": 9490,
      "ይገብረ": 9491,
      "##ረኺ": 9492,
      "##ናጽ": 9493,
      "##ግፍ": 9494,
      "##ፀት": 9495,
      "##ኢየሱስ": 9496,
      "ንምጽ": 9497,
      "ብምህ": 9498,
      "እናዓ": 9499,
      "መደበር": 9500,
      "ፍቓዱ": 9501,
      "ብቐዳምነት": 9502,
      "ንጽብ": 9503,
      "ዝገበርዎ": 9504,
      "ዝመስለኒ": 9505,
      "ንጋ": 9506,
      "ክጸንሕ": 9507,
      "ይገልጹ": 9508,
      "##ላህ": 9509,
      "##ኣኹ": 9510,
      "##ፈቕ": 9511,
      "##ኩዎን": 9512,
      "##ከቱ": 9513,
      "##ቀብ": 9514,
      "ከምዛ": 9515,
      "እንስ": 9516,
      "ብምሃብ": 9517,
      "ዘለዎን": 9518,
      "ገሊላ": 9519,
      "##ጸንሐ": 9520,
      "ኢትዮጵያውያን": 9521,
      "ይመስለካ": 9522,
      "ኣጋጣሚታት": 9523,
      "ተሰሚዑኒ": 9524,
      "ክክክክክ": 9525,
      "መሕትት": 9526,
      "በዅ": 9527,
      "ኸረን": 9528,
      "##ድነት": 9529,
      "##ቱር": 9530,
      "ዝተነ": 9531,
      "ኣንበ": 9532,
      "እምነትና": 9533,
      "ኣሕዋትና": 9534,
      "ስልጣኑ": 9535,
      "ሕጽረት": 9536,
      "ዘነ": 9537,
      "##ጸላ": 9538,
      "##ia": 9539,
      "እትገብር": 9540,
      "ገዛውቲ": 9541,
      "##ክልቲ": 9542,
      "ክህበካ": 9543,
      "ምዃንና": 9544,
      "ሓተቶ": 9545,
      "##ረጋገጽ": 9546,
      "in": 9547,
      "ሕጅ": 9548,
      "ንፋ": 9549,
      "ኢልኪ": 9550,
      "ኪብሃል": 9551,
      "ኸባቢ": 9552,
      "ፈለጥ": 9553,
      "##ርኹም": 9554,
      "##ርዝር": 9555,
      "##ዳደ": 9556,
      "ዝወለ": 9557,
      "ተወከ": 9558,
      "ተገዳ": 9559,
      "ዝለኣኸ": 9560,
      "ኣዒንቱ": 9561,
      "ኤልሳእ": 9562,
      "ይነግረና": 9563,
      "የማናይ": 9564,
      "ጋዜጠኛታት": 9565,
      "ሬድዮ": 9566,
      "ተዛረበ": 9567,
      "ንረክብ": 9568,
      "ዚመስል": 9569,
      "ይባ": 9570,
      "ተጠቂ": 9571,
      "ወጺኦም": 9572,
      "##ጠራጥር": 9573,
      "መተካእታ": 9574,
      "ንይ": 9575,
      "ኤርምያስ": 9576,
      "ክላ": 9577,
      "ክሰምዕ": 9578,
      "##ንኪ": 9579,
      "##ገሱ": 9580,
      "##ብኻ": 9581,
      "ነብሰይ": 9582,
      "ደጊመ": 9583,
      "ንርእስኻ": 9584,
      "ሃዲ": 9585,
      "ብቁ": 9586,
      "ኪም": 9587,
      "ዀይኖም": 9588,
      "ጠባይ": 9589,
      "ጨና": 9590,
      "##ha": 9591,
      "##ቴዎስ": 9592,
      "ብምጥቃ": 9593,
      "ተዓዘ": 9594,
      "ኣስዒቡ": 9595,
      "ኪገብሩ": 9596,
      "##ድቁ": 9597,
      "##ምርቲ": 9598,
      "ኣየኖት": 9599,
      "ኣይነበረንን": 9600,
      "ኣቐዲመ": 9601,
      "ዝጠቐ": 9602,
      "ሓቲቱ": 9603,
      "ተጓዒ": 9604,
      "ጽብቕቲ": 9605,
      "ተልእኾ": 9606,
      "በዲ": 9607,
      "##ረረ": 9608,
      "##ቅቲ": 9609,
      "##ጥካ": 9610,
      "##አር": 9611,
      "##ww": 9612,
      "ድምጽ": 9613,
      "ኢንቨ": 9614,
      "##ኣምንን": 9615,
      "ብፅ": 9616,
      "ተፃ": 9617,
      "ንክን": 9618,
      "ኣራ": 9619,
      "ኣጠን": 9620,
      "ይገል": 9621,
      "ብዝግባእ": 9622,
      "ብድም": 9623,
      "ምልክታ": 9624,
      "ሓረግ": 9625,
      "መጎ": 9626,
      "ምና": 9627,
      "ኢልዎ": 9628,
      "እሙ": 9629,
      "ክብሃል": 9630,
      "ኴንና": 9631,
      "ይሽ": 9632,
      "##ሊኻ": 9633,
      "##የለይ": 9634,
      "##ሳሰር": 9635,
      "##ጌጋ": 9636,
      "##🇪🇷": 9637,
      "ዝግበኦ": 9638,
      "ኣፈላላይ": 9639,
      "ረስ": 9640,
      "ሩባ": 9641,
      "ቢሮ": 9642,
      "ኮርስ": 9643,
      "ግሩም": 9644,
      "##ህራ": 9645,
      "##ጀው": 9646,
      "##ረኽብዎ": 9647,
      "ምዃኑን": 9648,
      "##ገልግሎት": 9649,
      "ምጅማ": 9650,
      "ሃዋ": 9651,
      "ሓበረ": 9652,
      "ዕማ": 9653,
      "ፊል": 9654,
      "##ክዒ": 9655,
      "##ሉና": 9656,
      "ኣመሪካን": 9657,
      "ብተኣ": 9658,
      "ክኢላታት": 9659,
      "ተዳልዩ": 9660,
      "ይኹኑ": 9661,
      "##ays": 9662,
      "ስዑዲ": 9663,
      "ንጽባሒቱ": 9664,
      "ይሁዳን": 9665,
      "ሰሙ": 9666,
      "ስዕ": 9667,
      "ቲቪ": 9668,
      "ከድልየ": 9669,
      "ጎይታይ": 9670,
      "ጾታ": 9671,
      "##ደባ": 9672,
      "##ጀን": 9673,
      "ዘለዓ": 9674,
      "ብምዕ": 9675,
      "ኣየድልን": 9676,
      "ዝመልኦ": 9677,
      "ኣይትፍርሁ": 9678,
      "ሃበ": 9679,
      "ከዳ": 9680,
      "ኺድ": 9681,
      "ዝዛረቡ": 9682,
      "ገጢ": 9683,
      "##ከበ": 9684,
      "##ጨን": 9685,
      "ዝተባ": 9686,
      "ኣንስትዮን": 9687,
      "##ረኸቡ": 9688,
      "ፍትሓዊ": 9689,
      "ዓቕም": 9690,
      "ጥንታዊ": 9691,
      "##ካይዶ": 9692,
      "ብዛዕብኡ": 9693,
      "##ike": 9694,
      "ስታ": 9695,
      "አየ": 9696,
      "ጥብ": 9697,
      "##ቃብ": 9698,
      "##ክዑ": 9699,
      "ብምዝ": 9700,
      "ዓይነይ": 9701,
      "ምትእት": 9702,
      "ምስክርነት": 9703,
      "ምሓዝ": 9704,
      "ንድሕ": 9705,
      "ንሰይ": 9706,
      "አቲ": 9707,
      "ውሱን": 9708,
      "ዚን": 9709,
      "ዝምር": 9710,
      "የድል": 9711,
      "##ዓቱ": 9712,
      "##ኒያ": 9713,
      "##ዴግ": 9714,
      "ንምል": 9715,
      "ኣንጻ": 9716,
      "##ርድኡ": 9717,
      "መፅናዕቲ": 9718,
      "ኣውጺኡ": 9719,
      "ፈውሲ": 9720,
      "ሰሉስ": 9721,
      "ባእታ": 9722,
      "ከባብ": 9723,
      "ዘኪ": 9724,
      "ዚጽ": 9725,
      "ፀኒ": 9726,
      "##ቅና": 9727,
      "ዓመጻ": 9728,
      "ዝኾነሉ": 9729,
      "ዝኣቱ": 9730,
      "##ፈርድ": 9731,
      "##ፍትኑ": 9732,
      "ስትራተጂ": 9733,
      "ሕተት": 9734,
      "ሳራ": 9735,
      "ኔርኩም": 9736,
      "ክቐ": 9737,
      "ዝፋ": 9738,
      "##ዓረ": 9739,
      "##oo": 9740,
      "እንተላይ": 9741,
      "##ጽንዕ": 9742,
      "ብሕታዊ": 9743,
      "ደርፍ": 9744,
      "ህሞት": 9745,
      "ሻቕ": 9746,
      "ቀለ": 9747,
      "##ፍስ": 9748,
      "##ሉኒ": 9749,
      "##ቐደ": 9750,
      "##ፃር": 9751,
      "ኣብነታት": 9752,
      "ዝተለ": 9753,
      "ብልጽ": 9754,
      "ውሉዳት": 9755,
      "ንምድሓን": 9756,
      "ንርእዮ": 9757,
      "ድኹም": 9758,
      "##ተኽ": 9759,
      "##ኣኑ": 9760,
      "##ኣታት": 9761,
      "##....": 9762,
      "ንዓታቶም": 9763,
      "ስርሒት": 9764,
      "ዝርዝ": 9765,
      "##ናልድ": 9766,
      "ዘመናት": 9767,
      "##በዝሑ": 9768,
      "ተዘክሮ": 9769,
      "ሊባ": 9770,
      "ኢድና": 9771,
      "ኣጠ": 9772,
      "##ዙኒ": 9773,
      "##ow": 9774,
      "ሕማቅ": 9775,
      "ዕንወት": 9776,
      "ብሰብ": 9777,
      "ንረኽቦ": 9778,
      "ዜሐጕ": 9779,
      "ደለየ": 9780,
      "##ታይን": 9781,
      "##ናይት": 9782,
      "##ስዕቦ": 9783,
      "ንምግላጽ": 9784,
      "ምህላዎም": 9785,
      "ሓሓ": 9786,
      "ኩነ": 9787,
      "ጸሊም": 9788,
      "ሃገርካ": 9789,
      "ኽትገብር": 9790,
      "ዝሓለፋ": 9791,
      "መንእሰያትን": 9792,
      "ፈሊጡ": 9793,
      "ውሑስ": 9794,
      "መጓሰ": 9795,
      "ሕሙማት": 9796,
      "\"፡": 9797,
      "ዝግለጽ": 9798,
      "ደና": 9799,
      "##ትዮን": 9800,
      "##30": 9801,
      "##ሬም": 9802,
      "ኣገባ": 9803,
      "ዝወደ": 9804,
      "ብትሕትና": 9805,
      "ንጸሊ": 9806,
      "መምሃ": 9807,
      "ነውሪ": 9808,
      "ግብጻውያን": 9809,
      "መጀመ": 9810,
      "ስክፍ": 9811,
      "ትል": 9812,
      "ንጀ": 9813,
      "ዘእ": 9814,
      "ዘገልግል": 9815,
      "ዲግሪ": 9816,
      "##መልእ": 9817,
      "##ዕታ": 9818,
      "##ካት": 9819,
      "##ጥንቀ": 9820,
      "##ሪጹ": 9821,
      "ብምሉኡ": 9822,
      "ኣበሳ": 9823,
      "##ጽበዮ": 9824,
      "ይክኣል": 9825,
      "ቁፅሪ": 9826,
      "ዓሠር": 9827,
      "ዝብላ": 9828,
      "ደርብ": 9829,
      "ዳህ": 9830,
      "##ውለ": 9831,
      "##ኩስ": 9832,
      "ምስግጋር": 9833,
      "ንምሃብ": 9834,
      "ከምዝወ": 9835,
      "መጽሔት": 9836,
      "##ላለሱ": 9837,
      "ተፈቲ": 9838,
      "##ጽልዩ": 9839,
      "ክነብሩ": 9840,
      "ሕክምናዊ": 9841,
      "ተሰሚዑ": 9842,
      "ንኩሎም": 9843,
      "በጀት": 9844,
      "ብሰይ": 9845,
      "ዘዝ": 9846,
      "ዚኸ": 9847,
      "##ጋገር": 9848,
      "##ርዩ": 9849,
      "##ርራብ": 9850,
      "##ዋል": 9851,
      "##ኳዕ": 9852,
      "##50": 9853,
      "መንደቕ": 9854,
      "ሰሚዑ": 9855,
      "ሓቅታት": 9856,
      "3ይ": 9857,
      "ክራ": 9858,
      "ወፂ": 9859,
      "##ዕድ": 9860,
      "##ማመን": 9861,
      "##ሙት": 9862,
      "ንኣባ": 9863,
      "ኣመል": 9864,
      "ኣርሒ": 9865,
      "ሕልም": 9866,
      "ሻዕብያ": 9867,
      "ቢልዮን": 9868,
      "ቪዛ": 9869,
      "እልል": 9870,
      "ከማይ": 9871,
      "ወፈ": 9872,
      "ዚደልዩ": 9873,
      "##ገበሩ": 9874,
      "##ሲሱ": 9875,
      "##ራይስ": 9876,
      "ሓይልን": 9877,
      "ንኸም": 9878,
      "ክኸዱ": 9879,
      "##ate": 9880,
      "ከውሒ": 9881,
      "ፓርላማ": 9882,
      "ሚዛ": 9883,
      "ኤረይ": 9884,
      "##ብኦ": 9885,
      "ኣይደ": 9886,
      "ፍትሕ": 9887,
      "ኣወዳት": 9888,
      "##ረጋገጸ": 9889,
      "ዕጽፊ": 9890,
      "ንድኻታት": 9891,
      "ፈጻሚ": 9892,
      "ፊደላት": 9893,
      "ህሉው": 9894,
      "ሰኣን": 9895,
      "ተተሓ": 9896,
      "ኩላ": 9897,
      "ይባር": 9898,
      "##ኽት": 9899,
      "##ce": 9900,
      "ነገሮ": 9901,
      "ብልዒ": 9902,
      "##ንቀሳ": 9903,
      "እንትኸውን": 9904,
      "እንድሕሪ": 9905,
      "መንግሥቲ": 9906,
      "ኣንበብቲ": 9907,
      "##ወቱ": 9908,
      "##ሶር": 9909,
      "ንሱውን": 9910,
      "ኣርባዕ": 9911,
      "ኣጆኻ": 9912,
      "ግዚኡ": 9913,
      "ህልውና": 9914,
      "ንገር": 9915,
      "እዙ": 9916,
      "ግበረ": 9917,
      "##ጻረ": 9918,
      "##ክዎን": 9919,
      "##ድታት": 9920,
      "ክትስ": 9921,
      "ክፍትን": 9922,
      "ምሳኺ": 9923,
      "መርኣያ": 9924,
      "ዳሕረ": 9925,
      "ዓዋተ": 9926,
      "ኣቅ": 9927,
      "ወሃቢ": 9928,
      "ዘሐ": 9929,
      "ዝፋን": 9930,
      "ግሉ": 9931,
      "##ትነት": 9932,
      "##ርባዕተ": 9933,
      "##ኤላውያን": 9934,
      "ንምክልኻል": 9935,
      "ጸኒሓ": 9936,
      "መፍትሕ": 9937,
      "ምሁር": 9938,
      "ወኪል": 9939,
      "ኣይተርፍን": 9940,
      "ፓስፖርት": 9941,
      "ስጉም": 9942,
      "ኣሮንን": 9943,
      "ኪኢ": 9944,
      "ኰይነ": 9945,
      "ጽሒፉ": 9946,
      "##ሜን": 9947,
      "##ፕዩ": 9948,
      "ኣይጸ": 9949,
      "ኣይትበል": 9950,
      "##ርያምን": 9951,
      "ተሓታቲ": 9952,
      "መለክዒ": 9953,
      "##ሕግዘኩም": 9954,
      "ተኽለ": 9955,
      "ተታሒዙ": 9956,
      "ሃዋህ": 9957,
      "ክስተ": 9958,
      "ክቐርብ": 9959,
      "ዌብ": 9960,
      "ዓደ": 9961,
      "##መታ": 9962,
      "##ጦን": 9963,
      "ዝዓለመ": 9964,
      "ብትዕ": 9965,
      "መሮር": 9966,
      "ሕታም": 9967,
      "መአ": 9968,
      "ሞገስ": 9969,
      "ኪሰ": 9970,
      "ዝሕግዝ": 9971,
      "ገረብ": 9972,
      "##ምጽኣ": 9973,
      "##ናሉ": 9974,
      "##ኣድ": 9975,
      "##ለዪ": 9976,
      "##EA": 9977,
      "ከይከውን": 9978,
      "##ዛረብን": 9979,
      "ብሰለስተ": 9980,
      "ሓወልቲ": 9981,
      "መንገድታት": 9982,
      "ቅዋ": 9983,
      "ከጋጥም": 9984,
      "ኩላቶም": 9985,
      "ይደ": 9986,
      "##በታት": 9987,
      "##ወኒ": 9988,
      "##ድአ": 9989,
      "ከምዙይ": 9990,
      "ኣይቅ": 9991,
      "ክንፈልጥ": 9992,
      "##ኣትው": 9993,
      "194": 9994,
      "ወሲኑ": 9995,
      "ዞባታት": 9996,
      "ብኽብረት": 9997,
      "ፍጻመታት": 9998,
      "ንጽብሒቱ": 9999,
      "ለኸ": 10000,
      "ንፈር": 10001,
      "ደአ": 10002,
      "##ልጋል": 10003,
      "##ድነ": 10004,
      "##ቕማ": 10005,
      "ስርሓት": 10006,
      "ኣይነበሩን": 10007,
      "ብስጋ": 10008,
      "ይኸዱ": 10009,
      "ብሄራዊ": 10010,
      "ነነ": 10011,
      "##ኸሉ": 10012,
      "##ዳውያን": 10013,
      "##ሑል": 10014,
      "##ረኽበን": 10015,
      "ምግላ": 10016,
      "ገዲፉ": 10017,
      "ተሳቲ": 10018,
      "ኢንተርኔት": 10019,
      "##ሓየሽ": 10020,
      "ተገዳስነት": 10021,
      "ተፈል": 10022,
      "ዝካየ": 10023,
      "ዝፀን": 10024,
      "##ይሉ": 10025,
      "##ተቶ": 10026,
      "##ናዊት": 10027,
      "##ኽል": 10028,
      "##ለኛ": 10029,
      "##ዝደንት": 10030,
      "##ኒኑ": 10031,
      "##ህዮ": 10032,
      "##ገልግሎ": 10033,
      "##ግደድ": 10034,
      "እንከላ": 10035,
      "መብዛሕቲ": 10036,
      "ሓውና": 10037,
      "ንሓድሕድና": 10038,
      "ጥርጣ": 10039,
      "##ቓልቦ": 10040,
      "##ጥዕም": 10041,
      "ንመጀመርታ": 10042,
      "ካቶሊካ": 10043,
      "ነጺ": 10044,
      "ዲኺ": 10045,
      "ድላይ": 10046,
      "##ማይን": 10047,
      "##ቃሕ": 10048,
      "ዓመቱ": 10049,
      "ኣቦኦም": 10050,
      "ክህቡ": 10051,
      "ደጊሙ": 10052,
      "ምዝገባ": 10053,
      "ዝውዕል": 10054,
      "ምሁራት": 10055,
      "##ቋርጽ": 10056,
      "ጳጳሳት": 10057,
      "ሞባይል": 10058,
      "ዝተወለድኩዎ": 10059,
      "ዝዓበኹዎን": 10060,
      "ምብላዕ": 10061,
      "ሰው": 10062,
      "እኔ": 10063,
      "ኪሕ": 10064,
      "##ንተር": 10065,
      "##ቁል": 10066,
      "እግዚኣ": 10067,
      "መስቀ": 10068,
      "መጺአ": 10069,
      "ክምለሱ": 10070,
      "ምጽባይ": 10071,
      "ወከፎም": 10072,
      "con": 10073,
      "ኤረ": 10074,
      "ዕላዊ": 10075,
      "ጠመተ": 10076,
      "##ዘካ": 10077,
      "##ኻኺ": 10078,
      "ከምጽእ": 10079,
      "ተሓቲ": 10080,
      "ንሰላም": 10081,
      "ዝተወሰ": 10082,
      "ኮምፒ": 10083,
      "መንግስቱ": 10084,
      "ገንሸል": 10085,
      "ደሴት": 10086,
      "ሓጐ": 10087,
      "ሱቕ": 10088,
      "ተቛ": 10089,
      "እከ": 10090,
      "ኮሙን": 10091,
      "፣-": 10092,
      "##ሓቅ": 10093,
      "ወይዘ": 10094,
      "ኣየድል": 10095,
      "ወለደይ": 10096,
      "ሕይወትን": 10097,
      "ኣይትረስዑ": 10098,
      "ሓላዊ": 10099,
      "ክብለካ": 10100,
      "ግዜና": 10101,
      "##ባርን": 10102,
      "እግዚኦ": 10103,
      "ተዓዚ": 10104,
      "ትንቢ": 10105,
      "እግዝ": 10106,
      "ገዲፍካ": 10107,
      "ይዝከር": 10108,
      "ኣገልግሎታት": 10109,
      "መምህራን": 10110,
      "ገላ": 10111,
      "##ጅም": 10112,
      "##ቑን": 10113,
      "##ሥእ": 10114,
      "ግዜኡ": 10115,
      "እተጻሕፈ": 10116,
      "ብዝርዝር": 10117,
      "ምእማን": 10118,
      "ብቐንዱ": 10119,
      "ዝዕድሚ": 10120,
      "ለን": 10121,
      "ሓዚ": 10122,
      "ቐረባ": 10123,
      "በትሪ": 10124,
      "ኣጣ": 10125,
      "ዝጀመር": 10126,
      "##ኩላ": 10127,
      "##ህዲ": 10128,
      "##ጎን": 10129,
      "##ኵር": 10130,
      "##ትንስኡ": 10131,
      "##ፈልጥዎ": 10132,
      "ዝቐርብ": 10133,
      "ብትግርኛ": 10134,
      "##ሓድገ": 10135,
      "መከላኸ": 10136,
      "##ከምዚ": 10137,
      "ቀረ": 10138,
      "ብጥን": 10139,
      "ውሰድ": 10140,
      "ዘፍር": 10141,
      "ፈነወ": 10142,
      "##ሕልፍ": 10143,
      "##ግበሩ": 10144,
      "##በራን": 10145,
      "##እቶም": 10146,
      "ወይውን": 10147,
      "ጀሚርካ": 10148,
      "##ምለሱ": 10149,
      "እንድዒ": 10150,
      "ይግብኣና": 10151,
      "ዘልኣለም": 10152,
      "ዝቑጸሩ": 10153,
      "De": 10154,
      "ሓሳዊ": 10155,
      "ቀጽል": 10156,
      "ንሰርሕ": 10157,
      "ጸርፊ": 10158,
      "##ግሕ": 10159,
      "##ስቴር": 10160,
      "##ኾነት": 10161,
      "ነብሰ": 10162,
      "ተዋህዶ": 10163,
      "መጺኣ": 10164,
      "መሳርሕ": 10165,
      "ጽሕፈ": 10166,
      "ቀልጢፍካ": 10167,
      "ብጹኣን": 10168,
      "ብሱ": 10169,
      "ትንታ": 10170,
      "ዓላማ": 10171,
      "ዘህ": 10172,
      "ይዀኑ": 10173,
      "ፈደራ": 10174,
      "##ግሳ": 10175,
      "ኣይር": 10176,
      "ቅዱስን": 10177,
      "መርሓ": 10178,
      "ኽንገብር": 10179,
      "ክህልዉ": 10180,
      "ተደፊ": 10181,
      "ሰምዐ": 10182,
      "ዝናም": 10183,
      ".\"": 10184,
      "ሕሱም": 10185,
      "ንክልተ": 10186,
      "የገልግል": 10187,
      "ጥል": 10188,
      "##ሮኒ": 10189,
      "##ዳሎ": 10190,
      "ጀሚርና": 10191,
      "ርኣዩ": 10192,
      "ሳይት": 10193,
      "ብትን": 10194,
      "ይኣምኑ": 10195,
      "##ጠዓ": 10196,
      "##ጽሙ": 10197,
      "ዝተሰርሐ": 10198,
      "##ብርህ": 10199,
      "ብዙኃት": 10200,
      "##ስቲያ": 10201,
      "ብዛዕባይ": 10202,
      "እናሓ": 10203,
      "እናኸ": 10204,
      "##በልጽ": 10205,
      "ፈተው": 10206,
      "በዅሪ": 10207,
      "ነህ": 10208,
      "ንኹን": 10209,
      "ንግዚኡ": 10210,
      "ኽገብር": 10211,
      "##ረኛ": 10212,
      "##መንቲ": 10213,
      "##ኣዝ": 10214,
      "ክፍጠር": 10215,
      "##ሃበኩም": 10216,
      "ብውሽ": 10217,
      "ኣይምተ": 10218,
      "ኣጋንንቲ": 10219,
      "ሥራሕ": 10220,
      "ስፖር": 10221,
      "በጻ": 10222,
      "ንዒ": 10223,
      "ከማን": 10224,
      "የው": 10225,
      "ገረ": 10226,
      "##ልጥ": 10227,
      "ናይዞም": 10228,
      "ክትር": 10229,
      "ብርታ": 10230,
      "ገንዘብን": 10231,
      "እንከለኹ": 10232,
      "ሰሚዕና": 10233,
      "መሓመድ": 10234,
      "ግዝያዊ": 10235,
      "ብኸምኡ": 10236,
      "ኣቡኡ": 10237,
      "ሓጢኣ": 10238,
      "ዘይብልካ": 10239,
      "ዘድልየካ": 10240,
      "መጓዓዝያ": 10241,
      "ይግበረልና": 10242,
      "ሓካይ": 10243,
      "ሲሶ": 10244,
      "ኮይነን": 10245,
      "##ቨር": 10246,
      "እንተኣ": 10247,
      "ክትኣቱ": 10248,
      "ንኣና": 10249,
      "##ስልጣን": 10250,
      "ሆቴል": 10251,
      "ዓሠርተ": 10252,
      "ሱዳ": 10253,
      "ዞባዊ": 10254,
      "የቐን": 10255,
      "##ፍጠር": 10256,
      "መንሽ": 10257,
      "##ርስዕ": 10258,
      "እትቕ": 10259,
      "ምቕያር": 10260,
      "ዝደለዮ": 10261,
      "ባርዕ": 10262,
      "ኤፌሶን": 10263,
      "ሃል": 10264,
      "ቐንዲ": 10265,
      "ተሞ": 10266,
      "ዚኽእሉ": 10267,
      "ዶናልድ": 10268,
      "##ፋቱ": 10269,
      "##ሰልካ": 10270,
      "##ቒዱ": 10271,
      "ምምራጽ": 10272,
      "ካርታ": 10273,
      "ኣዴታት": 10274,
      "ይኹነ": 10275,
      "ልኢኹ": 10276,
      "መናፍስቲ": 10277,
      "ተጠንቀቑ": 10278,
      "ትፅቢት": 10279,
      "ኺወ": 10280,
      "ዚሰ": 10281,
      "##ግሥ": 10282,
      "እንተሓ": 10283,
      "ከይሓ": 10284,
      "##ስዕር": 10285,
      "ንግስቲ": 10286,
      "ኣቲኻ": 10287,
      "ኣደን": 10288,
      "ዚኣምኑ": 10289,
      "ይኣምን": 10290,
      "##ዝክ": 10291,
      "##ቐል": 10292,
      "ርእስኹም": 10293,
      "##ደለኹ": 10294,
      "ማርቆስ": 10295,
      "ንታሕቲ": 10296,
      "ያዕቆብ": 10297,
      "ፖሎቲካዊ": 10298,
      "ማዓልቲ": 10299,
      "ከት": 10300,
      "ክሓስብ": 10301,
      "ዶባት": 10302,
      "ፈይ": 10303,
      "##መመ": 10304,
      "##ራፍ": 10305,
      "##ዉያን": 10306,
      "ክትኮኑ": 10307,
      "ኻብኡ": 10308,
      "ተሓታት": 10309,
      "ኣቢይ": 10310,
      "ዝቐር": 10311,
      "##ግንነት": 10312,
      "2007": 10313,
      "ኣተዉ": 10314,
      "ንዘለዓለም": 10315,
      "ኣየድልየካን": 10316,
      "##ጸባርቕ": 10317,
      "ርጉ": 10318,
      "ስረ": 10319,
      "ቀደ": 10320,
      "ብጊ": 10321,
      "እኹም": 10322,
      "ወለን": 10323,
      "ዘደን": 10324,
      "##ላጦስ": 10325,
      "##ለሊ": 10326,
      "ክትሓትት": 10327,
      "ወይል": 10328,
      "እተመ": 10329,
      "ተመለሱ": 10330,
      "ምሳሕ": 10331,
      "መወዳእታኡ": 10332,
      "ሰሜናዊ": 10333,
      "ሓጋይ": 10334,
      "ኢህወደግ": 10335,
      "ተከ": 10336,
      "ንዜ": 10337,
      "ኤምባሲ": 10338,
      "ኪስ": 10339,
      "ዕላም": 10340,
      "##ኣይን": 10341,
      "##ግሮም": 10342,
      "##ቂቕ": 10343,
      "ንስለ": 10344,
      "##ባብራ": 10345,
      "ውሽጥና": 10346,
      "ተሰኪ": 10347,
      "##ሓስቦ": 10348,
      "ተረዲኡ": 10349,
      "ብዓወት": 10350,
      "ይመስለኩም": 10351,
      "ከብዲ": 10352,
      "ሰማዕኩ": 10353,
      "##ጥቀሙሉ": 10354,
      "ኣዒንተይ": 10355,
      "ጸሓፍቲ": 10356,
      "በብዓመቱ": 10357,
      "ጠበቓ": 10358,
      "ምልካዊ": 10359,
      "ሊባኖስ": 10360,
      "ለኻዊ": 10361,
      "ሕሱ": 10362,
      "ክሓትት": 10363,
      "ኮታ": 10364,
      "ዘረ": 10365,
      "##ሕዶ": 10366,
      "##ላሕታ": 10367,
      "##ፍኡ": 10368,
      "##ናታት": 10369,
      "##ዲዱ": 10370,
      "##ቕለ": 10371,
      "##ጽበት": 10372,
      "##ኻውን": 10373,
      "##ዅን": 10374,
      "ክትነ": 10375,
      "ብምጽ": 10376,
      "እትነብር": 10377,
      "ንሳተን": 10378,
      "ሓይሉ": 10379,
      "እንዳበለ": 10380,
      "ግብራዊ": 10381,
      "ብሉጻት": 10382,
      "ብጽሑፍ": 10383,
      "ብሩር": 10384,
      "እንተሃልዩ": 10385,
      "መከላኸሊ": 10386,
      "post": 10387,
      "ረጊ": 10388,
      "በላዕ": 10389,
      "ትሕት": 10390,
      "ናውቲ": 10391,
      "ንዛረብ": 10392,
      "ደሞክራስያዊ": 10393,
[...]
