{
  "version": "1.0",
  "truncation": {
    "direction": "Right",
    "max_length": 128,
    "strategy": "LongestFirst",
    "stride": 0
  },
  "padding": null,
  "added_tokens": [
    {
      "id": 0,
      "content": "<pad>",
      "single_word": false,
      "lstrip": false,
      "rstrip": false,
      "normalized": false,
      "special": true
    },
    {
      "id": 1,
      "content": "<unk>",
      "single_word": false,
      "lstrip": false,
      "rstrip": false,
      "normalized": false,
      "special": true
    },
    {
      "id": 2,
      "content": "<s>",
      "single_word": false,
      "lstrip": false,
      "rstrip": false,
      "normalized": false,
      "special": true
    },
    {
      "id": 3,
      "content": "</s>",
      "single_word": false,
      "lstrip": false,
      "rstrip": false,
      "normalized": false,
      "special": true
    }
  ],
  "normalizer": null,
  "pre_tokenizer": {
    "type": "Metaspace",
    "replacement": "▁",
    "prepend_scheme": "always",
    "split": true
  },
  "post_processor": null,
  "decoder": {
    "type": "Metaspace",
    "replacement": "▁",
    "prepend_scheme": "always",
    "split": true
  },
  "model": {
    "type": "BPE",
    "dropout": null,
    "unk_token": "<unk>",
    "continuing_subword_prefix": null,
    "end_of_word_suffix": null,
    "fuse_unk": false,
    "byte_fallback": false,
    "ignore_merges": false,
    "vocab": {
      "<pad>": 0,
      "<unk>": 1,
      "<s>": 2,
      "</s>": 3,
      "!": 4,
      "\"": 5,
      "#": 6,
      "$": 7,
      "%": 8,
      "&": 9,
      "'": 10,
      "(": 11,
      ")": 12,
      "*": 13,
      "+": 14,
      ",": 15,
      "-": 16,
      ".": 17,
      "/": 18,
      "0": 19,
      "1": 20,
      "2": 21,
      "3": 22,
      "4": 23,
      "5": 24,
      "6": 25,
      "7": 26,
      "8": 27,
      "9": 28,
      ":": 29,
      ";": 30,
      "<": 31,
      "=": 32,
      ">": 33,
      "?": 34,
      "@": 35,
      "A": 36,
      "B": 37,
      "C": 38,
      "D": 39,
      "E": 40,
      "F": 41,
      "G": 42,
      "H": 43,
      "I": 44,
      "J": 45,
      "K": 46,
      "L": 47,
      "M": 48,
      "N": 49,
      "O": 50,
      "P": 51,
      "Q": 52,
      "R": 53,
      "S": 54,
      "T": 55,
      "U": 56,
      "V": 57,
      "W": 58,
      "X": 59,
      "Y": 60,
      "Z": 61,
      "[": 62,
      "\\": 63,
      "]": 64,
      "^": 65,
      "_": 66,
      "a": 67,
      "b": 68,
      "c": 69,
      "d": 70,
      "e": 71,
      "f": 72,
      "g": 73,
      "h": 74,
      "i": 75,
      "j": 76,
      "k": 77,
      "l": 78,
      "m": 79,
      "n": 80,
      "o": 81,
      "p": 82,
      "q": 83,
      "r": 84,
      "s": 85,
      "t": 86,
      "u": 87,
      "v": 88,
      "w": 89,
      "x": 90,
      "y": 91,
      "z": 92,
      "{": 93,
      "|": 94,
      "}": 95,
      "~": 96,
      "£": 97,
      "¥": 98,
      "§": 99,
      "©": 100,
      "¬": 101,
      "®": 102,
      "°": 103,
      "¶": 104,
      "·": 105,
      "Â": 106,
      "Ã": 107,
      "Ö": 108,
      "×": 109,
      "Ø": 110,
      "Ü": 111,
      "ß": 112,
      "ä": 113,
      "å": 114,
      "è": 115,
      "ê": 116,
      "ë": 117,
      "í": 118,
      "ï": 119,
      "ñ": 120,
      "ö": 121,
      "÷": 122,
      "ü": 123,
      "Ā": 124,
      "ā": 125,
      "ı": 126,
      "Ş": 127,
      "ş": 128,
      "ū": 129,
      "Ÿ": 130,
      "ǝ": 131,
      "ʼ": 132,
      "̈": 133,
      "̋": 134,
      "̕": 135,
      "Α": 136,
      "Ω": 137,
      "Т": 138,
      "г": 139,
      "и": 140,
      "н": 141,
      "о": 142,
      "р": 143,
      "т": 144,
      "ь": 145,
      "я": 146,
      "҉": 147,
      "א": 148,
      "ב": 149,
      "ג": 150,
      "ד": 151,
      "ה": 152,
      "ו": 153,
      "ח": 154,
      "י": 155,
      "כ": 156,
      "ל": 157,
      "ם": 158,
      "מ": 159,
      "נ": 160,
      "ס": 161,
      "פ": 162,
      "ק": 163,
      "ר": 164,
      "ש": 165,
      "؟": 166,
      "أ": 167,
      "ؤ": 168,
      "ا": 169,
      "ب": 170,
      "ة": 171,
      "ت": 172,
      "ر": 173,
      "س": 174,
      "ش": 175,
      "ع": 176,
      "غ": 177,
      "ق": 178,
      "ل": 179,
      "م": 180,
      "ن": 181,
      "ه": 182,
      "و": 183,
      "ي": 184,
      "گ": 185,
      "ی": 186,
      "ख": 187,
      "त": 188,
      "न": 189,
      "भ": 190,
      "र": 191,
      "़": 192,
      "ा": 193,
      "စ": 194,
      "ဒ": 195,
      "ပ": 196,
      "ာ": 197,
      "ိ": 198,
      "ု": 199,
      "်": 200,
      "၊": 201,
      "ვ": 202,
      "თ": 203,
      "ი": 204,
      "ნ": 205,
      "ს": 206,
      "წ": 207,
      "ሀ": 208,
      "ሁ": 209,
      "ሂ": 210,
      "ሃ": 211,
      "ሄ": 212,
      "ህ": 213,
      "ሆ": 214,
      "ሇ": 215,
      "ለ": 216,
      "ሉ": 217,
      "ሊ": 218,
      "ላ": 219,
      "ሌ": 220,
      "ል": 221,
      "ሎ": 222,
      "ሏ": 223,
      "ሐ": 224,
      "ሑ": 225,
      "ሒ": 226,
      "ሓ": 227,
      "ሔ": 228,
      "ሕ": 229,
      "ሖ": 230,
      "ሗ": 231,
      "መ": 232,
      "ሙ": 233,
      "ሚ": 234,
      "ማ": 235,
      "ሜ": 236,
      "ም": 237,
      "ሞ": 238,
      "ሟ": 239,
      "ሠ": 240,
      "ሡ": 241,
      "ሢ": 242,
      "ሣ": 243,
      "ሤ": 244,
      "ሥ": 245,
      "ሦ": 246,
      "ረ": 247,
      "ሩ": 248,
      "ሪ": 249,
      "ራ": 250,
      "ሬ": 251,
      "ር": 252,
      "ሮ": 253,
      "ሯ": 254,
      "ሰ": 255,
      "ሱ": 256,
      "ሲ": 257,
      "ሳ": 258,
      "ሴ": 259,
      "ስ": 260,
      "ሶ": 261,
      "ሷ": 262,
      "ሸ": 263,
      "ሹ": 264,
      "ሺ": 265,
      "ሻ": 266,
      "ሼ": 267,
      "ሽ": 268,
      "ሾ": 269,
      "ቀ": 270,
      "ቁ": 271,
      "ቂ": 272,
      "ቃ": 273,
      "ቄ": 274,
      "ቅ": 275,
      "ቆ": 276,
      "ቈ": 277,
      "ቊ": 278,
      "ቋ": 279,
      "ቌ": 280,
      "ቍ": 281,
      "ቐ": 282,
      "ቑ": 283,
      "ቒ": 284,
      "ቓ": 285,
      "ቔ": 286,
      "ቕ": 287,
      "ቖ": 288,
      "ቘ": 289,
      "ቚ": 290,
      "ቛ": 291,
      "ቜ": 292,
      "ቝ": 293,
      "በ": 294,
      "ቡ": 295,
      "ቢ": 296,
      "ባ": 297,
      "ቤ": 298,
      "ብ": 299,
      "ቦ": 300,
      "ቧ": 301,
      "ቨ": 302,
      "ቩ": 303,
      "ቪ": 304,
      "ቫ": 305,
      "ቬ": 306,
      "ቭ": 307,
      "ቮ": 308,
      "ቯ": 309,
      "ተ": 310,
      "ቱ": 311,
      "ቲ": 312,
      "ታ": 313,
      "ቴ": 314,
      "ት": 315,
      "ቶ": 316,
      "ቷ": 317,
      "ቸ": 318,
      "ቹ": 319,
      "ቺ": 320,
      "ቻ": 321,
      "ቼ": 322,
      "ች": 323,
      "ቾ": 324,
      "ቿ": 325,
      "ኀ": 326,
      "ኁ": 327,
      "ኂ": 328,
      "ኃ": 329,
      "ኄ": 330,
      "ኅ": 331,
      "ኆ": 332,
      "ኋ": 333,
      "ነ": 334,
      "ኑ": 335,
      "ኒ": 336,
      "ና": 337,
      "ኔ": 338,
      "ን": 339,
      "ኖ": 340,
      "ኗ": 341,
      "ኘ": 342,
      "ኙ": 343,
      "ኚ": 344,
      "ኛ": 345,
      "ኜ": 346,
      "ኝ": 347,
      "ኞ": 348,
      "ኟ": 349,
      "አ": 350,
      "ኡ": 351,
      "ኢ": 352,
      "ኣ": 353,
      "ኤ": 354,
      "እ": 355,
      "ኦ": 356,
      "ኧ": 357,
      "ከ": 358,
      "ኩ": 359,
      "ኪ": 360,
      "ካ": 361,
      "ኬ": 362,
      "ክ": 363,
      "ኮ": 364,
      "ኯ": 365,
      "ኰ": 366,
      "ኲ": 367,
      "ኳ": 368,
      "ኴ": 369,
      "ኵ": 370,
      "ኸ": 371,
      "ኹ": 372,
      "ኺ": 373,
      "ኻ": 374,
      "ኼ": 375,
      "ኽ": 376,
      "ኾ": 377,
      "ዀ": 378,
      "ዂ": 379,
      "ዃ": 380,
      "ዄ": 381,
      "ዅ": 382,
      "ወ": 383,
      "ዉ": 384,
      "ዊ": 385,
      "ዋ": 386,
      "ዌ": 387,
      "ው": 388,
      "ዎ": 389,
      "ዐ": 390,
      "ዑ": 391,
      "ዒ": 392,
      "ዓ": 393,
      "ዔ": 394,
      "ዕ": 395,
      "ዖ": 396,
      "ዘ": 397,
      "ዙ": 398,
      "ዚ": 399,
      "ዛ": 400,
      "ዜ": 401,
      "ዝ": 402,
      "ዞ": 403,
      "ዟ": 404,
      "ዠ": 405,
      "ዡ": 406,
      "ዢ": 407,
      "ዣ": 408,
      "ዤ": 409,
      "ዥ": 410,
      "የ": 411,
      "ዩ": 412,
      "ዪ": 413,
      "ያ": 414,
      "ዬ": 415,
      "ይ": 416,
      "ዮ": 417,
      "ዯ": 418,
      "ደ": 419,
      "ዱ": 420,
      "ዲ": 421,
      "ዳ": 422,
      "ዴ": 423,
      "ድ": 424,
      "ዶ": 425,
      "ዷ": 426,
      "ዻ": 427,
      "ዼ": 428,
      "ዽ": 429,
      "ዾ": 430,
      "ጀ": 431,
      "ጁ": 432,
      "ጂ": 433,
      "ጃ": 434,
      "ጄ": 435,
      "ጅ": 436,
      "ጆ": 437,
      "ገ": 438,
      "ጉ": 439,
      "ጊ": 440,
      "ጋ": 441,
      "ጌ": 442,
      "ግ": 443,
      "ጎ": 444,
      "ጏ": 445,
      "ጐ": 446,
      "ጒ": 447,
      "ጓ": 448,
      "ጔ": 449,
      "ጕ": 450,
      "ጙ": 451,
      "ጛ": 452,
      "ጟ": 453,
      "ጠ": 454,
      "ጡ": 455,
      "ጢ": 456,
      "ጣ": 457,
      "ጤ": 458,
      "ጥ": 459,
      "ጦ": 460,
      "ጧ": 461,
      "ጨ": 462,
      "ጩ": 463,
      "ጪ": 464,
      "ጫ": 465,
      "ጬ": 466,
      "ጭ": 467,
      "ጮ": 468,
      "ጰ": 469,
      "ጱ": 470,
      "ጲ": 471,
      "ጳ": 472,
      "ጴ": 473,
      "ጵ": 474,
      "ጶ": 475,
      "ጸ": 476,
      "ጹ": 477,
      "ጺ": 478,
      "ጻ": 479,
      "ጼ": 480,
      "ጽ": 481,
      "ጾ": 482,
      "ጿ": 483,
      "ፀ": 484,
      "ፁ": 485,
      "ፂ": 486,
      "ፃ": 487,
      "ፄ": 488,
      "ፅ": 489,
      "ፆ": 490,
      "ፇ": 491,
      "ፈ": 492,
      "ፉ": 493,
      "ፊ": 494,
      "ፋ": 495,
      "ፌ": 496,
      "ፍ": 497,
      "ፎ": 498,
      "ፏ": 499,
      "ፐ": 500,
      "ፑ": 501,
      "ፒ": 502,
      "ፓ": 503,
      "ፔ": 504,
      "ፕ": 505,
      "ፖ": 506,
      "ፗ": 507,
      "፠": 508,
      "፡": 509,
      "።": 510,
      "፣": 511,
      "፤": 512,
      "፥": 513,
      "፦": 514,
      "፧": 515,
      "፨": 516,
      "፩": 517,
      "፪": 518,
      "፫": 519,
      "፬": 520,
      "፭": 521,
      "፮": 522,
      "፯": 523,
      "፰": 524,
      "፱": 525,
      "፲": 526,
      "፳": 527,
      "፴": 528,
      "፵": 529,
      "፶": 530,
      "፷": 531,
      "፻": 532,
      "᎐": 533,
      "᎒": 534,
      "᎓": 535,
      "†": 536,
      "•": 537,
      "′": 538,
      "‹": 539,
      "›": 540,
      "⁄": 541,
      "€": 542,
      "←": 543,
      "→": 544,
      "⇒": 545,
      "√": 546,
      "∶": 547,
      "≤": 548,
      "⋮": 549,
      "▁!": 550,
      "▁\"": 551,
      "▁#": 552,
      "▁$": 553,
      "▁%": 554,
      "▁&": 555,
      "▁'": 556,
      "▁(": 557,
      "▁)": 558,
      "▁*": 559,
      "▁+": 560,
      "▁,": 561,
      "▁-": 562,
      "▁.": 563,
      "▁/": 564,
      "▁0": 565,
      "▁1": 566,
      "▁2": 567,
      "▁3": 568,
      "▁4": 569,
      "▁5": 570,
      "▁6": 571,
      "▁7": 572,
      "▁8": 573,
      "▁9": 574,
      "▁:": 575,
      "▁;": 576,
      "▁<": 577,
      "▁=": 578,
      "▁>": 579,
      "▁?": 580,
      "▁@": 581,
      "▁A": 582,
      "▁B": 583,
      "▁C": 584,
      "▁D": 585,
      "▁E": 586,
      "▁F": 587,
      "▁G": 588,
      "▁H": 589,
      "▁I": 590,
      "▁J": 591,
      "▁K": 592,
      "▁L": 593,
      "▁M": 594,
      "▁N": 595,
      "▁O": 596,
      "▁P": 597,
      "▁Q": 598,
      "▁R": 599,
      "▁S": 600,
      "▁T": 601,
      "▁U": 602,
      "▁V": 603,
      "▁W": 604,
      "▁X": 605,
      "▁Y": 606,
      "▁Z": 607,
      "▁[": 608,
      "▁\\": 609,
      "▁]": 610,
      "▁^": 611,
      "▁_": 612,
      "▁a": 613,
      "▁b": 614,
      "▁c": 615,
      "▁d": 616,
      "▁e": 617,
      "▁f": 618,
      "▁g": 619,
      "▁h": 620,
      "▁i": 621,
      "▁j": 622,
      "▁k": 623,
      "▁l": 624,
      "▁m": 625,
      "▁n": 626,
      "▁o": 627,
      "▁p": 628,
      "▁q": 629,
      "▁r": 630,
      "▁s": 631,
      "▁t": 632,
      "▁u": 633,
      "▁v": 634,
      "▁w": 635,
      "▁x": 636,
      "▁y": 637,
      "▁z": 638,
      "▁{": 639,
      "▁|": 640,
      "▁}": 641,
      "▁~": 642,
      "▁£": 643,
      "▁§": 644,
      "▁©": 645,
      "▁¬": 646,
      "▁°": 647,
      "▁¶": 648,
      "▁·": 649,
      "▁Ö": 650,
      "▁Ø": 651,
      "▁ä": 652,
      "▁ï": 653,
      "▁ö": 654,
      "▁÷": 655,
      "▁ü": 656,
      "▁Ā": 657,
      "▁ǝ": 658,
      "▁̈": 659,
      "▁̋": 660,
      "▁Α": 661,
      "▁Ω": 662,
      "▁Т": 663,
      "▁и": 664,
      "▁о": 665,
      "▁ב": 666,
      "▁ו": 667,
      "▁ח": 668,
      "▁י": 669,
      "▁כ": 670,
      "▁ל": 671,
      "▁מ": 672,
      "▁ס": 673,
      "▁ק": 674,
      "▁ר": 675,
      "▁أ": 676,
      "▁ا": 677,
      "▁ت": 678,
      "▁س": 679,
      "▁ق": 680,
      "▁و": 681,
      "▁ي": 682,
      "▁ख": 683,
      "▁भ": 684,
      "▁စ": 685,
      "▁თ": 686,
      "▁წ": 687,
      "▁ሀ": 688,
      "▁ሁ": 689,
      "▁ሂ": 690,
      "▁ሃ": 691,
      "▁ሄ": 692,
      "▁ህ": 693,
      "▁ሆ": 694,
      "▁ሇ": 695,
      "▁ለ": 696,
      "▁ሉ": 697,
      "▁ሊ": 698,
      "▁ላ": 699,
      "▁ሌ": 700,
      "▁ል": 701,
      "▁ሎ": 702,
      "▁ሐ": 703,
      "▁ሑ": 704,
      "▁ሒ": 705,
      "▁ሓ": 706,
      "▁ሔ": 707,
      "▁ሕ": 708,
      "▁ሖ": 709,
      "▁መ": 710,
      "▁ሙ": 711,
      "▁ሚ": 712,
      "▁ማ": 713,
      "▁ሜ": 714,
      "▁ም": 715,
      "▁ሞ": 716,
      "▁ሟ": 717,
      "▁ሠ": 718,
      "▁ሡ": 719,
      "▁ሢ": 720,
      "▁ሣ": 721,
      "▁ሥ": 722,
      "▁ረ": 723,
      "▁ሩ": 724,
      "▁ሪ": 725,
      "▁ራ": 726,
      "▁ሬ": 727,
      "▁ር": 728,
      "▁ሮ": 729,
      "▁ሰ": 730,
      "▁ሱ": 731,
      "▁ሲ": 732,
      "▁ሳ": 733,
      "▁ሴ": 734,
      "▁ስ": 735,
      "▁ሶ": 736,
      "▁ሸ": 737,
      "▁ሹ": 738,
      "▁ሺ": 739,
      "▁ሻ": 740,
      "▁ሼ": 741,
      "▁ሽ": 742,
      "▁ሾ": 743,
      "▁ቀ": 744,
      "▁ቁ": 745,
      "▁ቂ": 746,
      "▁ቃ": 747,
      "▁ቄ": 748,
      "▁ቅ": 749,
      "▁ቆ": 750,
      "▁ቈ": 751,
      "▁ቊ": 752,
      "▁ቋ": 753,
      "▁ቌ": 754,
      "▁ቍ": 755,
      "▁ቐ": 756,
      "▁ቑ": 757,
      "▁ቒ": 758,
      "▁ቓ": 759,
      "▁ቔ": 760,
      "▁ቕ": 761,
      "▁ቖ": 762,
      "▁ቘ": 763,
      "▁ቚ": 764,
      "▁ቛ": 765,
      "▁ቜ": 766,
      "▁ቝ": 767,
      "▁በ": 768,
      "▁ቡ": 769,
      "▁ቢ": 770,
      "▁ባ": 771,
      "▁ቤ": 772,
      "▁ብ": 773,
      "▁ቦ": 774,
      "▁ቨ": 775,
      "▁ቩ": 776,
      "▁ቪ": 777,
      "▁ቫ": 778,
      "▁ቬ": 779,
      "▁ቭ": 780,
      "▁ቮ": 781,
      "▁ተ": 782,
      "▁ቱ": 783,
      "▁ቲ": 784,
      "▁ታ": 785,
      "▁ቴ": 786,
      "▁ት": 787,
      "▁ቶ": 788,
      "▁ቸ": 789,
      "▁ቹ": 790,
      "▁ቺ": 791,
      "▁ቻ": 792,
      "▁ቼ": 793,
      "▁ች": 794,
      "▁ቾ": 795,
      "▁ቿ": 796,
      "▁ኀ": 797,
      "▁ኂ": 798,
      "▁ኃ": 799,
      "▁ኄ": 800,
      "▁ኅ": 801,
      "▁ኆ": 802,
      "▁ኋ": 803,
      "▁ነ": 804,
      "▁ኑ": 805,
      "▁ኒ": 806,
      "▁ና": 807,
      "▁ኔ": 808,
      "▁ን": 809,
      "▁ኖ": 810,
      "▁ኛ": 811,
      "▁አ": 812,
      "▁ኡ": 813,
      "▁ኢ": 814,
      "▁ኣ": 815,
      "▁ኤ": 816,
      "▁እ": 817,
      "▁ኦ": 818,
      "▁ኧ": 819,
      "▁ከ": 820,
      "▁ኩ": 821,
      "▁ኪ": 822,
      "▁ካ": 823,
      "▁ኬ": 824,
      "▁ክ": 825,
      "▁ኮ": 826,
      "▁ኯ": 827,
      "▁ኰ": 828,
      "▁ኲ": 829,
      "▁ኳ": 830,
      "▁ኴ": 831,
      "▁ኵ": 832,
      "▁ኸ": 833,
      "▁ኹ": 834,
      "▁ኺ": 835,
      "▁ኻ": 836,
      "▁ኼ": 837,
      "▁ኽ": 838,
      "▁ኾ": 839,
      "▁ዀ": 840,
      "▁ዂ": 841,
      "▁ዃ": 842,
      "▁ዄ": 843,
      "▁ዅ": 844,
      "▁ወ": 845,
      "▁ዉ": 846,
      "▁ዊ": 847,
      "▁ዋ": 848,
      "▁ዌ": 849,
      "▁ው": 850,
      "▁ዎ": 851,
      "▁ዐ": 852,
      "▁ዑ": 853,
      "▁ዒ": 854,
      "▁ዓ": 855,
      "▁ዔ": 856,
      "▁ዕ": 857,
      "▁ዖ": 858,
      "▁ዘ": 859,
      "▁ዙ": 860,
      "▁ዚ": 861,
      "▁ዛ": 862,
      "▁ዜ": 863,
      "▁ዝ": 864,
      "▁ዞ": 865,
      "▁ዢ": 866,
      "▁ዣ": 867,
      "▁የ": 868,
      "▁ዩ": 869,
      "▁ዪ": 870,
      "▁ያ": 871,
      "▁ዬ": 872,
      "▁ይ": 873,
      "▁ዮ": 874,
      "▁ዯ": 875,
      "▁ደ": 876,
      "▁ዱ": 877,
      "▁ዲ": 878,
      "▁ዳ": 879,
      "▁ዴ": 880,
      "▁ድ": 881,
      "▁ዶ": 882,
      "▁ዾ": 883,
      "▁ጀ": 884,
      "▁ጁ": 885,
      "▁ጂ": 886,
      "▁ጃ": 887,
      "▁ጄ": 888,
      "▁ጅ": 889,
      "▁ጆ": 890,
      "▁ገ": 891,
      "▁ጉ": 892,
      "▁ጊ": 893,
      "▁ጋ": 894,
      "▁ጌ": 895,
      "▁ግ": 896,
      "▁ጎ": 897,
      "▁ጏ": 898,
      "▁ጐ": 899,
      "▁ጒ": 900,
      "▁ጓ": 901,
      "▁ጕ": 902,
      "▁ጛ": 903,
      "▁ጠ": 904,
      "▁ጡ": 905,
      "▁ጢ": 906,
      "▁ጣ": 907,
      "▁ጤ": 908,
      "▁ጥ": 909,
      "▁ጦ": 910,
      "▁ጧ": 911,
      "▁ጨ": 912,
      "▁ጩ": 913,
      "▁ጪ": 914,
      "▁ጫ": 915,
      "▁ጭ": 916,
      "▁ጮ": 917,
      "▁ጰ": 918,
      "▁ጱ": 919,
      "▁ጲ": 920,
      "▁ጳ": 921,
      "▁ጴ": 922,
      "▁ጵ": 923,
      "▁ጶ": 924,
      "▁ጸ": 925,
      "▁ጹ": 926,
      "▁ጺ": 927,
      "▁ጻ": 928,
      "▁ጼ": 929,
      "▁ጽ": 930,
      "▁ጾ": 931,
      "▁ፀ": 932,
      "▁ፁ": 933,
      "▁ፂ": 934,
      "▁ፃ": 935,
      "▁ፅ": 936,
      "▁ፆ": 937,
      "▁ፈ": 938,
      "▁ፉ": 939,
      "▁ፊ": 940,
      "▁ፋ": 941,
      "▁ፌ": 942,
      "▁ፍ": 943,
      "▁ፎ": 944,
      "▁ፐ": 945,
      "▁ፑ": 946,
      "▁ፒ": 947,
      "▁ፓ": 948,
      "▁ፔ": 949,
      "▁ፕ": 950,
      "▁ፖ": 951,
      "▁፠": 952,
      "▁፡": 953,
      "▁።": 954,
      "▁፣": 955,
      "▁፤": 956,
      "▁፥": 957,
      "▁፦": 958,
      "▁፧": 959,
      "▁፨": 960,
      "▁፩": 961,
      "▁፪": 962,
      "▁፫": 963,
      "▁፬": 964,
      "▁፭": 965,
      "▁፮": 966,
      "▁፯": 967,
      "▁፰": 968,
      "▁፱": 969,
      "▁፲": 970,
      "▁፳": 971,
      "▁፴": 972,
      "▁፵": 973,
      "▁፷": 974,
      "▁፻": 975,
      "▁᎒": 976,
      "▁†": 977,
      "▁•": 978,
      "▁‹": 979,
      "▁›": 980,
      "▁€": 981,
      "▁←": 982,
      "▁→": 983,
      "▁⇒": 984,
      "▁√": 985,
      "▁≤": 986,
      "▁▢": 987,
      "▁►": 988,
      "▁▼": 989,
      "▁●": 990,
      "▁★": 991,
      "▁☆": 992,
      "▁☞": 993,
      "▁♂": 994,
      "▁♥": 995,
      "▁♫": 996,
      "▁✈": 997,
      "▁✔": 998,
      "▁❤": 999,
      "▁➜": 1000,
      "▁➤": 1001,
      "▁ⵗ": 1002,
      "▁ⶁ": 1003,
      "▁。": 1004,
      "▁か": 1005,
      "▁で": 1006,
      "▁ど": 1007,
      "▁ア": 1008,
      "▁幫": 1009,
      "▁彼": 1010,
      "▁我": 1011,
      "▁私": 1012,
      "▁評": 1013,
      "▁香": 1014,
      "▁ꗺ": 1015,
      "▁이": 1016,
      "▁﷽": 1017,
      "▁�": 1018,
      "▁🇪": 1019,
      "▁🇻": 1020,
      "▁👉": 1021,
      "▁👌": 1022,
      "▁👍": 1023,
      "▁👎": 1024,
      "▁💕": 1025,
      "▁💘": 1026,
      "▁💯": 1027,
      "▁📖": 1028,
      "▁🔥": 1029,
      "▁😀": 1030,
      "▁😁": 1031,
      "▁😂": 1032,
      "▁😃": 1033,
      "▁😆": 1034,
      "▁😉": 1035,
      "▁😏": 1036,
      "▁😘": 1037,
      "▁😡": 1038,
      "▁😢": 1039,
      "▁😥": 1040,
      "▁😭": 1041,
      "▁🙂": 1042,
      "▁🙄": 1043,
      "▁🙏": 1044,
      "▁🚴": 1045,
      "▁🤔": 1046,
      "▁🤙": 1047,
      "▁🤣": 1048,
      "▁🥺": 1049,
      "▁🧑": 1050,
      "▢": 1051,
      "►": 1052,
      "▼": 1053,
      "●": 1054,
      "★": 1055,
      "☆": 1056,
      "☞": 1057,
      "♂": 1058,
      "♡": 1059,
      "♥": 1060,
      "♫": 1061,
      "✈": 1062,
      "✌": 1063,
      "✔": 1064,
      "❤": 1065,
      "➜": 1066,
      "➤": 1067,
      "⭐": 1068,
      "ⵗ": 1069,
      "ⶁ": 1070,
      "。": 1071,
      "か": 1072,
      "で": 1073,
      "と": 1074,
      "ど": 1075,
      "ア": 1076,
      "ハ": 1077,
      "ム": 1078,
      "ラ": 1079,
      "吗": 1080,
      "小": 1081,
      "幫": 1082,
      "彼": 1083,
      "想": 1084,
      "我": 1085,
      "港": 1086,
      "發": 1087,
      "私": 1088,
      "者": 1089,
      "製": 1090,
      "評": 1091,
      "語": 1092,
      "論": 1093,
      "達": 1094,
      "錄": 1095,
      "音": 1096,
      "香": 1097,
      "ꗺ": 1098,
      "ꬂ": 1099,
      "ꬃ": 1100,
      "ꬄ": 1101,
      "ꬅ": 1102,
      "ꬆ": 1103,
      "ꬊ": 1104,
      "ꬋ": 1105,
      "ꬑ": 1106,
      "이": 1107,
      "해": 1108,
      "﷽": 1109,
      "️": 1110,
      "�": 1111,
      "🇪": 1112,
      "🇳": 1113,
      "🇷": 1114,
      "🇹": 1115,
      "🇻": 1116,
      "🎵": 1117,
      "🏻": 1118,
      "🏽": 1119,
      "👇": 1120,
      "👈": 1121,
      "👉": 1122,
      "👌": 1123,
      "👍": 1124,
      "👎": 1125,
      "💕": 1126,
      "💘": 1127,
      "💛": 1128,
      "💝": 1129,
      "💞": 1130,
      "💯": 1131,
      "📖": 1132,
      "🔥": 1133,
      "😀": 1134,
      "😁": 1135,
      "😂": 1136,
      "😃": 1137,
      "😄": 1138,
      "😆": 1139,
      "😉": 1140,
      "😍": 1141,
      "😏": 1142,
      "😘": 1143,
      "😡": 1144,
      "😢": 1145,
      "😥": 1146,
      "😭": 1147,
      "🙂": 1148,
      "🙄": 1149,
      "🙉": 1150,
      "🙏": 1151,
      "🚴": 1152,
      "🤔": 1153,
      "🤗": 1154,
      "🤙": 1155,
      "🤣": 1156,
      "🤦": 1157,
      "🥺": 1158,
      "🧑": 1159,
      "▁ኣብ": 1160,
      "▁እዩ": 1161,
      "▁ከም": 1162,
      "▁ኣይ": 1163,
      "▁እን": 1164,
      "ውን": 1165,
      "▁እዩ።": 1166,
      "▁ድማ": 1167,
      "▁እቲ": 1168,
      "ታት": 1169,
      "▁ካብ": 1170,
      "▁ናይ": 1171,
      "▁እዚ": 1172,
      "ን።": 1173,
      "ቶም": 1174,
      "▁ምስ": 1175,
      "ም።": 1176,
      "ምላ": 1177,
      "ምላኽ": 1178,
      "ኩም": 1179,
      "▁ናብ": 1180,
      "ነት": 1181,
      "▁እንተ": 1182,
      "▁ስለ": 1183,
      "▁ኣምላኽ": 1184,
      "▁ከኣ": 1185,
      "▁ኣለ": 1186,
      "▁ሰብ": 1187,
      "▁መን": 1188,
      "ኽእ": 1189,
      "ታይ": 1190,
      "▁ዘይ": 1191,
      "▁ሓደ": 1192,
      "▁እየ": 1193,
      "በር": 1194,
      "▁ኣሎ": 1195,
      "ብል": 1196,
      "በረ": 1197,
      "ና።": 1198,
      "ሎም": 1199,
      "▁እዮ": 1200,
      "ገር": 1201,
      "▁ክን": 1202,
      "ኽእል": 1203,
      "ዓል": 1204,
      "ብር": 1205,
      "▁ክት": 1206,
      "▁ዘለ": 1207,
      "▁እውን": 1208,
      "ባት": 1209,
      "ፈል": 1210,
      "▁ነይ": 1211,
      "▁ነቲ": 1212,
      "ኹም": 1213,
      "▁ግን": 1214,
      "ትን": 1215,
      "ኣብ": 1216,
      "▁ወይ": 1217,
      "ግዚ": 1218,
      "▁ዘሎ": 1219,
      "ኸውን": 1220,
      "ዩ።": 1221,
      "▁ዝተ": 1222,
      "▁ኸኣ": 1223,
      "▁እንታይ": 1224,
      "ምን": 1225,
      "▁ኣነ": 1226,
      "ንቲ": 1227,
      "መይ": 1228,
      "▁ግዜ": 1229,
      "ዕባ": 1230,
      "▁እግዚ": 1231,
      "▁እም": 1232,
      "ራት": 1233,
      "▁ዝነ": 1234,
      "▁ብዙ": 1235,
      "▁ዓመ": 1236,
      "በይ": 1237,
      "▁መዓል": 1238,
      "▁ህዝ": 1239,
      "ኦም": 1240,
      "ለት": 1241,
      "ሩ።": 1242,
      "▁ንሱ": 1243,
      "ዛዕባ": 1244,
      "▁እሞ": 1245,
      "ለም": 1246,
      "ራይ": 1247,
      "ያት": 1248,
      "ራሕ": 1249,
      "ኾነ": 1250,
      "ያን": 1251,
      "▁ሰባት": 1252,
      "▁ካል": 1253,
      "▁እቶም": 1254,
      "▁ኩሉ": 1255,
      "▁እያ": 1256,
      "ወት": 1257,
      "ርስ": 1258,
      "▁ነገር": 1259,
      "▁ዝበ": 1260,
      "▁ንስ": 1261,
      "ሔር": 1262,
      "ዎ።": 1263,
      "▁እዮም።": 1264,
      "ሱስ": 1265,
      "ሕሪ": 1266,
      "ይኑ": 1267,
      "▁ምድ": 1268,
      "▁ኢኻ": 1269,
      "▁ነዚ": 1270,
      "▁ቅድ": 1271,
      "ገብ": 1272,
      "ገል": 1273,
      "ተይ": 1274,
      "ኮነ": 1275,
      "▁እተ": 1276,
      "መን": 1277,
      "▁እግዚኣብ": 1278,
      "▁መዓልቲ": 1279,
      "ላት": 1280,
      "ዕሊ": 1281,
      "▁ሕጂ": 1282,
      "▁ኣይት": 1283,
      "▁ክሳ": 1284,
      "▁እዮም": 1285,
      "መስ": 1286,
      "ሓት": 1287,
      "ፈልጥ": 1288,
      "ርእ": 1289,
      "'ውን": 1290,
      "ኣይ": 1291,
      "ረት": 1292,
      "▁ኢሉ": 1293,
      "▁ዓመት": 1294,
      "ስቲ": 1295,
      "ዋን": 1296,
      "▁እታ": 1297,
      "ገብር": 1298,
      "▁ኣሎ።": 1299,
      "▁ህዝቢ": 1300,
      "ዛረ": 1301,
      "▁ቤት": 1302,
      "..": 1303,
      "ልካ": 1304,
      "▁ጥራይ": 1305,
      "▁ኢና": 1306,
      "▁ኸም": 1307,
      "ስተ": 1308,
      "▁ብዙሕ": 1309,
      "ዘይ": 1310,
      "ይወት": 1311,
      "ሓፍ": 1312,
      "▁ንኣ": 1313,
      "▁ክል": 1314,
      "▁እየ።": 1315,
      "▁እት": 1316,
      "▁ዓለም": 1317,
      "▁መጽ": 1318,
      "ለይ": 1319,
      "ግባ": 1320,
      "መር": 1321,
      "ዓት": 1322,
      "▁ቅዱ": 1323,
      "ሰር": 1324,
      "ምህ": 1325,
      "▁ምዃ": 1326,
      "ብሉ": 1327,
      "▁ሎሚ": 1328,
      "▁ንስኻ": 1329,
      "▁ኣቦ": 1330,
      "▁ኣን": 1331,
      "▁እስ": 1332,
      "▁ማለት": 1333,
      "▁ርእ": 1334,
      "▁ኢና።": 1335,
      "▁ምእ": 1336,
      "ኤል": 1337,
      "ሮም": 1338,
      "▁ተመ": 1339,
      "ዮም": 1340,
      "▁ምኽ": 1341,
      "▁ቅድሚ": 1342,
      "▁እዋን": 1343,
      "ልና": 1344,
      "ዎም": 1345,
      "ርከ": 1346,
      "'ዩ": 1347,
      "ድል": 1348,
      "▁ክርስ": 1349,
      "ኒ።": 1350,
      "▁ነበረ": 1351,
      "ምር": 1352,
      "ናት": 1353,
      "ገራት": 1354,
      "ደይ": 1355,
      "▁ምድሪ": 1356,
      "▁ከይ": 1357,
      "ታዊ": 1358,
      "▁20": 1359,
      "▁እና": 1360,
      "ጽእ": 1361,
      "▁ኣይኮነ": 1362,
      "ናይ": 1363,
      "▁ቅዱስ": 1364,
      "▁መል": 1365,
      "▁የሱስ": 1366,
      "ውያን": 1367,
      "▁ድሕሪ": 1368,
      "ትኩም": 1369,
      "በል": 1370,
      "▁ዝሓ": 1371,
      "▁ኢዩ።": 1372,
      "▁ከመይ": 1373,
      "▁ንዓ": 1374,
      "▁ንሳ": 1375,
      "ና፡": 1376,
      "▁ሰማ": 1377,
      "ደል": 1378,
      "▁መጽሓፍ": 1379,
      "'ዚ": 1380,
      "ይታ": 1381,
      "▁ንሕ": 1382,
      "ገዲ": 1383,
      "ተን": 1384,
      "▁ድማ፡": 1385,
      "ርያ": 1386,
      "▁ምሳ": 1387,
      "ናን": 1388,
      "▁ብም": 1389,
      "▁በሎ": 1390,
      "ሉ።": 1391,
      "ራዊ": 1392,
      "ይን": 1393,
      "ምህር": 1394,
      "ኣት": 1395,
      "'ዩ።": 1396,
      "▁መንግ": 1397,
      "▁ዝኾነ": 1398,
      "▁\"እ": 1399,
      "▁ደቂ": 1400,
      "ዳእ": 1401,
      "▁ሃገር": 1402,
      "▁እምበር": 1403,
      "▁በለ": 1404,
      "▁መሰ": 1405,
      "▁ወዲ": 1406,
      "ሰብ": 1407,
      "ምንታይ": 1408,
      "▁ካልእ": 1409,
      "▁ዝነበረ": 1410,
      "ቡቕ": 1411,
      "▁ልዕሊ": 1412,
      "▁ብር": 1413,
      "▁ንሓ": 1414,
      "▁ነይሩ።": 1415,
      "▁ኣዝ": 1416,
      "▁ኣባ": 1417,
      "▁ንም": 1418,
      "▁ስም": 1419,
      "ዞም": 1420,
      "ለን": 1421,
      "▁እግዚኣብሔር": 1422,
      "▁ዝብል": 1423,
      "▁ከተ": 1424,
      "▁ገለ": 1425,
      "▁ስራሕ": 1426,
      "▁ንእ": 1427,
      "▁ክልተ": 1428,
      "▁ዓይ": 1429,
      "▁ምኽን": 1430,
      "▁ቦታ": 1431,
      "ን፡": 1432,
      "▁ምን": 1433,
      "▁ሓቂ": 1434,
      "▁እስራ": 1435,
      "ሃል": 1436,
      "▁ምእንቲ": 1437,
      "ኦት": 1438,
      "▁ክሳብ": 1439,
      "▁ሽዑ": 1440,
      "▁እያ።": 1441,
      "ብኡ": 1442,
      "▁ህይወት": 1443,
      "▁እዚኣ": 1444,
      "ላም": 1445,
      "▁መስ": 1446,
      "▁ገዛ": 1447,
      "▁ሓንቲ": 1448,
      "▁እሞ፡": 1449,
      "ሰም": 1450,
      "ሄር": 1451,
      "ዳይ": 1452,
      "▁ኮይኑ": 1453,
      "▁ቃል": 1454,
      "ኹን": 1455,
      "▁በዚ": 1456,
      "ሆዋ": 1457,
      "ንስ": 1458,
      "ላይ": 1459,
      "ጉስ": 1460,
      "▁ኵሉ": 1461,
      "ረኽ": 1462,
      "▁ዝመ": 1463,
      "▁ኣፍ": 1464,
      "ድሕ": 1465,
      "በሩ": 1466,
      "ጣን": 1467,
      "ከኣ": 1468,
      "ኹ።": 1469,
      "ክብ": 1470,
      "▁ነቶም": 1471,
      "▁ዝዀ": 1472,
      "▁ግብ": 1473,
      "▁ኻብ": 1474,
      "▁ጽቡቕ": 1475,
      "▁ንሕና": 1476,
      "ሉእ": 1477,
      "ርከብ": 1478,
      "▁ብዘይ": 1479,
      "▁ገይ": 1480,
      "▁ከምዝ": 1481,
      "በለ": 1482,
      "ንን": 1483,
      "አብ": 1484,
      "▁ደኣ": 1485,
      "ላለ": 1486,
      "ሎት": 1487,
      "ቦም": 1488,
      "▁ነበረ።": 1489,
      "ደሊ": 1490,
      "▁እስራኤል": 1491,
      "▁ክኸውን": 1492,
      "▁ኣየ": 1493,
      "▁ኣገ": 1494,
      "ርኢ": 1495,
      "አብሔር": 1496,
      "ማት": 1497,
      "▁ብዝ": 1498,
      "ቶስ": 1499,
      "▁ኢዩ": 1500,
      "▁ትምህር": 1501,
      "▁ምዃኑ": 1502,
      "ንዘ": 1503,
      "▁ኢኻ።": 1504,
      "▁ኢየ": 1505,
      "ሰይ": 1506,
      "▁ኽት": 1507,
      "▁ብሓ": 1508,
      "ርን": 1509,
      "▁ኣይነ": 1510,
      "ምል": 1511,
      "▁ኣይተ": 1512,
      "ዛረብ": 1513,
      "▁ነገራት": 1514,
      "▁ዘለዎ": 1515,
      "▁ነፍ": 1516,
      "▁ኣሕ": 1517,
      "▁ምር": 1518,
      "▁የሆዋ": 1519,
      "ኖም": 1520,
      "▁ኣይኮነን።": 1521,
      "ስፋ": 1522,
      "ነታት": 1523,
      "▁ብዙሓት": 1524,
      "▁ዝበለ": 1525,
      "▁ሕቶ": 1526,
      "ርት": 1527,
      "ልን": 1528,
      "▁ነይሩ": 1529,
      "▁ኣለዉ": 1530,
      "ነብር": 1531,
      "ፈት": 1532,
      "▁ብኸ": 1533,
      "ድን": 1534,
      "▁መወ": 1535,
      "▁ዓይነት": 1536,
      "ረ።": 1537,
      "▁ቤተ": 1538,
      "▁ክፍ": 1539,
      "▁ባህ": 1540,
      "ባር": 1541,
      "▁ኣይክ": 1542,
      "▁ዝገ": 1543,
      "ላእ": 1544,
      "ዳእታ": 1545,
      "▁ባዕ": 1546,
      "ማይ": 1547,
      "ትና": 1548,
      "ርና": 1549,
      "▁ዝኣ": 1550,
      "ልክ": 1551,
      "▁ንኽ": 1552,
      "▁ፍር": 1553,
      "በይቲ": 1554,
      "በት": 1555,
      "ድራ": 1556,
      "ኸይ": 1557,
      "ስ፡": 1558,
      "▁ተስፋ": 1559,
      "ፈር": 1560,
      "▁ፍቕ": 1561,
      "▁እግዚኣብሄር": 1562,
      "ካን": 1563,
      "▁ግና፡": 1564,
      "▁ክህ": 1565,
      "▁ኣእ": 1566,
      "ዊት": 1567,
      "ኽቲ": 1568,
      "ንዘብ": 1569,
      "▁ውሽ": 1570,
      "▁መንግስቲ": 1571,
      "▁ኣስ": 1572,
      "▁ተቐ": 1573,
      "▁ሰላም": 1574,
      "▁\"ኣ": 1575,
      "▁ኢኹም": 1576,
      "▁ሓድ": 1577,
      "ኰነ": 1578,
      "ሳብ": 1579,
      "▁ድዩ": 1580,
      "ማዕ": 1581,
      "▁ንጉስ": 1582,
      "▁በቲ": 1583,
      "▁ገሊ": 1584,
      "ገልግ": 1585,
      "▁ከሎ": 1586,
      "ባይ": 1587,
      "ሕቲ": 1588,
      "ካል": 1589,
      "▁መንፈ": 1590,
      "ባል": 1591,
      "▁መወዳእታ": 1592,
      "ኹም።": 1593,
      "▁እግዚአብሔር": 1594,
      "▁ኣለዎ።": 1595,
      "ብለ": 1596,
      "▁ካልኦት": 1597,
      "ባዕ": 1598,
      "▁ብእ": 1599,
      "▁ንሳቶም": 1600,
      "ብሎ": 1601,
      "ለስተ": 1602,
      "▁10": 1603,
      "ዳን": 1604,
      "ይቲ": 1605,
      "ት።": 1606,
      "ለስ": 1607,
      "▁ክርስቶስ": 1608,
      "▁ዝወ": 1609,
      "▁ጊዜ": 1610,
      "ደን": 1611,
      "▁ትምህርቲ": 1612,
      "▁ተወ": 1613,
      "ትዮ": 1614,
      "ፈልጦ": 1615,
      "▁ዝዀነ": 1616,
      "▁ምሕ": 1617,
      "▁ስለምንታይ": 1618,
      "▁ጐይታ": 1619,
      "ግባር": 1620,
      "▁ወር": 1621,
      "ዶም": 1622,
      "▁ኣመ": 1623,
      "ከፍ": 1624,
      "▁በል": 1625,
      "ባብ": 1626,
      "▁ቀዳ": 1627,
      "▁መር": 1628,
      "በሮ": 1629,
      "ኻትኩም": 1630,
      "▁19": 1631,
      "▁ፍል": 1632,
      "ሬታ": 1633,
      "▁ብኣ": 1634,
      "▁መገዲ": 1635,
      "ከውን": 1636,
      "ግብ": 1637,
      "▁ከተማ": 1638,
      "▁ክሳዕ": 1639,
      "▁ማእ": 1640,
      "▁ንዝ": 1641,
      "ዘለ": 1642,
      "ል።": 1643,
      "▁ማሕ": 1644,
      "ገብሮ": 1645,
      "▁ሓይ": 1646,
      "መጽእ": 1647,
      "▁ገንዘብ": 1648,
      "ንቋ": 1649,
      "▁ኣር": 1650,
      "▁ኣው": 1651,
      "ተር": 1652,
      "▁ሕማ": 1653,
      "ልቦ": 1654,
      "▁ሰብኣይ": 1655,
      "ዚ፡": 1656,
      "ካ።": 1657,
      "ነብ": 1658,
      "▁ትኽእል": 1659,
      "▁ሞት": 1660,
      "ላ።": 1661,
      "▁መብ": 1662,
      "በብ": 1663,
      "ሪካ": 1664,
      "ገድ": 1665,
      "▁ዘለዉ": 1666,
      "'ቲ": 1667,
      "ጻኢ": 1668,
      "ሙን": 1669,
      "▁ሓበ": 1670,
      "በሉ": 1671,
      "▁ኸኣ፡": 1672,
      "▁ኢሎም": 1673,
      "▁ብስ": 1674,
      "▁ኢለ": 1675,
      "ኛታት": 1676,
      "ስዕ": 1677,
      "▁ስር": 1678,
      "▁ጽሑ": 1679,
      "ጀመር": 1680,
      "▁ዓመታት": 1681,
      "▁ብኸመይ": 1682,
      "ካብ": 1683,
      "ልእ": 1684,
      "▁ጉዳይ": 1685,
      "▁ክንደይ": 1686,
      "▁ውን": 1687,
      "ንካ": 1688,
      "▁ኪኸውን": 1689,
      "ጠን": 1690,
      "ገም": 1691,
      "ዎም።": 1692,
      "ኩ።": 1693,
      "00": 1694,
      "▁በሎ።": 1695,
      "ዘን": 1696,
      "ገዝ": 1697,
      "ሕግ": 1698,
      "▁ጀሚ": 1699,
      "▁ኢል": 1700,
      "ሶም": 1701,
      "ሓቂ": 1702,
      "ሃብ": 1703,
      "እቲ": 1704,
      "▁ሰለስተ": 1705,
      "▁ዓብ": 1706,
      "▁ማይ": 1707,
      "▁እዩ፣": 1708,
      "ክል": 1709,
      "▁እዩ፡": 1710,
      "▁ንመ": 1711,
      "▁ብፍ": 1712,
      "ግር": 1713,
      "▁ስድራ": 1714,
      "ርብ": 1715,
      "▁ከኣ፡": 1716,
      "▁በለ።": 1717,
      "▁አብ": 1718,
      "ለጥ": 1719,
      "ሮም።": 1720,
      "ምቲ": 1721,
      "▁ሓበሬታ": 1722,
      "ብል።": 1723,
      "ስን": 1724,
      "ፈላለ": 1725,
      "▁ስለዝ": 1726,
      "▁ኣቢ": 1727,
      "▁ምኽንያ": 1728,
      "▁ነታ": 1729,
      "▁\"ን": 1730,
      "ያዳ": 1731,
      "ሰን": 1732,
      "ወስ": 1733,
      "ለን።": 1734,
      "ናኸ": 1735,
      "▁ፍቕሪ": 1736,
      "▁ከለ": 1737,
      "▁ንገ": 1738,
      "ድልየ": 1739,
      "በሩ።": 1740,
      "ግበር": 1741,
      "▁ኢኹም።": 1742,
      "▁መደ": 1743,
      "ረኸ": 1744,
      "ኣር": 1745,
      "...": 1746,
      "▁ክብ": 1747,
      "ሃን": 1748,
      "▁ታሪ": 1749,
      "▁ምሉእ": 1750,
      "ፈልጡ": 1751,
      "▁ተፈ": 1752,
      "ግባእ": 1753,
      "ግደ": 1754,
      "▁እምነት": 1755,
      "▁ኣገዳ": 1756,
      "▁201": 1757,
      "▁ዝኸ": 1758,
      "▁መንጎ": 1759,
      "ርድ": 1760,
      "▁እዩ\"": 1761,
      "▁ተኣ": 1762,
      "▁ዅሉ": 1763,
      "▁ስል": 1764,
      "▁ኢየሱስ": 1765,
      "▁ጥራሕ": 1766,
      "'የ": 1767,
      "▁ይኽእል": 1768,
      "ርካ": 1769,
      "▁መግ": 1770,
      "▁ሃገራት": 1771,
      "▁ሙሴ": 1772,
      "ምስ": 1773,
      "▁ንኣምላኽ": 1774,
      "▁ኢድ": 1775,
      "▁ምኽንያት": 1776,
      "ታትን": 1777,
      "▁ኢልካ": 1778,
      "ብና": 1779,
      "ዙይ": 1780,
      "▁ኣይነበረ": 1781,
      "ማን": 1782,
      "▁ወለ": 1783,
      "ነይ": 1784,
      "ቡ።": 1785,
      "ኾኑ": 1786,
      "▁ተሓ": 1787,
      "▁ይኸውን": 1788,
      "▁ሓድሽ": 1789,
      "▁በሎም።": 1790,
      "ደት": 1791,
      "▁ሕጊ": 1792,
      "▁ነብ": 1793,
      "ክር": 1794,
      "▁12": 1795,
      "ይወ": 1796,
      "▁ኣጋ": 1797,
      "▁ኣይን": 1798,
      "▁መጺ": 1799,
      "▁ዝዓ": 1800,
      "▁ኽን": 1801,
      "▁ዋላ": 1802,
      "ዕና": 1803,
      "▁እንሆ": 1804,
      "▁ነፍሲ": 1805,
      "ሓይ": 1806,
      "▁ኤርት": 1807,
      "ንታ": 1808,
      "ዋር": 1809,
      "▁ኣይኮ": 1810,
      "ጸን": 1811,
      "ግጽ": 1812,
      "ረክብ": 1813,
      "▁እንተኾነ": 1814,
      "ሕት": 1815,
      "ዮም።": 1816,
      "▁ዝሓለ": 1817,
      "▁ሰበይቲ": 1818,
      "ረን": 1819,
      "▁ዕድ": 1820,
      "ተወ": 1821,
      "ሰርሕ": 1822,
      "ረኣ": 1823,
      "▁ወይስ": 1824,
      "ፍቲ": 1825,
      "▁ኣለዉ።": 1826,
      "▁እወ": 1827,
      "▁15": 1828,
      "ትካ": 1829,
      "ሲ፡": 1830,
      "▁ክርስት": 1831,
      "ስት": 1832,
      "▁ኣይኰነ": 1833,
      "▁ምስኡ": 1834,
      "▁ኮይ": 1835,
      "ልም": 1836,
      "▁ዝነበሩ": 1837,
      "ታቶም": 1838,
      ":1": 1839,
      "ዕቲ": 1840,
      "▁ዓቢ": 1841,
      "▁ተባ": 1842,
      "ነግ": 1843,
      "ራን": 1844,
      "ባቢ": 1845,
      "ሙር": 1846,
      "▁ሃገ": 1847,
      "▁ኩነታት": 1848,
      "▁መዓ": 1849,
      "▁ድም": 1850,
      "▁መለ": 1851,
      "መሰ": 1852,
      "ዋ።": 1853,
      "▁ግናኸ": 1854,
      "ዓተ": 1855,
      "▁ውሽጢ": 1856,
      "ሳት": 1857,
      "ሎም።": 1858,
      "ሓደ": 1859,
      "ፍር": 1860,
      "ድሕሪ": 1861,
      "ጻእ": 1862,
      "ረብ": 1863,
      "▁ኣገዳሲ": 1864,
      "▁ቋንቋ": 1865,
      "▁ተሰ": 1866,
      "▁የብሉ": 1867,
      "▁ኣሕዋ": 1868,
      "▁መጀመር": 1869,
      "▁ኣይኮነን": 1870,
      "▁ወከፍ": 1871,
      "ሳይ": 1872,
      "ልዑ": 1873,
      "ኻን": 1874,
      "ዕል": 1875,
      "▁ክብል": 1876,
      "▁ኣድ": 1877,
      "▁ንዕ": 1878,
      "ሓን": 1879,
      "ደለ": 1880,
      "▁ሃብ": 1881,
      "▁መብዛ": 1882,
      "▁ደቀ": 1883,
      "▁የልቦ": 1884,
      "ፍቅ": 1885,
      "▁ወርሒ": 1886,
      "▁ሰዓት": 1887,
      "ብረ": 1888,
      "ኽእሉ": 1889,
      "ላማ": 1890,
      "ጽሕ": 1891,
      "ጥቀ": 1892,
      "▁ንሰ": 1893,
      "▁ነገ": 1894,
      "▁ደው": 1895,
      "ገብሩ": 1896,
      "▁ኣት": 1897,
      "▁ኤርትራ": 1898,
      "ቱን": 1899,
      "ጻሕ": 1900,
      "ተሓ": 1901,
      "ሽተ": 1902,
      "▁መንፈስ": 1903,
      "▁እምበር፡": 1904,
      "▁ከምኡ": 1905,
      "▁ትር": 1906,
      "▁14": 1907,
      "ራ።": 1908,
      "▁ኣበይ": 1909,
      "፧\"": 1910,
      "ብን": 1911,
      "ድና": 1912,
      "▁ዳዊት": 1913,
      "▁ውድ": 1914,
      "ዮ።": 1915,
      "ልኩም": 1916,
      "ህበ": 1917,
      "▁ዝኽእል": 1918,
      "▁የብ": 1919,
      "▁ኣም": 1920,
      "▁ነበሩ።": 1921,
      "ረባ": 1922,
      "▁ንዅ": 1923,
      "▁ሰይ": 1924,
      "ዮን": 1925,
      "▁ምፍ": 1926,
      "ዊሕ": 1927,
      "▁18": 1928,
      "▁ተገ": 1929,
      "▁ብመ": 1930,
      "▁ገና": 1931,
      "▁ዘበለ": 1932,
      "▁11": 1933,
      "▁ስለዚ፡": 1934,
      "ሓስ": 1935,
      "▁ንስኻትኩም": 1936,
      "ጢኣት": 1937,
      "▁ትን": 1938,
      "ላዕሊ": 1939,
      "ኑዕ": 1940,
      "▁መላእ": 1941,
      "ዘሎ": 1942,
      "▁ዓብዪ": 1943,
      "▁ኣማ": 1944,
      "ከኣል": 1945,
      "▁ደገ": 1946,
      "ንኩ": 1947,
      "▁የለን።": 1948,
      "▁ታሪኽ": 1949,
      "▁ካብዚ": 1950,
      "▁እምበ": 1951,
      "▁በዓል": 1952,
      "ላዕ": 1953,
      "▁ማእከ": 1954,
      "▁መንገዲ": 1955,
      "ያ።": 1956,
      "▁ጸሎት": 1957,
      "▁ምግ": 1958,
      "▁ምም": 1959,
      "ስም": 1960,
      "ለማ": 1961,
      "▁ዝሰ": 1962,
      "▁ሓይሊ": 1963,
      "▁\"ኣብ": 1964,
      "▁ኣለኹ": 1965,
      "▁ኣካ": 1966,
      "ናል": 1967,
      "▁ፍቓ": 1968,
      "▁ደጊ": 1969,
      "▁ወሲ": 1970,
      "ደም": 1971,
      "▁ጸኒ": 1972,
      "ከት": 1973,
      "ልወ": 1974,
      "በየ": 1975,
      "▁ሓሳብ": 1976,
      "ባዊ": 1977,
      "▁ኣለኹ።": 1978,
      "ጽል": 1979,
      "ክርስ": 1980,
      "ንዲ": 1981,
      "ልዓ": 1982,
      "ጠፍ": 1983,
      "▁ኣገልግ": 1984,
      "ፋል": 1985,
      "▁ተዋ": 1986,
      "▁ምው": 1987,
      "እል": 1988,
      "▁ማዕ": 1989,
      "▁መልሲ": 1990,
      "ገልጽ": 1991,
      "▁ምዕ": 1992,
      "ቡር": 1993,
      "▁ትእ": 1994,
      "▁አሎ": 1995,
      "▁መዝ": 1996,
      "ገብረ": 1997,
      "ህዝ": 1998,
      "▁ብዛዕባ": 1999,
      "▁ኰይኑ": 2000,
      "▁መንእ": 2001,
      "ብረት": 2002,
      "ታን": 2003,
      "ኣን": 2004,
      "▁ካብኡ": 2005,
      "ሕዝ": 2006,
      "ላን": 2007,
      "▁ሳዕ": 2008,
      "ዳም": 2009,
      "▁ፍሉ": 2010,
      "▁ዘሎ።": 2011,
      "ብሃል": 2012,
      "'ዶ": 2013,
      "▁ንግ": 2014,
      "▁ትሕቲ": 2015,
      "ምና": 2016,
      "ክን": 2017,
      "ኹሉ": 2018,
      "▁ይቕ": 2019,
      "▁ሓላ": 2020,
      "▁ተባሂ": 2021,
      "ቢት": 2022,
      "▁ኣል": 2023,
      "ባሕ": 2024,
      "▁ዝፈ": 2025,
      "ርእዮ": 2026,
      "▁ይመስ": 2027,
      "▁ተጠ": 2028,
      "▁ስርዓት": 2029,
      "ኣቶም": 2030,
      "ስና": 2031,
      "ዎን": 2032,
      "ሞም": 2033,
      "▁እንከ": 2034,
      "▁እተን": 2035,
      "▁ዓዲ": 2036,
      "▁ኸተ": 2037,
      "▁ጽሑፍ": 2038,
      "▁ኵሎም": 2039,
      "▁ድሕ": 2040,
      "ትታት": 2041,
      "▁ሓገዝ": 2042,
      "▁ሰሚ": 2043,
      "ቲካ": 2044,
      "▁መሊ": 2045,
      "▁ዕለት": 2046,
      "▁እንዳ": 2047,
      "ንቀ": 2048,
      "▁እዩ፧": 2049,
      "ሃር": 2050,
      "▁ገይሩ": 2051,
      "ያስ": 2052,
      "ልፍ": 2053,
      "▁ስጋ": 2054,
      "▁ተረ": 2055,
      "▁ሰዓ": 2056,
      "ኑ።": 2057,
      "ዳር": 2058,
      "▁አምላኽ": 2059,
      "▁በታ": 2060,
      "ኸይድ": 2061,
      "ራብ": 2062,
      "ሳዕ": 2063,
      "▁ከባቢ": 2064,
      "▁ዘየ": 2065,
      "▁ርክብ": 2066,
      "ረጃ": 2067,
      "▁እምበኣር": 2068,
      "ግእ": 2069,
      "ክዕ": 2070,
      "▁ካባ": 2071,
      "▁እቲኣ": 2072,
      "ሉን": 2073,
      "▁ጸጋ": 2074,
      "ተኛታት": 2075,
      "▁ኣለዎ": 2076,
      "▁ተማ": 2077,
      "▁ብተ": 2078,
      "▁ንነ": 2079,
      "ድሊ": 2080,
      "▁መድ": 2081,
      "▁17": 2082,
      "ኩም፡": 2083,
      "እን": 2084,
      "▁ጓል": 2085,
      "ቱ።": 2086,
      "▁ዝሓለፈ": 2087,
      "▁ዝያዳ": 2088,
      "▁ንደ": 2089,
      "▁ግብጺ": 2090,
      "ልዎ": 2091,
      "▁ዘይኮነ": 2092,
      "▁መልእ": 2093,
      "▁\"ብ": 2094,
      "ክት": 2095,
      "▁መጠን": 2096,
      "ኣብነት": 2097,
      "▁ኣዕ": 2098,
      "ይቶ": 2099,
      "ወይ": 2100,
      "▁ሰይጣን": 2101,
      "ርአ": 2102,
      "▁ኣይነበረን።": 2103,
      "ደልዩ": 2104,
      "▁ሃይ": 2105,
      "▁ካልኣይ": 2106,
      "▁ጸገም": 2107,
      "▁ልቢ": 2108,
      "ባዕተ": 2109,
      "ምለስ": 2110,
      "▁ዝኸውን": 2111,
      "ቢድ": 2112,
      "▁16": 2113,
      "▁ሰሙን": 2114,
      "▁ኣሜ": 2115,
      "▁አይ": 2116,
      "▁ስልጣን": 2117,
      "▁ለው": 2118,
      "ለቲካ": 2119,
      "ኣም": 2120,
      "▁ሓያ": 2121,
      "▁ጌር": 2122,
      "▁ወት": 2123,
      "ሳስ": 2124,
      "▁ቀዳማይ": 2125,
      "▁ነይረ።": 2126,
      "▁ምጽ": 2127,
      "ሳዊ": 2128,
      "▁13": 2129,
      "▁ምናል": 2130,
      "▁...": 2131,
      "ግዚኣብ": 2132,
      "▁ኣቦይ": 2133,
      "▁ይብል።": 2134,
      "ኣለም": 2135,
      "▁ክፍሊ": 2136,
      "▁ብል": 2137,
      "▁ተራ": 2138,
      "▁ባሕሪ": 2139,
      "ቤት": 2140,
      "▁ነበር": 2141,
      "ተት": 2142,
      "ፍት": 2143,
      "ይና": 2144,
      "▁መብዛሕት": 2145,
      "▁ብግ": 2146,
      "▁መሰል": 2147,
      "ዉን": 2148,
      "▁ኣህ": 2149,
      "ሩብ": 2150,
      "ማኖ": 2151,
      "▁ፈተ": 2152,
      "ሳኺ": 2153,
      "▁ቀረ": 2154,
      "▁መዛ": 2155,
      "▁ሕዚ": 2156,
      "▁ገጽ": 2157,
      "ድካ": 2158,
      "ሳሌ": 2159,
      "ኩም።": 2160,
      "ምሮ": 2161,
      "ርሕ": 2162,
      "▁ኣደ": 2163,
      "ሰምዕ": 2164,
      "▁ንዘለ": 2165,
      "▁ዘላ": 2166,
      "▁ህያ": 2167,
      "ግደፍ": 2168,
      "ን፣": 2169,
      "▁ወጻኢ": 2170,
      "▁ኣጸ": 2171,
      "ፋት": 2172,
      "▁መቕ": 2173,
      "ድር": 2174,
      "▁ኣሎና።": 2175,
      "▁ኣይክእ": 2176,
      "▁ኣቐ": 2177,
      "ላዊ": 2178,
      "ህብ": 2179,
      "ያዊ": 2180,
      "ረጋ": 2181,
      "ረይ": 2182,
      "ኼባ": 2183,
      "ምለ": 2184,
      "▁ኣምላ": 2185,
      "ፉእ": 2186,
      "ዱ።": 2187,
      "▁የብሉን።": 2188,
      "ስኻ": 2189,
      "▁ብምባል": 2190,
      "ቶ።": 2191,
      "መራ": 2192,
      "▁ፍልጠ": 2193,
      "ኡን": 2194,
      "▁ኣገልግሎት": 2195,
      "▁ትእዛ": 2196,
      "ናዮ": 2197,
      "ንግ": 2198,
      "▁ዘመ": 2199,
      "▁ረኣ": 2200,
      "▁ሕይወት": 2201,
      "▁ዝለ": 2202,
      "ኒ፡": 2203,
      "ራር": 2204,
      "▁ፖለቲካ": 2205,
      "ዋይ": 2206,
      "▁ወረ": 2207,
      "▁ግብሪ": 2208,
      "▁ረኺ": 2209,
      "ጋጥ": 2210,
      "ሴፍ": 2211,
      "▁እዩ?": 2212,
      "▁ዝተፈላለ": 2213,
      "▁ዕድል": 2214,
      "▁ንብ": 2215,
      "ጥፍ": 2216,
      "▁ተዛ": 2217,
      "ስታት": 2218,
      "▁ዘመን": 2219,
      "መስል": 2220,
      "መል": 2221,
      "▁ምብ": 2222,
      "ኻል": 2223,
      "▁\"እዚ": 2224,
      "ኡ፡": 2225,
      "ሰርተ": 2226,
      "▁ኣኼባ": 2227,
      "▁ክልቲ": 2228,
      "▁ከነ": 2229,
      "▁ነዊሕ": 2230,
      "ጽበ": 2231,
      "▁ዕዮ": 2232,
      "ቱም": 2233,
      "ዛብ": 2234,
      "▁ኣዒ": 2235,
      "▁ወትሩ": 2236,
      "ረስ": 2237,
      "▁ትርጉ": 2238,
      "ኩምን": 2239,
      "ነ።": 2240,
      "▁ንሓደ": 2241,
      "▁ኣርባዕተ": 2242,
      "ንብ": 2243,
      "▁መጀመርታ": 2244,
      "የ።": 2245,
      "ሬት": 2246,
      "ቐት": 2247,
      "▁ብርሃን": 2248,
      "▁ሰናይ": 2249,
      "▁ዕላማ": 2250,
      "ሃበ": 2251,
      "ላትና": 2252,
      "▁ፍት": 2253,
      "▁ዘይተ": 2254,
      "▁ንዓይ": 2255,
      "▁እዝ": 2256,
      "▁ተኸ": 2257,
      "▁ብርግጽ": 2258,
      "ራዊት": 2259,
      "ረድ": 2260,
      "▁ኣይኰነን።": 2261,
      "▁ህይወ": 2262,
      "ግም": 2263,
      "መስግ": 2264,
      "▁ከቢድ": 2265,
      "ሓር": 2266,
      "ነብሩ": 2267,
      "▁ብፍላይ": 2268,
      "ከይ": 2269,
      "ኣኽ": 2270,
      "ራኸ": 2271,
      "▁ናባ": 2272,
      "ኦን": 2273,
      "▁ኣታ": 2274,
      "▁ዘለዎም": 2275,
      "▁ብት": 2276,
      "ከም": 2277,
      "▁ጌጋ": 2278,
      "▁ሓለ": 2279,
      "▁ኣበ": 2280,
      "ጽን": 2281,
      "▁ኸተማ": 2282,
      "▁ሓዲ": 2283,
      "ናዊ": 2284,
      "ርያም": 2285,
      "▁ምት": 2286,
      "ደስ": 2287,
      "▁ምሳይ": 2288,
      "▁እየን።": 2289,
      "ናብ": 2290,
      "▁ፈጺ": 2291,
      "▁ምህ": 2292,
      "▁ነዛ": 2293,
      "▁23": 2294,
      "▁ንርእ": 2295,
      "ርሃ": 2296,
      "ሞን": 2297,
      "ውት": 2298,
      "▁ድዩ?": 2299,
      "▁ህዝብ": 2300,
      "ጣዕ": 2301,
      "ደገ": 2302,
      "▁ህግደፍ": 2303,
      "▁በብ": 2304,
      "▁ሓቢ": 2305,
      "▁ሓሙ": 2306,
      "▁ጀር": 2307,
      "▁ኣኽ": 2308,
      "ወል": 2309,
      "▁ሓሳ": 2310,
      "▁\"እቲ": 2311,
      "ካዮ": 2312,
      "re": 2313,
      "▁ክርስትያን": 2314,
      "▁ሓጢኣት": 2315,
      "▁ይኽእል።": 2316,
      "▁ደረጃ": 2317,
      "▁ምናልባት": 2318,
      "ውሎ": 2319,
      "▁ኪዳን": 2320,
      "▁(1": 2321,
      "ህቦ": 2322,
      "▁ይኸውን።": 2323,
      "▁ትግ": 2324,
      "▁ዝር": 2325,
      "▁ለይቲ": 2326,
      "ሩሳሌ": 2327,
      "▁ዋጋ": 2328,
      "▁ዘይት": 2329,
      "▁ኣዚ": 2330,
      "▁ሕማም": 2331,
      "▁ይስ": 2332,
      "ፎም": 2333,
      "▁ዘረባ": 2334,
      "▁ኣባላት": 2335,
      "ጥሮ": 2336,
      "▁ኣካል": 2337,
      "▁ኣለና።": 2338,
      "ቆብ": 2339,
      "ዖም": 2340,
      "ናን።": 2341,
      "▁የልቦን።": 2342,
      "▁ዝፍ": 2343,
      "▁ኣንስ": 2344,
      "ጠር": 2345,
      "ሞት": 2346,
      "ሳን": 2347,
      "ሕል": 2348,
      "▁ደጊም": 2349,
      "ካ፡": 2350,
      "▁ፈር": 2351,
      "ዝር": 2352,
      "ሳሳ": 2353,
      "▁ውሳ": 2354,
      "▁ውግእ": 2355,
      "▁ስነ": 2356,
      "ስዕብ": 2357,
      "▁የለን": 2358,
      "▁ፍሉይ": 2359,
      "የሱስ": 2360,
      "ህይወት": 2361,
      "▁እንተኾ": 2362,
      "አን": 2363,
      "ቡእ": 2364,
      "ምልከት": 2365,
      "ደ።": 2366,
      "▁ዝጸ": 2367,
      "▁ንጽ": 2368,
      "▁መደብ": 2369,
      "▁ገዛእ": 2370,
      "▁ዀይኑ": 2371,
      "▁ምልክ": 2372,
      "ጻር": 2373,
      "ኽን": 2374,
      "ክዎ": 2375,
      "▁ኣሜሪካ": 2376,
      "▁ተዓ": 2377,
      "ድ።": 2378,
      "▁ድምጺ": 2379,
      "▁ዘይብሉ": 2380,
      "▁ኣብርሃ": 2381,
      "▁ልክዕ": 2382,
      "ውዕ": 2383,
      "▁ክገብር": 2384,
      "ድቕ": 2385,
      "ዳት": 2386,
      "ቅስ": 2387,
      "ላጥ": 2388,
      "▁ቃላት": 2389,
      "▁ሰበይ": 2390,
      "▁ዲኻ": 2391,
      "▁ወን": 2392,
      "ዕዞ": 2393,
      "▁ሽዑ፡": 2394,
      "▁ጸል": 2395,
      "▁ኢን": 2396,
      "ዋት": 2397,
      "ሮጳ": 2398,
      "▁ድኣ": 2399,
      "▁ጥቕ": 2400,
      "▁ደም": 2401,
      "▁ሳል": 2402,
      "በሃል": 2403,
      "መት": 2404,
      "▁ጀመ": 2405,
      "▁እንሆ፡": 2406,
      "▁ኣዋ": 2407,
      "ሓድ": 2408,
      "▁ሃይማኖ": 2409,
      "▁ሽሕ": 2410,
      "ላው": 2411,
      "▁ጥዕና": 2412,
      "▁ዓሰርተ": 2413,
      "▁ኢትዮ": 2414,
      "▁ነይሮም።": 2415,
      "▁የብል": 2416,
      "▁ንዓኻ": 2417,
      "▁በጃ": 2418,
      "▁ፍረ": 2419,
      "ድም": 2420,
      "▁ይግባእ": 2421,
      "▁ለውጢ": 2422,
      "ፈልጥን": 2423,
      "ካየ": 2424,
      "▁ሕዝ": 2425,
      "በራ": 2426,
      "ሊፉ": 2427,
      "▁ብዘ": 2428,
      "▁ብዓ": 2429,
      "ጹ።": 2430,
      "ክሮ": 2431,
      "ስነት": 2432,
      "▁ተጋ": 2433,
      "▁ምዃን": 2434,
      "ፍን": 2435,
      "ጹም": 2436,
      "ኣቱ": 2437,
      "ጥቃ": 2438,
      "▁ኣለው": 2439,
      "ቡራት": 2440,
      "ጽሪ": 2441,
      "ግለ": 2442,
      "ኻ።": 2443,
      "▁ጽባሕ": 2444,
      "▁ደር": 2445,
      "ጵያ": 2446,
      "▁ደስ": 2447,
      "▁ልዑ": 2448,
      "ጣዕሚ": 2449,
      "ሳሳሊ": 2450,
      "▁ጽድ": 2451,
      "ዘር": 2452,
      "▁ብዘይካ": 2453,
      "▁ሓደጋ": 2454,
      "▁ፍርዲ": 2455,
      "▁ዮሴፍ": 2456,
      "▁ይፈልጥ": 2457,
      "▁ዝም": 2458,
      "▁መዛሙር": 2459,
      "▁24": 2460,
      "ገን": 2461,
      "ምት": 2462,
      "▁ዝነበር": 2463,
      "▁ጥበብ": 2464,
      "ልየ": 2465,
      "▁እንተዘይ": 2466,
      "▁ናብኡ": 2467,
      "▁ምግባር": 2468,
      "ነቱ": 2469,
      "▁ኲሉ": 2470,
      "ህን": 2471,
      "ድሚ": 2472,
      "ኣምን": 2473,
      "ልቲ": 2474,
      "▁ክፋል": 2475,
      "▁ኣመሪካ": 2476,
      "▁ተመሊ": 2477,
      "ባን": 2478,
      "▁ይሕ": 2479,
      "ቱ፡": 2480,
      "▁ቅኑዕ": 2481,
      "ደር": 2482,
      "ዛረቦ": 2483,
      "▁መሬት": 2484,
      "▁ኹሉ": 2485,
      "▁ምርጫ": 2486,
      "▁መሳ": 2487,
      "▁ሕማቕ": 2488,
      "ሩሳሌም": 2489,
      "▁ዘለና": 2490,
      "▁ኣቐዲ": 2491,
      "▁እዚ፡": 2492,
      "▁ብጣዕሚ": 2493,
      "▁ኣይኪ": 2494,
      "▁ሰማያት": 2495,
      "▁መጸ": 2496,
      "▁ዝበሎ": 2497,
      "▁ዳር": 2498,
      "ሉ፡": 2499,
      "▁መግለ": 2500,
      "▁ክቕ": 2501,
      "ጥረት": 2502,
      "ሕግዘ": 2503,
      "ረኽቡ": 2504,
      "ላቶም": 2505,
      "▁ግድን": 2506,
      "▁ሓን": 2507,
      "▁ጳውሎ": 2508,
      "ጥር": 2509,
      "ዎ፡": 2510,
      "▁ዕድመ": 2511,
      "ኻ፡": 2512,
      "ጐስ": 2513,
      "▁ዘሎና": 2514,
      "ለዉ": 2515,
      "▁ይኹ": 2516,
      "▁ብእኡ": 2517,
      "ዋርያት": 2518,
      "▁ዓበይቲ": 2519,
      "ሸት": 2520,
      "▁እየ\"": 2521,
      "▁መልእኽቲ": 2522,
      "▁ኣይከኣ": 2523,
      "ልተ": 2524,
      "▁እየ፡": 2525,
      "ዓልቲ": 2526,
      "▁እዙይ": 2527,
      "▁ኣይክእልን": 2528,
      "ነግረ": 2529,
      "▁ፍቓድ": 2530,
      "▁እዩ!": 2531,
      "▁200": 2532,
      "ስሳ": 2533,
      "▁25": 2534,
      "ዒት": 2535,
      "ቲያን": 2536,
      "ሎ።": 2537,
      "▁ኣቕ": 2538,
      "▁መጻኢ": 2539,
      "ኢት": 2540,
      "ረፈ": 2541,
      "ሃንስ": 2542,
      "▁ማእከል": 2543,
      "ሮን": 2544,
      "▁ዚብል": 2545,
      "▁ስደ": 2546,
      "▁ንእሽ": 2547,
      "ነትን": 2548,
      "ብዙ": 2549,
      "▁ልብ": 2550,
      "ዓለም": 2551,
      "ሊል": 2552,
      "▁ሰብኣ": 2553,
      "ፈለ": 2554,
      "▁ዚኽእል": 2555,
      "▁ሓዊ": 2556,
      "▁መለሰ": 2557,
      "▁ሕቶታት": 2558,
      "ልያ": 2559,
      "▁ፍልጠት": 2560,
      "▁ስለዝኾነ": 2561,
      "▁ኢኺ": 2562,
      "ቅን": 2563,
      "▁ምሕረት": 2564,
      "ክእል": 2565,
      "ሖም": 2566,
      "▁ዓቕ": 2567,
      "▁ኢትዮጵያ": 2568,
      "▁ንው": 2569,
      "▁ቀደም": 2570,
      "▁30": 2571,
      "ወጽእ": 2572,
      "▁መላእኽቲ": 2573,
      "ኽብ": 2574,
      "▁ኸይ": 2575,
      "ኩን።": 2576,
      "ርቲ": 2577,
      "▁ክመ": 2578,
      "▁ቓል": 2579,
      "ርከብ።": 2580,
      "ነበረ": 2581,
      "▁እንከሎ": 2582,
      "▁ፈሊ": 2583,
      "▁ተጻ": 2584,
      "ኩዎ": 2585,
      "ቃስ": 2586,
      "▁ግበር": 2587,
      "▁ምሳኻ": 2588,
      "▁ወንጌ": 2589,
      "▁ንወ": 2590,
      "▁ገበር": 2591,
      "▁ንጹ": 2592,
      "ዛእ": 2593,
      "ሱ።": 2594,
      "▁ተበ": 2595,
      "ጸም": 2596,
      "▁ብቐ": 2597,
      "ረኽቦ": 2598,
      "ሶት": 2599,
      "▁ወላ": 2600,
      "▁እግ": 2601,
      "▁ኣተ": 2602,
      "ሁድ": 2603,
      "▁ንመን": 2604,
      "ዳያት": 2605,
      "▁ኣርእ": 2606,
      "በ።": 2607,
      "▁ውል": 2608,
      "▁ቀንዲ": 2609,
      "ልጢ": 2610,
      "▁ንዕኡ": 2611,
      "ራም": 2612,
      "ላል": 2613,
      "▁ይግባእ።": 2614,
      "▁ምዝ": 2615,
      "ሙ።": 2616,
      "▁ይፍ": 2617,
      ":2": 2618,
      "▁ውሉ": 2619,
      "፣+": 2620,
      "ብሎም": 2621,
      "ሕን": 2622,
      "ሓስብ": 2623,
      "▁መዓስ": 2624,
      "ዀነ": 2625,
      "▁ክብሪ": 2626,
      "▁ከዓ": 2627,
      "ድሪ": 2628,
      "ሎን": 2629,
      "▁ጀሚሩ": 2630,
      "▁ሰን": 2631,
      "▁ዜና": 2632,
      "▁ፊልም": 2633,
      "▁ህጻ": 2634,
      "▁መሪ": 2635,
      "▁ኣፍሪ": 2636,
      "▁ኣስተ": 2637,
      "▁መዓልታት": 2638,
      "▁ሓው": 2639,
      "ባህ": 2640,
      "ጣሚ": 2641,
      "ጅለ": 2642,
      "ሁዳ": 2643,
      "▁ሕል": 2644,
      "ውስ": 2645,
      "▁ኣዘ": 2646,
      "▁ንእግዚኣብ": 2647,
      "▁ልዑል": 2648,
      "በን": 2649,
      "▁ክንዲ": 2650,
      "▁እዋ": 2651,
      "▁ኸምዚ": 2652,
      "▁ምል": 2653,
      "▁\"ስ": 2654,
      "ድኣ": 2655,
      "ይታይ": 2656,
      "ምካ": 2657,
      "▁ኣለና": 2658,
      "▁ብሓደ": 2659,
      "ውዓተ": 2660,
      "▁ተዛሪ": 2661,
      "▁ተባሂሉ": 2662,
      "ጅምር": 2663,
      "ሪት": 2664,
      "▁ዝቐ": 2665,
      "▁ሓላፍ": 2666,
      "▁ክነ": 2667,
      "▁ንዅሉ": 2668,
      "▁ኢላ": 2669,
      "▁ነይር": 2670,
      "▁መዓልትታት": 2671,
      "▁21": 2672,
      "ዋዕ": 2673,
      "ሱን": 2674,
      "▁ዶ?": 2675,
      "▁ንዘ": 2676,
      "▁ብሕ": 2677,
      "እቆብ": 2678,
      "▁በልዎ።": 2679,
      "::": 2680,
      "▁ዝተወ": 2681,
      "▁\"ኣነ": 2682,
      "ላውያን": 2683,
      "ሃሮ": 2684,
      "▁ወይ፡": 2685,
      "▁ኤው": 2686,
      "▁ገሊኦም": 2687,
      "▁ዚኸውን": 2688,
      "▁ውድብ": 2689,
      "▁ኣእምሮ": 2690,
      "▁ምባል": 2691,
      "ውቲ": 2692,
      "ሓባር": 2693,
      "▁ንኽት": 2694,
      "▁ተን": 2695,
      "▁ብመን": 2696,
      "ርክ": 2697,
      "▁መግለጺ": 2698,
      "▁ጎይታ": 2699,
      "▁ኣዒን": 2700,
      "ወን": 2701,
      "መድ": 2702,
      "▁ወሰ": 2703,
      "▁ኣገባብ": 2704,
      "የ፡": 2705,
      "▁ኣይኰ": 2706,
      "ኻኽ": 2707,
      "▁ኣገል": 2708,
      "▁መከ": 2709,
      "ሰት": 2710,
      "▁ዝኣመሰ": 2711,
      "▁ኣላ።": 2712,
      "ጢር": 2713,
      "ወስድ": 2714,
      "ታሕ": 2715,
      "▁በይ": 2716,
      "ምድ": 2717,
      "▁ማርያም": 2718,
      "ህሉ": 2719,
      "ንና": 2720,
      "▁ዘይኰነ": 2721,
      "ዀኑ": 2722,
      "▁ምሳና": 2723,
      "▁ትብል": 2724,
      "▁ቆልዑ": 2725,
      "▁ዘለኹ": 2726,
      "▁ተመል": 2727,
      "▁ኽሳዕ": 2728,
      "በሪ": 2729,
      "ለኒ": 2730,
      "▁ኣህዛብ": 2731,
      "ይዎ": 2732,
      "▁ዝበዝ": 2733,
      "▁ኣብርሃም": 2734,
      "▁ናተይ": 2735,
      "ኽእልን": 2736,
      "▁\"ካብ": 2737,
      "▁እስከ": 2738,
      "ድዮ": 2739,
      "ክርስት": 2740,
      "ባኤ": 2741,
      "ምነት": 2742,
      "▁ዘተ": 2743,
      "▁ምኻ": 2744,
      "ሊዝ": 2745,
      "▁ኣለዋ።": 2746,
      "ሳእ": 2747,
      "▁22": 2748,
      "▁ዝኾ": 2749,
      "▁ኮነ": 2750,
      "▁ከመይሲ፡": 2751,
      "▁ንዓና": 2752,
      "ዛረቡ": 2753,
      "▁ዝደሊ": 2754,
      "▁ማሕበ": 2755,
      "ኩሉ": 2756,
      "ሰያት": 2757,
      "▁እምብ": 2758,
      "ኡ።": 2759,
      "▁ኣላ": 2760,
      "▁ትርጉም": 2761,
      "▁ሓሙሽተ": 2762,
      "▁ጳውሎስ": 2763,
      "▁\"ነ": 2764,
      "ስራ": 2765,
      "▁ከምዘለ": 2766,
      "▁ነጻ": 2767,
      "ትኻ": 2768,
      "▁እዚኣቶም": 2769,
      "▁እኮ": 2770,
      "▁ንጥ": 2771,
      "▁ዘለዋ": 2772,
      "▁ነይሮም": 2773,
      "ወር": 2774,
      "ምበር": 2775,
      "▁ትማ": 2776,
      "▁ቀጺ": 2777,
      "▁ነይረ": 2778,
      "ኪና": 2779,
      "▁ክፉእ": 2780,
      "▁ሞይ": 2781,
      "ሕና": 2782,
      "▁ፕሮ": 2783,
      "ልድ": 2784,
      "▁ብቕ": 2785,
      "ረም": 2786,
      "ካይ": 2787,
      "ር።": 2788,
      "▁እንስሳ": 2789,
      "▁ኣፍሪቃ": 2790,
      "▁ኣቢሉ": 2791,
      "▁ምሸት": 2792,
      "▁ዝመጽእ": 2793,
      "▁መሲ": 2794,
      "▁ሓቀ": 2795,
      "ቦም።": 2796,
      "▁ክርስትያ": 2797,
      "▁ዝገብር": 2798,
      "▁ዕዳ": 2799,
      "ጽኣ": 2800,
      "ራህ": 2801,
      "ልው": 2802,
      "▁ሕብረት": 2803,
      "ዓለ": 2804,
      "▁ተደ": 2805,
      "▁በረ": 2806,
      "▁ላዕሊ": 2807,
      "▁ድኻ": 2808,
      "▁በጺ": 2809,
      "ኻልኦት": 2810,
      "ለድ": 2811,
      "ደቂ": 2812,
      "ዑ።": 2813,
      "▁ዝስ": 2814,
      "▁ትም": 2815,
      "▁ምዕራ": 2816,
      "▁መሓ": 2817,
      "ጠመ": 2818,
      "▁ዝኾኑ": 2819,
      "▁ኣጋጣሚ": 2820,
      "▁ኣሎኹ።": 2821,
      "▁ዝበሃል": 2822,
      "▁ወጺ": 2823,
      "▁ገይረ": 2824,
      "▁ዝው": 2825,
      "▁ሕቡራት": 2826,
      "የት": 2827,
      "ዕን": 2828,
      "ቦት": 2829,
      "▁ዝደለ": 2830,
      "▁ኣብነት": 2831,
      "▁ምቕ": 2832,
      "ብሪ": 2833,
      "▁ጉዕዞ": 2834,
      "▁ሰም": 2835,
      "▁ኰነ": 2836,
      "ዋርያ": 2837,
      "▁ኤውሮጳ": 2838,
      "▁ምስጋ": 2839,
      "ዓዝ": 2840,
      "ህዝቢ": 2841,
      "▁ድን": 2842,
      "▁ሸውዓተ": 2843,
      "▁መግቢ": 2844,
      "▁ዝርከብ": 2845,
      "▁ኣብ'ዚ": 2846,
      "▁ትግራይ": 2847,
      "▁ንሓድሕ": 2848,
      "ጸል": 2849,
      "ደንት": 2850,
      "▁ፈርኦን": 2851,
      "ሑ።": 2852,
      "▁ክንድ": 2853,
      "▁ፍጹም": 2854,
      "▁ዝኽ": 2855,
      "▁ነጥ": 2856,
      "ኤላውያን": 2857,
      "ምግባር": 2858,
      "▁ከምዘይ": 2859,
      "▁ንድ": 2860,
      "▁ኔሩ።": 2861,
      "ቢይ": 2862,
      "2)": 2863,
      "▁ዝገበር": 2864,
      "▁ተቓ": 2865,
      "▁ገነት": 2866,
      "▁ዝመስ": 2867,
      "▁ሂወት": 2868,
      "ሮት": 2869,
      "20": 2870,
      "▁ይመ": 2871,
      "▁ብሉ": 2872,
      "▁ይጽ": 2873,
      "▁ተመሳሳሊ": 2874,
      "ታቱ": 2875,
      "▁ኣጸቢ": 2876,
      "▁ሰራዊት": 2877,
      "ጥን": 2878,
      "ክራ": 2879,
      "ላኢ": 2880,
      "▁ክሕ": 2881,
      "▁እየን": 2882,
      "▁ኣምላኽ፡": 2883,
      "▁መብዛሕትኡ": 2884,
      "▁የሩሳሌም": 2885,
      "▁እየ፣": 2886,
      "▁ኣብኣ": 2887,
      "▁ኣሕዋት": 2888,
      "▁ንቕ": 2889,
      "▁መንእሰይ": 2890,
      "▁\"እን": 2891,
      "ምሉእ": 2892,
      "▁ናትካ": 2893,
      "▁ሰዓታት": 2894,
      "▁ፈሪ": 2895,
      "መሉ": 2896,
      "▁ፖሊ": 2897,
      "▁ብዝተ": 2898,
      "ፍል": 2899,
      "ጠቕ": 2900,
      "የይ": 2901,
      "▁ወለዶ": 2902,
      "ቀት": 2903,
      "ልኻ": 2904,
      "▁ፍጻ": 2905,
      "▁ብሩ": 2906,
      "▁ጉባኤ": 2907,
      "▁ይቕረ": 2908,
      "▁እንግ": 2909,
      "▁መስዋ": 2910,
      "▁ጸብ": 2911,
      "▁ኣለዎም።": 2912,
      "▁ሃገራዊ": 2913,
      "ኹ፡": 2914,
      "ታው": 2915,
      "ርነት": 2916,
      "▁ወንጌል": 2917,
      "▁እነ": 2918,
      "▁ቀልጢ": 2919,
      "▁መጽና": 2920,
      "ድሕን": 2921,
      "▁የድልየ": 2922,
      "▁ክርስቲያን": 2923,
      "▁ኢዮም።": 2924,
      "▁ክእ": 2925,
      "▁ጸገ": 2926,
      "▁ነይራ።": 2927,
      "▁መልኣኽ": 2928,
      "ዓይ": 2929,
      "▁ጻዕ": 2930,
      "▁ደቅ": 2931,
      "ኑን": 2932,
      "ተኛ": 2933,
      "ስካ": 2934,
      "▁ዝገበረ": 2935,
      "ክርስትያን": 2936,
      "ልዮ": 2937,
      "ለ።": 2938,
      "▁ንእሽቶ": 2939,
      "▁የብለይ": 2940,
      "▁ኣይሁድ": 2941,
      "ጠፍእ": 2942,
      "ማም": 2943,
      "▁ዝረኣ": 2944,
      "▁ኣሰ": 2945,
      "▁ብድሕሪ": 2946,
      "▁ብሰ": 2947,
      "▁(ዘ": 2948,
      "ታል": 2949,
      "▁ውጽ": 2950,
      "▁ተግባ": 2951,
      "ዘራ": 2952,
      "▁ገበረ": 2953,
      "▁እወ፡": 2954,
      "▁ተጸ": 2955,
      "▁ባርያ": 2956,
      "▁ምዉ": 2957,
      "▁ኣባል": 2958,
      "▁ንነፍ": 2959,
      "▁መሰረት": 2960,
      "ደና": 2961,
      "ዱ፡": 2962,
      "ኦል": 2963,
      "ቱዕ": 2964,
      "ምፍ": 2965,
      "▁ከይተ": 2966,
      "▁መቕደስ": 2967,
      "እት": 2968,
      "ሓዊ": 2969,
      "ዕድ": 2970,
      "ሽን": 2971,
      "ሰምዑ": 2972,
      "▁ጽን": 2973,
      "▁ትማሊ": 2974,
      "ፈሻ": 2975,
      "ኩ፡": 2976,
      "ስምዓ": 2977,
      "▁ኣእዳ": 2978,
      "▁ምስክር": 2979,
      "ካየድ": 2980,
      "▁ጥዑ": 2981,
      "▁ዜጋ": 2982,
      "ብሩ": 2983,
      "ብላ": 2984,
      "ልፊ": 2985,
      "▁ደሊ": 2986,
      "▁ዓር": 2987,
      "▁ከምኡ'ውን": 2988,
      "▁ንግሆ": 2989,
      "▁ርእሲ": 2990,
      "▁ርኢ": 2991,
      "ብ።": 2992,
      "ለይ።": 2993,
      "ለካ": 2994,
      "ልዩ": 2995,
      "▁ኣቱም": 2996,
      "▁ሓሶት": 2997,
      "ሃቦ": 2998,
      "▁ያእቆብ": 2999,
      "▁ሰራሕ": 3000,
      "ብካ": 3001,
      "ቡቅ": 3002,
      "▁ጽድቂ": 3003,
      "▁ይግ": 3004,
      "▁ስእ": 3005,
      "▁ሓተ": 3006,
      "ርእዩ": 3007,
      "▁ግናኸ፡": 3008,
      "▁ተሳ": 3009,
      "▁ሓላፍነት": 3010,
      "ጐይታ": 3011,
      "▁ኢያ": 3012,
      "▁ማሕበር": 3013,
      "▁26": 3014,
      "ስ።": 3015,
      "▁ሰብ፡": 3016,
      "▁ምኽሪ": 3017,
      "'ሞ": 3018,
      "▁ትኽእሉ": 3019,
      "▁ከአ": 3020,
      "▁ከብ": 3021,
      "▁እብለ": 3022,
      "ቀል": 3023,
      "እይ": 3024,
      "▁ይሁዳ": 3025,
      "ዝያዳ": 3026,
      "ብረተ": 3027,
      "ሰንኪ": 3028,
      "ሰድ": 3029,
      "▁ፖለቲካዊ": 3030,
      "ዎስ": 3031,
      "▁ዝዓበየ": 3032,
      "▁ዝሕ": 3033,
      "▁ኣይመስ": 3034,
      "▁መንእሰያት": 3035,
      "ጋሚ": 3036,
      "▁ዝገበሮ": 3037,
      "▁ብኽ": 3038,
      "▁ኣይፈ": 3039,
      "ግርኛ": 3040,
      "በዝ": 3041,
      "▁ፍቅ": 3042,
      "▁ንኹ": 3043,
      "ጽም": 3044,
      "▁ደቡ": 3045,
      "▁ፕረ": 3046,
      "▁ጸላእ": 3047,
      "▁ዝበለጸ": 3048,
      "▁ርእይቶ": 3049,
      "▁ሚኒ": 3050,
      "ዳስ": 3051,
      "▁ይብለ": 3052,
      "▁ዝቕ": 3053,
      "▁ኣወ": 3054,
      "▁ንኣብነት": 3055,
      "▁ትኸውን": 3056,
      "ጠራ": 3057,
      "ን\"": 3058,
      "'የ።": 3059,
      "▁ቀሊል": 3060,
      "ሰላም": 3061,
      "▁እናተ": 3062,
      "▁እፈልጥ": 3063,
      "ምዕ": 3064,
      "▁ኣይም": 3065,
      "▁ኣደይ": 3066,
      "▁ቅድሜ": 3067,
      "ጽነት": 3068,
      "ሳኤ": 3069,
      "▁ኮይኖም": 3070,
      "ጥሮስ": 3071,
      "ኹም፡": 3072,
      "▁ኣምላኽና": 3073,
      "ዲኡ": 3074,
      "ለወ": 3075,
      "▁ጸሓይ": 3076,
      "▁ዘርኢ": 3077,
      "▁ብናይ": 3078,
      "▁ብው": 3079,
      "▁በሉ።": 3080,
      "▁መስርሕ": 3081,
      "▁[.": 3082,
      "▁ውሑ": 3083,
      "▁ልበይ": 3084,
      "የሆዋ": 3085,
      "ሃት": 3086,
      "▁የሎ": 3087,
      "▁ኩልና": 3088,
      "ጽር": 3089,
      "ያትን": 3090,
      "▁ዓው": 3091,
      "▁ክኸ": 3092,
      "▁ክቡር": 3093,
      "ጎስ": 3094,
      "▁ንን": 3095,
      "▁መከራ": 3096,
      "ደገና": 3097,
      "▁ጽሕ": 3098,
      "▁እዮም፣": 3099,
      "ዓቢ": 3100,
      "ተሓሳስ": 3101,
      "▁ከቶ": 3102,
      "▁ኣንስትዮ": 3103,
      "▁ሰነ": 3104,
      "▁ዘር": 3105,
      "▁ኦም": 3106,
      "▁ቀሪ": 3107,
      "ተወሳኺ": 3108,
      "▁ከምዘሎ": 3109,
      "▁ምልክት": 3110,
      "▁ልም": 3111,
      "ሰነ": 3112,
      "ሓይሽ": 3113,
      "ሓትት": 3114,
      "ለና": 3115,
      "▁ይሓ": 3116,
      "▁በሉ": 3117,
      "ዛረበ": 3118,
      "▁እንድ": 3119,
      "▁28": 3120,
      "ኒት": 3121,
      "ራቕ": 3122,
      "ሞክራ": 3123,
      "▁ግን፡": 3124,
      "▁ዛንታ": 3125,
      "▁ከሎ፡": 3126,
      "▁ተግባር": 3127,
      "▁ተሪ": 3128,
      "▁በሎም": 3129,
      "ኻኽር": 3130,
      "በልዕ": 3131,
      "ረሉ": 3132,
      "▁ጥን": 3133,
      "▁ዀነ": 3134,
      "▁ማሕበራዊ": 3135,
      "▁መበል": 3136,
      "▁መረ": 3137,
      "▁(ማ": 3138,
      "ፈስ": 3139,
      "ገርም": 3140,
      "▁ገዲ": 3141,
      "▁ዓባይ": 3142,
      "▁ምድርን": 3143,
      "▁መዝሙር": 3144,
      "አ።": 3145,
      "ሜን": 3146,
      "▁ግዝ": 3147,
      "የን": 3148,
      "▁ግደ": 3149,
      "▁ክወ": 3150,
      "▁ክስ": 3151,
      "▁እኩ": 3152,
      "▁ኸዓ": 3153,
      "▁ሕያ": 3154,
      "ህናት": 3155,
      "▁ኣዳ": 3156,
      "▁ኢሉ።": 3157,
      "▁ንጸ": 3158,
      "▁ብጸ": 3159,
      "▁ስደተኛታት": 3160,
      "▁መንፈሳዊ": 3161,
      "▁መራሕ": 3162,
      "ዕር": 3163,
      "▁ጽሑፋት": 3164,
      "▁ተነ": 3165,
      "▁ሕዝቢ": 3166,
      "▁ሕብረተ": 3167,
      "ያብሎ": 3168,
      "ህልወ": 3169,
      "▁ሓጥ": 3170,
      "ቃን": 3171,
      "▁ፍጥረት": 3172,
      "▁ኣነን": 3173,
      "▁ትካ": 3174,
      "▁ዝደ": 3175,
      "▁ርግ": 3176,
      "ጥታ": 3177,
      "▁ይከኣል": 3178,
      "▁ዘጋ": 3179,
      "▁ተወሳኺ": 3180,
      "▁ሰሪ": 3181,
      "\"።": 3182,
      "▁እንጌ": 3183,
      "▁ሃይማኖት": 3184,
      "ገለ": 3185,
      "▁ሒዝ": 3186,
      "ወታ": 3187,
      "ዃኑ": 3188,
      "▁ይኸ": 3189,
      "▁ክልቲኦም": 3190,
      "ኹል": 3191,
      "ታትና": 3192,
      "ታም": 3193,
      "▁ትጽ": 3194,
      "▁እንደገና": 3195,
      "ክእ": 3196,
      "▁ኮን": 3197,
      "▁ንኽእል": 3198,
      "▁ነዞም": 3199,
      "▁ረኸ": 3200,
      "▁ሓጺ": 3201,
      "ፍቕ": 3202,
      "ክክ": 3203,
      "▁ርሑ": 3204,
      "▁መዓልታዊ": 3205,
      "19": 3206,
      "ሰርሑ": 3207,
      "▁መበ": 3208,
      "▁ክንከውን": 3209,
      "▁እዘን": 3210,
      "▁ሓራ": 3211,
      "ቓይ": 3212,
      "ቓል": 3213,
      "▁ፍትሒ": 3214,
      "▁የድሊ": 3215,
      "▁ዞባ": 3216,
      "▁ኢዮም": 3217,
      "▁ትዕ": 3218,
      "▁ክህሉ": 3219,
      "▁ሕልሚ": 3220,
      "ጽሑ": 3221,
      "ጻብ": 3222,
      "ታተ": 3223,
      "በሎ": 3224,
      "▁ዝኸፍ": 3225,
      "▁ዝኣመሰለ": 3226,
      "▁ዝሓዘ": 3227,
      "▁ክው": 3228,
      "▁እናበለ": 3229,
      "▁ኣሎና": 3230,
      "▁መጽናዕቲ": 3231,
      "▁መቐ": 3232,
      "ርኩም": 3233,
      "ልዋ": 3234,
      "▁ሰባት፡": 3235,
      "ዛት": 3236,
      "ኣክል": 3237,
      "▁ዝመጸ": 3238,
      "ኽእሉ።": 3239,
      "ቦ።": 3240,
      "▁ጸልማት": 3241,
      "▁ድሮ": 3242,
      "▁ይው": 3243,
      "▁መገ": 3244,
      "ደልዮ": 3245,
      "▁ኣለው።": 3246,
      "▁ንክ": 3247,
      "▁ሓያል": 3248,
      "ፋስ": 3249,
      "ሞ።": 3250,
      "'ዮም": 3251,
      "▁ዝነበሮ": 3252,
      "▁ንህዝ": 3253,
      "▁ናትና": 3254,
      "▁በለት": 3255,
      "▁ሓሳባት": 3256,
      "ፈቱ": 3257,
      "▁እንተኾይኑ": 3258,
      "▁ቤቱ": 3259,
      "ግስቲ": 3260,
      "ዕለ": 3261,
      "▁ዝተፈ": 3262,
      "▁ሳልሳይ": 3263,
      "ኻልእ": 3264,
      "ኣነ": 3265,
      "ታትካ": 3266,
      "በበ": 3267,
      "▁ዂሉ": 3268,
      "▁ምግቢ": 3269,
      "ድልዮ": 3270,
      "መና": 3271,
      "▁ጉጅለ": 3272,
      "▁ኣቲ": 3273,
      "▁ብኸም": 3274,
      "ጣሪ": 3275,
      "ጀመ": 3276,
      "ዶ?": 3277,
      "ይኖም": 3278,
      "ላንድ": 3279,
      "▁ድሕሪኡ": 3280,
      "'ኳ": 3281,
      "▁ዮሃንስ": 3282,
      "▁ናቱ": 3283,
      "ያብሎስ": 3284,
      "ቕቲ": 3285,
      "▁ኣስታት": 3286,
      "▁ንዘለኣለም": 3287,
      "▁መጻሕ": 3288,
      "ገበር": 3289,
      "▁ክነብር": 3290,
      "▁ትብል።": 3291,
      "▁ቻይና": 3292,
      "▁ባይቶ": 3293,
      "ንያ": 3294,
      "▁ዓወት": 3295,
      "▁ቆልዓ": 3296,
      "▁ስብ": 3297,
      "ዝን": 3298,
      "ተይን": 3299,
      "ልዮን": 3300,
      "ሃደ": 3301,
      "▁ኸአ": 3302,
      "▁ኸሎ": 3303,
      "▁ኮይና": 3304,
      "▁እሙን": 3305,
      "▁ብድ": 3306,
      "▁ብኡ": 3307,
      "ፍካ": 3308,
      "▁ዝነብር": 3309,
      "▁ዝብሉ": 3310,
      "▁ኾይኑ": 3311,
      "▁እኹል": 3312,
      "▁ብርቱዕ": 3313,
      "▁መገድ": 3314,
      "ጽ።": 3315,
      "ዓን": 3316,
      "▁ዝበል": 3317,
      "▁ዘይም": 3318,
      "▁ትደሊ": 3319,
      "ጻሊ": 3320,
      "ጥረ": 3321,
      "ንጻ": 3322,
      "ደልን": 3323,
      "መይቲ": 3324,
      "ልይ": 3325,
      "▁ጸላኢ": 3326,
      "▁ህዝበይ": 3327,
      "▁መሰኻኽር": 3328,
      "▁መኣ": 3329,
      "▁ዕረ": 3330,
      "▁ከምዘ": 3331,
      "▁ናበይ": 3332,
      "▁ብወ": 3333,
      "▁ማእሰር": 3334,
      "▁መራ": 3335,
      "፡2": 3336,
      "▁ዓ.": 3337,
      "መጥ": 3338,
      "▁ፈረን": 3339,
      "▁ትሕዝ": 3340,
      "ጡ።": 3341,
      "▁ጌርና": 3342,
      "▁ኣንጻር": 3343,
      "▁መንበሪ": 3344,
      "▁መሰረ": 3345,
      "▁መጀመርያ": 3346,
      "▁ሓቲ": 3347,
      "ንቱ": 3348,
      "▁ኮፍ": 3349,
      "000": 3350,
      "▁ጸሎ": 3351,
      "▁ኣንስቲ": 3352,
      "▁ምስቶም": 3353,
      "▁ሒደት": 3354,
      "ግን": 3355,
      "ርእየ": 3356,
      "▁ዝሓሸ": 3357,
      "▁ከምኡውን": 3358,
      "▁ኣዋር": 3359,
      "▁ንኣብነት፡": 3360,
      "▁ቁሩብ": 3361,
      "ጋዊ": 3362,
      "ደሉ": 3363,
      "ረና": 3364,
      "▁ፈለማ": 3365,
      "▁ሽወ": 3366,
      "▁'ን": 3367,
      "ጾም": 3368,
      "ግብኣ": 3369,
      "ግና": 3370,
      "በጽሕ": 3371,
      "በሮም": 3372,
      "ሰምዓ": 3373,
      "▁ድሕር": 3374,
      "▁ክብሉ": 3375,
      "ርከቡ": 3376,
      "▁ጽቡቅ": 3377,
      "▁ዝግበር": 3378,
      "▁ዘፍ": 3379,
      "▁ውሳነ": 3380,
      "▁ንዅሎም": 3381,
      "እያ": 3382,
      "መውት": 3383,
      "ኖስ": 3384,
      "ራትን": 3385,
      "▁ደብ": 3386,
      "▁በረኸ": 3387,
      "▁(ዮ": 3388,
      "ገስ": 3389,
      "ሌት": 3390,
      "▁ንኸ": 3391,
      "▁መና": 3392,
      "▁ሓዳር": 3393,
      "ኹምን": 3394,
      "ሞቱ": 3395,
      "▁ገይሮም": 3396,
      "▁ኻል": 3397,
      "▁ትካል": 3398,
      "▁ረሲ": 3399,
      "▁መኪና": 3400,
      "▁ጥር": 3401,
      "▁ይብሉ": 3402,
      "▁ኣማል": 3403,
      "▁ትንሳኤ": 3404,
      "▁ትግርኛ": 3405,
      "ea": 3406,
      "▁ክሓ": 3407,
      "▁ኣይፈልጥን": 3408,
      "▁ትፈልጥ": 3409,
      "▁ተም": 3410,
      "▁ስፍ": 3411,
      "በና": 3412,
      "ላዉ": 3413,
      "▁ከማ": 3414,
      "▁ምስጋና": 3415,
      "መሰረት": 3416,
      "▁ዝግ": 3417,
      "▁ዝረኸ": 3418,
      "▁ሞተ": 3419,
      "▁መንግስ": 3420,
      "▁መርዓ": 3421,
      "ገልጸ": 3422,
      "ዩ፡": 3423,
      "መዝ": 3424,
      "▁ነበረት።": 3425,
      "▁ህዝብታት": 3426,
      "ክምና": 3427,
      "ሩን": 3428,
      "▁ንበይ": 3429,
      "▁ትእዛዝ": 3430,
      "▁ባን": 3431,
      "ሙሴ": 3432,
      "▁ስቕ": 3433,
      "▁ሰብኣዊ": 3434,
      "▁ሓጢ": 3435,
      "ፈልጡን": 3436,
      "ጋጥም": 3437,
      "ኣል": 3438,
      "▁ሽግር": 3439,
      "▁ምምሕ": 3440,
      "▁ህያው": 3441,
      "▁\"ንስ": 3442,
      "ጽኡ": 3443,
      "ላሽ": 3444,
      "ህል": 3445,
      "'ያ": 3446,
      "▁ምንም": 3447,
      "▁መሊሱ": 3448,
      "ኣምኑ": 3449,
      "▁ይርከብ።": 3450,
      "▁ዝተፈላለዩ": 3451,
      "▁ብዕ": 3452,
      "ሰምዖ": 3453,
      "▁ዘለኻ": 3454,
      "▁ኽልተ": 3455,
      "▁ብስም": 3456,
      "▁ሰንበት": 3457,
      "▁ምንባር": 3458,
      "ቕር": 3459,
      "ረበ": 3460,
      "ሙናት": 3461,
      "ዚደንት": 3462,
      "▁ደቡብ": 3463,
      "▁መምህር": 3464,
      "መልክ": 3465,
      "ለይቲ": 3466,
      "▁ዕን": 3467,
      "▁ክንገብር": 3468,
      "▁ክርስትያናት": 3469,
      "▁መጺኡ": 3470,
      "▁መስከ": 3471,
      "▁መዳይ": 3472,
      "ለማዊ": 3473,
      "▁ጴጥሮስ": 3474,
      "▁እንግሊዝ": 3475,
      "▁እንጌራ": 3476,
      "▁ኔሩ": 3477,
      "▁እስራኤላውያን": 3478,
      "▁ሃዋርያት": 3479,
      "ይነ": 3480,
      "▁ፈተና": 3481,
      "▁ይደሊ": 3482,
      "▁ዘለው": 3483,
      "▁ዘይን": 3484,
      "▁ፍቅሪ": 3485,
      "▁ዝምልከት": 3486,
      "▁ንሰባት": 3487,
      "▁ሓቀኛ": 3488,
      "ቴዎስ": 3489,
      "▁ይወ": 3490,
      "▁ዝነበረት": 3491,
      "▁ኣዋርሕ": 3492,
      "▁ንፈልጥ": 3493,
      "▁ዝፈልጦ": 3494,
      "▁ዚርከብ": 3495,
      "▁ዕለ": 3496,
      "▁ኪቕ": 3497,
      "▁27": 3498,
      "ግዚአብሔር": 3499,
      "'ዶ?": 3500,
      "▁የብሎም": 3501,
      "▁ኣብያ": 3502,
      "ጊዕ": 3503,
      "▁ጋዜ": 3504,
      "▁ዝገብሮ": 3505,
      "▁ንተ": 3506,
      "ጸመ": 3507,
      "▁ኣጽ": 3508,
      "ፈላለየ": 3509,
      "ከይድ": 3510,
      "▁ኣጋጢ": 3511,
      "▁መዛሙርቱ": 3512,
      "▁መስዋእቲ": 3513,
      "▁መጻ": 3514,
      "ዘዝ": 3515,
      "▁ዳሕ": 3516,
      "▁ዝተፈላለየ": 3517,
      "▁ኣዳም": 3518,
      "▁ንል": 3519,
      "▁ናባይ": 3520,
      "▁ሓጐስ": 3521,
      "▁ህዝባዊ": 3522,
      "▁ኣይኮንኩ": 3523,
      "▁ናጽነት": 3524,
      "▁ነጊ": 3525,
      "▁ስጉ": 3526,
      "ኳን": 3527,
      "ለኒ።": 3528,
      ":3": 3529,
      "▁ጠፊ": 3530,
      "▁ኤል": 3531,
      "▁ቦታታት": 3532,
      "▁ማን": 3533,
      "ፍለጥ": 3534,
      "en": 3535,
      "▁የሎን።": 3536,
      "▁ዝረ": 3537,
      "▁ዓንቀ": 3538,
      "▁ወድ": 3539,
      "▁ክዛረብ": 3540,
      "ታዊት": 3541,
      "▁ወደ": 3542,
      "▁ብኢ": 3543,
      "ርዎ": 3544,
      "ሕግዝ": 3545,
      "ig": 3546,
      "▁ክህልወ": 3547,
      "▁ተለ": 3548,
      "▁ጀመረ።": 3549,
      "▁ዝድ": 3550,
      "▁ምዕራፍ": 3551,
      "ውነት": 3552,
      "ንስትዮ": 3553,
      "ርሒ": 3554,
      "4)": 3555,
      "▁ጥቓ": 3556,
      "▁ንእግዚኣብሔር": 3557,
      "▁ቀይ": 3558,
      "▁ማዕረ": 3559,
      "አት": 3560,
      "ረኒ": 3561,
      "▁ውላ": 3562,
      "▁ኲናት": 3563,
      "▁ተማሂ": 3564,
      "ዉ።": 3565,
      "ወከፍ": 3566,
      "ሮ።": 3567,
      "ርሲ": 3568,
      "▁ፍርቂ": 3569,
      "▁ይነብር": 3570,
      "▁ምንቅስ": 3571,
      "▁ሙሉእ": 3572,
      "▁ወያ": 3573,
      "▁ኢድካ": 3574,
      "▁ምሳኻትኩም": 3575,
      "ፎን": 3576,
      "ደልየ": 3577,
      "ዋም": 3578,
      "ነቶም": 3579,
      "-1": 3580,
      "▁ተኻ": 3581,
      "፡1": 3582,
      "ሓዝ": 3583,
      "▁ፈጺሙ": 3584,
      "▁ጸዊ": 3585,
      "▁ኣቦኡ": 3586,
      "ዱሽተ": 3587,
      "ማር": 3588,
      "▁ክታ": 3589,
      "▁ረአ": 3590,
      "▁መጋ": 3591,
      "▁ኣባይ": 3592,
      "▁ነቦ": 3593,
      "▁ሰልፊ": 3594,
      "▁ርእስኻ": 3595,
      "ግብኦ": 3596,
      "ገብር።": 3597,
      "በካ": 3598,
      "ርድኦ": 3599,
      "▁ጸገማት": 3600,
      "▁ኣብ'ቲ": 3601,
      "▁ንጉ": 3602,
      "▁ትሕዝቶ": 3603,
      "▁ሰሎ": 3604,
      "ጥም": 3605,
      "ባእ": 3606,
      "▁ይብል": 3607,
      "▁ውሕ": 3608,
      "▁ኢሎም።": 3609,
      "ድኩም": 3610,
      "ዑ፡": 3611,
      "▁ጸኒሑ": 3612,
      "▁ከተማታት": 3613,
      "▁ተዋሂ": 3614,
      "▁ቤተክርስትያን": 3615,
      "▁ሕክምና": 3616,
      "ፈልየ": 3617,
      "▁ብጹ": 3618,
      "ወሓት": 3619,
      "ሰ።": 3620,
      "ሒፉ": 3621,
      "▁ኣለኻ": 3622,
      "▁ተዳ": 3623,
      "ኻዊ": 3624,
      "ብዎ": 3625,
      "▁ዘለና።": 3626,
      "▁እንት": 3627,
      "▁ሾብ": 3628,
      "▁'ውን": 3629,
      "ብዙሕ": 3630,
      "▁ክኢ": 3631,
      "▁ንምር": 3632,
      "ከል": 3633,
      "▁ክንብል": 3634,
      "▁በረኻ": 3635,
      "▁ምዕባ": 3636,
      "▁የማ": 3637,
      "▁ዕዳጋ": 3638,
      "▁32": 3639,
      "ሩ፡": 3640,
      "▁ይኹን": 3641,
      "▁ኮይን": 3642,
      "▁ማእሰርቲ": 3643,
      "▁እብለኩም": 3644,
      "▁ራእይ": 3645,
      "ዱስ": 3646,
      "ትሪ": 3647,
      "ቆም": 3648,
      "▁ዳግ": 3649,
      "▁ኪዀኑ": 3650,
      "▁ኣብያተ": 3651,
      "▁ትፈልጡ": 3652,
      "▁ትሕ": 3653,
      "▁መስተ": 3654,
      "ዛረብ።": 3655,
      "ክርስቶስ": 3656,
      "▁ክድ": 3657,
      "▁ካብ'ቲ": 3658,
      "▁ኢንተር": 3659,
      "▁ንኣይ": 3660,
      "▁ሙዚ": 3661,
      "ጸንሕ": 3662,
      "ዕብ": 3663,
      "ውዓ": 3664,
      "ሰል": 3665,
      "▁ክተ": 3666,
      "▁ቪድዮ": 3667,
      "▁ምዃኖም": 3668,
      "ምልኾ": 3669,
      "▁ዝስዕብ": 3670,
      "▁ካባይ": 3671,
      "▁እንኽእል": 3672,
      "▁ስምዒት": 3673,
      "ሳተ": 3674,
      "ራውያን": 3675,
      "▁እምበኣር፡": 3676,
      "▁ኣማልኽቲ": 3677,
      "▁ናብራ": 3678,
      "▁ቐዳ": 3679,
      "▁መድረኽ": 3680,
      "ምለሱ": 3681,
      "ሉን።": 3682,
      "▁ጉድ": 3683,
      "▁ዝተዋ": 3684,
      "▁ኮም": 3685,
      "▁ክኣ": 3686,
      "▁ኣይክት": 3687,
      "▁ኣረጋ": 3688,
      "▁ቅዱስ፡": 3689,
      "፡-": 3690,
      "ጠረ": 3691,
      "ሩኽ": 3692,
      "ቡን": 3693,
      "▁ንዚ": 3694,
      "ፈልጥን።": 3695,
      "▁ደሓን": 3696,
      "▁ተቐቢ": 3697,
      "▁40": 3698,
      "ከር": 3699,
      "ብቲ": 3700,
      "ባ።": 3701,
      "▁ዉን": 3702,
      "▁ክመጽእ": 3703,
      "▁ብዓል": 3704,
      "ደኣ": 3705,
      "ኒቨ": 3706,
      "ነን": 3707,
      "▁ዚመጽእ": 3708,
      "▁እናበሉ": 3709,
      "▁ኣይመስለን": 3710,
      "▁ሚልዮን": 3711,
      "▁መፍት": 3712,
      "ልጡ": 3713,
      "▁ፍልስ": 3714,
      "▁ውልቀ": 3715,
      "▁እሱ": 3716,
      "▁ኣፈ": 3717,
      "▁ኢሳ": 3718,
      "ፍና": 3719,
      "ምሕ": 3720,
      "▁ንናይ": 3721,
      "ገልግል": 3722,
      "▁ጐይታይ": 3723,
      "▁ግብር": 3724,
      "▁ኣርእስቲ": 3725,
      "▁በደ": 3726,
      "▁በሊ": 3727,
      "▁ሾብዓተ": 3728,
      "▁ሰሜን": 3729,
      "▁ማር": 3730,
      "▁ሕብረተሰብ": 3731,
      "▁ሓሊፉ": 3732,
      "ኩን": 3733,
      "ነዊሕ": 3734,
      "▁ዝሰማዕ": 3735,
      "▁እዋን፡": 3736,
      "▁ተገሊ": 3737,
      "▁199": 3738,
      "▁ዓሻ": 3739,
      "▁ነበሩ": 3740,
      "▁ሰማይን": 3741,
      "▁ምርኣይ": 3742,
      "▁ሓጺር": 3743,
      "▁ሒዙ": 3744,
      "▁ኣለካ።": 3745,
      "▁ትንቢት": 3746,
      "▁ብእምነት": 3747,
      "▁መምር": 3748,
      "▁ህ.": 3749,
      "ውር": 3750,
      "ቃል": 3751,
      "▁ተጠን": 3752,
      "▁ቅድም": 3753,
      "▁መብዛሕትኦም": 3754,
      "▁31": 3755,
      "ጥቀም": 3756,
      "ኣኸ": 3757,
      "▁ጻድ": 3758,
      "▁ዝበሉ": 3759,
      "▁ስእሊ": 3760,
      "▁ምስጢር": 3761,
      "ብሓ": 3762,
      "ርም": 3763,
      "on": 3764,
      "'ምበር": 3765,
      "▁ግምት": 3766,
      "▁ዝብሎ": 3767,
      "▁ክግ": 3768,
      "▁ኣረኣ": 3769,
      "▁ተራእ": 3770,
      "▁ህዝብና": 3771,
      "▁ደቁ": 3772,
      "▁ኣቶ": 3773,
      "▁ንኺ": 3774,
      "▁29": 3775,
      "ገበረ": 3776,
      "ኾም": 3777,
      "ንዳ": 3778,
      "ለል": 3779,
      "▁ዘም": 3780,
      "▁ነተን": 3781,
      "▁ባህሊ": 3782,
      "▁መራሕቲ": 3783,
      "እካ": 3784,
      "▁ፈጣሪ": 3785,
      "▁ዘሕ": 3786,
      "▁ሕጻ": 3787,
      "ore": 3788,
      "▁ጸወታ": 3789,
      "▁የሱስ፡": 3790,
      "▁እንተዝ": 3791,
      "▁ተጠቒ": 3792,
      "▁ምፍላጥ": 3793,
      "▁መጻሕፍቲ": 3794,
      "▁ሃብቲ": 3795,
      "ጸር": 3796,
      "መላለ": 3797,
      "ሃይ": 3798,
      "▁ክብር": 3799,
      "▁ተንሲ": 3800,
      "▁ባህር": 3801,
      "ልክዕ": 3802,
      "ou": 3803,
      "'ዮም።": 3804,
      "▁እዮም፡": 3805,
      "▁ንነብ": 3806,
      "igr": 3807,
      ",000": 3808,
      "▁ክምለስ": 3809,
      "▁ኣንታ": 3810,
      "▁መዋ": 3811,
      "▁ይበል": 3812,
      "▁ዘል": 3813,
      "▁ወደይ": 3814,
      "▁ክኾኑ": 3815,
      "▁እኽእል": 3816,
      "▁ብርሃ": 3817,
      "▁ሐዚ": 3818,
      "ኑን።": 3819,
      "8)": 3820,
      "▁ግዜ፡": 3821,
      "▁ደለ": 3822,
      "▁ዓስ": 3823,
      "▁ውሉድ": 3824,
      "▁ወተ": 3825,
      "▁ወሪ": 3826,
      "▁ሓያሎ": 3827,
      "ራእ": 3828,
      "ሓቕ": 3829,
      "▁ድቃስ": 3830,
      "▁ዝብ": 3831,
      "▁ኣቦና": 3832,
      "▁ኣረ": 3833,
      "▁ንሶም": 3834,
      "▁ናባኻ": 3835,
      "▁ሽወደን": 3836,
      "▁ሕግ": 3837,
      "ፈትዎ": 3838,
      "ናትን": 3839,
      "▁ኣብዚ": 3840,
      "▁ዙርያ": 3841,
      "▁ዘሎካ": 3842,
      "▁ኣይኰነን": 3843,
      "▁ኣለዎም": 3844,
      "▁ቤት-": 3845,
      "▁ህወሓት": 3846,
      "▁ሃዋርያ": 3847,
      "ደግ": 3848,
      "ይት": 3849,
      "▁ንየሱስ": 3850,
      "▁ታሕ": 3851,
      "▁ሕጉስ": 3852,
      "ፈተ": 3853,
      "ጋጊ": 3854,
      "በሮ።": 3855,
      "▁ይኹን።": 3856,
      "▁ወለዲ": 3857,
      "▁ኔር": 3858,
      "▁ብድሕሪኡ": 3859,
      "▁ብጾ": 3860,
      "▁ሞያ": 3861,
      "ኖ።": 3862,
      "ልታት": 3863,
      "▁ጸብጻብ": 3864,
      "▁ጥፍ": 3865,
      "▁ንኣቦ": 3866,
      "er": 3867,
      "▁ደን": 3868,
      "▁ትካላት": 3869,
      "▁ቃለ": 3870,
      "ሳውያን": 3871,
      "▁ደብዳ": 3872,
      "▁ዝኸፍአ": 3873,
      "▁ኣየር": 3874,
      "▁Tigr": 3875,
      "ጦም": 3876,
      "ኮኑ": 3877,
      "እም": 3878,
      "ተል": 3879,
      "ቐን": 3880,
      "▁ገም": 3881,
      "▁ዩኒቨ": 3882,
      "▁ዘን": 3883,
      "▁ነን": 3884,
      "▁ብሓድ": 3885,
      "ያቱ": 3886,
      "የር": 3887,
      "ናግ": 3888,
      "ስታ": 3889,
      "▁ኣነስ": 3890,
      "▁ኣሎ፡": 3891,
      "▁ምሳሌ": 3892,
      "▁መራሒ": 3893,
      "▁ኣለካ": 3894,
      "▁ኣተሓሳስ": 3895,
      "ለሉ": 3896,
      "▁ዘፍቅ": 3897,
      "▁መጥቃ": 3898,
      "▁ልኡ": 3899,
      "ዓብ": 3900,
      "ዃን": 3901,
      "ኩምዎ": 3902,
      "▁ጻድቕ": 3903,
      "▁ድሕነት": 3904,
      "▁ኢያ።": 3905,
      "ቑ።": 3906,
      "ስእ": 3907,
      "ሒዙ": 3908,
      "3)": 3909,
      "▁ፖሊስ": 3910,
      "▁ዓሳ": 3911,
      "▁እውን፡": 3912,
      "▁እንተሎ": 3913,
      "▁ኣሎ፣": 3914,
      "▁ናጻ": 3915,
      "▁ሰለ": 3916,
      "▁\"መ": 3917,
      "▁ግዳ": 3918,
      "▁ኣይረኸ": 3919,
      "▁ነፍስ": 3920,
      "▁ብስራት": 3921,
      "▁ርእሰ": 3922,
      "▁ሙዚቃ": 3923,
      "▁ልዕ": 3924,
      "▁50": 3925,
      "ኤን": 3926,
      "ሕታ": 3927,
      "▁ዋና": 3928,
      "▁ንገዛእ": 3929,
      "▁ባዕልኻ": 3930,
      "▁ባይታ": 3931,
      "▁ምምላ": 3932,
      "ቶም።": 3933,
      "or": 3934,
      "▁ሽዱሽተ": 3935,
      "ስያ": 3936,
      "▁ይን": 3937,
      "▁ሰብኡ": 3938,
      "▁መሰላት": 3939,
      "▁ሕይወ": 3940,
      "ጸራ": 3941,
      "ርአ።": 3942,
      "▁ዝምድና": 3943,
      "▁ዘለኹ።": 3944,
      "▁እብ": 3945,
      "ደራ": 3946,
      "▁ይሓይሽ": 3947,
      "▁ኣረኣእያ": 3948,
      "▁ንሙሴ": 3949,
      "▁ልዕል": 3950,
      "▁ህይወተይ": 3951,
      "ታ።": 3952,
      "ስተር": 3953,
      "ርዳ": 3954,
      "▁ዝተሓ": 3955,
      "▁ከለኹ": 3956,
      "▁ኣካላት": 3957,
      "▁ንት": 3958,
      "▁ተባዕ": 3959,
      "▁ምዉታት": 3960,
      "▁ምንጪ": 3961,
      "ይሩ": 3962,
      "ኻዮ": 3963,
      "ቕርብ": 3964,
      "ሜት": 3965,
      "ልና።": 3966,
      "▁ደሓር": 3967,
      "▁የብለይን።": 3968,
      "▁ኣምላኽን": 3969,
      "▁ቅዱሳን": 3970,
      "▁ቁጽሪ": 3971,
      "▁መስከረም": 3972,
      "ጽዓ": 3973,
      "ዓመ": 3974,
      "ቖም": 3975,
      "ርኣ": 3976,
      "▁ጥበበ": 3977,
      "▁ገሊኡ": 3978,
      "▁ካበይ": 3979,
      "▁እዩ፤": 3980,
      "▁ኣዋልድ": 3981,
      "▁ተኣም": 3982,
      "▁ሰሎሞን": 3983,
      "▁ሓወይ": 3984,
      "▁ልሙ": 3985,
      "ካኤል": 3986,
      "ሳይያስ": 3987,
      ":-": 3988,
      "▁ፈቲ": 3989,
      "▁ግቡእ": 3990,
      "▁ዓቕሚ": 3991,
      "▁ክኽ": 3992,
      "▁እምብኣር": 3993,
      "▁ኢኻ፡": 3994,
      "▁ብደ": 3995,
      "▁ስጉምቲ": 3996,
      "▁ርግጸ": 3997,
      "▁ሚእ": 3998,
      "ማውያን": 3999,
      "▁ፕረዚደንት": 4000,
      "▁ፍልልይ": 4001,
      "▁ከምዝኾነ": 4002,
      "▁ኣይከኣል": 4003,
      "▁በይን": 4004,
      "▁ሰማዕ": 4005,
      "▁መቓ": 4006,
      "ንኩም": 4007,
      "ረኩም": 4008,
      "5)": 4009,
      "▁ጥዑም": 4010,
      "▁ዝጠ": 4011,
      "▁ከፊ": 4012,
      "▁ቈልዑ": 4013,
      "▁ር.": 4014,
      "ዶ፧": 4015,
      "ሃሉ": 4016,
      "▁ዲኹም": 4017,
      "▁የብልናን።": 4018,
      "▁ዘው": 4019,
      "▁ወገን": 4020,
      "▁ኻባ": 4021,
      "▁ኣለዋ": 4022,
      "▁መምርሒ": 4023,
      "ድሕር": 4024,
      "እለ": 4025,
      "በልና": 4026,
      "ሰማ": 4027,
      "ምልከ": 4028,
      "መዓ": 4029,
      "▁ጸሓ": 4030,
      "▁ግም": 4031,
      "▁ዝፈልጥ": 4032,
      "▁ዓይኒ": 4033,
      "▁ከይት": 4034,
      "▁ትኽእል።": 4035,
      "▁ተወሊ": 4036,
      "▁በላ።": 4037,
      "▁ምሃብ": 4038,
      "ውዓል": 4039,
      "ልል": 4040,
      "ለኹ": 4041,
      "▁ዶላ": 4042,
      "▁ኸመይ": 4043,
      "▁ብፁ": 4044,
      "▁ምንቅስቓ": 4045,
      "ፋእ": 4046,
      "▁ንጥፈ": 4047,
      "▁ንአ": 4048,
      "▁ንህ": 4049,
      "ፋን": 4050,
      "ጽሊ": 4051,
      "ጥቀመሉ": 4052,
      "ኦ።": 4053,
      "ንት": 4054,
      "ሽሓት": 4055,
      "'ያ።": 4056,
      "▁ዝኣክል": 4057,
      "▁ኣይትፍር": 4058,
      "▁ንስኺ": 4059,
      "▁በጃኻ": 4060,
      "▁ሰፊ": 4061,
      "ጠ።": 4062,
      "ቀቕ": 4063,
      "om": 4064,
      "▁ዲኻ?": 4065,
      "▁ዝን": 4066,
      "▁ዓንቀጽ": 4067,
      "▁ንስኻን": 4068,
      "▁ብኸምዚ": 4069,
      "▁ቅር": 4070,
      "ገልጽ።": 4071,
      "ኒ?": 4072,
      "ምርካብ": 4073,
      "▁ግንቦት": 4074,
      "▁ይከኣ": 4075,
      "▁ይም": 4076,
      "▁ኣምላኸይ": 4077,
      "▁ንቡር": 4078,
      "▁ሓሊ": 4079,
      "በባ": 4080,
      "በልካ": 4081,
      "'ኸ": 4082,
      "▁ጽሕፈት": 4083,
      "▁ዝዀኑ": 4084,
      "▁ዝተረ": 4085,
      "▁ዝብለ": 4086,
      "▁ሓኪ": 4087,
      "ደጋ": 4088,
      "ነይቲ": 4089,
      "▁ዝሃበ": 4090,
      "▁ክዳ": 4091,
      "▁ቁጠ": 4092,
      "▁\"ሕ": 4093,
      "ነካ": 4094,
      "▁እትኽእል": 4095,
      "▁ይብ": 4096,
      "▁ረብሓ": 4097,
      "▁መስቀል": 4098,
      "▁ህጻናት": 4099,
      "ጢሩ": 4100,
      "ልጣን": 4101,
      "ለጥ።": 4102,
      "▁ጉዳያት": 4103,
      "ቃዊ": 4104,
      "ራኸብ": 4105,
      "ልኪ": 4106,
      "▁የልቦን": 4107,
      "▁ክፍለ": 4108,
      "▁ኣቐዲሙ": 4109,
      "▁ብዝኾነ": 4110,
      "▁ብ19": 4111,
      "ጻት": 4112,
      "ሃሩ": 4113,
      "▁ገጹ": 4114,
      "▁ዮና": 4115,
      "▁ውጽኢት": 4116,
      "▁ኮይነ": 4117,
      "▁ኣየድልየ": 4118,
      "▁ቀዳሞት": 4119,
      "እዝ": 4120,
      "ብርሃ": 4121,
      "በጽ": 4122,
      "▁ዘጋጠመ": 4123,
      "▁ዘብ": 4124,
      "▁ኻልእ": 4125,
      "▁ኢና\"": 4126,
      "▁ቅን": 4127,
      "▁ሳኦል": 4128,
      "▁ምዃና": 4129,
      "▁ሓድነት": 4130,
      "ኮይኑ": 4131,
      "▁ድልየ": 4132,
      "▁ካህናት": 4133,
      "▁ኩላትና": 4134,
      "▁ኣገልጋ": 4135,
      "▁ኣምልኾ": 4136,
      "▁ሰላ": 4137,
      "▁ርሑቕ": 4138,
      "▁33": 4139,
      "ጠይ": 4140,
      "በኹ": 4141,
      "▁ዚሕ": 4142,
      "▁ክታበት": 4143,
      "▁ተቐመ": 4144,
      "▁ብኻልእ": 4145,
      "ቡ፡": 4146,
      "መንግስቲ": 4147,
      "▁ዳን": 4148,
      "▁ብዙኅ": 4149,
      "▁ምስሊ": 4150,
      "ኻት": 4151,
      "ሰይቲ": 4152,
      "መካ": 4153,
      "▁ይዝ": 4154,
      "▁ዕዉ": 4155,
      "▁ተሰም": 4156,
      "ብታት": 4157,
      "ረር": 4158,
      "▁ፍጻመ": 4159,
      "▁ፈለ": 4160,
      "▁ዕረፍቲ": 4161,
      "▁ወላዲ": 4162,
      "▁ታሕቲ": 4163,
      "▁ሓሲ": 4164,
      "ፖርት": 4165,
      "ጹር": 4166,
      "ደበት": 4167,
      "▁ኮሚ": 4168,
      "▁'ዩ": 4169,
      "▁\"በ": 4170,
      "ኽእሎ": 4171,
      "ረኽበ": 4172,
      "ሎሚ": 4173,
      "▁ዝብሃል": 4174,
      "▁ኣየናይ": 4175,
      "▁ኣግ": 4176,
      "▁ኢኹም፡": 4177,
      "▁መጥቃዕቲ": 4178,
      "ሞክራሲ": 4179,
      "▁ዝለዓለ": 4180,
      "▁እያ፡": 4181,
      "▁\"ናብ": 4182,
      "ገጽ": 4183,
      "እተ": 4184,
      "ሳቐ": 4185,
      "▁ዕር": 4186,
      "▁ንእኡ": 4187,
      "▁በጽ": 4188,
      "▁ሽማ": 4189,
      "ትር": 4190,
      "ልጡፍ": 4191,
      "▁ዳግም": 4192,
      "▁ዘለኹም": 4193,
      "▁ኣይትፍ": 4194,
      "▁ንድሕሪ": 4195,
      "▁ንዂ": 4196,
      "▁ምንታይ": 4197,
      "ታተይ": 4198,
      "ሒቱ": 4199,
      "-ኣ": 4200,
      "▁ዝዛረብ": 4201,
      "▁ነጥቢ": 4202,
      "ፅእ": 4203,
      "ጥና": 4204,
      "እከ": 4205,
      "7)": 4206,
      "▁ጕዳይ": 4207,
      "▁ዶላር": 4208,
      "▁ኣዴ": 4209,
      "▁መንነት": 4210,
      "▁ሕጉ": 4211,
      "▁ልብና": 4212,
      "ዩን": 4213,
      "በሳ": 4214,
      "ሃድ": 4215,
      "▁ዚነብሩ": 4216,
      "▁ክዕ": 4217,
      "▁ከው": 4218,
      "▁እንተድኣ": 4219,
      "▁ኢየ።": 4220,
      "▁ብዘየ": 4221,
      "▁ሚካኤል": 4222,
      "▁መዘ": 4223,
      "▁ሃብታም": 4224,
      "ዅሉ": 4225,
      "ኽንያት": 4226,
      "ካልእ": 4227,
      "ተባህ": 4228,
      "ሞንተ": 4229,
      "ለው": 4230,
      "ለኩም": 4231,
      "ti": 4232,
      "▁ፈት": 4233,
      "▁ዘይብል": 4234,
      "▁ዋዕ": 4235,
      "▁ክገብሮ": 4236,
      "▁እምኒ": 4237,
      "▁ኣዚዩ": 4238,
      "▁ኣቦታት": 4239,
      "ገብርዎ": 4240,
      "ደደ": 4241,
      "ኢየሱስ": 4242,
      "ብዙሓት": 4243,
      "በላ": 4244,
      "▁ፍጡ": 4245,
      "▁ደገፍ": 4246,
      "▁ይመጽእ": 4247,
      "▁ዘድልየ": 4248,
      "▁ውህ": 4249,
      "▁ብምን": 4250,
      "ጥዓ": 4251,
      "ንቂ": 4252,
      "▁ድዮም": 4253,
      "▁ክሰ": 4254,
      "▁ንነፍሲ": 4255,
      "▁ብጽ": 4256,
      "▁ስምዒ": 4257,
      "ጠና": 4258,
      "ኽሊ": 4259,
      "ባትን": 4260,
      "ቐርብ": 4261,
      "ማዊ": 4262,
      "....": 4263,
      "▁ጥቅ": 4264,
      "▁ዝመል": 4265,
      "▁ኣተሓሳስባ": 4266,
      "▁ሰራሕተኛታት": 4267,
      "ኒ\"": 4268,
      "ስዕቡ": 4269,
      "▁ዘይብሎም": 4270,
      "▁ካባና": 4271,
      "▁ኣይሰ": 4272,
      "▁ኣበር": 4273,
      "▁ትብሉ": 4274,
      "▁በረኸት": 4275,
      "▁በለት።": 4276,
      "▁ምቅ": 4277,
      "▁ልብኻ": 4278,
      "ግስ": 4279,
      "ኾን": 4280,
      "▁ንየሆዋ": 4281,
      "ፍቕሪ": 4282,
      "ጽሕፍ": 4283,
      "ተኣ": 4284,
      "ሱ፡": 4285,
      "▁ዕሽ": 4286,
      "▁ወርቂ": 4287,
      "▁ክፍሊት": 4288,
      "▁ኣዝየ": 4289,
      "▁ኣንብ": 4290,
      "▁ብና": 4291,
      "▁ቋንቋታት": 4292,
      "▁ስመይ": 4293,
      "ግጋ": 4294,
      "ሽቱ": 4295,
      "▁ዝርዝር": 4296,
      "▁ዓሚ": 4297,
      "▁ወሰን": 4298,
      "▁ንዳ": 4299,
      "ፍራ": 4300,
      "ህቦም": 4301,
      "▁ደይ": 4302,
      "▁ምብራቕ": 4303,
      "▁ልቦም": 4304,
      "ፉ።": 4305,
      "▁ግል": 4306,
      "▁ንደቀ": 4307,
      "▁ንሓድሕዶም": 4308,
      "▁ብመንፈስ": 4309,
      "▁ቀዳመይቲ": 4310,
      "ኽዎ": 4311,
      "▁የብሉን": 4312,
      "▁ሓኪም": 4313,
      "ምሳ": 4314,
      "▁ኻብቲ": 4315,
      "▁ኣሎ\"": 4316,
      "▁ኖር": 4317,
      "▁ንጹር": 4318,
      "▁ንፋስ": 4319,
      "▁መብዛሕ": 4320,
      "▁ሕር": 4321,
      "▁\"ከ": 4322,
      "ናውያን": 4323,
      "ሩይ": 4324,
      "▁ዅሎም": 4325,
      "▁ኲሎም": 4326,
      "▁ቅድሜኻ": 4327,
      "▁ሂቡ": 4328,
      "ረፍ": 4329,
      "መርሕ": 4330,
      "▁ዝተዛረቦ": 4331,
      "▁ኢኹም\"": 4332,
      "▁ተቐሚ": 4333,
      "▁ተሰሚ": 4334,
      "▁ብዛዕባኡ": 4335,
      "▁ብሉጽ": 4336,
      "▁ብነ": 4337,
      "▁ሕጂ'ውን": 4338,
      "ና፣": 4339,
      "▁ዘርእ": 4340,
      "▁ኣሕሊፉ": 4341,
      "▁ናቶም": 4342,
      "▁መጺኦም": 4343,
      "ይረስ": 4344,
      "በልዑ": 4345,
      "▁ኸምኡ": 4346,
      "▁ኣድላ": 4347,
      "▁ኣይነበረን": 4348,
      "▁ንድሕሪት": 4349,
      "▁ብሓድሽ": 4350,
      "▁ብህ": 4351,
      "▁መዓልቲ፡": 4352,
      "ስፒ": 4353,
      "ሞተ": 4354,
      "ሕግዘካ": 4355,
      "ሊእ": 4356,
      "▁ኣእጋ": 4357,
      "▁ነብዪ": 4358,
      "▁ተንስ": 4359,
      "▁ተሸ": 4360,
      "▁100": 4361,
      "ድልዮም": 4362,
      "▁ኵነታት": 4363,
      "▁ብዘየገድ": 4364,
      "▁ብቑ": 4365,
      "▁ብሪ": 4366,
      "▁ማንም": 4367,
      "ፍትን": 4368,
      "ጋገ": 4369,
      "ብዓ": 4370,
      "▁ፈረንሳ": 4371,
      "▁እትብል": 4372,
      "▁ኢደይ": 4373,
      "▁ንእግዚኣብሄር": 4374,
      "▁ነቢ": 4375,
      "▁ባቢ": 4376,
      "▁ምርካብ": 4377,
      "▁ኣገልጋሊ": 4378,
      "▁ንደሊ": 4379,
      "▁ስለ'ዚ": 4380,
      "ዮ፡": 4381,
      "ዕ።": 4382,
      ":4": 4383,
      "▁ዮሓ": 4384,
      "▁ዝተኣ": 4385,
      "▁እግሪ": 4386,
      "▁እሞ፣": 4387,
      "▁ኣይክሓድ": 4388,
      "▁ንንጉስ": 4389,
      "▁ብጻ": 4390,
      "▁ለይ": 4391,
      "ግዲ": 4392,
      "ክተር": 4393,
      "ለብ": 4394,
      "▁ፍሽ": 4395,
      "▁ደቒ": 4396,
      "▁ወተሃደ": 4397,
      "▁ወገ": 4398,
      "▁እከይ": 4399,
      "▁ቤትካ": 4400,
      "▁ርሕ": 4401,
      "▁ምእንታ": 4402,
      "▁ላዕለ": 4403,
      "▁ሆስፒ": 4404,
      "▁ሃገረ": 4405,
      "▁Ne": 4406,
      "ንብብ": 4407,
      "ሰባት": 4408,
      "ead": 4409,
      "▁ጋንታ": 4410,
      "▁ክሰርሕ": 4411,
      "▁ኣሎ?": 4412,
      "▁ተመለስ": 4413,
      "▁ብብ": 4414,
      "▁ልቡ": 4415,
      "መ።": 4416,
      "'ታ": 4417,
      "▁ጥሪ": 4418,
      "▁ይፈ": 4419,
      "▁ዝበሎ፡": 4420,
      "▁እባ": 4421,
      "▁ኣካይ": 4422,
      "▁ነገስታት": 4423,
      "▁ነው": 4424,
      "▁በለቶ።": 4425,
      "▁መሪሕ": 4426,
      "ጸ።": 4427,
      "ጠፍኡ": 4428,
      "ኖት": 4429,
      "ሙኤል": 4430,
      "ላ፡": 4431,
      "▁ኢንተርነት": 4432,
      "▁ሓዳስ": 4433,
      "▁ሓር": 4434,
      "▁ህጻን": 4435,
      "▁2020": 4436,
      "▁\"ኣምላኽ": 4437,
      "ጊት": 4438,
      "ኪ።": 4439,
      "▁ድሕሪኡ፡": 4440,
      "▁ውሕስነት": 4441,
      "▁ኮይኑ።": 4442,
      "▁\"ወ": 4443,
      "ፍሪ": 4444,
      "ይሽ": 4445,
      "ሊ።": 4446,
      "▁ኣይትፈልጡን": 4447,
      "▁ኣይመ": 4448,
      "▁ኢኻ\"": 4449,
      "▁ንምድሪ": 4450,
      "▁ነቢይ": 4451,
      "▁ቅድመይ": 4452,
      "▁ምላሽ": 4453,
      "ኒ፣": 4454,
      "ተርፍ": 4455,
      "ህበካ": 4456,
      "▁ዘይኰነስ፡": 4457,
      "▁ወሲዱ": 4458,
      "▁ኰን": 4459,
      "▁ክልቲኡ": 4460,
      "ኻየ": 4461,
      "ኵሉ": 4462,
      "ኣትዉ": 4463,
      "ረደ": 4464,
      "▁ዝነብሩ": 4465,
      "▁ንኽእል።": 4466,
      "▁ትርኢ": 4467,
      "▁ስለዘይ": 4468,
      "▁መሰረታዊ": 4469,
      "▁ህያብ": 4470,
      "▁ጽብ": 4471,
      "▁ዳግማይ": 4472,
      "▁ይበሃል": 4473,
      "▁ክትቅ": 4474,
      "▁እንኮ": 4475,
      "▁ማለ": 4476,
      "ሪኽ": 4477,
      "▁የብሎምን።": 4478,
      "▁ዜጋታት": 4479,
      "▁ዄንካ": 4480,
      "▁እዮም\"": 4481,
      "▁ኣሎኹ": 4482,
      "▁ኣከ": 4483,
      "▁ተጓ": 4484,
      "▁መርከብ": 4485,
      "▁\"ስለ": 4486,
      "ገልጾ": 4487,
      "ዛዝ": 4488,
      "ቅዕ": 4489,
      "▁ዘለዎ።": 4490,
      "▁ወያነ": 4491,
      "▁ክፉ": 4492,
      "▁ትደልዩ": 4493,
      "▁ምዝራብ": 4494,
      "▁ማዕጾ": 4495,
      "▁ሓደገ": 4496,
      "ዓር": 4497,
      "እዎ": 4498,
      "ሠር": 4499,
      "▁ግጥ": 4500,
      "▁ይብሉ።": 4501,
      "▁ዘለኣለም": 4502,
      "▁ውሳኔ": 4503,
      "▁ኣንቢ": 4504,
      "▁ኣለኹም": 4505,
      "▁መስመር": 4506,
      "▁'ኣ": 4507,
      "ደንቕ": 4508,
      "ኽእልን።": 4509,
      "ት፡": 4510,
      "▁ፀገም": 4511,
      "▁ዶብ": 4512,
      "▁ዓቢይ": 4513,
      "▁ኮር": 4514,
      "▁ኣይወ": 4515,
      "▁ነብያት": 4516,
      "▁መዓልትን": 4517,
      "ነቕ": 4518,
      "ስራኤል": 4519,
      "ሪያ": 4520,
      "▁ዘለካ": 4521,
      "▁ክዳን": 4522,
      "▁ከምዚ": 4523,
      "▁ኣሮን": 4524,
      "▁ንኽብሪ": 4525,
      "▁ንዑ": 4526,
      "▁ማሕበረ": 4527,
      "▁መጓ": 4528,
      "ሐ።": 4529,
      "▁ይድ": 4530,
      "▁ዝጽ": 4531,
      "▁ኣይመስለንን።": 4532,
      "▁ኣይፈልጥን።": 4533,
      "▁ንባዕ": 4534,
      "▁ብግቡእ": 4535,
      "▁ብዝሒ": 4536,
      "እና": 4537,
      "ኣለ": 4538,
      "ምዃን": 4539,
      "ሕብ": 4540,
      "'ሎ።": 4541,
      "▁ጾታዊ": 4542,
      "▁ጥቕሚ": 4543,
      "▁ኣዲ": 4544,
      "▁ትጽቢት": 4545,
      "▁ሳዕቤ": 4546,
      "▁ማለት፡": 4547,
      "▁መሲሉ": 4548,
      "ፍጸም": 4549,
      "ዱን": 4550,
      "እታ": 4551,
      "ኑ፡": 4552,
      "ላትን": 4553,
      "▁የግ": 4554,
      "▁ክዝ": 4555,
      "▁ካኣ": 4556,
      "▁ከለኻ": 4557,
      "▁ኣይነበሮ": 4558,
      "▁ኣሎካ።": 4559,
      "▁ንርእሱ": 4560,
      "▁ብምስ": 4561,
      "▁ቐሪ": 4562,
      "▁ምጥ": 4563,
      "▁መን'ዩ": 4564,
      "▁መርበብ": 4565,
      "▁መዕ": 4566,
      "ጻሕፈ": 4567,
      "ልቢ": 4568,
      "▁ወግ": 4569,
      "▁እዩ'": 4570,
      "▁ንስድራ": 4571,
      "▁ተመስ": 4572,
      "▁ስግ": 4573,
      "▁መቓብር": 4574,
      "ምኽንያት": 4575,
      "ሎጂ": 4576,
      "ላጽ": 4577,
      "ሊም": 4578,
      "ሁ።": 4579,
      "▁ይኽ": 4580,
      "▁ክረክብ": 4581,
      "▁ከረን": 4582,
      "▁ስድራቤ": 4583,
      "ጻወ": 4584,
      "ጸይ": 4585,
      "ጋም": 4586,
      "ረቱ": 4587,
      "ሕጊ": 4588,
      "▁ይመስል።": 4589,
      "▁ዘይክእል": 4590,
      "▁ዘዳ": 4591,
      "▁ኣይትኽእልን": 4592,
      "▁ኣይከ": 4593,
      "▁ኣነውን": 4594,
      "▁ኣለኒ።": 4595,
      "▁ተፈጺ": 4596,
      "▁ሽማግለ": 4597,
      "▁ሰሚዕ": 4598,
      "▁ሓጋ": 4599,
      "▁ልሙድ": 4600,
      "'ከ": 4601,
      "▁ጌርኩም": 4602,
      "▁ይከኣል።": 4603,
      "▁የድሊ።": 4604,
      "▁ዝፈር": 4605,
      "▁ባህሪ": 4606,
      "▁ቀጻሊ": 4607,
      "▁ምምሕዳር": 4608,
      "▁መት": 4609,
      "ፍቀ": 4610,
      "ሽዑ": 4611,
      "▁ጌሩ": 4612,
      "▁ክረ": 4613,
      "▁ካባኻትኩም": 4614,
      "▁ኪድ": 4615,
      "▁እቲ፡": 4616,
      "▁ኣይደልን": 4617,
      "▁ኣህጉ": 4618,
      "▁ኖህ": 4619,
      "▁ንጥፈታት": 4620,
      "▁ንሓዋ": 4621,
      "ኩኹም": 4622,
      "ቶምን": 4623,
      "ማል": 4624,
      "6)": 4625,
      "▁ድዩ፧": 4626,
      "▁ዝነበርኩ": 4627,
      "▁ዝኽእሉ": 4628,
      "▁ኣሚ": 4629,
      "▁ኢኺ።": 4630,
      "▁ንሰብ": 4631,
      "▁ነበረ፡": 4632,
      "▁ባቢሎን": 4633,
      "▁ሰፈር": 4634,
      "ድሕነ": 4635,
      "ስር": 4636,
      "ሰርሓ": 4637,
      "ምህርቲ": 4638,
      "▁ፈረ": 4639,
      "▁ዓረብ": 4640,
      "▁ኣዒንቲ": 4641,
      "▁ኣጥ": 4642,
      "▁አሎ።": 4643,
      "▁ንርአ።": 4644,
      "▁ነበርኩ።": 4645,
      "▁ብቀ": 4646,
      "▁ሕተ": 4647,
      "▁ሓዲሽ": 4648,
      "ፈሻዊ": 4649,
      "ፈልጠ": 4650,
      "ጸሩ": 4651,
      "ቕካ": 4652,
      "ሰሉ": 4653,
      "ረጽ": 4654,
      "▁ጥፍኣት": 4655,
      "▁ኸለዉ": 4656,
      "▁ኣምላኽካ": 4657,
      "▁ኣጆ": 4658,
      "▁ንዮ": 4659,
      "▁መንግሥ": 4660,
      "▁ህይወትና": 4661,
      "ቅድሚ": 4662,
      "ምእ": 4663,
      "ሓትን": 4664,
      "▁ዝነበራ": 4665,
      "▁እቶ": 4666,
      "▁ኣፍል": 4667,
      "▁ንኽን": 4668,
      "▁ሓጎስ": 4669,
      "ጥኤ": 4670,
      "ታቲ": 4671,
      "▁ደቀይ": 4672,
      "▁ዝነበረ።": 4673,
      "▁ዚገልጽ": 4674,
      "▁ወሳ": 4675,
      "▁ከለዉ": 4676,
      "▁ንምስ": 4677,
      "▁ሓቅ": 4678,
      "ሶን": 4679,
      "▁ኣይኮን": 4680,
      "▁ርእየ": 4681,
      "▁ሚእቲ": 4682,
      "▁\"ስመይ": 4683,
      "▁\"'": 4684,
      "መሃር": 4685,
      "▁ፍጻሜ": 4686,
      "▁ኣገልገል": 4687,
      "▁ንኣኻ": 4688,
      "▁ንነቢይ": 4689,
      "▁ምዕባለ": 4690,
      "▁መንግስት": 4691,
      "▁ሃን": 4692,
      "ክስ": 4693,
      "ረካ": 4694,
      "▁ፈጠ": 4695,
      "▁ድያብሎስ": 4696,
      "▁ኣሎኒ።": 4697,
      "▁አለ": 4698,
      "▁ብግዜ": 4699,
      "▁መልእኽ": 4700,
      "▁ሕሉ": 4701,
      "ውል": 4702,
      "ተፈ": 4703,
      "ረገ": 4704,
      "ላትኩም": 4705,
      "▁ፍሉጥ": 4706,
      "▁ጥሜት": 4707,
      "▁ድማ፣": 4708,
      "▁ውህበት": 4709,
      "▁ክም": 4710,
      "▁ከም'ዚ": 4711,
      "▁እንቋ": 4712,
      "▁ኃጢኣት": 4713,
      "▁ብን": 4714,
      "ውዕል": 4715,
      "ታት፡": 4716,
      "ባሪ": 4717,
      "መሓ": 4718,
      "ay": 4719,
      "▁ገሊጹ": 4720,
      "▁ዕብ": 4721,
      "▁ኣሉ": 4722,
      "▁ትኸውን።": 4723,
      "▁ቓላት": 4724,
      "▁ሳሙኤል": 4725,
      "▁መንግስታት": 4726,
      "▁ሆስፒታል": 4727,
      "▁\"ከም": 4728,
      "ጕም": 4729,
      "ዛን": 4730,
      "ከታተ": 4731,
      "ነኽ": 4732,
      "ቤተ": 4733,
      "ስቡ": 4734,
      "ልዮናት": 4735,
      "'ቶም": 4736,
      "▁ዘለዉ።": 4737,
      "▁ኢሳይያስ": 4738,
      "▁ተዘ": 4739,
      "▁ባሮት": 4740,
      "▁(2": 4741,
      "ድእ": 4742,
      "ክፍ": 4743,
      "ኦም።": 4744,
      "ረ፡": 4745,
      "ረተ": 4746,
      "▁ድኽ": 4747,
      "▁ዝግባእ": 4748,
      "▁ዑቕ": 4749,
      "▁ካር": 4750,
      "▁ኣጋጢሙ": 4751,
      "▁ኣይንኽእልን": 4752,
      "▁ባዕለይ": 4753,
      "▁ስራ": 4754,
      "▁ምክን": 4755,
      "ጣዊ": 4756,
      "ድኡ": 4757,
      "ዚኦም": 4758,
      "መጹ": 4759,
      "ልዉ": 4760,
      "an": 4761,
      "▁ድሌት": 4762,
      "▁ዘድሊ": 4763,
      "▁ኪኸ": 4764,
      "▁ኤርትራውያን": 4765,
      "▁ርእስና": 4766,
      "▁ርግጽ": 4767,
      "▁ርኣ": 4768,
      "▁ምኽንያቱ፡": 4769,
      "▁መልክዕ": 4770,
      "ርእይ": 4771,
      "▁ጻድቃን": 4772,
      "▁ዝባ": 4773,
      "▁ዘይፈልጥ": 4774,
      "▁ክንድዚ": 4775,
      "▁ንኹሎም": 4776,
      "▁ንፍ": 4777,
      "▁ቤተይ": 4778,
      "ውንቲ": 4779,
      "ወስዶ": 4780,
      "ርእይዎ": 4781,
      "ሕካ": 4782,
      "in": 4783,
      "▁ዝበልካ": 4784,
      "▁ወል": 4785,
      "▁ዀነ፡": 4786,
      "▁እቲኣ፡": 4787,
      "▁ኣይሓ": 4788,
      "ጽቡቕ": 4789,
      "በኣ": 4790,
      "▁ፍልስጥኤ": 4791,
      "▁ይኽእሉ።": 4792,
      "▁ክፈልጥ": 4793,
      "▁እንተዀነ": 4794,
      "▁በደልካ": 4795,
      "▁ስለዚ": 4796,
      "▁ስማዕ": 4797,
      "▁ምዃነይ": 4798,
      "▁ሚኒስት": 4799,
      "▁ሓደገኛ": 4800,
      "▁ህይወትካ": 4801,
      "▁\"ናይ": 4802,
      "ፈለማ": 4803,
      "ዖም።": 4804,
      "ክኖ": 4805,
      "ኣዊ": 4806,
      "ቕጽል": 4807,
      "▁ጀመር": 4808,
      "▁ዝኾነት": 4809,
      "▁ተረኺ": 4810,
      "▁ቅዱሳት": 4811,
      "▁ርግጸኛ": 4812,
      "▁መንግስተ": 4813,
      "▁ሓርነት": 4814,
      "▁(ዘጽ": 4815,
      "ሕዋ": 4816,
      "▁ዝርከቡ": 4817,
      "▁ኣእዳው": 4818,
      "▁ምንቅስቓስ": 4819,
      "▁ምስራሕ": 4820,
      "▁ምሳታቶም": 4821,
      "▁ሕልና": 4822,
      "▁ሓዘን": 4823,
      "ንጹር": 4824,
      "ቐር": 4825,
      "ህና": 4826,
      "▁ይኽእል'ዩ።": 4827,
      "▁ዘይኰ": 4828,
      "▁ዓድ": 4829,
      "▁ክግበር": 4830,
      "▁ክገብሩ": 4831,
      "▁ክበሃል": 4832,
      "▁ኣሕሊ": 4833,
      "▁ምዃንካ": 4834,
      "▁መደባት": 4835,
      "ሳድ": 4836,
      "ራጽ": 4837,
      "▁ግዘ": 4838,
      "▁ግር": 4839,
      "▁ኣቦኹም": 4840,
      "▁ትኽ": 4841,
      "▁ተሰምዩ": 4842,
      "፡22)": 4843,
      "ገት": 4844,
      "ዐ።": 4845,
      "ኖም።": 4846,
      "ሻይ": 4847,
      "ላኸ": 4848,
      "▁ገበ": 4849,
      "▁ኣድላዪ": 4850,
      "▁ኣምላክ": 4851,
      "▁ብገ": 4852,
      "▁ምንባብ": 4853,
      "▁መሳርሒ": 4854,
      "▁መነ": 4855,
      "▁ሓንሳብ": 4856,
      "ፃኢ": 4857,
      "ጣር": 4858,
      "ቕን": 4859,
      "ሕዝን": 4860,
      "xt": 4861,
      "▁እምብኣርሲ": 4862,
      "▁ኣልዒ": 4863,
      "▁ትሑ": 4864,
      "▁በለኒ።": 4865,
      "▁ቆጸራ": 4866,
      "▁ስምካ": 4867,
      "▁ሳላ": 4868,
      "▁ሱዳን": 4869,
      "▁ማህ": 4870,
      "ጥቀሙ": 4871,
      "ኦምን": 4872,
      "ሽቲ": 4873,
      "ምግ": 4874,
      "ሐጕ": 4875,
      "ህቡ": 4876,
      "▁ዘይከኣ": 4877,
      "▁ኣይክሓድገል": 4878,
      "▁ኣይክሓድገልካን": 4879,
      "▁ንእግዚአብሔር": 4880,
      "▁ንጐይታ": 4881,
      "▁ስምምዕ": 4882,
      "▁ምስት": 4883,
      "▁መፍትሒ": 4884,
      "▁መዓት": 4885,
      "▁23፡22)": 4886,
      "ፍለ": 4887,
      "ጥፍእ": 4888,
      "ዓታት": 4889,
      "▁ፈላ": 4890,
      "▁ጻዕሪ": 4891,
      "▁ገንዘ": 4892,
      "▁ዋዕላ": 4893,
      "▁ከምኡ።": 4894,
      "▁አነ": 4895,
      "▁ሓጢኣ": 4896,
      "▁ልደት": 4897,
      "▁38": 4898,
      "▁\"ኣቦ": 4899,
      "ያ፡": 4900,
      "ባሩ": 4901,
      "ምፍላጥ": 4902,
      "▁ድል": 4903,
      "▁እመ": 4904,
      "▁ኣኽራን": 4905,
      "▁መፅ": 4906,
      "▁\"እንታይ": 4907,
      "ግብሪ": 4908,
      "ርከይ": 4909,
      "▁ፕሮግ": 4910,
      "▁ዝሃቦ": 4911,
      "▁ዘገርም": 4912,
      "▁ክህልዎ": 4913,
      "▁ስዊ": 4914,
      "▁ረኺበ": 4915,
      "ንጫ": 4916,
      "ራጺ": 4917,
      "▁ደርፊ": 4918,
      "▁ትእዛዛት": 4919,
      "▁ሥጋ": 4920,
      "▁ምድሓን": 4921,
      "▁መገድታት": 4922,
      "ውራ": 4923,
      "ሎምን": 4924,
      "▁ፕሮጀ": 4925,
      "▁ጾም": 4926,
      "▁ጽልዋ": 4927,
      "▁ዮሃ": 4928,
      "▁ዝጀመ": 4929,
      "▁ዚነብር": 4930,
      "▁እደሊ": 4931,
      "▁አብዚ": 4932,
      "▁ንእስራኤል": 4933,
      "▁ስልጠና": 4934,
      "▁መሸ": 4935,
      "▁ለይትን": 4936,
      "▁ለባ": 4937,
      "ጹጽ": 4938,
      "ድድ": 4939,
      "ሓልፍ": 4940,
      "ለፈ": 4941,
      "st": 4942,
      "▁ንስኹም": 4943,
      "▁ብዘሎ": 4944,
      "▁ሃበ": 4945,
      "ገብረሉ": 4946,
      "ጅምር።": 4947,
      "ውም": 4948,
      "ኻየደ": 4949,
      "ብር።": 4950,
      "▁ንሃ": 4951,
      "▁ትእዛዛ": 4952,
      "▁ተግባራት": 4953,
      "▁ቕዱስ": 4954,
      "▁ማቴ": 4955,
      "▁ሓፈሻዊ": 4956,
      "ጺሩ": 4957,
      "ግለጽ": 4958,
      "ዕድመ": 4959,
      "ቐሊ": 4960,
      "ሰብ።": 4961,
      "ላታት": 4962,
      "ሃራይ": 4963,
      "▁ገበን": 4964,
      "▁ዝዕ": 4965,
      "▁ኣዕሩኽ": 4966,
      "▁ኣውስት": 4967,
      "▁ብሪጣን": 4968,
      "▁ርአ።": 4969,
      "▁ሓጥያት": 4970,
      "▁1.": 4971,
      "ጻል": 4972,
      "ናዳ": 4973,
      "ረቡ": 4974,
      "-ሰብ": 4975,
      "▁ዘሎኹ": 4976,
      "▁ዘላ።": 4977,
      "▁እንተተ": 4978,
      "▁ኖርወይ": 4979,
      "▁ተመር": 4980,
      "▁ብዘይካዚ፡": 4981,
      "▁ቀጺሉ": 4982,
      "▁ልዕሊኡ": 4983,
      "ደብ": 4984,
      "ተይቲ": 4985,
      "ቢሩ": 4986,
      "▁ጽም": 4987,
      "▁ደድሕሪ": 4988,
      "▁ዮሓንስ": 4989,
      "▁ዝተወለድ": 4990,
      "▁ዝመስል": 4991,
      "▁ዝሃ": 4992,
      "▁ዚስ": 4993,
      "▁ኩነት": 4994,
      "▁ንፉ": 4995,
      "▁ነጋ": 4996,
      "▁ብሓን": 4997,
      "▁ሰብኡት": 4998,
      "▁ሕራይ": 4999,
      "▁ሓድሓደ": 5000,
      "▁(መዝ": 5001,
      "ጎም": 5002,
      "ድያ": 5003,
      "▁ግብረ": 5004,
      "▁ኽፉእ": 5005,
      "▁ነይራ": 5006,
      "▁ሮሜ": 5007,
      "▁ምኻድ": 5008,
      "▁መማ": 5009,
      "ውሞ": 5010,
      "ወን።": 5011,
      "ትምህርቲ": 5012,
      "ሓኒ": 5013,
      "9)": 5014,
      "▁ይብሎ": 5015,
      "▁ዘይሕ": 5016,
      "▁ኣይከኣለን።": 5017,
      "▁ሓተት": 5018,
      "ጋዝ": 5019,
      "ኻ?": 5020,
      "ናዕ": 5021,
      "1)": 5022,
      "▁ክርኢ": 5023,
      "▁ሞይቱ": 5024,
      "▁ህል": 5025,
      "ጽኦ": 5026,
      "ጸት": 5027,
      "ጥዕ": 5028,
      "ወስደ": 5029,
      "ሮና": 5030,
      "▁ፍርሃት": 5031,
      "▁ዝተረፈ": 5032,
      "▁ዝና": 5033,
      "▁ዚው": 5034,
      "▁ኣለኒ": 5035,
      "▁ታይ": 5036,
      "▁ተዛሪቡ": 5037,
      "▁ባህርያ": 5038,
      "▁ሸቶ": 5039,
      "▁ስዒ": 5040,
      "▁ርእሰይ": 5041,
      "▁መብጽዓ": 5042,
      "▁ሓዋርያት": 5043,
      "▁2017": 5044,
      "▁(ማቴ": 5045,
      "ፈልጦን": 5046,
      "ዝሒ": 5047,
      "ክልተ": 5048,
      "ማትን": 5049,
      "▁ዲዩ": 5050,
      "▁ይስሃ": 5051,
      "▁ይኾኑ": 5052,
      "▁እስራኤል፡": 5053,
      "▁ነጥብታት": 5054,
      "▁ብቐጥታ": 5055,
      "▁ሸሞንተ": 5056,
      "▁ማለት'ዩ።": 5057,
      "▁ሓፍ": 5058,
      "▁(እ": 5059,
      "ጠቅ": 5060,
      "ክኖሎጂ": 5061,
      "ኤት": 5062,
      "ኣያ": 5063,
      "ስኹም": 5064,
      "ልዎም": 5065,
      "▁ጐይታና": 5066,
      "▁ኣዋል": 5067,
      "▁ኣመና": 5068,
      "▁ንሓዋሩ": 5069,
      "▁ናባኻትኩም": 5070,
      "▁ብብዙሕ": 5071,
      "▁መዛሙርቲ": 5072,
      "▁ሕጉሳት": 5073,
      "▁ሕጋዊ": 5074,
      "ይር": 5075,
      "ላፍ": 5076,
      "▁ደል": 5077,
      "▁ዝወስ": 5078,
      "▁ዑቕባ": 5079,
      "▁ኻብቶም": 5080,
      "▁እስኪ": 5081,
      "▁ንገለ": 5082,
      "▁ንኸውን": 5083,
      "▁ብኣምላኽ": 5084,
      "▁ምስኣ": 5085,
      "▁ሓጊ": 5086,
      "▁ልብኹም": 5087,
      "ጽሓፍ": 5088,
      "ተሉ": 5089,
      "ላስ": 5090,
      "▁ፍቓደ": 5091,
      "▁ደቓይ": 5092,
      "▁ወረቐት": 5093,
      "▁ኾነ": 5094,
      "▁ክንዳ": 5095,
      "▁ኣይትሕ": 5096,
      "▁ኣይፋ": 5097,
      "▁ኣሽሓት": 5098,
      "▁ኔርና።": 5099,
      "▁ሰብነት": 5100,
      "▁ሕሉፍ": 5101,
      "▁2018": 5102,
      "ጠው": 5103,
      "ዓዊ": 5104,
      "ንጎ": 5105,
      "ሙ፡": 5106,
      "▁ጥበበኛ": 5107,
      "▁ግበርዎ።": 5108,
      "▁ይርከ": 5109,
      "▁ኵላትና": 5110,
      "▁እዋናት": 5111,
      "▁በየ": 5112,
      "▁መጻእ": 5113,
      "▁\"ሓ": 5114,
      "ፈልጣ": 5115,
      "መስግን": 5116,
      "ሓይሊ": 5117,
      "ሊት": 5118,
      "▁ጋዜጠ": 5119,
      "▁ደጋጊ": 5120,
      "▁ይሰ": 5121,
      "▁ዝሃብ": 5122,
      "▁ኵለን": 5123,
      "▁ክእለት": 5124,
      "▁ከለና": 5125,
      "▁ንባብ": 5126,
      "▁ተዛረ": 5127,
      "▁ተኽእሎ": 5128,
      "▁መታን": 5129,
      "ድኅ": 5130,
      "ደ፡": 5131,
      "ሳሰ": 5132,
      "ልዕ": 5133,
      "▁ፍሽኽ": 5134,
      "▁ጥንቲ": 5135,
      "▁ይቅ": 5136,
      "▁ዝመጹ": 5137,
      "▁ውጽኢ": 5138,
      "▁ወከፍና": 5139,
      "▁እንታይ'ዩ": 5140,
      "▁ተመሊሱ": 5141,
      "▁በይንኻ": 5142,
      "▁በደል": 5143,
      "▁ለካ": 5144,
      "ገልግሉ": 5145,
      "ገረ": 5146,
      "ካልኦት": 5147,
      "ላን።": 5148,
      "ሃለ": 5149,
      "▁ፈሪሳውያን": 5150,
      "▁ፈሊጥ": 5151,
      "▁ገበረ።": 5152,
      "▁ጀሚሩ።": 5153,
      "▁ዝደሊ።": 5154,
      "▁እየ'": 5155,
      "▁ኢና፡": 5156,
      "▁ንዳዊት": 5157,
      "▁ቕድሚ": 5158,
      "▁ስን": 5159,
      "▁ሕሰ": 5160,
      "▁ሕሙ": 5161,
      "▁\"ምስ": 5162,
      "ዓሉ": 5163,
      "ዋእ": 5164,
      "ራምፕ": 5165,
      "▁ፍርሒ": 5166,
      "▁ፅቡቕ": 5167,
      "▁ድንኳን": 5168,
      "▁ዝዓበኹ": 5169,
      "▁ዝዝ": 5170,
      "▁ዝሰርሕ": 5171,
      "▁ዓሰርተው": 5172,
      "▁ክፈ": 5173,
      "▁ክጽ": 5174,
      "▁ክወስድ": 5175,
      "▁ኣባጊዕ": 5176,
      "▁ተወል": 5177,
      "▁ብጹኣን": 5178,
      "▁ስነ-": 5179,
      "▁መድሃ": 5180,
      "▁መጠ": 5181,
      "ዋኽብ": 5182,
      "ክሩ": 5183,
      "ኢሉ": 5184,
      "ትኹም": 5185,
      "ተንስ": 5186,
      "ብያ": 5187,
      "ምሃር": 5188,
      "ማስ": 5189,
      "መነ": 5190,
      "ልያን": 5191,
      "ag": 5192,
      "▁ፍልስጥኤማውያን": 5193,
      "▁ደራ": 5194,
      "▁ዝስዕቡ": 5195,
      "▁ኢኻ?": 5196,
      "▁ብማ": 5197,
      "▁ባሕ": 5198,
      "▁ምስማዕ": 5199,
      "▁መቸ": 5200,
      "የን።": 5201,
      "ቡል": 5202,
      "ስብ": 5203,
      "▁ጠፊኡ": 5204,
      "▁ደሞ": 5205,
      "▁ዝበዝሕ": 5206,
      "▁ወዘ": 5207,
      "▁ኰይኖም": 5208,
      "▁ኣይክእል": 5209,
      "▁ኣተወ": 5210,
      "▁ተኣምራት": 5211,
      "▁ሰበ": 5212,
      "▁ማእከላይ": 5213,
      "▁መላ": 5214,
      "▁ሕጻን": 5215,
      "ንሳ": 5216,
      "ምባ": 5217,
      "▁ዳንኤል": 5218,
      "▁ወሳኒ": 5219,
      "▁ኪዳ": 5220,
      "▁ኣጸጋሚ": 5221,
      "▁ሶርያ": 5222,
      "▁ርስቲ": 5223,
      "ብልን": 5224,
      "ርግ": 5225,
      "መላለስ": 5226,
      "መጡ": 5227,
      "ሓፈሻ": 5228,
      "▁ድራር": 5229,
      "▁ዲና": 5230,
      "▁ዝተቐ": 5231,
      "▁ውሑዳት": 5232,
      "▁ውልቃዊ": 5233,
      "▁ካቶ": 5234,
      "▁ትገብር": 5235,
      "▁ቫይረስ": 5236,
      "▁34": 5237,
      "ዒቡ": 5238,
      "ዎም፡": 5239,
      "ኻብ": 5240,
      "ናሕ": 5241,
      "ነፍ": 5242,
      "ቡስ": 5243,
      "ረኒ።": 5244,
      "ምዎ": 5245,
      "ሕግዙ": 5246,
      "▁ግጥሚ": 5247,
      "▁ግዲ": 5248,
      "▁የሆዋ፡": 5249,
      "▁ዝዓበኹዎን": 5250,
      "▁ዝተወለድኩዎ": 5251,
      "▁ዝከኣል": 5252,
      "▁ዚግበር": 5253,
      "▁ክንርኢ": 5254,
      "▁ክትው": 5255,
      "▁ክትረኽቡ": 5256,
      "▁ንድኻ": 5257,
      "▁ንኩ": 5258,
      "▁ኔሮም።": 5259,
      "▁ኃጢ": 5260,
      "▁ብወገ": 5261,
      "▁ቐዳማይ": 5262,
      "▁ምኻኑ": 5263,
      "▁መቐለ": 5264,
      "▁Next": 5265,
      "ፈን": 5266,
      "ጋኑ": 5267,
      "ርሑ": 5268,
      "-2": 5269,
      "▁ከየ": 5270,
      "▁እኩያት": 5271,
      "▁ኣቢል": 5272,
      "▁ኢኻ፣": 5273,
      "▁ንዘይ": 5274,
      "▁ተመክሮ": 5275,
      "▁ምጥቃ": 5276,
      "ፈለጥ": 5277,
      "ጋል": 5278,
      "ኦም፡": 5279,
      "ትኡ": 5280,
      "በል።": 5281,
      "ሓዘ": 5282,
      "ሓና": 5283,
      "▁ፍታሕ": 5284,
      "▁ዶክተር": 5285,
      "▁ደቓይቕ": 5286,
      "▁ዝፈት": 5287,
      "▁ክነግረ": 5288,
      "▁ኣይኮንኩን።": 5289,
      "▁ኣውጺ": 5290,
      "▁ማል": 5291,
      "▁መጻምድ": 5292,
      "ፈ።": 5293,
      "ሆ፡": 5294,
      "ሃህ": 5295,
      "▁ድየ": 5296,
      "▁ዘክር": 5297,
      "▁እንተደኣ": 5298,
      "▁ኣነ'ውን": 5299,
      "▁ትራምፕ": 5300,
      "▁ተዋሂቡ": 5301,
      "▁ተቀ": 5302,
      "▁ተመን": 5303,
      "▁ብኡብኡ": 5304,
      "▁ብሙ": 5305,
      "▁ሰማያዊ": 5306,
      "▁ሃቦም።": 5307,
      "ዘራረብ": 5308,
      "ሰደ": 5309,
      "ርዕ": 5310,
      "ሌፎን": 5311,
      "le": 5312,
      "0)": 5313,
      "▁ፋሕ": 5314,
      "▁ድያ": 5315,
      "▁ደሴ": 5316,
      "▁ዝጸን": 5317,
      "▁ውድድር": 5318,
      "▁ኩባን": 5319,
      "▁ኣይነበሮን።": 5320,
      "▁ብመዓልቲ": 5321,
      "▁ስደት": 5322,
      "▁ሩስያ": 5323,
      "▁ሕግታት": 5324,
      "▁ሓደስቲ": 5325,
      "ፍጽም": 5326,
      "▁ድኅ": 5327,
      "▁ካቶሊ": 5328,
      "▁እዚኣ፡": 5329,
      "▁35": 5330,
      "ወግ": 5331,
      "ራሽ": 5332,
      "▁ዝርርብ": 5333,
      "▁ዘሎኒ": 5334,
      "▁ዓሌ": 5335,
      "▁ኻልኣይ": 5336,
      "▁ኣጸቢቑ": 5337,
      "▁ተቓውሞ": 5338,
      "▁ምልክታት": 5339,
      "▁ህዝቢ፡": 5340,
      "ፈሪ": 5341,
      "ተገብ": 5342,
      "ምነ": 5343,
      "መኒ": 5344,
      "▁ኣውስትራ": 5345,
      "▁ብቓ": 5346,
      "▁መካ": 5347,
      "▁ልዕሌ": 5348,
      "▁\"ም": 5349,
      "ጻዕቲ": 5350,
      "ግዜ": 5351,
      "ደድ": 5352,
      "ነጽ": 5353,
      "በልኩ": 5354,
      "▁ድንግ": 5355,
      "▁ይመስለኒ።": 5356,
      "▁ውር": 5357,
      "▁ኵላቶም": 5358,
      "▁ካባኻ": 5359,
      "▁ከመይሲ": 5360,
      "▁ንምሕ": 5361,
      "▁ናይ'ቲ": 5362,
      "▁ተመሃሮ": 5363,
      "▁ብሽ": 5364,
      "▁ቈልዓ": 5365,
      "▁(ሉ": 5366,
      "ፋይ": 5367,
      "ዱእ": 5368,
      "ዐን": 5369,
      "ኣኒ": 5370,
      "ሳል": 5371,
      "ማንነት": 5372,
      "ሓሰ": 5373,
      "ለፍ": 5374,
      "▁ጥቅምቲ": 5375,
      "▁ግራት": 5376,
      "▁ገላዉ": 5377,
      "▁ይግብኣ": 5378,
      "▁ኵላ": 5379,
      "▁ክር": 5380,
      "▁ከይተረፈ": 5381,
      "▁እዩ፥": 5382,
      "▁ኣወዳ": 5383,
      "▁ኣመንቲ": 5384,
      "▁ትኸ": 5385,
      "▁ብተመ": 5386,
      "▁ቡን": 5387,
      "▁ሞንጎ": 5388,
      "▁ማያት": 5389,
      "▁መበገ": 5390,
      "▁42": 5391,
      "▁\"ዝ": 5392,
      "ጸናን": 5393,
      "ድስ": 5394,
      "ዝኡ": 5395,
      "ኩም?": 5396,
      "ነበር": 5397,
      "ብዓት": 5398,
      "ሉው": 5399,
      "▁ይፈልጦ": 5400,
      "▁ዓርቢ": 5401,
      "▁ዓን": 5402,
      "▁ኰነ።": 5403,
      "▁ኣሎካ": 5404,
      "▁ብምሕ": 5405,
      "▁በዓ": 5406,
      "▁ቘልዓ": 5407,
      "▁መተ": 5408,
      "▁\"ነቲ": 5409,
      "ግኡ": 5410,
      "ዘርላንድ": 5411,
      "ዓዪ": 5412,
      "ኣስ": 5413,
      "አይ": 5414,
      "ታታ": 5415,
      "በዩ": 5416,
      "ምጽእ": 5417,
      "መርጽ": 5418,
      "ለዋ": 5419,
      "'ዛ": 5420,
      "▁ያዕ": 5421,
      "▁ዝተኸ": 5422,
      "▁ወጋ": 5423,
      "▁ዅነታት": 5424,
      "▁እንስሳታት": 5425,
      "▁ኣገልግሎ": 5426,
      "▁ኣይኣ": 5427,
      "▁ትፈልጦ": 5428,
      "▁ስፖርት": 5429,
      "▁ሰፊሕ": 5430,
      "▁ሰበይትን": 5431,
      "▁መመ": 5432,
      "ዲስ": 5433,
      "ደጋጋሚ": 5434,
      "ማድ": 5435,
      "ህበና": 5436,
      "▁ጸበባ": 5437,
      "▁ዝገለ": 5438,
      "▁ዝወጸ": 5439,
      "▁ዕላ": 5440,
      "▁እንቋዕ": 5441,
      "▁እሙናት": 5442,
      "▁ኢና፣": 5443,
      "▁ኢና!": 5444,
      "▁ብድሆ": 5445,
      "▁ብዝበለ": 5446,
      "▁ብልክዕ": 5447,
      "▁በር": 5448,
      "▁ምስጢ": 5449,
      "▁መዝገብ": 5450,
      "▁2016": 5451,
      "ዎት": 5452,
      "ራዕ": 5453,
      "ሪኡ": 5454,
      "▁ጥቕሲ": 5455,
      "▁ገበርኩም፡": 5456,
      "▁ይጽበ": 5457,
      "▁ዝሓለፉ": 5458,
      "▁ዓርከይ": 5459,
      "▁ወከ": 5460,
      "▁ኽኣ": 5461,
      "▁ከይዱ": 5462,
      "▁ኣይኮኑን።": 5463,
      "▁ኣቤ": 5464,
      "▁ብሩር": 5465,
      "▁ቅል": 5466,
      "▁Read": 5467,
      "▁48": 5468,
      "ፍቅር": 5469,
      "ገዳ": 5470,
      "መልክት": 5471,
      "▁ጥም": 5472,
      "▁ዚገብር": 5473,
      "▁ውዕል": 5474,
      "▁ክገብረ": 5475,
      "▁ኣሕዋቱ": 5476,
      "▁ብዛ": 5477,
      "▁ብዚ": 5478,
      "▁መሪሕነት": 5479,
      "ፈይ": 5480,
      "ኻእለ": 5481,
      "ብርን": 5482,
      "▁ግዚ": 5483,
      "▁ይጸ": 5484,
      "▁ወዘተ": 5485,
      "▁እዩ፧\"": 5486,
      "▁እተወ": 5487,
      "▁ኣይክእልን።": 5488,
      "▁አሎኹ።": 5489,
      "▁ብጥ": 5490,
      "▁ባህርያት": 5491,
      "▁ስምዑ": 5492,
      "▁ምምላስ": 5493,
      "▁መጸ።": 5494,
      "▁መም": 5495,
      "▁more": 5496,
      "ፈርህ": 5497,
      "ገጺ": 5498,
      "ጅም": 5499,
      "ጀካ": 5500,
      "ክልኻል": 5501,
      "ቡኡ": 5502,
      "▁ግብጻ": 5503,
      "▁ዝተመ": 5504,
      "▁ዘብል": 5505,
      "▁ዓስቢ": 5506,
      "▁ኣባኻትኩም": 5507,
      "▁ኣምጺ": 5508,
      "▁ኣሃ": 5509,
      "▁ነፋ": 5510,
      "▁በላዕ": 5511,
      "▁ሰራ": 5512,
      "▁ምኽንያታት": 5513,
      "▁ሓረስ": 5514,
      "▁ላዕለዋይ": 5515,
      "ጻወት": 5516,
      "ገብራ": 5517,
      "ውና": 5518,
      "ክረ": 5519,
      "ንዛ": 5520,
      "ብላዕ": 5521,
      "ስተውዕ": 5522,
      "ሩዕ": 5523,
      "መጸ": 5524,
      "▁ግበሩ": 5525,
      "▁ዘይኣ": 5526,
      "▁ኣድላይ": 5527,
      "▁ኣማራጺ": 5528,
      "▁ኣቀ": 5529,
      "▁ብተደጋጋሚ": 5530,
      "▁ሓንሳእ": 5531,
      "ፎ።": 5532,
      "ዖን": 5533,
      "ነበሩ": 5534,
      "ረግ": 5535,
      "ላሊ": 5536,
      "▁ጠጠው": 5537,
      "▁ደየ": 5538,
      "▁ደሃይ": 5539,
      "▁ዝናብ": 5540,
      "▁ዛዕባ": 5541,
      "▁ኸደ።": 5542,
      "▁ከመ": 5543,
      "▁ኣዒንቶም": 5544,
      "▁ተፈጺሙ": 5545,
      "▁ቛንቋ": 5546,
      "▁መራኸ": 5547,
      "ፈኒ": 5548,
      "ነትን።": 5549,
      "ቶን": 5550,
      "▁ፕሮግራም": 5551,
      "▁ድኻታት": 5552,
      "▁ዕጽ": 5553,
      "▁ክትሕ": 5554,
      "▁ክፋ": 5555,
      "▁ኣውራ": 5556,
      "▁ንቤተ": 5557,
      "▁ንቓ": 5558,
      "▁ስጕ": 5559,
      "▁ሚእታዊት": 5560,
      "▁ሚኢ": 5561,
      "▁መንበር": 5562,
      "▁መሰው": 5563,
      "▁ለበ": 5564,
      "ጠቓል": 5565,
      "ኸት": 5566,
      "በራ።": 5567,
      "ቃለስ": 5568,
      "ም፡": 5569,
      "▁ጠመ": 5570,
      "▁ግዴ": 5571,
      "▁ዝፈጠ": 5572,
      "▁ዝመጻእ": 5573,
      "▁ውድባት": 5574,
      "▁ውላድ": 5575,
      "▁ኣንበሳ": 5576,
      "▁ሞተ።": 5577,
      "▁ምሁ": 5578,
      "▁መበገሲ": 5579,
      "▁ልምዓት": 5580,
      "▁39": 5581,
      "ገደ": 5582,
      "ይሮ": 5583,
      "ውሕ": 5584,
      "ኹን።": 5585,
      "▁ጽኑዕ": 5586,
      "▁ዚስዕብ": 5587,
      "▁ኩባንያ": 5588,
      "▁ከከም": 5589,
      "▁እንድሕር": 5590,
      "▁ኣሸ": 5591,
      "▁ብዝብል": 5592,
      "▁በይነይ": 5593,
      "▁ቀይሕ": 5594,
      "▁ሕድሪ": 5595,
      "▁ሓሰ": 5596,
      "▁ህንጻ": 5597,
      "▁\"ንስኻትኩም": 5598,
      "▁\"ኦ": 5599,
      "▁\"መን": 5600,
      "ኮር": 5601,
      "ቃወ": 5602,
      "ረስዕ": 5603,
      "▁ፕሮጀክት": 5604,
      "▁ጸለ": 5605,
      "▁ይኸውን?": 5606,
      "▁ዝካየድ": 5607,
      "▁ዘሎ፡": 5608,
      "▁ክብለ": 5609,
      "▁ካሊእ": 5610,
      "▁እዝስ": 5611,
      "▁ንገብር": 5612,
      "▁ብተመሳሳሊ": 5613,
      "▁ብሓቂ": 5614,
      "▁ማእኸ": 5615,
      "▁መጋቢት": 5616,
      "▁መምህ": 5617,
      "▁ሓለቓ": 5618,
      "ስሕ": 5619,
      "መኑ": 5620,
      "▁ፍርድ": 5621,
      "▁ገን": 5622,
      "▁ጀጋኑ": 5623,
      "▁ድልየት": 5624,
      "▁እንተኾነ፡": 5625,
      "▁ኣውቶ": 5626,
      "▁ተፈጥ": 5627,
      "▁ተንሲኡ": 5628,
      "▁ብሪጣንያ": 5629,
      "▁ቃሉ": 5630,
      "▁መልክ": 5631,
      "▁ህላ": 5632,
      "▁'እ": 5633,
      "ጦስ": 5634,
      "ውስኽ": 5635,
      "ክእሉ": 5636,
      "id": 5637,
      "▁ጠው": 5638,
      "▁ይስምዓ": 5639,
      "▁ዕድሚ": 5640,
      "▁ዕላል": 5641,
      "▁ኣለኩም።": 5642,
      "▁ታሕሳስ": 5643,
      "▁በጺሑ": 5644,
      "▁ስኢ": 5645,
      "ጀሚ": 5646,
      "ተው": 5647,
      "ብህ": 5648,
      "▁ግንባር": 5649,
      "▁ድሕርዚ": 5650,
      "▁ደብዳበ": 5651,
      "▁ይዓቢ": 5652,
      "▁ካብኣ": 5653,
      "▁ከምት": 5654,
      "▁እንበር": 5655,
      "▁ንኡ": 5656,
      "▁ብምዃኑ": 5657,
      "▁ብኣይ": 5658,
      "▁ባርነት": 5659,
      "▁ቅዋም": 5660,
      "▁መለሰሉ።": 5661,
      "▁\"ንስኻ": 5662,
      "ጀመርታ": 5663,
      "ስለ": 5664,
      "ምም": 5665,
      "▁ዮርዳ": 5666,
      "▁ዩኒቨርሲ": 5667,
      "▁ዓለ": 5668,
      "▁ውዳ": 5669,
      "▁ካብዞም": 5670,
      "▁ኣራዊት": 5671,
      "▁ታቦት": 5672,
      "▁ሰር": 5673,
      "▁ራብ": 5674,
      "▁ህንዲ": 5675,
      "▁'ቲ": 5676,
      "ኣሉ": 5677,
      "ቋር": 5678,
      "ቅድ": 5679,
      "ስፈ": 5680,
      "ሰና": 5681,
      "ምው": 5682,
      "▁ጸን": 5683,
      "▁ወጋሕታ": 5684,
      "▁ክትርኢ": 5685,
      "▁ኣፉ": 5686,
      "▁ኣመስ": 5687,
      "▁ንፈ": 5688,
      "▁ብራ": 5689,
      "▁ቀሪቡ": 5690,
      "▁ርኤ": 5691,
      "▁መሮ": 5692,
      "ፍሉ": 5693,
      "በሎም": 5694,
      "መገዲ": 5695,
      "ሉኡ": 5696,
      "ሉስ": 5697,
      "▁ደቀንስትዮ": 5698,
      "▁ይት": 5699,
      "▁ዝሞተ": 5700,
      "▁ዜድልየ": 5701,
      "▁ኽትከውን": 5702,
      "▁ካብዛ": 5703,
      "▁ነበርቲ": 5704,
      "▁ቍጽሪ": 5705,
      "▁ቅሩብ": 5706,
      "▁ስድራቤት": 5707,
      "▁ሠናይ": 5708,
      "▁ሓይልታት": 5709,
      "▁\"እቶም": 5710,
      "▁\"ገ": 5711,
      "ጥቀመ": 5712,
      "ድዎ": 5713,
      "ደስቲ": 5714,
      "ዘየ": 5715,
      "ውሑ": 5716,
      "ሰማማዕ": 5717,
      "ምቕ": 5718,
      "መስግነካ": 5719,
      "▁ዝተኻየደ": 5720,
      "▁ዘቕ": 5721,
      "▁ዓለምለ": 5722,
      "▁ወብ": 5723,
      "▁ኪመጽእ": 5724,
      "▁ኣፍሊ": 5725,
      "▁ኣይግባእ": 5726,
      "▁ሰቴ": 5727,
      "ጥበብ": 5728,
      "ዘብ": 5729,
      "ንጻሩ": 5730,
      "ረና።": 5731,
      "ልውላው": 5732,
      "ልኹም": 5733,
      "it": 5734,
      "'ዩ፡": 5735,
      "▁ድንግል": 5736,
      "▁ይብሃል": 5737,
      "▁ዘድልዮ": 5738,
      "▁ውሽጣዊ": 5739,
      "▁ክትፈልጥ": 5740,
      "▁ኣቡ": 5741,
      "▁ንኣኻትኩም": 5742,
      "▁ንማ": 5743,
      "▁ተጋዳ": 5744,
      "▁ተገሊጹ": 5745,
      "▁ብጐይታ": 5746,
      "▁ባዕልና": 5747,
      "▁ማሕበረሰብ": 5748,
      "▁ሓቢርና": 5749,
      "▁ሂወ": 5750,
      "▁Me": 5751,
      "▁43": 5752,
      "ገዝእ": 5753,
      "ዋጋ": 5754,
      "ሮንን": 5755,
      "ርትዖ": 5756,
      "ላማዊ": 5757,
      "▁ፍራን": 5758,
      "▁ይእ": 5759,
      "▁ዓርኪ": 5760,
      "▁እንተወ": 5761,
      "▁ኣይከኣልኩን።": 5762,
      "▁ኣልቦ": 5763,
      "▁ንጽብ": 5764,
      "▁ንብዘሎ": 5765,
      "▁ተሰሚዑ": 5766,
      "▁ተመለ": 5767,
      "▁ብከ": 5768,
      "▁በላዕኩም፡": 5769,
      "▁በቃ": 5770,
      "▁ስጕምቲ": 5771,
      "▁ሲኦል": 5772,
      "▁ሰቴኹም፡": 5773,
      "▁ርስ": 5774,
      "▁36": 5775,
      "▁'ዩ።": 5776,
      "ፍጽ": 5777,
      "ዛእቲ": 5778,
      "ኸይድ።": 5779,
      "ቕና": 5780,
      "▁ፍጡር": 5781,
      "▁ጌረ": 5782,
      "▁ካህን": 5783,
      "▁ከይደ": 5784,
      "▁ኣይኮንኩን": 5785,
      "▁አን": 5786,
      "▁ትዝ": 5787,
      "▁ተጋሩ": 5788,
      "▁ተመራ": 5789,
      "▁ብኣኻ": 5790,
      "▁ሕገ": 5791,
      "▁[...": 5792,
      "▁[...]": 5793,
      "▁(ኣብ": 5794,
      "ጋራ": 5795,
      "ድሕኑ": 5796,
      "ዋውያን": 5797,
      "ካኒ": 5798,
      "ተወሰነ": 5799,
      "ረጋግጽ": 5800,
      "መርቲ": 5801,
      "▁ግዳይ": 5802,
      "▁ደቒቕ": 5803,
      "▁ይቀ": 5804,
      "▁የሕ": 5805,
      "▁ዝተሰ": 5806,
      "▁ዝህብ": 5807,
      "▁ዓ/": 5808,
      "▁ክንክን": 5809,
      "▁ኪቐት": 5810,
      "▁ኢኻ፧\"": 5811,
      "▁ንባ": 5812,
      "▁ትእምር": 5813,
      "▁ተበጊ": 5814,
      "▁ቅዳ": 5815,
      "▁ቀትሪ": 5816,
      "▁መራኸቢ": 5817,
      "▁ሕዳር": 5818,
      "ቲት": 5819,
      "በርቲ": 5820,
      "ልባ": 5821,
      "▁ጽሒ": 5822,
      "▁ዝፍለጥ": 5823,
      "▁ዘሎ?": 5824,
      "▁ክትወ": 5825,
      "▁ክልል": 5826,
      "▁ክኣቱ": 5827,
      "▁ኣለኹ\"": 5828,
      "▁ንዝኾነ": 5829,
      "▁ተ.": 5830,
      "▁ብሚ": 5831,
      "▁ምዕራብ": 5832,
      "▁መለስ": 5833,
      "▁2015": 5834,
      "▁198": 5835,
      "ዙሕ": 5836,
      "ስኮ": 5837,
      "▁ይፈልጡ": 5838,
      "▁ይዛረብ።": 5839,
      "▁ይዕ": 5840,
      "▁ዜደንቕ": 5841,
      "▁ኢና፧": 5842,
      "▁ተጻሒፉ": 5843,
      "▁ተዛረብ": 5844,
      "▁ብዘላ": 5845,
      "▁በዛ": 5846,
      "▁ሰሙናት": 5847,
      "▁ምስኦም": 5848,
      "▁ምርዳእ": 5849,
      "▁መርትዖ": 5850,
      "▁(ዮሓ": 5851,
      "▁(ሮ": 5852,
      "ዳዲ": 5853,
      "ርኢ።": 5854,
      "ህልዎ": 5855,
      "▁ዘበ": 5856,
      "▁ኮነ።": 5857,
      "▁እዋን'ዚ": 5858,
      "▁እተዋ": 5859,
      "▁እምብዛ": 5860,
      "▁ኣይሕ": 5861,
      "▁ኣዋጅ": 5862,
      "▁ኣባና": 5863,
      "▁ንጹህ": 5864,
      "▁ንዓኻትኩም": 5865,
      "▁ንምዃኑ": 5866,
      "▁ንካልእ": 5867,
      "▁ተኣሲ": 5868,
      "▁ተባዕትዮ": 5869,
      "▁ሽግ": 5870,
      "▁ሬሳ": 5871,
      "▁ሕርሻ": 5872,
      "▁ሓላፊ": 5873,
      "▁ሓሚ": 5874,
      "▁ህዝብኻ": 5875,
      "ጀመርያ": 5876,
      "ዝያ": 5877,
      "ክርስቲያን": 5878,
      "እቱ": 5879,
      "ትለት": 5880,
      "ራርባ": 5881,
      "መናን": 5882,
      "ለለ": 5883,
      "▁የድል": 5884,
      "▁ዝበዝሐ": 5885,
      "▁ወፃኢ": 5886,
      "▁ክትዕ": 5887,
      "▁እተፈላለየ": 5888,
      "▁እፈልጦ": 5889,
      "▁ኣገደስቲ": 5890,
      "▁ኣሎኒ": 5891,
      "▁ኢኹም?": 5892,
      "▁ነይርና።": 5893,
      "▁ተፈጢ": 5894,
      "▁ባህርያዊ": 5895,
      "▁ምትእ": 5896,
      "▁ሚያ": 5897,
      "▁መቸም": 5898,
      "▁መሰውኢ": 5899,
      "▁መእተ": 5900,
      "▁ሓምለ": 5901,
      "▁80": 5902,
      "ግበር።": 5903,
      "ነታ": 5904,
      "በዝሕ": 5905,
      "ረን።": 5906,
      "at": 5907,
      "▁ግድ": 5908,
      "▁ይቕሬታ": 5909,
      "▁ይገብሩ": 5910,
      "▁ዚቕ": 5911,
      "▁ዘይብ": 5912,
      "▁ዓመተ": 5913,
      "▁ኮይንካ": 5914,
      "▁ክወጽእ": 5915,
      "▁ኣይበ": 5916,
      "▁ኢኻ፧": 5917,
      "▁ንበይኑ": 5918,
      "▁ተኣኪ": 5919,
      "▁ተታ": 5920,
      "▁ብወገነይ": 5921,
      "▁ሳልሰይቲ": 5922,
      "▁ሰሚዐ": 5923,
      "▁ምሽ": 5924,
      "ይሊ": 5925,
      "ዑን": 5926,
      "ዋኽብቲ": 5927,
      "ዋፍ": 5928,
      "ንሱ": 5929,
      "ኃት": 5930,
      "ታትኩም": 5931,
      "ቅር": 5932,
      "ራስ": 5933,
      "ሙሽተ": 5934,
      "▁ይበ": 5935,
      "▁ዝከኣ": 5936,
      "▁ዝሐ": 5937,
      "▁ዓመት፡": 5938,
      "▁ካን": 5939,
      "▁እያ፣": 5940,
      "▁እያ\"": 5941,
      "▁ኣየድል": 5942,
      "▁ኣባኻ": 5943,
      "▁ንውሉ": 5944,
      "▁ስቓይ": 5945,
      "▁1:1": 5946,
      "ግሪ": 5947,
      "ክለ": 5948,
      "ርእያ": 5949,
      "ሕግዘና": 5950,
      "▁ዚብሃል": 5951,
      "▁ዘጸ": 5952,
      "▁እተቐ": 5953,
      "▁ንብዓት": 5954,
      "▁ንክት": 5955,
      "▁ሚኒስተር": 5956,
      "▁\"ደ": 5957,
      "▁\"ሓደ": 5958,
      "ግዚኣብሄር": 5959,
      "ውዒ": 5960,
      "ኦትን": 5961,
      "▁ፈራ": 5962,
      "▁ይግበረ": 5963,
      "▁ዝዀነ፡": 5964,
      "▁ዘሎና።": 5965,
      "▁ዓሠር": 5966,
      "▁እዮብ": 5967,
      "▁እያሱ": 5968,
      "▁ኣባይቲ": 5969,
      "▁ንልዕሊ": 5970,
      "▁ነፋሪት": 5971,
      "▁ተወከ": 5972,
      "▁ተመላለ": 5973,
      "▁ብዛዕባ'ዚ": 5974,
      "▁ቀዳም": 5975,
      "▁ሰዲ": 5976,
      "▁መቕጻዕቲ": 5977,
      "▁ሓደራ": 5978,
      "▁'ኣብ": 5979,
      "ፋር": 5980,
      "ዶ።": 5981,
      "ዶም።": 5982,
      "ዲት": 5983,
      "ኣምላኽ": 5984,
      "▁ጀመሩ።": 5985,
      "▁ዘይኮ": 5986,
      "▁ዘርእስታ": 5987,
      "▁ኸነ": 5988,
      "▁ክትገብሮ": 5989,
      "▁ክትነብር": 5990,
      "▁እየ!": 5991,
      "▁ኣህጉራዊ": 5992,
      "▁ንእስ": 5993,
      "▁ንህዝቡ": 5994,
      "▁ትሽ": 5995,
      "▁ቐሪቡ": 5996,
      "▁ሓባር": 5997,
      "▁\"ኣይ": 5998,
      "፧'": 5999,
      "ያይ": 6000,
      "ዛር": 6001,
      "ቛንቋ": 6002,
      "ሰይጣን": 6003,
      "▁ዮርዳኖስ": 6004,
      "▁ይፍለጥ።": 6005,
      "▁ዚዛረብ": 6006,
      "▁ዓ/ም": 6007,
      "▁ከንቱ": 6008,
      "▁ኣይትፍራህ": 6009,
      "▁ኣቕሪ": 6010,
      "▁በላ": 6011,
      "▁ሰራሕተኛ": 6012,
      "▁መብራህ": 6013,
      "▁ህን": 6014,
      "▁2014": 6015,
      "▁\"ኣቱም": 6016,
      "▁\"ጋ": 6017,
      "ፈለየ": 6018,
      "ፁ።": 6019,
      "ጻም": 6020,
      "ብሊ": 6021,
      "ል፡": 6022,
      "ለይ፡": 6023,
      "ለ፡": 6024,
      "▁ጾር": 6025,
      "▁ጽሩይ": 6026,
      "▁ገሊኣቶም": 6027,
      "▁ዝሰምዕ": 6028,
      "▁ዝርከ": 6029,
      "▁ኣይረኣ": 6030,
      "▁ኣንበብ": 6031,
      "▁ትኽእሉ።": 6032,
      "▁ብጸሎት": 6033,
      "▁በተን": 6034,
      "▁ሞገስ": 6035,
      "▁ሓደሽቲ": 6036,
      "▁ሓዋርያ": 6037,
      "ጽዕ": 6038,
      "ጋን": 6039,
      "ውትን": 6040,
      "ታ፡": 6041,
      "ርከስ": 6042,
      "ሕድሕ": 6043,
      "ሐይ": 6044,
      "ልጠ": 6045,
      "▁ጽል": 6046,
      "▁ዝኣም": 6047,
      "▁ዓመጽ": 6048,
      "▁ኣልኮ": 6049,
      "▁ኣድራ": 6050,
      "▁ንኽልተ": 6051,
      "▁ንሓንቲ": 6052,
      "▁ሰነድ": 6053,
      "▁ሜዳ": 6054,
      "▁ህጹጽ": 6055,
      "ግዚኣብሔር": 6056,
      "ኽልቲ": 6057,
      "ሐን": 6058,
      "▁ጽዮን": 6059,
      "▁ዓይን": 6060,
      "▁ወገናት": 6061,
      "▁ከምታ": 6062,
      "▁እንክ": 6063,
      "▁ቴክኖሎጂ": 6064,
      "▁ብፍጹም": 6065,
      "▁ብፁዕ": 6066,
      "▁ብዘየገድስ": 6067,
      "▁ብሰሪ": 6068,
      "▁ብክርስቶስ": 6069,
      "▁ቅድመ": 6070,
      "▁ስዉ": 6071,
      "▁ሰራዊ": 6072,
      "▁ሓመድ": 6073,
      "▁ሊቀ": 6074,
      "▁44": 6075,
      "▁2.": 6076,
      "ጨረ": 6077,
      "ዱሳት": 6078,
      "ደሙ": 6079,
      "ይይ": 6080,
      "እምማን": 6081,
      "ቅኻ": 6082,
      "ct": 6083,
      "▁ፈጠረ።": 6084,
      "▁ጓሳ": 6085,
      "▁ድሌ": 6086,
      "▁ይገልጽ።": 6087,
      "▁ዩኒቨርሲቲ": 6088,
      "▁ዘይከኣል": 6089,
      "▁ኽፍ": 6090,
      "▁ኮይኑ፡": 6091,
      "▁ኣይደለ": 6092,
      "▁ናይዛ": 6093,
      "▁ብዝምልከት": 6094,
      "▁ብዓይ": 6095,
      "▁ብብዝሒ": 6096,
      "▁ብኹሉ": 6097,
      "▁ቀስ": 6098,
      "▁መሃ": 6099,
      "▁ለመ": 6100,
      "▁2013": 6101,
      "ነት።": 6102,
      "he": 6103,
      "▁ፈተነ": 6104,
      "▁ጸሓፍ": 6105,
      "▁ጭንቀ": 6106,
      "▁ግበር።": 6107,
      "▁ዝወረደ": 6108,
      "▁ዝኽሪ": 6109,
      "▁ዝነበሮም": 6110,
      "▁ውሑድ": 6111,
      "▁ዀይኑ፡": 6112,
      "▁ክትገብሩ": 6113,
      "▁ክፈት": 6114,
      "▁ካብኦም": 6115,
      "▁ከይን": 6116,
      "▁እኳ": 6117,
      "▁ንአምላኽ": 6118,
      "▁ናብኣ": 6119,
      "▁ሽጋራ": 6120,
      "▁ስልጣ": 6121,
      "▁ምክንያቱ": 6122,
      "▁መባእ": 6123,
      "▁ሓቅን": 6124,
      "▁37": 6125,
      "▁(ሮሜ": 6126,
      "ገብሮም": 6127,
      "ገሩ": 6128,
      "የኒ": 6129,
      "ዛይ": 6130,
      "ዋህ": 6131,
      "ቋንቋ": 6132,
      "ቃር": 6133,
      "ርኻ": 6134,
      "ሞም።": 6135,
      "ምልስ": 6136,
      "ሕድ": 6137,
      "▁ጠቓ": 6138,
      "▁ጎረ": 6139,
      "▁ገጽካ": 6140,
      "▁ዝዓቢ": 6141,
      "▁ዝኣዘ": 6142,
      "▁ብቕዓት": 6143,
      "▁ብብር": 6144,
      "▁ባንክ": 6145,
      "▁ሠለስተ": 6146,
      "▁መኽ": 6147,
      "▁(ዘፍ": 6148,
      "ጠቓ": 6149,
      "ጓስ": 6150,
      "ግዘ": 6151,
      "ኣትን": 6152,
      "ሶ።": 6153,
      "መዓልቲ": 6154,
      "ልጋል": 6155,
      "▁ድሓር": 6156,
      "▁እዚኣተን": 6157,
      "▁እንታ": 6158,
      "▁ኣና": 6159,
      "▁ናይ'ዚ": 6160,
      "▁ነፍሰይ": 6161,
      "▁ተላ": 6162,
      "▁ሸነኽ": 6163,
      "▁መናፍ": 6164,
      "▁2019": 6165,
      "ያር": 6166,
      "ሳው": 6167,
      "ረአ": 6168,
      "ህበኒ": 6169,
      "/ር": 6170,
      "▁ፍልይ": 6171,
      "▁ግበረ": 6172,
      "▁ገዛኢ": 6173,
      "▁ጅግና": 6174,
      "▁ዘሎኻ": 6175,
      "▁እትርከብ": 6176,
      "▁እሞ።": 6177,
      "▁ኣይበል": 6178,
      "▁ኢኹም፣": 6179,
      "▁ብምንታይ": 6180,
      "▁በልኩ": 6181,
      "▁ቃልካ": 6182,
      "▁ረኣይ": 6183,
      "▁ሒዞም": 6184,
      "ገበ": 6185,
      "ውድ": 6186,
      "ዋስ": 6187,
      "እመን": 6188,
      "ንፈር": 6189,
      "ትንስ": 6190,
      ":7": 6191,
      "▁ግዝኣት": 6192,
      "▁ይር": 6193,
      "▁ዕድሜ": 6194,
      "▁ኸምቲ": 6195,
      "▁ኮሮና": 6196,
      "▁ኣይኮኑን": 6197,
      "▁ኣውሮጳ": 6198,
      "▁ኣለኻ።": 6199,
      "▁ንቑ": 6200,
      "▁ነበረ፣": 6201,
      "▁ተቐቲ": 6202,
      "▁ተሰሪ": 6203,
      "▁ተሓጒ": 6204,
      "▁ብሓንሳብ": 6205,
      "▁ምእታው": 6206,
      "▁ሕሱ": 6207,
      "▁2ይ": 6208,
      "▁....": 6209,
      "▁(ማቴዎስ": 6210,
      "▁\"እወ": 6211,
      "▁\"ክ": 6212,
      "ፈላለዩ": 6213,
      "ጥታት": 6214,
      "ጐይታይ": 6215,
      "ኮኖ": 6216,
      "ክቲ": 6217,
      "ኔት": 6218,
      "ቦም፡": 6219,
      "ቀር": 6220,
      "ልሚ": 6221,
      "ሉ፣": 6222,
      "ሃህላ": 6223,
      "-መን": 6224,
      "▁ጃፓ": 6225,
      "▁ዓውዲ": 6226,
      "▁ዓሠርተ": 6227,
      "▁ውዒ": 6228,
      "▁ወጺኡ": 6229,
      "▁ክንነብር": 6230,
      "▁ኪብሃል": 6231,
      "▁ከደ።": 6232,
      "▁እኽሊ": 6233,
      "▁ኣይክእሉን": 6234,
      "▁ንዂሉ": 6235,
      "▁ነባሪ": 6236,
      "▁ምስትውዓል": 6237,
      "▁3:1": 6238,
      "▁202": 6239,
      "▁\"ብዛዕባ": 6240,
      "ዎን።": 6241,
      "ነታዊ": 6242,
      "ነቲ": 6243,
      "ት)": 6244,
      "ቓት": 6245,
      "ሩኒ": 6246,
      "al": 6247,
      "▁ደቆም": 6248,
      "▁ይደልዩ": 6249,
      "▁ዝደልዮ": 6250,
      "▁ኸሎ፡": 6251,
      "▁እማ": 6252,
      "▁ኣገልገልቲ": 6253,
      "▁ኣቢሎም": 6254,
      "▁ኣቢለ": 6255,
      "▁ኣኅ": 6256,
      "▁ንጽባ": 6257,
      "▁ንዘል": 6258,
      "▁ንእሽተይ": 6259,
      "▁ንፈልጦ": 6260,
      "▁ነገድ": 6261,
      "▁ርኢና": 6262,
      "▁ምጅ": 6263,
      "▁'ኣነ": 6264,
      "▁\"ንሕና": 6265,
      "ዳ።": 6266,
      "ደበ": 6267,
      "ንግሊዝ": 6268,
      "ርእዮም": 6269,
      "ረጋግ": 6270,
      "ልካ።": 6271,
      "ለኻ": 6272,
      "ic": 6273,
      "-መ": 6274,
      "▁ፈጢ": 6275,
      "▁ይክ": 6276,
      "▁ዝወሃብ": 6277,
      "▁ኤርትራዊ": 6278,
      "▁ኣለኩም": 6279,
      "▁ብእተ": 6280,
      "▁ርእሳ": 6281,
      "▁ራብዓይ": 6282,
      "▁ሞይቶም": 6283,
      "▁መሓዙ": 6284,
      "▁ሓንጎ": 6285,
      "▁60": 6286,
      "ፈርቲ": 6287,
      "ጋንን": 6288,
      "ጉይ": 6289,
      "ውጽ": 6290,
      "ነተይ": 6291,
      "ስራኤላውያን": 6292,
      "ሳተፉ": 6293,
      "ሕግዞም": 6294,
      "ህበኩም": 6295,
      "'ኮ": 6296,
      "▁ግዜን": 6297,
      "▁ዳሕሮት": 6298,
      "▁ይኽእል?": 6299,
      "▁ወዮ": 6300,
      "▁ወሊ": 6301,
      "▁ክብረት": 6302,
      "▁ክርስትና": 6303,
      "▁ከምዘለዎ": 6304,
      "▁እኩይ": 6305,
      "▁አሎና።": 6306,
      "▁ንኣሽቱ": 6307,
      "▁ትዊ": 6308,
      "▁ተሪፉ": 6309,
      "▁ተገዲ": 6310,
      "▁ተር": 6311,
      "▁ቤተሰብ": 6312,
      "▁ስድ": 6313,
      "▁ርእዮም": 6314,
      "▁ምብጻሕ": 6315,
      "▁ሓቀይ": 6316,
      "▁ህዝቡ": 6317,
      "▁(ዮሃንስ": 6318,
      "ጸግ": 6319,
      "ዥን": 6320,
      "ባሽ": 6321,
      "ሮፓ": 6322,
      "ራሪ": 6323,
      "ረትን": 6324,
      "▁ጥንሲ": 6325,
      "▁ይመር": 6326,
      "▁ዩኒቨርስ": 6327,
      "▁ዝገልጽ": 6328,
      "▁ዘገድ": 6329,
      "▁ዓመታዊ": 6330,
      "▁ዓም": 6331,
      "▁ክትዛረብ": 6332,
      "▁ክነግ": 6333,
      "▁ኣይትፈልጥን": 6334,
      "▁አይኮነ": 6335,
      "▁ንሰበይ": 6336,
      "▁ተጋዳላይ": 6337,
      "▁ተሓቢ": 6338,
      "▁ተጀሚ": 6339,
      "▁ተልእ": 6340,
      "▁ብሰይ": 6341,
      "▁በጃኹም": 6342,
      "▁በለ፦": 6343,
      "▁ቁጠባዊ": 6344,
      "▁ቀልጢፉ": 6345,
      "▁ርኹ": 6346,
      "▁ምሥ": 6347,
      "▁መድሃኒት": 6348,
      "▁መንደ": 6349,
      "▁ሓለዋ": 6350,
      "▁ሒዝካ": 6351,
      "ጽሑፍ": 6352,
      "ዳዊ": 6353,
      "ኰኑ": 6354,
      "▁ገሊጹ።": 6355,
      "▁ገብረ": 6356,
      "▁ደረት": 6357,
      "▁ይገል": 6358,
      "▁ዓብይ": 6359,
      "▁ዓገብ": 6360,
      "▁ክንቅ": 6361,
      "▁ክመል": 6362,
      "▁እዮም፧": 6363,
      "▁እንድዩ": 6364,
      "▁እትገብሮ": 6365,
      "▁እምን": 6366,
      "▁ኣድራሻ": 6367,
      "▁ኣኺ": 6368,
      "▁ንስሓ": 6369,
      "▁ንነብር": 6370,
      "▁ነዝ": 6371,
      "▁ትርጕም": 6372,
      "▁ትምኒት": 6373,
      "▁ተመስገን": 6374,
      "▁ተሓጐ": 6375,
      "▁ብሂ": 6376,
      "▁በዓልቲ": 6377,
      "▁መሮር": 6378,
      "ግሶ": 6379,
      "ኣ።": 6380,
      "ኣና": 6381,
      "ሰን።": 6382,
      "ምርዓ": 6383,
      "▁ፍለ": 6384,
      "▁ድር": 6385,
      "▁ይምህ": 6386,
      "▁ዝዀነት": 6387,
      "▁ዝበዝሑ": 6388,
      "▁ወጻእ": 6389,
      "▁ክህብ": 6390,
      "▁ክውን": 6391,
      "▁ኪወ": 6392,
      "▁ኣንፈት": 6393,
      "▁ኢላ።": 6394,
      "▁ነጻነት": 6395,
      "▁ነንሕድሕ": 6396,
      "▁ትኽእ": 6397,
      "▁ተኣከ": 6398,
      "▁ብቕን": 6399,
      "▁ብቑዕ": 6400,
      "▁ብሕል": 6401,
      "▁ሽም": 6402,
      "▁ስራሕቲ": 6403,
      "▁ረኣየ": 6404,
      "▁ረድ": 6405,
      "▁ሚስ": 6406,
      "▁ሓብ": 6407,
      "▁ሃንደበት": 6408,
      "▁70": 6409,
      "ገብርን": 6410,
      "ድማ": 6411,
      "ውጽእ": 6412,
      "ካዊ": 6413,
      "በኩም": 6414,
      "ስቡክ": 6415,
      "ማሚ": 6416,
      "ar": 6417,
      "▁ፍቃ": 6418,
      "▁ፈታዊ": 6419,
      "▁ጋዜጣ": 6420,
      "▁ይነግረ": 6421,
      "▁ዝበጽ": 6422,
      "▁ዝቕጽል": 6423,
      "▁ዓሊ": 6424,
      "▁ከላ": 6425,
      "▁ኣቦኻ": 6426,
      "▁ኣመል": 6427,
      "▁ንዘልኣለም": 6428,
      "▁ንሓቂ": 6429,
      "▁ንኤ": 6430,
      "▁ነዘን": 6431,
      "▁ትብሎ": 6432,
      "▁ተጋደል": 6433,
      "▁ተገረ": 6434,
      "▁ተረዲ": 6435,
      "▁ብኣካል": 6436,
      "▁ሰይፊ": 6437,
      "▁ርእዩ": 6438,
      "▁መለሰሎም።": 6439,
      "ፈጠር": 6440,
      "ፃእ": 6441,
      "ወልደ": 6442,
      "ኛን": 6443,
      "ትን።": 6444,
      "በስ": 6445,
      "ሰስ": 6446,
      "ሖም።": 6447,
      "▁ፍቓደኛ": 6448,
      "▁ጕጅለ": 6449,
      "▁ዝአ": 6450,
      "▁ዝርአ": 6451,
      "▁ዕቤት": 6452,
      "▁ወጸ": 6453,
      "▁ክንዛረብ": 6454,
      "▁ክትከይድ": 6455,
      "▁እከ": 6456,
      "▁ናትኩም": 6457,
      "▁ብሄ": 6458,
      "▁ሰውራ": 6459,
      "▁መጠንቀቕ": 6460,
      "▁መእተዊ": 6461,
      "▁ሕያዋይ": 6462,
      "▁ሃብታ": 6463,
      "▁(አ": 6464,
      "ፈርሁ": 6465,
      "ፈለጠ": 6466,
      "ኩ፣": 6467,
      "ትንስእ": 6468,
      "ትዕ": 6469,
      "ስተን": 6470,
      "ርኪ": 6471,
      "ምን\"": 6472,
      "ላላ": 6473,
      "ለየ": 6474,
      "▁ጎን": 6475,
      "▁ግዴታ": 6476,
      "▁ድሕርዚ፡": 6477,
      "▁ይዛረብ": 6478,
      "▁ዝፈጠረ": 6479,
      "▁ዝነግ": 6480,
      "▁ዝተዓ": 6481,
      "▁ዘየለ": 6482,
      "▁ዘፍር": 6483,
      "▁ክሓልፍ": 6484,
      "▁ከማኻ": 6485,
      "▁ኣገዳስነት": 6486,
      "▁ኣኼባታት": 6487,
      "▁ኣለኹም።": 6488,
      "▁ንበ": 6489,
      "▁ብመልክ": 6490,
      "▁በጊዕ": 6491,
      "▁ምርምር": 6492,
      "▁መንገድ": 6493,
      "▁ሓድሕ": 6494,
      "▁ሊቃ": 6495,
      "ፍቅሮ": 6496,
      "ጓድ": 6497,
      "ድሽተ": 6498,
      "ወሰ": 6499,
      "እንተ": 6500,
      "እምሮ": 6501,
      "አይቲ": 6502,
      "ንጋ": 6503,
      "ተንብ": 6504,
      "ር.": 6505,
      "ረታ": 6506,
      "ምሃብ": 6507,
      "ሓሸ": 6508,
      "ሊኦም": 6509,
      "ሃድም": 6510,
      "▁ጌርካ": 6511,
      "▁ገዛና": 6512,
      "▁ይግብኦ": 6513,
      "▁የግዳ": 6514,
      "▁የብልናን": 6515,
      "▁ውሽጥ": 6516,
      "▁ኴንና": 6517,
      "▁እሱራት": 6518,
      "▁እምባ": 6519,
      "▁ኣይነበር": 6520,
      "▁ኣትሒ": 6521,
      "▁ኣታኽልቲ": 6522,
      "▁ኣረጋጊ": 6523,
      "▁ኢዩ?": 6524,
      "▁ንቕድሚ": 6525,
      "▁ንኻልእ": 6526,
      "▁ተጠንቀ": 6527,
      "▁ብዅሉ": 6528,
      "▁በቶም": 6529,
      "▁ሰብኣይ፡": 6530,
      "▁ምግባ": 6531,
      "▁መኣዲ": 6532,
      "▁ሓጊዙ": 6533,
      "▁ሒዘ": 6534,
      "▁\"ጋኔ": 6535,
      "ፈሉ": 6536,
      "ጸበ": 6537,
      "ጠርና": 6538,
      "ግዝ": 6539,
      "ዳለወ": 6540,
      "ይ፡": 6541,
      "ከተ": 6542,
      "ኣካ": 6543,
      "ናፍ": 6544,
      "ተብ": 6545,
      "ባልነት": 6546,
      "ሰርሖ": 6547,
      "ምብ": 6548,
      "ልብ": 6549,
      "'ዉን": 6550,
      "▁ጠቓሚ": 6551,
      "▁ጎቦ": 6552,
      "▁ገዛይ": 6553,
      "▁ገዳም": 6554,
      "▁ዝኽእል።": 6555,
      "▁ዝለኣኸ": 6556,
      "▁ዝደል": 6557,
      "▁ኺዳን": 6558,
      "▁ክመር": 6559,
      "▁ከምዝነበረ": 6560,
      "▁ንፈር": 6561,
      "▁ተፈሊ": 6562,
      "▁ተኣምር": 6563,
      "▁በሎም፦": 6564,
      "▁ሥልጣን": 6565,
      "▁ማቴዎስ": 6566,
      "▁መንግስትታት": 6567,
      "▁መጹ።": 6568,
      "▁ሕያው": 6569,
      "▁ልቦ": 6570,
      "ፀን": 6571,
      "ዱሽ": 6572,
      "ዖ።": 6573,
      "ን?": 6574,
      "ሓትት።": 6575,
      "ሃሃ": 6576,
      "30": 6577,
      "▁ፍቑ": 6578,
      "▁ግዳያት": 6579,
      "▁ገዝ": 6580,
      "▁ይገብር።": 6581,
      "▁ዝኸውን።": 6582,
      "▁ዝተረፉ": 6583,
      "▁ዘይነበረ": 6584,
      "▁ኸረን": 6585,
      "▁ክንርእዮ": 6586,
      "▁ክህልወና": 6587,
      "▁ኪነግ": 6588,
      "▁እንተዘይኮይኑ": 6589,
      "▁ነበራ።": 6590,
      "▁ተወሲ": 6591,
      "▁ተባሂላ": 6592,
      "▁ተዛረቦ": 6593,
      "▁ብተኣ": 6594,
      "▁ሚሊ": 6595,
      "▁መሕ": 6596,
      "▁ሓም": 6597,
      "▁Cor": 6598,
      "ጊዜ": 6599,
      "ገብሮ።": 6600,
      "ገዱ": 6601,
      "ድቁ": 6602,
      "ዕሶ": 6603,
      "ታተን": 6604,
      "▁ጸዊዑ": 6605,
      "▁ጠንቂ": 6606,
      "▁ግብጻውያን": 6607,
      "▁ዲሞክራሲ": 6608,
      "▁ደልየ": 6609,
      "▁ይግደ": 6610,
      "▁የዕ": 6611,
      "▁ዝሰርሑ": 6612,
      "▁ዕሽነት": 6613,
      "▁ዋይ": 6614,
      "▁ኽንደይ": 6615,
      "▁ኽገብር": 6616,
      "▁ክቐት": 6617,
      "▁ካናዳ": 6618,
      "▁ንፉዕ": 6619,
      "▁ንምብ": 6620,
      "▁ነይሩ፣": 6621,
      "▁ትሰርሕ": 6622,
      "▁ተሳተ": 6623,
      "▁ብነጻ": 6624,
      "▁ብስመይ": 6625,
      "▁ብቛንቋ": 6626,
      "▁በሃ": 6627,
      "▁ቁጠባ": 6628,
      "▁ምሕሳብ": 6629,
      "▁ምሂ": 6630,
      "▁ሕይወትና": 6631,
      "ዝና": 6632,
      "ዕካ": 6633,
      "ኣለማዊ": 6634,
      "▁ጸው": 6635,
      "▁ይነ": 6636,
      "▁ዝመር": 6637,
      "▁ዘፍቀ": 6638,
      "▁ዕለተ": 6639,
      "▁ወሓደ": 6640,
      "▁ወልድ": 6641,
      "▁ዂሎም": 6642,
      "▁ኻብኡ": 6643,
      "▁ኰይነ": 6644,
      "▁ኣካላዊ": 6645,
      "▁ኣድል": 6646,
      "▁ኣሳ": 6647,
      "▁ኒው": 6648,
      "▁ብሩኽ": 6649,
      "▁ብርእ": 6650,
      "▁ምንባ": 6651,
      "▁ምናልባሽ": 6652,
      "▁መጨረ": 6653,
      "▁3.": 6654,
      "▁\"ኣታ": 6655,
      "ፊት": 6656,
      "ጸብ": 6657,
      "ጉም": 6658,
      "ዳምነት": 6659,
      "ዛረቡ።": 6660,
      "ዋ፡": 6661,
      "ዋሕ": 6662,
      "ንድ": 6663,
      "ብድ": 6664,
      "ርኒ": 6665,
      "ራል": 6666,
      "ለመ": 6667,
      "▁ፈጢሩ": 6668,
      "▁ጕድ": 6669,
      "▁ግምቢ": 6670,
      "▁ግፍ": 6671,
      "▁ጀመርኩ።": 6672,
      "▁ጀነ": 6673,
      "▁ደራሲ": 6674,
      "▁ክብሎ": 6675,
      "▁እሞኸ": 6676,
      "▁እሙ": 6677,
      "▁ኣዳራሽ": 6678,
      "▁ኣልኣ": 6679,
      "▁ንዓታቶም": 6680,
      "▁ንመር": 6681,
      "▁ብርታ": 6682,
      "▁ብዘለ": 6683,
      "▁በሎ፡": 6684,
      "▁ስለዘለ": 6685,
      "▁ሕድ": 6686,
      "▁ሓዳ": 6687,
      "▁Corre": 6688,
      "▁Correct": 6689,
      "▁197": 6690,
      "ሊና": 6691,
      "▁ጸቕ": 6692,
      "▁ጠቕ": 6693,
      "▁ዝኣተ": 6694,
      "▁ዝግብኦ": 6695,
      "▁ዘጋጠ": 6696,
      "▁ወስ": 6697,
      "▁ካብኣቶም": 6698,
      "▁ከምዝኽእል": 6699,
      "▁ኣበባ": 6700,
      "▁ኣሕዋትን": 6701,
      "▁ንወለ": 6702,
      "▁ንመጻኢ": 6703,
      "▁ትንሣ": 6704,
      "▁ተቐሚጡ": 6705,
      "▁በለኒ": 6706,
      "▁ቅልውላው": 6707,
      "▁ስግኣት": 6708,
      "▁ምውጻእ": 6709,
      "▁ሓጋዚ": 6710,
      "▁ሓደኳ": 6711,
      "ፕሎ": 6712,
      "ግፍ": 6713,
      "ደረ": 6714,
      "ኩሮ": 6715,
      "ተም": 6716,
      "ብና።": 6717,
      "ቕልጡፍ": 6718,
      "ሆም": 6719,
      "▁ፖሊሲ": 6720,
      "▁ፕሬ": 6721,
      "▁ፋይ": 6722,
      "▁ጥርጣ": 6723,
      "▁የለ": 6724,
      "▁ዓሪ": 6725,
      "▁ክህበካ": 6726,
      "▁ክጅምር": 6727,
      "▁እዚአን": 6728,
      "▁ኣሰራር": 6729,
      "▁ንጎ": 6730,
      "▁ነናብ": 6731,
      "▁ብግብሪ": 6732,
      "▁ህያዋን": 6733,
      "▁41": 6734,
      "ጽሎ": 6735,
      "ጠቐ": 6736,
      "ግድ": 6737,
      "ካን።": 6738,
      "እቶም": 6739,
      "ቶ፡": 6740,
      "ቡዕ": 6741,
      "ሓድሕ": 6742,
      "ሓየ": 6743,
      "ሊኡ": 6744,
      "ህወ": 6745,
      "▁ጽሑፋ": 6746,
      "▁ደሞዝ": 6747,
      "▁የድልየና": 6748,
      "▁ዛጊት": 6749,
      "▁ዚወ": 6750,
      "▁ዓመጻ": 6751,
      "▁እንተደሊ": 6752,
      "▁እነሆ": 6753,
      "▁ንኢየሱስ": 6754,
      "▁ኔረ።": 6755,
      "▁ትሕትና": 6756,
      "▁ብዝተፈላለየ": 6757,
      "▁ስሚ": 6758,
      "▁ርዱእ": 6759,
      "▁መጠንቀቕታ": 6760,
      "▁ሃገረይ": 6761,
      "▁\"ስለምንታይ": 6762,
      "ግበረ": 6763,
      "ያሽ": 6764,
      "ዕዎ": 6765,
      "ውን።": 6766,
      "ስትሪ": 6767,
      "ሰድ።": 6768,
      "ምርምር": 6769,
      "ሎም፡": 6770,
      "ሃቦም": 6771,
      "▁ፍጥረ": 6772,
      "▁ደኺ": 6773,
      "▁ይብለና።": 6774,
      "▁የግዳስ፡": 6775,
      "▁ዝኣመሰሉ": 6776,
      "▁ዝገርም": 6777,
      "▁ዝቑ": 6778,
      "▁ዘለናዮ": 6779,
      "▁ዓባ": 6780,
      "▁ኺድ": 6781,
      "▁ክትሓ": 6782,
      "▁ክሊ": 6783,
      "▁ኣዒንቱ": 6784,
      "▁ንጽብሒቱ": 6785,
      "▁ንጉሥ": 6786,
      "▁ንሎሚ": 6787,
      "▁ኔርካ": 6788,
      "▁ናባና": 6789,
      "▁ትው": 6790,
      "▁ብኢድ": 6791,
      "▁ቆልዑት": 6792,
      "▁ሉቃ": 6793,
      "▁\"እታ": 6794,
      "ከላኸ": 6795,
      "ተ።": 6796,
      "ብዎም": 6797,
      "በልኩም": 6798,
      "በኣር": 6799,
      "ስስ": 6800,
      "ርፍ": 6801,
      "ራታት": 6802,
      "ልናን": 6803,
      "ሃንደበት": 6804,
      "ed": 6805,
      "▁ይበሃል።": 6806,
      "▁ዓራት": 6807,
      "▁ኻህናት": 6808,
      "▁ክሳተ": 6809,
      "▁ከምዝተ": 6810,
      "▁እንዲ": 6811,
      "▁እኒ": 6812,
      "▁ኣንስተይቲ": 6813,
      "▁ተራኺ": 6814,
      "▁ብዝበለጸ": 6815,
      "▁ብሉይ": 6816,
      "▁በለ፡": 6817,
      "▁ሰሙ": 6818,
      "▁ርክ": 6819,
      "▁ርአ": 6820,
      "▁ራእ": 6821,
      "▁መረዳእታ": 6822,
      "▁More": 6823,
      "▁\"ከምቲ": 6824,
      "▁\"እንሆ፡": 6825,
      "▁\"ኵሉ": 6826,
      "ፍንቲ": 6827,
      "ግብአ": 6828,
      "ውታ": 6829,
      "ወስዱ": 6830,
      "አለም": 6831,
      "ንዱ": 6832,
      "ብኩም": 6833,
      "በኒ": 6834,
      "ሽጢ": 6835,
      "ሰ፡": 6836,
      "ርምያስ": 6837,
      "▁ፓርቲ": 6838,
      "▁ጓለይ": 6839,
      "▁ዝተፈልየ": 6840,
      "▁ዝሞቱ": 6841,
      "▁ዚደሊ": 6842,
      "▁ወፈ": 6843,
      "▁ክክክ": 6844,
      "▁እተገብረ": 6845,
      "▁ኣቦታትና": 6846,
      "▁ኣጀ": 6847,
      "▁ኢሳያስ": 6848,
      "▁ኢጣ": 6849,
      "▁ንዓኺ": 6850,
      "▁ንምድ": 6851,
      "▁ብኣንጻሩ": 6852,
      "▁ሳም": 6853,
      "▁\"ሰብ": 6854,
      "ጾም።": 6855,
      "ደረጃ": 6856,
      "ካ?": 6857,
      "ትሮ": 6858,
      "በኽ": 6859,
      "ስራሕ": 6860,
      "ሮም፡": 6861,
      "ረክብ።": 6862,
      "መዓል": 6863,
      "ልምና": 6864,
      "▁ጽብቕቲ": 6865,
      "▁ይነብር።": 6866,
      "▁ይፈት": 6867,
      "▁ይግባ": 6868,
      "▁ዝጠፍ": 6869,
      "▁ውሽጠይ": 6870,
      "▁ክፉት": 6871,
      "▁ክንዳኡ": 6872,
      "▁ክቡራት": 6873,
      "▁ከም'ቲ": 6874,
      "▁እንዶ": 6875,
      "▁ኣውቶቡስ": 6876,
      "▁ኣበርክ": 6877,
      "▁ኣዛ": 6878,
      "▁ተርእዮ": 6879,
      "▁ብደሓን": 6880,
      "▁ብናጻ": 6881,
      "▁ብሓንቲ": 6882,
      "▁ቤታ": 6883,
      "▁ቃንዛ": 6884,
      "▁ምውሳድ": 6885,
      "▁ምሕታት": 6886,
      "▁ሚያዝያ": 6887,
      "▁ሓዲስ": 6888,
      "▁ሓልዮ": 6889,
      "ጽና": 6890,
      "ጹ፡": 6891,
      "ዳሪ": 6892,
      "ዲሙ": 6893,
      "ንበብ": 6894,
      "ቝጸሩ": 6895,
      "ቆጻ": 6896,
      ":8": 6897,
      "▁ጻዕዳ": 6898,
      "▁ጌና": 6899,
      "▁ዝገበሩ": 6900,
      "▁ዝኾና": 6901,
      "▁ዝሰማዕኩምዎ": 6902,
      "▁ዝምልከ": 6903,
      "▁ክካየድ": 6904,
      "▁ከለኹ፡": 6905,
      "▁እዋናዊ": 6906,
      "▁ኣሎኻ": 6907,
      "▁ኣበየ": 6908,
      "▁ኣቋ": 6909,
      "▁ኢኹም፧": 6910,
      "▁ንጓ": 6911,
      "▁ነብስኻ": 6912,
      "▁ነበሮ።": 6913,
      "▁ብዝተኻእለ": 6914,
      "▁ብመንፈ": 6915,
      "▁ምጥቃም": 6916,
      "▁ምትእምማን": 6917,
      "▁ሕሰብ።": 6918,
      "ድኻ": 6919,
      "ውዒት": 6920,
      "እሰይ": 6921,
      "ንሳቶም": 6922,
      "መስል።": 6923,
      "▁ጐይታይ፡": 6924,
      "▁ገምጋም": 6925,
      "▁ዚኸ": 6926,
      "▁ክቕጽል": 6927,
      "▁ከይጸን": 6928,
      "▁ኣይፈለጥ": 6929,
      "▁ኣይፍቀ": 6930,
      "▁ንደቁ": 6931,
      "▁ንቕድሚት": 6932,
      "▁ተጠቐ": 6933,
      "▁ተዛሪቡ።": 6934,
      "▁ብጻይ": 6935,
      "▁ብጀካ": 6936,
      "▁ባንኪ": 6937,
      "▁ምክ": 6938,
      "▁ሙሴን": 6939,
      "▁መዝሙ": 6940,
      "▁መናፍስቲ": 6941,
      "ፉን": 6942,
      "ዶን": 6943,
      "ዝም": 6944,
      "ኻኸ": 6945,
      "ኩዎምን\"": 6946,
      "ብርሃም": 6947,
      "▁ጽቡቕን": 6948,
      "▁ድሒ": 6949,
      "▁ደሊኻ": 6950,
      "▁ይኹን'ምበር": 6951,
      "▁ይመስለካ": 6952,
      "▁የማናይ": 6953,
      "▁ዝገብርዎ": 6954,
      "▁ዝብልዎ": 6955,
      "▁ዘበን": 6956,
      "▁ኪገብር": 6957,
      "▁ኪኸይድ": 6958,
      "▁እንተወሓደ": 6959,
      "▁እምበር።": 6960,
      "▁ኣቦታቶም": 6961,
      "▁ኣቓ": 6962,
      "▁ኣሮንን": 6963,
      "▁ኣሞ": 6964,
      "▁ንርእስኻ": 6965,
      "▁ተኻይ": 6966,
      "▁ብመልክዑ": 6967,
      "▁ብምር": 6968,
      "▁ባር": 6969,
      "▁ቅ.": 6970,
      "▁ሰብኣያ": 6971,
      "▁ረኣኹ": 6972,
      "▁ሄዋን": 6973,
      "▁(ብ": 6974,
      "▁(2)": 6975,
      "ጋስ": 6976,
      "ዓና": 6977,
      "ኮት": 6978,
      "ሳተፍ": 6979,
      "▁ዝኸበር": 6980,
      "▁ዝኮነ": 6981,
      "▁ዝህቦ": 6982,
      "▁ዜግ": 6983,
      "▁ዘይነ": 6984,
      "▁ወረዳ": 6985,
      "▁ክግዙ": 6986,
      "▁ካብ'ዚ": 6987,
      "▁እለይ": 6988,
      "▁ኤልያስ": 6989,
      "▁ኣጽዋር": 6990,
      "▁ኣለኹ፣": 6991,
      "▁ኣተሓ": 6992,
      "▁አይፈጠር": 6993,
      "▁አይፈጠርኩዎምን\"": 6994,
      "▁ንጽባሒቱ": 6995,
      "▁ንስም": 6996,
      "▁ንያ": 6997,
      "▁ትብለ": 6998,
      "▁ተስፋይ": 6999,
      "▁ተዛረበ": 7000,
      "▁ቤተ-": 7001,
      "▁ሞቱ": 7002,
      "▁ሞባይ": 7003,
      "▁ምክት": 7004,
      "▁ማለተይ": 7005,
      "▁መገሻ": 7006,
      "▁(አጋንን": 7007,
      "▁(አጋንንት)": 7008,
      "▁\"ጋኔንን": 7009,
      "▁\"ጋኔንንና": 7010,
      "ወልድ": 7011,
      "ኸውንን": 7012,
      "ርእየካ": 7013,
      "ርፊ": 7014,
      "ሥእ": 7015,
      "ሓጎ": 7016,
      "ላቱ": 7017,
      "ህብ።": 7018,
      "▁ፈለጥ": 7019,
      "▁ጸቕጢ": 7020,
      "▁ወሪዱ": 7021,
      "▁ኽንገብር": 7022,
      "▁እዉን": 7023,
      "▁ኣይረኸብ": 7024,
      "▁ኢለን": 7025,
      "▁ንዘለዓለም": 7026,
      "▁ንዓኹም": 7027,
      "▁ንምግ": 7028,
      "▁ነይረን።": 7029,
      "▁ትኸይድ": 7030,
      "▁ተጠቀ": 7031,
      "▁ተጋደልቲ": 7032,
      "▁ተዋሳ": 7033,
      "▁ተቐመጠ።": 7034,
      "▁ተቖ": 7035,
      "▁ቅብ": 7036,
      "▁ምሳኹም": 7037,
      "▁መጓሰ": 7038,
      "▁ሕጅ": 7039,
      "▁ሊባ": 7040,
      "ጭነቕ": 7041,
      "ውያንን": 7042,
      "ካር": 7043,
      "ከስ": 7044,
      "ብኻ": 7045,
      "በሮምን።": 7046,
      "ቆብን": 7047,
      "ስያዊ": 7048,
      "መስግነ": 7049,
      "ሓስቡ": 7050,
      "ሒት": 7051,
      "ልምን": 7052,
      "▁ፍልጠትን": 7053,
      "▁ጳጳ": 7054,
      "▁ገዚ": 7055,
      "▁ጀሚሮም": 7056,
      "▁ድኽነት": 7057,
      "▁ዲፕሎ": 7058,
      "▁ይርከቡ።": 7059,
      "▁ዝቐረበ": 7060,
      "▁ዝመስል።": 7061,
      "▁ዚገብሮ": 7062,
      "▁ዚስምዓ": 7063,
      "▁ዓድና": 7064,
      "▁ዓለማዊ": 7065,
      "▁ውሉዳት": 7066,
      "▁ክትድ": 7067,
      "▁ከድ": 7068,
      "▁እተጻሕፈ": 7069,
      "▁ኣጽኒ": 7070,
      "▁ኣይንፈልጥን": 7071,
      "▁አቦ": 7072,
      "▁ተዘር": 7073,
      "▁ብሩህ": 7074,
      "▁ብመልክዕ": 7075,
      "▁ብንያ": 7076,
      "▁በሎም፡": 7077,
      "▁ቅድስቲ": 7078,
      "▁መዓሙ": 7079,
      "▁ሓባ": 7080,
      "▁ለኣኸ": 7081,
      "▁\"ወዲ": 7082,
      "ፍረ": 7083,
      "ጠም": 7084,
      "ደዱ፡": 7085,
      "ይሩ።": 7086,
      "ክዎም": 7087,
      "ኩምን።": 7088,
      "ሳሲ": 7089,
      "ራኽ": 7090,
      "ረጽ።": 7091,
      "ማ።": 7092,
      "መቕ": 7093,
      "vi": 7094,
      "▁ጽዋእ": 7095,
      "▁ደብረ": 7096,
      "▁ይደሊ።": 7097,
      "▁የሎን": 7098,
      "▁ዝጽበ": 7099,
      "▁ዚደልዩ": 7100,
      "▁ክረኽቡ": 7101,
      "▁ካርድ": 7102,
      "▁እትኸውን": 7103,
      "▁እኔ": 7104,
      "▁እልል": 7105,
      "▁ኣምላኽ፣": 7106,
      "▁ኣሓትን": 7107,
      "▁ኢዮ": 7108,
      "▁ንድኻታት": 7109,
      "▁ንክርስቶስ": 7110,
      "▁ነይሩኒ።": 7111,
      "▁ብጸጋ": 7112,
      "▁ብምዃ": 7113,
      "▁ቕኑዕ": 7114,
      "▁ቀጸ": 7115,
      "▁ስእል": 7116,
      "▁ምጽሓፍ": 7117,
      "▁ሙስ": 7118,
      "▁መጽሓፍቲ": 7119,
      "▁መጽሔ": 7120,
      "▁መሠ": 7121,
      "ጽጻር": 7122,
      "ወምቲ": 7123,
      "ክዎ።": 7124,
      "ትስ": 7125,
      "ተየ፡": 7126,
      "ተና": 7127,
      "ምርዖ": 7128,
      "መልክት።": 7129,
      "ሕትና": 7130,
      "ሊሉ": 7131,
      "'ሎ": 7132,
      "▁ጽልኢ": 7133,
      "▁ጐደና": 7134,
      "▁ጌጋታት": 7135,
      "▁ደቃ": 7136,
      "▁ዝናም": 7137,
      "▁ዜፍቅ": 7138,
      "▁ዓያ": 7139,
      "▁ወተሃደራዊ": 7140,
      "▁ወሲኹ": 7141,
      "▁ወለደይ": 7142,
      "▁ዀይኖም": 7143,
      "▁ኻልኦት": 7144,
      "▁ክዳውን": 7145,
      "▁እየ፧": 7146,
      "▁ኣቐዲም": 7147,
      "▁ንየ": 7148,
      "▁ነይርዎ።": 7149,
      "▁ተዘራ": 7150,
      "▁ቐረባ": 7151,
      "▁መግዛእቲ": 7152,
      "▁ሓጐ": 7153,
      "▁\"ሕጂ": 7154,
      "ጋፍ": 7155,
      "ዓመታት": 7156,
      "ዒሉ": 7157,
      "ኽእሉን": 7158,
      "ንኩ፡": 7159,
      "ኑይ": 7160,
      "ብዛ": 7161,
      "ቐል": 7162,
      "ቃቐ": 7163,
      "ራቱ": 7164,
      "ምስክር": 7165,
      "ሓሉ": 7166,
      "ልወጥ": 7167,
      "ለስ።": 7168,
      "ለሰ": 7169,
      "▁ደልዩ": 7170,
      "▁ይደል": 7171,
      "▁ያእ": 7172,
      "▁ዝወደ": 7173,
      "▁ዝረኣየ": 7174,
      "▁ዘይክ": 7175,
      "▁ዘለኒ": 7176,
      "▁ዓይነታት": 7177,
      "▁ኺወ": 7178,
      "▁ኩል": 7179,
      "▁ኣይኮነትን።": 7180,
      "▁ኣይነበሮምን።": 7181,
      "▁ንወዲ": 7182,
      "▁ንብል": 7183,
      "▁ነቒ": 7184,
      "▁ትዊተር": 7185,
      "▁ተገይሩ": 7186,
      "▁ተሃ": 7187,
      "▁ብውል": 7188,
      "▁ሰረገ": 7189,
      "▁ረሲኣን": 7190,
      "▁መዳያት": 7191,
      "▁ሕጂ፡": 7192,
      "▁ሕነ": 7193,
      "▁ሕብሪ": 7194,
      "▁2:1": 7195,
      "▁(ኢ": 7196,
      "ያየ": 7197,
      "ያል": 7198,
      "ዩኒ": 7199,
      "ዋሚ": 7200,
      "እዳ": 7201,
      "ኣምኖ": 7202,
      "በጽሑ": 7203,
      "ሳ።": 7204,
      "ሰቲ": 7205,
      "ምዝ": 7206,
      "ሓላለ": 7207,
      "▁ፈሊጠ": 7208,
      "▁ጸጥታ": 7209,
      "▁ጠን": 7210,
      "▁ግብሩ": 7211,
      "▁ገይርካ": 7212,
      "▁ጃልባ": 7213,
      "▁ዶ/ር": 7214,
      "▁ዲኺ": 7215,
      "▁ይኹነ": 7216,
      "▁ይህ": 7217,
      "▁የብለይን": 7218,
      "▁ዝደለዮ": 7219,
      "▁ዜሐጕ": 7220,
      "▁ዚኣክል": 7221,
      "▁ወፍሪ": 7222,
      "▁ከምዙይ": 7223,
      "▁ከን": 7224,
      "▁እምበኣ": 7225,
      "▁ኤፍ": 7226,
      "▁ኣጥፊ": 7227,
      "▁ኣበሃህላ": 7228,
      "▁ኣርብዓ": 7229,
      "▁አረ": 7230,
      "▁ንዝብል": 7231,
      "▁ንዓኣ": 7232,
      "▁ንኺድ": 7233,
      "▁ንፍር": 7234,
      "▁ነዳዲ": 7235,
      "▁ተጠንቀቕ": 7236,
      "▁ተባሂሎም": 7237,
      "▁ተመራመርቲ": 7238,
      "▁ቀን": 7239,
      "▁ምድላይ": 7240,
      "▁ምልእ": 7241,
      "▁ማሕበራት": 7242,
      "▁ማርያ": 7243,
      "▁ሃየ": 7244,
      "ፌሶን": 7245,
      "ፈልጥዎ": 7246,
      "ጠቓልል": 7247,
      "ዎ\"": 7248,
      "ከብ": 7249,
      "እስራኤላውያን": 7250,
      "ቴና": 7251,
      "ሕዱ": 7252,
      "ልኣ": 7253,
      "▁ፍቕርን": 7254,
      "▁ጥራ": 7255,
      "▁ዘመነ": 7256,
      "▁ዕጽፊ": 7257,
      "▁ዕብየት": 7258,
      "▁ኤልሳእ": 7259,
      "▁ኢልኪ": 7260,
      "▁ተገዳ": 7261,
      "▁ተበግሶ": 7262,
      "▁ተመሪ": 7263,
      "▁ተሞ": 7264,
      "▁በዲ": 7265,
      "▁ምብላዕ": 7266,
      "▁መብራህቲ": 7267,
      "▁መጥ": 7268,
      "ግጋጽ": 7269,
      "ውዐ": 7270,
      "ኣማ": 7271,
      "ና!": 7272,
      "ሰያስ": 7273,
      "s:": 7274,
      "▁ግለ": 7275,
      "▁ዮናስ": 7276,
      "▁ይሕሸ": 7277,
      "▁ዝብል።": 7278,
      "▁ዝገብሩ": 7279,
      "▁ዘይብላ": 7280,
      "▁ዘኽ": 7281,
      "▁ዓቅ": 7282,
      "▁ውሽጡ": 7283,
      "▁ወኪ": 7284,
      "▁ክለ": 7285,
      "▁እግዚኣ": 7286,
      "▁ኣይኰንኩ": 7287,
      "▁ኣይተረድ": 7288,
      "▁ኣይፋል": 7289,
      "▁ኣየድልየካን": 7290,
      "▁ኣውራጃ": 7291,
      "▁ኣቐዲመ": 7292,
      "▁ኣሉታዊ": 7293,
      "▁ኣለም": 7294,
      "▁ትሑት": 7295,
      "▁ተሳተፍቲ": 7296,
      "▁ብትዕ": 7297,
      "▁ብስምካ": 7298,
      "▁ባቡር": 7299,
      "▁ስለዝነበረ": 7300,
      "▁ምክልኻል": 7301,
      "▁ማኪና": 7302,
      "▁ሕደ": 7303,
      "▁ሓላዊ": 7304,
      "▁ሓዱሽ": 7305,
      "▁ሃረር": 7306,
      "▁45": 7307,
      "ፍኩም": 7308,
      "ጀው": 7309,
      "ሰካ": 7310,
      "ሕስ": 7311,
      "ላውን": 7312,
      "ke": 7313,
      "▁ጥርጣረ": 7314,
      "▁ድራ": 7315,
      "▁ዘይቅ": 7316,
      "▁ዕድላት": 7317,
      "▁ውራይ": 7318,
      "▁ክትኮኑ": 7319,
      "▁ኤውሮጳዊ": 7320,
      "▁ኣመን": 7321,
      "▁ትምኒ": 7322,
      "▁ተፈጢሩ": 7323,
      "▁ተመለስ።": 7324,
      "▁ብሰይፊ": 7325,
      "▁ሸለል": 7326,
      "▁ስ.": 7327,
      "▁ምእመናን": 7328,
      "▁ምቁ": 7329,
      "▁መጺኡ።": 7330,
      "▁መደም": 7331,
      "▁ሓቢሮም": 7332,
      "▁ሓወ": 7333,
      "▁ለባም": 7334,
      "▁2008": 7335,
      "▁\"ሎሚ": 7336,
      "ወገ": 7337,
      "ዅሪ": 7338,
      "ኩኻ": 7339,
      "ኩሞ": 7340,
      "ኤ።": 7341,
      "ኣየ": 7342,
      "በር።": 7343,
      "በሉ።": 7344,
      "ስተውዕል": 7345,
      "ሪስ": 7346,
      "ምር።": 7347,
      "ent": 7348,
      "▁ፀሓይ": 7349,
      "▁ጸብጻ": 7350,
      "▁ጸረ": 7351,
      "▁ዝግበ": 7352,
      "▁ዝሰዓ": 7353,
      "▁ዘሕዝን": 7354,
      "▁ኸለ": 7355,
      "▁ክንሕ": 7356,
      "▁ኩናት": 7357,
      "▁እዩ፦": 7358,
      "▁እዩ.": 7359,
      "▁እጃ": 7360,
      "▁ኣፍንጫ": 7361,
      "▁ኣይኮንካን": 7362,
      "▁ኣይትረስዕ": 7363,
      "▁ኣዒንተይ": 7364,
      "▁ኣኽብ": 7365,
      "▁ኣምላኽኩም": 7366,
      "▁ኣሎ!": 7367,
      "▁ኢጣልያ": 7368,
      "▁አብቲ": 7369,
      "▁ንመጀመርያ": 7370,
      "▁ንምን": 7371,
      "▁ትንሣኤ": 7372,
      "▁ተጨ": 7373,
      "▁ተስ": 7374,
      "▁ብፍር": 7375,
      "▁ብዛዕባኻ": 7376,
      "▁ብዛዕ": 7377,
      "▁ብኣቦ": 7378,
      "▁ብቐጻሊ": 7379,
      "▁በዳ": 7380,
      "▁ሸይ": 7381,
      "▁ስብከት": 7382,
      "▁ስምዓ": 7383,
      "▁ሰልፍ": 7384,
      "▁ሚኒስትር": 7385,
      "▁መጠን፡": 7386,
      "▁ሓጎ": 7387,
      "▁ሒዛ": 7388,
      "▁ሃደ": 7389,
      "▁2009": 7390,
      "ፈርድ": 7391,
      "ጋር": 7392,
      "ዳል": 7393,
      "ክሲ": 7394,
      "ኒን": 7395,
      "ቸስኮ": 7396,
      "ተባብ": 7397,
      "ቦን": 7398,
      "በ፡": 7399,
      "ቓሕ": 7400,
      "ራይስ": 7401,
      "ሩም": 7402,
      "ሐት": 7403,
      "ህልወና": 7404,
      "▁ጨው": 7405,
      "▁ጨንፈር": 7406,
      "▁ገበነ": 7407,
      "▁ድሙ": 7408,
      "▁ይፈቱ": 7409,
      "▁ይጠፍእ": 7410,
      "▁የማን": 7411,
      "▁ዝነበረ፡": 7412,
      "▁ዝነበረኒ": 7413,
      "▁ዘመናዊ": 7414,
      "▁ክቅ": 7415,
      "▁እዮም?": 7416,
      "▁ኤሳው": 7417,
      "▁ኣይፈልጡን": 7418,
      "▁ኣሎዎ።": 7419,
      "▁ንደሓር": 7420,
      "▁ንሱ፡": 7421,
      "▁ነፍስወከፍ": 7422,
      "▁ነገረ": 7423,
      "▁ነቢያት": 7424,
      "▁ትግራ": 7425,
      "▁ተቘ": 7426,
      "▁ቤቶም": 7427,
      "▁ስለዝኾነ።": 7428,
      "▁ስለዘሎ": 7429,
      "▁ምድላው": 7430,
      "▁ምምሃር": 7431,
      "▁li": 7432,
      "ፋሽ": 7433,
      "ጌጋ": 7434,
      "ይንካ": 7435,
      "ዘ።": 7436,
      "ዕቢ": 7437,
      "ኳኑ": 7438,
      "ታፍ": 7439,
      "ተፈጥ": 7440,
      "ቤል": 7441,
      "ቕርቦ": 7442,
      "ርዳእ": 7443,
      "ራ፡": 7444,
      "ራረብ": 7445,
      "ምጥ": 7446,
      "ሕልፍ": 7447,
      "14": 7448,
      "▁ጎደና": 7449,
      "▁ግጥም": 7450,
      "▁ጃፓን": 7451,
      "▁ዚምልከት": 7452,
      "▁ዘሎን": 7453,
      "▁ዘለኩም": 7454,
      "▁ዘበሉ": 7455,
      "▁ዓደይ": 7456,
      "▁ኵናት": 7457,
      "▁ክንምለስ": 7458,
      "▁ከሎና": 7459,
      "▁እግዝ": 7460,
      "▁ኣይነበሩ": 7461,
      "▁ኣይሰማዕ": 7462,
      "▁ኣካይዳ": 7463,
      "▁ኣለዉ፣": 7464,
      "▁ኢዩ፡": 7465,
      "▁ነሓሰ": 7466,
      "▁ታሪኻዊ": 7467,
      "▁ተኸፊ": 7468,
      "▁ተኽ": 7469,
      "▁ብተኣማንነት": 7470,
      "▁ብስጋ": 7471,
      "▁ብሙሉእ": 7472,
      "▁በበይ": 7473,
      "▁ቀልጢፍካ": 7474,
      "▁ስሩዕ": 7475,
      "▁ርኽ": 7476,
      "▁ሪኢ": 7477,
      "▁ምስላ": 7478,
      "▁መደምደም": 7479,
      "▁መሸፈኒ": 7480,
      "▁ሕጽ": 7481,
      "▁ሕልም": 7482,
      "▁ሓቢሩ።": 7483,
      "▁ለም": 7484,
      "▁ሃቡ": 7485,
      "▁2012": 7486,
      "ጠቅም": 7487,
      "ይ።": 7488,
      "ና\"": 7489,
      "ነብረሉ": 7490,
      "ነቑ": 7491,
      "ቶት": 7492,
      "ቴር": 7493,
      "ታውን": 7494,
      "በዝሑ": 7495,
      "ቆሮ": 7496,
      "ሪክ": 7497,
      "ሃነ": 7498,
      "▁ፍራንቸስኮ": 7499,
      "▁ጋሻ": 7500,
      "▁ጊልያ": 7501,
      "▁ዳሕረ": 7502,
      "▁ይስሃቅ": 7503,
      "▁ዝተፈጸመ": 7504,
      "▁ኴንካ": 7505,
      "▁ክህልወካ": 7506,
      "▁ኣድማ": 7507,
      "▁ኣይከኣሉን።": 7508,
      "▁ኣይተቐ": 7509,
      "▁ኣይደ": 7510,
      "▁ንብጻ": 7511,
      "▁ነገር፡": 7512,
      "▁ነፈርቲ": 7513,
      "▁ትቕ": 7514,
      "▁ተሳት": 7515,
      "▁ብዛዕባይ": 7516,
      "▁ብሰብ": 7517,
      "▁ስርዓተ": 7518,
      "▁መንግሥቲ": 7519,
      "▁ለበዳ": 7520,
      "▁ti": 7521,
      "▁<<": 7522,
      "▁46": 7523,
      "▁'ብ": 7524,
      "፡+": 7525,
      "ጽካ": 7526,
      "ጸን።": 7527,
      "ዱብ": 7528,
      "ውለ": 7529,
      "ተቱ": 7530,
      "ቪዥን": 7531,
      "ስታን": 7532,
      "-መንበር": 7533,
      "▁ፕላ": 7534,
      "▁ጸሎትን": 7535,
      "▁ግጉይ": 7536,
      "▁ድማ።": 7537,
      "▁ድሉው": 7538,
      "▁ደቅኻ": 7539,
      "▁ደቅኹም": 7540,
      "▁ይገልጽ": 7541,
      "▁የፍቅ": 7542,
      "▁ዝሃበና": 7543,
      "▁ዘይሰ": 7544,
      "▁ካልኦትን": 7545,
      "▁ካህ": 7546,
      "▁ኪገብሩ": 7547,
      "▁ኪሰ": 7548,
      "▁እዝኒ": 7549,
      "▁ኣይትረስ": 7550,
      "▁ኢየሩሳሌም": 7551,
      "▁ንሳተን": 7552,
      "▁ንሰይጣን": 7553,
      "▁ኔርና": 7554,
      "▁ነይርዎ": 7555,
      "▁ትንቢ": 7556,
      "▁ተወሰ": 7557,
      "▁ብተወሳኺ": 7558,
      "▁ሰምዑ፡": 7559,
      "▁ምድሪ፡": 7560,
      "▁መድሓኒ": 7561,
      "▁መፂ": 7562,
      "▁መዐ": 7563,
      "▁ለውጥታት": 7564,
      "▁1)": 7565,
      "▁(ሉቃ": 7566,
      "▁\"ተ": 7567,
      "ፈቱ።": 7568,
      "ጠባዊ": 7569,
      "ዓም": 7570,
      "ውዎ": 7571,
      "ኽብሪ": 7572,
      "ንስኻትኩም": 7573,
      "ንኻ": 7574,
      "ንንቲ": 7575,
      "ኔን": 7576,
      "ብራ": 7577,
      "ሰኒ": 7578,
      "ረቕ": 7579,
      "መን።": 7580,
      "ሃንጽ": 7581,
      "-ኣንስትዮ": 7582,
      "▁ጀሚረ": 7583,
      "▁ዲኹም?": 7584,
      "▁ደበና": 7585,
      "▁ይቕረታ": 7586,
      "▁ይሁ": 7587,
      "▁ያዕቆብ": 7588,
      "▁ዝተጸ": 7589,
      "▁ዜጋጥ": 7590,
      "▁ዚስደዱ፡": 7591,
      "▁ዘለወን": 7592,
      "▁ወተሃደራት": 7593,
      "▁እተመ": 7594,
      "▁ኣቕሓ": 7595,
      "▁ንዘለአለም": 7596,
      "▁ነበሩ፡": 7597,
      "▁ተመዝ": 7598,
      "▁ስርዓታት": 7599,
      "▁ስለቲ": 7600,
      "▁ምባ": 7601,
      "▁ሜላ": 7602,
      "▁ሕይወትን": 7603,
      "▁ሕጋ": 7604,
      "▁ላዕ": 7605,
      "▁\"ሰ": 7606,
      "ፍእ": 7607,
      "ጸረ": 7608,
      "ጠራጠር": 7609,
      "ጅመር": 7610,
      "ራቢ": 7611,
      "ረት።": 7612,
      "ማቱ": 7613,
      "ልካ፡": 7614,
      "ላዕለ": 7615,
      "ሃገር": 7616,
      "e:": 7617,
      "▁ደብዳቤ": 7618,
      "▁ይነብሩ": 7619,
      "▁ዝፈጠሮ": 7620,
      "▁ዝተወሰነ": 7621,
      "▁ዜብል": 7622,
      "▁ዓይነይ": 7623,
      "▁ዓለምለኻዊ": 7624,
      "▁ኪብል": 7625,
      "▁ከደ": 7626,
      "▁እግዚኦ": 7627,
      "▁እንተላይ": 7628,
      "▁እናሰ": 7629,
      "▁ንቓል": 7630,
      "▁ነገሮ።": 7631,
      "▁ነይሩ፡": 7632,
      "▁ተዋህቦ": 7633,
      "▁ተቐባልነት": 7634,
      "▁ተመሊሶም": 7635,
      "▁ብዓይኒ": 7636,
      "▁ብርሃነ": 7637,
      "▁ቤትካን": 7638,
      "▁በልኩ።": 7639,
      "▁በርት": 7640,
      "▁ርብ": 7641,
      "▁ምህላው": 7642,
      "▁ምምስ": 7643,
      "▁መፍትሕ": 7644,
      "▁መንጎይን": 7645,
      "▁መሓሪ": 7646,
      "▁መዚ": 7647,
      "▁ሓተቶ።": 7648,
      "ዛረቦም": 7649,
      "ዓዝያ": 7650,
      "ወልዱ": 7651,
      "ኮኖሚ": 7652,
      "ኣሰ": 7653,
      "ርዓት": 7654,
      "ረኽቦ።": 7655,
      "ማሪ": 7656,
      "ሓ።": 7657,
      "ልማት": 7658,
      "ላህ": 7659,
      "ህሉን": 7660,
      "nd": 7661,
      "▁ፈሊጡ": 7662,
      "▁ጸልዩ": 7663,
      "▁ዲኻ፧": 7664,
      "▁ዲያብሎስ": 7665,
      "▁ይሓይሽ።": 7666,
      "▁ዝደልዩ": 7667,
      "▁ዚኽእሉ": 7668,
      "▁ዘኽእል": 7669,
      "▁ኩላቶም": 7670,
      "▁ኣዚና": 7671,
      "▁ኣዕዋፍ": 7672,
      "▁ኣንብብ።": 7673,
      "▁ኣረጊት": 7674,
      "▁ንዮሴፍ": 7675,
      "▁ንዝተ": 7676,
      "▁ንሱውን": 7677,
      "▁ተዓጽ": 7678,
      "▁ተጽ": 7679,
      "▁ተኽሊ": 7680,
      "▁ባህጊ": 7681,
      "▁ስደተኛ": 7682,
      "▁ረድኤት": 7683,
      "▁ምሃ": 7684,
      "▁ሙሴ፡": 7685,
      "▁መዓር": 7686,
      "▁ልኡኽ": 7687,
      "▁90": 7688,
      "ጥሩ": 7689,
      "ጠራጥር": 7690,
      "ጋብ": 7691,
      "ዝራ": 7692,
      "ዕዝ": 7693,
      "ውዑ": 7694,
      "ወንታዊ": 7695,
      "ኪን": 7696,
      "ኣኾ": 7697,
      "ተይ፡": 7698,
      "ሸል": 7699,
      "ራቶም": 7700,
      "ሕልፎ": 7701,
      "ሐፍ": 7702,
      "ous": 7703,
      "10": 7704,
      "▁ዳሕራይ": 7705,
      "▁የጋጥ": 7706,
      "▁ዝነበርና": 7707,
      "▁ወከፎም": 7708,
      "▁ክፋላት": 7709,
      "▁ክጸ": 7710,
      "▁ከምዛ": 7711,
      "▁ንሱ'ውን": 7712,
      "▁ንከ": 7713,
      "▁ተወሊዱ": 7714,
      "▁ብፁዓን": 7715,
      "▁ብእኣ": 7716,
      "▁ስጋዊ": 7717,
      "▁ምትእስሳ": 7718,
      "▁ምዝር": 7719,
      "▁መገዱ": 7720,
      "▁ሊብያ": 7721,
      "▁ለካቲት": 7722,
      "▁ሃይለ": 7723,
      "▁com": 7724,
      "ፈረ": 7725,
      "ጓዓዝ": 7726,
      "ድቃን": 7727,
      "ዳድ": 7728,
      "እንታይ": 7729,
      "ንነት": 7730,
      "ምህሮ": 7731,
      "ምባል": 7732,
      "ሕትት": 7733,
      "ሓድገ": 7734,
      "▁ፍን": 7735,
      "▁ደዊ": 7736,
      "▁ይኣኽ": 7737,
      "▁ዝኣተወ": 7738,
      "▁ዝተፈለየ": 7739,
      "▁ዘድ": 7740,
      "▁ክጸንሕ": 7741,
      "▁ኬንያ": 7742,
      "▁ከቢ": 7743,
      "▁ኣይኰን": 7744,
      "▁ኣወዳት": 7745,
      "▁ኣበሳ": 7746,
      "▁ኣምላኹ": 7747,
      "▁ኣለወን።": 7748,
      "▁አይት": 7749,
      "▁ንኣዳም": 7750,
      "▁ንታ": 7751,
      "▁ተገዳስነት": 7752,
      "▁ተኸታተ": 7753,
      "▁ተማሃሮ": 7754,
      "▁ተጣ": 7755,
      "▁ተአ": 7756,
      "▁ብከመይ": 7757,
      "▁ብንያም": 7758,
      "▁ብልዒ": 7759,
      "▁ስሒ": 7760,
      "▁ሳዕቤን": 7761,
      "▁መስፍን": 7762,
      "ዋዕታ": 7763,
      "ኽሪ": 7764,
      "ካይድ": 7765,
      "ሪኣ": 7766,
      "ማርያም": 7767,
      "ሕግዘኩም": 7768,
      "ሕ።": 7769,
      "ሒዞም": 7770,
      "ለዉ።": 7771,
      "▁ጻውዒት": 7772,
      "▁ግና": 7773,
      "▁ደጋ": 7774,
      "▁ይክእል": 7775,
      "▁ይሰምዕ": 7776,
      "▁ዝጸሓ": 7777,
      "▁ዝበልካዮ": 7778,
      "▁ዝእ": 7779,
      "▁ውጹ": 7780,
      "▁ወይለ": 7781,
      "▁ዀይነ": 7782,
      "▁ክረምቲ": 7783,
      "▁ክህልዎም": 7784,
      "▁ኪው": 7785,
      "▁ከንብ": 7786,
      "▁እንገብሮ": 7787,
      "▁ኣይረ": 7788,
      "▁ኣሎ፧": 7789,
      "▁ንግበር": 7790,
      "▁ተፋ": 7791,
      "▁ብኽብረት": 7792,
      "▁ብርኪ": 7793,
      "▁ብድሕር": 7794,
      "▁ስምዑ።": 7795,
      "▁ስሕ": 7796,
      "▁መደምደምታ": 7797,
      "▁መዋቲ": 7798,
      "▁መናእሰይ": 7799,
      "▁መኸ": 7800,
      "▁ሕሳብ": 7801,
      "▁ሃና": 7802,
      "▁47": 7803,
      "▁\"ንዅሉ": 7804,
      "▁\"ንሱ": 7805,
      "ጥቅ": 7806,
      "ግሥ": 7807,
      "ግል": 7808,
      "ደካ": 7809,
      "ቲን": 7810,
      "ስጋ": 7811,
      "ሰንበት": 7812,
      "ሓሳብ": 7813,
      "ልና፡": 7814,
      "▁ድሓን": 7815,
      "▁ደቅና": 7816,
      "▁ይመስለኩም": 7817,
      "▁ዝተበ": 7818,
      "▁ዝጎ": 7819,
      "▁ኸባቢ": 7820,
      "▁ክኾነ": 7821,
      "▁ክምስ": 7822,
      "▁ከይዲ": 7823,
      "▁እዙ": 7824,
      "▁ኣይትኹ": 7825,
      "▁ኣሓት": 7826,
      "▁ንሰለስተ": 7827,
      "▁ነገርዚ": 7828,
      "▁ነበሮ": 7829,
      "▁ነህ": 7830,
      "▁ትመ": 7831,
      "▁ብ2": 7832,
      "▁ስው": 7833,
      "▁ረኺቡ": 7834,
      "▁ምሳሕ": 7835,
      "▁መንጎኦም": 7836,
      "▁መቕደ": 7837,
      "▁ሊባኖስ": 7838,
      "ግረ": 7839,
      "እታት": 7840,
      "ቆስ": 7841,
      "ስምዖ": 7842,
      "ረኸበ": 7843,
      "ምግላጽ": 7844,
      "መረ": 7845,
      "revi": 7846,
      "ro": 7847,
      "el": 7848,
      "__": 7849,
      "▁ዝወሰ": 7850,
      "▁ዝለኣኸኒ": 7851,
      "▁ዚፍለጥ": 7852,
      "▁ዚግባእ": 7853,
      "▁ዓመታት፡": 7854,
      "▁ዓሌት": 7855,
      "▁ክንከይድ": 7856,
      "▁ክንረክብ": 7857,
      "▁ክሰምዕ": 7858,
      "▁እተጠቕ": 7859,
      "▁ኣጋይሽ": 7860,
      "▁ንርኢ": 7861,
      "▁ንምንታይ": 7862,
      "▁ኔራ።": 7863,
      "▁ነብሱ": 7864,
      "▁ነብሰይ": 7865,
      "▁ብሓጺሩ": 7866,
      "▁ብከም": 7867,
      "▁ስማ": 7868,
      "▁ሳራ": 7869,
      "▁ረኺብና": 7870,
      "▁ምሕደራ": 7871,
      "▁ምርኢ": 7872,
      "▁መደረ": 7873,
      "▁ሓሳባ": 7874,
      "▁\"የሆዋ": 7875,
      "ፈለጡ": 7876,
      "ጻዕ": 7877,
      "ጹን": 7878,
      "ጋሪ": 7879,
      "ደኒ": 7880,
      "ዓዙ": 7881,
      "ኑዓት": 7882,
      "ሳር": 7883,
      "ራኸቡ": 7884,
      "ልኡ": 7885,
      "ህልወካ": 7886,
      "▁ጥዑይ": 7887,
      "▁ጥበበኛታት": 7888,
      "▁ጠቒ": 7889,
      "▁ጓኖት": 7890,
      "▁ጓና": 7891,
      "▁ግዜና": 7892,
      "▁ግዳም": 7893,
      "▁ድምጽ": 7894,
      "▁ድማ፥": 7895,
      "▁ይመስል": 7896,
      "▁ይኣም": 7897,
      "▁ያእቆብን": 7898,
      "▁ዝገደደ": 7899,
      "▁ዝህ": 7900,
      "▁ዚጽ": 7901,
      "▁ዘይወ": 7902,
      "▁ውሳነታት": 7903,
      "▁ወግዓዊ": 7904,
      "▁ክትመ": 7905,
      "▁ክህቦ": 7906,
      "▁ክስዕ": 7907,
      "▁ክሲ": 7908,
      "▁ክምል": 7909,
      "▁ኪነብሩ": 7910,
      "▁እየ፣+": 7911,
      "▁እንግሊዝኛ": 7912,
      "▁እካ": 7913,
      "▁ኣብዝ": 7914,
      "▁ኣሕመድ": 7915,
      "▁ኣሎኹ፡": 7916,
      "▁ኣሰር": 7917,
      "▁ንርእሰይ": 7918,
      "▁ነይሩ\"": 7919,
      "▁ነሩ።": 7920,
      "▁ብድሕ": 7921,
      "▁ሰምዐ": 7922,
      "▁ሰሜ": 7923,
      "▁ረኣየ።": 7924,
      "▁ምሳኺ": 7925,
      "▁መበለት": 7926,
      "▁ሐደ": 7927,
      "▁(መ": 7928,
      "ጻወቱ": 7929,
      "የናይ": 7930,
      "ዐኛ": 7931,
      "ኣ፡": 7932,
      "ን!": 7933,
      "በለት": 7934,
      "ቕበል": 7935,
      "ርበት": 7936,
      "ረኽባ": 7937,
      "ምጽኣ": 7938,
      "ሙኒ": 7939,
      "መጀመርታ": 7940,
      "ሊን": 7941,
      "▁ጸላእቲ": 7942,
      "▁ጋዜጠኛ": 7943,
      "▁የብላን።": 7944,
      "▁ዝፍጸም": 7945,
      "▁ዝድለ": 7946,
      "▁ዝሓተ": 7947,
      "▁ዘገል": 7948,
      "▁ክኸዉን": 7949,
      "▁ክትኰኑ": 7950,
      "▁ክብርን": 7951,
      "▁እግሩ": 7952,
      "▁እዩ፣+": 7953,
      "▁ኣይደል": 7954,
      "▁ኣዘራርባ": 7955,
      "▁ኣውጽ": 7956,
      "▁ኣብሊ": 7957,
      "▁ኣወንታዊ": 7958,
      "▁ኣታዊ": 7959,
      "▁ንኡስ": 7960,
      "▁ንመጽሓፍ": 7961,
      "▁ንይ": 7962,
      "▁ትርኢት": 7963,
      "▁ብገዛእ": 7964,
      "▁ብሚልዮናት": 7965,
      "▁ብትን": 7966,
      "▁ሳይ": 7967,
      "▁ሰኣን": 7968,
      "▁ምርኻብ": 7969,
      "▁መነባብ": 7970,
      "▁ሕማቅ": 7971,
      "▁ሓቢሩ": 7972,
      "▁ሓዘ": 7973,
      "▁ልኡኻት": 7974,
      "▁ህው": 7975,
      "▁ሃይማኖታዊ": 7976,
      "▁\"ኢ": 7977,
      "ዚኣቶም": 7978,
      "ኖን": 7979,
      "በልጽ": 7980,
      "ራቅ": 7981,
      "መዓልቱ": 7982,
      "ሓቱ": 7983,
      "ሓል": 7984,
      "ሎ፡": 7985,
      "ልጥ": 7986,
      "ሀብ": 7987,
      "revious": 7988,
      "▁ፈጺመ": 7989,
      "▁ፈው": 7990,
      "▁ጭንቀት": 7991,
      "▁ጥራይ'ዩ": 7992,
      "▁ጕዕዞ": 7993,
      "▁ገሊላ": 7994,
      "▁ጆን": 7995,
      "▁ደፊ": 7996,
      "▁ዝበሎም": 7997,
      "▁ዓለም፡": 7998,
      "▁ዓጽ": 7999,
      "▁ክኾ": 8000,
      "▁ካባታቶም": 8001,
      "▁እየ፤": 8002,
      "▁እትደሊ": 8003,
      "▁እተፈልየ": 8004,
      "▁እር": 8005,
      "▁ኣይሁዳ": 8006,
      "▁ኣዕሩ": 8007,
      "▁ኣንጻ": 8008,
      "▁ኣመሓ": 8009,
      "▁ኢህወ": 8010,
      "▁ንሱስ": 8011,
      "▁ንገር": 8012,
      "▁ትኽእሊ": 8013,
      "▁ትእምርቲ": 8014,
      "▁ተፈጸመ": 8015,
      "▁ተጓዒ": 8016,
      "▁ተሳትፎ": 8017,
      "▁ብኣቦ-መንበር": 8018,
      "▁በዅሪ": 8019,
      "▁ቃለይ": 8020,
      "▁ስለዝኾ": 8021,
      "▁ሰኣ": 8022,
      "▁ምትእስሳር": 8023,
      "▁መጺአ": 8024,
      "▁ልቦና": 8025,
      "▁ልኢ": 8026,
      "▁ሃብትን": 8027,
      "▁Tag": 8028,
      "▁(ኤ": 8029,
      "▁'ካብ": 8030,
      "▁\"ኣብዚ": 8031,
      "ፍረት": 8032,
      "ጀት": 8033,
      "ይብ": 8034,
      "የና": 8035,
      "ኣተ": 8036,
      "አር": 8037,
      "ንዚ": 8038,
      "ቐደ": 8039,
      "ሳቐስ": 8040,
      "ርና።": 8041,
      "ሞክራስያዊ": 8042,
      "ማዕረ": 8043,
      "ለምቲ": 8044,
      "ሃቢ": 8045,
      "ch": 8046,
      "▁ይኹን፡": 8047,
      "▁ይሁዳን": 8048,
      "▁ዘይዕ": 8049,
      "▁ዕማም": 8050,
      "▁ውሽጥና": 8051,
      "▁ውፅ": 8052,
      "▁ክኸዱ": 8053,
      "▁ኪሕ": 8054,
      "▁ከድልየ": 8055,
      "▁እገብር": 8056,
      "▁ኣጀንዳ": 8057,
      "▁ኣይግባእን።": 8058,
      "▁ኣእዛ": 8059,
      "▁ንደቅ": 8060,
      "▁ንሽዑ": 8061,
      "▁ነበርና።": 8062,
      "▁ተጽሒፉ": 8063,
      "▁ተጠቃ": 8064,
      "▁ብምሉኡ": 8065,
      "▁ቅትለት": 8066,
      "▁ቅቡል": 8067,
      "▁ምርመራ": 8068,
      "▁ምምጻእ": 8069,
      "▁ሕማማት": 8070,
      "▁ሓባራዊ": 8071,
      "▁ሓለፍቲ": 8072,
      "▁ልዕሊኦም": 8073,
      "▁1ይ": 8074,
      "ፍሕ": 8075,
      "ጽልዩ": 8076,
      "ይል": 8077,
      "ና?": 8078,
      "ተግባር": 8079,
      "ህዋ": 8080,
      "tion": 8081,
      ":5": 8082,
      "--": 8083,
      "▁ፍሬ": 8084,
      "▁ገይራ": 8085,
      "▁ይግበኣ": 8086,
      "▁ዘስ": 8087,
      "▁ክንዝ": 8088,
      "▁ክትፈልጡ": 8089,
      "▁ክኽእል": 8090,
      "▁ክበጽሕ": 8091,
      "▁ኩዕሶ": 8092,
      "▁እተፈ": 8093,
      "▁ኤርምያስ": 8094,
      "▁ኣጋንንቲ": 8095,
      "▁ኣንስትን": 8096,
      "▁ኣለኹ፡": 8097,
      "▁ኣቃ": 8098,
      "▁ንምርኣይ": 8099,
      "▁ትሽዓተ": 8100,
      "▁ተባዕታይ": 8101,
      "▁ተሓታቲ": 8102,
      "▁ብዙኃት": 8103,
      "▁ብውሕዱ": 8104,
      "▁ብዓልቲ": 8105,
      "▁ቤትና": 8106,
      "▁በለስ": 8107,
      "▁ቁፅ": 8108,
      "▁ሲሶ": 8109,
      "▁ሰማይ": 8110,
      "▁ረስ": 8111,
      "▁ምሕረቱ": 8112,
      "▁መጽሓ": 8113,
      "▁መወዳእታኡ": 8114,
      "▁መሲሕ": 8115,
      "▁መርገም": 8116,
      "▁ሌዋውያን": 8117,
      "▁say": 8118,
      "▁196": 8119,
      "▁(1)": 8120,
      "ፍተ": 8121,
      "ጭት": 8122,
      "ዶምን": 8123,
      "ድዩ": 8124,
      "ክልቲ": 8125,
      "ነር": 8126,
      "ባባ": 8127,
      "ቡጥ": 8128,
      "ቕኩም": 8129,
      "ቃዕ": 8130,
      "ሽታ": 8131,
      "ማህ": 8132,
      "ሒታት": 8133,
      "ልጣ": 8134,
      "is": 8135,
      "▁ግሪኽ": 8136,
      "▁ደጊመ": 8137,
      "▁ይገብረ": 8138,
      "▁ዝፋን": 8139,
      "▁ዚህበኒ": 8140,
      "▁እትነብር": 8141,
      "▁ኣፍሪካ": 8142,
      "▁ኣይኮነን፡": 8143,
      "▁ኣይከኣልን": 8144,
      "▁ኣይጸ": 8145,
      "▁ኣይቀ": 8146,
      "▁ኣውስትራልያ": 8147,
      "▁ኣብርሃምን": 8148,
      "▁ኣቡነ": 8149,
      "▁ኣስዒ": 8150,
      "▁ኣሕዋተየ፡": 8151,
      "▁ንምሉእ": 8152,
      "▁ንሓድሕድና": 8153,
      "▁ንዛረብ": 8154,
      "▁ተዛሪበ": 8155,
      "▁ተመሊሰ": 8156,
      "▁ብኽልተ": 8157,
      "▁በጺሕ": 8158,
      "▁ቕዱሳት": 8159,
      "▁ስድራይ": 8160,
      "▁ሰዓብ": 8161,
      "▁ሰሚዑ": 8162,
      "▁ረኸብ": 8163,
      "▁ምድረ": 8164,
      "▁ምጉ": 8165,
      "▁ምትካ": 8166,
      "▁መለኸት": 8167,
      "▁መሬ": 8168,
      "▁ሉቃስ": 8169,
      "▁2011": 8170,
      "▁'ኳ": 8171,
      "ፃን": 8172,
      "ግሕ": 8173,
      "የማ": 8174,
      "የሉ": 8175,
      "ኮታዊ": 8176,
      "ናቱ": 8177,
      "ሪካን": 8178,
      "ሪኦ": 8179,
      "ሩና": 8180,
      "ላለስ": 8181,
      "ላድ": 8182,
      "-ወከፍ": 8183,
      "▁ጲላ": 8184,
      "▁ጥምቀት": 8185,
      "▁ግርም": 8186,
      "▁ገይርና": 8187,
      "▁ገድሊ": 8188,
      "▁ጀርመን": 8189,
      "▁ዮናታን": 8190,
      "▁ይዝከ": 8191,
      "▁ዝገብር።": 8192,
      "▁ዚመስል": 8193,
      "▁ዘመናት": 8194,
      "▁ዘጋጥም": 8195,
      "▁ወሲዶም": 8196,
      "▁ኽትገብር": 8197,
      "▁ክንፈልጥ": 8198,
      "▁ክንዕ": 8199,
      "▁ከሎኻ": 8200,
      "▁እናበልና": 8201,
      "▁ኣይትፍራህ።": 8202,
      "▁ኣይሂ": 8203,
      "▁ኣኪ": 8204,
      "▁አዚ": 8205,
      "▁ነብሲ": 8206,
      "▁ትኾኑ": 8207,
      "▁ትሓስብ": 8208,
      "▁ተረኺቡ": 8209,
      "▁ባዶ": 8210,
      "▁ቀልጢፈ": 8211,
      "▁ሽልማት": 8212,
      "▁ስቅ": 8213,
      "▁ሰደ": 8214,
      "▁ምሩ": 8215,
      "▁መንግስቱ": 8216,
      "▁መሳፍንቲ": 8217,
      "▁ሓሳዊ": 8218,
      "▁ልምዲ": 8219,
      "ፎም።": 8220,
      "ፍልጠ": 8221,
      "ጽሓ": 8222,
      "ጋሕ": 8223,
      "ንካ፡": 8224,
      "ብሃ": 8225,
      "በልዎ": 8226,
      "ስምዕ": 8227,
      "ሳሰል": 8228,
      "መንቲ": 8229,
      "ልዮም": 8230,
      "ላሴ": 8231,
      "ሊስ": 8232,
      "▁ፍጥረታት": 8233,
      "▁ጠለብ": 8234,
      "▁ግቡ": 8235,
      "▁ደርብ": 8236,
      "▁ይወስ": 8237,
      "▁ዝኣምን": 8238,
      "▁ዝተዋህበ": 8239,
      "▁ዘድል": 8240,
      "▁ኺብሃል": 8241,
      "▁ኰይና": 8242,
      "▁ከምዘየ": 8243,
      "▁ኢካ": 8244,
      "▁ንኸውን።": 8245,
      "▁ነፍሲወከፍ": 8246,
      "▁ትርከብ።": 8247,
      "▁ታሪክ": 8248,
      "▁ተቐመጡ።": 8249,
      "▁ተሰዊ": 8250,
      "▁ባህላዊ": 8251,
      "▁ስእልታት": 8252,
      "▁ሎሚ፡": 8253,
      "▁ህዝባ": 8254,
      "ጽንዕ": 8255,
      "ጸድቕ": 8256,
      "ዘኒ": 8257,
      "ዓካ": 8258,
      "ኒ!": 8259,
      "ረክ": 8260,
      "ሚት": 8261,
      "መሰረ": 8262,
      "ሕብባር": 8263,
      "ሃነም": 8264,
      "▁ፍጻመታት": 8265,
      "▁ፍቃድ": 8266,
      "▁ገረብ": 8267,
      "▁ዲፕሎማ": 8268,
      "▁ይዛረቡ": 8269,
      "▁ይሓስብ": 8270,
      "▁ይሃብ": 8271,
      "▁ዝተጠቕ": 8272,
      "▁ዚገብሩ": 8273,
      "▁ዓብይን": 8274,
      "▁ወታ": 8275,
      "▁ክርከብ": 8276,
      "▁እውን።": 8277,
      "▁ኤረ": 8278,
      "▁ኣእዋም": 8279,
      "▁ኣእት": 8280,
      "▁ኣያ": 8281,
      "▁ንምፍ": 8282,
      "▁ንምዝ": 8283,
      "▁ንኸይ": 8284,
      "▁ነበረት": 8285,
      "▁ትብዓት": 8286,
      "▁ቢቢ": 8287,
      "▁ቀዳምነት": 8288,
      "▁ሰላማዊ": 8289,
      "▁ርባ": 8290,
      "▁ምድራዊ": 8291,
      "▁ሚእትን": 8292,
      "▁መንደቕ": 8293,
      "▁1:2": 8294,
      "▁\"ነዚ": 8295,
      "ፖር": 8296,
      "ጸባር": 8297,
      "ጠቀ": 8298,
      "ዳኢ": 8299,
      "ደሎ": 8300,
      "ያድ": 8301,
      "ውጽኣ": 8302,
      "ወካ": 8303,
      "ዀኑ።": 8304,
      "ትራ": 8305,
      "ሶም።": 8306,
      "ሮ፡": 8307,
      "ሮስ": 8308,
      "ርዎ።": 8309,
      "ረድእ": 8310,
      "ምእታው": 8311,
      "ልናዮ": 8312,
      "ላይን": 8313,
      "▁ፌስቡክ": 8314,
      "▁ገጸይ": 8315,
      "▁ድሕረ": 8316,
      "▁ደሴት": 8317,
      "▁ዝዓይ": 8318,
      "▁ዝነበርካ": 8319,
      "▁ዘልኣለም": 8320,
      "▁ዘለዓ": 8321,
      "▁ዕርቂ": 8322,
      "▁ዄንካ፡": 8323,
      "▁ክትመጽእ": 8324,
      "▁ኪመ": 8325,
      "▁ከውሒ": 8326,
      "▁እንድዒ": 8327,
      "▁እንተይ": 8328,
      "▁እብራይስ": 8329,
      "▁ኣይኰኑን።": 8330,
      "▁ኣይፈልጥ": 8331,
      "▁ኣምባ": 8332,
      "▁ኣሕዛብ": 8333,
      "▁ኣሶ": 8334,
      "▁አቲ": 8335,
      "▁ናብዛ": 8336,
      "▁ነይሩ?": 8337,
      "▁ኃይሊ": 8338,
      "▁ትራ": 8339,
      "▁ተጠቀምቲ": 8340,
      "▁ተሰማሚ": 8341,
      "▁ብዂ": 8342,
      "▁ቀቅድሚ": 8343,
      "▁ስዊዘርላንድ": 8344,
      "▁ስለምንታይከ": 8345,
      "▁ሱር": 8346,
      "▁ረቡዕ": 8347,
      "▁ምቕራብ": 8348,
      "▁መወዳእታ፡": 8349,
      "▁2021": 8350,
      "ፍዎ": 8351,
      "ፋፍ": 8352,
      "ፅል": 8353,
      "ጊቡ": 8354,
      "ድመ": 8355,
      "የካ": 8356,
      "ዙሓት": 8357,
      "ዘዙ": 8358,
      "ኽእላ": 8359,
      "ኻእ": 8360,
      "ንኪ": 8361,
      "በርት": 8362,
      "ቀኒ": 8363,
      "ሰምዖም": 8364,
      "ርሕቕ": 8365,
      "መም": 8366,
      "ሓቅ": 8367,
      "ልናን።": 8368,
      "ልከ": 8369,
      "-3": 8370,
      "'ሲ": 8371,
      "▁ጸጋማይ": 8372,
      "▁ጸኒሑ።": 8373,
      "▁ጭር": 8374,
      "▁ጌሮም": 8375,
      "▁ይውስኽ": 8376,
      "▁የመልክት።": 8377,
      "▁ዝደለየ": 8378,
      "▁ዝረኸብ": 8379,
      "▁ዝግብኣ": 8380,
      "▁ዝቖ": 8381,
      "▁ዚገብርዎ": 8382,
      "▁ዓበይ": 8383,
      "▁ወይ'ውን": 8384,
      "▁ወጸ።": 8385,
      "▁ክሰርሑ": 8386,
      "▁ኪነብር": 8387,
      "▁ከባቢታት": 8388,
      "▁እንነብር": 8389,
      "▁እተዛረቦ": 8390,
      "▁እምበኣርከስ": 8391,
      "▁እምነቶም": 8392,
      "▁ኤር": 8393,
      "▁ኣይኮናን": 8394,
      "▁ኣይትጨ": 8395,
      "▁ኣይሞ": 8396,
      "▁ኣሻ": 8397,
      "▁ኢኮኖሚ": 8398,
      "▁ንሓው": 8399,
      "▁ናት": 8400,
      "▁ተሐ": 8401,
      "▁ቤተክርስቲያን": 8402,
      "▁ርክባት": 8403,
      "▁ምርኮ": 8404,
      "▁ሕታም": 8405,
      "ፈና": 8406,
      "ጽል።": 8407,
      "ዛረበሉ": 8408,
      "ነግር": 8409,
      "በጽሖ": 8410,
      "ርታት": 8411,
      "ረኽበሉ": 8412,
      "ሕልዉ": 8413,
      "ሑን": 8414,
      "ome": 8415,
      "▁ጽንዓት": 8416,
      "▁ጸሓፊ": 8417,
      "▁ጫፍ": 8418,
      "▁ጥበ": 8419,
      "▁ጎይታይ": 8420,
      "▁ይብሃል።": 8421,
      "▁የልቦን፡": 8422,
      "▁ዝጀመረ": 8423,
      "▁ዝዓይነቱ": 8424,
      "▁ዝኸኣለ": 8425,
      "▁ዝተሓተ": 8426,
      "▁ዝመሰ": 8427,
      "▁ዓወ": 8428,
      "▁ኺብሎም": 8429,
      "▁ክንሰርሕ": 8430,
      "▁ክገልጽ": 8431,
      "▁ኦሪት": 8432,
      "▁እዋይ": 8433,
      "▁ኣድሒ": 8434,
      "▁ኣስማት": 8435,
      "▁ኣለዉ፡": 8436,
      "▁ኣሲ": 8437,
      "▁ትፈልጥዎ": 8438,
      "▁ብሕታዊ": 8439,
      "▁ሳይት": 8440,
      "▁ሚሊዮን": 8441,
      "▁ሓጥኣን": 8442,
      "▁ሓረስታይ": 8443,
      "ጸሉ": 8444,
      "ይወተይ": 8445,
      "ኻውን": 8446,
      "ኸ?": 8447,
      "ንቀፍ": 8448,
      "ናዊት": 8449,
      "ቒዱ": 8450,
      "ቃለ": 8451,
      "ቀስ": 8452,
      "ረዳ": 8453,
      "መስግኖ": 8454,
      "ልካን": 8455,
      "ልያት": 8456,
      "ልዕል": 8457,
      "▁ፈተውቲ": 8458,
      "▁ፈተው": 8459,
      "▁ጭፍራ": 8460,
      "▁ዝበለት": 8461,
      "▁ዜግነት": 8462,
      "▁ዚኣምኑ": 8463,
      "▁ዘይከውን": 8464,
      "▁ዘካ": 8465,
      "▁ዓዱ": 8466,
      "▁ዓማ": 8467,
      "▁ውሰ": 8468,
      "▁ክፍጸም": 8469,
      "▁ካሕ": 8470,
      "▁እንክብሉ": 8471,
      "▁እናኣ": 8472,
      "▁እኸይድ": 8473,
      "▁ንሰማ": 8474,
      "▁ትመጽእ": 8475,
      "▁ተመልሱ።": 8476,
      "▁ብዛዕባና": 8477,
      "▁ብኃ": 8478,
      "▁ቁጽ": 8479,
      "▁ምጽንና": 8480,
      "▁ሕጻናት": 8481,
      "▁ሓፋሽ": 8482,
      "▁ሒዝና": 8483,
      "▁ሃቦ።": 8484,
      "▁Previous": 8485,
      "▁(ለ": 8486,
      "▁(3": 8487,
      "▁\"ና": 8488,
      "ፈጥር": 8489,
      "ጐድ": 8490,
      "ዓመቱ": 8491,
      "ኽብሮ": 8492,
      "ኹም?": 8493,
      "ክር።": 8494,
      "ክም": 8495,
      "አል": 8496,
      "ንና፡": 8497,
      "es": 8498,
      "▁ፕረሲ": 8499,
      "▁ጢሞ": 8500,
      "▁ድዮም?": 8501,
      "▁ይኽእሉ": 8502,
      "▁ዝፋ": 8503,
      "▁ዘፍጥረት": 8504,
      "▁ዘሎዎ": 8505,
      "▁ዘሰ": 8506,
      "▁ዓውደ": 8507,
      "▁ዓዋ": 8508,
      "▁ዋላ'ኳ": 8509,
      "▁ኸይት": 8510,
      "▁ኲላቶም": 8511,
      "▁ከብዲ": 8512,
      "▁እያ፧": 8513,
      "▁እንድሕሪ": 8514,
      "▁ኣይትግ": 8515,
      "▁ኣይትኽእሉን": 8516,
      "▁ኣይቅ": 8517,
      "▁ኣውጽኣ": 8518,
      "▁ኣምላኽሲ": 8519,
      "▁ኣምጽኡ": 8520,
      "▁ኣሃዱ": 8521,
      "▁ንእስነት": 8522,
      "▁ንሓድሕድኩም": 8523,
      "▁ንብረ": 8524,
      "▁ንሰርሕ": 8525,
      "▁ብግል": 8526,
      "▁ብኸምኡ": 8527,
      "▁ብሥ": 8528,
      "▁ብ1": 8529,
      "▁ባህርይ": 8530,
      "▁በብመዓልቱ": 8531,
      "▁ስማዕ።": 8532,
      "▁ርሒ": 8533,
      "▁ምፍል": 8534,
      "▁ምግላጽ": 8535,
      "▁ማዕበል": 8536,
      "▁መገዲ፡": 8537,
      "▁መረጻ": 8538,
      "▁ሓገ": 8539,
      "▁ሃዲ": 8540,
      "▁(መዝሙር": 8541,
      "ጽብ": 8542,
      "ዮም፡": 8543,
      "ይዋ": 8544,
      "ንተ": 8545,
      "ነድድ": 8546,
      "ሳትን": 8547,
      "ሱ፣": 8548,
      "ሩት": 8549,
      "ምርኮ": 8550,
      "ሎም፣": 8551,
      "ላላይ": 8552,
      "ሊዘ": 8553,
      "'ዩ?": 8554,
      "▁‹‹": 8555,
      "▁ፍለጥ።": 8556,
      "▁ጸኒሖም": 8557,
      "▁ጉዳይ'ዚ": 8558,
      "▁ድላይ": 8559,
      "▁ደኣ፡": 8560,
      "▁ደቁን": 8561,
      "▁ደርፍ": 8562,
      "▁ይኾኑ።": 8563,
      "▁የመን": 8564,
      "▁ዝተፈላለያ": 8565,
      "▁ዝት": 8566,
      "▁ዘለዓለም": 8567,
      "▁ዘኪ": 8568,
      "▁ዕንቅ": 8569,
      "▁ዕርክ": 8570,
      "▁ውጽኢቱ": 8571,
      "▁ውሰድ": 8572,
      "▁ኸምዚ፡": 8573,
      "▁ክብረ": 8574,
      "▁ክርአ": 8575,
      "▁ክምለሱ": 8576,
      "▁ከዋኽብቲ": 8577,
      "▁ከማይ": 8578,
      "▁እዚአ": 8579,
      "▁እተዘር": 8580,
      "▁እገዳ": 8581,
      "▁ኣየኖት": 8582,
      "▁ኣማኒ": 8583,
      "▁ንያእቆብ": 8584,
      "▁ንመብዛ": 8585,
      "▁ባይ": 8586,
      "▁ባእ": 8587,
      "▁ቐዳመይቲ": 8588,
      "▁ቅኑዕን": 8589,
      "▁ቅልጡፍ": 8590,
      "▁ቀጥ": 8591,
      "▁ስርዓ": 8592,
      "▁ርኹስ": 8593,
      "▁ሥራሕ": 8594,
      "▁ሞኣብ": 8595,
      "▁ምጅማር": 8596,
      "▁መንገድታት": 8597,
      "▁ሆቴ": 8598,
      "▁ህሞት": 8599,
      "▁4.": 8600,
      "▁\"ነፍ": 8601,
      "፡3": 8602,
      "ጽበዮ": 8603,
      "ጻ።": 8604,
      "ጸልእ": 8605,
      "ገማት": 8606,
      "ዩተር": 8607,
      "የ፣": 8608,
      "ወርዱ": 8609,
      "ወዲ": 8610,
      "ኣትው": 8611,
      "ናስ": 8612,
      "በረሉ": 8613,
      "በደ": 8614,
      "መስግን።": 8615,
      "ህልዎም": 8616,
      "w.": 8617,
      ":9": 8618,
      "▁ጽዩ": 8619,
      "▁ጠበ": 8620,
      "▁ግብርታት": 8621,
      "▁ጀሚረ።": 8622,
      "▁ዜድሊ": 8623,
      "▁ዚኽ": 8624,
      "▁ዘይኮኑ": 8625,
      "▁ወለዱ": 8626,
      "▁ኻህን": 8627,
      "▁ክልቲአን": 8628,
      "▁እዮም፤": 8629,
      "▁እዝን": 8630,
      "▁እብራውያን": 8631,
      "▁እምነትና": 8632,
      "▁ኣይኮናን።": 8633,
      "▁ኣይንኽእልን።": 8634,
      "▁ትነብር": 8635,
      "▁ተፈጺሙ\"": 8636,
      "▁ተገሪ": 8637,
      "▁ተንስእ": 8638,
      "▁ተመልሰ።": 8639,
      "▁ተፍቅ": 8640,
      "▁ብትሕትና": 8641,
      "▁ብምቕ": 8642,
      "▁ብሉጻት": 8643,
      "▁ብአ": 8644,
      "▁ስሞም": 8645,
      "▁ሳይን": 8646,
      "▁ሰላምታ": 8647,
      "▁ሰፈ": 8648,
      "▁ርእስ": 8649,
      "▁ረኺብ": 8650,
      "▁ምጽባይ": 8651,
      "▁ማእኸል": 8652,
      "▁ማራ": 8653,
      "▁መጺእ": 8654,
      "▁መለሰ።": 8655,
      "▁ሕን": 8656,
      "▁ሓይልን": 8657,
      "▁\"ጐይታይ": 8658,
      "ዩና": 8659,
      "ዩም": 8660,
      "እከቡ": 8661,
      "ታውያን": 8662,
      "ቲ፡": 8663,
      "ቱር": 8664,
      "ቀርብ": 8665,
      "ርስዕ": 8666,
      "ሓየሽ": 8667,
      "ሓብ": 8668,
      "ሓሰብ": 8669,
      "▁ፊደ": 8670,
      "▁ጽሒፉ": 8671,
      "▁ጨና": 8672,
      "▁ጉድኣት": 8673,
      "▁ድምጹ": 8674,
      "▁ደጊሙ": 8675,
      "▁ይከ": 8676,
      "▁የድልየካ": 8677,
      "▁ዝኸዱ": 8678,
      "▁ዝነገር": 8679,
      "▁ዝሓለፋ": 8680,
      "▁ዝሓስ": 8681,
      "▁ዝሓሰ": 8682,
      "▁ዝገብረ": 8683,
      "▁ዜሐጕስ": 8684,
      "▁ዚቝጸሩ": 8685,
      "▁ዘመልክ": 8686,
      "▁ዘራ": 8687,
      "▁ዑደት": 8688,
      "▁ኽፋል": 8689,
      "▁ክነብሩ": 8690,
      "▁ክሓስብ": 8691,
      "▁ኪኸዱ": 8692,
      "▁ኩላ": 8693,
      "▁እንተሃል": 8694,
      "▁እምነ": 8695,
      "▁እብል": 8696,
      "▁ኤፍሬ": 8697,
      "▁ኣይከኣልን።": 8698,
      "▁ኣስዕብ": 8699,
      "▁ኣድሕነ": 8700,
      "▁ንግስቲ": 8701,
      "▁ንዒ": 8702,
      "▁ንቐ": 8703,
      "▁ነፍሱ": 8704,
      "▁ቲቪ": 8705,
      "▁ብርክት": 8706,
      "▁ብጭ": 8707,
      "▁ብታ": 8708,
      "▁በየናይ": 8709,
      "▁ቅድሜኹም": 8710,
      "▁ቅዱስን": 8711,
      "▁ሰራቒ": 8712,
      "▁ምሕጋዝ": 8713,
      "▁መብር": 8714,
      "▁ሑጻ": 8715,
      "ጽበት": 8716,
      "ድነ": 8717,
      "ዘካ": 8718,
      "ዎ፣": 8719,
      "እዛ": 8720,
      "ባህለ": 8721,
      "ቡኣት": 8722,
      "በት።": 8723,
      "ሮምን": 8724,
      "ርባ": 8725,
      "ረኽቦም": 8726,
      "ሎምን።": 8727,
      "0ታት": 8728,
      "▁ፍሪኣ": 8729,
      "▁ፈረስ": 8730,
      "▁ጽርግ": 8731,
      "▁ጥልያን": 8732,
      "▁ጠለ": 8733,
      "▁ደለይቲ": 8734,
      "▁ይብለና": 8735,
      "▁ይቐ": 8736,
      "▁ዝገበርክዎ": 8737,
      "▁ዝሰርሓ": 8738,
      "▁ዚዀኑ": 8739,
      "▁ዚን": 8740,
      "▁ዚሐ": 8741,
      "▁ዘጋጥ": 8742,
      "▁ወለድና": 8743,
      "▁ወዳ": 8744,
      "▁ኻባኻትኩም": 8745,
      "▁ክትኣቱ": 8746,
      "▁ኪኸውን፡": 8747,
      "▁ኪን": 8748,
      "▁ከይከውን": 8749,
      "▁ከተንብ": 8750,
      "▁እተወሰነ": 8751,
      "▁ኣፈይ": 8752,
      "▁ኣይነበረትን።": 8753,
      "▁ኣዝማ": 8754,
      "▁ኢራን": 8755,
      "▁ንጸሊ።": 8756,
      "▁ንብረት": 8757,
      "▁ትዛረብ": 8758,
      "▁ትመስል": 8759,
      "▁ቱርኪ": 8760,
      "▁ተባሂሉ።": 8761,
      "▁ብእንግሊዝ": 8762,
      "▁ብጽሑፍ": 8763,
      "▁ብረ": 8764,
      "▁ቐንዲ": 8765,
      "▁ቀዲ": 8766,
      "▁ሰረገላ": 8767,
      "▁ሰሉስ": 8768,
      "▁ምትካኽ": 8769,
      "▁ምኵ": 8770,
      "▁መዓሙቝ": 8771,
      "▁መዳ": 8772,
      "▁ሓይሉ": 8773,
      "▁ሓተተ": 8774,
      "▁ህዝቢውን": 8775,
      "▁55": 8776,
      "▁2)": 8777,
      "▁.\"": 8778,
      "ጽዎ": 8779,
      "ገሰ": 8780,
      "ይላ": 8781,
      "ዞም።": 8782,
      "ዎ?": 8783,
      "ተኽ": 8784,
      "ረጹ": 8785,
      "መንገዲ": 8786,
      "ሓለፈ": 8787,
      "ሉል": 8788,
      "ህልዉ": 8789,
      "ሃበካ": 8790,
      "na": 8791,
      "/ኪ": 8792,
      "▁ጸጋም": 8793,
      "▁ጳውሎስ፡": 8794,
      "▁ጭብ": 8795,
      "▁ጊዜኡ": 8796,
      "▁ገበርቲ": 8797,
      "▁ዳዊ": 8798,
      "▁ዝኸኣ": 8799,
      "▁ዝሀ": 8800,
      "▁ዘተስፈ": 8801,
      "▁ኽትፈልጥ": 8802,
      "▁ክንፈልጦ": 8803,
      "▁ክርእዮ": 8804,
      "▁ከይጸንሐ": 8805,
      "▁ከምእት": 8806,
      "▁እዩሞ።": 8807,
      "▁እብለካ": 8808,
      "▁እሙንን": 8809,
      "▁እቱ": 8810,
      "▁ኣጋጣሚታት": 8811,
      "▁ኣይትእ": 8812,
      "▁ኣዘዝ": 8813,
      "▁ኢሰያስ": 8814,
      "▁ንኽእል፧": 8815,
      "▁ንኸም": 8816,
      "▁ነብያትን": 8817,
      "▁ብሰለስተ": 8818,
      "▁ሽኮር": 8819,
      "▁ሰብ።": 8820,
      "▁ምስተ": 8821,
      "▁መረፃ": 8822,
      "▁መምህራን": 8823,
      "▁መረጋ": 8824,
      "▁ሓውና": 8825,
      "▁ልምምድ": 8826,
      "▁'ተ": 8827,
      "▁\"በጃ": 8828,
      "ፋሕ": 8829,
      "ወቲ": 8830,
      "ረንቶስ": 8831,
      "ህለ": 8832,
      "op": 8833,
      "oo": 8834,
      "'ዞም": 8835,
      "▁ጽርግያ": 8836,
      "▁ጐን": 8837,
      "▁ጎረባብ": 8838,
      "▁ግዙ": 8839,
      "▁ዳኣ": 8840,
      "▁ይስሃቅን": 8841,
      "▁ይወጽእ": 8842,
      "▁ይዅ": 8843,
      "▁የድልዮ": 8844,
      "▁ዝረአ": 8845,
      "▁ዚሕብር": 8846,
      "▁ዘድልዮም": 8847,
      "▁ዕስራ": 8848,
      "▁ወፂ": 8849,
      "▁ኸለዉ፡": 8850,
      "▁ኮሚቴ": 8851,
      "▁ክእለ": 8852,
      "▁ክመውት": 8853,
      "▁ኪሎ": 8854,
      "▁እያ!": 8855,
      "▁እዚ'ዩ": 8856,
      "▁ኤደን": 8857,
      "▁ኣይከውን": 8858,
      "▁ኣብዚኣ": 8859,
      "▁ኣብኡ": 8860,
      "▁ኣርባዕ": 8861,
      "▁ንኩሎም": 8862,
      "▁ንሕና'ውን": 8863,
      "▁ንኣብ": 8864,
      "▁ኃጢአት": 8865,
      "▁ተመልከ": 8866,
      "▁ተመኩሮ": 8867,
      "▁ብዛዕብኡ": 8868,
      "▁ብቕንዕና": 8869,
      "▁ብርታዐ": 8870,
      "▁ቤቱን": 8871,
      "▁ሰብ፣": 8872,
      "▁ሰበይቲ፡": 8873,
      "▁መጽሔት": 8874,
      "▁መኣዝ": 8875,
      "▁መማህ": 8876,
      "▁መለሱ": 8877,
      "▁ሓቀይ?": 8878,
      "▁ሓለፋ": 8879,
      "▁ሃገርካ": 8880,
      "▁ti>": 8881,
      "ፍታ": 8882,
      "ጸንሑ": 8883,
      "ግብኦም": 8884,
      "ገንዘብ": 8885,
      "ደልየንን": 8886,
      "ይዎ።": 8887,
      "ዓትን": 8888,
      "በኪ": 8889,
      "ርቶ": 8890,
      ":10": 8891,
      "▁ፓር": 8892,
      "▁ፍቓድካ": 8893,
      "▁ፊልምታት": 8894,
      "▁ጽባ": 8895,
      "▁ጣዕ": 8896,
      "▁ደቂ-ኣንስትዮ": 8897,
      "▁ደናግ": 8898,
      "▁ይግበር።": 8899,
      "▁ዝኣዘዞ": 8900,
      "▁ዝተወለ": 8901,
      "▁ዜማ": 8902,
      "▁ዘክሮ": 8903,
      "▁ዕግ": 8904,
      "▁ውሱን": 8905,
      "▁ወይውን": 8906,
      "▁ወሃቢ": 8907,
      "▁ኽጸድቕ": 8908,
      "▁ኺገብር": 8909,
      "▁ኸቶ": 8910,
      "▁ክርስቶስን": 8911,
      "▁ከዳ": 8912,
      "▁እናሃ": 8913,
      "▁ኣይነበረንን።": 8914,
      "▁ኣይፈር": 8915,
      "▁ኣየንበብ": 8916,
      "▁ኣተወ።": 8917,
      "▁ኣምባሳ": 8918,
      "▁ኣሕሊፈ": 8919,
      "▁ንጉስ፡": 8920,
      "▁ንጉስን": 8921,
      "▁ንኣና": 8922,
      "▁ንበል": 8923,
      "▁ነውሪ": 8924,
      "▁ተው": 8925,
      "▁ብቐዳምነት": 8926,
      "▁ብቅ": 8927,
      "▁ብረት": 8928,
      "▁ቅዳሴ": 8929,
      "▁ሰበይተይ": 8930,
      "▁ምእማን": 8931,
      "▁መድኃ": 8932,
      "▁መነባብሮ": 8933,
      "▁መብርሂ": 8934,
      "▁መሪር": 8935,
      "▁ሓያላት": 8936,
      "▁ላባን": 8937,
      "▁ህላወ": 8938,
      "▁says:": 8939,
      "▁(ን": 8940,
      "▁(ሀ": 8941,
      "▁\"ዓ": 8942,
      "ፍሉይ": 8943,
      "ጽአ": 8944,
      "ጸሙ": 8945,
      "ገልግሎ": 8946,
      "ዩ?": 8947,
      "ዝብ": 8948,
      "ውው": 8949,
      "ዋላ": 8950,
      "ኸኣ": 8951,
      "ከረ": 8952,
      "ናኒ": 8953,
      "ቪድ": 8954,
      "ብናዮ": 8955,
      "ሽየ": 8956,
      "ሴሎም": 8957,
      "ርካዮ": 8958,
      "ር፡": 8959,
      "ርባን": 8960,
      "ረፉ": 8961,
      "ረበሉ": 8962,
      "ሓስቦ": 8963,
      "ሌክ": 8964,
      "ሊኻ": 8965,
      "ing": 8966,
      "▁ፈጺምካ": 8967,
      "▁ፈጢሩ።": 8968,
      "▁ጾታ": 8969,
      "▁ጥንታዊ": 8970,
      "▁ጐድ": 8971,
      "▁ገበሩ።": 8972,
      "▁ይነግረና።": 8973,
      "▁ይስመዓ": 8974,
      "▁ይደልየ": 8975,
      "▁ይርአ": 8976,
      "▁የግዳስ": 8977,
      "▁ዝግብአ": 8978,
      "▁ዚሰ": 8979,
      "▁ዘንብ": 8980,
      "▁ዓሚቝ": 8981,
      "▁ውርደት": 8982,
      "▁ወጻኢታት": 8983,
      "▁ወሃብ": 8984,
      "▁ኽቡር": 8985,
      "▁ኰነ፡": 8986,
      "▁ክፍትን": 8987,
      "▁ክንዳኡስ፡": 8988,
      "▁እንተዝኸውን": 8989,
      "▁እብራይስጢ": 8990,
      "▁እግር": 8991,
      "▁እኖ": 8992,
      "▁ኣይትፍርሁ።": 8993,
      "▁ኣይትደልየንን": 8994,
      "▁ኣሜሪካን": 8995,
      "▁ኣጠቓ": 8996,
      "▁ብጥን": 8997,
      "▁ሚኢታዊት": 8998,
      "▁መንግስታዊ": 8999,
      "▁መን'ዩ?": 9000,
      "▁ሎም": 9001,
      "▁you": 9002,
      "▁Home": 9003,
      "▁(3)": 9004,
      "ፈቕ": 9005,
      "ጹማት": 9006,
      "ጸላ": 9007,
      "ገልግሎት": 9008,
      "ድቂ": 9009,
      "ዳደር": 9010,
      "ዮስ": 9011,
      "ውስቦ": 9012,
      "እሰያት": 9013,
      "ኣዩ": 9014,
      "ነወ": 9015,
      "ተሰር": 9016,
      "ስምዖም": 9017,
      "ስክ": 9018,
      "ሓተ": 9019,
      "ሑፍ": 9020,
      "▁ግሩም": 9021,
      "▁ዲዩ?": 9022,
      "▁ዲግሪ": 9023,
      "▁ደቂሱ": 9024,
      "▁ይብል፦": 9025,
      "▁ይግለ": 9026,
      "▁ይዛረቡ።": 9027,
      "▁ዝብለካ": 9028,
      "▁ዚብሉ": 9029,
      "▁ዘክር።": 9030,
      "▁ዘለዎን": 9031,
      "▁ዉሉ": 9032,
      "▁ኽጸድቕዶ": 9033,
      "▁ኮሚሽን": 9034,
      "▁ክርስትያናዊ": 9035,
      "▁ክህልዉ": 9036,
      "▁ኪዀነ": 9037,
      "▁ኩን።": 9038,
      "▁ከማን": 9039,
      "▁ከልቢ": 9040,
      "▁እግዝኣብ": 9041,
      "▁እፈቱ።": 9042,
      "▁ኤፌሶን": 9043,
      "▁ኣይገበረ": 9044,
      "▁ኣኺሉ": 9045,
      "▁ኣንበ": 9046,
      "▁ኣባታቶም": 9047,
      "▁ኣሰና": 9048,
      "▁ኣምጽእ": 9049,
      "▁ኣለዎ፡": 9050,
      "▁ኢድና": 9051,
      "▁ንታሕቲ": 9052,
      "▁ንጴ": 9053,
      "▁ንበል።": 9054,
      "▁ናብ'ቲ": 9055,
      "▁ነቐ": 9056,
      "▁ተዳልዩ": 9057,
      "▁ተዘክሮ": 9058,
      "▁ተረፍ": 9059,
      "▁ተመልሰ": 9060,
      "▁ብባህ": 9061,
      "▁በሪ": 9062,
      "▁ቀሪባ": 9063,
      "▁ሲቪ": 9064,
      "▁ሱቕ": 9065,
      "▁ምፍጣር": 9066,
      "▁ምደለ": 9067,
      "▁ማለቱ": 9068,
      "▁ሚዛን": 9069,
      "▁መፈ": 9070,
      "▁መቅ": 9071,
      "▁ሕሙማት": 9072,
      "▁ሓበሬታታት": 9073,
      "▁ሎጥ": 9074,
      "▁ልብን": 9075,
      "▁ህዝቅ": 9076,
      "▁'ሞ": 9077,
      "ገቡ": 9078,
      "ዛዘ": 9079,
      "ዕዎ።": 9080,
      "ዋዕ።": 9081,
      "ኩዎን።": 9082,
      "ኤ፡": 9083,
      "ኣዘዝ": 9084,
      "በን።": 9085,
      "ሰብኽ": 9086,
      "ርድኣ": 9087,
      "ሐድ": 9088,
      "▁ጲላጦስ": 9089,
      "▁ግበሩ።": 9090,
      "▁ገጾም": 9091,
      "▁ጀሚርካ": 9092,
      "▁ድላ": 9093,
      "▁ይትረፍ": 9094,
      "▁ይገብሮ።": 9095,
      "▁ይምስ": 9096,
      "▁ዝዕድሚ": 9097,
      "▁ዓንዲ": 9098,
      "▁ክንራኸብ": 9099,
      "▁ክብሃል": 9100,
      "▁ክርእዩ": 9101,
      "▁ክራይ": 9102,
      "▁ኣጸቢቐ": 9103,
      "▁ኣንበብቲ": 9104,
      "▁ኣቦን": 9105,
      "▁ንምርግጋጽ": 9106,
      "▁ንምም": 9107,
      "▁ንፋ": 9108,
      "▁ትድ": 9109,
      "▁ተጸዊ": 9110,
      "▁ተና": 9111,
      "▁ብዂሉ": 9112,
      "▁ብትብዓት": 9113,
      "▁ብተስፋ": 9114,
      "▁ብቓል": 9115,
      "▁ሰሚዖም": 9116,
      "▁ርእስኹም": 9117,
      "▁ርሕቀት": 9118,
      "▁ምተ": 9119,
      "▁መጺኣ": 9120,
      "▁መትከ": 9121,
      "▁መብዛሕትና": 9122,
      "▁መጀመ": 9123,
      "▁ልደ": 9124,
      "▁ሃገራት፡": 9125,
      "ደሰ": 9126,
      "ዮም፣": 9127,
      "ያሎ": 9128,
      "ኩር": 9129,
      "ንኩም፡": 9130,
      "ነሉ": 9131,
      "ቡብ": 9132,
      "ቕል": 9133,
      "ስዕቦ": 9134,
      "ስሃ": 9135,
      "ምነገር": 9136,
      "መስልን።": 9137,
      "ሊዘኛ": 9138,
      "ሊያ": 9139,
      "ሃበኩም": 9140,
      "'ዚኣ": 9141,
      "▁ፈርሁ።": 9142,
      "▁ጸባ": 9143,
      "▁ጋኔን": 9144,
      "▁ገምገም": 9145,
      "▁ድኅነት": 9146,
      "▁ድምፂ": 9147,
      "▁ድሕሪት": 9148,
      "▁ዝገበርካዮ": 9149,
      "▁ዝረኣዮ": 9150,
      "▁ዝምስ": 9151,
      "▁ዘይኰነስ": 9152,
      "▁ዓቐን": 9153,
      "▁ክንጽበ": 9154,
      "▁ክጥ": 9155,
      "▁ክምህ": 9156,
      "▁ካቶሊካ": 9157,
      "▁ኩነ": 9158,
      "▁ከኣ፣": 9159,
      "▁እናበልካ": 9160,
      "▁ኤሊ": 9161,
      "▁ኣይትስ": 9162,
      "▁ኣይብል": 9163,
      "▁ኣወዳትን": 9164,
      "▁ኣብይ": 9165,
      "▁ኣምላኽ።": 9166,
      "▁ንስኻስ": 9167,
      "▁ንምብጻሕ": 9168,
      "▁ንኻል": 9169,
      "▁ኔርኩም": 9170,
      "▁ነዚኣ": 9171,
      "▁ነዲ": 9172,
      "▁ተፈጥሮ": 9173,
      "▁ተግባራዊ": 9174,
      "▁ተደፊ": 9175,
      "▁ተዓዊ": 9176,
      "▁ተረዲኡ": 9177,
      "▁ተማሃራይ": 9178,
      "▁ተተ": 9179,
      "▁ብዘመን": 9180,
      "▁በብዓመቱ": 9181,
      "▁ስጳ": 9182,
      "▁ሲና": 9183,
      "▁ሰኑይ": 9184,
      "▁ሮማ": 9185,
      "▁ረኺብካ": 9186,
      "▁ረቛ": 9187,
      "▁ምፍልላይ": 9188,
      "▁ምሓዝ": 9189,
      "▁መፅሓፍ": 9190,
      "▁መብዛሕቲ": 9191,
      "▁መልሲ፡": 9192,
      "▁ሓረስቶት": 9193,
      "ፈልኩም": 9194,
      "ግራ": 9195,
      "ድምጺ": 9196,
      "ዳማይ": 9197,
      "ዐት": 9198,
      "ዋሪ": 9199,
      "ናጽ": 9200,
      "ኅን": 9201,
      "ብሊክ": 9202,
      "ቋርጽ": 9203,
      "ረኽብዎ": 9204,
      "go": 9205,
      ":6": 9206,
      "▁ፍርያት": 9207,
      "▁ፊደላት": 9208,
      "▁ጥሪት": 9209,
      "▁ጉዳ": 9210,
      "▁ገንዘባዊ": 9211,
      "▁ገደብ": 9212,
      "▁ድለ": 9213,
      "▁ደገፍቲ": 9214,
      "▁ዝወለ": 9215,
      "▁ዝተጻሕፈ": 9216,
      "▁ዝበለ።": 9217,
      "▁ዝስሙ": 9218,
      "▁ዘይምር": 9219,
      "▁ዘዕ": 9220,
      "▁ዕርክነት": 9221,
      "▁ዕለታዊ": 9222,
      "▁ዓቕም": 9223,
      "▁ኸው": 9224,
      "▁ክዳውንቲ": 9225,
      "▁ክትወጽእ": 9226,
      "▁ክብለካ": 9227,
      "▁ክመሃር": 9228,
      "▁ክገዝ": 9229,
      "▁ኪኢ": 9230,
      "▁ከምዘለዉ": 9231,
      "▁እንከሎ፡": 9232,
      "▁እቶት": 9233,
      "▁እለ": 9234,
      "▁ኣፍደገ": 9235,
      "▁ኣይትረስዕ።": 9236,
      "▁ኣንጊ": 9237,
      "▁ኣበው": 9238,
      "▁ኣስተብህ": 9239,
      "▁ኣስፊ": 9240,
      "▁ኣርኣያ": 9241,
      "▁ኣምለ": 9242,
      "▁ኢና፤": 9243,
      "▁ኢሉ፡": 9244,
      "▁ንምዕ": 9245,
      "▁ንግብ": 9246,
      "▁ንጀ": 9247,
      "▁ንህይወት": 9248,
      "▁ናዝ": 9249,
      "▁ትግራዋይ": 9250,
      "▁ተጠቒሱ": 9251,
      "▁ብነብ": 9252,
      "▁ብሄር": 9253,
      "▁በዝ": 9254,
      "▁ምድላ": 9255,
      "▁ምውዳ": 9256,
      "▁ምርኢት": 9257,
      "▁ማዓልቲ": 9258,
      "▁መጸ፡": 9259,
      "▁መወዳእ": 9260,
      "▁መሊሰ": 9261,
      "▁መአ": 9262,
      "▁ሓቅታት": 9263,
      "▁ሓሰብ": 9264,
      "▁ሓረግ": 9265,
      "▁ህላዌ": 9266,
      "▁2010": 9267,
      "▁\"እግዚኣብሄር": 9268,
      "▁\"ኵ": 9269,
      "ጨን": 9270,
      "ጋዕ": 9271,
      "ጊሑ": 9272,
      "ይቡ": 9273,
      "ይረ": 9274,
      "ወዳእታ": 9275,
      "ቈጻ": 9276,
      "ስፍ": 9277,
      "ሳይት": 9278,
      "ማኒ": 9279,
      "ሙና": 9280,
      "መርዓ": 9281,
      "▁ፕረሲደንት": 9282,
      "▁ጐይታኡ": 9283,
      "▁ገዛውቲ": 9284,
      "▁ደለየ።": 9285,
      "▁ደአ": 9286,
      "▁ደሞክራሲ": 9287,
      "▁ይብለኒ።": 9288,
      "▁ይህብ።": 9289,
      "▁ዝበጽሕ": 9290,
      "▁ዝመልኦ": 9291,
      "▁ዝቅ": 9292,
      "▁ዝቀ": 9293,
      "▁ዚፍጸም": 9294,
      "▁ዚፈልጥ": 9295,
      "▁ዚከኣ": 9296,
      "▁ዓርክ": 9297,
      "▁ውሑስ": 9298,
      "▁ክፍለጥ": 9299,
      "▁ክድቅስ": 9300,
      "▁ክትርእዮ": 9301,
      "▁ክከውን": 9302,
      "▁ኪሕግዘካ": 9303,
      "▁እዚ'ውን": 9304,
      "▁እንፈልጦ": 9305,
      "▁እስልምና": 9306,
      "▁ኣቦይ፡": 9307,
      "▁ኣቓልቦ": 9308,
      "▁ኢንዱ": 9309,
      "▁ኢንዱስትሪ": 9310,
      "▁ንዘለዉ": 9311,
      "▁ንሚ": 9312,
      "▁ትገብሮ": 9313,
      "▁ተነጊ": 9314,
      "▁ተማሂረ": 9315,
      "▁ብዝግባእ": 9316,
      "▁ብካልእ": 9317,
      "▁በሎ፦": 9318,
      "▁ቈረንቶስ": 9319,
      "▁ቀዋሚ": 9320,
      "▁ቀረብ": 9321,
      "▁ሰሚዕና": 9322,
      "▁ርኢቶ": 9323,
      "▁ምይይ": 9324,
      "▁ማዕከ": 9325,
      "▁ሚልዮናት": 9326,
      "▁መረጋገጺ": 9327,
      "▁መብል": 9328,
      "▁ለመን": 9329,
      "▁(ሀ)": 9330,
      "▁\"አ": 9331,
      "ፊል": 9332,
      "ጥፍኣ": 9333,
      "ገብሩ።": 9334,
      "ዒን": 9335,
      "ኻድ": 9336,
      "ኸስ": 9337,
      "ክሕ": 9338,
      "ካ፧": 9339,
      "እዛዝ": 9340,
      "ኑኤል": 9341,
      "ቶም፡": 9342,
      "ተኣማ": 9343,
      "ብሔር": 9344,
      "ባውያን": 9345,
      "ራንን": 9346,
      "ምላስ": 9347,
      "መጠ": 9348,
      "ሑል": 9349,
      "ሎትን": 9350,
      "ለትን።": 9351,
      "ሃር።": 9352,
      "▁ፍቕርኻ": 9353,
      "▁ፈውሲ": 9354,
      "▁ጥብ": 9355,
      "▁ጠፈር": 9356,
      "▁ጐይ": 9357,
      "▁ግዜ'ዚ": 9358,
      "▁ገጻት": 9359,
      "▁ገሩ": 9360,
      "▁ገሃነም": 9361,
      "▁ይኣ": 9362,
      "▁ዝነበሩን": 9363,
      "▁ዝሓትት": 9364,
      "▁ዘለኻ።": 9365,
      "▁ዘረ": 9366,
      "▁ዘማ": 9367,
      "▁ዕዉት": 9368,
      "▁ዕጫ": 9369,
      "▁ወከፍኩም": 9370,
      "▁ወርሕን": 9371,
      "▁ክትን": 9372,
      "▁ክረኽቦ": 9373,
      "▁ካቶሊክ": 9374,
      "▁ኩን": 9375,
      "▁ኩኑ": 9376,
      "▁ከምጽእ": 9377,
      "▁እዮም፣+": 9378,
      "▁እየ?": 9379,
      "▁እኽእል?": 9380,
      "▁እንተዘየ": 9381,
      "▁እንተት": 9382,
      "▁ኣጆኻ": 9383,
      "▁ኣድጊ": 9384,
      "▁ኣይኮነትን": 9385,
      "▁ኣይኽእልን።": 9386,
      "▁ኣንቱም": 9387,
      "▁ኣብነታት": 9388,
      "▁ኣመሓዳሪ": 9389,
      "▁ኣለኺ": 9390,
      "▁ንጹሃት": 9391,
      "▁ንኣታቶም": 9392,
      "▁ንኢ": 9393,
      "▁ተሞክሮ": 9394,
      "▁ብድሆታት": 9395,
      "▁ብርሃንን": 9396,
      "▁ብሕይወት": 9397,
      "▁ቐልጢ": 9398,
      "▁ቅርጺ": 9399,
      "▁ስለዙይ": 9400,
      "▁ሳሚ": 9401,
      "▁ሰረ": 9402,
      "▁ርሑስ": 9403,
      "▁ምግልጋል": 9404,
      "▁መዛሙርቱ፡": 9405,
      "▁መንፈስን": 9406,
      "▁መርዓት": 9407,
      "▁መሊሶም": 9408,
      "▁ሕክምናዊ": 9409,
      "▁ላይ": 9410,
      "▁(ማቴ.": 9411,
      "▁'ዶ": 9412,
      "ጦ።": 9413,
      "ጊድ": 9414,
      "ገልጹ": 9415,
      "ገጥ": 9416,
      "ዲዮ": 9417,
      "ያስ፡": 9418,
      "ዞ።": 9419,
      "ዘመን": 9420,
      "ውን፡": 9421,
      "ኹዎ": 9422,
      "ከምቲ": 9423,
      "ንቛ": 9424,
      "ቱብ": 9425,
      "ተትን።": 9426,
      "ቀይ": 9427,
      "ምሩ": 9428,
      "il": 9429,
      "▁ፈጻ": 9430,
      "▁ጸጋማይ?": 9431,
      "▁ጸብጻባት": 9432,
      "▁ጐንኺ": 9433,
      "▁ጀሚሮም።": 9434,
      "▁ድ.": 9435,
      "▁ዳዊትን": 9436,
      "▁ደናግል": 9437,
      "▁ይርከብ": 9438,
      "▁የድልየና።": 9439,
      "▁ዝተፈጠርና": 9440,
      "▁ዜሕዝን": 9441,
      "▁ዚትንስ": 9442,
      "▁ዚም": 9443,
      "▁ዘፍቅሮ": 9444,
      "▁ዘይብልካ": 9445,
      "▁ወጹ።": 9446,
      "▁ወቕቲ": 9447,
      "▁ኵላትኩም": 9448,
      "▁ክፍልታት": 9449,
      "▁ክንሰምዕ": 9450,
      "▁ከስ": 9451,
      "▁እኳ፡": 9452,
      "▁ንፈርኦን": 9453,
      "▁ንዕኦም": 9454,
      "▁ንርእዮ": 9455,
      "▁ናእ": 9456,
      "▁ነሩ": 9457,
      "▁ኃጥ": 9458,
      "▁ትርጉሙ፡": 9459,
      "▁ትደል": 9460,
      "▁ትመስል።": 9461,
      "▁ተኸዲ": 9462,
      "▁ተሌፎን": 9463,
      "▁ብሃ": 9464,
      "▁ባዕል": 9465,
      "▁ሶማ": 9466,
      "▁ስክፍ": 9467,
      "▁ሳልሕ": 9468,
      "▁ሳምን": 9469,
      "▁ሰል": 9470,
      "▁ምምራጽ": 9471,
      "▁ምሁራት": 9472,
      "▁ማሕደር": 9473,
      "▁ሚኒስትሪ": 9474,
      "▁መስቀ": 9475,
      "▁መውስቦ": 9476,
      "▁ሕጽረት": 9477,
      "▁ለሚ": 9478,
      "▁to": 9479,
      "▁53": 9480,
      "▁195": 9481,
      "▁194": 9482,
      "▁\"እሞ": 9483,
      "ፍታሕ": 9484,
      "ፍቓ": 9485,
      "ጥዒ": 9486,
      "ጥቋ": 9487,
      "ደመ": 9488,
      "ይዎም": 9489,
      "ዓበየ": 9490,
      "ኳዕ": 9491,
      "ክልና": 9492,
      "እዘዝ": 9493,
      "አብሄር": 9494,
      "ትኺ": 9495,
      "ቆት": 9496,
      "ሳሕ": 9497,
      "ምን፡": 9498,
      "ልታ": 9499,
      "/ኺ": 9500,
      "'ዩ\"": 9501,
      "▁ፓስ": 9502,
      "▁ጥቕስታት": 9503,
      "▁ጥዕ": 9504,
      "▁ጋዜጠኛታት": 9505,
      "▁ገንሸል": 9506,
      "▁ገበሮ።": 9507,
      "▁ይጅምር።": 9508,
      "▁ይህሉ": 9509,
      "▁የብሎምን": 9510,
      "▁የልቦን\"": 9511,
      "▁ዝኣቱ": 9512,
      "▁ዜገርም": 9513,
      "▁ዚድ": 9514,
      "▁ዚብሎ": 9515,
      "▁ዚብ": 9516,
      "▁ዘይንኽእል": 9517,
      "▁ዘይርአ": 9518,
      "▁ዕስ": 9519,
      "▁ውሽጥኻ": 9520,
      "▁ኽትገብሮ": 9521,
      "▁ኽብሪ": 9522,
      "▁ክትድሕኑ": 9523,
      "▁ክትከ": 9524,
      "▁ካም": 9525,
      "▁ኩኑ።": 9526,
      "▁ከምኣ": 9527,
      "▁ከር": 9528,
      "▁እንተሃ": 9529,
      "▁ኣጸቢቕካ": 9530,
      "▁ኣንቢበ": 9531,
      "▁ኣሶር": 9532,
      "▁ኣሎዎ": 9533,
      "▁ኣፕ": 9534,
      "▁ኣምር": 9535,
      "▁ኢሉኒ": 9536,
      "▁ንሕናውን": 9537,
      "▁ንሽ": 9538,
      "▁ኔረ": 9539,
      "▁ትበሃል": 9540,
      "▁ተሰሚዑኒ።": 9541,
      "▁ተልእኾ": 9542,
      "▁ብጹእ": 9543,
      "▁ብዘየገድስ፡": 9544,
      "▁ቤተይን": 9545,
      "▁በጽሐ": 9546,
      "▁በትሪ": 9547,
      "▁ሽማግለታት": 9548,
      "▁ስብከ": 9549,
      "▁ሰሚዔ": 9550,
      "▁ሩባ": 9551,
      "▁ምዉት": 9552,
      "▁ምሥጢር": 9553,
      "▁ሚድያ": 9554,
      "▁መሊኡ": 9555,
      "▁ሓቲተ": 9556,
      "▁ሓብቲ": 9557,
      "▁ልማኖ": 9558,
      "▁'እቲ": 9559,
      "▁\"ይ": 9560,
      "ፍርዲ": 9561,
      "ፈትው": 9562,
      "ፈጥሮ": 9563,
      "ግሳ": 9564,
      "ጋድ": 9565,
      "ገር።": 9566,
      "ገፍ": 9567,
      "ዐር": 9568,
      "ንታይ": 9569,
      "ናን፡": 9570,
      "ተንስእ": 9571,
      "ተሓሓዘ": 9572,
      "በረ።": 9573,
      "በትን": 9574,
      "ቕ።": 9575,
      "ላሕታ": 9576,
      "ለይን": 9577,
      "▁ፈረቓ": 9578,
      "▁ፈቃር": 9579,
      "▁ጥራይ።": 9580,
      "▁ጣልያን": 9581,
      "▁ግፍዒ": 9582,
      "▁ግልጽ": 9583,
      "▁ይበልጽ": 9584,
      "▁ይመጹ": 9585,
      "▁ይካ": 9586,
      "▁ይነግ": 9587,
      "▁ይሐ": 9588,
      "▁ዝኾነሉ": 9589,
      "▁ዝመጻ": 9590,
      "▁ዘይዕንቀፍ": 9591,
      "▁ዘይከ": 9592,
      "▁ውጥን": 9593,
      "▁ክክክክክ": 9594,
      "▁ካልአይቲ": 9595,
      "▁እግዚኣአብሔር": 9596,
      "▁ኣገዳሲ'ዩ።": 9597,
      "▁ኣዳምን": 9598,
      "▁ኣይትጸ": 9599,
      "▁ኣይኽእልን": 9600,
      "▁ኣይስ": 9601,
      "▁ኣይር": 9602,
      "▁ኣይሀ": 9603,
      "▁ኣውሮፓ": 9604,
      "▁ኣቦኣ": 9605,
      "▁ኣመስገ": 9606,
      "▁ኣፋ": 9607,
      "▁ኣኻ": 9608,
      "▁አይኮነን።": 9609,
      "▁ናታ": 9610,
      "▁ነዙይ": 9611,
      "▁ትልሚ": 9612,
      "▁ተቐበል": 9613,
      "▁ቍጥዓ": 9614,
      "▁ቅድስት": 9615,
      "▁ቀደ": 9616,
      "▁ሳዕቤናት": 9617,
      "▁ምስኣቶም": 9618,
      "▁ምዱብ": 9619,
      "▁ምምል": 9620,
      "▁ሙስሊም": 9621,
      "▁መስዋእ": 9622,
      "▁መልክዑ": 9623,
      "▁ሓካይ": 9624,
      "▁ሄን": 9625,
      "▁ሃብታማት": 9626,
      "▁ago": 9627,
      "▁(ራ": 9628,
      "▁\"ገና": 9629,
      "▁\"ከመይ": 9630,
      "▁\"ፍቕሪ": 9631,
      "ፍኡ": 9632,
      "ፈካ": 9633,
      "ጸሮ": 9634,
      "ጥቋጥ": 9635,
      "ጥካ": 9636,
      "ዝነት": 9637,
      "ዛም": 9638,
      "ዓስ": 9639,
      "ዋታ": 9640,
      "ኽብር": 9641,
      "ንኳዕ": 9642,
      "ትኩምን": 9643,
      "በዓል": 9644,
      "ቅጥቃ": 9645,
      "ርኽ": 9646,
      "ረኣዩ": 9647,
      "ምሕጋዝ": 9648,
      "ምን።": 9649,
      "ማዕ።": 9650,
      "መንት": 9651,
      "ሓንቲ": 9652,
      "ለክት": 9653,
      "ve": 9654,
      "▁ፍልልያት": 9655,
      "▁ፊል": 9656,
      "▁ጸሓፍቲ": 9657,
      "▁ጎድ": 9658,
      "▁ጀነራል": 9659,
      "▁ጀሚራ": 9660,
      "▁ይጠፍእ።": 9661,
      "▁ይስሕ": 9662,
      "▁ይርኣ": 9663,
      "▁ይምልከ": 9664,
      "▁ዝኾነ።": 9665,
      "▁ዝተረኽበ": 9666,
      "▁ዝጠፍኡ": 9667,
      "▁ዝዘ": 9668,
      "▁ዘሎኹም": 9669,
      "▁ዕዉር": 9670,
      "▁ውዕ": 9671,
      "▁ወድኻ": 9672,
      "▁ወርሓዊ": 9673,
      "▁ኽኢ": 9674,
      "▁ኮምፕ": 9675,
      "▁ክፍጽ": 9676,
      "▁ክፍጠር": 9677,
      "▁ክነግረካ": 9678,
      "▁ክሓትት": 9679,
      "▁ኪዱ": 9680,
      "▁ከጋጥም": 9681,
      "▁እንተኾይኑ፡": 9682,
      "▁ኣፍጋ": 9683,
      "▁ኣይትኹኑ።": 9684,
      "▁ኣብራ": 9685,
      "▁ኣቐዲምና": 9686,
      "▁ኣለኩ": 9687,
      "▁ንዂሎም": 9688,
      "▁ንኽልቲ": 9689,
      "▁ንሰላም": 9690,
      "▁ንሓጥ": 9691,
      "▁ንጻ": 9692,
      "▁ነነ": 9693,
      "▁ተጻረ": 9694,
      "▁ተጀሚሩ": 9695,
      "▁ተቐቢሉ": 9696,
      "▁ብማይ": 9697,
      "▁ብ20": 9698,
      "▁በረድ": 9699,
      "▁ቍሩብ": 9700,
      "▁ቀተ": 9701,
      "▁ምጽንናዕ": 9702,
      "▁ምስክርነት": 9703,
      "▁መንጐ": 9704,
      "▁መልሱ": 9705,
      "▁ሕጂውን": 9706,
      "▁ሓጋይ": 9707,
      "▁ሓለውቲ": 9708,
      "▁ሓሪ": 9709,
      "▁ሃለ": 9710,
      "▁(ዘፍጥረት": 9711,
      "▁(ለ)": 9712,
      "ጊም": 9713,
      "ገባ": 9714,
      "ያናት": 9715,
      "ዛሕ": 9716,
      "ዕልል": 9717,
      "ክቶ": 9718,
      "እከብ": 9719,
      "ኣዝ": 9720,
      "ንስኻ": 9721,
      "ትዩ": 9722,
      "ብለካ": 9723,
      "ብለኒ": 9724,
      "ብሩ።": 9725,
      "ርድእዎ": 9726,
      "ምፍጣር": 9727,
      "ምላኸይ": 9728,
      "ማይን": 9729,
      "መት።": 9730,
      "ሓካ": 9731,
      "ላውነት": 9732,
      "ላተይ": 9733,
      "ሉጽ": 9734,
      "ሃቡ": 9735,
      "th": 9736,
      "▁ፓርላማ": 9737,
      "▁ጽዒ": 9738,
      "▁ጸሎትና": 9739,
      "▁ግእዝ": 9740,
      "▁ግራ": 9741,
      "▁ጀሚርና": 9742,
      "▁ይባ": 9743,
      "▁ዝፈትዎ": 9744,
      "▁ዝእዝ": 9745,
      "▁ዝርከብ።": 9746,
      "▁ዘይሕጋዊ": 9747,
      "▁ዓበይትን": 9748,
      "▁ዅሉ፡": 9749,
      "▁ኮንካ": 9750,
      "▁ክትፈልጦ": 9751,
      "▁ክጽሕፍ": 9752,
      "▁ካብ'ቶም": 9753,
      "▁ካርታ": 9754,
      "▁እናኸ": 9755,
      "▁እሞ፡+": 9756,
      "▁እምበይ": 9757,
      "▁ኣፈላላይ": 9758,
      "▁ኣይድ": 9759,
      "▁ኣስመ": 9760,
      "▁ኣሕዋትና": 9761,
      "▁ኣሕዋተይ": 9762,
      "▁ኣልኣዛር": 9763,
      "▁አዩ": 9764,
      "▁ንገዛ": 9765,
      "▁ንና": 9766,
      "▁ነዚኦም": 9767,
      "▁ትእዛዛትካ": 9768,
      "▁ተኣኪቦም": 9769,
      "▁ብሓጎስ": 9770,
      "▁ብልጽ": 9771,
      "▁ብጉ": 9772,
      "▁ባእታ": 9773,
      "▁በበይኑ": 9774,
      "▁በይና": 9775,
      "▁ቀጽል": 9776,
      "▁ሽድሽተ": 9777,
      "▁ሳን": 9778,
      "▁ርኢኻ": 9779,
      "▁ርኸ": 9780,
      "▁ረኣዩ": 9781,
      "▁ረሲእ": 9782,
      "▁ምና": 9783,
      "▁መበቆ": 9784,
      "▁መርዓዊ": 9785,
      "▁መለኮታዊ": 9786,
      "▁ሓጻር": 9787,
      "▁ሓምሳ": 9788,
      "▁ለባማት": 9789,
      "▁ሆይ": 9790,
      "▁500": 9791,
      "▁3፡1": 9792,
      "▁\"ካ": 9793,
      "ፅ።": 9794,
      "ጽባሕ": 9795,
      "ጽሉ": 9796,
      "ጳውሎ": 9797,
      "ጥዕም": 9798,
      "ገብሪ": 9799,
      "ድዳእ": 9800,
      "የት።": 9801,
      "ዘራረቡ": 9802,
      "ዕድግ": 9803,
      "ዕኡ": 9804,
      "ቱ፣": 9805,
      "ብዩ": 9806,
      "ባርን": 9807,
      "ርባዕተ": 9808,
      "ራውን": 9809,
      "ረቡ።": 9810,
      "ምኩም": 9811,
      "መልከ": 9812,
      "መውትን": 9813,
      "ሕትኡ": 9814,
      "ip": 9815,
      ":17": 9816,
      "-?": 9817,
      "▁ፈለግ": 9818,
      "▁ጭርሖ": 9819,
      "▁ጋህ": 9820,
      "▁ድኹም": 9821,
      "▁ደቀየ፡": 9822,
      "▁ደምበ": 9823,
      "▁ደረ": 9824,
      "▁ይወስድ": 9825,
      "▁ዝጸሓፍ": 9826,
      "▁ዝኣመን": 9827,
      "▁ዝርዝ": 9828,
      "▁ዝሓሰብ": 9829,
      "▁ዘድልየና": 9830,
      "▁ዘይብልና": 9831,
      "▁ዓያሹ": 9832,
      "▁ኽፍሊ": 9833,
      "▁ኪቐትልዎ": 9834,
      "▁ከዱ።": 9835,
      "▁እዩ\"።": 9836,
      "▁እከዮም": 9837,
      "▁እትገብር": 9838,
      "▁እትደልዮ": 9839,
      "▁እሕ": 9840,
      "▁ኣደይን": 9841,
      "▁ኣይኮነን!": 9842,
      "▁ኣቲኻ": 9843,
      "▁ኣብ'ዛ": 9844,
      "▁ኣበየናይ": 9845,
      "▁ኣምላኸ": 9846,
      "▁ኣሎኻ።": 9847,
      "▁ኣቑ": 9848,
      "▁ኣላት": 9849,
      "▁ኢየን።": 9850,
      "▁ንገሊኦም": 9851,
      "▁ንእኡን": 9852,
      "▁ንክልተ": 9853,
      "▁ንሸ": 9854,
      "▁ንላዕሊ": 9855,
      "▁ነቦኡ": 9856,
      "▁ተገሊፁ።": 9857,
      "▁ተገይሩ።": 9858,
      "▁ተቓወምቲ": 9859,
      "▁ተቓሊ": 9860,
      "▁ተበራ": 9861,
      "▁ብትግርኛ": 9862,
      "▁ብተወሳኺ፡": 9863,
      "▁በየነይቲ": 9864,
      "▁በኸ": 9865,
      "▁በልክ": 9866,
      "▁ቅድስና": 9867,
      "▁ቀጺሉ፡": 9868,
      "▁ረኣዩ፡": 9869,
      "▁ሞያዊ": 9870,
      "▁መድረ": 9871,
      "▁መካይን": 9872,
      "▁መርገ": 9873,
      "▁መልኣ": 9874,
      "▁መላእኽ": 9875,
      "▁መለሰሎም": 9876,
      "▁ሓዲግ": 9877,
      "▁ሎምስ": 9878,
      "▁ልዕለይ": 9879,
      "▁ለኣኸ፡": 9880,
      "▁ሃፍቲ": 9881,
      "▁ሂብካ": 9882,
      "▁3ይ": 9883,
      "▁00": 9884,
      "▁(ሉቃስ": 9885,
      "▁'ዚ": 9886,
      "ጽዋዕ": 9887,
      "ካ፣": 9888,
      "ካእታ": 9889,
      "ከፍል": 9890,
      "እስ": 9891,
      "ኣምንን": 9892,
      "ቱውን": 9893,
      "በልዖ": 9894,
      "በሊ": 9895,
      "ሳሰር": 9896,
      "ሰርሐ": 9897,
      "ምላክ": 9898,
      "ማቕ": 9899,
      "ሓቐ": 9900,
      "ሑት": 9901,
      "ሉዋት": 9902,
      "be": 9903,
      "TV": 9904,
      ":18": 9905,
      "▁ፍቕሩ": 9906,
      "▁ጸኒሐ": 9907,
      "▁ጭንቂ": 9908,
      "▁ጠፍ": 9909,
      "▁ድርብ": 9910,
      "▁ደሊኻ፡": 9911,
      "▁ይጸል": 9912,
      "▁ይጥ": 9913,
      "▁ይባር": 9914,
      "▁የብልካን።": 9915,
      "▁የብልካን": 9916,
      "▁ዝደለኻዮ": 9917,
      "▁ዝንባ": 9918,
      "▁ዝተገልጸ": 9919,
      "▁ዝመስለኒ": 9920,
      "▁ዚዓቢ": 9921,
      "▁ዘይኰነ፡": 9922,
      "▁ዘይተርፍ": 9923,
      "▁ውፅኢት": 9924,
      "▁ወሰድ": 9925,
      "▁ወለድ": 9926,
      "▁ኺገብሩ": 9927,
      "▁ኮምፒ": 9928,
      "▁ክትሰምዕ": 9929,
      "▁ክህበኩም": 9930,
      "▁ክቐርብ": 9931,
      "▁ክስተ": 9932,
      "▁ከኣ፥": 9933,
      "▁እግዚኣብሄር፡": 9934,
      "▁እዮም'": 9935,
      "▁እዮም!": 9936,
      "▁ኣፍቅ": 9937,
      "▁ኣይኰነን፣": 9938,
      "▁ኣእዳዉ": 9939,
      "▁ኣብ'ታ": 9940,
      "▁ኣሸጋሪ": 9941,
      "▁ኣጕ": 9942,
      "▁ንጸላእ": 9943,
      "▁ንርእስና": 9944,
      "▁ነገሮም።": 9945,
      "▁ትዕቢት": 9946,
      "▁ትሕት": 9947,
      "▁ተፈል": 9948,
      "▁ቦታኡ": 9949,
      "▁ብትኽ": 9950,
      "▁ብመዓል": 9951,
      "▁ብሕጂ": 9952,
      "▁ብዋጋ": 9953,
      "▁ብላዕ": 9954,
      "▁ቤት-ትምህርቲ": 9955,
      "▁በጻሕ": 9956,
      "▁ሰይጣንን": 9957,
      "▁ሰብኡትን": 9958,
      "▁ሰማያትን": 9959,
      "▁ምይይጥ": 9960,
      "▁ምቹ": 9961,
      "▁መደበር": 9962,
      "▁መትከል": 9963,
      "▁መሳልል": 9964,
      "▁መዲ": 9965,
      "▁መሥ": 9966,
      "▁ሕሙም": 9967,
      "▁ሓዝ": 9968,
      "▁ልምድ": 9969,
      "▁ለን": 9970,
      "▁more:": 9971,
      "▁49": 9972,
      "ፍርህ": 9973,
      "ጦም።": 9974,
      "ጥቀሙሉ": 9975,
      "ጥነት": 9976,
      "ጡን": 9977,
      "ጠይቕ": 9978,
      "ግብር": 9979,
      "ገጸ": 9980,
      "ዳግ": 9981,
      "ኦታት": 9982,
      "ተሓሓዝ": 9983,
      "ቕርቡ": 9984,
      "ሰትዩ": 9985,
      "ርር": 9986,
      "ረኸብ": 9987,
      "ምለስን": 9988,
      "ማንም": 9989,
      "ሓራ": 9990,
      "ሓለ": 9991,
      "ሌፎ": 9992,
      "▁ፈለማ፡": 9993,
      "▁ጸኒሕና": 9994,
      "▁ጎኒ": 9995,
      "▁ገበሩ": 9996,
      "▁ድራማ": 9997,
      "▁ደገታት": 9998,
      "▁ደሴታት": 9999,
      "▁ይኸዱ": 10000,
      "▁ዩ።": 10001,
      "▁ዝበላ": 10002,
      "▁ዝሓመ": 10003,
      "▁ዝሸ": 10004,
      "▁ዜጋጥም": 10005,
      "▁ዘጋጠሞ": 10006,
      "▁ዘይኽእል": 10007,
      "▁ዘብዐኛ": 10008,
      "▁ዘደን": 10009,
      "▁ዘቐ": 10010,
      "▁ዕድሚኡ": 10011,
      "▁ዕስራን": 10012,
      "▁ውህበ": 10013,
      "▁ወልደ": 10014,
      "▁ክንድቲ": 10015,
      "▁ክዓ": 10016,
      "▁ክበልዑ": 10017,
      "▁ክመስል": 10018,
      "▁ከቕርብ": 10019,
      "▁ከሕ": 10020,
      "▁እዋን'ቲ": 10021,
      "▁እንርእዮ": 10022,
      "▁እናበልኩ": 10023,
      "▁እትኸ": 10024,
      "▁ኤለክት": 10025,
      "▁ኣይሞተትን።": 10026,
      "▁ኣዒንትኻ": 10027,
      "▁ኣኽብሮት": 10028,
      "▁ኣእዳውካ": 10029,
      "▁ኣቕር": 10030,
      "▁ኣምላኽ\"": 10031,
      "▁ኣፎም": 10032,
      "▁ኢልዎ": 10033,
      "▁ንዕኡን": 10034,
      "▁ንባዕለይ": 10035,
      "▁ንሕናን": 10036,
      "▁ንጽበ": 10037,
      "▁ነበሮም።": 10038,
      "▁ትገልጽ።": 10039,
      "▁ተስፋታት": 10040,
      "▁ብዕለት": 10041,
      "▁ብከምዚ": 10042,
      "▁በለኒ፦": 10043,
      "▁ቅንኢ": 10044,
      "▁ቀቲ": 10045,
      "▁ሶማል": 10046,
      "▁ስለምንታይ፧": 10047,
      "▁ሰብዓ": 10048,
      "▁ሰበይትኻ": 10049,
      "▁ሰሪሑ": 10050,
      "▁ሰምዔ": 10051,
      "▁ሰላሳ": 10052,
      "▁ሰቡን": 10053,
      "▁ረቢ": 10054,
      "▁ሞባይል": 10055,
      "▁ምቕባል": 10056,
      "▁ምስዝ": 10057,
      "▁ምስናይ": 10058,
      "▁ማሕላ": 10059,
      "▁መዓልት": 10060,
      "▁መስለኒ": 10061,
      "▁ሓወል": 10062,
      "▁ህሉው": 10063,
      "▁ሂበ": 10064,
      "▁2000": 10065,
      "ፃፅ": 10066,
      "ጻእ።": 10067,
      "ጥፍኦም": 10068,
      "ጥፍኦ": 10069,
      "ግሥቲ": 10070,
      "ገርመኒ": 10071,
      "ዝርዝር": 10072,
      "ዕ፡": 10073,
      "ወግዒ": 10074,
      "ኸሉ": 10075,
      "ኬት": 10076,
      "ኣሽቱ": 10077,
      "ብር፡": 10078,
      "ባስ": 10079,
      "በየ።": 10080,
      "በሎ።": 10081,
      "ርድኣኒ": 10082,
      "ራርሓ": 10083,
      "ምኡ": 10084,
      "ልሳይ": 10085,
      "ህብዎ": 10086,
      "ህብን": 10087,
      "▁ፍትሓዊ": 10088,
      "▁ፍርዱ": 10089,
      "▁ጽዩፍ": 10090,
      "▁ጽዮ": 10091,
      "▁ጽላ": 10092,
      "▁ጸሎተ": 10093,
      "▁ጸርፊ": 10094,
      "▁ጨካን": 10095,
      "▁ገሊፆ": 10096,
      "▁ዮው": 10097,
      "▁ይዀኑ።": 10098,
      "▁ይሓትት።": 10099,
      "▁ዝገበርካ": 10100,
      "▁ዝገደ": 10101,
      "▁ዝብላ": 10102,
      "▁ዚህቦ": 10103,
      "▁ዘመድ": 10104,
      "▁ውዲት": 10105,
      "▁ወለን": 10106,
      "▁ኻባይ": 10107,
      "▁ኮታ": 10108,
      "▁ክትክእል": 10109,
      "▁ክትክ": 10110,
      "▁ክርድኦ": 10111,
      "▁ክራ": 10112,
      "▁ኪኽ": 10113,
      "▁እሱር": 10114,
      "▁እሳት": 10115,
      "▁ኤስ": 10116,
      "▁ኣገባ": 10117,
      "▁ኣይኮነን?": 10118,
      "▁ኣይክኣ": 10119,
      "▁ኣይመስልን።": 10120,
      "▁ኢኻ!": 10121,
      "▁ንገረኒ።": 10122,
      "▁ንገብር።": 10123,
      "▁ንብሎ": 10124,
      "▁ንምህ": 10125,
      "▁ንመስ": 10126,
      "▁ትዕግስቲ": 10127,
      "▁ትኹ": 10128,
      "▁ተዋሳእቲ": 10129,
      "▁ተቐቲሎም": 10130,
      "▁ተቐማ": 10131,
      "▁ተመርዓ": 10132,
      "▁ተሰምዓ": 10133,
      "▁ብዓቢ": 10134,
      "▁ብውሽ": 10135,
      "▁ብኸንቱ": 10136,
      "▁ብብርቱዕ": 10137,
      "▁ብህይወ": 10138,
      "▁ብቝ": 10139,
      "▁ሹማ": 10140,
      "▁ሸቶታት": 10141,
      "▁ሳብ": 10142,
      "▁ሰልፍታት": 10143,
      "▁ሰጊ": 10144,
      "▁ርድ": 10145,
      "▁ምልእቲ": 10146,
      "▁ማእከሎም": 10147,
      "▁መድሕን": 10148,
      "▁ሕጅስ": 10149,
      "▁ሕሱም": 10150,
      "▁ሕሰቡ።": 10151,
      "▁ሕሰብ": 10152,
      "▁ሃዋህ": 10153,
      "▁'ታ": 10154,
      "ፋ።": 10155,
      "ፋዕ": 10156,
      "ጣት": 10157,
      "ድሕኖም": 10158,
      "ዋን።": 10159,
      "ክብብ": 10160,
      "ኖክ": 10161,
      "ኒክ": 10162,
      "ታቱን": 10163,
      "በብያ": 10164,
      "ቐንየ": 10165,
      "ሰኩም": 10166,
      "ርድኡ": 10167,
      "ርእዮ።": 10168,
      "ርእዮን": 10169,
      "ርሓ": 10170,
      "ረየ": 10171,
      "ላዎም": 10172,
      "ሉኒ": 10173,
      "ለጡ": 10174,
      "ost": 10175,
      "-19": 10176,
      "▁ፍጡራት": 10177,
      "▁ፈጺሞም": 10178,
      "▁ፈትን።": 10179,
      "▁ፃዕ": 10180,
      "▁ጴጥሮ": 10181,
      "▁ጠቢ": 10182,
      "▁ጕዳያት": 10183,
      "▁ገዝኦም": 10184,
      "▁ገፊ": 10185,
      "▁ጀመረት።": 10186,
      "▁ደልዮም": 10187,
      "▁ይጠ": 10188,
      "▁የን": 10189,
      "▁ዝፈልጦ።": 10190,
      "▁ዝብላዕ": 10191,
      "▁ዝስሕ": 10192,
      "▁ዚግብኣ": 10193,
      "▁ዘክ": 10194,
      "▁ዕሽሽ": 10195,
      "▁ዓዋተ": 10196,
      "▁ወኪል": 10197,
      "▁ክንክእል": 10198,
      "▁ክህቦም": 10199,
      "▁ኪህሉ": 10200,
      "▁ከጋጥ": 10201,
      "▁እፈቱ": 10202,
      "▁ኣድላይነት": 10203,
      "▁ኣይፈልጡ": 10204,
      "▁ኣይገበር": 10205,
      "▁ኣይርስ": 10206,
      "▁ኣየንበብኩምን": 10207,
      "▁ኣእዳዎም": 10208,
      "▁ኣእተ": 10209,
      "▁ኢዩ\"": 10210,
      "▁አይክ": 10211,
      "▁ኃሙሽተ": 10212,
      "▁ተፈሊጡ": 10213,
      "▁ተወዲ": 10214,
      "▁ተቐመጥ": 10215,
      "▁ተማሂረ።": 10216,
      "▁ተመሃራይ": 10217,
      "▁ብግዲ": 10218,
      "▁ብቻ": 10219,
      "▁ቤት-ኤል": 10220,
      "▁ቁምነገር": 10221,
      "▁ሻዕብ": 10222,
      "▁ስጋብ": 10223,
      "▁ስራሕካ": 10224,
      "▁ስራሓት": 10225,
      "▁ስለዘ": 10226,
      "▁ሰሚና": 10227,
      "▁ማርቲ": 10228,
      "▁መጽናዕ": 10229,
      "▁መንእሰ": 10230,
[...]
