{
  "version": "1.0",
  "truncation": null,
  "padding": null,
  "added_tokens": [],
  "normalizer": null,
  "pre_tokenizer": {
    "type": "Metaspace",
    "replacement": "▁",
    "prepend_scheme": "always",
    "split": true
  },
  "post_processor": null,
  "decoder": {
    "type": "Metaspace",
    "replacement": "▁",
    "prepend_scheme": "always",
    "split": true
  },
  "model": {
    "type": "BPE",
    "dropout": null,
    "unk_token": "<unk>",
    "continuing_subword_prefix": null,
    "end_of_word_suffix": null,
    "fuse_unk": false,
    "byte_fallback": false,
    "ignore_merges": false,
    "vocab": {
      "<pad>": 0,
      "<unk>": 1,
      "<s>": 2,
      "</s>": 3,
      "!": 4,
      "\"": 5,
      "#": 6,
      "$": 7,
      "%": 8,
      "&": 9,
      "'": 10,
      "(": 11,
      ")": 12,
      "*": 13,
      "+": 14,
      ",": 15,
      "-": 16,
      ".": 17,
      "/": 18,
      "0": 19,
      "1": 20,
      "2": 21,
      "3": 22,
      "4": 23,
      "5": 24,
      "6": 25,
      "7": 26,
      "8": 27,
      "9": 28,
      ":": 29,
      ";": 30,
      "<": 31,
      "=": 32,
      ">": 33,
      "?": 34,
      "@": 35,
      "A": 36,
      "B": 37,
      "C": 38,
      "D": 39,
      "E": 40,
      "F": 41,
      "G": 42,
      "H": 43,
      "I": 44,
      "J": 45,
      "K": 46,
      "L": 47,
      "M": 48,
      "N": 49,
      "O": 50,
      "P": 51,
      "Q": 52,
      "R": 53,
      "S": 54,
      "T": 55,
      "U": 56,
      "V": 57,
      "W": 58,
      "X": 59,
      "Y": 60,
      "Z": 61,
      "[": 62,
      "\\": 63,
      "]": 64,
      "^": 65,
      "_": 66,
      "a": 67,
      "b": 68,
      "c": 69,
      "d": 70,
      "e": 71,
      "f": 72,
      "g": 73,
      "h": 74,
      "i": 75,
      "j": 76,
      "k": 77,
      "l": 78,
      "m": 79,
      "n": 80,
      "o": 81,
      "p": 82,
      "q": 83,
      "r": 84,
      "s": 85,
      "t": 86,
      "u": 87,
      "v": 88,
      "w": 89,
      "x": 90,
      "y": 91,
      "z": 92,
      "{": 93,
      "|": 94,
      "}": 95,
      "~": 96,
      "¡": 97,
      "¢": 98,
      "£": 99,
      "§": 100,
      "©": 101,
      "®": 102,
      "°": 103,
      "±": 104,
      "¶": 105,
      "·": 106,
      "¿": 107,
      "Â": 108,
      "Ä": 109,
      "Ç": 110,
      "É": 111,
      "Ó": 112,
      "×": 113,
      "Ø": 114,
      "Ü": 115,
      "á": 116,
      "â": 117,
      "ã": 118,
      "ä": 119,
      "ç": 120,
      "è": 121,
      "é": 122,
      "ë": 123,
      "í": 124,
      "ï": 125,
      "ö": 126,
      "÷": 127,
      "û": 128,
      "ü": 129,
      "č": 130,
      "ğ": 131,
      "İ": 132,
      "ı": 133,
      "Ş": 134,
      "ş": 135,
      "Ÿ": 136,
      "ʕ": 137,
      "ʻ": 138,
      "ʼ": 139,
      "̈": 140,
      "̋": 141,
      "α": 142,
      "β": 143,
      "μ": 144,
      "о": 145,
      "щ": 146,
      "֗": 147,
      "ְ": 148,
      "ִ": 149,
      "ֹ": 150,
      "ׁ": 151,
      "ו": 152,
      "ז": 153,
      "ח": 154,
      "י": 155,
      "כ": 156,
      "מ": 157,
      "פ": 158,
      "ר": 159,
      "ש": 160,
      "أ": 161,
      "ا": 162,
      "ب": 163,
      "ة": 164,
      "ت": 165,
      "ج": 166,
      "د": 167,
      "ر": 168,
      "س": 169,
      "ش": 170,
      "ص": 171,
      "ع": 172,
      "ق": 173,
      "ل": 174,
      "م": 175,
      "ه": 176,
      "و": 177,
      "ى": 178,
      "ي": 179,
      "ُ": 180,
      "ْ": 181,
      "۞": 182,
      "۩": 183,
      "߹": 184,
      "ख": 185,
      "त": 186,
      "े": 187,
      "စ": 188,
      "ဒ": 189,
      "ပ": 190,
      "ာ": 191,
      "ိ": 192,
      "ု": 193,
      "်": 194,
      "၊": 195,
      "ღ": 196,
      "ሀ": 197,
      "ሁ": 198,
      "ሂ": 199,
      "ሃ": 200,
      "ሄ": 201,
      "ህ": 202,
      "ሆ": 203,
      "ሇ": 204,
      "ለ": 205,
      "ሉ": 206,
      "ሊ": 207,
      "ላ": 208,
      "ሌ": 209,
      "ል": 210,
      "ሎ": 211,
      "ሏ": 212,
      "ሐ": 213,
      "ሑ": 214,
      "ሒ": 215,
      "ሓ": 216,
      "ሔ": 217,
      "ሕ": 218,
      "ሖ": 219,
      "ሗ": 220,
      "መ": 221,
      "ሙ": 222,
      "ሚ": 223,
      "ማ": 224,
      "ሜ": 225,
      "ም": 226,
      "ሞ": 227,
      "ሟ": 228,
      "ሠ": 229,
      "ሡ": 230,
      "ሢ": 231,
      "ሣ": 232,
      "ሤ": 233,
      "ሥ": 234,
      "ሦ": 235,
      "ሧ": 236,
      "ረ": 237,
      "ሩ": 238,
      "ሪ": 239,
      "ራ": 240,
      "ሬ": 241,
      "ር": 242,
      "ሮ": 243,
      "ሯ": 244,
      "ሰ": 245,
      "ሱ": 246,
      "ሲ": 247,
      "ሳ": 248,
      "ሴ": 249,
      "ስ": 250,
      "ሶ": 251,
      "ሷ": 252,
      "ሸ": 253,
      "ሹ": 254,
      "ሺ": 255,
      "ሻ": 256,
      "ሼ": 257,
      "ሽ": 258,
      "ሾ": 259,
      "ሿ": 260,
      "ቀ": 261,
      "ቁ": 262,
      "ቂ": 263,
      "ቃ": 264,
      "ቄ": 265,
      "ቅ": 266,
      "ቆ": 267,
      "ቈ": 268,
      "ቊ": 269,
      "ቋ": 270,
      "ቌ": 271,
      "ቍ": 272,
      "ቐ": 273,
      "በ": 274,
      "ቡ": 275,
      "ቢ": 276,
      "ባ": 277,
      "ቤ": 278,
      "ብ": 279,
      "ቦ": 280,
      "ቧ": 281,
      "ቨ": 282,
      "ቩ": 283,
      "ቪ": 284,
      "ቫ": 285,
      "ቬ": 286,
      "ቭ": 287,
      "ቮ": 288,
      "ተ": 289,
      "ቱ": 290,
      "ቲ": 291,
      "ታ": 292,
      "ቴ": 293,
      "ት": 294,
      "ቶ": 295,
      "ቷ": 296,
      "ቸ": 297,
      "ቹ": 298,
      "ቺ": 299,
      "ቻ": 300,
      "ቼ": 301,
      "ች": 302,
      "ቾ": 303,
      "ቿ": 304,
      "ኀ": 305,
      "ኁ": 306,
      "ኂ": 307,
      "ኃ": 308,
      "ኄ": 309,
      "ኅ": 310,
      "ኆ": 311,
      "ኋ": 312,
      "ኌ": 313,
      "ኍ": 314,
      "ነ": 315,
      "ኑ": 316,
      "ኒ": 317,
      "ና": 318,
      "ኔ": 319,
      "ን": 320,
      "ኖ": 321,
      "ኗ": 322,
      "ኘ": 323,
      "ኙ": 324,
      "ኚ": 325,
      "ኛ": 326,
      "ኜ": 327,
      "ኝ": 328,
      "ኞ": 329,
      "ኟ": 330,
      "አ": 331,
      "ኡ": 332,
      "ኢ": 333,
      "ኣ": 334,
      "ኤ": 335,
      "እ": 336,
      "ኦ": 337,
      "ኧ": 338,
      "ከ": 339,
      "ኩ": 340,
      "ኪ": 341,
      "ካ": 342,
      "ኬ": 343,
      "ክ": 344,
      "ኮ": 345,
      "ኰ": 346,
      "ኲ": 347,
      "ኳ": 348,
      "ኴ": 349,
      "ኵ": 350,
      "ኸ": 351,
      "ኹ": 352,
      "ኺ": 353,
      "ኻ": 354,
      "ኼ": 355,
      "ኽ": 356,
      "ኾ": 357,
      "ዂ": 358,
      "ዅ": 359,
      "ወ": 360,
      "ዉ": 361,
      "ዊ": 362,
      "ዋ": 363,
      "ዌ": 364,
      "ው": 365,
      "ዎ": 366,
      "ዏ": 367,
      "ዐ": 368,
      "ዑ": 369,
      "ዒ": 370,
      "ዓ": 371,
      "ዔ": 372,
      "ዕ": 373,
      "ዖ": 374,
      "ዘ": 375,
      "ዙ": 376,
      "ዚ": 377,
      "ዛ": 378,
      "ዜ": 379,
      "ዝ": 380,
      "ዞ": 381,
      "ዟ": 382,
      "ዠ": 383,
      "ዡ": 384,
      "ዢ": 385,
      "ዣ": 386,
      "ዤ": 387,
      "ዥ": 388,
      "ዦ": 389,
      "ዧ": 390,
      "የ": 391,
      "ዩ": 392,
      "ዪ": 393,
      "ያ": 394,
      "ዬ": 395,
      "ይ": 396,
      "ዮ": 397,
      "ዯ": 398,
      "ደ": 399,
      "ዱ": 400,
      "ዲ": 401,
      "ዳ": 402,
      "ዴ": 403,
      "ድ": 404,
      "ዶ": 405,
      "ዷ": 406,
      "ዺ": 407,
      "ዽ": 408,
      "ጀ": 409,
      "ጁ": 410,
      "ጂ": 411,
      "ጃ": 412,
      "ጄ": 413,
      "ጅ": 414,
      "ጆ": 415,
      "ጇ": 416,
      "ገ": 417,
      "ጉ": 418,
      "ጊ": 419,
      "ጋ": 420,
      "ጌ": 421,
      "ግ": 422,
      "ጎ": 423,
      "ጏ": 424,
      "ጐ": 425,
      "ጒ": 426,
      "ጓ": 427,
      "ጔ": 428,
      "ጕ": 429,
      "ጠ": 430,
      "ጡ": 431,
      "ጢ": 432,
      "ጣ": 433,
      "ጤ": 434,
      "ጥ": 435,
      "ጦ": 436,
      "ጧ": 437,
      "ጨ": 438,
      "ጩ": 439,
      "ጪ": 440,
      "ጫ": 441,
      "ጬ": 442,
      "ጭ": 443,
      "ጮ": 444,
      "ጯ": 445,
      "ጰ": 446,
      "ጲ": 447,
      "ጳ": 448,
      "ጴ": 449,
      "ጵ": 450,
      "ጶ": 451,
      "ጸ": 452,
      "ጹ": 453,
      "ጺ": 454,
      "ጻ": 455,
      "ጼ": 456,
      "ጽ": 457,
      "ጾ": 458,
      "ጿ": 459,
      "ፀ": 460,
      "ፁ": 461,
      "ፂ": 462,
      "ፃ": 463,
      "ፄ": 464,
      "ፅ": 465,
      "ፆ": 466,
      "ፈ": 467,
      "ፉ": 468,
      "ፊ": 469,
      "ፋ": 470,
      "ፌ": 471,
      "ፍ": 472,
      "ፎ": 473,
      "ፏ": 474,
      "ፐ": 475,
      "ፑ": 476,
      "ፒ": 477,
      "ፓ": 478,
      "ፔ": 479,
      "ፕ": 480,
      "ፖ": 481,
      "፠": 482,
      "፡": 483,
      "።": 484,
      "፣": 485,
      "፤": 486,
      "፥": 487,
      "፦": 488,
      "፧": 489,
      "፨": 490,
      "፩": 491,
      "፪": 492,
      "፫": 493,
      "፬": 494,
      "፭": 495,
      "፮": 496,
      "፯": 497,
      "፰": 498,
      "፱": 499,
      "፲": 500,
      "፳": 501,
      "፴": 502,
      "፵": 503,
      "፶": 504,
      "፷": 505,
      "፸": 506,
      "፹": 507,
      "፻": 508,
      "᐀": 509,
      "ᤰ": 510,
      "•": 511,
      "′": 512,
      "‹": 513,
      "›": 514,
      "※": 515,
      "⁄": 516,
      "€": 517,
      "₹": 518,
      "←": 519,
      "→": 520,
      "⇒": 521,
      "═": 522,
      "╔": 523,
      "▁!": 524,
      "▁\"": 525,
      "▁#": 526,
      "▁$": 527,
      "▁%": 528,
      "▁&": 529,
      "▁'": 530,
      "▁(": 531,
      "▁)": 532,
      "▁*": 533,
      "▁+": 534,
      "▁,": 535,
      "▁-": 536,
      "▁.": 537,
      "▁/": 538,
      "▁0": 539,
      "▁1": 540,
      "▁2": 541,
      "▁3": 542,
      "▁4": 543,
      "▁5": 544,
      "▁6": 545,
      "▁7": 546,
      "▁8": 547,
      "▁9": 548,
      "▁:": 549,
      "▁;": 550,
      "▁<": 551,
      "▁=": 552,
      "▁>": 553,
      "▁?": 554,
      "▁@": 555,
      "▁A": 556,
      "▁B": 557,
      "▁C": 558,
      "▁D": 559,
      "▁E": 560,
      "▁F": 561,
      "▁G": 562,
      "▁H": 563,
      "▁I": 564,
      "▁J": 565,
      "▁K": 566,
      "▁L": 567,
      "▁M": 568,
      "▁N": 569,
      "▁O": 570,
      "▁P": 571,
      "▁Q": 572,
      "▁R": 573,
      "▁S": 574,
      "▁T": 575,
      "▁U": 576,
      "▁V": 577,
      "▁W": 578,
      "▁X": 579,
      "▁Y": 580,
      "▁Z": 581,
      "▁[": 582,
      "▁\\": 583,
      "▁]": 584,
      "▁^": 585,
      "▁_": 586,
      "▁a": 587,
      "▁b": 588,
      "▁c": 589,
      "▁d": 590,
      "▁e": 591,
      "▁f": 592,
      "▁g": 593,
      "▁h": 594,
      "▁i": 595,
      "▁j": 596,
      "▁k": 597,
      "▁l": 598,
      "▁m": 599,
      "▁n": 600,
      "▁o": 601,
      "▁p": 602,
      "▁q": 603,
      "▁r": 604,
      "▁s": 605,
      "▁t": 606,
      "▁u": 607,
      "▁v": 608,
      "▁w": 609,
      "▁x": 610,
      "▁y": 611,
      "▁z": 612,
      "▁{": 613,
      "▁|": 614,
      "▁}": 615,
      "▁~": 616,
      "▁¢": 617,
      "▁£": 618,
      "▁§": 619,
      "▁©": 620,
      "▁°": 621,
      "▁±": 622,
      "▁¶": 623,
      "▁·": 624,
      "▁¿": 625,
      "▁Â": 626,
      "▁Ä": 627,
      "▁Ç": 628,
      "▁×": 629,
      "▁Ø": 630,
      "▁Ü": 631,
      "▁á": 632,
      "▁â": 633,
      "▁÷": 634,
      "▁û": 635,
      "▁ü": 636,
      "▁İ": 637,
      "▁ʕ": 638,
      "▁ʼ": 639,
      "▁̈": 640,
      "▁̋": 641,
      "▁α": 642,
      "▁β": 643,
      "▁μ": 644,
      "▁ז": 645,
      "▁כ": 646,
      "▁מ": 647,
      "▁פ": 648,
      "▁ר": 649,
      "▁أ": 650,
      "▁ا": 651,
      "▁ج": 652,
      "▁س": 653,
      "▁ص": 654,
      "▁ع": 655,
      "▁ق": 656,
      "▁و": 657,
      "▁۞": 658,
      "▁۩": 659,
      "▁ख": 660,
      "▁စ": 661,
      "▁ღ": 662,
      "▁ሀ": 663,
      "▁ሁ": 664,
      "▁ሂ": 665,
      "▁ሃ": 666,
      "▁ሄ": 667,
      "▁ህ": 668,
      "▁ሆ": 669,
      "▁ሇ": 670,
      "▁ለ": 671,
      "▁ሉ": 672,
      "▁ሊ": 673,
      "▁ላ": 674,
      "▁ሌ": 675,
      "▁ል": 676,
      "▁ሎ": 677,
      "▁ሐ": 678,
      "▁ሑ": 679,
      "▁ሒ": 680,
      "▁ሓ": 681,
      "▁ሔ": 682,
      "▁ሕ": 683,
      "▁ሖ": 684,
      "▁መ": 685,
      "▁ሙ": 686,
      "▁ሚ": 687,
      "▁ማ": 688,
      "▁ሜ": 689,
      "▁ም": 690,
      "▁ሞ": 691,
      "▁ሟ": 692,
      "▁ሠ": 693,
      "▁ሡ": 694,
      "▁ሢ": 695,
      "▁ሣ": 696,
      "▁ሥ": 697,
      "▁ሦ": 698,
      "▁ረ": 699,
      "▁ሩ": 700,
      "▁ሪ": 701,
      "▁ራ": 702,
      "▁ሬ": 703,
      "▁ር": 704,
      "▁ሮ": 705,
      "▁ሯ": 706,
      "▁ሰ": 707,
      "▁ሱ": 708,
      "▁ሲ": 709,
      "▁ሳ": 710,
      "▁ሴ": 711,
      "▁ስ": 712,
      "▁ሶ": 713,
      "▁ሷ": 714,
      "▁ሸ": 715,
      "▁ሹ": 716,
      "▁ሺ": 717,
      "▁ሻ": 718,
      "▁ሼ": 719,
      "▁ሽ": 720,
      "▁ሾ": 721,
      "▁ቀ": 722,
      "▁ቁ": 723,
      "▁ቂ": 724,
      "▁ቃ": 725,
      "▁ቄ": 726,
      "▁ቅ": 727,
      "▁ቆ": 728,
      "▁ቈ": 729,
      "▁ቊ": 730,
      "▁ቋ": 731,
      "▁ቍ": 732,
      "▁በ": 733,
      "▁ቡ": 734,
      "▁ቢ": 735,
      "▁ባ": 736,
      "▁ቤ": 737,
      "▁ብ": 738,
      "▁ቦ": 739,
      "▁ቧ": 740,
      "▁ቨ": 741,
      "▁ቩ": 742,
      "▁ቪ": 743,
      "▁ቫ": 744,
      "▁ቬ": 745,
      "▁ቭ": 746,
      "▁ቮ": 747,
      "▁ተ": 748,
      "▁ቱ": 749,
      "▁ቲ": 750,
      "▁ታ": 751,
      "▁ቴ": 752,
      "▁ት": 753,
      "▁ቶ": 754,
      "▁ቸ": 755,
      "▁ቹ": 756,
      "▁ቺ": 757,
      "▁ቻ": 758,
      "▁ቼ": 759,
      "▁ች": 760,
      "▁ቾ": 761,
      "▁ኀ": 762,
      "▁ኃ": 763,
      "▁ኅ": 764,
      "▁ኋ": 765,
      "▁ነ": 766,
      "▁ኑ": 767,
      "▁ኒ": 768,
      "▁ና": 769,
      "▁ኔ": 770,
      "▁ን": 771,
      "▁ኖ": 772,
      "▁ኗ": 773,
      "▁ኘ": 774,
      "▁ኛ": 775,
      "▁አ": 776,
      "▁ኡ": 777,
      "▁ኢ": 778,
      "▁ኣ": 779,
      "▁ኤ": 780,
      "▁እ": 781,
      "▁ኦ": 782,
      "▁ኧ": 783,
      "▁ከ": 784,
      "▁ኩ": 785,
      "▁ኪ": 786,
      "▁ካ": 787,
      "▁ኬ": 788,
      "▁ክ": 789,
      "▁ኮ": 790,
      "▁ኰ": 791,
      "▁ኲ": 792,
      "▁ኳ": 793,
      "▁ኴ": 794,
      "▁ኵ": 795,
      "▁ኸ": 796,
      "▁ኹ": 797,
      "▁ኺ": 798,
      "▁ኻ": 799,
      "▁ኾ": 800,
      "▁ዅ": 801,
      "▁ወ": 802,
      "▁ዉ": 803,
      "▁ዊ": 804,
      "▁ዋ": 805,
      "▁ዌ": 806,
      "▁ው": 807,
      "▁ዎ": 808,
      "▁ዐ": 809,
      "▁ዑ": 810,
      "▁ዒ": 811,
      "▁ዓ": 812,
      "▁ዔ": 813,
      "▁ዕ": 814,
      "▁ዖ": 815,
      "▁ዘ": 816,
      "▁ዙ": 817,
      "▁ዚ": 818,
      "▁ዛ": 819,
      "▁ዜ": 820,
      "▁ዝ": 821,
      "▁ዞ": 822,
      "▁ዟ": 823,
      "▁ዢ": 824,
      "▁ዣ": 825,
      "▁ዥ": 826,
      "▁የ": 827,
      "▁ዩ": 828,
      "▁ዪ": 829,
      "▁ያ": 830,
      "▁ዬ": 831,
      "▁ይ": 832,
      "▁ዮ": 833,
      "▁ዯ": 834,
      "▁ደ": 835,
      "▁ዱ": 836,
      "▁ዲ": 837,
      "▁ዳ": 838,
      "▁ዴ": 839,
      "▁ድ": 840,
      "▁ዶ": 841,
      "▁ጀ": 842,
      "▁ጁ": 843,
      "▁ጂ": 844,
      "▁ጃ": 845,
      "▁ጄ": 846,
      "▁ጅ": 847,
      "▁ጆ": 848,
      "▁ገ": 849,
      "▁ጉ": 850,
      "▁ጊ": 851,
      "▁ጋ": 852,
      "▁ጌ": 853,
      "▁ግ": 854,
      "▁ጎ": 855,
      "▁ጏ": 856,
      "▁ጐ": 857,
      "▁ጒ": 858,
      "▁ጓ": 859,
      "▁ጔ": 860,
      "▁ጕ": 861,
      "▁ጠ": 862,
      "▁ጡ": 863,
      "▁ጢ": 864,
      "▁ጣ": 865,
      "▁ጤ": 866,
      "▁ጥ": 867,
      "▁ጦ": 868,
      "▁ጧ": 869,
      "▁ጨ": 870,
      "▁ጩ": 871,
      "▁ጪ": 872,
      "▁ጫ": 873,
      "▁ጭ": 874,
      "▁ጮ": 875,
      "▁ጲ": 876,
      "▁ጳ": 877,
      "▁ጴ": 878,
      "▁ጸ": 879,
      "▁ጹ": 880,
      "▁ጺ": 881,
      "▁ጻ": 882,
      "▁ጼ": 883,
      "▁ጽ": 884,
      "▁ጾ": 885,
      "▁ፀ": 886,
      "▁ፁ": 887,
      "▁ፃ": 888,
      "▁ፄ": 889,
      "▁ፅ": 890,
      "▁ፆ": 891,
      "▁ፈ": 892,
      "▁ፉ": 893,
      "▁ፊ": 894,
      "▁ፋ": 895,
      "▁ፌ": 896,
      "▁ፍ": 897,
      "▁ፎ": 898,
      "▁ፏ": 899,
      "▁ፐ": 900,
      "▁ፑ": 901,
      "▁ፒ": 902,
      "▁ፓ": 903,
      "▁ፔ": 904,
      "▁ፕ": 905,
      "▁ፖ": 906,
      "▁፠": 907,
      "▁፡": 908,
      "▁።": 909,
      "▁፣": 910,
      "▁፤": 911,
      "▁፥": 912,
      "▁፦": 913,
      "▁፧": 914,
      "▁፨": 915,
      "▁፩": 916,
      "▁፪": 917,
      "▁፫": 918,
      "▁፬": 919,
      "▁፭": 920,
      "▁፮": 921,
      "▁፯": 922,
      "▁፰": 923,
      "▁፱": 924,
      "▁፲": 925,
      "▁፳": 926,
      "▁፴": 927,
      "▁፵": 928,
      "▁፶": 929,
      "▁፷": 930,
      "▁፸": 931,
      "▁፹": 932,
      "▁፻": 933,
      "▁ᤰ": 934,
      "▁•": 935,
      "▁′": 936,
      "▁‹": 937,
      "▁›": 938,
      "▁※": 939,
      "▁€": 940,
      "▁₹": 941,
      "▁←": 942,
      "▁→": 943,
      "▁⇒": 944,
      "▁╔": 945,
      "▁■": 946,
      "▁▪": 947,
      "▁▶": 948,
      "▁▷": 949,
      "▁▸": 950,
      "▁►": 951,
      "▁▼": 952,
      "▁◆": 953,
      "▁◈": 954,
      "▁◉": 955,
      "▁◊": 956,
      "▁●": 957,
      "▁★": 958,
      "▁☛": 959,
      "▁☞": 960,
      "▁♡": 961,
      "▁♦": 962,
      "▁♪": 963,
      "▁♻": 964,
      "▁⛱": 965,
      "▁✓": 966,
      "▁✔": 967,
      "▁❀": 968,
      "▁❐": 969,
      "▁❑": 970,
      "▁❖": 971,
      "▁❤": 972,
      "▁➜": 973,
      "▁⭐": 974,
      "▁。": 975,
      "▁ア": 976,
      "▁停": 977,
      "▁的": 978,
      "▁�": 979,
      "▁🇲": 980,
      "▁🌤": 981,
      "▁👉": 982,
      "▁📚": 983,
      "▁🔥": 984,
      "▁😀": 985,
      "▁😉": 986,
      "▁🙂": 987,
      "▁🛑": 988,
      "■": 989,
      "▪": 990,
      "▶": 991,
      "▷": 992,
      "▸": 993,
      "►": 994,
      "▼": 995,
      "◆": 996,
      "◈": 997,
      "◉": 998,
      "◊": 999,
      "●": 1000,
      "★": 1001,
      "☛": 1002,
      "☞": 1003,
      "♐": 1004,
      "♡": 1005,
      "♦": 1006,
      "♪": 1007,
      "♻": 1008,
      "⛱": 1009,
      "✅": 1010,
      "✓": 1011,
      "✔": 1012,
      "❀": 1013,
      "❐": 1014,
      "❑": 1015,
      "❖": 1016,
      "❤": 1017,
      "➜": 1018,
      "⭐": 1019,
      "ⶋ": 1020,
      "、": 1021,
      "。": 1022,
      "ア": 1023,
      "ハ": 1024,
      "ム": 1025,
      "ラ": 1026,
      "停": 1027,
      "的": 1028,
      "語": 1029,
      "︎": 1030,
      "️": 1031,
      "�": 1032,
      "🇲": 1033,
      "🇽": 1034,
      "🌤": 1035,
      "👉": 1036,
      "📚": 1037,
      "🔥": 1038,
      "😀": 1039,
      "😉": 1040,
      "😏": 1041,
      "😳": 1042,
      "🙂": 1043,
      "🛑": 1044,
      "▁እን": 1045,
      "▁ነው": 1046,
      "ቸው": 1047,
      "▁እና": 1048,
      "ዎች": 1049,
      "ንድ": 1050,
      "▁እንደ": 1051,
      "▁የሚ": 1052,
      "ስጥ": 1053,
      "ዚህ": 1054,
      "▁ውስጥ": 1055,
      "▁ላይ": 1056,
      "ንም": 1057,
      "ገር": 1058,
      "▁ጊዜ": 1059,
      "▁ይህ": 1060,
      "▁ግን": 1061,
      "ነት": 1062,
      "▁አይ": 1063,
      "▁ወደ": 1064,
      "ርሱ": 1065,
      "▁ሁሉ": 1066,
      "▁የተ": 1067,
      "ል።": 1068,
      "ለም": 1069,
      "▁ነበ": 1070,
      "ንተ": 1071,
      "ለው": 1072,
      "▁እንዲ": 1073,
      "▁ነገር": 1074,
      "▁ስለ": 1075,
      "▁እነ": 1076,
      "ችሁ": 1077,
      "ቶች": 1078,
      "አብ": 1079,
      "▁ጋር": 1080,
      "ለሁ": 1081,
      "ሆን": 1082,
      "▁በእ": 1083,
      "ግዚ": 1084,
      "▁ነበር": 1085,
      "ግዚአብ": 1086,
      "ሔር": 1087,
      "ግዚአብሔር": 1088,
      "▁አለ": 1089,
      "ሆነ": 1090,
      "ዚያ": 1091,
      "ሪያ": 1092,
      "▁እኔ": 1093,
      "ችን": 1094,
      "▁አንድ": 1095,
      "▁አስ": 1096,
      "▁ነው።": 1097,
      "ውን": 1098,
      "በት": 1099,
      "ርስ": 1100,
      "ለት": 1101,
      "▁ወይ": 1102,
      "▁አን": 1103,
      "▁መን": 1104,
      "ላል": 1105,
      "▁ሰው": 1106,
      "ተኛ": 1107,
      "ፈል": 1108,
      "ሁን": 1109,
      "▁ከእ": 1110,
      "▁አል": 1111,
      "ድር": 1112,
      "ትን": 1113,
      "ጣም": 1114,
      "▁ወይም": 1115,
      "▁በጣም": 1116,
      "ለን": 1117,
      "ሆኑ": 1118,
      "▁ብቻ": 1119,
      "▁ብዙ": 1120,
      "▁በመ": 1121,
      "▁አላ": 1122,
      "ም።": 1123,
      "▁አይደ": 1124,
      "▁ናቸው": 1125,
      "ምን": 1126,
      "▁የእ": 1127,
      "ያን": 1128,
      "ደር": 1129,
      "ሮች": 1130,
      "ንያ": 1131,
      "ናል": 1132,
      "▁በአ": 1133,
      "▁እግዚአብሔር": 1134,
      "▁ቀን": 1135,
      "▁ምን": 1136,
      "▁እኛ": 1137,
      "▁ለእ": 1138,
      "ስት": 1139,
      "ገድ": 1140,
      "▁ዓመ": 1141,
      "ጀመ": 1142,
      "▁በተ": 1143,
      "ድረ": 1144,
      "መለ": 1145,
      "▁አሁን": 1146,
      "ደረ": 1147,
      "ምላ": 1148,
      "▁መል": 1149,
      "▁እስ": 1150,
      "▁ለመ": 1151,
      "ነበ": 1152,
      "ላሉ": 1153,
      "ዋል": 1154,
      "▁የሚያ": 1155,
      "ይወ": 1156,
      "▁የመ": 1157,
      "ርግ": 1158,
      "▁እርሱ": 1159,
      "ዳን": 1160,
      "▁ምክ": 1161,
      "ቸውን": 1162,
      "▁እንደሚ": 1163,
      "ውም": 1164,
      "▁እሱ": 1165,
      "▁ይች": 1166,
      "ካከ": 1167,
      "▁አይደለም": 1168,
      "ላይ": 1169,
      "ሎች": 1170,
      "▁እንዳ": 1171,
      "▁አንተ": 1172,
      "ባት": 1173,
      "ስተ": 1174,
      "ራት": 1175,
      "ኋላ": 1176,
      "▁የም": 1177,
      "▁ነው.": 1178,
      "▁ደግ": 1179,
      "ናም": 1180,
      "▁ምክንያ": 1181,
      "ማሪ": 1182,
      "ጀመሪያ": 1183,
      "ርስዎ": 1184,
      "ታት": 1185,
      "ላቸው": 1186,
      "▁20": 1187,
      "ምላክ": 1188,
      "ድረግ": 1189,
      "ንን": 1190,
      "ረት": 1191,
      "▁እየ": 1192,
      "▁ነገ": 1193,
      "ሉ።": 1194,
      "ፊት": 1195,
      "..": 1196,
      "▁የማ": 1197,
      "▁እንዲህ": 1198,
      "ቱም": 1199,
      "ጆች": 1200,
      "▁ምንም": 1201,
      "መል": 1202,
      "▁እው": 1203,
      "▁መንገድ": 1204,
      "ህን": 1205,
      "ቅር": 1206,
      "▁የአ": 1207,
      "▁ለማ": 1208,
      "ላችሁ": 1209,
      "▁ከተ": 1210,
      "▁ይሆ": 1211,
      "ረው": 1212,
      "▁አብ": 1213,
      "▁ከአ": 1214,
      "▁ማን": 1215,
      "ሉት": 1216,
      "የት": 1217,
      "መን": 1218,
      "▁አገ": 1219,
      "▁ነበር።": 1220,
      "ል.": 1221,
      "መስ": 1222,
      "▁እነሱ": 1223,
      "ነው": 1224,
      "▁ያለው": 1225,
      "ችል": 1226,
      "ርት": 1227,
      "ሰማ": 1228,
      "ቱን": 1229,
      "ውቃ": 1230,
      "ይወት": 1231,
      "▁ዘንድ": 1232,
      "ዴት": 1233,
      "ኞች": 1234,
      "ካከል": 1235,
      "ርግጥ": 1236,
      "ትም": 1237,
      "ናንተ": 1238,
      "ያው": 1239,
      "ሳይ": 1240,
      "ገባ": 1241,
      "▁ያለ": 1242,
      "▁በሚ": 1243,
      "▁ጌታ": 1244,
      "▁ቤት": 1245,
      "▁እነዚህ": 1246,
      "መጣ": 1247,
      "ሰብ": 1248,
      "ረጃ": 1249,
      "ኖር": 1250,
      "ንዴት": 1251,
      "▁ሥራ": 1252,
      "▁መካከል": 1253,
      "ናት": 1254,
      "ለህ": 1255,
      "ረስ": 1256,
      "ኘት": 1257,
      "ዶች": 1258,
      "ከተ": 1259,
      "▁ሌላ": 1260,
      "▁\"እ": 1261,
      "ሱስ": 1262,
      "▁በእርግጥ": 1263,
      "▁መስ": 1264,
      "▁ማለት": 1265,
      "▁መጠ": 1266,
      "የሱስ": 1267,
      "▁ሆኖ": 1268,
      "ረሻ": 1269,
      "▁ባለ": 1270,
      "ቦች": 1271,
      "ሰው": 1272,
      "ገና": 1273,
      "▁እንኳ": 1274,
      "ንግ": 1275,
      "ስታ": 1276,
      "▁እንዲሁ": 1277,
      "▁ምር": 1278,
      "ጣት": 1279,
      "▁ከሆነ": 1280,
      "▁እነርሱ": 1281,
      "▁ቃል": 1282,
      "ልቅ": 1283,
      "▁እስከ": 1284,
      "▁ልጅ": 1285,
      "ዎቹ": 1286,
      "00": 1287,
      "ጨረሻ": 1288,
      "▁አምላክ": 1289,
      "▁እናንተ": 1290,
      "ኔታ": 1291,
      "▁ቦታ": 1292,
      "▁ዓመት": 1293,
      "ባቸው": 1294,
      "ጽሐ": 1295,
      "▁ድረስ": 1296,
      "ላት": 1297,
      "▁ይሆናል": 1298,
      "▁ሁኔታ": 1299,
      "ጨማሪ": 1300,
      "▁አት": 1301,
      "▁ሕዝ": 1302,
      "እነ": 1303,
      "ወቅ": 1304,
      "▁ክፍ": 1305,
      "ራዊ": 1306,
      "ዋል።": 1307,
      "መር": 1308,
      "ዲስ": 1309,
      "በለ": 1310,
      "ናገ": 1311,
      "▁ዓለም": 1312,
      "በል": 1313,
      "▁አድር": 1314,
      "▁ሆይ": 1315,
      "ሪካ": 1316,
      "ለሁ።": 1317,
      "▁አባ": 1318,
      "▁ከፍ": 1319,
      "ክት": 1320,
      "▁ማድረግ": 1321,
      "ሩት": 1322,
      "ግር": 1323,
      "▁ከመ": 1324,
      "ሉም": 1325,
      "▁አለው": 1326,
      "▁መሆን": 1327,
      "ቀር": 1328,
      "ቅም": 1329,
      "ህል": 1330,
      "▁ሆነ": 1331,
      "▁የሆነ": 1332,
      "ግኘት": 1333,
      "▁ያስ": 1334,
      "▁ዓይ": 1335,
      "ሞች": 1336,
      "ድን": 1337,
      "▁አንዳ": 1338,
      "ኤል": 1339,
      "መሳ": 1340,
      "▁እር": 1341,
      "ጠቀ": 1342,
      "▁አስፈ": 1343,
      "▁አሉ": 1344,
      "▁አያ": 1345,
      "ዓለም": 1346,
      "ያንዳን": 1347,
      "ወሰ": 1348,
      "▁ዛሬ": 1349,
      "ለች": 1350,
      ":1": 1351,
      "▁የእግዚአብሔር": 1352,
      "▁ነኝ": 1353,
      "▁ኢየሱስ": 1354,
      "ላቅ": 1355,
      "▁ሁለት": 1356,
      "ቻቸው": 1357,
      "▁ለአ": 1358,
      "▁አስተ": 1359,
      "▁ቤተ": 1360,
      "▁ዓመታት": 1361,
      "ላጊ": 1362,
      "ቢያ": 1363,
      "▁እንደሆነ": 1364,
      "▁እያ": 1365,
      "ኖች": 1366,
      "▁ሁለ": 1367,
      "ስራ": 1368,
      "ጌታ": 1369,
      "▁የለም": 1370,
      "ለኛ": 1371,
      "ምና": 1372,
      "▁አካ": 1373,
      "ኛውም": 1374,
      "ጽሐፍ": 1375,
      "ሳሌ": 1376,
      "ከት": 1377,
      "ንዘ": 1378,
      "ታል": 1379,
      "▁ወንድ": 1380,
      "መሳሳይ": 1381,
      "▁ይችላሉ": 1382,
      "ጥር": 1383,
      "▁አስፈላጊ": 1384,
      "▁ትን": 1385,
      "ምህ": 1386,
      "ክክ": 1387,
      "በለጠ": 1388,
      "ፈልጋ": 1389,
      "▁ምክንያት": 1390,
      "ለያ": 1391,
      "ብር": 1392,
      "▁አንዳንድ": 1393,
      "ላህ": 1394,
      "ጊዜ": 1395,
      "ምር": 1396,
      "ተው": 1397,
      "ፈለ": 1398,
      "▁እንዲሁም": 1399,
      "▁ያህል": 1400,
      "▁አው": 1401,
      "ነርሱ": 1402,
      "▁ነው?": 1403,
      "ገው": 1404,
      "መጀመሪያ": 1405,
      "▁ቅዱ": 1406,
      "▁አላህ": 1407,
      "ሳት": 1408,
      "ጠቃ": 1409,
      "ቸው።": 1410,
      "▁አገል": 1411,
      "ወደ": 1412,
      "▁አማ": 1413,
      "ላል።": 1414,
      "▁ጉዳ": 1415,
      "▁ሳይ": 1416,
      "ነበረ": 1417,
      "▁እንኳን": 1418,
      "ይል": 1419,
      "ግብ": 1420,
      "ችኋ": 1421,
      "ረዳ": 1422,
      "ሄድ": 1423,
      "ዎችን": 1424,
      "▁አዲስ": 1425,
      "▁የበለጠ": 1426,
      "ያንዳንዱ": 1427,
      "▁ተስ": 1428,
      "ቀጥ": 1429,
      "▁ፊት": 1430,
      "▁ምክንያቱም": 1431,
      "▁19": 1432,
      "▁ስም": 1433,
      "▁እርስዎ": 1434,
      "▁ሁል": 1435,
      "▁መሆኑ": 1436,
      "▁ሊሆን": 1437,
      "▁ምድር": 1438,
      "ካም": 1439,
      "ነቱ": 1440,
      "ንዘብ": 1441,
      "▁ይሰ": 1442,
      "▁በማ": 1443,
      "ገኛ": 1444,
      "ፍት": 1445,
      "▁\"አ": 1446,
      "ቀት": 1447,
      "▁እንጂ": 1448,
      "ወስ": 1449,
      "▁በር": 1450,
      "▁አመ": 1451,
      "▁ጀም": 1452,
      "ታው": 1453,
      "ረጋ": 1454,
      "▁ነው,": 1455,
      "ጠራ": 1456,
      "▁ናቸው።": 1457,
      "ናል።": 1458,
      "▁201": 1459,
      "ለን።": 1460,
      "▁በእው": 1461,
      "ሜሪካ": 1462,
      "ዎን": 1463,
      "ት።": 1464,
      "▁መጽሐፍ": 1465,
      "በር": 1466,
      "ዓት": 1467,
      "ገል": 1468,
      "ታቸው": 1469,
      "...": 1470,
      "ሳቸው": 1471,
      "▁ይችላል": 1472,
      "ጠር": 1473,
      "▁ሌሎች": 1474,
      "▁ሕይወት": 1475,
      "ደርጋ": 1476,
      "▁አብዛ": 1477,
      "ነሱ": 1478,
      "▁አም": 1479,
      "▁የማይ": 1480,
      "▁እርሱም": 1481,
      "ዲህ": 1482,
      "ርድ": 1483,
      "ሁሉ": 1484,
      "ሎት": 1485,
      "▁ምስ": 1486,
      "ንስ": 1487,
      "▁ደረጃ": 1488,
      "ወዳ": 1489,
      "ማር": 1490,
      "▁እውነት": 1491,
      "ስተኛ": 1492,
      "ሠራ": 1493,
      "▁10": 1494,
      "ፈልግ": 1495,
      "ቻችን": 1496,
      "▁ከተማ": 1497,
      "▁በአንድ": 1498,
      "▁ታላቅ": 1499,
      "▁ቅዱስ": 1500,
      "ቂት": 1501,
      "ግል": 1502,
      "▁እውነ": 1503,
      "▁ሊያ": 1504,
      "ሙሉ": 1505,
      "ማን": 1506,
      "▁አሳ": 1507,
      "▁ወን": 1508,
      "▁እኔም": 1509,
      "ራቸው": 1510,
      "ም.": 1511,
      "▁መሆኑን": 1512,
      "ግባ": 1513,
      "▁ከሚ": 1514,
      "▁ሙሉ": 1515,
      "▁የምት": 1516,
      "ወጣ": 1517,
      "ምድር": 1518,
      "▁ክርስ": 1519,
      "ሰጠ": 1520,
      "ውያን": 1521,
      "ታዊ": 1522,
      "ሰራ": 1523,
      "▁ተቀ": 1524,
      "ባንያ": 1525,
      "▁ይጠ": 1526,
      "▁ሲሆን": 1527,
      "ሥራ": 1528,
      "ፈልጉ": 1529,
      "ከራ": 1530,
      "ርሃ": 1531,
      "▁ያሉ": 1532,
      "በረ": 1533,
      "ል፤": 1534,
      "ጢአ": 1535,
      "ኛው": 1536,
      "▁ትምህ": 1537,
      "ማድረግ": 1538,
      "ናገር": 1539,
      "▁እየተ": 1540,
      "መረ": 1541,
      "ዎት": 1542,
      "ሆንም": 1543,
      "ገለ": 1544,
      "ማት": 1545,
      "ግራ": 1546,
      "ጣን": 1547,
      "▁እንዲያ": 1548,
      "▁ተስፋ": 1549,
      "▁ሆኖም": 1550,
      "ምነት": 1551,
      "ገኝ": 1552,
      "ዲያ": 1553,
      "ሪክ": 1554,
      "▁ያል": 1555,
      "▁ነው፤": 1556,
      "▁የተሻ": 1557,
      "ገኙ": 1558,
      "ገኘ": 1559,
      "▁መጥ": 1560,
      "ባቢ": 1561,
      "ኩል": 1562,
      "▁ነበር.": 1563,
      "ቤተ": 1564,
      "ዚያም": 1565,
      "▁ጓደ": 1566,
      "ለይ": 1567,
      "ምት": 1568,
      "ረን": 1569,
      "ስራኤል": 1570,
      "ልክ": 1571,
      "ሌላ": 1572,
      "ም፤": 1573,
      "ብን": 1574,
      ":2": 1575,
      "▁እንድ": 1576,
      "▁ወቅ": 1577,
      "▁ተመሳሳይ": 1578,
      "▁መንግ": 1579,
      "ደን": 1580,
      "▁\"በ": 1581,
      "ፍራ": 1582,
      "▁እሷ": 1583,
      "እግዚአብሔር": 1584,
      "▁ዕድ": 1585,
      "ደረገ": 1586,
      "ለያዩ": 1587,
      "▁ፕሮ": 1588,
      "ሉ.": 1589,
      "▁ቀላል": 1590,
      "ዮች": 1591,
      "ና።": 1592,
      "▁ኩባንያ": 1593,
      "ሪዎች": 1594,
      "▁ስለሆነ": 1595,
      "▁ለሚ": 1596,
      "ይት": 1597,
      "▁ነን": 1598,
      "እኔ": 1599,
      "ዋታ": 1600,
      "ቀው": 1601,
      "ሱን": 1602,
      "▁ሴት": 1603,
      "▁ያውቃ": 1604,
      "ችላ": 1605,
      "▁አገልግ": 1606,
      "በቅ": 1607,
      "ታችን": 1608,
      "ያቄ": 1609,
      "▁ንጉ": 1610,
      "ብዙ": 1611,
      "▁የለ": 1612,
      "▁ተመል": 1613,
      "ባል": 1614,
      "ሆና": 1615,
      "▁መልካም": 1616,
      "▁በው": 1617,
      "ችንም": 1618,
      "▁ልብ": 1619,
      "ቤት": 1620,
      "▁የት": 1621,
      "▁ትልቅ": 1622,
      "▁ተጨማሪ": 1623,
      "ላም": 1624,
      "ኝነት": 1625,
      "▁ነበረ": 1626,
      "▁ቀናት": 1627,
      "ችሉ": 1628,
      "▁መረጃ": 1629,
      "▁የነበ": 1630,
      "▁ትክክ": 1631,
      "ጫወ": 1632,
      "▁አለበት": 1633,
      "ደም": 1634,
      "▁ውጤ": 1635,
      "▁(አ": 1636,
      "ገን": 1637,
      "▁ወቅት": 1638,
      "ነሳ": 1639,
      "▁ትምህርት": 1640,
      "ተጨማሪ": 1641,
      "ጅግ": 1642,
      "▁\"የ": 1643,
      "ልም": 1644,
      "▁እነርሱም": 1645,
      "ማግኘት": 1646,
      "▁ጥያቄ": 1647,
      "▁አላቸው": 1648,
      "▁ከባ": 1649,
      "ኖሩ": 1650,
      "▁ከፍተኛ": 1651,
      "ሕዝ": 1652,
      "ያስ": 1653,
      "ዛት": 1654,
      "ራል": 1655,
      "ያት": 1656,
      "ደርግ": 1657,
      "▁ድር": 1658,
      "የር": 1659,
      "▁ወር": 1660,
      "▁ገንዘብ": 1661,
      "ከር": 1662,
      "▁ትንሽ": 1663,
      "▁እያንዳንዱ": 1664,
      "ደው": 1665,
      "ታል።": 1666,
      "ኞቹ": 1667,
      "▁መላ": 1668,
      "ክር": 1669,
      "▁ልዩ": 1670,
      "ጠሩ": 1671,
      "▁ዓይነት": 1672,
      "ቷል": 1673,
      "ዘጋ": 1674,
      "▁እንዳለ": 1675,
      "በብ": 1676,
      "▁አለ።": 1677,
      "እኛ": 1678,
      "▁እንደገና": 1679,
      "ናልባት": 1680,
      "▁ያለውን": 1681,
      "▁የምን": 1682,
      "▁እንግ": 1683,
      "▁ክፍል": 1684,
      "▁ዋጋ": 1685,
      "▁ግንኙ": 1686,
      "▁ማንም": 1687,
      "ም,": 1688,
      "ተር": 1689,
      "▁የሚያስ": 1690,
      "▁የመጀመሪያ": 1691,
      "▁መንገ": 1692,
      "ቶስ": 1693,
      "ቸዋል": 1694,
      "▁ምናልባት": 1695,
      "ን?": 1696,
      "መለስ": 1697,
      "▁ጨዋታ": 1698,
      "▁እነሆ": 1699,
      "ሮፓ": 1700,
      "ሌሎች": 1701,
      "ርግጠ": 1702,
      "ፈር": 1703,
      "ይህ": 1704,
      "▁መለ": 1705,
      "▁ማግኘት": 1706,
      "▁በእርሱ": 1707,
      "▁አቀ": 1708,
      "ዮን": 1709,
      "ከታ": 1710,
      "ላጎ": 1711,
      "▁ማስ": 1712,
      "▁ፍቅር": 1713,
      "ክርስ": 1714,
      "ቀድ": 1715,
      "▁ከእርሱ": 1716,
      "▁12": 1717,
      "▁ሁልጊዜ": 1718,
      "ጥነት": 1719,
      "ንቋ": 1720,
      "▁አልተ": 1721,
      "ነጋ": 1722,
      "ኝ።": 1723,
      "መሰ": 1724,
      "▁ማህ": 1725,
      "መው": 1726,
      "▁የታ": 1727,
      "▁የእርስዎ": 1728,
      "ካታ": 1729,
      "▁ነህ": 1730,
      "መራ": 1731,
      "ከቱ": 1732,
      "ቻል": 1733,
      "▁18": 1734,
      "ፈስ": 1735,
      "ደት": 1736,
      "▁በል": 1737,
      "መና": 1738,
      "ማይ": 1739,
      "▁በመጨረሻ": 1740,
      "▁እነዚያ": 1741,
      "▁ፍላጎ": 1742,
      "ሖዋ": 1743,
      "ምሳሌ": 1744,
      "ፈራ": 1745,
      "ደረግ": 1746,
      "▁ንግ": 1747,
      "ፋት": 1748,
      "▁መብ": 1749,
      "▁ድን": 1750,
      "እነዚህ": 1751,
      "እስራኤል": 1752,
      "ሞክ": 1753,
      "በልጥ": 1754,
      "ወድ": 1755,
      "▁ጥቂት": 1756,
      "ያውቁ": 1757,
      "ጠት": 1758,
      "▁ዋና": 1759,
      "▁አጋ": 1760,
      "or": 1761,
      "▁ከእናንተ": 1762,
      "▁እጅ": 1763,
      "ረብ": 1764,
      "▁ፈቃ": 1765,
      "ንዱ": 1766,
      "▁ዘመን": 1767,
      "ጠብ": 1768,
      "▁አዳ": 1769,
      "▁በቀ": 1770,
      "▁ይመስ": 1771,
      "ንት": 1772,
      "ችሁን": 1773,
      "▁ይሄ": 1774,
      "▁አደ": 1775,
      "ሩ።": 1776,
      "▁መሠ": 1777,
      "▁ተማሪ": 1778,
      "ጠፋ": 1779,
      "ሕይወት": 1780,
      "er": 1781,
      "▁መር": 1782,
      "▁የተሻለ": 1783,
      "ዲዮ": 1784,
      "ራስ": 1785,
      "▁ሕዝብ": 1786,
      "ጠና": 1787,
      "ቹን": 1788,
      "▁ይችላሉ.": 1789,
      "▁ማየት": 1790,
      "ደርጉ": 1791,
      "▁ምርጥ": 1792,
      "▁አድ": 1793,
      "▁የተለ": 1794,
      "ቀም": 1795,
      "▁ናቸው.": 1796,
      "ሞት": 1797,
      "ል,": 1798,
      "ቀመ": 1799,
      "መኑ": 1800,
      "▁ግል": 1801,
      "▁ድም": 1802,
      "▁11": 1803,
      "ምራ": 1804,
      "▁‹‹": 1805,
      "▁ስራ": 1806,
      "ፈው": 1807,
      "▁አለው።": 1808,
      "▁መጠን": 1809,
      "ሰባ": 1810,
      "▁አልነበረ": 1811,
      "▁ታሪክ": 1812,
      "▁መግ": 1813,
      "ብኝ": 1814,
      "▁ኃይል": 1815,
      "▁ከባድ": 1816,
      "ያንስ": 1817,
      "ከና": 1818,
      "ሁለ": 1819,
      "▁እርስ": 1820,
      "▁ሰዓት": 1821,
      "▁ቋንቋ": 1822,
      "▁ማወቅ": 1823,
      "ጅም": 1824,
      "▁ይሆናል.": 1825,
      "▁ችግር": 1826,
      "ሚያ": 1827,
      "ሰጥ": 1828,
      "▁ልጆ": 1829,
      "▁ጉዳይ": 1830,
      "በራዊ": 1831,
      "▁አብዛኛ": 1832,
      "▁ይገባ": 1833,
      "ረጥ": 1834,
      "ቶችን": 1835,
      "▁ቢሆንም": 1836,
      "▁ገና": 1837,
      "ዋቂ": 1838,
      "▁ቢሆን": 1839,
      "መላ": 1840,
      "▁15": 1841,
      "ድቅ": 1842,
      "▁ቁጥር": 1843,
      "ዳት": 1844,
      "▁በተለይ": 1845,
      "አሜሪካ": 1846,
      "ቻቸውን": 1847,
      "በቃ": 1848,
      "▁ስሜ": 1849,
      "ላማ": 1850,
      "▁አሉት": 1851,
      "ስብ": 1852,
      "▁ነፍ": 1853,
      "ነገ": 1854,
      "▁ነፃ": 1855,
      "▁አይደለም።": 1856,
      "ንቀ": 1857,
      "▁ለእኔ": 1858,
      "▁ያሳ": 1859,
      "▁መው": 1860,
      "ተጨማሪም": 1861,
      "▁ቢያንስ": 1862,
      "▁ኃጢአ": 1863,
      "የው": 1864,
      "ንካ": 1865,
      "በላ": 1866,
      "▁ባል": 1867,
      "ልክት": 1868,
      "ደረጉ": 1869,
      "▁ህዝ": 1870,
      "ወለ": 1871,
      "ሰበ": 1872,
      "ወረ": 1873,
      "ታች": 1874,
      "▁ደስ": 1875,
      "ችንን": 1876,
      "▁እሱን": 1877,
      "▁ይችላል.": 1878,
      "ጠቀም": 1879,
      "ወን": 1880,
      "ሰማይ": 1881,
      "ሥት": 1882,
      "ከሰ": 1883,
      "ሊዮን": 1884,
      "▁ይችላል።": 1885,
      "ደግ": 1886,
      "▁ግንኙነት": 1887,
      "▁ነው!": 1888,
      "ብራ": 1889,
      "ኖራ": 1890,
      "ቸዋል።": 1891,
      "▁ዙሪያ": 1892,
      "ቨር": 1893,
      "▁ኖሮ": 1894,
      "▁መጨረሻ": 1895,
      "ሰቡ": 1896,
      "ላለም": 1897,
      "▁ለው": 1898,
      "▁200": 1899,
      "አው": 1900,
      "ህም": 1901,
      "ምንት": 1902,
      "▁ደን": 1903,
      "ቂያ": 1904,
      "ማንኛውም": 1905,
      "አሁ": 1906,
      "▁በም": 1907,
      "▁ናት": 1908,
      "▁ክርስቲ": 1909,
      "▁አይችል": 1910,
      "▁ግብ": 1911,
      "▁እውነተኛ": 1912,
      "ራሽ": 1913,
      "▁እግዚአብሔርን": 1914,
      "ወሰነ": 1915,
      "ሃል": 1916,
      "▁14": 1917,
      "ገቡ": 1918,
      "▁አባት": 1919,
      "▁በእውነት": 1920,
      "on": 1921,
      "▁ስለሆነም": 1922,
      "ውል": 1923,
      "ሰድ": 1924,
      "ገነ": 1925,
      "▁ጥቅም": 1926,
      "▁ተብ": 1927,
      "ኑን": 1928,
      "ተዋል": 1929,
      "ሁለት": 1930,
      "ከፍ": 1931,
      "▁ቅር": 1932,
      "ለማ": 1933,
      "ሩን": 1934,
      "ሳብ": 1935,
      "▁አስደ": 1936,
      "ታማ": 1937,
      "▁የተለያዩ": 1938,
      "ንግድ": 1939,
      "ለሁ፤": 1940,
      "▁ስፍራ": 1941,
      "ምጃ": 1942,
      "ላዊ": 1943,
      "▁ከሆነ,": 1944,
      "▁ሲል": 1945,
      "▁ከእኔ": 1946,
      "ን።": 1947,
      "▁ክፉ": 1948,
      "▁ስር": 1949,
      "▁እነሱን": 1950,
      "▁ይሰጣ": 1951,
      "▁እምነት": 1952,
      "▁ይቀ": 1953,
      "ብረት": 1954,
      "▁ልክ": 1955,
      "ተኞች": 1956,
      "▁እንደተ": 1957,
      "▁መጀመሪያ": 1958,
      "ላችንም": 1959,
      "ጠቃሚ": 1960,
      "▁አሉ።": 1961,
      "▁ያደርጋ": 1962,
      "▁ችግ": 1963,
      "ም፣": 1964,
      "▁(በ": 1965,
      "ቅድ": 1966,
      "▁ተጠ": 1967,
      "▁ለእናንተ": 1968,
      "ዘላለም": 1969,
      "▁ካል": 1970,
      "ሲቲ": 1971,
      "in": 1972,
      "▁ለተ": 1973,
      "▁መጣ": 1974,
      "ኒቨር": 1975,
      "ኒቨርሲቲ": 1976,
      "re": 1977,
      "▁ስት": 1978,
      "ቻችሁ": 1979,
      "ልፍ": 1980,
      "▁ሙሴ": 1981,
      "ቸውም": 1982,
      "▁መም": 1983,
      "▁የሚቆ": 1984,
      "ውቅ": 1985,
      "▁ብት": 1986,
      "ንና": 1987,
      "▁ምግብ": 1988,
      "ጫወት": 1989,
      "ፈጥ": 1990,
      "መሆን": 1991,
      "▁አካል": 1992,
      "▁ሲያ": 1993,
      "ቸዋ": 1994,
      "ምኑ": 1995,
      "▁17": 1996,
      "መድ": 1997,
      "▁እርምጃ": 1998,
      "▁ትክክለኛ": 1999,
      "▁ወዳ": 2000,
      "▁እኔን": 2001,
      "▁ትር": 2002,
      "▁በእውነቱ": 2003,
      "▁ሳይሆን": 2004,
      "▁ከእነርሱ": 2005,
      "▁ወላ": 2006,
      "ዛሬ": 2007,
      "ሎስ": 2008,
      "ይና": 2009,
      "20": 2010,
      "▁መተ": 2011,
      "▁አገልግሎት": 2012,
      "ርያ": 2013,
      "ርነት": 2014,
      "ሆኑም": 2015,
      "ደል": 2016,
      "▁በፍ": 2017,
      "▁ይታ": 2018,
      "ንድን": 2019,
      "ታችሁ": 2020,
      "▁ዝግ": 2021,
      "▁አሜሪካ": 2022,
      "ትክክ": 2023,
      "ጡት": 2024,
      "▁በርካታ": 2025,
      "ርዝ": 2026,
      "▁ታውቃ": 2027,
      "▁ማንኛውም": 2028,
      "ይን": 2029,
      "በሩ": 2030,
      "▁\"እኔ": 2031,
      "ሰጣ": 2032,
      "ፈለግ": 2033,
      "▁ቤተሰ": 2034,
      "ቀላ": 2035,
      "ተት": 2036,
      "በትን": 2037,
      "በያ": 2038,
      ":3": 2039,
      "▁ወይስ": 2040,
      "▁በየ": 2041,
      "አውሮፓ": 2042,
      "ኛል": 2043,
      "▁ጉዞ": 2044,
      "ከብ": 2045,
      "▁በኢ": 2046,
      "▁16": 2047,
      "▁እርግጠ": 2048,
      "ጠቃላይ": 2049,
      "▁በስ": 2050,
      "ትና": 2051,
      "መለከተ": 2052,
      "▁ጓደኛ": 2053,
      "▁እኛም": 2054,
      "▁በሰ": 2055,
      "ምሮ": 2056,
      "ፖርት": 2057,
      "ች።": 2058,
      "▁ፍላጎት": 2059,
      "▁ጣቢያ": 2060,
      "▁የቀ": 2061,
      "ጠይ": 2062,
      "ለሁ.": 2063,
      "▁13": 2064,
      "▁በቂ": 2065,
      "▁ቅጣት": 2066,
      "ሁሉም": 2067,
      "▁ሰላም": 2068,
      "ክል": 2069,
      "ወር": 2070,
      "ዱት": 2071,
      "▁መሠረት": 2072,
      "▁መቼ": 2073,
      "ከል": 2074,
      "ረጋገ": 2075,
      "▁በጭ": 2076,
      "000": 2077,
      "▁እሱም": 2078,
      "▁ይሆናል።": 2079,
      "▁ደግሞ": 2080,
      "▁በጥ": 2081,
      "ዋን": 2082,
      "ጎች": 2083,
      "ገራ": 2084,
      "▁ይፈልጋ": 2085,
      "▁ነው\"": 2086,
      "▁የለው": 2087,
      "ፉት": 2088,
      "ግና": 2089,
      "▁ብርሃ": 2090,
      "ጠረ": 2091,
      "▁ይቅር": 2092,
      "▁ኳስ": 2093,
      "▁ብቸ": 2094,
      "ስትሪ": 2095,
      "▁በእኔ": 2096,
      "▁ሁላችንም": 2097,
      "ፎች": 2098,
      "ጠው": 2099,
      "ገብ": 2100,
      "ለውን": 2101,
      "▁በረ": 2102,
      "▁መመ": 2103,
      "ወቁ": 2104,
      "ነዚህ": 2105,
      "▁አላቸው።": 2106,
      "▁(እ": 2107,
      "▁ለእርስዎ": 2108,
      "▁እንቅ": 2109,
      "እክት": 2110,
      "ቡር": 2111,
      "ልን": 2112,
      "▁ተግባ": 2113,
      "▁አውቃ": 2114,
      "▁30": 2115,
      "▁ራስ": 2116,
      "ጀመር": 2117,
      "▁አገር": 2118,
      "ሎጂ": 2119,
      "▁አቀፍ": 2120,
      "▁አታ": 2121,
      "ሻሻ": 2122,
      "▁ከአንተ": 2123,
      "▁እነሱም": 2124,
      "▁ምሳሌ": 2125,
      "በው": 2126,
      "ቂቃ": 2127,
      "▁ይመጣ": 2128,
      "▁ተጠቃሚ": 2129,
      "▁ስል": 2130,
      "▁ቡድን": 2131,
      "▁አግ": 2132,
      "▁ተማሪዎች": 2133,
      "ነፍ": 2134,
      "ማማ": 2135,
      "ለፍ": 2136,
      "▁እራ": 2137,
      "▁ወሰ": 2138,
      "▁አዎ": 2139,
      "▁(የ": 2140,
      "ጋሪ": 2141,
      "ቴን": 2142,
      "ክብ": 2143,
      "እነሱ": 2144,
      "ሳዊ": 2145,
      "▁አፍ": 2146,
      "ጠቀሙ": 2147,
      "▁አንዳን": 2148,
      "ንዱስትሪ": 2149,
      "▁አያስ": 2150,
      "▁ይሰማ": 2151,
      "ማለት": 2152,
      "▁ባህ": 2153,
      "▁ዕድሜ": 2154,
      "ስታው": 2155,
      "▁በስተ": 2156,
      "▁በሆነ": 2157,
      "ፈለጉ": 2158,
      "ሊዝ": 2159,
      "▁ብቸኛ": 2160,
      "ዚህ,": 2161,
      "▁ትኩ": 2162,
      "ኪና": 2163,
      "▁መልስ": 2164,
      "ደኛ": 2165,
      "▁ሁለቱም": 2166,
      "ገት": 2167,
      "▁ያላቸው": 2168,
      "▁ዩኒቨርሲቲ": 2169,
      "▁የመጀመሪያው": 2170,
      "ርክ": 2171,
      "ሊት": 2172,
      "ቾች": 2173,
      "ቅርብ": 2174,
      "ሶች": 2175,
      "ታቸውን": 2176,
      "ላችሁ።": 2177,
      "▁የሰ": 2178,
      "▁ተጫ": 2179,
      "ርሷ": 2180,
      "መልከት": 2181,
      "▁ሕዝቡ": 2182,
      "▁\"ከ": 2183,
      "ገዛ": 2184,
      "▁ውድ": 2185,
      "▁መኖር": 2186,
      "▁እርግጠኛ": 2187,
      "▁ምላ": 2188,
      "▁መንፈስ": 2189,
      "መጠ": 2190,
      "▁በውስ": 2191,
      "▁ቀጥ": 2192,
      "ጹም": 2193,
      "ለዋል": 2194,
      "▁እድ": 2195,
      "▁በት": 2196,
      "▁መልክ": 2197,
      "▁መሰ": 2198,
      "▁ሀብ": 2199,
      "▁እንዳይ": 2200,
      "ሉን": 2201,
      "ሉ፤": 2202,
      "le": 2203,
      "▁አቅ": 2204,
      "ሙያ": 2205,
      "▁ደቂቃ": 2206,
      "▁ከአንድ": 2207,
      "ቀበል": 2208,
      "ሣሪያ": 2209,
      "ለህ?": 2210,
      "▁የሆኑ": 2211,
      "▁ከእኛ": 2212,
      "▁አለባቸው": 2213,
      "ለች።": 2214,
      "▁አካባቢ": 2215,
      "▁ተና": 2216,
      "▁በሕ": 2217,
      "ተመሳሳይ": 2218,
      "|1": 2219,
      "ቶቹ": 2220,
      "▁አይደለም.": 2221,
      "ዱን": 2222,
      "ሽን": 2223,
      "▁የአምላክ": 2224,
      "▁ብዙውን": 2225,
      "▁ነበር,": 2226,
      "ፍጥነት": 2227,
      "▁አጥ": 2228,
      "▁24": 2229,
      "▁ክርስቶስ": 2230,
      "▁መታ": 2231,
      "ግን": 2232,
      "▁መጥፎ": 2233,
      "ችው": 2234,
      "ቃል": 2235,
      "▁እስኪ": 2236,
      "ትምህ": 2237,
      "▁ይመለ": 2238,
      "ፊቱ": 2239,
      "ወጥ": 2240,
      "▁አማራ": 2241,
      "ላችኋ": 2242,
      "ጠበ": 2243,
      "▁የእግዚአብሔርን": 2244,
      "▁ከእግዚአብሔር": 2245,
      "▁አገልጋ": 2246,
      "ንግዲህ": 2247,
      "▁የለም።": 2248,
      "▁ወጣ": 2249,
      "▁ባሪያ": 2250,
      "▁መሣሪያ": 2251,
      "ግበ": 2252,
      "ክኖ": 2253,
      "▁ያላ": 2254,
      "ረተ": 2255,
      "▁ፕሮግራ": 2256,
      "▁መንግሥት": 2257,
      "▁በደ": 2258,
      "ይማ": 2259,
      "ዚያን": 2260,
      "▁ይናገ": 2261,
      "ነቶች": 2262,
      "▁በጭራሽ": 2263,
      "▁ስን": 2264,
      "▁ይገኛ": 2265,
      "▁እባ": 2266,
      "▁ሁለተኛ": 2267,
      "ክርስቲ": 2268,
      "▁ይላሉ": 2269,
      "▁ይሁን": 2270,
      "▁ተገ": 2271,
      "oo": 2272,
      "ደሰ": 2273,
      "ል?": 2274,
      "▁ገደ": 2275,
      "▁ዝርዝ": 2276,
      "▁ብር": 2277,
      "▁ለእኛ": 2278,
      "▁በዓ": 2279,
      "ይማኖ": 2280,
      "▁ኪዳን": 2281,
      "▁አግኝ": 2282,
      "▁ለም": 2283,
      "ምን?": 2284,
      "▁የሚል": 2285,
      "▁መጻ": 2286,
      "ናቸው": 2287,
      "▁ስላ": 2288,
      "ጋት": 2289,
      "▁ውስጥ,": 2290,
      "▁አንተም": 2291,
      "ቆም": 2292,
      "▁\"ይህ": 2293,
      "▁እናውቃ": 2294,
      "▁ቀደም": 2295,
      "▁ማሳ": 2296,
      "▁ሰዎች": 2297,
      "▁ግልጽ": 2298,
      "▁መሳ": 2299,
      "ገንዘብ": 2300,
      "ሪቱ": 2301,
      "▁ተነ": 2302,
      "ዳታ": 2303,
      "ታይ": 2304,
      "ቃሚ": 2305,
      "▁ተራ": 2306,
      "▁ጠቃሚ": 2307,
      "አየር": 2308,
      "▁የራ": 2309,
      "▁ስብ": 2310,
      "ረድ": 2311,
      "▁አለኝ": 2312,
      "▁መቶ": 2313,
      "▁አምላ": 2314,
      "ዊት": 2315,
      "ንካራ": 2316,
      "▁ጥር": 2317,
      "ክኖሎጂ": 2318,
      "▁ቪዲዮ": 2319,
      "ፈጸ": 2320,
      "▁ንጉሥ": 2321,
      "ህና": 2322,
      "▁እስራ": 2323,
      "▁ሚሊዮን": 2324,
      "▁ሆነው": 2325,
      "▁ለዘላለም": 2326,
      "ለህ።": 2327,
      "▁ዓላማ": 2328,
      "▁ተጫዋ": 2329,
      "መጡ": 2330,
      "▁ሞት": 2331,
      "ላቸው።": 2332,
      "ሙን": 2333,
      "▁ውሃ": 2334,
      "▁ገጽ": 2335,
      "ረጅም": 2336,
      "መደ": 2337,
      "ካት": 2338,
      "▁ማስተ": 2339,
      "▁አለብ": 2340,
      "▁ሚስ": 2341,
      "በሉ": 2342,
      "ርሱም": 2343,
      "▁ይመል": 2344,
      "▁ቤተሰብ": 2345,
      "ናቂ": 2346,
      "ኖረው": 2347,
      "▁ችሎ": 2348,
      "ንጉ": 2349,
      "▁ፈቃድ": 2350,
      "▁ተጽ": 2351,
      "▁25": 2352,
      "ሁዳ": 2353,
      "3|": 2354,
      "▁መሥ": 2355,
      "▁አደጋ": 2356,
      "▁ብርሃን": 2357,
      "▁ትል": 2358,
      "▁ይሖዋ": 2359,
      "▁ያሉት": 2360,
      "▁አይደሉም": 2361,
      "ትምህርት": 2362,
      "▁ሆይ፥": 2363,
      "▁ስህ": 2364,
      "▁መዝ": 2365,
      "▁ማስታ": 2366,
      "▁መሄድ": 2367,
      "▁ፈጽ": 2368,
      "▁ከል": 2369,
      "ቋቋ": 2370,
      "▁የሚፈልጉ": 2371,
      "▁ይዘ": 2372,
      "የሁ": 2373,
      "▁ጥቅ": 2374,
      ",000": 2375,
      "ማየት": 2376,
      "▁ፍሬ": 2377,
      "▁የሚቆጠሩ": 2378,
      "▁መስጠት": 2379,
      "ንዳ": 2380,
      "ጥቂት": 2381,
      "ኝም": 2382,
      "ሏል": 2383,
      "▁አር": 2384,
      "▁አብዛኛዎቹ": 2385,
      "▁ስለዚህ,": 2386,
      "▁ድጋ": 2387,
      "▁በኋላ": 2388,
      "ዲያው": 2389,
      "ራችሁ": 2390,
      "▁በግል": 2391,
      "▁ለሁሉም": 2392,
      "▁ትችላ": 2393,
      "ታን": 2394,
      "ስቃ": 2395,
      "ረዳት": 2396,
      "▁ሥር": 2397,
      "ዛዝ": 2398,
      "▁የጌታ": 2399,
      "▁ሕግ": 2400,
      "▁አለመ": 2401,
      "▁ሰዓ": 2402,
      "ሬት": 2403,
      "ናይት": 2404,
      "ዕራ": 2405,
      "▁ጠንካራ": 2406,
      "▁እግዚአብሔርም": 2407,
      "ዲት": 2408,
      "▁ምርጫ": 2409,
      "▁ምላሽ": 2410,
      "ባይ": 2411,
      "▁ብሎ": 2412,
      "ድል": 2413,
      "የቅ": 2414,
      "መት": 2415,
      "ናይትድ": 2416,
      "▁ይኖር": 2417,
      "▁ክብር": 2418,
      "▁ህይወት": 2419,
      "▁ስሜት": 2420,
      "▁ታላ": 2421,
      "▁ሁለቱ": 2422,
      "ኮች": 2423,
      "▁26": 2424,
      "እክ": 2425,
      "▁ደንበ": 2426,
      "▁ዘር": 2427,
      "ቀድሞ": 2428,
      "ሩም": 2429,
      "ማስ": 2430,
      "ባለ": 2431,
      "ኩት": 2432,
      "▁አስቸ": 2433,
      "▁ህዝብ": 2434,
      "▁ፕሮጀ": 2435,
      "▁አይነት": 2436,
      "ሰሙ": 2437,
      "▁የሆነው": 2438,
      "▁እንደሚያ": 2439,
      "ቁር": 2440,
      "ወቀ": 2441,
      "ቻላል": 2442,
      "▁ለውጥ": 2443,
      "ሣኤ": 2444,
      "▁ምልክት": 2445,
      "ወሰኑ": 2446,
      "ኾኑ": 2447,
      "ጮች": 2448,
      "ጠላ": 2449,
      "▁ነበር፤": 2450,
      "▁ደህን": 2451,
      "▁ሰይ": 2452,
      "ንደ": 2453,
      "▁መደ": 2454,
      "ትክክል": 2455,
      "ሰጠው": 2456,
      "ሩትን": 2457,
      "መለሱ": 2458,
      "▁አለብን": 2459,
      "▁ስኬ": 2460,
      "ፈልገ": 2461,
      "▁ታዲያ": 2462,
      "ሆኑት": 2463,
      "ችለው": 2464,
      "▁ትዕ": 2465,
      "▁በእኛ": 2466,
      "▁ቀድ": 2467,
      "▁አያውቁ": 2468,
      "ያዝ": 2469,
      "ነግ": 2470,
      "ለን.": 2471,
      "▁ከእንግዲህ": 2472,
      "ቤተሰብ": 2473,
      "መግ": 2474,
      "▁የሌ": 2475,
      "ማወቅ": 2476,
      "▁(ከ": 2477,
      "፡-": 2478,
      "ውልድ": 2479,
      "▁ባይ": 2480,
      "▁ሠራ": 2481,
      "ግበሪያ": 2482,
      "▁ማህበራዊ": 2483,
      "ረጋግ": 2484,
      "▁ፍርድ": 2485,
      "ከተማ": 2486,
      "ሳኔ": 2487,
      "▁የእርሱ": 2488,
      "▁በእናንተ": 2489,
      "ደረገው": 2490,
      "ቃት": 2491,
      "▁ጽሑ": 2492,
      "▁ሚስት": 2493,
      "ሉ,": 2494,
      "▁ትኩረት": 2495,
      "▁መፍ": 2496,
      "▁ድርጅ": 2497,
      "ወንድ": 2498,
      "▁መድረ": 2499,
      "▁ደስታ": 2500,
      "▁ሦስት": 2501,
      "ኾን": 2502,
      "▁ይኖራ": 2503,
      "▁የካ": 2504,
      "▁ኃጢአት": 2505,
      "▁ቆይ": 2506,
      "▁ቃላት": 2507,
      "▁እንዳል": 2508,
      "▁በመሆኑም": 2509,
      "▁ቁር": 2510,
      "ጥረት": 2511,
      "▁ክስተ": 2512,
      "▁አሸ": 2513,
      "▁ነጻ": 2514,
      "▁ድጋፍ": 2515,
      "ውቅም": 2516,
      "at": 2517,
      "▁ልጆች": 2518,
      "ሴት": 2519,
      "19": 2520,
      "▁ለማን": 2521,
      "▁በሚቀጥ": 2522,
      "▁ማዕ": 2523,
      "▁የተለየ": 2524,
      "▁ዝርዝር": 2525,
      "▁22": 2526,
      "ቻለ": 2527,
      "ረዱ": 2528,
      "ሕዛ": 2529,
      "ያል": 2530,
      "▁ፍጹም": 2531,
      "▁የሚችል": 2532,
      "▁ሰማ": 2533,
      "▁በአላህ": 2534,
      "▁ሳምንት": 2535,
      "ደርገ": 2536,
      "▁ባለው": 2537,
      "▁መቅ": 2538,
      "ቶቻችን": 2539,
      "▁ጊዜ,": 2540,
      "▁ዝግጁ": 2541,
      "▁በነ": 2542,
      "ሉ?": 2543,
      "▁አደረገ": 2544,
      "▁21": 2545,
      "▁ደስተኛ": 2546,
      "ጠል": 2547,
      "▁ኢንዱስትሪ": 2548,
      "▁ችሎታ": 2549,
      "አል": 2550,
      "ከው": 2551,
      "ስር": 2552,
      "ሳን": 2553,
      "▁ዜና": 2554,
      "ገደ": 2555,
      "▁አስቸጋሪ": 2556,
      "ላፊ": 2557,
      "ይሖዋ": 2558,
      "ከፈ": 2559,
      "ተኛው": 2560,
      "▁ትርጉ": 2561,
      "▁ቁጥ": 2562,
      "ተን": 2563,
      "▁ውሳኔ": 2564,
      "ሄር": 2565,
      "ar": 2566,
      "▁መኪና": 2567,
      "▁ልት": 2568,
      "ወጡ": 2569,
      "▁ትእ": 2570,
      "▁ስቴ": 2571,
      "ልህ": 2572,
      "መም": 2573,
      "▁በጌታ": 2574,
      "ጋና": 2575,
      "▁ይሆና": 2576,
      "▁ዕው": 2577,
      "▁ንጉሡ": 2578,
      "▁ነቢ": 2579,
      "ነጋገር": 2580,
      "ዋት": 2581,
      "ct": 2582,
      "▁የተመ": 2583,
      "▁እንግዲህ": 2584,
      "ጓዝ": 2585,
      "ከረ": 2586,
      "ሁት": 2587,
      "▁ፈጽሞ": 2588,
      "▁ሰባት": 2589,
      "ኾነ": 2590,
      "ላንድ": 2591,
      "ro": 2592,
      "▁ይችላሉ።": 2593,
      "▁ዘዴ": 2594,
      "ቤቱ": 2595,
      "ምድ": 2596,
      "st": 2597,
      "▁ገበያ": 2598,
      "▁በስተቀር": 2599,
      "▁ሰም": 2600,
      "▁አማካ": 2601,
      "ጋራ": 2602,
      "▁መተግበሪያ": 2603,
      "▁መከራ": 2604,
      "ስን": 2605,
      "▁ካለ": 2606,
      "▁እኛን": 2607,
      "▁ሰጠ": 2608,
      "▁መፍት": 2609,
      "ረንሳይ": 2610,
      "ጨነ": 2611,
      "ዶቹ": 2612,
      "ኔን": 2613,
      "ናገረ": 2614,
      "▁ወዲያው": 2615,
      "ዘጋጀ": 2616,
      "ዚቃ": 2617,
      "ቆጣ": 2618,
      "▁እባክ": 2619,
      "ስቃሴ": 2620,
      "ሴፍ": 2621,
      "▁ይፈ": 2622,
      "▁እንድት": 2623,
      "▁መመሪያ": 2624,
      "ተና": 2625,
      "መጨረሻ": 2626,
      "▁አምስት": 2627,
      "▁በዚያም": 2628,
      "ዕኖ": 2629,
      "▁እንጅ": 2630,
      "ጽሐፉ": 2631,
      "▁ሂደት": 2632,
      "▁መጠቀም": 2633,
      "መጠቀም": 2634,
      "▁የምድር": 2635,
      "▁መሆና": 2636,
      "▁ፈር": 2637,
      "▁የመጣ": 2638,
      "an": 2639,
      "▁እንድን": 2640,
      "▁በተመለከተ": 2641,
      "ጀር": 2642,
      "ስቡ": 2643,
      "ሳች": 2644,
      "▁ያልተ": 2645,
      "ችሉም": 2646,
      "▁ያስተ": 2647,
      "▁አሉት።": 2648,
      "ቷል።": 2649,
      "▁አዲ": 2650,
      "▁በዚያን": 2651,
      "ታውቁ": 2652,
      "ሕዝቡ": 2653,
      ":4": 2654,
      "▁መሪ": 2655,
      "▁በታ": 2656,
      "▁ለእግዚአብሔር": 2657,
      "▁እርዳታ": 2658,
      "ሕዛብ": 2659,
      "▁ከማ": 2660,
      "▁ባለቤ": 2661,
      "▁አደርጋ": 2662,
      "ሞከር": 2663,
      "▁ፎቶ": 2664,
      "▁ወጣት": 2665,
      "▁አገልግሎ": 2666,
      "አላህ": 2667,
      "ሎችን": 2668,
      "ጦታ": 2669,
      "ሲያ": 2670,
      "▁ተከታ": 2671,
      "▁Me": 2672,
      "▁23": 2673,
      "ዳል": 2674,
      "ውቁ": 2675,
      "▁ሕይወ": 2676,
      "▁የበ": 2677,
      "ዚሁ": 2678,
      "▁ይመልከቱ": 2679,
      "▁እስካ": 2680,
      "▁ነበሩ": 2681,
      "▁እንቅስቃሴ": 2682,
      "ኮኖ": 2683,
      "ቆየት": 2684,
      "▁ነውና": 2685,
      "▁እህ": 2686,
      "▁አብዛኞቹ": 2687,
      "▁ቀር": 2688,
      "ሄዱ": 2689,
      "ቀቅ": 2690,
      "▁የነበረ": 2691,
      "▁ድምፅ": 2692,
      "ዘው": 2693,
      "ቢት": 2694,
      "ልኝ": 2695,
      "▁ክርስቲያ": 2696,
      "▁በብዙ": 2697,
      "ኖረ": 2698,
      "▁ስቴት": 2699,
      "ከባ": 2700,
      "▁አውቃለሁ": 2701,
      "▁አራት": 2702,
      "▁ፈጣን": 2703,
      "▁አዝ": 2704,
      "ያንዳንዳ": 2705,
      "▁ትክክል": 2706,
      "▁በራ": 2707,
      "ራን": 2708,
      "▁ደግሞም": 2709,
      "ክስ": 2710,
      "▁አይደለሁ": 2711,
      "▁ስለሚ": 2712,
      "ኞችን": 2713,
      "▁አመሰ": 2714,
      "it": 2715,
      "▁እግር": 2716,
      "ጣሪ": 2717,
      "ኢየሱስ": 2718,
      "▁ጤና": 2719,
      "▁ዘመ": 2720,
      "▁ቀድሞ": 2721,
      "ሙር": 2722,
      "▁ተደር": 2723,
      "▁ለሰ": 2724,
      "▁ተደ": 2725,
      "ጥሩ": 2726,
      "ዳር": 2727,
      "ሐንስ": 2728,
      "▁እሳት": 2729,
      "ሕር": 2730,
      "▁ወንድሞ": 2731,
      "ግዚአብሄር": 2732,
      "▁ከሰ": 2733,
      "▁ወስ": 2734,
      "ጭር": 2735,
      "ናችሁ": 2736,
      "ሜን": 2737,
      "▁የምታ": 2738,
      "ጀም": 2739,
      "▁የፈ": 2740,
      "▁ታማ": 2741,
      "ደርገው": 2742,
      "ፈጥሮ": 2743,
      "▁ቴክኖሎጂ": 2744,
      "▁መሳሪያ": 2745,
      "▁መቀ": 2746,
      "▁Cor": 2747,
      "▁አድርገ": 2748,
      "ቀመጥ": 2749,
      "ሠሩት": 2750,
      "▁ገብ": 2751,
      "▁እናት": 2752,
      "ማሳ": 2753,
      "▁ዶላ": 2754,
      "▁የምና": 2755,
      "▁በላ": 2756,
      "ዕቆ": 2757,
      "▁አልቻ": 2758,
      "▁ምክር": 2759,
      "ነዚያ": 2760,
      "ነበር": 2761,
      "ክምና": 2762,
      "ከተል": 2763,
      "ማሚ": 2764,
      "▁ጠላ": 2765,
      "ለል": 2766,
      "4|": 2767,
      "▁አስደሳች": 2768,
      "መስጠት": 2769,
      "▁ዳር": 2770,
      "በኛ": 2771,
      "ተናል": 2772,
      "ክርስቲያን": 2773,
      "▁ተዋ": 2774,
      "ገኘው": 2775,
      "ነሣ": 2776,
      "መነ": 2777,
      "ጋል": 2778,
      "ባበ": 2779,
      "▁ለራ": 2780,
      "ገረ": 2781,
      "ደርስ": 2782,
      "ለቲ": 2783,
      "እምሮ": 2784,
      "▁ተጠቃሚዎች": 2785,
      "ሃለሁ": 2786,
      "▁ርዕ": 2787,
      "ችልም": 2788,
      "ታል.": 2789,
      "▁የተቀ": 2790,
      "▁አባላት": 2791,
      "▁ተጽዕኖ": 2792,
      "ቶቻቸው": 2793,
      "ሬን": 2794,
      "ይታ": 2795,
      "ዋል.": 2796,
      "▁የሆነውን": 2797,
      "▁አዎን": 2798,
      "▁ምስክር": 2799,
      "ኃጢአ": 2800,
      "▁እንደሆኑ": 2801,
      "▁ተናግ": 2802,
      "▁ተወዳ": 2803,
      "ላለን": 2804,
      "▁በክ": 2805,
      "▁ማስታወ": 2806,
      "ድስት": 2807,
      "▁100": 2808,
      "▁ይወዳ": 2809,
      "▁የተወሰነ": 2810,
      "▁ዕድል": 2811,
      "▁እንችላ": 2812,
      "▁እርሱን": 2813,
      "ሰጡ": 2814,
      "ሞላ": 2815,
      "▁አና": 2816,
      "ዚህም": 2817,
      "ቻለሁ": 2818,
      "ጆቹ": 2819,
      "ዬን": 2820,
      "ገነዘ": 2821,
      "ዘን": 2822,
      "አም": 2823,
      "▁ስጦታ": 2824,
      "ጦች": 2825,
      "▁ጥበብ": 2826,
      "▁50": 2827,
      "ክርስቶስ": 2828,
      "ናገሩ": 2829,
      "▁ጨም": 2830,
      "▁ሌሊት": 2831,
      "▁እም": 2832,
      "▁ለእነርሱ": 2833,
      "ሳተ": 2834,
      "▁መድ": 2835,
      "ማሽ": 2836,
      "▁ውጤታማ": 2837,
      "▁ናችሁ": 2838,
      "ረበ": 2839,
      "▁ነጥ": 2840,
      "▁መጠበቅ": 2841,
      "▁ለል": 2842,
      "▁አንዲት": 2843,
      "ፈልገው": 2844,
      "ጣሚ": 2845,
      "▁የሚታ": 2846,
      "▁የመጨረሻ": 2847,
      "▁ሰማይ": 2848,
      "▁ሄደ": 2849,
      "እግር": 2850,
      "ህዝ": 2851,
      "▁ክል": 2852,
      "▁አገኘ": 2853,
      "▁በመቶ": 2854,
      "መካከ": 2855,
      "▁ውጤት": 2856,
      "ውጭ": 2857,
      "ኛውንም": 2858,
      "▁ክርስቲያን": 2859,
      "▁ተፈ": 2860,
      "ለምን": 2861,
      "▁ይናገራ": 2862,
      "▁ወዲያውኑ": 2863,
      "ሳችሁ": 2864,
      "▁ዝቅ": 2865,
      "▁ምርት": 2866,
      "▁መውሰድ": 2867,
      "▁እንደም": 2868,
      "▁አላህም": 2869,
      "▁ነፍስ": 2870,
      "▁ምንድን": 2871,
      "ውሎስ": 2872,
      "▁ኃይ": 2873,
      "▁መልአ": 2874,
      "▁ዶላር": 2875,
      "▁ወጥ": 2876,
      "▁ይቆ": 2877,
      "rect": 2878,
      "▁ሰጥ": 2879,
      "ሪስ": 2880,
      "▁ያገኛ": 2881,
      "▁የል": 2882,
      "▁ናቸው,": 2883,
      "▁ማው": 2884,
      "ዕቆብ": 2885,
      "▁ሃይማኖ": 2886,
      "7|": 2887,
      "ሰሩ": 2888,
      "ሞን": 2889,
      "ላቸውም": 2890,
      "▁28": 2891,
      "▁አለን": 2892,
      "▁በአንተ": 2893,
      "ዘር": 2894,
      "ሉም።": 2895,
      "▁ስህተት": 2896,
      "ንቅ": 2897,
      "ሃል።": 2898,
      "ባህ": 2899,
      "ረጋገጥ": 2900,
      "▁በቀር": 2901,
      "▁Correct": 2902,
      "ናገረው": 2903,
      "ቦት": 2904,
      "▁አይችሉም": 2905,
      "ሻሻል": 2906,
      "ራው": 2907,
      "▁ወጪ": 2908,
      "▁እስራኤል": 2909,
      "ፈሳዊ": 2910,
      "ባችሁ": 2911,
      "▁ጦርነት": 2912,
      "▁ይላል": 2913,
      "▁በመን": 2914,
      "▁ምድ": 2915,
      "ጋለሁ": 2916,
      "▁ፍጥነት": 2917,
      "▁አስታው": 2918,
      "ያቸው": 2919,
      "ፖር": 2920,
      "ቅረብ": 2921,
      "▁የወደ": 2922,
      "▁እንዲያውም": 2923,
      "▁ናቸው፤": 2924,
      "▁ቡድ": 2925,
      "▁ማህበረ": 2926,
      "▁ነኝ።": 2927,
      "▁ትውልድ": 2928,
      "▁ሚዲያ": 2929,
      "ከለ": 2930,
      "▁በፊት": 2931,
      "በረታ": 2932,
      "▁ንግድ": 2933,
      "ቀል": 2934,
      "ቡብ": 2935,
      "▁በእሱ": 2936,
      "ሊዝኛ": 2937,
      "ፕላ": 2938,
      "ያዘ": 2939,
      "ቀጥታ": 2940,
      "ህይወት": 2941,
      "ሄዳ": 2942,
      "▁ወዲህ": 2943,
      "▁እፈልጋ": 2944,
      "▁አስደናቂ": 2945,
      "▁በእነርሱ": 2946,
      "▁ምልክ": 2947,
      "▁ማለ": 2948,
      "ባረ": 2949,
      "▁ጠየ": 2950,
      "▁ጠብ": 2951,
      "▁ጊዜም": 2952,
      "ጣል": 2953,
      "መፍ": 2954,
      "▁ወላጆች": 2955,
      "ሞክሮ": 2956,
      "▁አዳዲስ": 2957,
      "▁ትርጉም": 2958,
      "▁መጫወት": 2959,
      "▁ለአንተ": 2960,
      "ስቱ": 2961,
      "▁መብት": 2962,
      "ታም": 2963,
      "▁ጥረት": 2964,
      "ከናወ": 2965,
      "አብዛ": 2966,
      "▁የሕይወት": 2967,
      "▁እርሷ": 2968,
      "▁አነ": 2969,
      "ሰን": 2970,
      "መጥ": 2971,
      "▁ወገ": 2972,
      "▁አድርጓ": 2973,
      "▁ተሞክሮ": 2974,
      "▁ከጌታ": 2975,
      "ኸው": 2976,
      "ቡን": 2977,
      "ለቲካ": 2978,
      "▁ያላቸውን": 2979,
      "▁ባለሙያ": 2980,
      "▁ማንኛውንም": 2981,
      "መክ": 2982,
      "▁እውቀት": 2983,
      "ከፋ": 2984,
      "ዓመ": 2985,
      "ሏቸው": 2986,
      "ነው።": 2987,
      "ግብፅ": 2988,
      "ሁድ": 2989,
      "9|": 2990,
      "▁ስብሰባ": 2991,
      "ከላ": 2992,
      "ገናኘት": 2993,
      "ወስድ": 2994,
      "ወላ": 2995,
      "▁ያሉትን": 2996,
      "▁መገ": 2997,
      "▁አላውቅም": 2998,
      "▁አያው": 2999,
      "ዎታል": 3000,
      "▁ፈተና": 3001,
      "▁(1": 3002,
      "ንክ": 3003,
      "▁እንደሆን": 3004,
      "▁ንብረት": 3005,
      "መኛ": 3006,
      "▁ይሆን": 3007,
      "▁በቃ": 3008,
      "ብቻ": 3009,
      "▁አመሰግና": 3010,
      "ነትን": 3011,
      "ሰር": 3012,
      "en": 3013,
      "▁ምሽ": 3014,
      "ርግጠኝነት": 3015,
      "ልጣ": 3016,
      "▁ይሆናል,": 3017,
      "▁ወራት": 3018,
      "ou": 3019,
      "ግም": 3020,
      "ዋር": 3021,
      "ሳችን": 3022,
      "ጥረ": 3023,
      "ታረ": 3024,
      "ሁኑ": 3025,
      "ac": 3026,
      "ጊያ": 3027,
      "ባብ": 3028,
      "▁እኮ": 3029,
      "▁ነው፣": 3030,
      "መንግ": 3031,
      "▁199": 3032,
      "ካል": 3033,
      "▁ይረዳ": 3034,
      "ላለሁ": 3035,
      "▁ጥርጥር": 3036,
      "▁እንስ": 3037,
      "▁መስመር": 3038,
      "▁የሚለው": 3039,
      "ዘዝ": 3040,
      "▁ውኃ": 3041,
      "▁እንዲሆን": 3042,
      "ሾች": 3043,
      "▁የተፈ": 3044,
      "▁አይችልም": 3045,
      "▁በቅ": 3046,
      "መዝ": 3047,
      "▁ይመለሳ": 3048,
      "▁ከእሱ": 3049,
      "ጣቸው": 3050,
      "▁ነበሩ።": 3051,
      "▁ሆኗ": 3052,
      "▁40": 3053,
      "▁ተቋ": 3054,
      "ማቸው": 3055,
      "▁ጸሎት": 3056,
      "▁የአላህ": 3057,
      "▁ዛፍ": 3058,
      "ከናወን": 3059,
      "መቀ": 3060,
      "▁የሚጠ": 3061,
      "▁አማራጭ": 3062,
      "ነበሩ": 3063,
      "▁በሚያ": 3064,
      "እያንዳንዱ": 3065,
      "ብህ": 3066,
      "▁ክፍያ": 3067,
      "▁ምሥ": 3068,
      "ባቡር": 3069,
      "gle": 3070,
      "▁ሥጋ": 3071,
      "ቀደ": 3072,
      "▁ሳምን": 3073,
      "▁ሀገር": 3074,
      "ናን": 3075,
      "▁በእርስዎ": 3076,
      "▁ፕሮግራም": 3077,
      "ዋለሁ": 3078,
      "▁ጥራት": 3079,
      "▁ያውቃል": 3080,
      "▁ከላይ": 3081,
      "ሊያ": 3082,
      "▁ደቂቃዎች": 3083,
      "▁የተወሰኑ": 3084,
      "▁የለውም": 3085,
      "▁በሕይወ": 3086,
      "አጠቃላይ": 3087,
      "ሎቹ": 3088,
      "▁ወረ": 3089,
      "▁አይሆንም": 3090,
      "ዩናይትድ": 3091,
      "ኩ።": 3092,
      "ሮን": 3093,
      "▁እስካሁን": 3094,
      "▁በሚቀጥለው": 3095,
      "▁ማታ": 3096,
      "▁ሀገ": 3097,
      "oogle": 3098,
      "▁አምላካ": 3099,
      "▁በእርግጠኝነት": 3100,
      "▁ሰራ": 3101,
      "▁መጻሕ": 3102,
      "▁መንግስት": 3103,
      "ኖራቸው": 3104,
      "▁ልጄ": 3105,
      "▁የማያ": 3106,
      "▁የሚሆን": 3107,
      "▁ካሉ": 3108,
      "▁ነዋ": 3109,
      "ፈሩ": 3110,
      "ጠበቀ": 3111,
      "ድርጉ": 3112,
      "▁አጋጣሚ": 3113,
      "▁አንተን": 3114,
      "ሏል።": 3115,
      "▁አመት": 3116,
      "▁ነውና።": 3117,
      "▁ምዕራ": 3118,
      "▁ይል": 3119,
      "▁ሆይ፣": 3120,
      "መለከት": 3121,
      "am": 3122,
      "▁ጽሑፍ": 3123,
      "ምረ": 3124,
      "ያየት": 3125,
      "ሁለተኛ": 3126,
      "▁ያስፈልጋ": 3127,
      "▁በዳ": 3128,
      "የሩ": 3129,
      "5|": 3130,
      "▁በመጨረሻም": 3131,
      "ነገር": 3132,
      "ቼን": 3133,
      "▁በጎ": 3134,
      "ነው?": 3135,
      "ሠሩ": 3136,
      "ናፊ": 3137,
      "ደረጋ": 3138,
      "▁በገ": 3139,
      "ዳደር": 3140,
      "▁ዳዊት": 3141,
      "▁አይደለም,": 3142,
      "▁ታማኝ": 3143,
      "ንቃ": 3144,
      "ማል": 3145,
      "▁ጀመረ": 3146,
      "▁ለእርሱ": 3147,
      "ይም": 3148,
      "ሔራዊ": 3149,
      "▁ኢን": 3150,
      "▁ሊሆኑ": 3151,
      "መለከቱ": 3152,
      "▁እንደሚችሉ": 3153,
      "▁እንጀ": 3154,
      "››": 3155,
      "ዎቹን": 3156,
      "እሳት": 3157,
      "ንጆ": 3158,
      "ስም": 3159,
      ").": 3160,
      "▁ልን": 3161,
      "▁ለማስ": 3162,
      "ባኤ": 3163,
      "one": 3164,
      "▁በኋላ,": 3165,
      "▁ጳውሎስ": 3166,
      "ከተሉ": 3167,
      "ትዮ": 3168,
      "▁ፈል": 3169,
      "▁አባል": 3170,
      "▁ናት።": 3171,
      "▁በተቻለ": 3172,
      "ጡ።": 3173,
      "ቻይና": 3174,
      "ማም": 3175,
      "▁ረጅም": 3176,
      "ሌለ": 3177,
      "ለመ": 3178,
      "ኖሪያ": 3179,
      "▁ተወዳጅ": 3180,
      "ጁን": 3181,
      "ኮኖሚ": 3182,
      "ነስ": 3183,
      "ሮችን": 3184,
      "▁ጀር": 3185,
      "▁እናንተም": 3186,
      "▁በግልጽ": 3187,
      "▁መማር": 3188,
      "ውነ": 3189,
      "ስቡክ": 3190,
      "▁የላ": 3191,
      "▁መሥራት": 3192,
      "ፊያ": 3193,
      "ውኑ": 3194,
      "ሴን": 3195,
      "መርዳት": 3196,
      "▁ከሆኑ": 3197,
      "▁ማር": 3198,
      "▁የተነሳ": 3199,
      "▁ቆንጆ": 3200,
      "ንዳንድ": 3201,
      "ስለ": 3202,
      "▁ምንጭ": 3203,
      "▁ላይ,": 3204,
      "ወቃ": 3205,
      "ከፍተኛ": 3206,
      "▁የኢ": 3207,
      "▁ታዋቂ": 3208,
      "ገም": 3209,
      "ኛል።": 3210,
      "ውቀው": 3211,
      "▁ዝም": 3212,
      "▁እንደሚችል": 3213,
      "▁ደህንነት": 3214,
      "▁ይላል።": 3215,
      "ባሉ": 3216,
      "ሳል": 3217,
      "▁ግለ": 3218,
      "▁ለአንድ": 3219,
      "ፍትዌ": 3220,
      "ስመር": 3221,
      "::": 3222,
      "2|": 3223,
      "ከሩ": 3224,
      "▁በሽ": 3225,
      "▁ሰብ": 3226,
      "▁መልካ": 3227,
      "ጋዊ": 3228,
      "ዳም": 3229,
      "ደንብ": 3230,
      "ያለሁ": 3231,
      "▁ከም": 3232,
      "▁ሰዓታት": 3233,
      "ንም።": 3234,
      "▁ግድ": 3235,
      "▁ስልክ": 3236,
      "▁መናገር": 3237,
      "▁ጥናት": 3238,
      "ተዋል።": 3239,
      "▁አንቀ": 3240,
      "ጀመሪያው": 3241,
      "ኞቻቸው": 3242,
      "▁ይባ": 3243,
      "ምፒ": 3244,
      "8|": 3245,
      "ትዮጵ": 3246,
      "ሆነው": 3247,
      "▁እናውቃለን": 3248,
      "▁በዙ": 3249,
      "▁ማጥ": 3250,
      "ጋለን": 3251,
      "▁የአባ": 3252,
      "▁በቀን": 3253,
      "▁ራሱን": 3254,
      "▁መጻሕፍት": 3255,
      "▁መላእክት": 3256,
      "ደጋ": 3257,
      "የም": 3258,
      "ና፤": 3259,
      ":5": 3260,
      "ናዳ": 3261,
      "ባቸውን": 3262,
      "▁የነበረው": 3263,
      "▁ወገን": 3264,
      "▁አንዳንዶቹ": 3265,
      "ይሁዳ": 3266,
      "ሐይ": 3267,
      "▁ቢሆንም,": 3268,
      "▁ሞዴ": 3269,
      "ደገ": 3270,
      "ሞክራ": 3271,
      "ም?": 3272,
      "▁ፈለ": 3273,
      "▁ይሻ": 3274,
      "▁ዐዋቂ": 3275,
      "▁አሳል": 3276,
      "ም)": 3277,
      "▁ባለቤት": 3278,
      "ነቱን": 3279,
      "▁ይጠብ": 3280,
      "▁ይወስ": 3281,
      "▁በሰማይ": 3282,
      "▁መመለስ": 3283,
      "▁ለእነሱ": 3284,
      "ግሌ": 3285,
      "ዩት": 3286,
      "▁በላቸው።": 3287,
      "ዕክ": 3288,
      "ወገድ": 3289,
      ":,": 3290,
      "▁iP": 3291,
      "ጾች": 3292,
      "ሰላም": 3293,
      "▁እንደማይ": 3294,
      "ገንባት": 3295,
      "ራዊት": 3296,
      "ሥር": 3297,
      "▁ካር": 3298,
      "ዎችም": 3299,
      "▁አሸናፊ": 3300,
      "▁ባለፉት": 3301,
      "▁የሚችሉ": 3302,
      "▁ውሸ": 3303,
      "▁እያንዳንዳ": 3304,
      "▁አንቺ": 3305,
      "▁መምረጥ": 3306,
      "አት": 3307,
      "▁ዮሴፍ": 3308,
      "▁ተጋ": 3309,
      "ገሩ": 3310,
      "nd": 3311,
      "ic": 3312,
      "▁ባለፈው": 3313,
      "▁ሶስት": 3314,
      "▁ምንድ": 3315,
      "ዚያው": 3316,
      "ቀስ": 3317,
      "▁ቀጣ": 3318,
      "ልጣን": 3319,
      "ለዋል።": 3320,
      "6|": 3321,
      "▁ይቅርታ": 3322,
      "▁ሰባ": 3323,
      "▁ፕሮጀክት": 3324,
      "▁ይችላል,": 3325,
      "▁ማስረጃ": 3326,
      "ጋሚ": 3327,
      "▁ጠይ": 3328,
      "▁ያለን": 3329,
      "▁እወዳ": 3330,
      "▁ልዩነት": 3331,
      "ጥፍ": 3332,
      "ሰማያት": 3333,
      "▁አውታረ": 3334,
      "▁ተሰ": 3335,
      "▁ፕሬ": 3336,
      "▁ሆይ፤": 3337,
      "ኣን": 3338,
      "ላችሁ?": 3339,
      "▁ጥበ": 3340,
      "▁ይበ": 3341,
      "▁የጉ": 3342,
      "▁ክብ": 3343,
      "▁2020": 3344,
      "▁202": 3345,
      "ዋዕ": 3346,
      "▁በበ": 3347,
      "ጤና": 3348,
      "ረቱ": 3349,
      "ኔት": 3350,
      "ረፍት": 3351,
      "▁ያም": 3352,
      "▁አመሰግናለሁ": 3353,
      "▁በርሱ": 3354,
      "አቸው": 3355,
      "ላችን": 3356,
      "▁ፈጣሪ": 3357,
      "▁32": 3358,
      "ጋሉ": 3359,
      "▁ሀሳብ": 3360,
      "ይቱ": 3361,
      "▁የግ": 3362,
      "▁አጠቃላይ": 3363,
      "▁ነው;": 3364,
      "▁መዛ": 3365,
      "ደስ": 3366,
      "ቶቻችሁ": 3367,
      "ሠረተ": 3368,
      "▁የስ": 3369,
      "ሻለ": 3370,
      "ለጋ": 3371,
      "▁ቀጠ": 3372,
      "ጣጫ": 3373,
      "የሩሳሌ": 3374,
      "ዖን": 3375,
      "▁አሉ.": 3376,
      "▁የተሳ": 3377,
      "▁ክፍት": 3378,
      "▁እንደምት": 3379,
      "▁ነበረው": 3380,
      "▁ታሪ": 3381,
      "▁ምድርን": 3382,
      "በትም": 3383,
      "መኖር": 3384,
      "▁ከዚህም": 3385,
      "▁አየር": 3386,
      "▁አውሮፓ": 3387,
      "▁(ይ": 3388,
      "▁...": 3389,
      "ባህር": 3390,
      "ሌላው": 3391,
      "▁ይመስለኛ": 3392,
      "▁ይሠራ": 3393,
      "ማስተ": 3394,
      "▁ሙዚቃ": 3395,
      "▁መልአክ": 3396,
      "ጠቅ": 3397,
      "ወል": 3398,
      "ትር": 3399,
      "▁የሞ": 3400,
      "ይነ": 3401,
      "▁ዳርቻ": 3402,
      "▁ከፈለጉ": 3403,
      "ሄደ": 3404,
      "al": 3405,
      "ረቡ": 3406,
      "▁ያመኑ": 3407,
      "▁የተወለ": 3408,
      "ካሪ": 3409,
      "ነሰ": 3410,
      "▁ቅርብ": 3411,
      "ጠኝ": 3412,
      "እሱ": 3413,
      "ስሊ": 3414,
      "▁ጓደኞች": 3415,
      "▁ከሰማይ": 3416,
      "▁አንዱን": 3417,
      "▁ትእዛዝ": 3418,
      "▁ከእርስዎ": 3419,
      "ድረስ": 3420,
      "▁ዎቹ": 3421,
      "▁ኾነው": 3422,
      "▁ክርስቲያኖች": 3423,
      "▁ትንሣኤ": 3424,
      "▁በኢየሱስ": 3425,
      "▁መክ": 3426,
      "ከታተ": 3427,
      "ሸነፍ": 3428,
      "▁አመለ": 3429,
      "ፈረ": 3430,
      "ባባ": 3431,
      "▁Google": 3432,
      "▁እያለ": 3433,
      "ታችንን": 3434,
      "▁አሰ": 3435,
      "ዋም": 3436,
      "et": 3437,
      "▁\"አንተ": 3438,
      "ወዱ": 3439,
      "▁ከአላህ": 3440,
      "ፈት": 3441,
      "▁ጀመር": 3442,
      "ጎብ": 3443,
      "ዘጋጅ": 3444,
      "▁ድንጋ": 3445,
      "▁አለ?": 3446,
      "ዎቻቸው": 3447,
      "ስክ": 3448,
      "▁አለብዎት": 3449,
      "ደረሰ": 3450,
      "▁ተጫዋቾች": 3451,
      "▁ቅድ": 3452,
      "ሩሲያ": 3453,
      "▁አበ": 3454,
      "▁መሆናቸውን": 3455,
      "ባዊ": 3456,
      ":12": 3457,
      "▁ያምና": 3458,
      "▁የአንድ": 3459,
      "ጥሮ": 3460,
      "▁የእሱ": 3461,
      "▁አይገባ": 3462,
      "▁ህይወ": 3463,
      "▁የሚሆኑት": 3464,
      "ያዙ": 3465,
      "ቦቹ": 3466,
      "ርሃት": 3467,
      "ሥታት": 3468,
      "▁አነስተኛ": 3469,
      "▁ባቡር": 3470,
      "▁መኾ": 3471,
      "ቤተሰ": 3472,
      "ቁም": 3473,
      "ለጫ": 3474,
      ":9": 3475,
      "▁አቅጣጫ": 3476,
      "▁ሰይጣን": 3477,
      "▁መፍትሄ": 3478,
      "ትዮጵያ": 3479,
      "▁ተራራ": 3480,
      "▁ምስጋና": 3481,
      "▁ማንበብ": 3482,
      "▁የተሰ": 3483,
      "▁ዝቅተኛ": 3484,
      "▁አጠ": 3485,
      "ጸል": 3486,
      "ስታውስ": 3487,
      "▁ፖሊ": 3488,
      "▁ውይ": 3489,
      "▁ሲሉ": 3490,
      "▁ለሌሎች": 3491,
      "ነበሩት": 3492,
      "ሰት": 3493,
      "መንገድ": 3494,
      "ላፊነት": 3495,
      "▁አስገራ": 3496,
      "▁አስገራሚ": 3497,
      "▁በሺ": 3498,
      "እርሱ": 3499,
      "ነም": 3500,
      "ፋን": 3501,
      "ታዎች": 3502,
      "ለየ": 3503,
      "he": 3504,
      "ገዱ": 3505,
      "ዝም": 3506,
      "ሮፕላ": 3507,
      "መጠበቅ": 3508,
      "hone": 3509,
      "▁ጠቅ": 3510,
      "▁ግልፅ": 3511,
      "▁የነበሩት": 3512,
      "▁በምን": 3513,
      "▁አለ,": 3514,
      "▁በተለያዩ": 3515,
      "ግዳ": 3516,
      "ተህ": 3517,
      "▁ፍት": 3518,
      "▁አደረግ": 3519,
      "ፊዎች": 3520,
      "ጀርመን": 3521,
      "አለም": 3522,
      "ንጉሡ": 3523,
      "▁ተቃ": 3524,
      "ሙሴ": 3525,
      "መሩ": 3526,
      "▁\"እኛ": 3527,
      "ኞቻችን": 3528,
      "▁መሬት": 3529,
      "ውነት": 3530,
      "ሌቪ": 3531,
      "▁ጠዋት": 3532,
      "▁ጊዜያት": 3533,
      "▁ይላሉ።": 3534,
      "▁አዘ": 3535,
      "▁ምሽት": 3536,
      "▁ይችላሉ,": 3537,
      "▁ንጹ": 3538,
      "▁ነን።": 3539,
      "▁ስርዓት": 3540,
      "ው።": 3541,
      "ተኞቹ": 3542,
      "ረሳ": 3543,
      "ሌቪዥ": 3544,
      "▁ገል": 3545,
      "▁በአምላክ": 3546,
      "▁ሦስተኛ": 3547,
      "▁ምርምር": 3548,
      "ገናኙ": 3549,
      "የሩሳሌም": 3550,
      "ክሮች": 3551,
      "አንዳንድ": 3552,
      "ንፃ": 3553,
      "▁ይሄዳ": 3554,
      "▁እንዴ": 3555,
      "▁ተሳ": 3556,
      "▁አደርጋለሁ": 3557,
      "▁መና": 3558,
      "▁ለምንድን": 3559,
      "ህዝብ": 3560,
      "▁እነሆ፥": 3561,
      "▁ትሆና": 3562,
      "▁ባሕር": 3563,
      "ብሎስ": 3564,
      "ረታዊ": 3565,
      "▁አይደለሁም": 3566,
      "▁አየሁ": 3567,
      "▁ተቀባይ": 3568,
      "▁ሙከራ": 3569,
      "እነዚያ": 3570,
      "▁ፈቃደኛ": 3571,
      "▁አለበት።": 3572,
      "▁ተል": 3573,
      "ጨለማ": 3574,
      "ay": 3575,
      "▁ማህበረሰብ": 3576,
      "▁መጽ": 3577,
      "▁ሆይ!": 3578,
      "ሙት": 3579,
      "ላችሁም": 3580,
      "ባር": 3581,
      "es": 3582,
      "▁ይገባል": 3583,
      "▁እነዚያን": 3584,
      "ቀርባ": 3585,
      "ስና": 3586,
      ":15": 3587,
      "▁ቀድሞውኑ": 3588,
      "▁ለስ": 3589,
      "መረብ": 3590,
      "▁ገባ": 3591,
      "እናንተ": 3592,
      "ማሪዎች": 3593,
      "▁የእርስዎን": 3594,
      "▁እኩል": 3595,
      "ሁለቱ": 3596,
      "ቋቋም": 3597,
      "▁ጽድቅ": 3598,
      "▁ደብ": 3599,
      "▁አስተዋ": 3600,
      "▁አመጣ": 3601,
      "▁በታላቅ": 3602,
      "▁መንፈሳዊ": 3603,
      "ደድ": 3604,
      "▁የቆ": 3605,
      "▁ሶፍትዌ": 3606,
      "▁ምሕ": 3607,
      "ግምት": 3608,
      "ራኒ": 3609,
      "ማግሌ": 3610,
      "▁እንጀራ": 3611,
      "▁ኋላ": 3612,
      "ፖለቲካ": 3613,
      "ፈረንሳይ": 3614,
      "አፍ": 3615,
      "ንቱ": 3616,
      "ረፍ": 3617,
      "ag": 3618,
      "▁የሚገባ": 3619,
      "▁ሽል": 3620,
      "ዮቹ": 3621,
      "▁ወንጌ": 3622,
      "▁እድገት": 3623,
      "▁እንዳለው": 3624,
      "ጠረው": 3625,
      "ገለግ": 3626,
      "▁የሚያሳ": 3627,
      "▁አለ:": 3628,
      "▁ትምህር": 3629,
      "▁መስማት": 3630,
      "▁ይጠይ": 3631,
      "▁በከ": 3632,
      "▁መጠየቅ": 3633,
      "▁ቅን": 3634,
      "እነርሱ": 3635,
      "▁ራስህን": 3636,
      "ቀርብ": 3637,
      "▁ይህች": 3638,
      "▁አሕዛብ": 3639,
      "▁ተስማሚ": 3640,
      "▁በምት": 3641,
      "▁ማሰብ": 3642,
      "▁ማመን": 3643,
      "ፈለገ": 3644,
      "ውስ": 3645,
      "ረኛ": 3646,
      "▁አላህን": 3647,
      "▁ብርቱ": 3648,
      "▁ቁልፍ": 3649,
      "▁መልእክ": 3650,
      "▁29": 3651,
      "▁\"ጌታ": 3652,
      "ቷል.": 3653,
      "መናዊ": 3654,
      "ሁ።": 3655,
      "▁ደጋ": 3656,
      "▁የእኔን": 3657,
      "▁እንደሚሆን": 3658,
      "▁ነቢይ": 3659,
      "▁ሰር": 3660,
      "ፈልግም": 3661,
      "ኃይል": 3662,
      "ቀርቡ": 3663,
      "ሌት": 3664,
      "id": 3665,
      "▁አቤቱ": 3666,
      "▁መልእክት": 3667,
      "▁ሕያው": 3668,
      "ቆይ": 3669,
      "▁ጠላት": 3670,
      "▁ይው": 3671,
      "▁ከፈ": 3672,
      "▁ህብረት": 3673,
      "▁(ለ": 3674,
      "ድቃ": 3675,
      "ዕለት": 3676,
      "ሁለቱም": 3677,
      "▁ለማሳ": 3678,
      "ቁን": 3679,
      "መስል": 3680,
      "▁ያድርጉ": 3681,
      "▁እንደዚሁ": 3682,
      "▁ትራ": 3683,
      "▁ሚና": 3684,
      "ጉት": 3685,
      "ከሰት": 3686,
      "ም፥": 3687,
      "▁ደም": 3688,
      "▁እላችኋ": 3689,
      "▁አብሮ": 3690,
      "▁አባቴ": 3691,
      "▁አስባ": 3692,
      "▁ተገቢ": 3693,
      "▁ረገድ": 3694,
      "▁iPhone": 3695,
      "ሸጥ": 3696,
      "መዱ": 3697,
      "▁ከበ": 3698,
      "▁እንደምን": 3699,
      "▁እሷን": 3700,
      "▁እይታ": 3701,
      "▁አፈ": 3702,
      "▁ትላ": 3703,
      "▁\"ለ": 3704,
      "▁2018": 3705,
      "ድም": 3706,
      "ለት።": 3707,
      "▁ደር": 3708,
      "▁ዝና": 3709,
      "▁አልነበረም።": 3710,
      "▁ለመሄድ": 3711,
      "▁ክልል": 3712,
      "▁በሌ": 3713,
      "ሓዲ": 3714,
      "▁ደህና": 3715,
      "▁የሕ": 3716,
      "▁በውስጡ": 3717,
      "ኩም": 3718,
      "▁ይመጣል": 3719,
      "ዎትም": 3720,
      "ስፋ": 3721,
      "ራስዎ": 3722,
      "▁ያን": 3723,
      "▁የነበሩ": 3724,
      "▁እንዲህም": 3725,
      "▁ሳለ": 3726,
      "▁ሪፖርት": 3727,
      "ዎቻችን": 3728,
      "አብዛኛ": 3729,
      "አን": 3730,
      "ንተር": 3731,
      "ሦስት": 3732,
      "ገልገል": 3733,
      "ዕድ": 3734,
      "ክን": 3735,
      "▁የጥ": 3736,
      "▁ከፊ": 3737,
      "▁እችላ": 3738,
      "▁ተግባራዊ": 3739,
      "▁መኖሪያ": 3740,
      "ቁ።": 3741,
      "0|": 3742,
      "▁በላይ": 3743,
      "▁መጋ": 3744,
      "▁የቁ": 3745,
      "▁ዛሬም": 3746,
      "▁እስቲ": 3747,
      "▁ምስጢ": 3748,
      "ገኙት": 3749,
      "ሯል።": 3750,
      "▁ይሁንና": 3751,
      "▁አመለካከ": 3752,
      "▁አለብኝ": 3753,
      "▁27": 3754,
      "መልክ": 3755,
      "ላለ": 3756,
      "▁የመጡ": 3757,
      "▁እሷም": 3758,
      "▁ርዕስ": 3759,
      "▁ፊል": 3760,
      "▁አሳይ": 3761,
      "▁ምናልባትም": 3762,
      "▁ሕፃ": 3763,
      "▁ልም": 3764,
      "ጠየ": 3765,
      "ቆች": 3766,
      "▁ጋር,": 3767,
      "▁የይሖዋ": 3768,
      "▁አንድም": 3769,
      "▁አጭር": 3770,
      "▁በዘ": 3771,
      "▁መፈለግ": 3772,
      "ደንበ": 3773,
      "ባታ": 3774,
      "▁ምኞ": 3775,
      "ንቲ": 3776,
      "ናል.": 3777,
      "▁ድርጅት": 3778,
      "▁ከሁለት": 3779,
      "▁አማልክት": 3780,
      "▁አራ": 3781,
      "▁ሳምንታት": 3782,
      "▁ሀሳ": 3783,
      "ነበረው": 3784,
      "▁የዘ": 3785,
      "▁አቅም": 3786,
      "▁ስድስት": 3787,
      "▁31": 3788,
      "ፓን": 3789,
      "ትንና": 3790,
      "መለሰ": 3791,
      "▁ይስ": 3792,
      "▁አየ": 3793,
      "ህንም": 3794,
      "▁ያመጣ": 3795,
      "▁ተቀባይነት": 3796,
      "▁ይወድ": 3797,
      "▁ሁሌ": 3798,
      "▁ጥቂ": 3799,
      "▁እግ": 3800,
      "▁አያውቁም።": 3801,
      "▁አልፈ": 3802,
      "▁\"እናንተ": 3803,
      "ኦል": 3804,
      "ንቀሳ": 3805,
      "_1": 3806,
      "ፍቅር": 3807,
      "ደቡብ": 3808,
      "ሳኝ": 3809,
      "ሱም": 3810,
      "▁ሞተ": 3811,
      "▁አክ": 3812,
      "ግለ": 3813,
      "ዳንት": 3814,
      "▁ያያ": 3815,
      "ቁት": 3816,
      "▁ድንቅ": 3817,
      "▁ድል": 3818,
      "▁አምና": 3819,
      "ሌቪዥን": 3820,
      "▁የሚያደርጉ": 3821,
      "▁ብለዋል": 3822,
      "ችሁም": 3823,
      "ቦችን": 3824,
      ":11": 3825,
      "▁በሽታ": 3826,
      "▁ለሰዎች": 3827,
      "▁ለምሳሌ": 3828,
      "ጠነ": 3829,
      "ጠበቅ": 3830,
      "ዳቤ": 3831,
      "ርም": 3832,
      "መሰግ": 3833,
      "1|": 3834,
      "▁ደንበኞች": 3835,
      "▁የሚመጣ": 3836,
      "▁አምላክን": 3837,
      "▁በሁለት": 3838,
      "▁መቼም": 3839,
      "▁ብሔራዊ": 3840,
      "▁ቢያ": 3841,
      "▁መለያ": 3842,
      "▁ሆን": 3843,
      "ጠቀማ": 3844,
      "ከባቢ": 3845,
      "▁ዮሐንስ": 3846,
      "▁ይሰጣል": 3847,
      "▁በጽ": 3848,
      "ጣሉ": 3849,
      "ወይን": 3850,
      "ናዊ": 3851,
      "▁ነዎት": 3852,
      "▁በእጅ": 3853,
      "ክፉ": 3854,
      "▁ገደማ": 3855,
      "▁ሚኒ": 3856,
      "ሯል": 3857,
      "▁ጸሎ": 3858,
      "▁ዳዊ": 3859,
      "▁ሰዎችም": 3860,
      "ዊተር": 3861,
      "▁ይመ": 3862,
      "▁የተመሠረተ": 3863,
      "▁ኢየሱስም": 3864,
      "▁ብሏል": 3865,
      "ቀኝ": 3866,
      "▁ድርጊ": 3867,
      "▁እርግጥ": 3868,
      "▁ስኬታማ": 3869,
      "ዩን": 3870,
      "ባቱ": 3871,
      "▁የሰጠ": 3872,
      "ራል።": 3873,
      "▁ደቀ": 3874,
      "▁ከነሱ": 3875,
      "▁ተቀም": 3876,
      "ያዊ": 3877,
      "ውሃ": 3878,
      "ርያም": 3879,
      "ላችሁ፤": 3880,
      "ላሉ።": 3881,
      "▁አፍሪካ": 3882,
      "▁ብላ": 3883,
      "ጎብኘት": 3884,
      "ላል.": 3885,
      "ለሁ,": 3886,
      "▁ጥንካ": 3887,
      "▁ክስተቶች": 3888,
      "አንተ": 3889,
      ":8": 3890,
      "▁ወሰን": 3891,
      "▁አለበት.": 3892,
      "▁ተመልከት": 3893,
      "ጠብቃ": 3894,
      "ጅነት": 3895,
      "አፍሪካ": 3896,
      "ችሉት": 3897,
      "ሕዝብ": 3898,
      ":18": 3899,
      "▁ብል": 3900,
      "▁በድ": 3901,
      "ቦቻቸው": 3902,
      "▁ይኖርብ": 3903,
      "▁የደ": 3904,
      "▁አለ.": 3905,
      "▁አቅር": 3906,
      "▁ነቢያ": 3907,
      "ጠን": 3908,
      "ኃጢአት": 3909,
      "ሙሳ": 3910,
      "▁ሥርዓት": 3911,
      "ጓደ": 3912,
      "▁አድራ": 3913,
      "▁አይኖር": 3914,
      "ደሰት": 3915,
      "▁የእነሱ": 3916,
      "▁የገ": 3917,
      "▁አስቀድሞ": 3918,
      "ጽና": 3919,
      "ገናኘ": 3920,
      "▁አስተማማ": 3921,
      "ቀን": 3922,
      "ለኝ": 3923,
      "▁ያደረገ": 3924,
      "▁እራሳ": 3925,
      "▁ባሉ": 3926,
      "▁ሂድ": 3927,
      "ጥፋት": 3928,
      "ረቃ": 3929,
      "መፍጠር": 3930,
      "መጀመር": 3931,
      "▁የለም.": 3932,
      "▁አያውቅም": 3933,
      "▁በፊ": 3934,
      "▁መጽሐፉ": 3935,
      "▁ላለ": 3936,
      "ወሰን": 3937,
      "▁በዓል": 3938,
      "▁ለማንኛውም": 3939,
      "ራሉ": 3940,
      "መለክ": 3941,
      "▁ጉዳት": 3942,
      "▁የሚለውን": 3943,
      "▁ዕቅድ": 3944,
      "▁ወሳኝ": 3945,
      "▁ታያ": 3946,
      "▁ስኬት": 3947,
      "ለን፤": 3948,
      "▁የመጨረሻው": 3949,
      "▁እውነትን": 3950,
      "▁ነበር?": 3951,
      "ቪዲዮ": 3952,
      "መረዳት": 3953,
      "ለሁ\"": 3954,
      "▁ጥበቃ": 3955,
      "▁የባ": 3956,
      "▁በዙሪያ": 3957,
      "▁ለናንተ": 3958,
      "▁በረከት": 3959,
      "▁ለወደ": 3960,
      "ጻፈ": 3961,
      "ትክክለኛ": 3962,
      "▁ዳግ": 3963,
      "▁ክስተት": 3964,
      "ኅበራዊ": 3965,
      "ላላ": 3966,
      "▁ዓለምን": 3967,
      "▁ከሁሉ": 3968,
      "▁አገልጋዮች": 3969,
      "▁አማኞች": 3970,
      "▁ምርመራ": 3971,
      "ዱ።": 3972,
      "ንተርኔት": 3973,
      "መስራት": 3974,
      "▁ጉባኤ": 3975,
      "▁አስተያየት": 3976,
      "▁መላው": 3977,
      "ቸዉ": 3978,
      "ሊክ": 3979,
      "▁የሠራ": 3980,
      "▁2019": 3981,
      "ናሽ": 3982,
      "ረገ": 3983,
      "ማህ": 3984,
      ":6": 3985,
      "▁መስክ": 3986,
      "መንግስት": 3987,
      "ሌክት": 3988,
      "▁ጠባ": 3989,
      "▁ጋዜ": 3990,
      "▁ያድ": 3991,
      "▁ውስ": 3992,
      "▁አለም": 3993,
      "▁ነጥብ": 3994,
      "▁ልታ": 3995,
      "ጃቸው": 3996,
      "ና፥": 3997,
      "ብቅ": 3998,
      "ቃብር": 3999,
      "▁ትፈልጋ": 4000,
      "▁በባ": 4001,
      "▁ማግ": 4002,
      "ተፈጥሮ": 4003,
      "ሞታ": 4004,
      "ላውያን": 4005,
      "▁እንዳለበት": 4006,
      "▁ሙስሊ": 4007,
      "▁ፕሮጀክ": 4008,
      "▁እውነታ": 4009,
      "▁እቅድ": 4010,
      "▁በሺዎች": 4011,
      "▁ሽማግሌ": 4012,
      "▁ስምምነት": 4013,
      "▁ሁለቱንም": 4014,
      "አገ": 4015,
      "ናውያን": 4016,
      "▁ጥቁር": 4017,
      "▁ይቀበ": 4018,
      "▁ኢዮ": 4019,
      "▁ለመስ": 4020,
      "ካባቢ": 4021,
      "▁ፓር": 4022,
      "▁ያውቃሉ": 4023,
      "▁ነዉ": 4024,
      "▁ሆኑ": 4025,
      "ውና": 4026,
      "▁ጥሩ": 4027,
      "▁ጌታዬ": 4028,
      "▁በርሳቸው": 4029,
      "▁ስደ": 4030,
      "ያዕቆብ": 4031,
      "ክሬን": 4032,
      "ቷን": 4033,
      "መተ": 4034,
      "▁ነጋ": 4035,
      "▁ቅዱሳን": 4036,
      "▁መምጣት": 4037,
      "ጠጣ": 4038,
      "▁ኤል": 4039,
      "▁ተደርጓ": 4040,
      "ንቃቄ": 4041,
      "▁ክፍለ": 4042,
      "▁ተሰጥ": 4043,
      "▁ቁጥጥር": 4044,
      "▁መነ": 4045,
      "ዝና": 4046,
      "▁የአንተ": 4047,
      "▁ተጫዋች": 4048,
      "▁መረዳት": 4049,
      "ውቀ": 4050,
      "ንጫ": 4051,
      "ነገሩ": 4052,
      "ስባ": 4053,
      "ህ።": 4054,
      "▁ይወስዳ": 4055,
      "▁ከስ": 4056,
      "▁እግዚአብሄር": 4057,
      "ጦር": 4058,
      "ዘጋጀት": 4059,
      "ወቅቱ": 4060,
      "▁አንደኛ": 4061,
      "▁ነፋ": 4062,
      "▁ረዳ": 4063,
      "-1": 4064,
      "▁ቀኝ": 4065,
      "▁ሰራተ": 4066,
      "ጠፉ": 4067,
      "ድርግ": 4068,
      "በርካታ": 4069,
      "pp": 4070,
      ":10": 4071,
      "ወለደ": 4072,
      "▁የቤተ": 4073,
      "▁ካልሆነ": 4074,
      "▁ካለው": 4075,
      "▁ደብዳቤ": 4076,
      "▁ይወጣ": 4077,
      "▁ከቶ": 4078,
      "ውንም": 4079,
      "ኪያ": 4080,
      "ከተሉት": 4081,
      "ሱት": 4082,
      "▁እንመልከት": 4083,
      "▁አስተማማኝ": 4084,
      "▁አለች": 4085,
      "እይ": 4086,
      "ቱንም": 4087,
      "▁ፍለጋ": 4088,
      "▁ይተ": 4089,
      "▁ይሸ": 4090,
      "▁ከሞት": 4091,
      "▁አመስ": 4092,
      "▁ቤተክርስቲያን": 4093,
      "▁2016": 4094,
      "ገዙ": 4095,
      "ንግሊዝኛ": 4096,
      "ታደ": 4097,
      "ለሁ፥": 4098,
      "ጨመር": 4099,
      "ይነመረብ": 4100,
      "ዎስ": 4101,
      "▁ያስፈልግ": 4102,
      "▁ወደዚህ": 4103,
      "▁አልነበረም": 4104,
      "▁አጠቃ": 4105,
      "ፈጸም": 4106,
      "as": 4107,
      "▁ጴጥሮ": 4108,
      "▁አውሮፕላ": 4109,
      "ንነት": 4110,
      "ኃኒ": 4111,
      "ባቴ": 4112,
      "ቁንም": 4113,
      "ሯቸው": 4114,
      "ለሁ?": 4115,
      "▁ያደርገ": 4116,
      "ፔን": 4117,
      "ቆጣጠር": 4118,
      "ሳምን": 4119,
      "መልካም": 4120,
      "ለዋ": 4121,
      "▁አድርግ": 4122,
      "▁ተን": 4123,
      "ዳሚ": 4124,
      "ዋክብ": 4125,
      "አዲስ": 4126,
      "ሃን": 4127,
      ":13": 4128,
      "▁ዘላ": 4129,
      "ስፒ": 4130,
      "ሪው": 4131,
      "ማሩ": 4132,
      "▁ፍር": 4133,
      "▁ትንቢት": 4134,
      "▁ተወ": 4135,
      "▁ሰፊ": 4136,
      "ገፍ": 4137,
      "ሪት": 4138,
      "▁የኾነ": 4139,
      "▁ነኝ.": 4140,
      "▁ተሸ": 4141,
      "▁ቅዱስን": 4142,
      "▁ሆነ።": 4143,
      "አብርሃ": 4144,
      "መግባት": 4145,
      "ub": 4146,
      "▁በላቸው": 4147,
      "ጓዙ": 4148,
      "ትንሣኤ": 4149,
      "ታወቅ": 4150,
      "ሞቱ": 4151,
      "▁ጥንካሬ": 4152,
      "ጉን": 4153,
      "ዛቤ": 4154,
      "ናቸውን": 4155,
      "ስታን": 4156,
      "▁እውነቱን": 4157,
      "▁አምል": 4158,
      "▁ታላላቅ": 4159,
      "▁ስንት": 4160,
      "▁መልክተኛ": 4161,
      "▁መረ": 4162,
      "ያውቅ": 4163,
      "ወረደ": 4164,
      "ክሲ": 4165,
      "ማረ": 4166,
      "ማመን": 4167,
      "ለን?": 4168,
      "▁ድምጽ": 4169,
      "▁ሙሳ": 4170,
      "▁33": 4171,
      "ችኋል።": 4172,
      "ሰል": 4173,
      "ማሳየት": 4174,
      "ሊያን": 4175,
      "ለሽ": 4176,
      "is": 4177,
      "▁ጎዳ": 4178,
      "▁እንዳሉ": 4179,
      "▁አማካኝነት": 4180,
      "▁አለው.": 4181,
      "▁ማስታወቂያ": 4182,
      "▁ልጆቹ": 4183,
      "አምስት": 4184,
      "መግዛት": 4185,
      "▁ዲያ": 4186,
      "▁ዕውቀት": 4187,
      "▁አላቸው.": 4188,
      "▁In": 4189,
      "ኬት": 4190,
      "▁ተግባር": 4191,
      "▁ሂደ": 4192,
      "ዎታ": 4193,
      ":7": 4194,
      "▁ፍርሃት": 4195,
      "▁አታውቁ": 4196,
      "▁ኛው": 4197,
      "▁ብቻውን": 4198,
      "▁ሰነ": 4199,
      "▁መለወጥ": 4200,
      "ጨመረ": 4201,
      "ችኋል፤": 4202,
      "▁ነገሮች": 4203,
      "▁ተመለሱ": 4204,
      "▁መለሰ": 4205,
      "ጅት": 4206,
      "ለበት": 4207,
      "▁ጎን": 4208,
      "▁ይገኛል": 4209,
      "▁ያየ": 4210,
      "▁አሮ": 4211,
      "▁ቢኖር": 4212,
      "ቶችም": 4213,
      "▁ደረ": 4214,
      "▁ከአሁን": 4215,
      "ጨት": 4216,
      "ዋዕት": 4217,
      "▁ጥና": 4218,
      "▁ያውቃል።": 4219,
      "▁በተሻለ": 4220,
      "▁በብ": 4221,
      "ተኞችን": 4222,
      "ሰለ": 4223,
      "▁ወደዚያ": 4224,
      "▁አብረን": 4225,
      "▁ቃሉን": 4226,
      "▁ሶፍትዌር": 4227,
      "ፋል": 4228,
      "ተኮ": 4229,
      "በት።": 4230,
      "መቀበል": 4231,
      "▁ይቀጥ": 4232,
      "▁እንደሚያስ": 4233,
      "▁ነጋዴ": 4234,
      "▁ነዋሪዎች": 4235,
      "▁ተዓ": 4236,
      "▁ሐሳብ": 4237,
      "ጀል": 4238,
      "ርቶ": 4239,
      "ለማት": 4240,
      "▁የፍ": 4241,
      "▁የነ": 4242,
      "▁አለኝ።": 4243,
      "▁ተከ": 4244,
      "▁ጉድ": 4245,
      "▁ይችላል?": 4246,
      "▁እየሰራ": 4247,
      "▁ብዙዎቹ": 4248,
      "▁በእነሱ": 4249,
      "▁መልዕክ": 4250,
      "▁መዋ": 4251,
      "▁2017": 4252,
      "ጸሎት": 4253,
      "ጣቱ": 4254,
      "ግባር": 4255,
      "ክኒ": 4256,
      "ችሁት": 4257,
      "ቻችሁን": 4258,
      "ሪዝም": 4259,
      "ሎን": 4260,
      "▁ጨለማ": 4261,
      "▁ወይንም": 4262,
      "▁በጉ": 4263,
      "ገነባ": 4264,
      "ኖቹ": 4265,
      "ሰበሰቡ": 4266,
      "ምነ": 4267,
      "ለህ፤": 4268,
      "▁የሚገኙ": 4269,
      "▁አይመስ": 4270,
      "▁አመለካከት": 4271,
      "▁በፊትህ": 4272,
      "ገናኛ": 4273,
      "50": 4274,
      "▁ከእሷ": 4275,
      "▁እንደነበረ": 4276,
      "▁አልችልም": 4277,
      "▁በወቅቱ": 4278,
      "▁ሊቀ": 4279,
      "▁(አስታውስ": 4280,
      "ቀሰ": 4281,
      "ሞክሩ": 4282,
      "▁የዳ": 4283,
      "▁ሠራተ": 4284,
      "▁ማረ": 4285,
      "ፈን": 4286,
      "ከረም": 4287,
      "▁እስከሚ": 4288,
      "▁ተመራ": 4289,
      "▁በአን": 4290,
      "▁ማክ": 4291,
      "ጥን": 4292,
      "ሳቱ": 4293,
      "▁ያሳያ": 4294,
      "▁ከመቼ": 4295,
      "▁እንግዳ": 4296,
      "▁እነዚያም": 4297,
      "▁ቻይና": 4298,
      "▁ተጠቅ": 4299,
      "▁መፅ": 4300,
      "▁2015": 4301,
      "ኤላውያን": 4302,
      "ሰጣቸው": 4303,
      "ሮቹ": 4304,
      "▁ውብ": 4305,
      "▁በቤ": 4306,
      "ጥም": 4307,
      "▁ይዘት": 4308,
      "▁ይመስለኛል": 4309,
      "▁የጉዞ": 4310,
      "▁የለብ": 4311,
      "▁ከታ": 4312,
      "▁በየት": 4313,
      "▁ለወደፊቱ": 4314,
      "ቴዎስ": 4315,
      "ሎም": 4316,
      "ow": 4317,
      "▁የው": 4318,
      "▁እንችላለን።": 4319,
      "▁ናቸው?": 4320,
      "ዮሐንስ": 4321,
      "የኝ": 4322,
      "▁ጸጋ": 4323,
      "▁ያረጋግ": 4324,
      "▁በደስታ": 4325,
      "▁መራ": 4326,
      "▁(አስታውስ)": 4327,
      "ጻሜ": 4328,
      "ጠብቅ": 4329,
      "ዋርያት": 4330,
      "ሳካ": 4331,
      "▁ጥን": 4332,
      "▁ይነ": 4333,
      "▁አይችልም.": 4334,
      "▁መጥቶ": 4335,
      "ዳቸው": 4336,
      "ረዋል": 4337,
      "▁ደህንነ": 4338,
      "▁የለውም።": 4339,
      "▁ከመቼውም": 4340,
      "▁አብዛኛውን": 4341,
      "▁አልቻለም": 4342,
      "▁መጓዝ": 4343,
      "▁መሪዎች": 4344,
      "▁ልምድ": 4345,
      "ዋቸው": 4346,
      "ከታተል": 4347,
      "ቸዋል.": 4348,
      "▁ዓይን": 4349,
      "▁መላእክ": 4350,
      "▁መጀመር": 4351,
      "▁ለእያንዳንዱ": 4352,
      "▁ሀብታም": 4353,
      "ስትና": 4354,
      "ስትራ": 4355,
      "ሞቹ": 4356,
      "▁ፊልም": 4357,
      "▁ፈረንሳይ": 4358,
      "▁የሚፈልጉትን": 4359,
      "▁አሏ": 4360,
      "▁ማዕከል": 4361,
      "▁መስራት": 4362,
      "▁2021": 4363,
      "ገበያ": 4364,
      "ብረተ": 4365,
      "▁ጠባቂ": 4366,
      "▁በፊቱ": 4367,
      "▁ሰውን": 4368,
      "▁ማም": 4369,
      "▁መፍትሔ": 4370,
      "▁80": 4371,
      "▁ጥልቅ": 4372,
      "▁ይጠራ": 4373,
      "▁ይነግ": 4374,
      "▁የኮ": 4375,
      "▁የሰማ": 4376,
      "▁ዕለት": 4377,
      "▁ተገኝ": 4378,
      "▁ሀብት": 4379,
      "▁\"ወደ": 4380,
      "▁አይችልም።": 4381,
      "ጀመረ": 4382,
      "▁ግንዛቤ": 4383,
      "▁ዓሣ": 4384,
      "▁እንደ,": 4385,
      "▁ብለህ": 4386,
      "▁ሲሆኑ": 4387,
      "ምንም": 4388,
      "መመለስ": 4389,
      "▁ጆሮ": 4390,
      "▁አያምኑ": 4391,
      "▁አማራጮች": 4392,
      "▁አለ፤": 4393,
      "▁ነው...": 4394,
      "▁መግዛት": 4395,
      "▁\"ይ": 4396,
      "ዞች": 4397,
      "ሬዎች": 4398,
      "▁ያስፈልገ": 4399,
      "▁ዩናይትድ": 4400,
      "▁እወዳለሁ": 4401,
      "▁ተመ": 4402,
      "ፌስቡክ": 4403,
      "ጠይቅ": 4404,
      "ዳጅ": 4405,
      "ዝን": 4406,
      "ከበ": 4407,
      "ኝም።": 4408,
      "ምላካ": 4409,
      "መገንባት": 4410,
      "▁እባክዎን": 4411,
      "▁በሥራ": 4412,
      "▁ሥልጣን": 4413,
      "▁ምሥራ": 4414,
      "▁(ማ": 4415,
      "ሽከር": 4416,
      "▁ፈጥ": 4417,
      "▁ጥቅሞች": 4418,
      "ወራ": 4419,
      "ንታ": 4420,
      "ታዩ": 4421,
      "ላትን": 4422,
      "▁የጻ": 4423,
      "▁ካህ": 4424,
      "▁ሊኖር": 4425,
      "▁ከብ": 4426,
      "▁እንዳት": 4427,
      "▁አገልጋይ": 4428,
      "▁አድርጌ": 4429,
      "▁አትፍ": 4430,
      "▁አእምሮ": 4431,
      "ጆቻቸው": 4432,
      "መውሰድ": 4433,
      ":19": 4434,
      "▁ጻድቅ": 4435,
      "▁ያስታው": 4436,
      "▁የሚያስችል": 4437,
      "▁አይቀር": 4438,
      "▁በግ": 4439,
      "ኝ፤": 4440,
      "ንጀ": 4441,
      "ኒያ": 4442,
      "ችኋል": 4443,
      "በሳ": 4444,
      "▁እናውቃለን።": 4445,
      "▁ተነስ": 4446,
      "ፍን": 4447,
      "ወሩ": 4448,
      "▁ግማሽ": 4449,
      "▁ደካ": 4450,
      "▁የተለመደ": 4451,
      "▁አይፈ": 4452,
      "▁ለነርሱ": 4453,
      "አብርሃም": 4454,
      "ቴጂ": 4455,
      "ቃሉ": 4456,
      "om": 4457,
      "▁ይሆን?": 4458,
      "▁ያገኘ": 4459,
      "▁ከዛ": 4460,
      "▁ታውቃላችሁ": 4461,
      "▁ሙሴን": 4462,
      "አካባቢ": 4463,
      "ርሻ": 4464,
      "▁ያውቁ": 4465,
      "▁አካላዊ": 4466,
      "▁ነበርኩ": 4467,
      "▁በመጣ": 4468,
      "ምግብ": 4469,
      "▁የቁማር": 4470,
      "▁የሚያውቅ": 4471,
      "▁ዘይት": 4472,
      "▁ሕዝቡም": 4473,
      "ጨዋታ": 4474,
      "ክርስቲያ": 4475,
      "ኖስ": 4476,
      "ቲቱ": 4477,
      "ባይል": 4478,
      "ቀጣ": 4479,
      "ስፖርት": 4480,
      "ሙታን": 4481,
      "▁የላቸው": 4482,
      "▁በቤተ": 4483,
      "እነዚያም": 4484,
      "ቢዎች": 4485,
      "ስከ": 4486,
      "ram": 4487,
      ":17": 4488,
      "▁ይመስላል።": 4489,
      "▁የመጽሐፍ": 4490,
      "▁አይደሉም።": 4491,
      "▁ባሪያዎች": 4492,
      "▁በተጨማሪ": 4493,
      "▁ሊኖረው": 4494,
      "ፈልገውን": 4495,
      "ኩባንያ": 4496,
      "ሩት።": 4497,
      "▁እንዲሆኑ": 4498,
      "▁ትክክለኛውን": 4499,
      "▁መሞከር": 4500,
      "ዛው": 4501,
      "ከም": 4502,
      "ማራ": 4503,
      "ሃም": 4504,
      "▁የትኛው": 4505,
      "▁እየጨመረ": 4506,
      "▁አደገኛ": 4507,
      "▁አይደለም፤": 4508,
      "▁አያስፈልግ": 4509,
      "▁በፍቅር": 4510,
      "▁በተቃ": 4511,
      "▁ቀኑን": 4512,
      "▁ሲኾኑ": 4513,
      "▁መካከ": 4514,
      "▁ልጃ": 4515,
      "ዘገ": 4516,
      "ባችን": 4517,
      "ስራቅ": 4518,
      "ሮት": 4519,
      "ሟላ": 4520,
      "መድረስ": 4521,
      "ህን?": 4522,
      "▁ይላ": 4523,
      "▁ዘመናዊ": 4524,
      "▁ተመልከቱ": 4525,
      "▁በመሆኑ": 4526,
      "▁ቀጥተኛ": 4527,
      "▁ስሙ": 4528,
      "▁(2": 4529,
      "ዋጋ": 4530,
      "ኢትዮጵያ": 4531,
      "ቶቹን": 4532,
      "ረምት": 4533,
      "▁ይሆናሉ": 4534,
      "▁የለበት": 4535,
      "▁የሰማይ": 4536,
      "▁ውይይት": 4537,
      "▁ንስ": 4538,
      "▁ነጭ": 4539,
      "ጨነቅ": 4540,
      "ዶችና": 4541,
      "ክተር": 4542,
      "ካፈል": 4543,
      "ልስ": 4544,
      "▁ይጀም": 4545,
      "▁ወንጌል": 4546,
      "▁እኔና": 4547,
      "▁ምክንያት,": 4548,
      "ጉር": 4549,
      "ኝን": 4550,
      "ኖቼ": 4551,
      "ንበት": 4552,
      "ችም": 4553,
      "ቤን": 4554,
      "ing": 4555,
      "▁ግም": 4556,
      "▁ዳግመኛ": 4557,
      "▁የቅ": 4558,
      "▁በእምነት": 4559,
      "▁በፈ": 4560,
      "▁መዛሙር": 4561,
      "▁መዳ": 4562,
      "▁መቆ": 4563,
      "▁መቀበል": 4564,
      "ዳሪ": 4565,
      "ይቱም": 4566,
      "ያቂ": 4567,
      "ዋለሁ።": 4568,
      "ችልም።": 4569,
      "ሃል?": 4570,
      "▁ገንዘ": 4571,
      "▁የሚያደርግ": 4572,
      "▁እንዳልሆነ": 4573,
      "▁እንደሌለ": 4574,
      "▁መሰረት": 4575,
      "ቻሉ": 4576,
      "ረግ": 4577,
      "ers": 4578,
      "▁አልቻል": 4579,
      "ገናኝ": 4580,
      "ውያ": 4581,
      "ንቀት": 4582,
      "ሜል": 4583,
      "ሃለሁ።": 4584,
      "▁ግን,": 4585,
      "▁አይደለች": 4586,
      "ገስ": 4587,
      "ጀት": 4588,
      "ዋና": 4589,
      "ቅርቢ": 4590,
      "ለቅ": 4591,
      "▁ያወጣ": 4592,
      "▁የጎ": 4593,
      "▁አልነበ": 4594,
      "▁መፍጠር": 4595,
      "▁ለመጠ": 4596,
      "ፃፀ": 4597,
      "ታኝ": 4598,
      "ባን": 4599,
      "▁ያዕቆብ": 4600,
      "▁የሚፈ": 4601,
      "▁ዋስትና": 4602,
      "▁ወለ": 4603,
      "▁ካርድ": 4604,
      "▁ከሆን": 4605,
      "▁ተናገረ": 4606,
      "▁ማዳ": 4607,
      "ፍርድ": 4608,
      "ወጣት": 4609,
      "ሥጋ": 4610,
      "▁ፈራ": 4611,
      "▁ይልቁንም": 4612,
      "▁የራሱን": 4613,
      "▁የገባ": 4614,
      "▁ታይ": 4615,
      "▁ምህ": 4616,
      "▁ማርያም": 4617,
      "▁መግለጫ": 4618,
      "▁ሆቴ": 4619,
      "ወይም": 4620,
      "ሙዚቃ": 4621,
      "ሃኒ": 4622,
      "▁ጩኸ": 4623,
      "▁ጠጅ": 4624,
      "▁የተጠበቀ": 4625,
      "▁ኢየሱስን": 4626,
      "▁አጠገብ": 4627,
      "▁ነኝ፤": 4628,
      "▁ቁርኣን": 4629,
      "▁42": 4630,
      "▁ገለ": 4631,
      "▁ይን": 4632,
      "▁ዓይኖች": 4633,
      "▁ክት": 4634,
      "▁አደረጉ": 4635,
      "▁ባህሪ": 4636,
      "▁ስትራ": 4637,
      "ጓጓ": 4638,
      "▁ጋብቻ": 4639,
      "▁ይቻላል": 4640,
      "▁ያግ": 4641,
      "▁የመጀመሪያውን": 4642,
      "▁የሶ": 4643,
      "▁ኢያ": 4644,
      "▁አዛ": 4645,
      "▁ተጓ": 4646,
      "▁በመካከ": 4647,
      "▁ምሕረት": 4648,
      "▁ሌሊ": 4649,
      "ያያዘ": 4650,
      "▁የሚኖሩ": 4651,
      "▁አሥር": 4652,
      "▁ስትራቴጂ": 4653,
      "▁መግባት": 4654,
      "▁(እና": 4655,
      "ህ?": 4656,
      "ook": 4657,
      "▁ዓይነቶች": 4658,
      "▁ስታ": 4659,
      "▁ሲኾን": 4660,
      "▁ሰሎ": 4661,
      "▁ሊያስ": 4662,
      "ነበብ": 4663,
      "ስራኤልም": 4664,
      "▁የመስመር": 4665,
      "▁አምላካችን": 4666,
      "▁አቋ": 4667,
      "▁ሲመጣ": 4668,
      "▁ማስታወሻ": 4669,
      "▁ማረጋገጥ": 4670,
      "▁መውጣት": 4671,
      "▁ለመሆኑ": 4672,
      "▁ሃይማኖት": 4673,
      "▁(ይህ": 4674,
      "ኢንዱስትሪ": 4675,
      "ብረ": 4676,
      "ቡት": 4677,
      "ሞተ": 4678,
      "ማህበራዊ": 4679,
      "stag": 4680,
      "stagram": 4681,
      "▁የተሰጠ": 4682,
      "▁አለመሆኑ": 4683,
      "▁ስላል": 4684,
      "▁ሞክ": 4685,
      "▁ልማት": 4686,
      "ፋቸው": 4687,
      "ናይ": 4688,
      "ቃይ": 4689,
      "ላለፍ": 4690,
      "▁ይለ": 4691,
      "▁የታወቀ": 4692,
      "▁ውስጥ.": 4693,
      "▁እንደማ": 4694,
      "▁ሽልማት": 4695,
      "▁ምግ": 4696,
      "▁ሙሴም": 4697,
      "▁መብላት": 4698,
      "▁90": 4699,
      ":16": 4700,
      "▁ጀምሮ": 4701,
      "▁ያደረግ": 4702,
      "▁የመጀመሪያዎቹ": 4703,
      "▁የለም፤": 4704,
      "▁ከጥ": 4705,
      "▁ከት": 4706,
      "▁ኢኮኖሚ": 4707,
      "▁አጠቃቀም": 4708,
      "▁አንዴ": 4709,
      "▁ትእዛ": 4710,
      "▁ብሏል።": 4711,
      "▁And": 4712,
      "ክብካ": 4713,
      "ከማ": 4714,
      "ትክል": 4715,
      ":20": 4716,
      "▁ያደርጋል": 4717,
      "▁እያሉ": 4718,
      "▁በመንፈስ": 4719,
      "▁በዚህ": 4720,
      "▁ምእ": 4721,
      "ድፍ": 4722,
      "ወደው": 4723,
      "▁ጠፍ": 4724,
      "▁እንዲኖር": 4725,
      "▁አላገኘ": 4726,
      "▁አለዎት": 4727,
      "ርዳ": 4728,
      "30": 4729,
      "▁የሚሠራ": 4730,
      "▁ወዳጅ": 4731,
      "▁በሐ": 4732,
      "▁ለተወሰነ": 4733,
      "ጠናቀ": 4734,
      "ቃስ": 4735,
      "ሰቢያ": 4736,
      "▁ፍቅ": 4737,
      "▁ከሰው": 4738,
      "▁ቤተሰቦ": 4739,
      "▁በተለየ": 4740,
      "▁በኔ": 4741,
      "ፕሮ": 4742,
      "ቀበ": 4743,
      "ed": 4744,
      "▁ከማንኛውም": 4745,
      "▁እናቴ": 4746,
      "▁ተፈጥሮ": 4747,
      "▁በረራ": 4748,
      "ጸለይ": 4749,
      "ደርሱ": 4750,
      "ዘርላንድ": 4751,
      "ዎቻቸውን": 4752,
      "ታል፤": 4753,
      "ስተው": 4754,
      "hat": 4755,
      "▁ፍጻሜ": 4756,
      "▁የጌታን": 4757,
      "▁የተመሰ": 4758,
      "▁እንግሊዝኛ": 4759,
      "▁አዎንታዊ": 4760,
      "▁አስታ": 4761,
      "▁በሰይ": 4762,
      "▁ምዕራፍ": 4763,
      "ምም": 4764,
      "▁የሚያውቁ": 4765,
      "▁አንብ": 4766,
      "▁አንባቢ": 4767,
      "▁ራሳ": 4768,
      "▁መደበኛ": 4769,
      "▁ለመማር": 4770,
      "▁2014": 4771,
      "አዊ": 4772,
      "▁የሚኖር": 4773,
      "▁አብዛኞቻቸው": 4774,
      "▁ታውቃለህ?": 4775,
      "▁በውስጧ": 4776,
      "▁ስህተ": 4777,
      "▁ሥነ": 4778,
      "▁35": 4779,
      "ጠንቀ": 4780,
      "ጎዳ": 4781,
      "ዓን": 4782,
      "ከሰተ": 4783,
      "ሌክትሪክ": 4784,
      "▁ከነ": 4785,
      "▁እንቅልፍ": 4786,
      "▁እራሱን": 4787,
      "▁አስታውስ": 4788,
      "▁ማውራት": 4789,
      "▁ሆስፒ": 4790,
      "ችሉም።": 4791,
      "ምሩ": 4792,
      "▁ይፈልጉ": 4793,
      "▁በአንድነት": 4794,
      "▁ቀይ": 4795,
      "ደራ": 4796,
      "ንደዚህ": 4797,
      "ናለን": 4798,
      "ህይወ": 4799,
      "roid": 4800,
      "ad": 4801,
      "▁ይሁኑ": 4802,
      "▁ዓይነቱ": 4803,
      "▁እናደርጋ": 4804,
      "▁ባህል": 4805,
      "▁በራሳቸው": 4806,
      "ደህን": 4807,
      "ይዛ": 4808,
      "ውነተኛ": 4809,
      "ሮቻቸው": 4810,
      "ማቅረብ": 4811,
      "▁ኪዳ": 4812,
      "▁እንድታ": 4813,
      "▁እንክብካ": 4814,
      "▁ነግ": 4815,
      "▁ስልጣን": 4816,
      "▁መርዳት": 4817,
      "▁ሕዝቡን": 4818,
      "ዘዙ": 4819,
      "ሲኖ": 4820,
      "8_": 4821,
      "▁ይታያ": 4822,
      "▁ከእነርሱም": 4823,
      "▁ኃላፊነት": 4824,
      "▁Android": 4825,
      "ቶቻቸውን": 4826,
      "ሦስተኛ": 4827,
      "ሕክምና": 4828,
      "ለች፤": 4829,
      "eb": 4830,
      ":14": 4831,
      "▁ፕሬዚ": 4832,
      "▁ያካት": 4833,
      "▁ውበት": 4834,
      "▁አይደለምን?": 4835,
      "▁አያውቁም": 4836,
      "▁ትናን": 4837,
      "▁ላሉት": 4838,
      "ድንገት": 4839,
      "ደርጉት": 4840,
      "ላቸውን": 4841,
      "▁ጀርመን": 4842,
      "▁ይሰበ": 4843,
      "▁አንድን": 4844,
      "▁ተቋማት": 4845,
      "▁በ19": 4846,
      "▁ለመን": 4847,
      "▁ሆኗል": 4848,
      "ጨምር": 4849,
      "ጆቼ": 4850,
      "ዴታ": 4851,
      "ያየ": 4852,
      "ወቂያ": 4853,
      "ከዚያም": 4854,
      "▁የተሻለው": 4855,
      "▁ቢሮ": 4856,
      "▁በእኔና": 4857,
      "▁መድረክ": 4858,
      "▁ሌላውን": 4859,
      "ጡን": 4860,
      "ከላከል": 4861,
      "ቸዋል፤": 4862,
      "መፈለግ": 4863,
      "el": 4864,
      "▁ዲያብሎስ": 4865,
      "▁ይመለሳሉ።": 4866,
      "▁ዘንድ.": 4867,
      "▁ከቀ": 4868,
      "▁እሰጣ": 4869,
      "▁አይደል?": 4870,
      "▁አይደለ": 4871,
      "▁ንግግር": 4872,
      "▁ቀለም": 4873,
      "▁ሞዴል": 4874,
      "አዲ": 4875,
      "\">": 4876,
      "▁ንገ": 4877,
      "▁ነች": 4878,
      "▁ተነሳ": 4879,
      "▁በመጨረሻው": 4880,
      "▁ሰለ": 4881,
      "ፍር": 4882,
      "ጠይቃ": 4883,
      "ደህንነት": 4884,
      "ዕለ": 4885,
      "ስል": 4886,
      "▁ጥቃት": 4887,
      "▁ያልሆኑ": 4888,
      "▁አድርጉ": 4889,
      "▁ንጉሡም": 4890,
      "▁በርሷ": 4891,
      "▁መንግስ": 4892,
      "▁ለነሱ": 4893,
      "ጣል።": 4894,
      "ራስህ": 4895,
      "▁ደመና": 4896,
      "▁ይሆናል፤": 4897,
      "▁ነገሥታት": 4898,
      "▁ተመልክ": 4899,
      "▁ለማሻሻል": 4900,
      "▁ለመናገር": 4901,
      "ፀሐይ": 4902,
      "ሆናቸው": 4903,
      "▁ያልሆነ": 4904,
      "▁የሚችለው": 4905,
      "▁እምላ": 4906,
      "▁አልለ": 4907,
      "▁ልና": 4908,
      "ጠባ": 4909,
      "ድቃን": 4910,
      "ዥም": 4911,
      "ዕድሜ": 4912,
      "ሁ፤": 4913,
      "10": 4914,
      "▁ያለበት": 4915,
      "▁ወታደ": 4916,
      "▁ከሚያ": 4917,
      "▁እያንዳንዱን": 4918,
      "▁ተቀብ": 4919,
      "▁ስሞች": 4920,
      "ዖንም": 4921,
      "ካይ": 4922,
      "ችው።": 4923,
      "ሰማያትና": 4924,
      ":22": 4925,
      "▁አዳም": 4926,
      "▁አቆ": 4927,
      "ገማ": 4928,
      "ቴክኖሎጂ": 4929,
      "ሱ።": 4930,
      "ማረጋገጥ": 4931,
      "ለታ": 4932,
      "▁ጎብ": 4933,
      "▁ዳን": 4934,
      "▁ይመስል": 4935,
      "ጨነቁ": 4936,
      "ገለጸ": 4937,
      "ዋክብት": 4938,
      "ከተለው": 4939,
      "ንግሊዝ": 4940,
      "ቲን": 4941,
      "▁ጦር": 4942,
      "▁የተመረ": 4943,
      "▁የሐ": 4944,
      "▁አላት።": 4945,
      "▁ትችላለህ": 4946,
      "▁በቁ": 4947,
      "▁ሩቅ": 4948,
      "▁መሠረታዊ": 4949,
      "▁198": 4950,
      "▁\"እነ": 4951,
      "ንዲህ": 4952,
      "▁አብር": 4953,
      "▁መሐ": 4954,
      "ገባት": 4955,
      "ደረጉት": 4956,
      "ዎቹም": 4957,
      "ወረድ": 4958,
      "አይ": 4959,
      "ቃወ": 4960,
      "ሳሰብ": 4961,
      "ራሱ": 4962,
      "▁ፍጥረት": 4963,
      "▁አምላኬ": 4964,
      "ጠብቁ": 4965,
      "ገልግ": 4966,
      "ዘግ": 4967,
      "ንስፖርት": 4968,
      "ችኋለሁ": 4969,
      "ቻለው": 4970,
      "ሉትን": 4971,
      "il": 4972,
      "▁ወድ": 4973,
      "▁እንደሚቻል": 4974,
      "▁አማካይ": 4975,
      "▁አረ": 4976,
      "▁መክፈል": 4977,
      "▁ላከ": 4978,
      "ተኩ": 4979,
      "ም\"": 4980,
      "▁ይደረጋ": 4981,
      "▁ያደረገው": 4982,
      "▁የአምላክን": 4983,
      "▁ማጥናት": 4984,
      "▁ማድ": 4985,
      "▁ለሚያ": 4986,
      "ጀርባ": 4987,
      "▁ጴጥሮስ": 4988,
      "▁ገቢ": 4989,
      "▁የማን": 4990,
      "▁የሠ": 4991,
      "▁ዙፋን": 4992,
      "▁ወዲያ": 4993,
      "▁እናም,": 4994,
      "▁ኃይለኛ": 4995,
      "▁በተቃራኒ": 4996,
      "▁በመል": 4997,
      "▁ቀና": 4998,
      "▁\"ል": 4999,
      "ፍል": 5000,
      "ግሩ": 5001,
      "ብሪካ": 5002,
      "ሩቅ": 5003,
      "▁ፖሊሲ": 5004,
      "▁ይኸ": 5005,
      "▁ከእርሱም": 5006,
      "▁ከአምላክ": 5007,
      "▁መሸ": 5008,
      "▁ለዘ": 5009,
      "ድሮ": 5010,
      "ወለድ": 5011,
      "ከበረ": 5012,
      "▁ምንድነው?": 5013,
      "▁ሚስቱ": 5014,
      "▁መቆየት": 5015,
      "▁2012": 5016,
      "▁\"አንድ": 5017,
      "ድኑ": 5018,
      "ከባከብ": 5019,
      "ባለው": 5020,
      "▁የላቸውም": 5021,
      "▁ሚኒስት": 5022,
      "▁ለምሳሌ,": 5023,
      "▁ለማዳን": 5024,
      "▁Instagram": 5025,
      "▁36": 5026,
      "▁2008": 5027,
      "ፈልጋቸው": 5028,
      "የን": 5029,
      "መሥ": 5030,
      "▁የለኝም": 5031,
      "▁የጽ": 5032,
      "▁ከወ": 5033,
      "▁አይተ": 5034,
      "▁አለቃ": 5035,
      "▁ነጠላ": 5036,
      "▁ተቆ": 5037,
      "▁መዝሙር": 5038,
      "▁መሥዋዕት": 5039,
      "▁ለማለት": 5040,
      "ሴቶች": 5041,
      "▁የክርስቶስ": 5042,
      "▁ኮምፒ": 5043,
      "▁እውነቱ": 5044,
      "▁እንክብካቤ": 5045,
      "▁እራስ": 5046,
      "▁ነፃነት": 5047,
      "▁ነህ።": 5048,
      "▁ላክ": 5049,
      "ደነ": 5050,
      "ስትራሊያ": 5051,
      "ራሪ": 5052,
      "ሃይማኖ": 5053,
      "▁ይጠቀማ": 5054,
      "▁አገራት": 5055,
      "▁ተነሥ": 5056,
      "▁በክርስቶስ": 5057,
      "እርስ": 5058,
      "ናደር": 5059,
      "ነውን": 5060,
      "ነኛ": 5061,
      "ሂብ": 5062,
      "▁ፋይ": 5063,
      "▁ይልቅ": 5064,
      "▁ያነሰ": 5065,
      "▁የነበሩትን": 5066,
      "▁የማይቻል": 5067,
      "▁የላቀ": 5068,
      "▁የኔ": 5069,
      "ፈጸመ": 5070,
      "ጠቀሙበት": 5071,
      "ምና።": 5072,
      "ሕግ": 5073,
      "▁ፓርቲ": 5074,
      "▁ይኖረ": 5075,
      "▁ያውቅ": 5076,
      "▁የሚሆኑ": 5077,
      "▁አይችሉም።": 5078,
      "▁ነውን?": 5079,
      "▁ነው:": 5080,
      "▁ተከታዮች": 5081,
      "▁በቻይና": 5082,
      "▁ሳይንስ": 5083,
      "▁መኾኑን": 5084,
      "ፊክ": 5085,
      "ናቱ": 5086,
      "ችሁ።": 5087,
      "ለስ": 5088,
      "us": 5089,
      "5)": 5090,
      "▁ያጠፋ": 5091,
      "▁እድሜ": 5092,
      "▁እንዳያ": 5093,
      "▁እ.": 5094,
      "▁አይቶ": 5095,
      "▁በመስመር": 5096,
      "▁ስምንት": 5097,
      "▁መያዝ": 5098,
      "▁መምህ": 5099,
      "ድና": 5100,
      "ዘጋጁ": 5101,
      "ኑ።": 5102,
      "ቶቡ": 5103,
      "▁ይከ": 5104,
      "▁የብ": 5105,
      "▁ውድድር": 5106,
      "▁በሚገባ": 5107,
      "▁በሉ": 5108,
      "▁37": 5109,
      "▁(አላህ": 5110,
      "ዝቃ": 5111,
      "ናል፤": 5112,
      "ቻለሁ።": 5113,
      "ምኑት": 5114,
      "ማስታ": 5115,
      "መቅ": 5116,
      "ልበት": 5117,
      "▁ፍጡ": 5118,
      "▁ውጊያ": 5119,
      "▁ከርሱ": 5120,
      "▁አሉ,": 5121,
      "ኮት": 5122,
      "በያው": 5123,
      "ሰራው": 5124,
      "ላልቅ": 5125,
      "▁ጨረቃ": 5126,
      "▁ገነት": 5127,
      "▁ይናገራል።": 5128,
      "▁የግብ": 5129,
      "▁ከሓዲ": 5130,
      "▁እንድና": 5131,
      "▁እንስሳት": 5132,
      "▁እጥፍ": 5133,
      "▁አለው,": 5134,
      "▁ተለይ": 5135,
      "▁ብላችሁ": 5136,
      "▁ባን": 5137,
      "▁ባሕ": 5138,
      "▁ረድ": 5139,
      "▁'የ": 5140,
      "ፎችን": 5141,
      "ፍረት": 5142,
      "ያጭ": 5143,
      "ዛን": 5144,
      "ካናዳ": 5145,
      "ከላከ": 5146,
      "ስተር": 5147,
      "ሳው": 5148,
      "ሞችን": 5149,
      "▁ድርሻ": 5150,
      "▁ይሉ": 5151,
      "▁የሚፈልግ": 5152,
      "▁ዕቃ": 5153,
      "▁ኮሚ": 5154,
      "▁ከመጀመሪያው": 5155,
      "▁አስተዳደር": 5156,
      "▁አጠፋ": 5157,
      "▁ተፅ": 5158,
      "▁ብጤ": 5159,
      "▁ምንዳ": 5160,
      "▁ለባ": 5161,
      "ከፊ": 5162,
      "መወ": 5163,
      "▁ያደርጋል።": 5164,
      "▁ነበሩ.": 5165,
      "▁ችላ": 5166,
      "▁በሚቀጥሉት": 5167,
      "▁በመጀመሪያው": 5168,
      "▁[...": 5169,
      "▁[...]": 5170,
      "▁34": 5171,
      "▁ይጠበቃ": 5172,
      "▁ትናንሽ": 5173,
      "▁በቅርቢ": 5174,
      "▁ለኔ": 5175,
      "ዱም": 5176,
      "ቋቋመ": 5177,
      "▁ይወ": 5178,
      "▁የካዱት": 5179,
      "▁የሚገኝ": 5180,
      "▁ኑሮ": 5181,
      "▁ማቅረብ": 5182,
      "▁ሚስጥ": 5183,
      "▁መጡ": 5184,
      "▁ሊረዳ": 5185,
      "▁ህል": 5186,
      "ገዳ": 5187,
      "ጃፓን": 5188,
      "ሳስ": 5189,
      "መለከታ": 5190,
      "▁ጠላቶች": 5191,
      "▁ያቀ": 5192,
      "▁የተሞላ": 5193,
      "▁ውስብ": 5194,
      "▁ውስብስብ": 5195,
      "▁ከየት": 5196,
      "▁አክብ": 5197,
      "▁ነበር\"": 5198,
      "▁በዝ": 5199,
      "▁ስልጠና": 5200,
      "▁ሌሎቹ": 5201,
      "▁ሊወስድ": 5202,
      "ውቀት": 5203,
      "ቾት": 5204,
      "ስቴ": 5205,
      "▁እናንተን": 5206,
      "▁ተናገር": 5207,
      "▁መከተል": 5208,
      "▁You": 5209,
      "▁(ተ": 5210,
      "ገለጠ": 5211,
      "ጀምራ": 5212,
      "▁ይበል": 5213,
      "▁የሚመ": 5214,
      "▁እንደዚያ": 5215,
      "▁አመስጋ": 5216,
      "▁ተሰብ": 5217,
      "▁ባለቤቴ": 5218,
      "▁ሕንፃ": 5219,
      "ቶቼ": 5220,
      "ቴሌቪዥን": 5221,
      "ባቸውም": 5222,
      "▁ጉብኝ": 5223,
      "▁የሚሆነው": 5224,
      "▁ወንዝ": 5225,
      "▁አለባቸው።": 5226,
      "▁ሲባል": 5227,
      "ጭት": 5228,
      "ከሰቱ": 5229,
      "ናኛ": 5230,
      "ማው": 5231,
      "ሙኤል": 5232,
      "መለሳ": 5233,
      "ሀገ": 5234,
      "un": 5235,
      "▁የወደፊት": 5236,
      "▁አዋቂ": 5237,
      "▁ቁጣ": 5238,
      "▁መገናኘት": 5239,
      "ዋል,": 5240,
      "ኞቼ": 5241,
      "ኖራል": 5242,
      "ንቺ": 5243,
      "ባቢያ": 5244,
      "ሰማው": 5245,
      "▁ይገባል።": 5246,
      "▁ያውቃሉ።": 5247,
      "▁የሚችሉት": 5248,
      "▁እየሞ": 5249,
      "▁እውን": 5250,
      "▁ንጹሕ": 5251,
      "▁መመልከት": 5252,
      "▁(ዘ": 5253,
      "ኑም": 5254,
      "ማገልገል": 5255,
      "መርጣ": 5256,
      "ለማዊ": 5257,
      "▁አህ": 5258,
      "▁ባህሪያ": 5259,
      "ድጋሚ": 5260,
      "ቡ።": 5261,
      "ሻገር": 5262,
      "ሻው": 5263,
      "ube": 5264,
      "201": 5265,
      "▁ጊዜ፣": 5266,
      "▁ይጫወ": 5267,
      "▁የተጠቀ": 5268,
      "▁እንዴ?": 5269,
      "▁ነበረ።": 5270,
      "▁ምስጢር": 5271,
      "▁ማረፊያ": 5272,
      "▁60": 5273,
      "ፈጽ": 5274,
      "ጠናቀቅ": 5275,
      "ዎታል.": 5276,
      "ካዊ": 5277,
      "ንሳዊ": 5278,
      "ባቸው።": 5279,
      "ሸን": 5280,
      "ሩ፤": 5281,
      "ሟላት": 5282,
      "ሞባይል": 5283,
      "▁ይኖራል": 5284,
      "▁የተነሣ": 5285,
      "▁ወደሚ": 5286,
      "▁አስብ": 5287,
      "▁ተካ": 5288,
      "▁በነፃ": 5289,
      "▁ላይ.": 5290,
      "▁ለመገናኘት": 5291,
      "▁100%": 5292,
      "ወግ": 5293,
      "ኖሩት": 5294,
      "ብት": 5295,
      "ሚሊዮን": 5296,
      "▁ያገለግ": 5297,
      "▁ወንድሞቹ": 5298,
      "▁አንቀጾች": 5299,
      "▁አለመሆኑን": 5300,
      "▁አዋ": 5301,
      "▁አሥራ": 5302,
      "▁ልጁን": 5303,
      "▁ለካ": 5304,
      "▁ፌስቡክ": 5305,
      "▁ጠቢ": 5306,
      "▁ዘው": 5307,
      "▁እሄዳ": 5308,
      "▁ብን": 5309,
      "▁በነበሩት": 5310,
      "▁ምት": 5311,
      "▁ማዕከ": 5312,
      "ፈርዖን": 5313,
      "ወጠ": 5314,
      "ወትር": 5315,
      "um": 5316,
      "▁ጌታችን": 5317,
      "▁ክር": 5318,
      "▁ትዕዛዝ": 5319,
      "▁ቱርክ": 5320,
      "▁በደል": 5321,
      "▁በወ": 5322,
      "▁ቃሉ": 5323,
      "▁ስለተ": 5324,
      "▁ልቡ": 5325,
      "ጉጉት": 5326,
      "ታውቅ": 5327,
      "ind": 5328,
      "▁ይፈልጋል።": 5329,
      "▁ይሠራል": 5330,
      "▁የክ": 5331,
      "▁አደረገ።": 5332,
      "▁ተጠያቂ": 5333,
      "▁\"ለምን": 5334,
      "ፍጥረት": 5335,
      "ወረደው": 5336,
      "ቸው፤": 5337,
      "ላሉ)": 5338,
      "▁ዮርክ": 5339,
      "▁ያው": 5340,
      "▁ኮከብ": 5341,
      "▁ከሆኑት": 5342,
      "▁ነው)": 5343,
      "▁ነበረች": 5344,
      "▁መጥተው": 5345,
      "▁ለሕዝቡ": 5346,
      "▁(ወይም": 5347,
      "ጠይቁ": 5348,
      "ኢኮኖሚ": 5349,
      "ነገረ": 5350,
      "በታል።": 5351,
      "ቋረጥ": 5352,
      "ለያየ": 5353,
      "▁ጠረ": 5354,
      "▁ግምገማ": 5355,
      "▁የማያውቁ": 5356,
      "▁የሚሰ": 5357,
      "▁እንዳለባቸው": 5358,
      "▁አስተማሪ": 5359,
      "▁ተመለሰ": 5360,
      "▁ቢኖሩ": 5361,
      "▁በተወሰነ": 5362,
      "▁መጠቀ": 5363,
      "ዎች,": 5364,
      "ነካ": 5365,
      "ብሔር": 5366,
      "ቆሙ": 5367,
      "ስማማ": 5368,
      "ሰስ": 5369,
      "ራር": 5370,
      "ሪዎቹ": 5371,
      "መሰክ": 5372,
      "ሊስ": 5373,
      "▁የእነዚህ": 5374,
      "▁ወርቅ": 5375,
      "▁እንደሆንኩ": 5376,
      "▁አስባለሁ": 5377,
      "▁ተሳት": 5378,
      "▁ሠር": 5379,
      "▁መስፈር": 5380,
      "▁ለሁለት": 5381,
      "ጀምር": 5382,
      "በስ": 5383,
      "ቀትን": 5384,
      "ስቲ": 5385,
      "ሳምንት": 5386,
      "▁ግብር": 5387,
      "▁ደርሶ": 5388,
      "▁ይገል": 5389,
      "▁የድር": 5390,
      "▁ካናዳ": 5391,
      "▁እንዳላቸው": 5392,
      "▁እንደ.": 5393,
      "▁በሌሊት": 5394,
      "▁ማይ": 5395,
      "▁ሆና": 5396,
      "ገዝ": 5397,
      "ጄሪያ": 5398,
      "ናንት": 5399,
      "▁ግለሰ": 5400,
      "▁ይሆናሉ።": 5401,
      "▁ይጨ": 5402,
      "▁ይሁዳ": 5403,
      "▁እስራኤላውያን": 5404,
      "▁(ይባ": 5405,
      "ዳሜ": 5406,
      "ዓመታት": 5407,
      "ወሰድ": 5408,
      "ቀመጡ": 5409,
      "ራችሁት": 5410,
      "▁ጣዖ": 5411,
      "▁ግንኙነ": 5412,
      "▁የከፋ": 5413,
      "▁ካሉት": 5414,
      "▁ተመልሰው": 5415,
      "▁በምድ": 5416,
      "▁ርስት": 5417,
      "▁ለመም": 5418,
      "▁\"እግዚአብሔር": 5419,
      "ገግ": 5420,
      "ዓመት": 5421,
      "ቀሉ": 5422,
      "ራራ": 5423,
      "▁ደካማ": 5424,
      "▁ያዘ": 5425,
      "▁የእርሱን": 5426,
      "▁የትም": 5427,
      "▁ወጥቶ": 5428,
      "▁አድርጎ": 5429,
      "▁አላቸው፦": 5430,
      "▁በመጽሐፍ": 5431,
      "▁ቆይቷል": 5432,
      "▁መዳረሻ": 5433,
      "▁መካከለኛ": 5434,
      "▁መሆ": 5435,
      "ከን": 5436,
      "በለዚያ": 5437,
      "ረጋገጫ": 5438,
      "መጣም": 5439,
      "መቱ": 5440,
      "ላሳ": 5441,
      "3)": 5442,
      "▁ፀሐይ": 5443,
      "▁ጓዶች": 5444,
      "▁ወዴት": 5445,
      "▁ከመጣ": 5446,
      "▁እል": 5447,
      "▁አይደለህ": 5448,
      "▁አለው:": 5449,
      "▁ርቀት": 5450,
      "▁መረብ": 5451,
      "▁ለማንበብ": 5452,
      "▁ህጋዊ": 5453,
      "▁\"ታ": 5454,
      "ጧል": 5455,
      "ዱስ": 5456,
      "ንሰ": 5457,
      "ነው፤": 5458,
      "▁ዳዊትም": 5459,
      "▁ይሄን": 5460,
      "▁የሚከተሉ": 5461,
      "▁ኩራት": 5462,
      "▁እንስሳ": 5463,
      "▁አለብን።": 5464,
      "▁ነገረ": 5465,
      "▁ታውቃለህ": 5466,
      "▁ሞኝ": 5467,
      "▁ምሥክሮች": 5468,
      "▁መድሃኒ": 5469,
      "▁ሕል": 5470,
      "▁70": 5471,
      "ፕሬ": 5472,
      "ጥናት": 5473,
      "ዎት።": 5474,
      "ላህን": 5475,
      "▁ያስፈል": 5476,
      "▁ወደኋላ": 5477,
      "▁ካልተ": 5478,
      "▁ከጓደ": 5479,
      "▁ከናንተ": 5480,
      "▁ነው፥": 5481,
      "▁በመባል": 5482,
      "▁በጨለማ": 5483,
      "▁ቀኖች": 5484,
      "ገለግል": 5485,
      "ተናል።": 5486,
      "መሰግኑ": 5487,
      "x)": 5488,
      "▁ጠየቀ": 5489,
      "▁ደቡብ": 5490,
      "▁ይመራ": 5491,
      "▁አመታት": 5492,
      "▁አላት": 5493,
      "▁ታች": 5494,
      "▁በፍጹም": 5495,
      "▁ማቆም": 5496,
      "ዎች.": 5497,
      "ሳይያስ": 5498,
      "ራቸውን": 5499,
      "ምድርም": 5500,
      "ማሳደግ": 5501,
      ":25": 5502,
      "▁ያስባ": 5503,
      "▁የሚወድ": 5504,
      "▁ዝናብ": 5505,
      "▁ውሸት": 5506,
      "▁ካሲኖ": 5507,
      "▁ከጌታህ": 5508,
      "▁አዲሱን": 5509,
      "▁አይወድ": 5510,
      "▁አልፈልግም": 5511,
      "▁አለ፦": 5512,
      "▁ነብ": 5513,
      "▁ብታ": 5514,
      "▁ማነው?": 5515,
      "▁ህመም": 5516,
      "ጠኛ": 5517,
      "ገልጋ": 5518,
      "ዕክት": 5519,
      "ዕል": 5520,
      "ዋርያ": 5521,
      "ቃሉ።": 5522,
      "መለከ": 5523,
      "▁ጣል": 5524,
      "▁ድንኳ": 5525,
      "▁ደሴ": 5526,
      "▁የመን": 5527,
      "▁ከሕዝቡ": 5528,
      "▁ነቢያት": 5529,
      "▁በርግጥ": 5530,
      "▁ቅጽ": 5531,
      "▁ሁለቱን": 5532,
      "ዕይ": 5533,
      "እኖ": 5534,
      "እንግሊዝ": 5535,
      "ኒው": 5536,
      "ሷን": 5537,
      "ሮታ": 5538,
      "ሟል": 5539,
      "ሂድ": 5540,
      "▁ይፈልጋሉ?": 5541,
      "▁ይኸው": 5542,
      "▁የዚህ": 5543,
      "▁ወንድሞች": 5544,
      "▁ተከታታይ": 5545,
      "▁ተር": 5546,
      "▁በምር": 5547,
      "▁ርዕሰ": 5548,
      "▁ምስክርነት": 5549,
      "▁መድረስ": 5550,
      "▁መናፍ": 5551,
      "ጠንቀቂያ": 5552,
      "ዎታል።": 5553,
      "ና,": 5554,
      "ታሉ": 5555,
      "ባቸዋል።": 5556,
      "ምስ": 5557,
      "ማውያን": 5558,
      "ol": 5559,
      "▁ይጠፋ": 5560,
      "▁ያደርጉ": 5561,
      "▁ዓይኖ": 5562,
      "▁እምነ": 5563,
      "▁አንስ": 5564,
      "▁ብለዋል።": 5565,
      "▁በእር": 5566,
      "▁በበለጠ": 5567,
      "▁ቅድሚያ": 5568,
      "▁ማስታወስ": 5569,
      "ደጋጋሚ": 5570,
      "ዓብ": 5571,
      "እርሱም": 5572,
      "ተፍ": 5573,
      "ሶስት": 5574,
      "መልስ": 5575,
      "ለጥ": 5576,
      "ሀነም": 5577,
      "_2": 5578,
      "▁ይችላሉ?": 5579,
      "▁ይገ": 5580,
      "▁የጊዜ": 5581,
      "▁እፈልጋለሁ።": 5582,
      "▁አዎ,": 5583,
      "▁ናት፤": 5584,
      "▁በእርግጥም": 5585,
      "▁በአንዱ": 5586,
      "▁ስማ": 5587,
      "▁ሲነ": 5588,
      "▁መንግስታት": 5589,
      "▁38": 5590,
      "▁\"እነዚህ": 5591,
      "ጻፍ": 5592,
      "ዩም": 5593,
      "ውቅም።": 5594,
      "ተዋል.": 5595,
      "ቀሱ": 5596,
      "ስፔን": 5597,
      "መሬት": 5598,
      "▁ያለብ": 5599,
      "▁አትፍራ": 5600,
      "▁አሳማሚ": 5601,
      "▁አሜሪካውያን": 5602,
      "▁በእርሷ": 5603,
      "▁በርስ": 5604,
      "▁ለመመልከት": 5605,
      "ዳይ": 5606,
      "ተደጋጋሚ": 5607,
      "ሽከርካሪ": 5608,
      "ማምጣት": 5609,
      "▁ዳግም": 5610,
      "▁ይወር": 5611,
      "▁የዩ": 5612,
      "▁ወንዶችና": 5613,
      "▁እንደመ": 5614,
      "▁ታሪኮች": 5615,
      "▁በጥንቃቄ": 5616,
      "▁በእጁ": 5617,
      "▁መቅደስ": 5618,
      "ጥራ": 5619,
      "ኤስ": 5620,
      "መለወጥ": 5621,
      "ሑፍ": 5622,
      "ላችሁን": 5623,
      "ur": 5624,
      "▁ፍጥረ": 5625,
      "▁ይናገራል": 5626,
      "▁የሚያስተ": 5627,
      "▁ዘግ": 5628,
      "▁ዘገባ": 5629,
      "▁አስቀድ": 5630,
      "▁አዘጋጅ": 5631,
      "▁መጻፍ": 5632,
      "▁ልቤ": 5633,
      "ይቱን": 5634,
      "ዕምሮ": 5635,
      "ኸኝ": 5636,
      "ኩን": 5637,
      "ሳል።": 5638,
      "መቆየት": 5639,
      "ላን": 5640,
      "▁ጭፍ": 5641,
      "▁የነበረውን": 5642,
      "▁እላችኋለሁ": 5643,
      "▁አይሁድ": 5644,
      "▁አውቃለሁ።": 5645,
      "▁ተጨ": 5646,
      "▁ባልደረ": 5647,
      "▁በመስ": 5648,
      "▁ቅሬ": 5649,
      "▁ቀለ": 5650,
      "▁ሥራውን": 5651,
      "▁48": 5652,
      "▁\"ምን": 5653,
      "ፁም": 5654,
      "ሜራ": 5655,
      "▁ግምት": 5656,
      "▁ይወዳል": 5657,
      "▁የተባረ": 5658,
      "▁እብ": 5659,
      "▁እላለሁ": 5660,
      "▁አላቸው:": 5661,
      "▁ታሪካ": 5662,
      "▁በድን": 5663,
      "▁በሩሲያ": 5664,
      "▁500": 5665,
      "▁\"ስለ": 5666,
      "ፈልጉት": 5667,
      "ካን": 5668,
      "ና.": 5669,
      "ቆት": 5670,
      "ማሸነፍ": 5671,
      "▁ገጽታ": 5672,
      "▁አካላት": 5673,
      "▁በዩ": 5674,
      "ጋችሁ": 5675,
      "ያችሁ": 5676,
      "ወሰደ": 5677,
      "ኮል": 5678,
      "ከፈተ": 5679,
      "ነግር": 5680,
      "ረዋል።": 5681,
      "ማል።": 5682,
      "▁ጋር.": 5683,
      "▁ካላ": 5684,
      "▁ከሌ": 5685,
      "▁እባክህ": 5686,
      "▁እረፍት": 5687,
      "▁አውጥ": 5688,
      "▁አሁን,": 5689,
      "▁ብስክ": 5690,
      "▁መቀጠል": 5691,
      "▁መፈ": 5692,
      "ገለጥ": 5693,
      "ቴም": 5694,
      "ቲት": 5695,
      "ማስወገድ": 5696,
      "ሙትን": 5697,
      "to": 5698,
      "▁ግሩም": 5699,
      "▁ይበሉ": 5700,
      "▁ክብደት": 5701,
      "▁ከእስራኤል": 5702,
      "▁እውቅ": 5703,
      "▁እናያ": 5704,
      "▁አሉታዊ": 5705,
      "▁ታናሽ": 5706,
      "▁ታስ": 5707,
      "▁ሸክ": 5708,
      "▁ልማ": 5709,
      "▁ለመጎብኘት": 5710,
      "▁ሆይ:,": 5711,
      "ደሰቱ": 5712,
      "ዕግ": 5713,
      "ካሚ": 5714,
      "ታየው": 5715,
      "ሌጅ": 5716,
      "ህነት": 5717,
      "▁ግንባታ": 5718,
      "▁ጆን": 5719,
      "▁የሚቀ": 5720,
      "▁ክንድ": 5721,
      "▁አወጣ": 5722,
      "▁ነበረበት": 5723,
      "▁ተኝ": 5724,
      "▁ብቃት": 5725,
      "▁ሰውም": 5726,
      "▁ማጣት": 5727,
      "▁ለመስማት": 5728,
      "▁\"ሰ": 5729,
      "ጠቅላላ": 5730,
      "ጂታል": 5731,
      "ቨስት": 5732,
      "ብላት": 5733,
      "በላይ": 5734,
      "_\"": 5735,
      "▁ጭምር": 5736,
      "▁ገብቶ": 5737,
      "▁ድንጋይ": 5738,
      "▁ድርጊት": 5739,
      "▁ይኖሩ": 5740,
      "▁እርስዎን": 5741,
      "▁እመ": 5742,
      "▁አሉን": 5743,
      "▁ትዕዛ": 5744,
      "▁በሆኑ": 5745,
      "▁ለመጫወት": 5746,
      "ዮሴፍ": 5747,
      "ወቀው": 5748,
      "iv": 5749,
      "ir": 5750,
      "▁ግብፅ": 5751,
      "▁ያግኙ": 5752,
      "▁እንፈልጋ": 5753,
      "▁ተአ": 5754,
      "▁ባየ": 5755,
      "▁በተያያዘ": 5756,
      "▁ምስክሮች": 5757,
      "▁ምስል": 5758,
      "▁ምስራቅ": 5759,
      "▁ህግ": 5760,
      "አመ": 5761,
      "ትራ": 5762,
      "ለዓለም": 5763,
      "ሂዱ": 5764,
      "ter": 5765,
      "_4": 5766,
      "▁የተሟላ": 5767,
      "▁ወንድሞቼ": 5768,
      "▁ካህናት": 5769,
      "▁እውነታው": 5770,
      "▁ነገሮችም": 5771,
      "▁ነገድ": 5772,
      "▁ትናንት": 5773,
      "▁ታገኛ": 5774,
      "▁በውጭ": 5775,
      "▁ቀጣዩ": 5776,
      "ውር": 5777,
      "መልካ": 5778,
      "ሊዮ": 5779,
      "ion": 5780,
      "▁ገን": 5781,
      "▁ይሞ": 5782,
      "▁ወደቀ": 5783,
      "▁አጥን": 5784,
      "▁አምናለሁ": 5785,
      "▁በኢየሩሳሌም": 5786,
      "▁በቀጣ": 5787,
      "▁በሰይፍ": 5788,
      "▁2013": 5789,
      "ኩበት": 5790,
      "አጭር": 5791,
      "ን፤": 5792,
      "ቸዋለሁ": 5793,
      "በዛ": 5794,
      "ራሲ": 5795,
      "ልብ": 5796,
      "▁ያንብ": 5797,
      "▁ያሳያል": 5798,
      "▁የተሳሳተ": 5799,
      "▁የደረ": 5800,
      "▁ወራ": 5801,
      "▁ኾነ": 5802,
      "▁አድራጊ": 5803,
      "▁አቤቱ፥": 5804,
      "▁አደረ": 5805,
      "▁ንድፍ": 5806,
      "▁ተከት": 5807,
      "▁ባት": 5808,
      "▁ባሉት": 5809,
      "▁በሻ": 5810,
      "▁ስደተኞች": 5811,
      "▁ማኅ": 5812,
      "▁ማረጋገጫ": 5813,
      "▁መተው": 5814,
      "▁ሕዝቤ": 5815,
      "ኩትን": 5816,
      "በልጡ": 5817,
      "ሐሴ": 5818,
      ":26": 5819,
      "▁ፕላ": 5820,
      "▁ጭፍሮች": 5821,
      "▁ግዙ": 5822,
      "▁ከእርሷ": 5823,
      "▁እያደገ": 5824,
      "▁አስፈላጊነት": 5825,
      "▁ተሰማ": 5826,
      "▁ባለመ": 5827,
      "▁ቁማር": 5828,
      "▁ሳሙኤል": 5829,
      "▁ሐኪ": 5830,
      "▁ለዚያ": 5831,
      "ጠራጠር": 5832,
      "ያይ": 5833,
      "አላህም": 5834,
      "ሙ።": 5835,
      "ሃል፤": 5836,
      "▁ፕሬዚዳንት": 5837,
      "▁ግዛ": 5838,
      "▁ገደብ": 5839,
      "▁ይም": 5840,
      "▁የምንችለው": 5841,
      "▁የራስ": 5842,
      "▁ባዶ": 5843,
      "▁በየትኛውም": 5844,
      "▁በእነዚያ": 5845,
      "▁በሀ": 5846,
      "▁ረዳት": 5847,
      "▁መቻል": 5848,
      "▁(ዮሐንስ": 5849,
      "▁(ቅ": 5850,
      "ጋራት": 5851,
      "ድማ": 5852,
      "እነርሱም": 5853,
      "ንንም": 5854,
      "ራችን": 5855,
      "ረታ": 5856,
      "መቀጠል": 5857,
      "▁ፋብሪካ": 5858,
      "▁ግብይት": 5859,
      "▁የመጣው": 5860,
      "▁እነርሱን": 5861,
      "▁እርሻ": 5862,
      "▁እሁድ": 5863,
      "▁አምጡ": 5864,
      "▁ተገል": 5865,
      "▁ተዕለት": 5866,
      "▁ባንተ": 5867,
      "▁ማሳየት": 5868,
      "ጋው": 5869,
      "ዳል።": 5870,
      "ናኝ": 5871,
      "ስቶች": 5872,
      "ርን": 5873,
      "መጠን": 5874,
      "ሕዝቦቹ": 5875,
      "▁ይሞክሩ": 5876,
      "▁ውሻ": 5877,
      "▁ወዳንተ": 5878,
      "▁እችላለሁ?": 5879,
      "▁እስከዛሬ": 5880,
      "▁አባቶቻችን": 5881,
      "▁አሏቸው": 5882,
      "▁ናችሁ።": 5883,
      "▁ትዝ": 5884,
      "▁ሳይቆይ": 5885,
      "▁መጽሐፉን": 5886,
      "▁ሆስፒታል": 5887,
      "ግነት": 5888,
      "ክሲኮ": 5889,
      "ኤሌክትሪክ": 5890,
      "አምላክ": 5891,
      "ናገሩት": 5892,
      "ነብ": 5893,
      "ረሱ": 5894,
      "መደገፍ": 5895,
      "መጋ": 5896,
      "ልፉ": 5897,
      "▁ፈገግ": 5898,
      "▁ጎረ": 5899,
      "▁የሚመራ": 5900,
      "▁አጥብ": 5901,
      "▁አይቻ": 5902,
      "▁አስተሳሰብ": 5903,
      "▁አራተኛ": 5904,
      "▁ብልህ": 5905,
      "▁በካ": 5906,
      "▁ለመሞከር": 5907,
      "▁ለጥቂት": 5908,
      "▁the": 5909,
      "ጓጓዣ": 5910,
      "ናቅ": 5911,
      "ትንሽ": 5912,
      "ቀላቀል": 5913,
      "ሻል": 5914,
      "መሥራት": 5915,
      "መያዝ": 5916,
      "ልጣናት": 5917,
      "ለምዶ": 5918,
      ":24": 5919,
      "▁ደስተ": 5920,
      "▁የሚገል": 5921,
      "▁የወ": 5922,
      "▁ክፋት": 5923,
      "▁እያንዳንዳቸው": 5924,
      "▁እንደሌ": 5925,
      "▁አይደለንም": 5926,
      "▁በጌ": 5927,
      "▁በን": 5928,
      "▁ማለፍ": 5929,
      "▁መግቢያ": 5930,
      "▁መጸለይ": 5931,
      "▁197": 5932,
      "ጪው": 5933,
      "ይጣን": 5934,
      "ወስዱ": 5935,
      "ን፣": 5936,
      "ቃል።": 5937,
      "ሰውነት": 5938,
      "ሌን": 5939,
      "▁ፈሪ": 5940,
      "▁ጸሐ": 5941,
      "▁ይይዛ": 5942,
      "▁ያደ": 5943,
      "▁የተናገረው": 5944,
      "▁የማት": 5945,
      "▁ዘወትር": 5946,
      "▁ነህ?": 5947,
      "▁ተመላ": 5948,
      "▁በሲ": 5949,
      "▁በሁለቱም": 5950,
      "▁በሁለቱ": 5951,
      "▁ምቾት": 5952,
      "▁መገንባት": 5953,
      "▁ላይሆን": 5954,
      "▁ለራሱ": 5955,
      "▁ለመጓዝ": 5956,
      "ጦርነት": 5957,
      "ደሱ": 5958,
      "አል።": 5959,
      "ብሊክ": 5960,
      "ምሌ": 5961,
      "▁የእናንተ": 5962,
      "▁ከሳ": 5963,
      "▁በላይ,": 5964,
      "▁ስሪት": 5965,
      "▁መጽሐፍን": 5966,
      "▁መጽሔ": 5967,
      "▁ህልም": 5968,
      "▁(ቁር": 5969,
      "ኮኖሚያ": 5970,
      "ና፣": 5971,
      "ብራራ": 5972,
      "መክራ": 5973,
      "መቀነስ": 5974,
      "ch": 5975,
      "7_": 5976,
      "▁ጓደኛዬ": 5977,
      "▁ዩክሬን": 5978,
      "▁የአትክል": 5979,
      "▁እራሳቸውን": 5980,
      "▁ነገሩ": 5981,
      "▁ብሩ": 5982,
      "▁ማበረታ": 5983,
      "▁መፍራት": 5984,
      "▁መቁ": 5985,
      "▁ህፃ": 5986,
      "▁\"አሁን": 5987,
      "ግለጽ": 5988,
      "ግብር": 5989,
      "ንግሥ": 5990,
      "ነቴ": 5991,
      "ረው።": 5992,
      "መፍታት": 5993,
      "መርመር": 5994,
      "ልዩ": 5995,
      "ia": 5996,
      "▁ደርሷ": 5997,
      "▁ይሰጠ": 5998,
      "▁የሕይወ": 5999,
      "▁ዘጠኝ": 6000,
      "▁ከልጅ": 6001,
      "▁እነሆ፣": 6002,
      "▁ነኝ\"": 6003,
      "▁መዛሙርቱ": 6004,
      "ጣሬ": 6005,
      "ጊዜው": 6006,
      "ደንበኞች": 6007,
      "ናቸውም": 6008,
      "ባበሩት": 6009,
      "▁ይሰጣል.": 6010,
      "▁ያኔ": 6011,
      "▁ዘላቂ": 6012,
      "▁ውር": 6013,
      "▁እርዳ": 6014,
      "▁በተለምዶ": 6015,
      "▁ቀጠሮ": 6016,
      "▁ራሴ": 6017,
      "▁ሠራዊት": 6018,
      "▁መዳን": 6019,
      "▁45": 6020,
      "ጋጥ": 6021,
      "ገልግሎት": 6022,
      "ካተ": 6023,
      "ካሄ": 6024,
      "ኩኝ": 6025,
      "ንጉሥ": 6026,
      "ነፍስ": 6027,
      "ሻሽ": 6028,
      "ሰላ": 6029,
      "ows": 6030,
      "▁ጫማ": 6031,
      "▁ጩኸት": 6032,
      "▁ይከሰ": 6033,
      "▁ያገኛሉ": 6034,
      "▁የተጻፈ": 6035,
      "▁የቻይና": 6036,
      "▁አፍቃ": 6037,
      "▁አድነ": 6038,
      "▁አውሮፕላን": 6039,
      "▁ቀርቶ": 6040,
      "▁ሰሎሞን": 6041,
      "ዝቃዛ": 6042,
      "ኑት": 6043,
      "በደ": 6044,
      "ሰብሰብ": 6045,
      "ረጋጋ": 6046,
      "ልቀት": 6047,
      "▁ፈርዖን": 6048,
      "▁ግንቦት": 6049,
      "▁ይጀምራል": 6050,
      "▁ያውቃሉ?": 6051,
      "▁ያስፈልግዎታል": 6052,
      "▁የሉም": 6053,
      "▁እንዲያገኙ": 6054,
      "▁ናቸው\"": 6055,
      "▁ተመራማሪዎች": 6056,
      "▁ተዘጋጅ": 6057,
      "▁በገዛ": 6058,
      "▁ቀጣይ": 6059,
      "▁መቃብር": 6060,
      "▁ሊፈ": 6061,
      "ጣው": 6062,
      "ጡ.": 6063,
      "ለን!": 6064,
      "▁ፈጠራ": 6065,
      "▁ጠንክ": 6066,
      "▁ዳንኤል": 6067,
      "▁ይኖራል።": 6068,
      "▁የግድ": 6069,
      "▁የሚከተሉትን": 6070,
      "▁የዛሬ": 6071,
      "▁በእርሱም": 6072,
      "▁ስርዓ": 6073,
      "▁ማነው": 6074,
      "▁ለመግ": 6075,
      "▁ለ,": 6076,
      "▁in": 6077,
      "▁194": 6078,
      "ሰቡን": 6079,
      "▁ፍጡር": 6080,
      "▁ጀመር።": 6081,
      "▁ይችል": 6082,
      "▁የተሻሉ": 6083,
      "▁የሚሰጡ": 6084,
      "▁የወጣ": 6085,
      "▁አላቸው,": 6086,
      "▁መንፈ": 6087,
      "▁ለእነዚህ": 6088,
      "▁ሀሳቦች": 6089,
      "ገነዘቡ": 6090,
      "ዮችን": 6091,
      "ታለች": 6092,
      "ቆጠሩ": 6093,
      "ስያ": 6094,
      "ሥራቅ": 6095,
      "መስገን": 6096,
      "ለው።": 6097,
      "ህንድ": 6098,
      "▁ጥፋ": 6099,
      "▁ያደርጋል.": 6100,
      "▁የዚህን": 6101,
      "▁የአትክልት": 6102,
      "▁ወሬ": 6103,
      "▁እሺ": 6104,
      "▁አግኝቷል": 6105,
      "▁አባቱን": 6106,
      "▁ምኞት": 6107,
      "▁ላም": 6108,
      "▁(ይባላሉ)": 6109,
      "ጸልይ": 6110,
      "ራም": 6111,
      "ላቸው)": 6112,
      "ለን\"": 6113,
      "ሁትን": 6114,
      "▁ጥንታዊ": 6115,
      "▁የእስራኤልም": 6116,
      "▁የሚወ": 6117,
      "▁የሚናገር": 6118,
      "▁የኤ": 6119,
      "▁ዝርያ": 6120,
      "▁ወንበር": 6121,
      "▁እየሆነ": 6122,
      "▁አልቻሉም": 6123,
      "▁ንስሐ": 6124,
      "▁ተናግሯል።": 6125,
      "▁ተጣ": 6126,
      "▁መገኘት": 6127,
      "▁ለማሳካት": 6128,
      "▁44": 6129,
      "ውስጥ": 6130,
      "ታቸውም": 6131,
      "ቀቁ": 6132,
      "መሰግና": 6133,
      "indows": 6134,
      ":30": 6135,
      "▁ጌታን": 6136,
      "▁ይሻላል": 6137,
      "▁ያለፈ": 6138,
      "▁የተለመዱ": 6139,
      "▁የሚተ": 6140,
      "▁የሚሰጥ": 6141,
      "▁አስተና": 6142,
      "▁ኒው": 6143,
      "▁በወር": 6144,
      "▁ሰጥቶ": 6145,
      "▁ራሳቸው": 6146,
      "▁ማስጠንቀቂያ": 6147,
      "▁ላለው": 6148,
      "▁ለን": 6149,
      "ጫወቱ": 6150,
      "ይረስ": 6151,
      "ንንት": 6152,
      "ብብር": 6153,
      "ሰና": 6154,
      "ለወጥ": 6155,
      "▁ዘመቻ": 6156,
      "▁ወንጀል": 6157,
      "▁እስኪያ": 6158,
      "▁እህት": 6159,
      "▁እሆና": 6160,
      "▁ታደርጋ": 6161,
      "▁ተጠንቀ": 6162,
      "▁ለአን": 6163,
      "ኣንን": 6164,
      "ቻችንም": 6165,
      "ቆማ": 6166,
      "▁ግንኙነቶች": 6167,
      "▁ይታወቃ": 6168,
      "▁የተስፋ": 6169,
      "▁የጠፋ": 6170,
      "▁ወንድሜ": 6171,
      "▁አዎን፣": 6172,
      "▁በክፉ": 6173,
      "▁በሚል": 6174,
      "▁በከተማ": 6175,
      "▁ልጆቼ": 6176,
      "▁ልጆቻቸውን": 6177,
      "▁ለርሱ": 6178,
      "▁Windows": 6179,
      "ፈጠረ": 6180,
      "ደርገውን": 6181,
      "ራቢያ": 6182,
      "▁ያለም": 6183,
      "▁የቀረበ": 6184,
      "▁የሌለበት": 6185,
      "▁የዋ": 6186,
      "▁ዕጣ": 6187,
      "▁አይሁዳ": 6188,
      "▁ብራ": 6189,
      "▁ማሽ": 6190,
      "ዚያች": 6191,
      "ዎታለን": 6192,
      "ውተር": 6193,
      "እነርሱም፣": 6194,
      "አንድ": 6195,
      "ታትን": 6196,
      "ቱሪዝም": 6197,
      "በታል": 6198,
      "ቀጥለው": 6199,
      "ቀመጫ": 6200,
      "ሽም": 6201,
      "መለከተው": 6202,
      "|7": 6203,
      "14": 6204,
      "▁ፈታኝ": 6205,
      "▁ይቀመጣ": 6206,
      "▁ይከተ": 6207,
      "▁ከወንድ": 6208,
      "▁እነሆ:,": 6209,
      "▁እርስዋም": 6210,
      "▁አስተዳ": 6211,
      "▁ተፈጥ": 6212,
      "▁በነጻ": 6213,
      "▁በማይ": 6214,
      "▁ሰሜን": 6215,
      "▁ሪፖር": 6216,
      "▁ማብ": 6217,
      "▁ሕልም": 6218,
      "ግንኙ": 6219,
      "ጋጠ": 6220,
      "ና\"": 6221,
      "ሶችን": 6222,
      ":23": 6223,
      "▁ፓሪስ": 6224,
      "▁ፈርዖንም": 6225,
      "▁ፈለገ": 6226,
      "▁የፈጠረ": 6227,
      "▁የሚፈልጉት": 6228,
      "▁ከፈለግ": 6229,
      "▁እባክዎ": 6230,
      "▁አዝማ": 6231,
      "▁አለበለዚያ": 6232,
      "▁በኾነ": 6233,
      "ጀመሩ": 6234,
      "ደብ": 6235,
      "ቦቼ": 6236,
      "ቡል": 6237,
      "ሯዊ": 6238,
      "ረሰ": 6239,
      "ማስታወስ": 6240,
      "ለቆ": 6241,
      "ሃነም": 6242,
      "▁ጀምሮ,": 6243,
      "▁የሆኑት": 6244,
      "▁ክህ": 6245,
      "▁እየፈለጉ": 6246,
      "▁ኢኮኖሚያ": 6247,
      "▁መንግሥ": 6248,
      "▁መኖሩ": 6249,
      "▁ለአላህ": 6250,
      "▁\"እነሆ": 6251,
      "ጓድ": 6252,
      "ጊዜም": 6253,
      "ዕለቱ": 6254,
      "ከራከሩ": 6255,
      "ሰማቸው": 6256,
      "▁ጨምሮ": 6257,
      "▁ጥቃ": 6258,
      "▁ደራሲ": 6259,
      "▁ይችሉ": 6260,
      "▁የተጋ": 6261,
      "▁ወረር": 6262,
      "▁ነኝ,": 6263,
      "▁ነበር፣": 6264,
      "▁በዚህች": 6265,
      "▁(አላህ)": 6266,
      "▁\"በዚህ": 6267,
      "ፓሪስ": 6268,
      "ጠለ": 6269,
      "ዚል": 6270,
      "ንዲ": 6271,
      "ቆዩ": 6272,
      "ሳኤ": 6273,
      "|2": 6274,
      "▁ግዙፍ": 6275,
      "▁ደጋግ": 6276,
      "▁የሁለት": 6277,
      "▁ውሾች": 6278,
      "▁እግዚ": 6279,
      "▁አናውቅም": 6280,
      "▁ተመዝ": 6281,
      "▁ባለሥ": 6282,
      "▁በሦስተኛ": 6283,
      "▁ማስቀመጥ": 6284,
      "ጣዊ": 6285,
      "ናገራ": 6286,
      "ኋቸው": 6287,
      "ቡድን": 6288,
      "ሰብኩ": 6289,
      "ለብ": 6290,
      "▁ጭንቀት": 6291,
      "▁ይጠቀሙ": 6292,
      "▁የቀረ": 6293,
      "▁ዘን": 6294,
      "▁እንደሚሰራ": 6295,
      "▁እንደሚመጣ": 6296,
      "▁እንደነበሩ": 6297,
      "▁አጋማሽ": 6298,
      "▁ባህር": 6299,
      "▁ሁላችሁም": 6300,
      "ፃፍ": 6301,
      "ይፋ": 6302,
      "ዕራብ": 6303,
      "አእምሮ": 6304,
      "ታለሁ": 6305,
      "ቅም።": 6306,
      "ቀበሉ": 6307,
      "ሳምንቱ": 6308,
      "ልጠና": 6309,
      "ላዊነት": 6310,
      "ላችሁን?": 6311,
      "▁ይሰማኛል": 6312,
      "▁የዓ": 6313,
      "▁ወላጅ": 6314,
      "▁ወዮ": 6315,
      "▁በሰሜን": 6316,
      "▁በሚያስ": 6317,
      "▁በትንሣኤ": 6318,
      "▁በቁም": 6319,
      "▁በሕይወት": 6320,
      "▁ሞተር": 6321,
      "▁ላንተ": 6322,
      "▁ለብ": 6323,
      "ፕል": 6324,
      "ጠበቁ": 6325,
      "ግማሽ": 6326,
      "ጋይ": 6327,
      "ገባው": 6328,
      "ያለሁ።": 6329,
      "ቧል": 6330,
      "ሲብ": 6331,
      "▁እናገኛ": 6332,
      "▁ኢዮብ": 6333,
      "▁አሮጌ": 6334,
      "▁አሻ": 6335,
      "▁ንግዶች": 6336,
      "▁ተቆጣ": 6337,
      "▁ሰውነት": 6338,
      "▁ሰጠው": 6339,
      "▁ማስተዋል": 6340,
      "▁ለማንም": 6341,
      "ፉን": 6342,
      "ጽፍ": 6343,
      "ዲያብሎስ": 6344,
      "ብርሃን": 6345,
      "ቀመጠ": 6346,
      "መልከ": 6347,
      "ህ፤": 6348,
      "▁፡-": 6349,
      "▁ፖለቲካ": 6350,
      "▁ፈጣ": 6351,
      "▁ጋራ": 6352,
      "▁ይቻ": 6353,
      "▁የለበትም": 6354,
      "▁ዝግጅት": 6355,
      "▁እፈልጋለሁ.": 6356,
      "▁አይደለም?": 6357,
      "▁አያስፈልገ": 6358,
      "▁አምራ": 6359,
      "▁አላችሁ": 6360,
      "▁ብሎ:": 6361,
      "▁ቢሆኑ": 6362,
      "▁በነበረ": 6363,
      "▁በሕዝቡ": 6364,
      "▁ስለማ": 6365,
      "▁መስሎ": 6366,
      "▁ሌላኛው": 6367,
      "▁2009": 6368,
      "▁(ኢ": 6369,
      "ጋብቻ": 6370,
      "ገኝም": 6371,
      "ተዋ": 6372,
      "ረጋግጥ": 6373,
      "ማከናወን": 6374,
      "__": 6375,
      ":21": 6376,
      "▁ገዥ": 6377,
      "▁ይቆያ": 6378,
      "▁የሚሆነ": 6379,
      "▁ወሰደ": 6380,
      "▁አንችልም": 6381,
      "▁አታው": 6382,
      "▁ንግሥ": 6383,
      "▁ታገ": 6384,
      "▁ባቡ": 6385,
      "▁በአው": 6386,
      "▁በመጀመሪያ": 6387,
      "▁በሰማያት": 6388,
      "▁ስድ": 6389,
      "▁ማንነት": 6390,
      "▁መድኃኒ": 6391,
      "ፍሬ": 6392,
      "ፈጠራ": 6393,
      "ይዝ": 6394,
      "ከላከያ": 6395,
      "አካል": 6396,
      "ርጂ": 6397,
      "ረጋገጠ": 6398,
      "ሕዝቦች": 6399,
      "ለን,": 6400,
      "ለሁ!": 6401,
      "11": 6402,
      "▁ይፈልጋሉ.": 6403,
      "▁ይከፈ": 6404,
      "▁ወገኖቼ": 6405,
      "▁ኪንግ": 6406,
      "▁ከሆንክ": 6407,
      "▁ከፋ": 6408,
      "▁እዚያው": 6409,
      "▁እርግ": 6410,
      "▁አንድነት": 6411,
      "▁ትምህርቶች": 6412,
      "▁ተሳታ": 6413,
      "▁ቃለ": 6414,
      "▁ስላለው": 6415,
      "▁ሰይጣ": 6416,
      "▁ሰማያት": 6417,
      "▁መርከ": 6418,
      "▁ለራሳቸው": 6419,
      "▁(4": 6420,
      "ጠሪያ": 6421,
      "ዘም": 6422,
      "ክበር": 6423,
      "ኒክ": 6424,
      "ማቾች": 6425,
      "ላሉ.": 6426,
      "ss": 6427,
      "▁ይሰጣል።": 6428,
      "▁ይጀምራ": 6429,
      "▁ዘመናት": 6430,
      "▁ወሰነ": 6431,
      "▁አንጻ": 6432,
      "▁አስተያየ": 6433,
      "▁አስር": 6434,
      "▁አምነ": 6435,
      "▁ቡና": 6436,
      "▁በቅርቢቱ": 6437,
      "▁ቅጣ": 6438,
      "▁መንገዱን": 6439,
      "▁መስከረም": 6440,
      "▁CO": 6441,
      "▁196": 6442,
      "▁\"አይ": 6443,
      "ወሰዱ": 6444,
      "ኖርበት": 6445,
      "ታችሁን": 6446,
      "▁››": 6447,
      "▁ፎቶግራ": 6448,
      "▁ካሜራ": 6449,
      "▁እናምና": 6450,
      "▁አዘዘ": 6451,
      "▁አቃ": 6452,
      "▁ተዓምር": 6453,
      "▁በጌት": 6454,
      "▁በኤ": 6455,
      "▁ሽማግሌዎች": 6456,
      "ደዱ": 6457,
      "ኮን": 6458,
      "ርጥ": 6459,
      "ልጅነት": 6460,
      "ሉት።": 6461,
      ":28": 6462,
      "-2": 6463,
      "▁ድረ": 6464,
      "▁አውቀ": 6465,
      "▁በጌታቸው": 6466,
      "▁ልጆችም": 6467,
      "▁Pl": 6468,
      "▁\"መ": 6469,
      "ይቅ": 6470,
      "ቸዋለሁ።": 6471,
      "ሳይንስ": 6472,
      "ማጥፋት": 6473,
      "▁ጣሊያን": 6474,
      "▁ያቀርባ": 6475,
      "▁የእግዚአብሔርም": 6476,
      "▁የሚመጣው": 6477,
      "▁የሽ": 6478,
      "▁ወፎች": 6479,
      "▁ከንቱ": 6480,
      "▁አይጨነቁ": 6481,
      "▁አዝማሚያ": 6482,
      "▁አለባቸው.": 6483,
      "▁አጣ": 6484,
      "▁ባንክ": 6485,
      "▁በመቶዎች": 6486,
      "▁መላክ": 6487,
      "▁2011": 6488,
      "▁(ም": 6489,
      "ጠራው": 6490,
      "ሕዝቤ": 6491,
      "ore": 6492,
      "▁ጥቂቶች": 6493,
      "▁የከ": 6494,
      "▁ወላጆቹ": 6495,
      "▁ወኪ": 6496,
      "▁ከፊት": 6497,
      "▁እንግዲህ,": 6498,
      "▁አጋጣሚዎች": 6499,
      "▁በሃ": 6500,
      "▁ስፖርት": 6501,
      "▁ማሳለፍ": 6502,
      "▁2007": 6503,
      "ፍና": 6504,
      "ጠጡ": 6505,
      "ዷል": 6506,
      "ያውያን": 6507,
      "ችለውን": 6508,
      "ተኮር": 6509,
      "ቪድ": 6510,
      "ቋል": 6511,
      "ስበው": 6512,
      "ራሉ።": 6513,
      "ረም": 6514,
      "co": 6515,
      "▁ግለሰብ": 6516,
      "▁ያለንን": 6517,
      "▁ያህል፣": 6518,
      "▁የተወለደው": 6519,
      "▁የይሁዳ": 6520,
      "▁ካን": 6521,
      "▁እንዳለብኝ": 6522,
      "▁ኢሜ": 6523,
      "▁ኖኅ": 6524,
      "▁ተከተ": 6525,
      "▁በሚያሳ": 6526,
      "▁ቁጥሮች": 6527,
      "▁ቀንም": 6528,
      "▁ራእይ": 6529,
      "▁ማውጣት": 6530,
      "▁ሙያ": 6531,
      "▁ሕይወትን": 6532,
      "▁ሕጋዊ": 6533,
      "▁ለአባ": 6534,
      "▁ሁሉ፣": 6535,
      "▁YouT": 6536,
      "▁What": 6537,
      "▁1,": 6538,
      "▁(፪": 6539,
      "▁'በ": 6540,
      "ፖሊስ": 6541,
      "ወርቅ": 6542,
      "ኩት።": 6543,
      "በክ": 6544,
      "ቀጥል": 6545,
      "መስረት": 6546,
      "th": 6547,
      "▁ዶክተር": 6548,
      "▁ይቻላል።": 6549,
      "▁የእምነት": 6550,
      "▁የሰማያትና": 6551,
      "▁ክን": 6552,
      "▁ከመካከ": 6553,
      "▁እንዲኖራቸው": 6554,
      "▁ተአም": 6555,
      "▁በኢንተርኔት": 6556,
      "▁ቀንና": 6557,
      "▁ቀርቦ": 6558,
      "▁መንደር": 6559,
      "▁መሃል": 6560,
      "ፍራት": 6561,
      "ጠሩት": 6562,
      "ዶችን": 6563,
      "ካሄድ": 6564,
      "ኗኗ": 6565,
      "ቻቸውም": 6566,
      "ራሳቸው": 6567,
      "ለክ": 6568,
      "▁ይገለ": 6569,
      "▁የተሰጠው": 6570,
      "▁የሚመጡ": 6571,
      "▁ኢኮኖሚያዊ": 6572,
      "▁ኢንቨስት": 6573,
      "▁አይታ": 6574,
      "▁ኃያል": 6575,
      "▁ቶን": 6576,
      "▁ትላልቅ": 6577,
      "▁ቢሆኑም": 6578,
      "▁በሞ": 6579,
      "▁መድረሻ": 6580,
      "▁ለጌታ": 6581,
      "▁(፪x)": 6582,
      "▁'እኔ": 6583,
      "ጥበብ": 6584,
      "ዴን": 6585,
      "ተግባር": 6586,
      "ሰጡት": 6587,
      "ሰቃ": 6588,
      "OS": 6589,
      "▁ይፈር": 6590,
      "▁ይዛ": 6591,
      "▁ከሐ": 6592,
      "▁አመስጋኝ": 6593,
      "▁ነፋስ": 6594,
      "▁ቻይ": 6595,
      "▁ቤቱን": 6596,
      "▁በጌትነቱ": 6597,
      "▁በመጨረሻይቱ": 6598,
      "▁በሰማ": 6599,
      "▁ሰምተው": 6600,
      "▁ሰላምታ": 6601,
      "▁ለሌላው": 6602,
      "ጣቢያ": 6603,
      "ሆች": 6604,
      "▁ጠር": 6605,
      "▁ይፋ": 6606,
      "▁ይነሳ": 6607,
      "▁ያበ": 6608,
      "▁የተገነባ": 6609,
      "▁የሌለው": 6610,
      "▁አክብሮት": 6611,
      "▁ኀጢአ": 6612,
      "▁ቴክኒ": 6613,
      "▁ተገን": 6614,
      "▁ቢሊዮን": 6615,
      "▁በምንም": 6616,
      "▁ሰይፍ": 6617,
      "▁ሕክምና": 6618,
      "ዋርያው": 6619,
      "ከባቢው": 6620,
      "ታችንም": 6621,
      "ቱት": 6622,
      "ቃብ": 6623,
      "ሸት": 6624,
      "ሳሉ": 6625,
      "ሠሩትን": 6626,
      "▁የማይወ": 6627,
      "▁የላቸውም።": 6628,
      "▁እንግሊዝ": 6629,
      "▁እፈራ": 6630,
      "▁አለው፤": 6631,
      "▁በሚመጣ": 6632,
      "▁በሆነው": 6633,
      "▁ቆሞ": 6634,
      "▁ቅድመ": 6635,
      "▁ስለም": 6636,
      "▁ምዕራብ": 6637,
      "▁ሆኜ": 6638,
      "▁YouTube": 6639,
      "▁37|": 6640,
      "▁\"እስከ": 6641,
      "ጫን": 6642,
      "ወዳደር": 6643,
      "ወለዱ": 6644,
      "ናገረውን": 6645,
      "ለወጠ": 6646,
      "▁ጣፋ": 6647,
      "▁ይልቅ,": 6648,
      "▁ያደረ": 6649,
      "▁የሚያደርገው": 6650,
      "▁የወን": 6651,
      "▁አለን።": 6652,
      "▁ነበር!": 6653,
      "▁ተቀመጠ": 6654,
      "▁በሰባ": 6655,
      "▁በሥ": 6656,
      "▁ምድሪ": 6657,
      "▁ማሽን": 6658,
      "▁መልእክተኛ": 6659,
      "▁መላውን": 6660,
      "▁ለቤተ": 6661,
      "▁ለቅ": 6662,
      "ጀመረው": 6663,
      "ዳችሁ": 6664,
      "የውም": 6665,
      "ን)": 6666,
      "ተረ": 6667,
      "ተም": 6668,
      "ስተዋ": 6669,
      "ሪዎችን": 6670,
      "ለመደው": 6671,
      "▁ፈቀቅ": 6672,
      "▁ግን፣": 6673,
      "▁ግዴታ": 6674,
      "▁ይገኛሉ": 6675,
      "▁ያዩ": 6676,
      "▁ክርክር": 6677,
      "▁እያንዳንዳችን": 6678,
      "▁እነግራ": 6679,
      "▁አባቶቻችሁ": 6680,
      "▁ነሽ": 6681,
      "▁ምድርም": 6682,
      "▁መጽሐ": 6683,
      "▁መገለ": 6684,
      "▁ልጆቻችሁ": 6685,
      "ደሩ": 6686,
      "ይስ": 6687,
      "ቻችንን": 6688,
      "ብዛ": 6689,
      "ሊን": 6690,
      "▁ገለል": 6691,
      "▁የሚወስ": 6692,
      "▁ዓይነ": 6693,
      "▁ውስን": 6694,
      "▁ከአባ": 6695,
      "▁አንዱ": 6696,
      "▁ትእዛዛት": 6697,
      "▁በምድረ": 6698,
      "▁ለንደን": 6699,
      "ጎበ": 6700,
      "ክተ": 6701,
      "ናው": 6702,
      "ነጋገሩ": 6703,
      "ብራሂ": 6704,
      "ሰጠን": 6705,
      "መከላከል": 6706,
      "መሩ።": 6707,
      ":32": 6708,
      "▁ፍትሕ": 6709,
      "▁ጥበብን": 6710,
      "▁ጀርባ": 6711,
      "▁ዳይ": 6712,
      "▁ዳኛ": 6713,
      "▁ያደረገውን": 6714,
      "▁የሚገባው": 6715,
      "▁የሚሆነውን": 6716,
      "▁የሚቻል": 6717,
      "▁የሚመስ": 6718,
      "▁እንደሚፈልጉ": 6719,
      "▁እነዚያንም": 6720,
      "▁ኢየሩሳሌም": 6721,
      "▁አድርገን": 6722,
      "▁አይተው": 6723,
      "▁አስፈሪ": 6724,
      "▁አለች።": 6725,
      "▁ባረ": 6726,
      "▁በልጅ": 6727,
      "▁ምንጊዜም": 6728,
      "▁ምስሎች": 6729,
      "▁ማብራ": 6730,
      "▁መወሰን": 6731,
      "ፋችሁ": 6732,
      "ፋስ": 6733,
      "ጫወቻ": 6734,
      "ካቸው": 6735,
      "ከናወነ": 6736,
      "አገር": 6737,
      "ራል.": 6738,
      "ምርት": 6739,
      "▁ግንብ": 6740,
      "▁ያምናሉ": 6741,
      "▁ያህል,": 6742,
      "▁ከሌላው": 6743,
      "▁እንጂ።": 6744,
      "▁እራሴን": 6745,
      "▁እጁን": 6746,
      "▁አጋር": 6747,
      "▁አንተና": 6748,
      "▁በእጅህ": 6749,
      "▁በተቃራኒው": 6750,
      "▁በቤቱ": 6751,
      "▁በሮች": 6752,
      "▁ስጋ": 6753,
      "▁ማስወገድ": 6754,
      "▁መጨነቅ": 6755,
      "▁Whats": 6756,
      "ጠኞች": 6757,
      "ግባባት": 6758,
      "ዓቱ": 6759,
      "ውያንም": 6760,
      "ዋል፤": 6761,
      "ቡም": 6762,
      "በኞች": 6763,
      "ቃጠል": 6764,
      "ሙከራ": 6765,
      "▁ጥርጣሬ": 6766,
      "▁ጠርቶ": 6767,
      "▁ጌታም": 6768,
      "▁ያስደ": 6769,
      "▁ከዓ": 6770,
      "▁እጃ": 6771,
      "▁አድናቂ": 6772,
      "▁አውቶቡ": 6773,
      "▁አውራ": 6774,
      "▁አልጋ": 6775,
      "▁ናቸው!": 6776,
      "▁ታዛ": 6777,
      "▁በእንግሊዝኛ": 6778,
      "▁በርሳችሁ": 6779,
      "▁በሚያሳዝን": 6780,
      "▁ማበረታቻ": 6781,
      "▁ሙቀት": 6782,
      "▁መገንዘብ": 6783,
      "▁(መ": 6784,
      "ዋጋት": 6785,
      "እውነተኛ": 6786,
      "ኝ\"": 6787,
      "ንቀጾ": 6788,
      "ስፈራ": 6789,
      "ሰረ": 6790,
      "ሮም": 6791,
      "ራቅ": 6792,
      "ebook": 6793,
      "▁ዮና": 6794,
      "▁የሌላ": 6795,
      "▁እጆ": 6796,
      "▁አንዳች": 6797,
      "▁አትፍሩ": 6798,
      "▁አርባ": 6799,
      "▁ተግባራት": 6800,
      "▁ቪዲዮዎችን": 6801,
      "▁በኮ": 6802,
      "▁ቀዝቃዛ": 6803,
      "▁ሳይንሳዊ": 6804,
      "▁መፅሐ": 6805,
      "▁ለዚያም": 6806,
      "ፈቅድ": 6807,
      "ገቢ": 6808,
      "ደኞች": 6809,
      "ደሉ": 6810,
      "ያዋን": 6811,
      "ባበር": 6812,
      "ሻውን": 6813,
      "ራቸውም": 6814,
      "መንፈሳዊ": 6815,
      "መች": 6816,
      "▁ፕሬዝ": 6817,
      "▁ድንኳን": 6818,
      "▁ዓይነቱን": 6819,
      "▁ውሰድ": 6820,
      "▁አለው፦": 6821,
      "▁ነበርን": 6822,
      "▁በገበያው": 6823,
      "▁በእንደዚህ": 6824,
      "▁በማኅበራዊ": 6825,
      "▁በላጭ": 6826,
      "▁ስሙን": 6827,
      "▁ሲቀ": 6828,
      "▁መጠጊያ": 6829,
      "▁መድሃኒት": 6830,
      "▁ሐዋርያት": 6831,
      "▁ሆቴል": 6832,
      "▁ሃሳብ": 6833,
      "ያውቁት": 6834,
      "ከኝ": 6835,
      "ቴክኒ": 6836,
      "በዝ": 6837,
      "ሉትም": 6838,
      "▁ጀመሩ።": 6839,
      "▁ይባላል": 6840,
      "▁ያንብቡ": 6841,
      "▁ያለምንም": 6842,
      "▁የለንም": 6843,
      "▁ከባለ": 6844,
      "▁እጠብቃ": 6845,
      "▁አስፈራሪ": 6846,
      "▁ነበረች።": 6847,
      "▁ትዊተር": 6848,
      "▁ተወስ": 6849,
      "▁ቅዳሜ": 6850,
      "▁መንግሥታት": 6851,
      "▁መልዕክት": 6852,
      "▁ለሆኑ": 6853,
      "▁ሄደ።": 6854,
      "▁ሁን": 6855,
      "ፈልግም።": 6856,
      "ዶችም": 6857,
      "ድጉ": 6858,
      "ከናወኑ": 6859,
      "በተ": 6860,
      "ረኞች": 6861,
      "መሰክር": 6862,
      "ሁፍ": 6863,
      "acebook": 6864,
      "_5": 6865,
      "▁ጓደኞቼ": 6866,
      "▁ይጥ": 6867,
      "▁ያደርገዋል": 6868,
      "▁የጸ": 6869,
      "▁ዘይ": 6870,
      "▁እያደረጉ": 6871,
      "▁ኢትዮጵያ": 6872,
      "▁አፈር": 6873,
      "▁ቴሌቪዥን": 6874,
      "▁በመልካም": 6875,
      "▁ለመጠየቅ": 6876,
      "ገነዘባ": 6877,
      "ያቸውን": 6878,
      "ዖንና": 6879,
      "ከተማይ": 6880,
      "ንስሳት": 6881,
      "ስልክ": 6882,
      "ne": 6883,
      "▁ጽዋ": 6884,
      "▁ጉብኝት": 6885,
      "▁ደሴት": 6886,
      "▁ይፈልጋሉ።": 6887,
      "▁የሚበልጥ": 6888,
      "▁የፊ": 6889,
      "▁የሰራ": 6890,
      "▁ኮሪያ": 6891,
      "▁ከዋክብት": 6892,
      "▁ከክ": 6893,
      "▁እያደረገ": 6894,
      "▁ንጉስ": 6895,
      "▁ትችላለህ።": 6896,
      "▁ታሪካዊ": 6897,
      "▁ተሰብስ": 6898,
      "▁ብሔር": 6899,
      "▁በውኑ": 6900,
      "▁በች": 6901,
      "▁መለስ": 6902,
      "▁ሆኗል.": 6903,
      "▁(ሙሳ": 6904,
      "ጠራችሁ": 6905,
      "ድግ": 6906,
      "ለዳ": 6907,
      "7)": 6908,
      "....": 6909,
      "▁ፀሐ": 6910,
      "▁ጥረ": 6911,
      "▁ግማ": 6912,
      "▁ጊዜ።": 6913,
      "▁ደግሞ,": 6914,
      "▁ይጠብቁ": 6915,
      "▁ይሁን።": 6916,
      "▁ይደ": 6917,
      "▁ይለያ": 6918,
      "▁ያመኑትን": 6919,
      "▁የምፈልገው": 6920,
      "▁የሚባል": 6921,
      "▁የጠ": 6922,
      "▁ዐይ": 6923,
      "▁ከነዚህ": 6924,
      "▁ከረጅም": 6925,
      "▁አባባል": 6926,
      "▁አረጋግ": 6927,
      "▁ንጥረ": 6928,
      "▁መሰረታዊ": 6929,
      "▁ሆነን": 6930,
      "▁for": 6931,
      "ጨስ": 6932,
      "ዘጋጃ": 6933,
      "ዉን": 6934,
      "ኾነው": 6935,
      "ኩስ": 6936,
      "እድ": 6937,
      "ስማ": 6938,
      "ሳቁ": 6939,
      "ሪታ": 6940,
      "መቻ": 6941,
      "App": 6942,
      "▁ድንበር": 6943,
      "▁ይሰጥ": 6944,
      "▁ያገኙ": 6945,
      "▁የሚያምኑ": 6946,
      "▁የዕ": 6947,
      "▁ወይ?": 6948,
      "▁ኾናችሁ": 6949,
      "▁ካም": 6950,
      "▁አስተናጋ": 6951,
      "▁በሕይወቴ": 6952,
      "▁ሞገስ": 6953,
      "▁ማንንም": 6954,
      "▁መልክተኞች": 6955,
      "▁43": 6956,
      "ዩክሬን": 6957,
      "ሞክር": 6958,
      "ሙም": 6959,
      "ለመደ": 6960,
      "|4": 6961,
      "▁ጣፋጭ": 6962,
      "▁ይኖራሉ": 6963,
      "▁ይምረ": 6964,
      "▁ይለኛ": 6965,
      "▁የእሱን": 6966,
      "▁ዘውታ": 6967,
      "▁እምቢ": 6968,
      "▁እመኑ": 6969,
      "▁አፈፃፀ": 6970,
      "▁አብረ": 6971,
      "▁ንብረ": 6972,
      "▁ታውቃላችሁ።": 6973,
      "▁ተረድ": 6974,
      "▁በይነመረብ": 6975,
      "▁በቦ": 6976,
      "▁ሰዎች,": 6977,
      "▁ምል": 6978,
      "▁ሜዳ": 6979,
      "▁መተማመን": 6980,
      "▁WhatsApp": 6981,
      "▁'ከ": 6982,
      "ዕውቀት": 6983,
      "ዎትን": 6984,
      "ሪን": 6985,
      "ሪል": 6986,
      "ረዳን": 6987,
      "መኪና": 6988,
      "መረጃ": 6989,
      "ላጭ": 6990,
      "▁ይሄዳሉ": 6991,
      "▁የዳዊት": 6992,
      "▁የያዕቆብ": 6993,
      "▁ከእግዚአብሄር": 6994,
      "▁ከክፉ": 6995,
      "▁እመጣ": 6996,
      "▁አቋም": 6997,
      "▁አሞ": 6998,
      "▁ትግል": 6999,
      "▁ተለው": 7000,
      "▁ብሎግ": 7001,
      "▁በተሳካ": 7002,
      "▁በዋ": 7003,
      "▁ምነው": 7004,
      "▁ማዳመጥ": 7005,
      "▁ማሻሻ": 7006,
      "▁መጠጥ": 7007,
      "▁መላእክትን": 7008,
      "▁ሐዋርያው": 7009,
      "▁Facebook": 7010,
      "▁2000": 7011,
      "▁\"ዛሬ": 7012,
      "ጠዋል": 7013,
      "ግንባታ": 7014,
      "አብዛኛዎቹ": 7015,
      "ኋችሁ": 7016,
      "ሶን": 7017,
      "ምርምር": 7018,
      "መንት": 7019,
      "ላቸዋል።": 7020,
      "ለኞች": 7021,
      "ሆናችሁ": 7022,
      "▁ይመለከ": 7023,
      "▁የበይነመረብ": 7024,
      "▁የራቀ": 7025,
      "▁የሚሰጠው": 7026,
      "▁የወንድ": 7027,
      "▁ውሂብ": 7028,
      "▁ወይን": 7029,
      "▁አልበ": 7030,
      "▁አለብዎት።": 7031,
      "▁ብሏል፦": 7032,
      "▁በየዕለቱ": 7033,
      "▁ማከናወን": 7034,
      "▁ማሸነፍ": 7035,
      "▁መኾናቸውን": 7036,
      "▁ልጅም": 7037,
      "▁ሊያደርግ": 7038,
      "ጽናፈ": 7039,
      "ገነዘብ": 7040,
      "ያያዙ": 7041,
      "ያችን": 7042,
      "የውን": 7043,
      "ዞን": 7044,
      "ክቶ": 7045,
      "በቁ": 7046,
      "ቆያ": 7047,
      "ቅን": 7048,
      "ሷል": 7049,
      "ርዳታ": 7050,
      "ርሳ": 7051,
      "ማንም": 7052,
      "ለታል።": 7053,
      "▁ጥላ": 7054,
      "▁ጊዜ.": 7055,
      "▁የእንግሊዝኛ": 7056,
      "▁የትዳር": 7057,
      "▁የሚገር": 7058,
      "▁የሚወዱ": 7059,
      "▁የሚሰራ": 7060,
      "▁የሰጠው": 7061,
      "▁ኮድ": 7062,
      "▁ካለዎት": 7063,
      "▁እራት": 7064,
      "▁ትንቢ": 7065,
      "▁ታው": 7066,
      "▁በውስጣቸው": 7067,
      "▁በትዊተር": 7068,
      "▁በዛ": 7069,
      "▁በቤተሰብ": 7070,
      "▁ሰጣቸው": 7071,
      "▁ሞዴሎች": 7072,
      "▁መሻሻል": 7073,
      "▁ላክን": 7074,
      "▁(ኤ": 7075,
      "ጻጸ": 7076,
      "ጡ፤": 7077,
      "ዘረ": 7078,
      "ካችሁ": 7079,
      "ናቸው።": 7080,
      "ታገ": 7081,
      "ቲክ": 7082,
      "ቃቂ": 7083,
      "ሳተፉ": 7084,
      "ልኮ": 7085,
      "ልታ": 7086,
      "▁ፍራ": 7087,
      "▁ጸጥ": 7088,
      "▁ግኝ": 7089,
      "▁ይታወ": 7090,
      "▁ይኑ": 7091,
      "▁የሚገቡ": 7092,
      "▁ከመጽሐፉ": 7093,
      "▁ከደ": 7094,
      "▁ከኔ": 7095,
      "▁እንደኾነ": 7096,
      "▁እራሳችንን": 7097,
      "▁አይቻልም": 7098,
      "▁አናት": 7099,
      "▁ነበርና።": 7100,
      "▁ተቃራኒ": 7101,
      "▁ተመለስ": 7102,
      "▁በየሳምንቱ": 7103,
      "▁በይሁዳ": 7104,
      "▁ማራ": 7105,
      "▁ሄዶ": 7106,
      "▁(ሉ": 7107,
      "ጠቀሰው": 7108,
      "ጓዴ": 7109,
      "ዴራል": 7110,
      "አውስትራሊያ": 7111,
      "ንቀሳቃ": 7112,
      "ኑት።": 7113,
      "ትውልድ": 7114,
      "ተኛት": 7115,
      "ቂኝ": 7116,
      "ረንጓዴ": 7117,
      "ማችሁ": 7118,
      "▁ይደግ": 7119,
      "▁ያስች": 7120,
      "▁የግብይት": 7121,
      "▁የካዱ": 7122,
      "▁የመሆን": 7123,
      "▁አንጻር": 7124,
      "▁አብረው": 7125,
      "▁አባትህ": 7126,
      "▁አስከት": 7127,
      "▁አደረገው": 7128,
      "▁አቁ": 7129,
      "▁ንጹህ": 7130,
      "▁ነበረኝ": 7131,
      "▁ትርፍ": 7132,
      "▁ተናጋሪ": 7133,
      "▁በጽድቅ": 7134,
      "▁በእውነት,": 7135,
      "▁ሽልማ": 7136,
      "▁ስጋት": 7137,
      "▁ራዕይ": 7138,
      "▁ሥራቸውን": 7139,
      "▁መገመት": 7140,
      "▁መነጋገር": 7141,
      "▁23|": 7142,
      "▁(ራ": 7143,
      "ጣችሁ": 7144,
      "ዓዊ": 7145,
      "ካች": 7146,
      "ኘው": 7147,
      "ሳቢ": 7148,
      "መቆጣጠር": 7149,
      "▁ጌታህ": 7150,
      "▁ይግባ": 7151,
      "▁የሃ": 7152,
      "▁እኩ": 7153,
      "▁አያምኑም።": 7154,
      "▁አልነበሩ": 7155,
      "▁አለቆች": 7156,
      "▁ነበራቸው": 7157,
      "▁ታየ": 7158,
      "▁ተጋብ": 7159,
      "▁ተቋም": 7160,
      "▁በተመሳሳይ": 7161,
      "▁ሸሽ": 7162,
      "▁ሳይንቲ": 7163,
      "▁ራስህ": 7164,
      "▁ምድረ": 7165,
      "▁ምና": 7166,
      "▁39": 7167,
      "▁\"።": 7168,
      "ጸኞች": 7169,
      "ይዙ": 7170,
      "ዋውያን": 7171,
      "ካሪዎች": 7172,
      "ኞቻችንን": 7173,
      "ንባ": 7174,
      "በህ": 7175,
      "ሳትን": 7176,
      "ሪውን": 7177,
      "ሠራው": 7178,
      "መክፈት": 7179,
      "ሉ)": 7180,
      "ሁም": 7181,
      "8)": 7182,
      "▁ፖሊስ": 7183,
      "▁ጣልቃ": 7184,
      "▁የሞተ": 7185,
      "▁ከዘ": 7186,
      "▁ከሙታን": 7187,
      "▁ንገረ": 7188,
      "▁ነህ፤": 7189,
      "▁ትው": 7190,
      "▁በመሠ": 7191,
      "▁በግራ": 7192,
      "▁መልሱ": 7193,
      "▁መመለ": 7194,
      "▁\"ተ": 7195,
      "▁\"ብ": 7196,
      "ፋር": 7197,
      "ጴዛ": 7198,
      "ገራችን": 7199,
      "ወላጆቹ": 7200,
      "ከባድ": 7201,
      "ነታቸው": 7202,
      "ተኛውም": 7203,
      "▁ጥበበኛ": 7204,
      "▁ድንገት": 7205,
      "▁ይጋ": 7206,
      "▁ያስፈልገናል": 7207,
      "▁የተወረደው": 7208,
      "▁የተወ": 7209,
      "▁የማይችል": 7210,
      "▁የያዘ": 7211,
      "▁እየቀ": 7212,
      "▁አስታውሳ": 7213,
      "▁አላቸው፤": 7214,
      "▁ንግሥና": 7215,
      "▁ተፅእኖ": 7216,
      "▁በአሕዛብ": 7217,
      "▁በድር": 7218,
      "▁በምድርም": 7219,
      "▁ሩሲያ": 7220,
      "▁ማስተማር": 7221,
      "▁ሙሽ": 7222,
      "▁ሐሳ": 7223,
      "▁2010": 7224,
      "ክሮ": 7225,
      "ከበሩ": 7226,
      "ነቃ": 7227,
      "ብረተሰብ": 7228,
      "ባቢያዊ": 7229,
      "ሰዱ": 7230,
      "መቋቋም": 7231,
      "ov": 7232,
      "▁ፈጠረ": 7233,
      "▁ይነግረ": 7234,
      "▁ያምናሉ።": 7235,
      "▁ያደረጉ": 7236,
      "▁ያረ": 7237,
      "▁የሚገኘው": 7238,
      "▁የባለ": 7239,
      "▁እንዲያደርጉ": 7240,
      "▁እጄ": 7241,
      "▁አማኝ": 7242,
      "▁አሏቸው።": 7243,
      "▁አሉኝ": 7244,
      "▁ብሔ": 7245,
      "▁ባህላዊ": 7246,
      "▁ባዩ": 7247,
      "▁በሰሙ": 7248,
      "▁በኃ": 7249,
      "▁ሕፃን": 7250,
      "▁ልባ": 7251,
      "▁ሊከሰት": 7252,
      "▁41": 7253,
      "ዝገባ": 7254,
      "ዕም": 7255,
      "ከለከ": 7256,
      "ኖችን": 7257,
      "ት)": 7258,
      "ራጭ": 7259,
      "ረንሣ": 7260,
      "መካከለኛ": 7261,
      "ሕንድ": 7262,
      "ለን፣": 7263,
      "ሁላችንም": 7264,
      "ma": 7265,
      ";,": 7266,
      "▁ፍጥረታት": 7267,
      "▁ገነቶች": 7268,
      "▁ደንብ": 7269,
      "▁የወደፊቱ": 7270,
      "▁የተደ": 7271,
      "▁ከእንቅ": 7272,
      "▁እንደምና": 7273,
      "▁አሉ፤": 7274,
      "▁ትበላ": 7275,
      "▁ተሰጥቶ": 7276,
      "▁ተይ": 7277,
      "▁በፍርድ": 7278,
      "▁ቋሚ": 7279,
      "▁ስጦታዎች": 7280,
      "▁ስና": 7281,
      "▁ሲናገር": 7282,
      "▁ሰማያ": 7283,
      "▁መጣ።": 7284,
      "▁መጠጣት": 7285,
      "▁መሞት": 7286,
      "▁ለማግኘት": 7287,
      "▁(1)": 7288,
      "ፓር": 7289,
      "ፈሩት": 7290,
      "ዲሱ": 7291,
      "ዱ፤": 7292,
      "ያም": 7293,
      "ታላ": 7294,
      "ቀሳ": 7295,
      "ሽነት": 7296,
      "ልድ": 7297,
      "ሃዊ": 7298,
      "▁ጥሩው": 7299,
      "▁ይኸውም": 7300,
      "▁ይወሰ": 7301,
      "▁ያጣ": 7302,
      "▁የአላህን": 7303,
      "▁የበለ": 7304,
      "▁ኪንግደም": 7305,
      "▁እንመለከታ": 7306,
      "▁እኔንም": 7307,
      "▁አድና": 7308,
      "▁አይቻል": 7309,
      "▁ተዋጊ": 7310,
      "▁ተቀምጦ": 7311,
      "▁በረከ": 7312,
      "▁በነፍ": 7313,
      "▁ቅሬታ": 7314,
      "▁ራሳችንን": 7315,
      "▁ረዥም": 7316,
      "▁ማክበር": 7317,
      "▁ማዳን": 7318,
      "▁ማንን": 7319,
      "▁ሙሳንም": 7320,
      "▁መነሻ": 7321,
      "▁መደረግ": 7322,
      "▁ሌላን": 7323,
      "▁ለመው": 7324,
      "▁ለመብላት": 7325,
      "▁ለደ": 7326,
      "▁ለቤተሰ": 7327,
      "▁ሁላችን": 7328,
      "▁2006": 7329,
      "▁(ወደ": 7330,
      "ጢር": 7331,
      "ግባት": 7332,
      "ገናል።": 7333,
      "ዱሳን": 7334,
      "ደደ": 7335,
      "ደሪያ": 7336,
      "ዓምራ": 7337,
      "ኳቸው": 7338,
      "ካሄደ": 7339,
      "ከብር": 7340,
      "አለሁ": 7341,
      "ነጋገራ": 7342,
      "ችኋለሁ።": 7343,
      "ረንሣይ": 7344,
      "ሙቀት": 7345,
      "ህሳስ": 7346,
      "▁ፍቅርን": 7347,
      "▁ጠይቅ": 7348,
      "▁ድረስ.": 7349,
      "▁ዮርዳ": 7350,
      "▁ይገኛል።": 7351,
      "▁የታመነ": 7352,
      "▁የሚደረግ": 7353,
      "▁የሉ": 7354,
      "▁ዝግጅ": 7355,
      "▁ዜጋ": 7356,
      "▁ከጎ": 7357,
      "▁ከገ": 7358,
      "▁እንሰጣ": 7359,
      "▁እርስዋ": 7360,
      "▁ነፍሴ": 7361,
      "▁በተጨማሪም,": 7362,
      "▁በሕይወቱ": 7363,
      "▁ቅርንጫ": 7364,
      "▁ሳም": 7365,
      "▁ሙታን": 7366,
      "▁ልባቸው": 7367,
      "▁ለአምላክ": 7368,
      "▁ሆይ,": 7369,
      "▁(ማቴዎስ": 7370,
      "▁\"አምላክ": 7371,
      "ፍትን": 7372,
      "ገድሉ": 7373,
      "ቶች.": 7374,
      "ትል": 7375,
      "ታሪክ": 7376,
      "ማቋረጥ": 7377,
      "ሏል.": 7378,
      "ሌክ": 7379,
      "ሉ፥": 7380,
      "|10|": 7381,
      "5%": 7382,
      "\"በ": 7383,
      "▁ጠቢብ": 7384,
      "▁ጌታህም": 7385,
      "▁ጊዜውን": 7386,
      "▁ይመልከቱ.": 7387,
      "▁የጽድቅ": 7388,
      "▁የሚሹ": 7389,
      "▁የሚሰሩ": 7390,
      "▁ኾኖ": 7391,
      "▁ተገለጠ": 7392,
      "▁ቤትህ": 7393,
      "▁በአካ": 7394,
      "▁በልጁ": 7395,
      "▁በጸ": 7396,
      "▁ቀውስ": 7397,
      "▁ሶስተኛ": 7398,
      "▁ስለሆኑ": 7399,
      "▁ማገልገል": 7400,
      "▁ማድረ": 7401,
      "▁ልጆቹን": 7402,
      "፤+": 7403,
      "ፋኑ": 7404,
      "ጥቅም": 7405,
      "ዶም": 7406,
      "ቱርክ": 7407,
      "ቃድ": 7408,
      "መውጣት": 7409,
      "ላችሁ\"": 7410,
      "ሆንኩ": 7411,
      "▁ፀጉር": 7412,
      "▁ጽኑ": 7413,
      "▁ግብዣ": 7414,
      "▁ያደርግ": 7415,
      "▁ወስዶ": 7416,
      "▁ከሩቅ": 7417,
      "▁እህል": 7418,
      "▁አይፈልጉ": 7419,
      "▁አልቻልኩም": 7420,
      "▁ኃጢአተኛ": 7421,
      "▁በነበ": 7422,
      "▁በኃጢአት": 7423,
      "▁ሳት": 7424,
      "▁ሰፈር": 7425,
      "▁ምንኛ": 7426,
      "▁ማዘጋጀት": 7427,
      "▁ለይ": 7428,
      "▁ሆናችሁ": 7429,
      "▁Mac": 7430,
      "ጭሩ": 7431,
      "ጣራ": 7432,
      "ግባብ": 7433,
      "ዎቼ": 7434,
      "ወርድ": 7435,
      "ንቀሳቀስ": 7436,
      "ተኞቹም": 7437,
      "ቢዩ": 7438,
      "ራቸው።": 7439,
      "ረትን": 7440,
      "መነዳ": 7441,
      "200": 7442,
      "▁ደንበኛ": 7443,
      "▁ይሠሩት": 7444,
      "▁የሚጠቀሙ": 7445,
      "▁የሚሉ": 7446,
      "▁ዘግይ": 7447,
      "▁ወለደ": 7448,
      "▁ካህና": 7449,
      "▁ከቤተ": 7450,
      "▁እነማን": 7451,
      "▁አንዷ": 7452,
      "▁አስቡ": 7453,
      "▁ተደርጓል.": 7454,
      "▁ተዘግ": 7455,
      "▁ተናገ": 7456,
      "▁በአእምሮ": 7457,
      "▁በመከራ": 7458,
      "▁በሙሴ": 7459,
      "▁ቀስ": 7460,
      "▁ሚኒስትር": 7461,
      "▁ሊመጣ": 7462,
      "▁Re": 7463,
      "▁Play": 7464,
      "▁(እንደ": 7465,
      "▁'እ": 7466,
      "ጽሑፍ": 7467,
      "ግደ": 7468,
      "ዳዩ": 7469,
      "ዕክቶች": 7470,
      "ዑል": 7471,
      "ንቶ": 7472,
      "በላው": 7473,
      "ስኤ": 7474,
      "ሰህ": 7475,
      "ርቱ": 7476,
      "ሃብ": 7477,
      "ack": 7478,
      "▁ጥቅምት": 7479,
      "▁ጀመረ።": 7480,
      "▁የመረ": 7481,
      "▁ዕድሜያቸው": 7482,
      "▁እንደዚሁም": 7483,
      "▁እንሄዳ": 7484,
      "▁አይቻለሁ": 7485,
      "▁ታምና": 7486,
      "▁ተዛ": 7487,
      "▁በቃሉ": 7488,
      "▁ስለዚህ": 7489,
      "▁ማለቴ": 7490,
      "▁መጽሔት": 7491,
      "▁መጨረሻው": 7492,
      "▁መውደድ": 7493,
      "▁\"አላህ": 7494,
      "ፈርድ": 7495,
      "ጣቸው።": 7496,
      "ደረጃ": 7497,
      "ዋወቅ": 7498,
      "ታችሁም": 7499,
      "ሻለሁ": 7500,
      "መዋጋት": 7501,
      "ለ።": 7502,
      "\"የ": 7503,
      "▁ግማሹ": 7504,
      "▁ደረሰ": 7505,
      "▁ይጠይቁ": 7506,
      "▁ይመጣል።": 7507,
      "▁የአባት": 7508,
      "▁ከመስ": 7509,
      "▁እንረዳ": 7510,
      "▁አልፈጠር": 7511,
      "▁አላደረገ": 7512,
      "▁ነው'": 7513,
      "▁ነበረብኝ": 7514,
      "▁ታም": 7515,
      "▁በጎች": 7516,
      "▁ምግቦች": 7517,
      "▁ምህረት": 7518,
      "▁ማዕከላዊ": 7519,
      "▁መጨመር": 7520,
      "▁ሊኖሩ": 7521,
      "ያዎች": 7522,
      "ዎትም.": 7523,
      "ወደድ": 7524,
      "ሪታንያ": 7525,
      "ማዊ": 7526,
      "መልከቻ": 7527,
      "ልና": 7528,
      "ህክምና": 7529,
      "▁ፈለግ": 7530,
      "▁ጻድቃን": 7531,
      "▁ግዜ": 7532,
      "▁ገዢ": 7533,
      "▁ያደርጋሉ": 7534,
      "▁ያዝ": 7535,
      "▁ያተኮ": 7536,
      "▁የተባ": 7537,
      "▁ወንድሙን": 7538,
      "▁እንጠብቃ": 7539,
      "▁አይችሉም.": 7540,
      "▁አያደርግ": 7541,
      "▁አትበ": 7542,
      "▁ተአምራት": 7543,
      "▁ተመልከት።": 7544,
      "▁ብርታት": 7545,
      "▁በእግዚአብሔር": 7546,
      "▁በይሖዋ": 7547,
      "▁ቅርጸ": 7548,
      "▁ቀን,": 7549,
      "▁ቀረ": 7550,
      "▁ሸለቆ": 7551,
      "▁ሰውየው": 7552,
      "▁ሰን": 7553,
      "▁መርከብ": 7554,
      "▁ለምንድ": 7555,
      "▁ለልጆች": 7556,
      "▁ህጻ": 7557,
      "▁(ያ": 7558,
      "ጻፈው": 7559,
      "ጥብቅ": 7560,
      "ደርጋቸው": 7561,
      "ዝነት": 7562,
      "እኛም": 7563,
      "ንም፣": 7564,
      "ቤቴ": 7565,
      "ቋንቋ": 7566,
      "ቅል": 7567,
      "ሰባችን": 7568,
      "ማስተማር": 7569,
      "ሙርት": 7570,
      "-19": 7571,
      "▁ጊዜ፥": 7572,
      "▁ይገባል.": 7573,
      "▁ያመለክ": 7574,
      "▁የሚጠጉ": 7575,
      "▁የሚያሳይ": 7576,
      "▁እቅ": 7577,
      "▁አድርገህ": 7578,
      "▁አደርጋለሁ።": 7579,
      "▁አይሁ": 7580,
      "▁አዛኝ": 7581,
      "▁አስቂኝ": 7582,
      "▁አመራር": 7583,
      "▁ነፍሶ": 7584,
      "▁ነገርን": 7585,
      "▁ታቦት": 7586,
      "▁ስለነበረ": 7587,
      "▁ሰላማ": 7588,
      "▁ማሻሻል": 7589,
      "▁መለየት": 7590,
      "ጣኝ": 7591,
      "ጠየቁ": 7592,
      "የኝ\"": 7593,
      "ኮችን": 7594,
      "ኛውን": 7595,
      "ሩ.": 7596,
      "ማካይ": 7597,
      "መዳን": 7598,
      "ሕያው": 7599,
      "ሁም።": 7600,
      "ut": 7601,
      "ra": 7602,
      ":27": 7603,
      "▁ጅምር": 7604,
      "▁ይነሣ": 7605,
      "▁ያገኛሉ.": 7606,
      "▁ያሳድ": 7607,
      "▁ዕዳ": 7608,
      "▁ኮሌጅ": 7609,
      "▁ከታች": 7610,
      "▁እሞክራ": 7611,
      "▁አትክል": 7612,
      "▁አታውቅም": 7613,
      "▁አልገባ": 7614,
      "▁ነዋሪ": 7615,
      "▁ኃላፊ": 7616,
      "▁ትቶ": 7617,
      "▁ባሻገር": 7618,
      "▁በኒው": 7619,
      "▁ቆመው": 7620,
      "▁ቁሳቁ": 7621,
      "▁ሳል": 7622,
      "▁ሰዎቹ": 7623,
      "▁ለራሴ": 7624,
      "▁App": 7625,
      "▁\"ይህን": 7626,
      "ጥንት": 7627,
      "ጀምሩ": 7628,
      "ደባ": 7629,
      "ወስዳ": 7630,
      "እስር": 7631,
      "ነጋገ": 7632,
      "ቶሊክ": 7633,
      "ቱ።": 7634,
      "መለየት": 7635,
      "ሌዳ": 7636,
      "ላስ": 7637,
      "ሊፍ": 7638,
      "ሊና": 7639,
      "▁ገጽታዎች": 7640,
      "▁ገበ": 7641,
      "▁የሚሄድ": 7642,
      "▁እወድ": 7643,
      "▁አድርጓል": 7644,
      "▁አይሰጥ": 7645,
      "▁አልተገኘ": 7646,
      "▁አለችው።": 7647,
      "▁ትዳር": 7648,
      "▁ቱሪዝም": 7649,
      "▁ተኩል": 7650,
      "▁በከንቱ": 7651,
      "▁በባሕር": 7652,
      "▁ሸሹ": 7653,
      "▁ሰኞ": 7654,
      "▁ሥርዓ": 7655,
      "▁ማያ": 7656,
      "▁ሙስሊም": 7657,
      "▁መከታተል": 7658,
      "▁ሊኖራቸው": 7659,
      "▁and": 7660,
      "ደንቅ": 7661,
      "አልና።": 7662,
      "ባቸዋል": 7663,
      "ሶቹ": 7664,
      "ስታንቡል": 7665,
      "ሯል.": 7666,
      "ርምያስ": 7667,
      "መስከረም": 7668,
      "መላክ": 7669,
      "ልደት": 7670,
      "VI": 7671,
      "▁ይፈራ": 7672,
      "▁ያልተለመደ": 7673,
      "▁ዘላለማዊ": 7674,
      "▁ወንድማማ": 7675,
      "▁እንደሆንክ": 7676,
      "▁እርካታ": 7677,
      "▁ኢያሱ": 7678,
      "▁አይሰራ": 7679,
      "▁አያምኑም": 7680,
      "▁አስተው": 7681,
      "▁አወ": 7682,
      "▁ነዉ።": 7683,
      "▁ብቻዬን": 7684,
      "▁ቤቴ": 7685,
      "▁በእሷ": 7686,
      "▁በቀኝ": 7687,
      "▁በኩ": 7688,
      "▁ስለነበር": 7689,
      "▁ስቃይ": 7690,
      "▁መጋቢት": 7691,
      "▁መልሰው": 7692,
      "▁ላለፉት": 7693,
      "▁iOS": 7694,
      "ፁህ": 7695,
      "ዋሪ": 7696,
      "ዋለን።": 7697,
      "ስጥኤ": 7698,
      "ርፍ": 7699,
      "5_": 7700,
      "▁ጫፍ": 7701,
      "▁ግብረ": 7702,
      "▁ጀመሩ": 7703,
      "▁ይላል:": 7704,
      "▁ይህንም": 7705,
      "▁ይክ": 7706,
      "▁ያስታውሱ": 7707,
      "▁ዩኒቨርሲቲው": 7708,
      "▁ዓላማዎች": 7709,
      "▁ክትባት": 7710,
      "▁እችል": 7711,
      "▁ብስክሌት": 7712,
      "▁በግልፅ": 7713,
      "▁በአካል": 7714,
      "▁ሞክር": 7715,
      "▁ማሻሻያ": 7716,
      "▁መደም": 7717,
      "▁ለነ": 7718,
      "ፎቶ": 7719,
      "ግሪክ": 7720,
      "ገኘውን": 7721,
      "ዎች፣": 7722,
      "ዋለን": 7723,
      "ወላጅ": 7724,
      "ክሉ": 7725,
      "ኖረን": 7726,
      "ንም፤": 7727,
      "ንፈ": 7728,
      "ች፤": 7729,
      "ቀኛ": 7730,
      "ስኮ": 7731,
      "ሮንቶስ": 7732,
      "ርዱ": 7733,
      "ሆንበት": 7734,
      "▁ጌታ,": 7735,
      "▁የተባረከ": 7736,
      "▁የብዙ": 7737,
      "▁ዛፎች": 7738,
      "▁እየሞከሩ": 7739,
      "▁እርሷም": 7740,
      "▁አመኑ": 7741,
      "▁አላስ": 7742,
      "▁ንገረኝ": 7743,
      "▁ነን፤": 7744,
      "▁ትብብር": 7745,
      "▁ተሰበሰቡ": 7746,
      "▁ባለጠ": 7747,
      "▁ባህሪያት": 7748,
      "▁በምድሪቱ": 7749,
      "▁ሳያ": 7750,
      "▁ሰጪ": 7751,
      "▁መንስኤ": 7752,
      "▁መሸጥ": 7753,
      "▁ሊባል": 7754,
      "▁ሁላችሁ": 7755,
      "ዋይ": 7756,
      "ናቴ": 7757,
      "ቶች,": 7758,
      "ርጅ": 7759,
      "ረህ": 7760,
      "ሙላት": 7761,
      "ለውጥ": 7762,
      "▁ጸሎቶች": 7763,
      "▁ግብፃ": 7764,
      "▁ግቡ": 7765,
      "▁ይፈሩ": 7766,
      "▁ይሄንን": 7767,
      "▁የማይታ": 7768,
      "▁የይ": 7769,
      "▁ከቤተሰብ": 7770,
      "▁ከሦስት": 7771,
      "▁እንደምታ": 7772,
      "▁እንደነዚህ": 7773,
      "▁ኤልያስ": 7774,
      "▁አዩ": 7775,
      "▁ኃጢ": 7776,
      "▁ትዕግ": 7777,
      "▁ተደራሽ": 7778,
      "▁ቢኖሩም": 7779,
      "▁በትዕግ": 7780,
      "▁በነበር": 7781,
      "▁ሸማቾች": 7782,
      "▁ማብራሪያ": 7783,
      "▁ማእ": 7784,
      "▁መልሶ": 7785,
      "▁መዘ": 7786,
      "▁ልጆቻቸው": 7787,
      "▁ለመምረጥ": 7788,
      "▁ለመግለጽ": 7789,
      "▁ሆንሁ": 7790,
      "ጣሊያን": 7791,
      "ዳዊት": 7792,
      "ዳመጥ": 7793,
      "ዘረጋ": 7794,
      "እርስዎ": 7795,
      "አብዛኞቹ": 7796,
      "ቂቱ": 7797,
      "ቀፍ": 7798,
      "ራብ": 7799,
      "|6": 7800,
      "▁ጸሐፊ": 7801,
      "▁ጤንነት": 7802,
      "▁ጠቀ": 7803,
      "▁ድምፁ": 7804,
      "▁የጎደ": 7805,
      "▁የተፈጠረ": 7806,
      "▁የተባበሩት": 7807,
      "▁የሚሰማ": 7808,
      "▁ውጣ": 7809,
      "▁ወንጀ": 7810,
      "▁እንዳደረገ": 7811,
      "▁እንደሚያሳ": 7812,
      "▁አይነ": 7813,
      "▁አያውቅም።": 7814,
      "▁አምላክህ": 7815,
      "▁ተሞ": 7816,
      "▁በልቡ": 7817,
      "▁በኩል": 7818,
      "▁ሲኦል": 7819,
      "▁ራሳችሁን": 7820,
      "▁ራሴን": 7821,
      "▁ምስጉን": 7822,
      "▁ማህበረሰ": 7823,
      "▁ለማቆየት": 7824,
      "▁300": 7825,
      "▁\"አዎ": 7826,
      "ጆሮ": 7827,
      "ክርስቲያኗ": 7828,
      "ኗኗር": 7829,
      "ርስዋ": 7830,
      "ሬው": 7831,
      "ማክበር": 7832,
      "መክፈል": 7833,
      "ሎችም": 7834,
      "ላችኋል።": 7835,
      "ሉይ": 7836,
      "ry": 7837,
      "li": 7838,
      "ft": 7839,
      "ab": 7840,
      "▁ፈንታ": 7841,
      "▁ጥብቅ": 7842,
      "▁ገደቦች": 7843,
      "▁ዳይሬ": 7844,
      "▁ይመጣሉ": 7845,
      "▁ይመስላል": 7846,
      "▁ይሂዱ": 7847,
      "▁ያለብን": 7848,
      "▁የአብርሃም": 7849,
      "▁ወጪዎች": 7850,
      "▁ከቤተሰ": 7851,
      "▁እንደምንችል": 7852,
      "▁እንወዳ": 7853,
      "▁እራስዎን": 7854,
      "▁አዳኝ": 7855,
      "▁አንበሳ": 7856,
      "▁አሃ": 7857,
      "▁ኀይል": 7858,
      "▁ቸር": 7859,
      "▁ትፈልጋለህ?": 7860,
      "▁ትራንስፖርት": 7861,
      "▁ትልልቅ": 7862,
      "▁ብፁ": 7863,
      "▁ብሄ": 7864,
      "▁በነበረበት": 7865,
      "▁በሕይወታችን": 7866,
      "▁በፌስቡክ": 7867,
      "▁ሰውዬ": 7868,
      "▁መች": 7869,
      "▁መቀመጫ": 7870,
      "▁ለማሟላት": 7871,
      "▁ሆነህ": 7872,
      "ጣሉ።": 7873,
      "ጠናቅ": 7874,
      "ዎቻችሁ": 7875,
      "ኪኖች": 7876,
      "ከበር": 7877,
      "ነገረው": 7878,
      "ችውን": 7879,
      "ቤል": 7880,
      "በረሰብ": 7881,
      "በዙ": 7882,
      "ቋቸው": 7883,
      "መጨመር": 7884,
      "ላችሁ.": 7885,
      "ለናል": 7886,
      ";.": 7887,
      "▁ጽድቅን": 7888,
      "▁ጠቀሜ": 7889,
      "▁ዳቦ": 7890,
      "▁ደንቦች": 7891,
      "▁ደመወ": 7892,
      "▁ዮሐ": 7893,
      "▁የነበራችሁት": 7894,
      "▁የኾኑ": 7895,
      "▁ውስጣዊ": 7896,
      "▁ወላጆ": 7897,
      "▁እንችላለን.": 7898,
      "▁እንሆና": 7899,
      "▁እላችኋለሁ፥": 7900,
      "▁አጋጥ": 7901,
      "▁አለበት,": 7902,
      "▁ባይሆንም": 7903,
      "▁ቀረበ": 7904,
      "ጽኦ": 7905,
      "ደትን": 7906,
      "ካሽ": 7907,
      "ም!": 7908,
      "ል\"": 7909,
      "|5": 7910,
      "▁ፕሬዝዳንት": 7911,
      "▁ፈራጅ": 7912,
      "▁ግንባር": 7913,
      "▁ያለብዎት": 7914,
      "▁የሸ": 7915,
      "▁ከጓደኞች": 7916,
      "▁እውነተኛውን": 7917,
      "▁እንሂድ": 7918,
      "▁እሄዳለሁ": 7919,
      "▁አስፈላጊው": 7920,
      "▁አለመታ": 7921,
      "▁ታስተ": 7922,
      "▁ተማ": 7923,
      "▁ብዙዎችን": 7924,
      "▁በውሃ": 7925,
      "▁በአንጻ": 7926,
      "▁ቁጭ": 7927,
      "▁ምሥክር": 7928,
      "▁መዛሙርት": 7929,
      "▁መተግበሪያዎች": 7930,
      "▁መጎብኘት": 7931,
      "▁መቆጣጠር": 7932,
      "▁ሕጎች": 7933,
      "▁ሐዋርያ": 7934,
      "▁ሊታ": 7935,
      "▁ለራስህ": 7936,
      "▁ሃሳ": 7937,
      "▁(ሉቃስ": 7938,
      "ኳይ": 7939,
      "ኩትም": 7940,
      "በጋ": 7941,
      "ልበ": 7942,
      "ልስጥኤ": 7943,
      ":29": 7944,
      "▁ዳዊትን": 7945,
      "▁ይግ": 7946,
      "▁ይወቁ": 7947,
      "▁ያቀር": 7948,
      "▁የምታውቁ": 7949,
      "▁የማይችሉ": 7950,
      "▁የሚያምን": 7951,
      "▁የሚከተሉት": 7952,
      "▁ዘርፍ": 7953,
      "▁ክፋ": 7954,
      "▁ካንሰር": 7955,
      "▁ከሁለቱ": 7956,
      "▁እንዲኖሩ": 7957,
      "▁አብርሃ": 7958,
      "▁ተልእ": 7959,
      "▁ተጠር": 7960,
      "▁ተናገሩ": 7961,
      "▁ተለዋ": 7962,
      "▁በፊት,": 7963,
      "▁በአቅ": 7964,
      "▁በማስተ": 7965,
      "▁በወንድ": 7966,
      "▁በነገሩ": 7967,
      "▁በለ": 7968,
      "▁ሲያስ": 7969,
      "▁ሲሄድ": 7970,
      "▁ሮሜ": 7971,
      "▁ምሳሌዎች": 7972,
      "▁መልካሙን": 7973,
      "▁ሕዝቦች": 7974,
      "▁ለእርሷ": 7975,
      "▁ለመታ": 7976,
      "▁49": 7977,
      "ጠቀምበት": 7978,
      "ግንቦት": 7979,
      "ግሪ": 7980,
      "ደረሱ": 7981,
      "ዎች)": 7982,
      "ውቃቸው": 7983,
      "ኝዎች": 7984,
      "መካ": 7985,
      "ላክ": 7986,
      "ላቸዋል": 7987,
      "ለኞቹ": 7988,
      "|8": 7989,
      "te": 7990,
      "PS": 7991,
      "2)": 7992,
      "▁ይሖዋን": 7993,
      "▁የሚታወቅ": 7994,
      "▁የን": 7995,
      "▁አፈፃፀም": 7996,
      "▁አይሆንም።": 7997,
      "▁አልነበረውም": 7998,
      "▁አለብዎት.": 7999,
      "▁ተወለደ": 8000,
      "▁በሚመጣበት": 8001,
      "▁በጠ": 8002,
      "▁በይ": 8003,
      "▁ሳን": 8004,
      "▁ሙታ": 8005,
      "▁መገለጫ": 8006,
      "▁መደብ": 8007,
      "▁መዝናኛ": 8008,
      "▁መታሰቢያ": 8009,
      "▁መስፈ": 8010,
      "▁መሬ": 8011,
      "▁ለመግደል": 8012,
      "▁ለጊዜው": 8013,
      "▁\"እንደ": 8014,
      "ፋውያን": 8015,
      "ጥቅምት": 8016,
      "ጠናቀቀ": 8017,
      "ጓደኛ": 8018,
      "ዳሉ": 8019,
      "ችት": 8020,
      "ቶን": 8021,
      "ቃቸው": 8022,
      "ቀቱ": 8023,
      "ቀረ": 8024,
      "ርቅ": 8025,
      "ማቆም": 8026,
      "ላለሁ።": 8027,
      "ለህን?": 8028,
      "6)": 8029,
      "3_": 8030,
      "▁ጎረቤ": 8031,
      "▁ገለልተኛ": 8032,
      "▁ይጠበቃል": 8033,
      "▁ይመሰክ": 8034,
      "▁ያሳያል።": 8035,
      "▁ያዙ": 8036,
      "▁ዩኒ": 8037,
      "▁የለም,": 8038,
      "▁የሆኑትን": 8039,
      "▁ውይይ": 8040,
      "▁ከሚያስ": 8041,
      "▁ከኢ": 8042,
      "▁እየሠራ": 8043,
      "▁እየመጣ": 8044,
      "▁እንዳሉት": 8045,
      "▁እስክት": 8046,
      "▁እሰጥ": 8047,
      "▁አድርጓል።": 8048,
      "▁አባታችን": 8049,
      "▁አሳዩ": 8050,
      "▁አምሳ": 8051,
      "▁አልፈጠርናቸው": 8052,
      "▁አወቅ": 8053,
      "▁ባይሆን": 8054,
      "▁በሩ": 8055,
      "▁ቃላትን": 8056,
      "▁ስምህ": 8057,
      "▁ሴቲ": 8058,
      "▁ሥራን": 8059,
      "▁ሁልጊዜም": 8060,
      "▁1x": 8061,
      "ፌዴራል": 8062,
      "ጮችን": 8063,
      "ጠኑ": 8064,
      "ዶቹን": 8065,
      "ደክ": 8066,
      "ውም፤": 8067,
      "ወጣው": 8068,
      "ንግተን": 8069,
      "ነዳጅ": 8070,
      "ነባ": 8071,
      "ቆስ": 8072,
      "ቃወም": 8073,
      "መናችሁ": 8074,
      "መኝ": 8075,
      "መታ": 8076,
      "ሃፍ": 8077,
      "▁ጥንቃቄ": 8078,
      "▁ያደር": 8079,
      "▁የተያያዙ": 8080,
      "▁የሚረዳ": 8081,
      "▁የጨዋታ": 8082,
      "▁የገዛ": 8083,
      "▁ኮምፒውተር": 8084,
      "▁እውነተኞች": 8085,
      "▁አግኝተናል": 8086,
      "▁አበባ": 8087,
      "▁ነውና፤": 8088,
      "▁ትችላለህ?": 8089,
      "▁ቪዛ": 8090,
      "▁በናንተ": 8091,
      "▁ቆር": 8092,
      "▁ሬዲዮ": 8093,
      "▁ምንን": 8094,
      "▁መካ": 8095,
      "▁ልመና": 8096,
      "▁ሊገድ": 8097,
      "▁Apple": 8098,
      "▁(ቁ": 8099,
      "ፕሪል": 8100,
      "ድብ": 8101,
      "ደሙ": 8102,
      "ዋሚ": 8103,
      "ወረደውን": 8104,
      "ባንክ": 8105,
      "ሰዋል": 8106,
      "ለፉ": 8107,
      "ህ፥": 8108,
      "coin": 8109,
      "▁ጥም": 8110,
      "▁ጠቀሜታ": 8111,
      "▁ጀግና": 8112,
      "▁ይከፍ": 8113,
      "▁የተሸ": 8114,
      "▁ዘውታሪዎች": 8115,
      "▁ውስጠ": 8116,
      "▁ከእናንተም": 8117,
      "▁እንዴት": 8118,
      "▁እናድርግ": 8119,
      "▁ኢሳይያስ": 8120,
      "▁አስርት": 8121,
      "▁ተባባ": 8122,
      "▁ተሽ": 8123,
      "▁ቆየ": 8124,
      "▁ሳይንቲስቶች": 8125,
      "▁ምክንያታዊ": 8126,
      "▁ማግኘ": 8127,
      "▁መዝገብ": 8128,
      "▁መቀነስ": 8129,
      "▁መለሱ": 8130,
      "▁ልምዶች": 8131,
      "▁ልማድ": 8132,
      "▁ሆይ:": 8133,
      "▁\"ታዲያ": 8134,
      "ፕሮጀ": 8135,
      "ፈፀ": 8136,
      "ያዛ": 8137,
      "ካኤል": 8138,
      "ቸዋለን።": 8139,
      "ቅያ": 8140,
      "ማዘጋጀት": 8141,
      "መንግሥት": 8142,
      "ለው፣": 8143,
      "ለምሳሌ": 8144,
      "ent": 8145,
      "ation": 8146,
      "4_": 8147,
      "40": 8148,
      "1)": 8149,
      "▁ጭማሪ": 8150,
      "▁ይጨምራ": 8151,
      "▁ያስፈልጋል": 8152,
      "▁ዩሮ": 8153,
      "▁ዕድሜው": 8154,
      "▁ክረምት": 8155,
      "▁ከልብ": 8156,
      "▁እንደሚገባ": 8157,
      "▁ኤም": 8158,
      "▁አልነበረም.": 8159,
      "▁ነበሩ,": 8160,
      "▁ትተው": 8161,
      "▁ተደረገ": 8162,
      "▁ባለስ": 8163,
      "▁በአጭሩ": 8164,
      "▁በስሜ": 8165,
      "▁በፓሪስ": 8166,
      "▁ስምምነ": 8167,
      "▁ሳይቀር": 8168,
      "▁ሰነዶች": 8169,
      "▁ለእነዚያ": 8170,
      "▁ለእሷ": 8171,
      "▁ለንጉሡ": 8172,
      "▁ሁኑ": 8173,
      "▁(የሚ": 8174,
      "▁\"ም": 8175,
      "ጠባበቅ": 8176,
      "ጉም": 8177,
      "ዞር": 8178,
      "ቢያት": 8179,
      "ቢያው": 8180,
      "ቀቀ": 8181,
      "ሽታ": 8182,
      "ሳሰ": 8183,
      "ሜክሲኮ": 8184,
      "ማገዝ": 8185,
      "ማኅበራዊ": 8186,
      "መናት": 8187,
      "ለህ፥": 8188,
      "im": 8189,
      "▁ፈለጉ": 8190,
      "▁ጥቅስ": 8191,
      "▁ገሃነም": 8192,
      "▁ይባላል።": 8193,
      "▁ያልታ": 8194,
      "▁ያለህ": 8195,
      "▁የተወለደ": 8196,
      "▁የሚሰሙ": 8197,
      "▁የድ": 8198,
      "▁የርሱ": 8199,
      "▁ከከተማ": 8200,
      "▁ከመን": 8201,
      "▁እርግጠኞች": 8202,
      "▁አድርጓል,": 8203,
      "▁አይችልም,": 8204,
      "▁አንፃ": 8205,
      "▁አታድርግ": 8206,
      "▁ትኖራ": 8207,
      "▁ተቀበለ": 8208,
      "▁ተስፋዎች": 8209,
      "▁ብክ": 8210,
      "▁ቤዛ": 8211,
      "▁በግብ": 8212,
      "▁ቁም": 8213,
      "▁ስለምን": 8214,
      "▁ሳሉ": 8215,
      "▁ሰላ": 8216,
      "▁ራሳችሁ": 8217,
      "▁ልቦ": 8218,
      "▁ላሉ": 8219,
      "▁ሊቃ": 8220,
      "▁ሁሉ,": 8221,
      "▁\"ያ": 8222,
      "ያተ": 8223,
      "ዘገቡ": 8224,
      "ዎችንም": 8225,
      "ክንያ": 8226,
      "አገልግሎት": 8227,
      "ትሮ": 8228,
      "ቨርስ": 8229,
      "በቀ": 8230,
      "በራ": 8231,
      "ቀይ": 8232,
      "ርከ": 8233,
      "ራረብ": 8234,
      "ምበር": 8235,
      "መልሱ": 8236,
      "ለዩ": 8237,
      "ren": 8238,
      "▁ፈጠር": 8239,
      "▁ጽፏ": 8240,
      "▁ጥገና": 8241,
      "▁ይገልጻ": 8242,
      "▁ይናገራሉ።": 8243,
      "▁ያስባሉ": 8244,
      "▁የካቲት": 8245,
      "▁የመስ": 8246,
      "▁ዘላለም": 8247,
      "▁ዕረፍት": 8248,
      "▁ካልሆኑ": 8249,
      "▁እጁ": 8250,
      "▁እቃ": 8251,
      "▁አርቲ": 8252,
      "▁አደርግ": 8253,
      "▁ተደርጓል": 8254,
      "▁ተመልካች": 8255,
      "▁ተግዳ": 8256,
      "▁በዙሪያው": 8257,
      "▁ማሳደግ": 8258,
      "▁ማጣ": 8259,
      "▁ማደግ": 8260,
      "▁ለማሳለፍ": 8261,
      "▁ሆነ፤": 8262,
      "▁ሄዱ": 8263,
      "▁Wi": 8264,
      "ጥል": 8265,
      "ጎም": 8266,
      "ግንኙነት": 8267,
      "ገተኛ": 8268,
      "ንቀሳቃሽ": 8269,
      "ብሔራዊ": 8270,
      "ሞክራሲ": 8271,
      "ምዕራብ": 8272,
      "ሆናችን": 8273,
      "ሀብ": 8274,
      "▁ፊቱን": 8275,
      "▁ጊዜን": 8276,
      "▁ድግም": 8277,
      "▁ይከሰታል": 8278,
      "▁የተቻ": 8279,
      "▁የሚያውቀው": 8280,
      "▁የፌስቡክ": 8281,
      "▁የፈለጉ": 8282,
      "▁የና": 8283,
      "▁ካርታ": 8284,
      "▁ከምን": 8285,
      "▁እንዲችሉ": 8286,
      "▁ኢንተርኔት": 8287,
      "▁አስተዋጽኦ": 8288,
      "▁አላወቁ": 8289,
      "▁አሥ": 8290,
      "▁ችግሩን": 8291,
      "▁በአባቴ": 8292,
      "▁በራሳችን": 8293,
      "▁ስሜታዊ": 8294,
      "▁ስለማይ": 8295,
      "▁ሪፐ": 8296,
      "▁ማመልከቻ": 8297,
      "ጸጸ": 8298,
      "ገለጸው": 8299,
      "ከፊል": 8300,
      "ከባከ": 8301,
      "ነጋግ": 8302,
      "ቬስት": 8303,
      "መምጣት": 8304,
      "መከታተል": 8305,
      "መሸጥ": 8306,
      "መሮች": 8307,
      "ላቸው፤": 8308,
      "ለድ": 8309,
      "_7": 8310,
      "▁ጭንቅ": 8311,
      "▁ድሃ": 8312,
      "▁ይጠቅ": 8313,
      "▁ይኖራሉ።": 8314,
      "▁ይነገ": 8315,
      "▁የሚያሰ": 8316,
      "▁የሐሰት": 8317,
      "▁የፈለገ": 8318,
      "▁የች": 8319,
      "▁ዘንድ,": 8320,
      "▁ዋንጫ": 8321,
      "▁ወረቀት": 8322,
      "▁ከጠላ": 8323,
      "▁ከማን": 8324,
      "▁እንመልከት።": 8325,
      "▁እናውቃለን.": 8326,
      "▁አፍቃሪ": 8327,
      "▁አዝ፦": 8328,
      "▁አንደ": 8329,
      "▁አልሰማ": 8330,
      "▁ንባብ": 8331,
      "▁ና,": 8332,
      "▁ተፈጥሯዊ": 8333,
      "▁በነሱ": 8334,
      "▁ስፖር": 8335,
      "▁መቋቋም": 8336,
      "▁ላል": 8337,
      "▁50%": 8338,
      "▁\"ሁሉም": 8339,
      "ዎችና": 8340,
      "ኛለሁ": 8341,
      "ብራዚል": 8342,
      "ብራውያን": 8343,
      "ስተን": 8344,
      "ሰፊ": 8345,
      "ምረው": 8346,
      "መርጡ": 8347,
      "ሐመድ": 8348,
      "ህ፣": 8349,
      "wit": 8350,
      "9_": 8351,
      "▁ጠቅላይ": 8352,
      "▁ጠራ": 8353,
      "▁ግራ": 8354,
      "▁የአምላካ": 8355,
      "▁የሚያደርጉት": 8356,
      "▁የኦ": 8357,
      "▁ዘይቤ": 8358,
      "▁ኮር": 8359,
      "▁ከኢየሱስ": 8360,
      "▁ከሌለ": 8361,
      "▁እምላለሁ": 8362,
      "▁አልፈጠርናቸውም፤": 8363,
      "▁አረንጓዴ": 8364,
      "▁ነበረው።": 8365,
      "▁ትወዳ": 8366,
      "▁በቤቴ": 8367,
      "▁በመንገዱ": 8368,
      "▁በህይወ": 8369,
      "▁ሸክም": 8370,
      "▁ስዕ": 8371,
      "▁ስዊ": 8372,
      "▁ሰነድ": 8373,
      "▁ሥራቸው": 8374,
      "▁ምክንያቱም.": 8375,
      "▁ሚኒስቴ": 8376,
      "▁መታዘዝ": 8377,
      "▁መቀየር": 8378,
      "▁ለማስተ": 8379,
      "▁ለኛ": 8380,
      "▁ሀገራት": 8381,
      "▁of": 8382,
      "▁(መዝ": 8383,
      "ጋስ": 8384,
      "ገነቡ": 8385,
      "ደረጋችሁ": 8386,
      "እም": 8387,
      "አሁን": 8388,
      "ተዋል፤": 8389,
      "ባልንጀ": 8390,
      "6_": 8391,
      "▁ጌታ.": 8392,
      "▁ይመለከታ": 8393,
      "▁ያየሁ": 8394,
      "▁የተዘጋጀ": 8395,
      "▁የሚያደርጉትን": 8396,
      "▁የሚጠብቅ": 8397,
      "▁ኦር": 8398,
      "▁እነሆም፥": 8399,
      "▁ኤልሳ": 8400,
      "▁አገኘሁ": 8401,
      "▁አንዳቸው": 8402,
      "▁አሜሪካዊ": 8403,
      "▁ንፁህ": 8404,
      "▁ነቅ": 8405,
      "▁ባለት": 8406,
      "▁በራሴ": 8407,
      "▁ቃሌን": 8408,
      "▁ማል": 8409,
      "▁ሚዛ": 8410,
      "▁መግለ": 8411,
      "▁ለሕዝቦቹ": 8412,
      "▁(እርሱም": 8413,
      "▁(እርሱም)": 8414,
      "ጠሉ": 8415,
      "ገነት": 8416,
      "ድስ": 8417,
      "ደዋል": 8418,
      "ዛኝ": 8419,
      "ወላጆች": 8420,
      "አይሁድ": 8421,
      "ኖራቸውን": 8422,
      "ነቅ": 8423,
      "ኋለኛ": 8424,
      "ቸት": 8425,
      "ቴክኒክ": 8426,
      "ቡና": 8427,
      "ቀመጠው": 8428,
      "ስለዚህ": 8429,
      "ስቶ": 8430,
      "ማጭ": 8431,
      "መጋቢት": 8432,
      "መሄድ": 8433,
      "ልቶ": 8434,
      "witter": 8435,
      "**": 8436,
      "▁ፍትሃዊ": 8437,
      "▁ጽድ": 8438,
      "▁ጎዳና": 8439,
      "▁ጉድጓድ": 8440,
      "▁ገዳይ": 8441,
      "▁ገዛ": 8442,
      "▁ድብ": 8443,
      "▁ይወጣል": 8444,
      "▁ይፈጥ": 8445,
      "▁የለባቸው": 8446,
      "▁የዚያ": 8447,
      "▁የሳ": 8448,
      "▁ኮንግ": 8449,
      "▁ካሳ": 8450,
      "▁ከአባቱ": 8451,
      "▁አልነበሩም": 8452,
      "▁አልቻሉም።": 8453,
      "▁አልለ።": 8454,
      "▁አላውቅም።": 8455,
      "▁ተቀበ": 8456,
      "▁በዓመቱ": 8457,
      "▁ሲደርስ": 8458,
      "▁ሦስቱ": 8459,
      "▁መፅሐፍ": 8460,
      "▁መሆናቸው": 8461,
      "▁ሆኗል።": 8462,
      "▁2005": 8463,
      "▁(መልካም": 8464,
      "ፈጠር": 8465,
      "ጣዖ": 8466,
      "ዝግ": 8467,
      "ኛል፤": 8468,
      "ናመሰግ": 8469,
      "ቀጥቀጥ": 8470,
      "ቀበላ": 8471,
      "ሰማዎት": 8472,
      "ለፈ": 8473,
      "▁ጉልበት": 8474,
      "▁ደርሷል": 8475,
      "▁ይገኛል.": 8476,
      "▁ይቀበላል": 8477,
      "▁ይደር": 8478,
      "▁የተላ": 8479,
      "▁የጠራ": 8480,
      "▁ዞር": 8481,
      "▁ክሊ": 8482,
      "▁አድራሻ": 8483,
      "▁አንብብ": 8484,
      "▁አምጥ": 8485,
      "▁አፕል": 8486,
      "▁አዳን": 8487,
      "▁ተከስ": 8488,
      "▁ተአምር": 8489,
      "▁ተልእኮ": 8490,
      "▁ተው": 8491,
      "▁በክብር": 8492,
      "▁በልቤ": 8493,
      "▁ሳኦል": 8494,
      "▁ምርጡን": 8495,
      "▁ማለዳ": 8496,
      "▁ሚስቶች": 8497,
      "▁ሙሳም": 8498,
      "▁መጠይቅ": 8499,
      "▁ልምምድ": 8500,
      "▁ለጥ": 8501,
      "ፈለገው": 8502,
      "ፃናት": 8503,
      "ዘርላንድስ": 8504,
      "ውው": 8505,
      "ከብራ": 8506,
      "ቀዋል": 8507,
      "ሮኒ": 8508,
      "ራቱ": 8509,
      "ሞትም": 8510,
      "ልኩ": 8511,
      "ላቸውም።": 8512,
      "▁ፓርክ": 8513,
      "▁ፈልጎ": 8514,
      "▁ጠበቃ": 8515,
      "▁ይሰጡ": 8516,
      "▁ይህችን": 8517,
      "▁ይር": 8518,
      "▁የተጠ": 8519,
      "▁የተዋ": 8520,
      "▁የባሰ": 8521,
      "▁ወጥተው": 8522,
      "▁ወታደራዊ": 8523,
      "▁ወረደ": 8524,
      "▁ካህን": 8525,
      "▁ከዛም": 8526,
      "▁ከሰዓት": 8527,
      "▁እንደመጣ": 8528,
      "▁እናሳ": 8529,
      "▁እዚያም": 8530,
      "▁አጋንንት": 8531,
      "▁አይፈቀድ": 8532,
      "▁አይደለም\"": 8533,
      "▁አይቀርም": 8534,
      "▁አላየሁ": 8535,
      "▁አለመታደል": 8536,
      "▁አዘጋጀ": 8537,
      "▁አነጋገር": 8538,
      "▁ኃጢአትን": 8539,
      "▁ተልዕ": 8540,
      "▁በየወሩ": 8541,
      "▁በፀ": 8542,
      "▁በጀት": 8543,
      "▁በዲ": 8544,
      "▁ስንኳ": 8545,
      "▁መቅረብ": 8546,
      "▁መጡ።": 8547,
      "▁ሄዱ።": 8548,
      "▁2004": 8549,
      "▁(ው": 8550,
      "ፈጸሙ": 8551,
      "ፈተ": 8552,
      "ጾችን": 8553,
      "ደቅ": 8554,
      "ወድቅ": 8555,
      "ወዱት": 8556,
      "ክሌ": 8557,
      "ኩም።": 8558,
      "አስ": 8559,
      "ናይጄሪያ": 8560,
      "ተወ": 8561,
      "ቆሮ": 8562,
      "ምራቶች": 8563,
      "ማችን": 8564,
      "ሀገር": 8565,
      "▁ይወዳል።": 8566,
      "▁ይከብ": 8567,
      "▁ያስቡ": 8568,
      "▁ያለማቋረጥ": 8569,
      "▁የአማ": 8570,
      "▁የተደረገው": 8571,
      "▁ዙር": 8572,
      "▁ከመሆኑም": 8573,
      "▁ከኋላ": 8574,
      "▁አድናቆት": 8575,
      "▁አንችልም።": 8576,
      "▁አታድርጉ": 8577,
      "▁አስረ": 8578,
      "▁አማካሪ": 8579,
      "▁አጎ": 8580,
      "▁አከባቢ": 8581,
      "▁ተወዳዳሪ": 8582,
      "▁በሦስተኛው": 8583,
      "▁በዕ": 8584,
      "▁በአብዛኛዎቹ": 8585,
      "▁ማሳያ": 8586,
      "▁(ለምሳሌ": 8587,
      "ፋል።": 8588,
      "ፈጽም": 8589,
      "ገባቸው": 8590,
      "ገሰ": 8591,
      "የትኛው": 8592,
      "ከናው": 8593,
      "አል፤": 8594,
      "ኛል.": 8595,
      "ቆጠር": 8596,
      "ሳራ": 8597,
      "ሮቹን": 8598,
      "ረብኛ": 8599,
      "መኖሪያ": 8600,
      "|9": 8601,
      "ord": 8602,
      "▁ፈልጌ": 8603,
      "▁ይመስላል.": 8604,
      "▁ይዋ": 8605,
      "▁ይካ": 8606,
      "▁የተደረገ": 8607,
      "▁ዓመታዊ": 8608,
      "▁እግዚአብሔር።": 8609,
      "▁እንደዚህ,": 8610,
      "▁እሳቸው": 8611,
      "▁አገኙ": 8612,
      "▁ተሳፋ": 8613,
      "▁ባላቸው": 8614,
      "▁ባላ": 8615,
      "▁በማስ": 8616,
      "▁በሥጋ": 8617,
      "▁በሆ": 8618,
      "▁መጽሐፍት": 8619,
      "▁መቆም": 8620,
      "▁ሊገኝ": 8621,
      "▁ለሚፈልጉ": 8622,
      "▁65": 8623,
      "▁(አሊፍ": 8624,
      "ጽ)": 8625,
      "ጠባበ": 8626,
      "ግራም": 8627,
      "ድያ": 8628,
      "ደረግን": 8629,
      "ኖኅ": 8630,
      "ንሲ": 8631,
      "በላሸ": 8632,
      "ሳውያን": 8633,
      "ሲባዊ": 8634,
      "ሮጥ": 8635,
      "ሞንም": 8636,
      "ሞና": 8637,
      "መዋል": 8638,
      "ሕፍትን": 8639,
      "ሃድ": 8640,
      "ሀፍ": 8641,
      "▁ዮሴፍም": 8642,
      "▁ይወስዳል።": 8643,
      "▁ይረዳል": 8644,
      "▁የተቆ": 8645,
      "▁ወደርሱ": 8646,
      "▁ከሆነ.": 8647,
      "▁እጅህን": 8648,
      "▁እያሳ": 8649,
      "▁እየሰሩ": 8650,
      "▁እንችላለን?": 8651,
      "▁ኤርምያስ": 8652,
      "▁አይቀርም።": 8653,
      "▁አትሁኑ": 8654,
      "▁አስተናጋጅ": 8655,
      "▁አሰበ": 8656,
      "▁ነው-": 8657,
      "▁ነበል": 8658,
      "▁ተገንዝ": 8659,
      "▁ተናገረ።": 8660,
      "▁ተነሥቶ": 8661,
      "▁ባሏ": 8662,
      "▁በአል": 8663,
      "▁በስልክ": 8664,
      "▁በመካከላችሁ": 8665,
      "▁ምግባር": 8666,
      "▁ሕፃናት": 8667,
      "▁ላማ": 8668,
      "▁ሃያ": 8669,
      "▁PS": 8670,
      "▁400": 8671,
      "▁(ከዚህ": 8672,
      "ጀምረው": 8673,
      "ዳና": 8674,
      "የረ": 8675,
      "ዘመን": 8676,
      "ዋጭ": 8677,
      "ወሰነው": 8678,
      "እንደ": 8679,
      "ሸነ": 8680,
      "ስትሪያ": 8681,
      "ሳቸውን": 8682,
      "ሳሉ።": 8683,
      "ረጋጋት": 8684,
      "መህ": 8685,
      "ለትን": 8686,
      "ህም።": 8687,
      "ly": 8688,
      "▁ፀጋ": 8689,
      "▁ዲጂታል": 8690,
      "▁ደፋር": 8691,
      "▁ይህን": 8692,
      "▁ያስከት": 8693,
      "▁ያለዉ": 8694,
      "▁የታመ": 8695,
      "▁የሚያምር": 8696,
      "▁የነገ": 8697,
      "▁ዕውቀትን": 8698,
      "▁ዓመቱን": 8699,
      "▁እብድ": 8700,
      "▁እረኛ": 8701,
      "▁ኢብራሂ": 8702,
      "▁አይደሉም.": 8703,
      "▁አንተንም": 8704,
      "▁አልሆነ": 8705,
      "▁አነሳ": 8706,
      "▁ቶሎ": 8707,
      "▁ትናገራ": 8708,
      "▁ተነሳሽነት": 8709,
      "▁በሚለው": 8710,
      "▁በመቀ": 8711,
      "▁ቅጂ": 8712,
      "▁ስሜን": 8713,
      "▁ሰሌዳ": 8714,
      "▁ሪፐብሊክ": 8715,
      "▁ሥፍራ": 8716,
      "▁ምዝገባ": 8717,
      "▁ሊያሳ": 8718,
      "▁ለራስዎ": 8719,
      "▁Pro": 8720,
      "▁\"አት": 8721,
      "ፋዊ": 8722,
      "ጌል": 8723,
      "ዳጊ": 8724,
      "ካሄደው": 8725,
      "ከናወነው": 8726,
      "እነሆ": 8727,
      "ኣን)": 8728,
      "ቀና": 8729,
      "ረር": 8730,
      "ልቁ": 8731,
      "ሃይማኖት": 8732,
      "ress": 8733,
      "▁ጽሑፎች": 8734,
      "▁ጋዜጣ": 8735,
      "▁ጉዳዩን": 8736,
      "▁ይጠብቃ": 8737,
      "▁ይታወቃል": 8738,
      "▁ይታያል": 8739,
      "▁ይገደ": 8740,
      "▁ያለባቸው": 8741,
      "▁ያንተ": 8742,
      "▁የተገለ": 8743,
      "▁የመንፈስ": 8744,
      "▁የንጉሡ": 8745,
      "▁የቦ": 8746,
      "▁ከይሁዳ": 8747,
      "▁እንጨት": 8748,
      "▁እንሰራ": 8749,
      "▁እራሱ": 8750,
      "▁አይደለሁም።": 8751,
      "▁አውታረመረ": 8752,
      "▁ተልዕኮ": 8753,
      "▁ተዘ": 8754,
      "▁ተመለከተ": 8755,
      "▁ብክለት": 8756,
      "▁ሲሄዱ": 8757,
      "▁ሰዓቶች": 8758,
      "▁ሚዛን": 8759,
      "▁መልአኩ": 8760,
      "▁ለወንድ": 8761,
      "▁ለህ": 8762,
      "ፋሉ": 8763,
      "ፈረንሣይ": 8764,
      "ጎድ": 8765,
      "ግስ": 8766,
      "ወልደ": 8767,
      "ኮታዊ": 8768,
      "አቸው።": 8769,
      "ንግል": 8770,
      "ቴ.": 8771,
      "ቀሱበት": 8772,
      "ሰግ": 8773,
      "ረዥም": 8774,
      "ረቅ": 8775,
      "ምራቶቻችን": 8776,
      "ሙስሊ": 8777,
      "|3": 8778,
      "18": 8779,
      "\"።": 8780,
      "▁ጠቅላላ": 8781,
      "▁ዲግሪ": 8782,
      "▁ይጣ": 8783,
      "▁ያነሳ": 8784,
      "▁ዩኒቨርስ": 8785,
      "▁የተሰራ": 8786,
      "▁የሠራዊት": 8787,
      "▁የማድረግ": 8788,
      "▁የለብንም": 8789,
      "▁የኃጢአት": 8790,
      "▁ከፈተ": 8791,
      "▁እየሞከር": 8792,
      "▁አደረገ.": 8793,
      "▁አይሰማ": 8794,
      "▁አቆየኝ\"": 8795,
      "▁አልማ": 8796,
      "▁ተሰም": 8797,
      "▁ተሽከርካሪ": 8798,
      "▁ብሩህ": 8799,
      "▁ባለሥልጣናት": 8800,
      "▁በመሆናቸው": 8801,
      "▁በልባቸው": 8802,
      "▁ሳንቲ": 8803,
      "▁ሰዎች.": 8804,
      "▁ማስገባት": 8805,
      "▁መሠረት,": 8806,
      "▁መመለሻ": 8807,
      "▁\"እርሱ": 8808,
      "ይኑ": 8809,
      "ዋሽ": 8810,
      "ዋለሁ፤": 8811,
      "ንቀጾቻችን": 8812,
      "ነበበ": 8813,
      "ነኝነት": 8814,
      "ቋሚ": 8815,
      "ራትን": 8816,
      "ሙና": 8817,
      "▁ጫና": 8818,
      "▁ግባ": 8819,
      "▁ይገኛሉ።": 8820,
      "▁ከማንም": 8821,
      "▁እጅህ": 8822,
      "▁እንነጋገራ": 8823,
      "▁አብያተ": 8824,
      "▁ተረ": 8825,
      "▁በአላህም": 8826,
      "▁በዋና": 8827,
      "▁በሶ": 8828,
      "▁በሱ": 8829,
      "▁በርሱም": 8830,
      "▁ሥልጠና": 8831,
      "▁ሞተ።": 8832,
      "▁ማስታወቂያዎች": 8833,
      "▁መፍታት": 8834,
      "▁መቅደሱ": 8835,
      "▁መጓጓዣ": 8836,
      "▁ሆነ.": 8837,
      "▁\"እስከሚ": 8838,
      "▁\"እስከሚቀሰ": 8839,
      "▁\"እስከሚቀሰቀሱበት": 8840,
      "▁\"እውነት": 8841,
      "ጳውሎስ": 8842,
      "ዛመዱ": 8843,
      "ዘዘው": 8844,
      "ውድ": 8845,
      "ኮዝ": 8846,
      "ከውን": 8847,
      "መለከቱት": 8848,
      "ሉበት": 8849,
      "ለች.": 8850,
      "ለር": 8851,
      "15": 8852,
      "▁‹‹የ": 8853,
      "▁ፕሮፌ": 8854,
      "▁ጥቅሶች": 8855,
      "▁ገር": 8856,
      "▁ጀመርኩ": 8857,
      "▁ድግምት": 8858,
      "▁ይደረጋል.": 8859,
      "▁ይቀመጣል።": 8860,
      "▁ይቀጣ": 8861,
      "▁ይዟ": 8862,
      "▁የተለዩ": 8863,
      "▁የተገደ": 8864,
      "▁የተለያየ": 8865,
      "▁የሚሸ": 8866,
      "▁የገቡ": 8867,
      "▁ዘንጊ": 8868,
      "▁ዘና": 8869,
      "▁ዉስጥ": 8870,
      "▁እንግዶች": 8871,
      "▁እንደነበረው": 8872,
      "▁አንዳንዴ": 8873,
      "▁አንዳቸውም": 8874,
      "▁አራቱ": 8875,
      "▁አፋ": 8876,
      "▁አሮን": 8877,
      "▁ነን.": 8878,
      "▁ነበልባል": 8879,
      "▁ተልከ": 8880,
      "▁ተከተል": 8881,
      "▁ብዙዎቻችን": 8882,
      "▁ባድማ": 8883,
      "▁በፊቴ": 8884,
      "▁በማድረግ": 8885,
      "▁በወን": 8886,
      "▁በሁ": 8887,
      "▁ሳለሁ": 8888,
      "▁ሰምቶ": 8889,
      "▁ርዝ": 8890,
      "▁ሥራ)": 8891,
      "▁ምሥራች": 8892,
      "▁ማውረድ": 8893,
      "▁ሚኒስቴር": 8894,
      "▁መንገድ,": 8895,
      "▁መታየት": 8896,
      "▁መብራት": 8897,
      "▁መበ": 8898,
      "▁ልጆች,": 8899,
      "▁ልብህ": 8900,
      "▁ለታ": 8901,
      "▁ለሦስት": 8902,
      "▁ሁኔታ,": 8903,
      "ፈነ": 8904,
      "ጠ።": 8905,
      "ግሬ": 8906,
      "ያውቀው": 8907,
      "ያኔ": 8908,
      "አልና": 8909,
      "አችሁ": 8910,
      "አባ": 8911,
      "ኖረውም": 8912,
      "ነግራ": 8913,
      "ባበለ": 8914,
      "ቀኑ": 8915,
      "ማቸውን": 8916,
      "መ።": 8917,
      "ላቱ": 8918,
      "so": 8919,
      "ot": 8920,
      "ig": 8921,
      "2_": 8922,
      "▁፲፪": 8923,
      "▁ፊትህን": 8924,
      "▁ይበቃ": 8925,
      "▁ያካትታል": 8926,
      "▁የሚያረጋግጥ": 8927,
      "▁የሚያመጣ": 8928,
      "▁ዝርዝሮች": 8929,
      "▁ከግማሽ": 8930,
      "▁ከነበሩት": 8931,
      "▁ከሞተ": 8932,
      "▁እውነተኛው": 8933,
      "▁አካሄድ": 8934,
      "▁አቅርቦት": 8935,
      "▁ነን!": 8936,
      "▁ተገረ": 8937,
      "▁በጥልቀት": 8938,
      "▁በእጃቸው": 8939,
      "▁በተራ": 8940,
      "▁በስምህ": 8941,
      "▁ስጠኝ": 8942,
      "▁ርካሽ": 8943,
      "▁መደብር": 8944,
      "▁መኖራቸውን": 8945,
      "▁ለሁለቱም": 8946,
      "▁ሃይማኖታዊ": 8947,
      "▁(ራእይ": 8948,
      "ፎር": 8949,
      "ፈጠሩ": 8950,
      "ፈቀደ": 8951,
      "ጓቸው": 8952,
      "ዳቸውን": 8953,
      "ክሌር": 8954,
      "ኑሮ": 8955,
      "ባቢሎን": 8956,
      "ባክ": 8957,
      "ቆዳ": 8958,
      "ቀውን": 8959,
      "ሰበሰብ": 8960,
      "ረዝ": 8961,
      "ማስተካከል": 8962,
      "ለዋል.": 8963,
      "ሃል.": 8964,
      "ሃለሁ፤": 8965,
      "ሁንም": 8966,
      "uc": 8967,
      "ost": 8968,
      "est": 8969,
      "),": 8970,
      "▁ጠረጴዛ": 8971,
      "▁ጃፓን": 8972,
      "▁ይቻላል?": 8973,
      "▁ይሰጣሉ": 8974,
      "▁ይሄዳል": 8975,
      "▁ይሞክ": 8976,
      "▁ይማ": 8977,
      "▁የምስ": 8978,
      "▁የጸሎት": 8979,
      "▁የኛ": 8980,
      "▁ዋነኛ": 8981,
      "▁ወይንስ": 8982,
      "▁እስትን": 8983,
      "▁እርግማን": 8984,
      "▁ኢንቬስት": 8985,
      "▁አሳዛኝ": 8986,
      "▁አለህ": 8987,
      "▁ነኝ!": 8988,
      "▁በዋነኝነት": 8989,
      "▁በእጅጉ": 8990,
      "▁በእርግጥ,": 8991,
      "▁በተወሰኑ": 8992,
      "▁በሕግ": 8993,
      "▁ሲያደርጉ": 8994,
      "▁ራ)": 8995,
      "▁ሠራተኛ": 8996,
      "▁ምሁ": 8997,
      "▁ሚካኤል": 8998,
      "▁ሚም": 8999,
      "▁መንከባከብ": 9000,
      "▁ልጆችና": 9001,
      "▁ልጅዎ": 9002,
      "▁ልጅን": 9003,
      "▁ልጥፍ": 9004,
      "▁ሌላም": 9005,
      "▁ሄደው": 9006,
      "ፋፋ": 9007,
      "ጋቢ": 9008,
      "ገኙም": 9009,
      "ዦች": 9010,
      "ዘረዘ": 9011,
      "ወጣም": 9012,
      "ካተት": 9013,
      "ካር": 9014,
      "እጅ": 9015,
      "ኀጢአ": 9016,
      "ስብሰባ": 9017,
      "ሳሽ": 9018,
      "ርሽ": 9019,
      "ሬያለሁ": 9020,
      "ሟል።": 9021,
      "ማስተዳደር": 9022,
      "መለክተው": 9023,
      "ሊያም": 9024,
      "▁ይችላሉ!": 9025,
      "▁ያለሁ": 9026,
      "▁የተወደ": 9027,
      "▁የተባለ": 9028,
      "▁የማስ": 9029,
      "▁የሚያስፈራ": 9030,
      "▁ኮከ": 9031,
      "▁ክፈ": 9032,
      "▁ካርዶች": 9033,
      "▁እየተደረገ": 9034,
      "▁እንመክራ": 9035,
      "▁አድርጓል.": 9036,
      "▁አዋጅ": 9037,
      "▁አንፃር": 9038,
      "▁አስተዳዳሪ": 9039,
      "▁አስመልክ": 9040,
      "▁ትኩረ": 9041,
      "▁ታስታው": 9042,
      "▁ተናገሩ።": 9043,
      "▁ተመለሱ።": 9044,
      "▁ተተ": 9045,
      "▁ተባ": 9046,
      "▁በሦስት": 9047,
      "▁ቀዳሚ": 9048,
      "▁ስምህን": 9049,
      "▁ልቦች": 9050,
      "▁ሉቃስ": 9051,
      "ጠቅላላው": 9052,
      "ክልል": 9053,
      "ኖረኝ": 9054,
      "ነሱም": 9055,
      "ቸው)": 9056,
      "ታሉ።": 9057,
      "ል፣": 9058,
      "▁ፍቃድ": 9059,
      "▁ፍርሃ": 9060,
      "▁ፈሩ።": 9061,
      "▁ግምገማዎች": 9062,
      "▁ይሆናሉ.": 9063,
      "▁ይረዱ": 9064,
      "▁ያለኝ": 9065,
      "▁የእውነት": 9066,
      "▁የመጨረሻውን": 9067,
      "▁ዘመድ": 9068,
      "▁ወደድ": 9069,
      "▁ከጉ": 9070,
      "▁ከሱ": 9071,
      "▁እናደርጋለን።": 9072,
      "▁እርሷን": 9073,
      "▁አገዛዝ": 9074,
      "▁አይደለም!": 9075,
      "▁አስተዋፅ": 9076,
      "▁ቤትም": 9077,
      "▁በአባቱ": 9078,
      "▁በስም": 9079,
      "▁በምስ": 9080,
      "▁ቆሮንቶስ": 9081,
      "▁ስርዓቶች": 9082,
      "▁መቀመጥ": 9083,
      "▁ላማናውያን": 9084,
      "▁ሊተ": 9085,
      "▁ህንፃ": 9086,
      "▁1000": 9087,
      "▁(አናቅ": 9088,
      "▁(አናቅጽ)": 9089,
      "ጠበቀው": 9090,
      "ዷቸው": 9091,
      "ዱር": 9092,
      "ውንት": 9093,
      "ካው": 9094,
      "ከናውን": 9095,
      "አደጋ": 9096,
      "ኗን": 9097,
      "ናል,": 9098,
      "ነበቡ": 9099,
      "ብዓ": 9100,
      "ቁጥ": 9101,
      "ሾችን": 9102,
      "ሰጠኝ": 9103,
      "ሰበስብ": 9104,
      "itcoin": 9105,
      "ber": 9106,
      "and": 9107,
      "▁ፍራን": 9108,
      "▁ጉልህ": 9109,
      "▁ደጋፊዎች": 9110,
      "▁ይመለሳል።": 9111,
      "▁የሚጋ": 9112,
      "▁የሌላቸው": 9113,
      "▁የነገር": 9114,
      "▁ዕውር": 9115,
      "▁ወሮች": 9116,
      "▁ክስ": 9117,
      "▁ከወን": 9118,
      "▁እንደሚፈልግ": 9119,
      "▁እገባ": 9120,
      "▁አዎ፣": 9121,
      "▁አንባቢዎች": 9122,
      "▁አንቀጽ": 9123,
      "▁አቅራቢያ": 9124,
      "▁አስተዋይ": 9125,
      "▁አምላክም": 9126,
      "▁አልሉ።": 9127,
      "▁አላየ": 9128,
      "▁ነበር;": 9129,
      "▁ትውስታ": 9130,
      "▁ተጠቃሚው": 9131,
      "▁ተግ": 9132,
      "▁በቀጣዩ": 9133,
      "▁በመካከላቸውም": 9134,
      "▁በደረሰ": 9135,
      "▁ስብስብ": 9136,
      "▁ስጡ": 9137,
      "▁ምድሪቱን": 9138,
      "▁ምድሪቱ": 9139,
      "▁ምዕ": 9140,
      "▁ሚስጥር": 9141,
      "▁ልደት": 9142,
      "▁ለጉ": 9143,
      "▁MP": 9144,
      "ፖርቱ": 9145,
      "ፈላጊ": 9146,
      "ዳዲስ": 9147,
      "ዘገበ": 9148,
      "ኤም": 9149,
      "ኗል": 9150,
      "ናትን": 9151,
      "ነዋል": 9152,
      "ነን": 9153,
      "ትራንስፖርት": 9154,
      "ቫይረስ": 9155,
      "ቀዱ": 9156,
      "መሳተፍ": 9157,
      "ልባ": 9158,
      "ሁህ": 9159,
      "▁ፈረስ": 9160,
      "▁ይኖርብናል።": 9161,
      "▁ይናገራሉ": 9162,
      "▁ያመኑት": 9163,
      "▁የዩኒቨርሲቲ": 9164,
      "▁የቀሩት": 9165,
      "▁የምናውቀው": 9166,
      "▁የልጅ": 9167,
      "▁የቢ": 9168,
      "▁የሙሴ": 9169,
      "▁ዘፍጥረት": 9170,
      "▁ኮሚሽን": 9171,
      "▁ከአንተም": 9172,
      "▁ከተለያዩ": 9173,
      "▁ከኛ": 9174,
      "▁እንፈልጋለን።": 9175,
      "▁እንዲኖረው": 9176,
      "▁እናመሰግና": 9177,
      "▁እርዳኝ": 9178,
      "▁እጠይቃ": 9179,
      "▁እመኛ": 9180,
      "▁አገላለ": 9181,
      "▁አውታረመረቦች": 9182,
      "▁አብረውት": 9183,
      "▁አባታችሁ": 9184,
      "▁አልነበር": 9185,
      "▁ተመር": 9186,
      "▁በጥበብ": 9187,
      "▁በእጃ": 9188,
      "▁በአላህና": 9189,
      "▁በአስተ": 9190,
      "▁በቤት": 9191,
      "▁ሲሰሙ": 9192,
      "▁ሰለሞን": 9193,
      "▁ምሥጋና": 9194,
      "▁መመገብ": 9195,
      "▁መኪኖች": 9196,
      "▁ሕይወቴን": 9197,
      "▁ለማስቀመጥ": 9198,
      "▁SE": 9199,
      "▁53": 9200,
      "▁(ምሳሌ": 9201,
      "ጮኻ": 9202,
      "ዝገብ": 9203,
      "ካኝ": 9204,
      "እነሱም": 9205,
      "ነታቸውን": 9206,
      "ቧን": 9207,
      "ብጥ": 9208,
      "ቀሳቀስ": 9209,
      "ሪያቸው": 9210,
      "ረጡ": 9211,
      "lers": 9212,
      "ip": 9213,
      "▁ፍፁም": 9214,
      "▁ፋይል": 9215,
      "▁ይወስዳል.": 9216,
      "▁ይድ": 9217,
      "▁ይዞ": 9218,
      "▁ይሞታ": 9219,
      "▁ይለው": 9220,
      "▁ያውቃል፤": 9221,
      "▁ያዳም": 9222,
      "▁ያብራ": 9223,
      "▁የተማሪ": 9224,
      "▁የቀን": 9225,
      "▁የሚናገረው": 9226,
      "▁የመጽሐፉ": 9227,
      "▁የለውም.": 9228,
      "▁ዋጋው": 9229,
      "▁ክሪስ": 9230,
      "▁ከፈለጉ,": 9231,
      "▁ከእነዚያ": 9232,
      "▁ከው": 9233,
      "▁እውቀ": 9234,
      "▁እነግር": 9235,
      "▁ኢሜል": 9236,
      "▁አዳራሽ": 9237,
      "▁አብሬ": 9238,
      "▁አሰራ": 9239,
      "▁ተግዳሮ": 9240,
      "▁ተነሣ": 9241,
      "▁በደህና": 9242,
      "▁በአንቀጾቻችን": 9243,
      "▁በማግ": 9244,
      "▁በመተ": 9245,
      "▁በዕለት": 9246,
      "▁በቅድ": 9247,
      "▁ረዘም": 9248,
      "▁ማጥፋት": 9249,
      "▁ማምጣት": 9250,
      "▁ማህበር": 9251,
      "▁ለማመን": 9252,
      "▁ለመከተል": 9253,
      "▁ለድ": 9254,
      "▁99": 9255,
      "▁67": 9256,
      "▁(ሰ": 9257,
      "▁\"\"": 9258,
      "ፊቱን": 9259,
      "ጠየቅ": 9260,
      "ጠዋል።": 9261,
      "ዷል።": 9262,
      "ወሲብ": 9263,
      "ንጋ": 9264,
      "ኒስ": 9265,
      "ችኋል.": 9266,
      "ቸዋል,": 9267,
      "ቸዋለሁ፤": 9268,
      "ት.": 9269,
      "ታለሁ።": 9270,
      "ተሮች": 9271,
      "ሥራች": 9272,
      "ሠራር": 9273,
      "ሁ፥": 9274,
      "ap": 9275,
      "-መ": 9276,
      "▁ጓደኞቹ": 9277,
      "▁ግፍ": 9278,
      "▁ይችላል!": 9279,
      "▁ይመለሳሉ": 9280,
      "▁የተራ": 9281,
      "▁የሚያን": 9282,
      "▁ከአስር": 9283,
      "▁ከምት": 9284,
      "▁እንዳለብን": 9285,
      "▁እንቢ": 9286,
      "▁እናያለን": 9287,
      "▁አደራ": 9288,
      "▁አለብኝ?": 9289,
      "▁አደርገ": 9290,
      "▁በጥሞና": 9291,
      "▁በውኃ": 9292,
      "▁በኦ": 9293,
      "▁በሴ": 9294,
      "▁ምንድነው": 9295,
      "▁ምላሽ,": 9296,
      "▁መሆናችንን": 9297,
      "▁ሊውል": 9298,
      "▁ለመንከባከብ": 9299,
      "▁ለመነጋገር": 9300,
      "▁ለዓ": 9301,
      "▁ሁኔታውን": 9302,
      "▁\"በእ": 9303,
      "ገለግሉ": 9304,
      "ደቱ": 9305,
      "ውሰድ": 9306,
      "ውሉ": 9307,
      "ወዳቸው": 9308,
      "ከሰተው": 9309,
      "አማካይ": 9310,
      "ናችን": 9311,
      "ኑክሌር": 9312,
      "ቶችና": 9313,
      "ቶቻቸውም": 9314,
      "ረጉ": 9315,
      "ልማት": 9316,
      "ልሃል": 9317,
      "ለያይ": 9318,
      "ህግ": 9319,
      "ul": 9320,
      "ce": 9321,
      "12": 9322,
      "▁ፈረ": 9323,
      "▁ይዘን": 9324,
      "▁ይላል፦": 9325,
      "▁ያስችላ": 9326,
      "▁ያስቀም": 9327,
      "▁የእያንዳንዱ": 9328,
      "▁የሽያጭ": 9329,
      "▁የሚለ": 9330,
      "▁የክርስቲያን": 9331,
      "▁የሙ": 9332,
      "▁የሁሉ": 9333,
      "▁ዜግነት": 9334,
      "▁ውድቀት": 9335,
      "▁እንዲያውቁ": 9336,
      "▁እንባ": 9337,
      "▁እርሱንም": 9338,
      "▁እሆናለሁ": 9339,
      "▁አገልጋዮ": 9340,
      "▁አመነ": 9341,
      "▁አልችልም።": 9342,
      "▁አሉት.": 9343,
      "▁ተጫው": 9344,
      "▁ተጻፈ": 9345,
      "▁በእንዲህ": 9346,
      "▁በተለያየ": 9347,
      "▁በመጡ": 9348,
      "▁በቢ": 9349,
      "▁በሌላው": 9350,
      "▁ቅዱሳት": 9351,
      "▁ሴትየ": 9352,
      "▁ሰው፣": 9353,
      "▁ሰብዓዊ": 9354,
      "▁መከላከያ": 9355,
      "▁መሲ": 9356,
      "▁ሐኪም": 9357,
      "▁ሊታይ": 9358,
      "▁ለማድረግ": 9359,
      "▁ለመል": 9360,
      "▁ለሌ": 9361,
      "▁ህንድ": 9362,
      "▁2,": 9363,
      "▁193": 9364,
      "▁'አት": 9365,
      "ጠናከር": 9366,
      "ጠቢያ": 9367,
      "ጠም": 9368,
      "ያንዳንዳችን": 9369,
      "ዘዘ": 9370,
      "ኝታ": 9371,
      "ኗቸው": 9372,
      "ት፤": 9373,
      "ታሞች": 9374,
      "ብዛት": 9375,
      "ቀው።": 9376,
      "ቀዳ": 9377,
      "ስተኛው": 9378,
      "መውን": 9379,
      "os": 9380,
      "▁ፍትህ": 9381,
      "▁ጾም": 9382,
      "▁ደጋፊ": 9383,
      "▁ደመወዝ": 9384,
      "▁ይህንኑ": 9385,
      "▁የአው": 9386,
      "▁የሚፈራ": 9387,
      "▁የሚናገሩ": 9388,
      "▁የመሰ": 9389,
      "▁ዘንድ፥": 9390,
      "▁ዐይን": 9391,
      "▁ወሲባዊ": 9392,
      "▁ኮን": 9393,
      "▁ክለ": 9394,
      "▁ከአንቺ": 9395,
      "▁እድገ": 9396,
      "▁እየተባለ": 9397,
      "▁እንደሆንን": 9398,
      "▁አሰብኩ": 9399,
      "▁ተፈታ": 9400,
      "▁ብትሆን": 9401,
      "▁ባሪያዬ": 9402,
      "▁ባሪያህ": 9403,
      "▁በአማ": 9404,
      "▁በምላ": 9405,
      "▁መደምደ": 9406,
      "▁መጪ": 9407,
      "▁ሕንፃዎች": 9408,
      "▁ልጃገረ": 9409,
      "▁ለማሰብ": 9410,
      "▁ለመደሰት": 9411,
      "▁66": 9412,
      "ጸና": 9413,
      "ጣት)": 9414,
      "ጠኝነት": 9415,
      "ጎል": 9416,
      "ይኔ": 9417,
      "ወቃችሁ": 9418,
      "ከርካሪዎች": 9419,
      "ኦልም": 9420,
      "ታዘዙ": 9421,
      "ሻል።": 9422,
      "ሱ.": 9423,
      "ማጠናቀቅ": 9424,
      "መዝገብ": 9425,
      "መኑት": 9426,
      "መቀየር": 9427,
      "ላው": 9428,
      "ላእክት": 9429,
      "ለኝም": 9430,
      "17": 9431,
      "▁ፓው": 9432,
      "▁ጨዋታውን": 9433,
      "▁ግጥ": 9434,
      "▁ድርጣቢያ": 9435,
      "▁ደጅ": 9436,
      "▁ደሞ": 9437,
      "▁ያቺ": 9438,
      "▁የራስህን": 9439,
      "▁የሚከተ": 9440,
      "▁የሚስማማ": 9441,
      "▁የሚሉትን": 9442,
      "▁የጠበቀ": 9443,
      "▁ዝንባ": 9444,
      "▁ዘረጋ": 9445,
      "▁ዕለ": 9446,
      "▁ከአማ": 9447,
      "▁ከሴቶች": 9448,
      "▁እውነትም": 9449,
      "▁እንድንሆን": 9450,
      "▁እንደሚሉት": 9451,
      "▁እንደመሆኑ": 9452,
      "▁እናምናለን።": 9453,
      "▁እወቁ": 9454,
      "▁እኖራ": 9455,
      "▁እመርጣ": 9456,
      "▁አልላቸው።": 9457,
      "▁ነበሩት": 9458,
      "▁ቱሪስ": 9459,
      "▁ተቀምጠው": 9460,
      "▁ተቋቋመ": 9461,
      "▁ተማር": 9462,
      "▁በአንጻራዊ": 9463,
      "▁ቅጣቱ": 9464,
      "▁ሚስተር": 9465,
      "▁መልዕክቶችን": 9466,
      "▁ላክን፤": 9467,
      "▁ህክምና": 9468,
      "▁80%": 9469,
      "▁52": 9470,
      "▁\"እንዴት": 9471,
      "ገርም": 9472,
      "ያማ": 9473,
      "ወት": 9474,
      "አለሁ።": 9475,
      "ቶቻችንን": 9476,
      "ቁ፤": 9477,
      "ቀጥሉ": 9478,
      "ምርጫ": 9479,
      "ሎቻቸው": 9480,
      "ህናት": 9481,
      "_6": 9482,
      "VID": 9483,
      ":-": 9484,
      "▁ጎራ": 9485,
      "▁ጊዜያዊ": 9486,
      "▁ይመጣል፤": 9487,
      "▁የሚያስደ": 9488,
      "▁የሚረዱ": 9489,
      "▁የሚሉት": 9490,
      "▁ወዳጅነት": 9491,
      "▁ወተት": 9492,
      "▁ኪሎ": 9493,
      "▁አድራጊዎች": 9494,
      "▁አይወድም።": 9495,
      "▁አላማ": 9496,
      "▁ቸርነት": 9497,
      "▁ትሰማ": 9498,
      "▁ተናግሯል": 9499,
      "▁ተስማም": 9500,
      "▁ተሳታፊዎች": 9501,
      "▁ተከፈተ": 9502,
      "▁ብቅ": 9503,
      "▁በረዶ": 9504,
      "▁በኛ": 9505,
      "▁በንጉሡ": 9506,
      "▁ቆዳ": 9507,
      "▁ቀን)": 9508,
      "▁ማስተላለፍ": 9509,
      "▁መሰና": 9510,
      "▁መልካምን": 9511,
      "▁መጫወቻ": 9512,
      "▁መሓ": 9513,
      "▁ሊከናወን": 9514,
      "▁ሂደቱ": 9515,
      "ጻፉ": 9516,
      "ጸባረ": 9517,
      "ጎበኙ": 9518,
      "ግበር": 9519,
      "ኝ,": 9520,
      "ቸዋለህ።": 9521,
      "ቶቻችንም": 9522,
      "ሺህ": 9523,
      "ስ?": 9524,
      "ሰኞ": 9525,
      "ሮና": 9526,
      "ራል,": 9527,
      "መላለ": 9528,
      "መወሰን": 9529,
      "ላችኋል": 9530,
      "_8": 9531,
      "-3": 9532,
      "▁ዩኒቨርስቲ": 9533,
      "▁የኢሜል": 9534,
      "▁የተገኘ": 9535,
      "▁የሚጠብ": 9536,
      "▁የለኝም።": 9537,
      "▁የዲያብሎስ": 9538,
      "▁ከኃጢአ": 9539,
      "▁ከሙሴ": 9540,
      "▁እንደማንኛውም": 9541,
      "▁እመል": 9542,
      "▁አገባ": 9543,
      "▁አገሮች": 9544,
      "▁አይመስልም": 9545,
      "▁አይቼ": 9546,
      "▁አያስደን": 9547,
      "▁ነበራችሁ": 9548,
      "▁ትመለሳ": 9549,
      "▁ብሔራት": 9550,
      "▁ብድ": 9551,
      "▁ቢኾን": 9552,
      "▁ቅጥር": 9553,
      "▁ቁራጭ": 9554,
      "▁ሰማያዊ": 9555,
      "▁ማድረግ.": 9556,
      "▁መስካሪ": 9557,
      "▁መሳተፍ": 9558,
      "▁መርሆ": 9559,
      "▁መስተ": 9560,
      "▁ልጄን": 9561,
      "▁ልዩነቶች": 9562,
      "▁ልውው": 9563,
      "▁ሊሰጥ": 9564,
      "▁ሆኑ።": 9565,
      "▁ህዝቡን": 9566,
      "▁72": 9567,
      "▁\"ሰዎች": 9568,
      "ዲዎች": 9569,
      "ዖንን": 9570,
      "ወረድነው": 9571,
      "ኪዎች": 9572,
      "ነኛው": 9573,
      "ቾችን": 9574,
      "ተኝነት": 9575,
      "ባባቂ": 9576,
      "ባጭ": 9577,
      "ባሪ": 9578,
      "በረታታ": 9579,
      "በኛው": 9580,
      "በሉት": 9581,
      "ቀርበው": 9582,
      "ሹም": 9583,
      "ሪያዎች": 9584,
      "ሩበት": 9585,
      "ሥነ": 9586,
      "ለትም።": 9587,
      "▁ግድግዳ": 9588,
      "▁ገንዘብን": 9589,
      "▁ይናገሩ": 9590,
      "▁ይታመ": 9591,
      "▁ያውቃል?": 9592,
      "▁ያለፉ": 9593,
      "▁የአን": 9594,
      "▁የምንኖረው": 9595,
      "▁የሚወስድ": 9596,
      "▁ዝንባሌ": 9597,
      "▁ክፉን": 9598,
      "▁ከእናቱ": 9599,
      "▁ከምንም": 9600,
      "▁ከሆነው": 9601,
      "▁እንዳለን": 9602,
      "▁አገልጋዮቹ": 9603,
      "▁አይሰ": 9604,
      "▁አናውቅም።": 9605,
      "▁አሰልጣ": 9606,
      "▁አማልክ": 9607,
      "▁አመስግ": 9608,
      "▁አለው?": 9609,
      "▁አግባብ": 9610,
      "▁አቢ": 9611,
      "▁ትኬት": 9612,
      "▁ተናግሮ": 9613,
      "▁ብረት": 9614,
      "▁ቤተሰቦቹ": 9615,
      "▁ባለበት": 9616,
      "▁ባቢ": 9617,
      "▁በጠላ": 9618,
      "▁በገባ": 9619,
      "▁ቀጠለ": 9620,
      "▁ስራውን": 9621,
      "▁ስለሚያ": 9622,
      "▁ሰራተኛ": 9623,
      "▁ምእመ": 9624,
      "▁ማታለል": 9625,
      "▁ሙታንን": 9626,
      "▁መራመድ": 9627,
      "▁ለማጥናት": 9628,
      "▁ለማካፈል": 9629,
      "▁2003": 9630,
      "▁\"ወንድ": 9631,
      "▁\"ሰው": 9632,
      "ጆቻችሁ": 9633,
      "ዳሴ": 9634,
      "ደውን": 9635,
      "እና": 9636,
      "ቶቻችሁን": 9637,
      "በጎ": 9638,
      "ቋርጥ": 9639,
      "ሸሽ": 9640,
      "ሰራጨት": 9641,
      "ረፈረ": 9642,
      "ምራትን": 9643,
      "ሆኔ": 9644,
      "▁ፎቶግራፍ": 9645,
      "▁ግር": 9646,
      "▁ጋሻ": 9647,
      "▁ድምፁን": 9648,
      "▁ይገዛ": 9649,
      "▁ይኾ": 9650,
      "▁ያተኮረ": 9651,
      "▁የእግዚአብሄር": 9652,
      "▁የአባቱን": 9653,
      "▁የተናገረውን": 9654,
      "▁እንዲመለሱ": 9655,
      "▁አድማ": 9656,
      "▁አካባቢያዊ": 9657,
      "▁አትሁን": 9658,
      "▁አብን": 9659,
      "▁አልቻለም።": 9660,
      "▁አለን.": 9661,
      "▁ነበርና": 9662,
      "▁ትንሳኤ": 9663,
      "▁ታሪኮችን": 9664,
      "▁ተዋናይ": 9665,
      "▁ተገናኝ": 9666,
      "▁ቦርድ": 9667,
      "▁በቀስ": 9668,
      "▁በማድረ": 9669,
      "▁መደምደሚያ": 9670,
      "▁ለየት": 9671,
      "▁ሃላፊነት": 9672,
      "▁Mic": 9673,
      "▁250": 9674,
      "▁150": 9675,
      "ጓዛ": 9676,
      "ይንኛ": 9677,
      "የቱ": 9678,
      "ከለከለ": 9679,
      "ኑሕ": 9680,
      "ነርሱም": 9681,
      "ብቃ": 9682,
      "በዋል": 9683,
      "ቆጣጠሪያ": 9684,
      "ቁጥጥር": 9685,
      "ሰጣችሁ": 9686,
      "መጣው": 9687,
      "▁ፈቃደኞች": 9688,
      "▁ፈውስ": 9689,
      "▁ጥቂትን": 9690,
      "▁ጠፋ": 9691,
      "▁ጓደኝነት": 9692,
      "▁ይኖረዋል": 9693,
      "▁ይነግሩ": 9694,
      "▁ይቻላል.": 9695,
      "▁ያሳየ": 9696,
      "▁የተሳካ": 9697,
      "▁የተባለው": 9698,
      "▁የሚገርመው": 9699,
      "▁የሚያስፈልጉ": 9700,
      "▁የሚበልጡ": 9701,
      "▁ክርስቲያናት": 9702,
      "▁ከአራት": 9703,
      "▁ከቅ": 9704,
      "▁አይገባም": 9705,
      "▁አይደለችም።": 9706,
      "▁አይደላችሁ": 9707,
      "▁አይቻልም።": 9708,
      "▁አይሁዳውያን": 9709,
      "▁አይታወቅ": 9710,
      "▁አያመሰግኑ": 9711,
      "▁አያመሰግኑም።": 9712,
      "▁ነገዶች": 9713,
      "▁ተቃው": 9714,
      "▁ቤተሰቦቼ": 9715,
      "▁በአምላካ": 9716,
      "▁በኋላ፣": 9717,
      "▁በብር": 9718,
      "▁በሉ።": 9719,
      "▁ቆይታ": 9720,
      "▁ቀደ": 9721,
      "▁ሰዎች፣": 9722,
      "▁ሰጣቸው።": 9723,
      "▁ሰሙ": 9724,
      "▁ምንድር": 9725,
      "▁ማቆየት": 9726,
      "▁መንጋ": 9727,
      "▁መስፈርት": 9728,
      "▁መተኛት": 9729,
      "▁ሉጥ": 9730,
      "▁[ተጨማሪ": 9731,
      "ፎም": 9732,
      "ጥቁር": 9733,
      "ጎዱ": 9734,
      "ደርሰው": 9735,
      "ደጃ": 9736,
      "ይንት": 9737,
      "ውይ": 9738,
      "ኮራ": 9739,
      "ከተማይቱ": 9740,
      "ከፈል": 9741,
      "ኣብሔር": 9742,
      "ነጻ": 9743,
      "ተኞቻችንን": 9744,
      "ብል": 9745,
      "ረዳው": 9746,
      "ማሉ": 9747,
      "▁ፍጆ": 9748,
      "▁ፋይሎች": 9749,
      "▁ጭንቀ": 9750,
      "▁ይመስለኛል።": 9751,
      "▁የወደፊቱን": 9752,
      "▁የትኞቹ": 9753,
      "▁የሚስብ": 9754,
      "▁የመታ": 9755,
      "▁የግራ": 9756,
      "▁የሳይንስ": 9757,
      "▁የለህ": 9758,
      "▁ወኪል": 9759,
      "▁ኪሳራ": 9760,
      "▁እየተከናወነ": 9761,
      "▁እየሞከረ": 9762,
      "▁እናገራ": 9763,
      "▁ኤስ": 9764,
      "▁አይኖርም።": 9765,
      "▁አዝናኝ": 9766,
      "▁አምናለሁ።": 9767,
      "▁አምባ": 9768,
      "▁ትሞታ": 9769,
      "▁ታያለህ": 9770,
      "▁ተለዋዋጭ": 9771,
      "▁ተናገረው": 9772,
      "▁ተም": 9773,
      "▁ተላ": 9774,
      "▁በፍፁም": 9775,
      "▁በውስጥ": 9776,
      "▁በትር": 9777,
      "▁በታምራቶቻችን": 9778,
      "▁በመደ": 9779,
      "▁በጨ": 9780,
      "▁ቆይተዋል": 9781,
      "▁ሽፋን": 9782,
      "▁ስደተኛ": 9783,
      "▁ሲመጡ": 9784,
      "▁ሰብስ": 9785,
      "▁ሰምተናል": 9786,
      "▁ሰበ": 9787,
      "▁ሞኝነት": 9788,
      "▁ማስተካከ": 9789,
      "▁መንቀጥቀጥ": 9790,
      "▁መወለድ": 9791,
      "▁መርሃ": 9792,
      "▁ሀይል": 9793,
      "▁is": 9794,
      "▁US": 9795,
      "▁Twitter": 9796,
      "▁St": 9797,
      "ፊልም": 9798,
      "ጻጸር": 9799,
      "ጸልዩ": 9800,
      "ጧል።": 9801,
      "ጠፍ": 9802,
      "ገኛል": 9803,
      "ዋለህ": 9804,
      "ወልድ": 9805,
      "ወገ": 9806,
      "ከማቻ": 9807,
      "እንግዲህ": 9808,
      "ብኝ።": 9809,
      "ቅረ": 9810,
      "ስተካከ": 9811,
      "ስፋት": 9812,
      "ሰሙት": 9813,
      "ማርክ": 9814,
      "መጣጣኝ": 9815,
      "ህሉ": 9816,
      "ሁት።": 9817,
      "ors": 9818,
      "op": 9819,
      "500": 9820,
      "24": 9821,
      "▁ፍልስ": 9822,
      "▁ጌታቸውን": 9823,
      "▁ጋኔን": 9824,
      "▁ድንገተኛ": 9825,
      "▁ይመለከታል": 9826,
      "▁ይረ": 9827,
      "▁ይመር": 9828,
      "▁የተመሰረተ": 9829,
      "▁የተሰጡ": 9830,
      "▁የቤተሰቡ": 9831,
      "▁የሚኖረው": 9832,
      "▁ወቅታዊ": 9833,
      "▁ካገኘ": 9834,
      "▁ከጥንት": 9835,
      "▁ከሶስት": 9836,
      "▁እወዳለሁ።": 9837,
      "▁እንድንችል": 9838,
      "▁እንደምችል": 9839,
      "▁እዛ": 9840,
      "▁አያስፈልግዎትም": 9841,
      "▁አውራጃ": 9842,
      "▁አሳይቷል": 9843,
      "▁ንግግ": 9844,
      "▁ናይ": 9845,
      "▁ትውል": 9846,
      "▁ተለይቶ": 9847,
      "▁ባልንጀ": 9848,
      "▁በተሞላ": 9849,
      "▁በምዕራ": 9850,
      "▁በማለዳ": 9851,
      "▁በጋ": 9852,
      "▁በዚያች": 9853,
      "▁ቅርንጫፍ": 9854,
      "▁ሲታይ": 9855,
      "▁ማግኛ": 9856,
      "▁መንገር": 9857,
      "▁ለት": 9858,
      "▁com": 9859,
      "▁20%": 9860,
      "▁\"እርሱም": 9861,
      "▁\"ስ": 9862,
      "ፕላኔ": 9863,
      "ፍሬዎች": 9864,
      "ፌሶን": 9865,
      "ፃፀር": 9866,
      "ጠቁ": 9867,
      "ገኝም።": 9868,
      "ገልጽ": 9869,
      "ዲድ": 9870,
      "ይናንስ": 9871,
      "ዘኛ": 9872,
      "ናልና": 9873,
      "ኑንም": 9874,
      "ተርጎም": 9875,
      "ተውም": 9876,
      "ብስ": 9877,
      "በላሹ": 9878,
      "ስተኞች": 9879,
      "ማማት": 9880,
      "መሳሰ": 9881,
      "መመስረት": 9882,
      "ህተት": 9883,
      "lersች": 9884,
      "▁ገመድ": 9885,
      "▁ይወድቃ": 9886,
      "▁ያቀርባል.": 9887,
      "▁ያላት": 9888,
      "▁የምድ": 9889,
      "▁የምሥራች": 9890,
      "▁የለበትም።": 9891,
      "▁የክፉ": 9892,
      "▁ዘወር": 9893,
      "▁ውጤታማነት": 9894,
      "▁ውቅያ": 9895,
      "▁ወዲያውም": 9896,
      "▁ከኃጢአት": 9897,
      "▁እንደሌለው": 9898,
      "▁እናቱን": 9899,
      "▁እርሳቸው": 9900,
      "▁አሳልፈው": 9901,
      "▁ታና": 9902,
      "▁ተቀመጡ": 9903,
      "▁ተራራው": 9904,
      "▁ብዙሃን": 9905,
      "▁ብሄራዊ": 9906,
      "▁ብስ": 9907,
      "▁በእርሳቸው": 9908,
      "▁በአስ": 9909,
      "▁በመጽሐፉ": 9910,
      "▁በመልክ": 9911,
      "▁በሕይወታቸው": 9912,
      "▁ሽብር": 9913,
      "▁ስለመ": 9914,
      "▁ሰፋ": 9915,
      "▁ምሥራቅ": 9916,
      "▁መፍትሄዎች": 9917,
      "▁መመዝገብ": 9918,
      "▁ልጃገ": 9919,
      "▁ልጃገረድ": 9920,
      "▁ልባችን": 9921,
      "▁ሊያስከት": 9922,
      "▁ሄደ፤": 9923,
      "▁ሀያ": 9924,
      "▁جل": 9925,
      "▁Bitcoin": 9926,
      "▁(እነሱ": 9927,
      "ድጋ": 9928,
      "ኪም": 9929,
      "ናገሩትን": 9930,
      "ታውቁት": 9931,
      "ታቸውንም": 9932,
      "ብላ": 9933,
      "ርዝር": 9934,
      "ራይ": 9935,
      "ሄድበት": 9936,
      "ሃቸው": 9937,
      "ryp": 9938,
      "ive": 9939,
      "har": 9940,
      "▁ጥላቻ": 9941,
      "▁ጢሞ": 9942,
      "▁ጠንቅ": 9943,
      "▁ጊዜዎች": 9944,
      "▁ገዝ": 9945,
      "▁ጀልባ": 9946,
      "▁ዲዛ": 9947,
      "▁ይወዳሉ": 9948,
      "▁ይቆጠራ": 9949,
      "▁ይሆናል!": 9950,
      "▁ይደሰቱ": 9951,
      "▁ይደረ": 9952,
      "▁የታተ": 9953,
      "▁ከሃ": 9954,
      "▁እንደዛ": 9955,
      "▁እንረዳለን።": 9956,
      "▁እናስ": 9957,
      "▁እነግራችኋለሁ": 9958,
      "▁እችላለሁ።": 9959,
      "▁አውቶቡስ": 9960,
      "▁አላቸውም።": 9961,
      "▁አለባት": 9962,
      "▁ናቸውና።": 9963,
      "▁ነገሩን": 9964,
      "▁ነውን": 9965,
      "▁ትሆናለህ።": 9966,
      "▁ትስ": 9967,
      "▁ታውቅ": 9968,
      "▁ተመዝግ": 9969,
      "▁ተከፍ": 9970,
      "▁ብሎኛል": 9971,
      "▁ቤታችን": 9972,
      "▁በገነት": 9973,
      "▁በአፍ": 9974,
      "▁ሲመለከቱ": 9975,
      "▁ምክንያቱም,": 9976,
      "▁ማግባት": 9977,
      "▁ማመልከት": 9978,
      "▁መልክተኞችን": 9979,
      "▁ለፈራ": 9980,
      "▁ሁለታችሁም": 9981,
      "▁43|": 9982,
      "▁(ሙሳም)": 9983,
      "ፖላንድ": 9984,
      "ፈፀም": 9985,
      "ፈራም": 9986,
      "ጥቅ": 9987,
      "ጃን": 9988,
      "ኾናችሁ": 9989,
      "ኩህ": 9990,
      "ነውም": 9991,
      "ችበት": 9992,
      "ቶችዎ": 9993,
      "ምድና": 9994,
      "ልኝ።": 9995,
      "▁‹‹በ": 9996,
      "▁ፈጥነው": 9997,
      "▁ፈጣሪዎች": 9998,
      "▁ጠብቅ": 9999,
      "▁ድንበ": 10000,
      "▁ይሆናል?": 10001,
      "▁ያስችል": 10002,
      "▁ያለኝን": 10003,
      "▁ያክል": 10004,
      "▁የተፈጠረው": 10005,
      "▁የባለሙያ": 10006,
      "▁የራሳችን": 10007,
      "▁የሚፈልገው": 10008,
      "▁ካንተ": 10009,
      "▁እንደማይችል": 10010,
      "▁አገና": 10011,
      "▁አቀፋዊ": 10012,
      "▁አለብኝ።": 10013,
      "▁ነን\"": 10014,
      "▁ነበር...": 10015,
      "▁ትወጣ": 10016,
      "▁ታማኝነት": 10017,
      "▁ተገኝቷል": 10018,
      "▁ተገዢ": 10019,
      "▁ተደነ": 10020,
      "▁ባቢሎን": 10021,
      "▁በዐ": 10022,
      "▁ስዕል": 10023,
      "▁ምግባ": 10024,
      "▁ምሳ": 10025,
      "▁ማክሰኞ": 10026,
      "▁መምህር": 10027,
      "▁ሐምሌ": 10028,
      "▁ልባችሁ": 10029,
      "▁ሊያደርገው": 10030,
      "▁ለመጥ": 10031,
      "▁ሃይማኖቶች": 10032,
      "▁82": 10033,
      "▁....": 10034,
      "▁(የተ": 10035,
      "ዌይ": 10036,
      "እመና": 10037,
      "ቦቻቸውን": 10038,
      "ብርኤል": 10039,
      "ብሩ": 10040,
      "ቀለ": 10041,
      "ስራኤላውያን": 10042,
      "ራቢ": 10043,
      "ምፕ": 10044,
      "ምስራቅ": 10045,
      "ማውጣት": 10046,
      "ማምን": 10047,
      "መገብ": 10048,
      "ለትም": 10049,
      "ለታል": 10050,
      "9)": 10051,
      "-የ": 10052,
      "▁ፈገግታ": 10053,
      "▁ጎጂ": 10054,
      "▁ድክ": 10055,
      "▁ይፈልጋል.": 10056,
      "▁የፈለጉትን": 10057,
      "▁የእነሱን": 10058,
      "▁የአይ": 10059,
      "▁የትኛውም": 10060,
      "▁የተፈጠሩ": 10061,
      "▁የተገነባው": 10062,
      "▁የተረጋገጠ": 10063,
      "▁የሚገ": 10064,
      "▁የፀ": 10065,
      "▁የቱ": 10066,
      "▁የቤ": 10067,
      "▁ዋነኛው": 10068,
      "▁እጃቸውን": 10069,
      "▁እየተካሄደ": 10070,
      "▁እንጂ,": 10071,
      "▁እንዳይሆን": 10072,
      "▁እንዲመጣ": 10073,
      "▁እገዳ": 10074,
      "▁አንጀ": 10075,
      "▁አስተም": 10076,
      "▁አስቀም": 10077,
      "▁አልረሳ": 10078,
      "▁ናይጄሪያ": 10079,
      "▁ነበረ፤": 10080,
      "▁ነች።": 10081,
      "▁ትሰጣ": 10082,
      "▁ተጠባባቂ": 10083,
      "▁ተባለ": 10084,
      "▁ተምረ": 10085,
      "▁ባይኖር": 10086,
      "▁በጌታውም": 10087,
      "▁በአስር": 10088,
      "▁በበጋ": 10089,
      "▁በቅዱ": 10090,
      "▁በሳ": 10091,
      "▁ሲሳይ": 10092,
      "▁ሥራዎቻቸውን": 10093,
      "▁ማስረጃዎች": 10094,
      "▁ማጨስ": 10095,
      "▁ማሟላት": 10096,
      "▁መድኃኒት": 10097,
      "▁መስኮት": 10098,
      "▁መመስ": 10099,
      "▁መመርመር": 10100,
      "▁ሐሰ": 10101,
      "▁you": 10102,
      "▁2022": 10103,
      "▁\"የሚ": 10104,
      "ፈታ": 10105,
      "ጠነቅ": 10106,
      "ዎትም።": 10107,
      "ኩረት": 10108,
      "ከትም": 10109,
      "እምና": 10110,
      "ኢን": 10111,
      "ንጻ": 10112,
      "ቢያን": 10113,
      "ቃችሁ": 10114,
      "ስዊ": 10115,
      "ሰውን": 10116,
      "ራኝ": 10117,
      "ራቂ": 10118,
      "ሜዳ": 10119,
      "ማስገባት": 10120,
      "ሚሊዮ": 10121,
      "መጡት": 10122,
      "ሃለሁ\"": 10123,
      "ver": 10124,
      "ew": 10125,
      "em": 10126,
      "▁ፊቴን": 10127,
      "▁ጥቅል": 10128,
      "▁ግጭት": 10129,
      "▁ድልድ": 10130,
      "▁ድካም": 10131,
      "▁ደንበኞችን": 10132,
      "▁ይሰራሉ": 10133,
      "▁ያቀርባል": 10134,
      "▁ያላችሁ": 10135,
      "▁የሚከተለውን": 10136,
      "▁የመረጥ": 10137,
      "▁የለባቸውም": 10138,
      "▁የዮሴፍ": 10139,
      "▁የኃ": 10140,
      "▁የቻ": 10141,
      "▁የላችሁ": 10142,
      "▁ዕውሮች": 10143,
      "▁ዓሳ": 10144,
      "▁ውድድ": 10145,
      "▁ከመጣደ": 10146,
      "▁ከቻሉ": 10147,
      "▁ኧረ": 10148,
      "▁እንዲሠራ": 10149,
      "▁እንደተጠቀሰው": 10150,
      "▁እንደምትችል": 10151,
      "▁እንደማስ": 10152,
      "▁እነሆም": 10153,
      "▁እገም": 10154,
      "▁አይደለም...": 10155,
      "▁አይደለህም": 10156,
      "▁አቀረበ": 10157,
      "▁አልታ": 10158,
      "▁አዕምሮ": 10159,
      "▁አወቁ": 10160,
      "▁ነበር፥": 10161,
      "▁ተኛ": 10162,
      "▁ብና": 10163,
      "▁ባሕርያት": 10164,
      "▁በቦታው": 10165,
      "▁በማወቅ": 10166,
      "▁በመመር": 10167,
      "▁በመመርኮዝ": 10168,
      "▁በሕይወትህ": 10169,
      "▁በሩን": 10170,
      "▁ቀን፣": 10171,
      "▁ሰጠነው፤": 10172,
      "▁ሥነ-": 10173,
      "▁ሚስቱን": 10174,
      "▁መሆኑን,": 10175,
      "▁መደሰት": 10176,
      "▁ልጥ": 10177,
      "▁ልኮ": 10178,
      "▁ለነገሩ": 10179,
      "▁90%": 10180,
      "▁(ሁሉ": 10181,
      "▁\"ብዙ": 10182,
      "ጽፉ": 10183,
      "ደይ": 10184,
      "ዜና": 10185,
      "ወረድን": 10186,
      "ከራከራ": 10187,
      "ኖሩበት": 10188,
      "ችልበት": 10189,
      "ቧል።": 10190,
      "ባበል": 10191,
      "ሸፈን": 10192,
      "ሰሳ": 10193,
      "ራቱን": 10194,
      "ራሴ": 10195,
      "ምሥራቅ": 10196,
      "rypto": 10197,
      "▁ፋንታ": 10198,
      "▁ግፊት": 10199,
      "▁ግዴ": 10200,
      "▁ይጠቀማሉ": 10201,
[...]
