{
  "<pad>": 0,
  "<unk>": 1,
  "<s>": 2,
  "</s>": 3,
  "!": 4,
  "\"": 5,
  "#": 6,
  "$": 7,
  "%": 8,
  "&": 9,
  "'": 10,
  "(": 11,
  ")": 12,
  "*": 13,
  "+": 14,
  ",": 15,
  "-": 16,
  ".": 17,
  "/": 18,
  "0": 19,
  "1": 20,
  "2": 21,
  "3": 22,
  "4": 23,
  "5": 24,
  "6": 25,
  "7": 26,
  "8": 27,
  "9": 28,
  ":": 29,
  ";": 30,
  "<": 31,
  "=": 32,
  ">": 33,
  "?": 34,
  "@": 35,
  "A": 36,
  "B": 37,
  "C": 38,
  "D": 39,
  "E": 40,
  "F": 41,
  "G": 42,
  "H": 43,
  "I": 44,
  "J": 45,
  "K": 46,
  "L": 47,
  "M": 48,
  "N": 49,
  "O": 50,
  "P": 51,
  "Q": 52,
  "R": 53,
  "S": 54,
  "T": 55,
  "U": 56,
  "V": 57,
  "W": 58,
  "X": 59,
  "Y": 60,
  "Z": 61,
  "[": 62,
  "\\": 63,
  "]": 64,
  "^": 65,
  "_": 66,
  "a": 67,
  "b": 68,
  "c": 69,
  "d": 70,
  "e": 71,
  "f": 72,
  "g": 73,
  "h": 74,
  "i": 75,
  "j": 76,
  "k": 77,
  "l": 78,
  "m": 79,
  "n": 80,
  "o": 81,
  "p": 82,
  "q": 83,
  "r": 84,
  "s": 85,
  "t": 86,
  "u": 87,
  "v": 88,
  "w": 89,
  "x": 90,
  "y": 91,
  "z": 92,
  "{": 93,
  "|": 94,
  "}": 95,
  "~": 96,
  "¡": 97,
  "¢": 98,
  "£": 99,
  "¤": 100,
  "¥": 101,
  "¦": 102,
  "§": 103,
  "©": 104,
  "¬": 105,
  "®": 106,
  "°": 107,
  "±": 108,
  "¶": 109,
  "·": 110,
  "¿": 111,
  "À": 112,
  "Á": 113,
  "Â": 114,
  "Ã": 115,
  "Ä": 116,
  "Å": 117,
  "Æ": 118,
  "Ç": 119,
  "È": 120,
  "É": 121,
  "Ê": 122,
  "Ë": 123,
  "Î": 124,
  "Ð": 125,
  "Ñ": 126,
  "Ó": 127,
  "Ô": 128,
  "Õ": 129,
  "Ö": 130,
  "×": 131,
  "Ø": 132,
  "Ù": 133,
  "Ú": 134,
  "Û": 135,
  "Ü": 136,
  "Ý": 137,
  "Þ": 138,
  "ß": 139,
  "à": 140,
  "á": 141,
  "â": 142,
  "ã": 143,
  "ä": 144,
  "å": 145,
  "æ": 146,
  "ç": 147,
  "è": 148,
  "é": 149,
  "ê": 150,
  "ë": 151,
  "ì": 152,
  "í": 153,
  "î": 154,
  "ï": 155,
  "ð": 156,
  "ñ": 157,
  "ò": 158,
  "ó": 159,
  "ô": 160,
  "õ": 161,
  "ö": 162,
  "÷": 163,
  "ø": 164,
  "ù": 165,
  "ú": 166,
  "û": 167,
  "ü": 168,
  "ý": 169,
  "þ": 170,
  "ÿ": 171,
  "Ā": 172,
  "ā": 173,
  "ć": 174,
  "ĉ": 175,
  "Č": 176,
  "č": 177,
  "ē": 178,
  "ę": 179,
  "ě": 180,
  "Ğ": 181,
  "ğ": 182,
  "Ġ": 183,
  "ġ": 184,
  "ħ": 185,
  "ī": 186,
  "İ": 187,
  "ı": 188,
  "ł": 189,
  "ń": 190,
  "ň": 191,
  "ō": 192,
  "Œ": 193,
  "œ": 194,
  "ř": 195,
  "Ş": 196,
  "ş": 197,
  "Š": 198,
  "š": 199,
  "ť": 200,
  "ū": 201,
  "ŭ": 202,
  "Ÿ": 203,
  "Ż": 204,
  "Ž": 205,
  "ž": 206,
  "ƅ": 207,
  "Ɛ": 208,
  "ƒ": 209,
  "ư": 210,
  "ǎ": 211,
  "Ǐ": 212,
  "ǒ": 213,
  "ǔ": 214,
  "ǘ": 215,
  "Ǜ": 216,
  "ǝ": 217,
  "ș": 218,
  "ɔ": 219,
  "ə": 220,
  "ɛ": 221,
  "ɹ": 222,
  "ɻ": 223,
  "ɽ": 224,
  "ɾ": 225,
  "ʀ": 226,
  "ʁ": 227,
  "ʌ": 228,
  "ʔ": 229,
  "ʕ": 230,
  "ʺ": 231,
  "ʻ": 232,
  "ʼ": 233,
  "ʽ": 234,
  "ʾ": 235,
  "ʿ": 236,
  "˂": 237,
  "˃": 238,
  "˅": 239,
  "ˆ": 240,
  "ˈ": 241,
  "́": 242,
  "̂": 243,
  "̃": 244,
  "̄": 245,
  "̇": 246,
  "̈": 247,
  "̊": 248,
  "̋": 249,
  "̎": 250,
  "̔": 251,
  "̕": 252,
  "̣": 253,
  "̧": 254,
  "̷": 255,
  "Α": 256,
  "Δ": 257,
  "Ε": 258,
  "Η": 259,
  "Ι": 260,
  "Κ": 261,
  "Μ": 262,
  "Π": 263,
  "Τ": 264,
  "Υ": 265,
  "Φ": 266,
  "Ω": 267,
  "ά": 268,
  "έ": 269,
  "ή": 270,
  "ί": 271,
  "α": 272,
  "β": 273,
  "γ": 274,
  "δ": 275,
  "ε": 276,
  "ζ": 277,
  "η": 278,
  "θ": 279,
  "ι": 280,
  "κ": 281,
  "λ": 282,
  "μ": 283,
  "ν": 284,
  "ξ": 285,
  "ο": 286,
  "π": 287,
  "ρ": 288,
  "ς": 289,
  "σ": 290,
  "τ": 291,
  "υ": 292,
  "φ": 293,
  "χ": 294,
  "ψ": 295,
  "ω": 296,
  "ό": 297,
  "ύ": 298,
  "ώ": 299,
  "Ѕ": 300,
  "А": 301,
  "Б": 302,
  "В": 303,
  "Г": 304,
  "Д": 305,
  "Е": 306,
  "З": 307,
  "И": 308,
  "К": 309,
  "Л": 310,
  "М": 311,
  "Н": 312,
  "О": 313,
  "П": 314,
  "Р": 315,
  "С": 316,
  "Т": 317,
  "У": 318,
  "Ф": 319,
  "Х": 320,
  "Ш": 321,
  "а": 322,
  "б": 323,
  "в": 324,
  "г": 325,
  "д": 326,
  "е": 327,
  "з": 328,
  "и": 329,
  "й": 330,
  "к": 331,
  "л": 332,
  "м": 333,
  "н": 334,
  "о": 335,
  "п": 336,
  "р": 337,
  "с": 338,
  "т": 339,
  "у": 340,
  "ф": 341,
  "х": 342,
  "ц": 343,
  "ч": 344,
  "ш": 345,
  "щ": 346,
  "ъ": 347,
  "ы": 348,
  "ь": 349,
  "э": 350,
  "ю": 351,
  "я": 352,
  "ё": 353,
  "ѕ": 354,
  "і": 355,
  "ј": 356,
  "ѣ": 357,
  "҆": 358,
  "҉": 359,
  "ү": 360,
  "Ԍ": 361,
  "ԝ": 362,
  "Փ": 363,
  "ա": 364,
  "բ": 365,
  "ե": 366,
  "է": 367,
  "ը": 368,
  "լ": 369,
  "խ": 370,
  "ո": 371,
  "պ": 372,
  "ռ": 373,
  "֑": 374,
  "֗": 375,
  "֣": 376,
  "ְ": 377,
  "ֱ": 378,
  "ֲ": 379,
  "ֳ": 380,
  "ִ": 381,
  "ֵ": 382,
  "ֶ": 383,
  "ַ": 384,
  "ָ": 385,
  "ֹ": 386,
  "ֻ": 387,
  "ּ": 388,
  "ׁ": 389,
  "ׂ": 390,
  "א": 391,
  "ב": 392,
  "ג": 393,
  "ד": 394,
  "ה": 395,
  "ו": 396,
  "ז": 397,
  "ח": 398,
  "ט": 399,
  "י": 400,
  "כ": 401,
  "ל": 402,
  "ם": 403,
  "מ": 404,
  "ן": 405,
  "נ": 406,
  "ס": 407,
  "ע": 408,
  "ף": 409,
  "פ": 410,
  "צ": 411,
  "ק": 412,
  "ר": 413,
  "ש": 414,
  "ת": 415,
  "،": 416,
  "؟": 417,
  "ء": 418,
  "آ": 419,
  "أ": 420,
  "ؤ": 421,
  "إ": 422,
  "ئ": 423,
  "ا": 424,
  "ب": 425,
  "ة": 426,
  "ت": 427,
  "ج": 428,
  "ح": 429,
  "خ": 430,
  "د": 431,
  "ذ": 432,
  "ر": 433,
  "ز": 434,
  "س": 435,
  "ش": 436,
  "ص": 437,
  "ض": 438,
  "ط": 439,
  "ظ": 440,
  "ع": 441,
  "غ": 442,
  "ف": 443,
  "ق": 444,
  "ك": 445,
  "ل": 446,
  "م": 447,
  "ن": 448,
  "ه": 449,
  "و": 450,
  "ى": 451,
  "ي": 452,
  "ً": 453,
  "ٌ": 454,
  "ٍ": 455,
  "َ": 456,
  "ُ": 457,
  "ِ": 458,
  "ّ": 459,
  "ْ": 460,
  "٤": 461,
  "ٰ": 462,
  "پ": 463,
  "ڑ": 464,
  "ک": 465,
  "گ": 466,
  "ۆ": 467,
  "ی": 468,
  "ے": 469,
  "۞": 470,
  "۩": 471,
  "ܐ": 472,
  "ܒ": 473,
  "ܘ": 474,
  "ܛ": 475,
  "ܣ": 476,
  "ܦ": 477,
  "ܪ": 478,
  "ܬ": 479,
  "ߴ": 480,
  "߹": 481,
  "ं": 482,
  "ः": 483,
  "अ": 484,
  "आ": 485,
  "क": 486,
  "ख": 487,
  "ग": 488,
  "च": 489,
  "ज": 490,
  "ड": 491,
  "ण": 492,
  "त": 493,
  "द": 494,
  "न": 495,
  "प": 496,
  "फ": 497,
  "ब": 498,
  "भ": 499,
  "म": 500,
  "य": 501,
  "र": 502,
  "ल": 503,
  "ळ": 504,
  "व": 505,
  "श": 506,
  "स": 507,
  "ह": 508,
  "़": 509,
  "ा": 510,
  "ि": 511,
  "ी": 512,
  "ु": 513,
  "े": 514,
  "ै": 515,
  "ो": 516,
  "ौ": 517,
  "्": 518,
  "ం": 519,
  "క": 520,
  "చ": 521,
  "డ": 522,
  "త": 523,
  "న": 524,
  "ప": 525,
  "మ": 526,
  "య": 527,
  "ర": 528,
  "ల": 529,
  "స": 530,
  "ి": 531,
  "ీ": 532,
  "ు": 533,
  "ై": 534,
  "్": 535,
  "ಕ": 536,
  "ಡ": 537,
  "ನ": 538,
  "್": 539,
  "ം": 540,
  "മ": 541,
  "യ": 542,
  "ല": 543,
  "ള": 544,
  "ാ": 545,
  "ก": 546,
  "ง": 547,
  "ต": 548,
  "บ": 549,
  "พ": 550,
  "ฟ": 551,
  "ม": 552,
  "ย": 553,
  "ร": 554,
  "ล": 555,
  "ส": 556,
  "ห": 557,
  "อ": 558,
  "ั": 559,
  "า": 560,
  "ิ": 561,
  "ี": 562,
  "เ": 563,
  "โ": 564,
  "่": 565,
  "๑": 566,
  "စ": 567,
  "ဆ": 568,
  "ဒ": 569,
  "ပ": 570,
  "ာ": 571,
  "ိ": 572,
  "ီ": 573,
  "ု": 574,
  "း": 575,
  "်": 576,
  "၊": 577,
  "ვ": 578,
  "თ": 579,
  "ი": 580,
  "ნ": 581,
  "ს": 582,
  "ღ": 583,
  "წ": 584,
  "ሀ": 585,
  "ሁ": 586,
  "ሂ": 587,
  "ሃ": 588,
  "ሄ": 589,
  "ህ": 590,
  "ሆ": 591,
  "ሇ": 592,
  "ለ": 593,
  "ሉ": 594,
  "ሊ": 595,
  "ላ": 596,
  "ሌ": 597,
  "ል": 598,
  "ሎ": 599,
  "ሏ": 600,
  "ሐ": 601,
  "ሑ": 602,
  "ሒ": 603,
  "ሓ": 604,
  "ሔ": 605,
  "ሕ": 606,
  "ሖ": 607,
  "ሗ": 608,
  "መ": 609,
  "ሙ": 610,
  "ሚ": 611,
  "ማ": 612,
  "ሜ": 613,
  "ም": 614,
  "ሞ": 615,
  "ሟ": 616,
  "ሠ": 617,
  "ሡ": 618,
  "ሢ": 619,
  "ሣ": 620,
  "ሤ": 621,
  "ሥ": 622,
  "ሦ": 623,
  "ሧ": 624,
  "ረ": 625,
  "ሩ": 626,
  "ሪ": 627,
  "ራ": 628,
  "ሬ": 629,
  "ር": 630,
  "ሮ": 631,
  "ሯ": 632,
  "ሰ": 633,
  "ሱ": 634,
  "ሲ": 635,
  "ሳ": 636,
  "ሴ": 637,
  "ስ": 638,
  "ሶ": 639,
  "ሷ": 640,
  "ሸ": 641,
  "ሹ": 642,
  "ሺ": 643,
  "ሻ": 644,
  "ሼ": 645,
  "ሽ": 646,
  "ሾ": 647,
  "ሿ": 648,
  "ቀ": 649,
  "ቁ": 650,
  "ቂ": 651,
  "ቃ": 652,
  "ቄ": 653,
  "ቅ": 654,
  "ቆ": 655,
  "ቇ": 656,
  "ቈ": 657,
  "ቊ": 658,
  "ቋ": 659,
  "ቌ": 660,
  "ቍ": 661,
  "ቐ": 662,
  "ቑ": 663,
  "ቒ": 664,
  "ቓ": 665,
  "ቔ": 666,
  "ቕ": 667,
  "ቖ": 668,
  "ቘ": 669,
  "ቚ": 670,
  "ቛ": 671,
  "ቜ": 672,
  "ቝ": 673,
  "በ": 674,
  "ቡ": 675,
  "ቢ": 676,
  "ባ": 677,
  "ቤ": 678,
  "ብ": 679,
  "ቦ": 680,
  "ቧ": 681,
  "ቨ": 682,
  "ቩ": 683,
  "ቪ": 684,
  "ቫ": 685,
  "ቬ": 686,
  "ቭ": 687,
  "ቮ": 688,
  "ቯ": 689,
  "ተ": 690,
  "ቱ": 691,
  "ቲ": 692,
  "ታ": 693,
  "ቴ": 694,
  "ት": 695,
  "ቶ": 696,
  "ቷ": 697,
  "ቸ": 698,
  "ቹ": 699,
  "ቺ": 700,
  "ቻ": 701,
  "ቼ": 702,
  "ች": 703,
  "ቾ": 704,
  "ቿ": 705,
  "ኀ": 706,
  "ኁ": 707,
  "ኂ": 708,
  "ኃ": 709,
  "ኄ": 710,
  "ኅ": 711,
  "ኆ": 712,
  "ኇ": 713,
  "ኈ": 714,
  "ኊ": 715,
  "ኋ": 716,
  "ኌ": 717,
  "ኍ": 718,
  "ነ": 719,
  "ኑ": 720,
  "ኒ": 721,
  "ና": 722,
  "ኔ": 723,
  "ን": 724,
  "ኖ": 725,
  "ኗ": 726,
  "ኘ": 727,
  "ኙ": 728,
  "ኚ": 729,
  "ኛ": 730,
  "ኜ": 731,
  "ኝ": 732,
  "ኞ": 733,
  "ኟ": 734,
  "አ": 735,
  "ኡ": 736,
  "ኢ": 737,
  "ኣ": 738,
  "ኤ": 739,
  "እ": 740,
  "ኦ": 741,
  "ኧ": 742,
  "ከ": 743,
  "ኩ": 744,
  "ኪ": 745,
  "ካ": 746,
  "ኬ": 747,
  "ክ": 748,
  "ኮ": 749,
  "ኯ": 750,
  "ኰ": 751,
  "ኲ": 752,
  "ኳ": 753,
  "ኴ": 754,
  "ኵ": 755,
  "ኸ": 756,
  "ኹ": 757,
  "ኺ": 758,
  "ኻ": 759,
  "ኼ": 760,
  "ኽ": 761,
  "ኾ": 762,
  "ዀ": 763,
  "ዂ": 764,
  "ዃ": 765,
  "ዄ": 766,
  "ዅ": 767,
  "ወ": 768,
  "ዉ": 769,
  "ዊ": 770,
  "ዋ": 771,
  "ዌ": 772,
  "ው": 773,
  "ዎ": 774,
  "ዏ": 775,
  "ዐ": 776,
  "ዑ": 777,
  "ዒ": 778,
  "ዓ": 779,
  "ዔ": 780,
  "ዕ": 781,
  "ዖ": 782,
  "ዘ": 783,
  "ዙ": 784,
  "ዚ": 785,
  "ዛ": 786,
  "ዜ": 787,
  "ዝ": 788,
  "ዞ": 789,
  "ዟ": 790,
  "ዠ": 791,
  "ዡ": 792,
  "ዢ": 793,
  "ዣ": 794,
  "ዤ": 795,
  "ዥ": 796,
  "ዦ": 797,
  "ዧ": 798,
  "የ": 799,
  "ዩ": 800,
  "ዪ": 801,
  "ያ": 802,
  "ዬ": 803,
  "ይ": 804,
  "ዮ": 805,
  "ዯ": 806,
  "ደ": 807,
  "ዱ": 808,
  "ዲ": 809,
  "ዳ": 810,
  "ዴ": 811,
  "ድ": 812,
  "ዶ": 813,
  "ዷ": 814,
  "ዸ": 815,
  "ዹ": 816,
  "ዺ": 817,
  "ዻ": 818,
  "ዼ": 819,
  "ዽ": 820,
  "ዾ": 821,
  "ዿ": 822,
  "ጀ": 823,
  "ጁ": 824,
  "ጂ": 825,
  "ጃ": 826,
  "ጄ": 827,
  "ጅ": 828,
  "ጆ": 829,
  "ጇ": 830,
  "ገ": 831,
  "ጉ": 832,
  "ጊ": 833,
  "ጋ": 834,
  "ጌ": 835,
  "ግ": 836,
  "ጎ": 837,
  "ጏ": 838,
  "ጐ": 839,
  "ጒ": 840,
  "ጓ": 841,
  "ጔ": 842,
  "ጕ": 843,
  "ጘ": 844,
  "ጙ": 845,
  "ጚ": 846,
  "ጛ": 847,
  "ጜ": 848,
  "ጝ": 849,
  "ጞ": 850,
  "ጟ": 851,
  "ጠ": 852,
  "ጡ": 853,
  "ጢ": 854,
  "ጣ": 855,
  "ጤ": 856,
  "ጥ": 857,
  "ጦ": 858,
  "ጧ": 859,
  "ጨ": 860,
  "ጩ": 861,
  "ጪ": 862,
  "ጫ": 863,
  "ጬ": 864,
  "ጭ": 865,
  "ጮ": 866,
  "ጯ": 867,
  "ጰ": 868,
  "ጱ": 869,
  "ጲ": 870,
  "ጳ": 871,
  "ጴ": 872,
  "ጵ": 873,
  "ጶ": 874,
  "ጷ": 875,
  "ጸ": 876,
  "ጹ": 877,
  "ጺ": 878,
  "ጻ": 879,
  "ጼ": 880,
  "ጽ": 881,
  "ጾ": 882,
  "ጿ": 883,
  "ፀ": 884,
  "ፁ": 885,
  "ፂ": 886,
  "ፃ": 887,
  "ፄ": 888,
  "ፅ": 889,
  "ፆ": 890,
  "ፇ": 891,
  "ፈ": 892,
  "ፉ": 893,
  "ፊ": 894,
  "ፋ": 895,
  "ፌ": 896,
  "ፍ": 897,
  "ፎ": 898,
  "ፏ": 899,
  "ፐ": 900,
  "ፑ": 901,
  "ፒ": 902,
  "ፓ": 903,
  "ፔ": 904,
  "ፕ": 905,
  "ፖ": 906,
  "ፗ": 907,
  "ፘ": 908,
  "ፙ": 909,
  "ፚ": 910,
  "፞": 911,
  "፟": 912,
  "፠": 913,
  "፡": 914,
  "።": 915,
  "፣": 916,
  "፤": 917,
  "፥": 918,
  "፦": 919,
  "፧": 920,
  "፨": 921,
  "፩": 922,
  "፪": 923,
  "፫": 924,
  "፬": 925,
  "፭": 926,
  "፮": 927,
  "፯": 928,
  "፰": 929,
  "፱": 930,
  "፲": 931,
  "፳": 932,
  "፴": 933,
  "፵": 934,
  "፶": 935,
  "፷": 936,
  "፸": 937,
  "፹": 938,
  "፺": 939,
  "፻": 940,
  "፼": 941,
  "ᎁ": 942,
  "ᎄ": 943,
  "ᎅ": 944,
  "ᎉ": 945,
  "ᎋ": 946,
  "ᎌ": 947,
  "ᎏ": 948,
  "᎐": 949,
  "᎒": 950,
  "᎓": 951,
  "᎖": 952,
  "᎘": 953,
  "᐀": 954,
  "ដ": 955,
  "ត": 956,
  "ប": 957,
  "អ": 958,
  "ា": 959,
  "ិ": 960,
  "៊": 961,
  "្": 962,
  "ᤰ": 963,
  "ᥙ": 964,
  "᧐": 965,
  "ḥ": 966,
  "ḧ": 967,
  "ḱ": 968,
  "ṇ": 969,
  "ầ": 970,
  "ễ": 971,
  "ọ": 972,
  "ớ": 973,
  "ἑ": 974,
  "ἕ": 975,
  "Ἐ": 976,
  "ὰ": 977,
  "ῴ": 978,
  "ῶ": 979,
  "‐": 980,
  "―": 981,
  "‖": 982,
  "‛": 983,
  "‟": 984,
  "†": 985,
  "‡": 986,
  "•": 987,
  " ": 988,
  "‰": 989,
  "′": 990,
  "‹": 991,
  "›": 992,
  "※": 993,
  "⁄": 994,
  "₩": 995,
  "€": 996,
  "₸": 997,
  "₹": 998,
  "₿": 999,
  "⃣": 1000,
  "℗": 1001,
  "←": 1002,
  "↑": 1003,
  "→": 1004,
  "↓": 1005,
  "↔": 1006,
  "↩": 1007,
  "↪": 1008,
  "⇐": 1009,
  "⇒": 1010,
  "⇢": 1011,
  "⇨": 1012,
  "−": 1013,
  "∕": 1014,
  "∙": 1015,
  "√": 1016,
  "∞": 1017,
  "∶": 1018,
  "∷": 1019,
  "≅": 1020,
  "≈": 1021,
  "≔": 1022,
  "≠": 1023,
  "≡": 1024,
  "≤": 1025,
  "≥": 1026,
  "≦": 1027,
  "⊖": 1028,
  "⋅": 1029,
  "⋆": 1030,
  "⋮": 1031,
  "─": 1032,
  "│": 1033,
  "═": 1034,
  "╔": 1035,
  "▁": 1036,
  "■": 1037,
  "□": 1038,
  "▢": 1039,
  "▪": 1040,
  "▫": 1041,
  "▲": 1042,
  "▶": 1043,
  "▷": 1044,
  "▸": 1045,
  "►": 1046,
  "▼": 1047,
  "▽": 1048,
  "◄": 1049,
  "◅": 1050,
  "◆": 1051,
  "◇": 1052,
  "◈": 1053,
  "◉": 1054,
  "◊": 1055,
  "○": 1056,
  "◌": 1057,
  "◎": 1058,
  "●": 1059,
  "◦": 1060,
  "◼": 1061,
  "☀": 1062,
  "☂": 1063,
  "★": 1064,
  "☆": 1065,
  "☈": 1066,
  "☕": 1067,
  "☘": 1068,
  "☛": 1069,
  "☝": 1070,
  "☞": 1071,
  "☠": 1072,
  "☯": 1073,
  "☹": 1074,
  "☺": 1075,
  "☻": 1076,
  "♀": 1077,
  "♂": 1078,
  "♈": 1079,
  "♊": 1080,
  "♋": 1081,
  "♌": 1082,
  "♎": 1083,
  "♏": 1084,
  "♐": 1085,
  "♔": 1086,
  "♚": 1087,
  "♛": 1088,
  "♡": 1089,
  "♣": 1090,
  "♥": 1091,
  "♦": 1092,
  "♨": 1093,
  "♩": 1094,
  "♪": 1095,
  "♫": 1096,
  "♬": 1097,
  "♭": 1098,
  "♻": 1099,
  "⚀": 1100,
  "⚂": 1101,
  "⚜": 1102,
  "⚠": 1103,
  "⚪": 1104,
  "⚽": 1105,
  "⛔": 1106,
  "⛰": 1107,
  "⛱": 1108,
  "✅": 1109,
  "✈": 1110,
  "✊": 1111,
  "✋": 1112,
  "✌": 1113,
  "✍": 1114,
  "✎": 1115,
  "✒": 1116,
  "✓": 1117,
  "✔": 1118,
  "✖": 1119,
  "✗": 1120,
  "✘": 1121,
  "✝": 1122,
  "✞": 1123,
  "✟": 1124,
  "✡": 1125,
  "✥": 1126,
  "✦": 1127,
  "✨": 1128,
  "✪": 1129,
  "✿": 1130,
  "❀": 1131,
  "❐": 1132,
  "❑": 1133,
  "❖": 1134,
  "❗": 1135,
  "❝": 1136,
  "❞": 1137,
  "❤": 1138,
  "❥": 1139,
  "❷": 1140,
  "❸": 1141,
  "❾": 1142,
  "➐": 1143,
  "➔": 1144,
  "➖": 1145,
  "➜": 1146,
  "➠": 1147,
  "➡": 1148,
  "➢": 1149,
  "➣": 1150,
  "➤": 1151,
  "➳": 1152,
  "➺": 1153,
  "➿": 1154,
  "⟶": 1155,
  "⦁": 1156,
  "⧊": 1157,
  "⭐": 1158,
  "⭕": 1159,
  "⮚": 1160,
  "Ⲩ": 1161,
  "ⵗ": 1162,
  "ⶀ": 1163,
  "ⶁ": 1164,
  "ⶂ": 1165,
  "ⶅ": 1166,
  "ⶆ": 1167,
  "ⶉ": 1168,
  "ⶊ": 1169,
  "ⶋ": 1170,
  "ⶖ": 1171,
  "ⶴ": 1172,
  "ⷅ": 1173,
  "ⷍ": 1174,
  "ⷕ": 1175,
  "ⷘ": 1176,
  "、": 1177,
  "。": 1178,
  "〇": 1179,
  "〉": 1180,
  "《": 1181,
  "》": 1182,
  "「": 1183,
  "」": 1184,
  "【": 1185,
  "】": 1186,
  "あ": 1187,
  "い": 1188,
  "う": 1189,
  "お": 1190,
  "か": 1191,
  "き": 1192,
  "く": 1193,
  "こ": 1194,
  "さ": 1195,
  "し": 1196,
  "す": 1197,
  "た": 1198,
  "だ": 1199,
  "ち": 1200,
  "っ": 1201,
  "て": 1202,
  "で": 1203,
  "と": 1204,
  "ど": 1205,
  "な": 1206,
  "に": 1207,
  "の": 1208,
  "は": 1209,
  "べ": 1210,
  "ま": 1211,
  "む": 1212,
  "ゃ": 1213,
  "や": 1214,
  "ょ": 1215,
  "よ": 1216,
  "ら": 1217,
  "り": 1218,
  "る": 1219,
  "れ": 1220,
  "ろ": 1221,
  "を": 1222,
  "ん": 1223,
  "ア": 1224,
  "ィ": 1225,
  "イ": 1226,
  "エ": 1227,
  "オ": 1228,
  "カ": 1229,
  "ガ": 1230,
  "グ": 1231,
  "ケ": 1232,
  "ザ": 1233,
  "ス": 1234,
  "タ": 1235,
  "ダ": 1236,
  "ッ": 1237,
  "テ": 1238,
  "デ": 1239,
  "ト": 1240,
  "ナ": 1241,
  "ハ": 1242,
  "バ": 1243,
  "パ": 1244,
  "ビ": 1245,
  "ホ": 1246,
  "ボ": 1247,
  "マ": 1248,
  "ム": 1249,
  "ラ": 1250,
  "ル": 1251,
  "ロ": 1252,
  "ワ": 1253,
  "ン": 1254,
  "・": 1255,
  "ー": 1256,
  "一": 1257,
  "三": 1258,
  "下": 1259,
  "不": 1260,
  "丘": 1261,
  "丨": 1262,
  "中": 1263,
  "义": 1264,
  "也": 1265,
  "了": 1266,
  "京": 1267,
  "人": 1268,
  "什": 1269,
  "仕": 1270,
  "他": 1271,
  "以": 1272,
  "们": 1273,
  "件": 1274,
  "住": 1275,
  "体": 1276,
  "作": 1277,
  "你": 1278,
  "供": 1279,
  "俩": 1280,
  "修": 1281,
  "個": 1282,
  "做": 1283,
  "停": 1284,
  "僕": 1285,
  "公": 1286,
  "共": 1287,
  "分": 1288,
  "制": 1289,
  "前": 1290,
  "加": 1291,
  "午": 1292,
  "単": 1293,
  "厦": 1294,
  "去": 1295,
  "发": 1296,
  "司": 1297,
  "吗": 1298,
  "和": 1299,
  "品": 1300,
  "哈": 1301,
  "哪": 1302,
  "商": 1303,
  "嘅": 1304,
  "器": 1305,
  "回": 1306,
  "国": 1307,
  "國": 1308,
  "在": 1309,
  "场": 1310,
  "增": 1311,
  "士": 1312,
  "夏": 1313,
  "大": 1314,
  "天": 1315,
  "夫": 1316,
  "女": 1317,
  "她": 1318,
  "好": 1319,
  "姆": 1320,
  "娘": 1321,
  "子": 1322,
  "安": 1323,
  "察": 1324,
  "小": 1325,
  "局": 1326,
  "州": 1327,
  "工": 1328,
  "市": 1329,
  "带": 1330,
  "幫": 1331,
  "幽": 1332,
  "店": 1333,
  "度": 1334,
  "录": 1335,
  "彙": 1336,
  "彼": 1337,
  "往": 1338,
  "待": 1339,
  "後": 1340,
  "御": 1341,
  "思": 1342,
  "您": 1343,
  "想": 1344,
  "意": 1345,
  "憑": 1346,
  "我": 1347,
  "抦": 1348,
  "拉": 1349,
  "招": 1350,
  "接": 1351,
  "改": 1352,
  "放": 1353,
  "散": 1354,
  "文": 1355,
  "料": 1356,
  "新": 1357,
  "方": 1358,
  "於": 1359,
  "日": 1360,
  "旧": 1361,
  "时": 1362,
  "昨": 1363,
  "晋": 1364,
  "暇": 1365,
  "最": 1366,
  "有": 1367,
  "机": 1368,
  "束": 1369,
  "来": 1370,
  "杯": 1371,
  "東": 1372,
  "果": 1373,
  "校": 1374,
  "條": 1375,
  "機": 1376,
  "欢": 1377,
  "步": 1378,
  "民": 1379,
  "水": 1380,
  "法": 1381,
  "注": 1382,
  "洗": 1383,
  "活": 1384,
  "港": 1385,
  "澳": 1386,
  "為": 1387,
  "熊": 1388,
  "熱": 1389,
  "狐": 1390,
  "猫": 1391,
  "生": 1392,
  "用": 1393,
  "田": 1394,
  "発": 1395,
  "發": 1396,
  "白": 1397,
  "的": 1398,
  "皿": 1399,
  "私": 1400,
  "等": 1401,
  "结": 1402,
  "给": 1403,
  "考": 1404,
  "者": 1405,
  "育": 1406,
  "胖": 1407,
  "能": 1408,
  "至": 1409,
  "華": 1410,
  "表": 1411,
  "製": 1412,
  "西": 1413,
  "要": 1414,
  "視": 1415,
  "言": 1416,
  "評": 1417,
  "詞": 1418,
  "誕": 1419,
  "語": 1420,
  "誰": 1421,
  "論": 1422,
  "警": 1423,
  "语": 1424,
  "请": 1425,
  "谢": 1426,
  "谷": 1427,
  "車": 1428,
  "迎": 1429,
  "近": 1430,
  "还": 1431,
  "这": 1432,
  "追": 1433,
  "連": 1434,
  "達": 1435,
  "選": 1436,
  "那": 1437,
  "酒": 1438,
  "里": 1439,
  "錄": 1440,
  "録": 1441,
  "鐘": 1442,
  "链": 1443,
  "門": 1444,
  "闲": 1445,
  "阿": 1446,
  "限": 1447,
  "隨": 1448,
  "雨": 1449,
  "音": 1450,
  "頻": 1451,
  "題": 1452,
  "饮": 1453,
  "香": 1454,
  "高": 1455,
  "ꗺ": 1456,
  "ꬁ": 1457,
  "ꬂ": 1458,
  "ꬃ": 1459,
  "ꬄ": 1460,
  "ꬅ": 1461,
  "ꬆ": 1462,
  "ꬉ": 1463,
  "ꬊ": 1464,
  "ꬋ": 1465,
  "ꬌ": 1466,
  "ꬎ": 1467,
  "ꬑ": 1468,
  "ꬓ": 1469,
  "가": 1470,
  "갑": 1471,
  "강": 1472,
  "건": 1473,
  "것": 1474,
  "게": 1475,
  "겨": 1476,
  "결": 1477,
  "계": 1478,
  "고": 1479,
  "그": 1480,
  "꿈": 1481,
  "남": 1482,
  "낱": 1483,
  "녁": 1484,
  "년": 1485,
  "녕": 1486,
  "누": 1487,
  "니": 1488,
  "다": 1489,
  "더": 1490,
  "데": 1491,
  "동": 1492,
  "둑": 1493,
  "드": 1494,
  "들": 1495,
  "디": 1496,
  "또": 1497,
  "렇": 1498,
  "려": 1499,
  "로": 1500,
  "루": 1501,
  "를": 1502,
  "름": 1503,
  "리": 1504,
  "만": 1505,
  "말": 1506,
  "먹": 1507,
  "메": 1508,
  "멘": 1509,
  "못": 1510,
  "무": 1511,
  "뭐": 1512,
  "미": 1513,
  "바": 1514,
  "발": 1515,
  "보": 1516,
  "봇": 1517,
  "사": 1518,
  "삼": 1519,
  "서": 1520,
  "세": 1521,
  "송": 1522,
  "습": 1523,
  "시": 1524,
  "신": 1525,
  "싶": 1526,
  "아": 1527,
  "안": 1528,
  "어": 1529,
  "없": 1530,
  "었": 1531,
  "에": 1532,
  "요": 1533,
  "월": 1534,
  "위": 1535,
  "유": 1536,
  "으": 1537,
  "을": 1538,
  "음": 1539,
  "의": 1540,
  "이": 1541,
  "일": 1542,
  "읽": 1543,
  "저": 1544,
  "전": 1545,
  "제": 1546,
  "죄": 1547,
  "주": 1548,
  "지": 1549,
  "직": 1550,
  "진": 1551,
  "쩝": 1552,
  "책": 1553,
  "카": 1554,
  "케": 1555,
  "코": 1556,
  "키": 1557,
  "테": 1558,
  "텔": 1559,
  "토": 1560,
  "트": 1561,
  "팔": 1562,
  "팠": 1563,
  "하": 1564,
  "할": 1565,
  "함": 1566,
  "해": 1567,
  "했": 1568,
  "향": 1569,
  "호": 1570,
  "혼": 1571,
  "휴": 1572,
  "히": 1573,
  "﷽": 1574,
  "︎": 1575,
  "️": 1576,
  "￼": 1577,
  "�": 1578,
  "𐌌": 1579,
  "𓁹": 1580,
  "🇦": 1581,
  "🇧": 1582,
  "🇨": 1583,
  "🇪": 1584,
  "🇬": 1585,
  "🇭": 1586,
  "🇱": 1587,
  "🇲": 1588,
  "🇳": 1589,
  "🇴": 1590,
  "🇵": 1591,
  "🇷": 1592,
  "🇸": 1593,
  "🇹": 1594,
  "🇺": 1595,
  "🇻": 1596,
  "🇼": 1597,
  "🇽": 1598,
  "🇿": 1599,
  "🌀": 1600,
  "🌅": 1601,
  "🌉": 1602,
  "🌏": 1603,
  "🌑": 1604,
  "🌕": 1605,
  "🌞": 1606,
  "🌟": 1607,
  "🌤": 1608,
  "🌳": 1609,
  "🌷": 1610,
  "🌹": 1611,
  "🌼": 1612,
  "🌽": 1613,
  "🌿": 1614,
  "🍀": 1615,
  "🍄": 1616,
  "🍅": 1617,
  "🍌": 1618,
  "🍵": 1619,
  "🎅": 1620,
  "🎋": 1621,
  "🎍": 1622,
  "🎤": 1623,
  "🎵": 1624,
  "🎸": 1625,
  "🏆": 1626,
  "🏝": 1627,
  "🏫": 1628,
  "🏺": 1629,
  "🏻": 1630,
  "🏼": 1631,
  "🏽": 1632,
  "🏾": 1633,
  "🏿": 1634,
  "🐅": 1635,
  "🐐": 1636,
  "🐕": 1637,
  "🐜": 1638,
  "👀": 1639,
  "👁": 1640,
  "👇": 1641,
  "👈": 1642,
  "👉": 1643,
  "👊": 1644,
  "👋": 1645,
  "👌": 1646,
  "👍": 1647,
  "👎": 1648,
  "👏": 1649,
  "👑": 1650,
  "👦": 1651,
  "👬": 1652,
  "👱": 1653,
  "👳": 1654,
  "👹": 1655,
  "👻": 1656,
  "👿": 1657,
  "💃": 1658,
  "💋": 1659,
  "💌": 1660,
  "💎": 1661,
  "💐": 1662,
  "💓": 1663,
  "💔": 1664,
  "💕": 1665,
  "💖": 1666,
  "💗": 1667,
  "💘": 1668,
  "💙": 1669,
  "💚": 1670,
  "💛": 1671,
  "💜": 1672,
  "💝": 1673,
  "💞": 1674,
  "💟": 1675,
  "💢": 1676,
  "💥": 1677,
  "💪": 1678,
  "💫": 1679,
  "💭": 1680,
  "💯": 1681,
  "💰": 1682,
  "💸": 1683,
  "💽": 1684,
  "📆": 1685,
  "📌": 1686,
  "📍": 1687,
  "📒": 1688,
  "📖": 1689,
  "📚": 1690,
  "📜": 1691,
  "📡": 1692,
  "📣": 1693,
  "📮": 1694,
  "📲": 1695,
  "📶": 1696,
  "📷": 1697,
  "📻": 1698,
  "🔊": 1699,
  "🔑": 1700,
  "🔔": 1701,
  "🔗": 1702,
  "🔙": 1703,
  "🔞": 1704,
  "🔤": 1705,
  "🔥": 1706,
  "🔯": 1707,
  "🔰": 1708,
  "🔴": 1709,
  "🔵": 1710,
  "🔶": 1711,
  "🔷": 1712,
  "🔻": 1713,
  "🕊": 1714,
  "🕖": 1715,
  "🕳": 1716,
  "🕴": 1717,
  "😀": 1718,
  "😁": 1719,
  "😂": 1720,
  "😃": 1721,
  "😄": 1722,
  "😅": 1723,
  "😆": 1724,
  "😇": 1725,
  "😈": 1726,
  "😉": 1727,
  "😊": 1728,
  "😋": 1729,
  "😍": 1730,
  "😎": 1731,
  "😏": 1732,
  "😐": 1733,
  "😒": 1734,
  "😔": 1735,
  "😕": 1736,
  "😖": 1737,
  "😘": 1738,
  "😚": 1739,
  "😛": 1740,
  "😜": 1741,
  "😝": 1742,
  "😞": 1743,
  "😠": 1744,
  "😡": 1745,
  "😢": 1746,
  "😥": 1747,
  "😩": 1748,
  "😪": 1749,
  "😫": 1750,
  "😭": 1751,
  "😮": 1752,
  "😰": 1753,
  "😱": 1754,
  "😲": 1755,
  "😳": 1756,
  "😵": 1757,
  "😷": 1758,
  "😹": 1759,
  "😻": 1760,
  "😼": 1761,
  "🙁": 1762,
  "🙂": 1763,
  "🙄": 1764,
  "🙆": 1765,
  "🙈": 1766,
  "🙉": 1767,
  "🙋": 1768,
  "🙌": 1769,
  "🙏": 1770,
  "🚀": 1771,
  "🚇": 1772,
  "🚗": 1773,
  "🚦": 1774,
  "🚨": 1775,
  "🚩": 1776,
  "🚴": 1777,
  "🚵": 1778,
  "🛅": 1779,
  "🛑": 1780,
  "🤐": 1781,
  "🤓": 1782,
  "🤔": 1783,
  "🤗": 1784,
  "🤘": 1785,
  "🤙": 1786,
  "🤝": 1787,
  "🤞": 1788,
  "🤟": 1789,
  "🤣": 1790,
  "🤥": 1791,
  "🤦": 1792,
  "🤧": 1793,
  "🤨": 1794,
  "🤩": 1795,
  "🤪": 1796,
  "🤬": 1797,
  "🤭": 1798,
  "🤲": 1799,
  "🤴": 1800,
  "🤷": 1801,
  "🤸": 1802,
  "🥇": 1803,
  "🥒": 1804,
  "🥦": 1805,
  "🥰": 1806,
  "🥺": 1807,
  "🦋": 1808,
  "🧐": 1809,
  "🧑": 1810,
  "🧘": 1811,
  "🧚": 1812,
  "🧜": 1813,
  "🧸": 1814,
  "▁እ": 1815,
  "▁ኣ": 1816,
  "▁በ": 1817,
  "▁አ": 1818,
  "▁የ": 1819,
  "▁መ": 1820,
  "▁ነ": 1821,
  "▁ከ": 1822,
  "▁ይ": 1823,
  "▁ብ": 1824,
  "▁ም": 1825,
  "▁እን": 1826,
  "▁ን": 1827,
  "▁ዝ": 1828,
  "▁ተ": 1829,
  "▁ክ": 1830,
  "▁ወ": 1831,
  "▁ስ": 1832,
  "▁ለ": 1833,
  "▁ሰ": 1834,
  "▁ኣብ": 1835,
  "▁ዘ": 1836,
  "▁ግ": 1837,
  "▁ና": 1838,
  "ውን": 1839,
  "▁እና": 1840,
  "▁ማ": 1841,
  "▁ነው": 1842,
  "▁ት": 1843,
  "▁ያ": 1844,
  "▁ው": 1845,
  "▁ኢ": 1846,
  "▁ድ": 1847,
  "▁\"": 1848,
  "▁ሓ": 1849,
  "▁።": 1850,
  "▁ዓ": 1851,
  "▁እዩ": 1852,
  "▁ካ": 1853,
  "▁ደ": 1854,
  "ነት": 1855,
  "ዎች": 1856,
  "ቸው": 1857,
  "ላይ": 1858,
  "ታት": 1859,
  "▁፡": 1860,
  "▁ከም": 1861,
  "ገር": 1862,
  "▁ኣይ": 1863,
  "▁የሚ": 1864,
  "▁ሕ": 1865,
  "ንድ": 1866,
  "▁እንደ": 1867,
  "▁ሁ": 1868,
  "▁ገ": 1869,
  "ም።": 1870,
  "▁ል": 1871,
  "በር": 1872,
  "▁ስለ": 1873,
  "▁1": 1874,
  "▁ጥ": 1875,
  "▁ናይ": 1876,
  "▁ቀ": 1877,
  "ል።": 1878,
  "▁ግን": 1879,
  "▁ላይ": 1880,
  "ስጥ": 1881,
  "ዚህ": 1882,
  "▁ውስጥ": 1883,
  "ን።": 1884,
  "▁ካብ": 1885,
  "▁እዩ።": 1886,
  "ንም": 1887,
  "▁ባ": 1888,
  "ጊዜ": 1889,
  "▁መን": 1890,
  "▁እቲ": 1891,
  "▁(": 1892,
  "ትን": 1893,
  "▁2": 1894,
  "▁፣": 1895,
  "▁አይ": 1896,
  "▁ፍ": 1897,
  "ለም": 1898,
  "▁ድማ": 1899,
  "▁ምስ": 1900,
  "▁እዚ": 1901,
  "▁ይህ": 1902,
  "▁ህ": 1903,
  "▁ጊዜ": 1904,
  "▁የተ": 1905,
  "▁ነገር": 1906,
  "▁ወደ": 1907,
  "ግዚ": 1908,
  "▁ቅ": 1909,
  "ምን": 1910,
  "▁ወይ": 1911,
  "ፈል": 1912,
  "ችን": 1913,
  "ርስ": 1914,
  "ለት": 1915,
  "ምላ": 1916,
  "በረ": 1917,
  "ቶም": 1918,
  "ለው": 1919,
  "ንተ": 1920,
  "▁ጋ": 1921,
  "▁ሁሉ": 1922,
  "ሆነ": 1923,
  "▁እንዲ": 1924,
  "ስተ": 1925,
  "..": 1926,
  "ያን": 1927,
  "▁ቤ": 1928,
  "ለሁ": 1929,
  "ሔር": 1930,
  "ብሔር": 1931,
  "▁ለመ": 1932,
  "▁ሃ": 1933,
  "▁ታ": 1934,
  "▁በእ": 1935,
  "ሆን": 1936,
  "▁ፈ": 1937,
  "▁ዕ": 1938,
  "ችሁ": 1939,
  "▁ነበር": 1940,
  "▁ዘይ": 1941,
  "ርሱ": 1942,
  "▁ብዙ": 1943,
  "በት": 1944,
  "ባት": 1945,
  "▁እየ": 1946,
  "▁እንተ": 1947,
  "ግዚአ": 1948,
  "ራት": 1949,
  "▁ናብ": 1950,
  "▁-": 1951,
  "▁ነው።": 1952,
  "▁ጋር": 1953,
  "ሪያ": 1954,
  "▁አለ": 1955,
  "▁ሊ": 1956,
  "ኩም": 1957,
  "▁ዓመ": 1958,
  "ቶች": 1959,
  "ግዚአብሔር": 1960,
  "▁እነ": 1961,
  "▁በመ": 1962,
  "▁ኩ": 1963,
  "▁ሲ": 1964,
  "▁ኸ": 1965,
  "▁ለማ": 1966,
  "ችላ": 1967,
  "ብር": 1968,
  "▁እኔ": 1969,
  "▁አንድ": 1970,
  "ታይ": 1971,
  "▁ጸ": 1972,
  "▁ዝተ": 1973,
  "▁በአ": 1974,
  "▁ዚ": 1975,
  "▁አን": 1976,
  "▁ኮ": 1977,
  "ኽእ": 1978,
  "ንያ": 1979,
  "▁ሰብ": 1980,
  "▁ክት": 1981,
  "▁የእ": 1982,
  "▁ኣለ": 1983,
  "▁ሓደ": 1984,
  "ና።": 1985,
  "▁ጽ": 1986,
  "ብል": 1987,
  "▁ጠ": 1988,
  "▁የመ": 1989,
  "▁ኪ": 1990,
  "ይወ": 1991,
  "ድር": 1992,
  "▁ጉ": 1993,
  "▁ሳ": 1994,
  "▁አል": 1995,
  "ጀመ": 1996,
  "ምላኽ": 1997,
  "ረት": 1998,
  "ስት": 1999,
  "▁ምን": 2000,
  "▁ከኣ": 2001,
  "ሎም": 2002,
  "▁ር": 2003,
  "▁ኣሎ": 2004,
  "▁እስ": 2005,
  "ለን": 2006,
  "ተኛ": 2007,
  "▁ክን": 2008,
  "▁መል": 2009,
  "ሉ።": 2010,
  "ገል": 2011,
  "▁በተ": 2012,
  "▁አስ": 2013,
  "▁ይችላ": 2014,
  "▁ሰው": 2015,
  "ደር": 2016,
  "ጣም": 2017,
  "▁ተመ": 2018,
  "▁ቃ": 2019,
  "ላት": 2020,
  "መን": 2021,
  "▁3": 2022,
  "ዓል": 2023,
  "▁ከእ": 2024,
  "'ዩ": 2025,
  "▁በጣም": 2026,
  "ርት": 2027,
  "▁20": 2028,
  "▁ዘለ": 2029,
  "ዚያ": 2030,
  "ሆኑ": 2031,
  "▁'": 2032,
  "▁ወይም": 2033,
  "▁ቢ": 2034,
  "ል.": 2035,
  "ንን": 2036,
  "▁የአ": 2037,
  "▁ከተ": 2038,
  "▁ዘሎ": 2039,
  "▁ሰዎች": 2040,
  "ምህ": 2041,
  "▁ኣምላኽ": 2042,
  "▁ቤት": 2043,
  "▁ሆ": 2044,
  "ማይ": 2045,
  "ድረ": 2046,
  "▁ህዝ": 2047,
  "ዳን": 2048,
  "መስ": 2049,
  "▁አይደ": 2050,
  "ገድ": 2051,
  "▁ብቻ": 2052,
  "▁እውን": 2053,
  "▁እዮ": 2054,
  "▁ነቲ": 2055,
  "▁ዋ": 2056,
  "▁ኤ": 2057,
  "ናት": 2058,
  "▁ሚ": 2059,
  "ራዊ": 2060,
  "ሱስ": 2061,
  "▁ሞ": 2062,
  "▁እያ": 2063,
  "▁እግዚአብሔር": 2064,
  "ደረ": 2065,
  "በል": 2066,
  "ነበረ": 2067,
  "▁ዓመት": 2068,
  "ሰብ": 2069,
  "▁እንዳ": 2070,
  "▁እም": 2071,
  "ሁን": 2072,
  "▁ናቸው": 2073,
  "ኾነ": 2074,
  "▁ነይ": 2075,
  "ኽእል": 2076,
  "▁ሽ": 2077,
  "▁ግና": 2078,
  "▁ቦ": 2079,
  "ይወት": 2080,
  "▁ሙ": 2081,
  "▁ነገ": 2082,
  "▁ማለት": 2083,
  "▁ሌ": 2084,
  "ግባ": 2085,
  "ቸውን": 2086,
  "ዓት": 2087,
  "▁መስ": 2088,
  "ራሕ": 2089,
  "በለ": 2090,
  "▁ንም": 2091,
  "በሩ": 2092,
  "▁ካል": 2093,
  "▁የም": 2094,
  "▁አላ": 2095,
  "▁ቀን": 2096,
  "ናል": 2097,
  "▁ዓለም": 2098,
  "ኸውን": 2099,
  "▁የሚያ": 2100,
  "ላል": 2101,
  "ሮች": 2102,
  "▁ከመ": 2103,
  "ይን": 2104,
  "ፊት": 2105,
  "ኹም": 2106,
  "▁ምክ": 2107,
  "ኦም": 2108,
  "ርግ": 2109,
  "ታዊ": 2110,
  "...": 2111,
  "ራይ": 2112,
  "▁እንታይ": 2113,
  "▁ሥ": 2114,
  "▁ለእ": 2115,
  "ውም": 2116,
  "▁ረ": 2117,
  "ከል": 2118,
  "▁እኛ": 2119,
  "▁ቁ": 2120,
  "▁ምር": 2121,
  "ሳብ": 2122,
  "ዕባ": 2123,
  "▁ግዜ": 2124,
  "▁እንደሚ": 2125,
  "ያት": 2126,
  "▁4": 2127,
  "ልና": 2128,
  "00": 2129,
  "ይኑ": 2130,
  "▁ብም": 2131,
  "ንቲ": 2132,
  "▁ቦታ": 2133,
  "መለ": 2134,
  "ቱን": 2135,
  "▁ጌ": 2136,
  "▁ክፍ": 2137,
  "ገብ": 2138,
  "▁በዚህ": 2139,
  "▁ጀ": 2140,
  "▁ያለ": 2141,
  "▁ቃል": 2142,
  "ኋላ": 2143,
  "ዋል": 2144,
  "▁መጽ": 2145,
  "▁ዳ": 2146,
  "ገባ": 2147,
  "▁ኽ": 2148,
  "▁ደግ": 2149,
  "▁ሰባት": 2150,
  "ሳይ": 2151,
  "ውያን": 2152,
  "▁ብዛ": 2153,
  "ማሪ": 2154,
  "ቅር": 2155,
  "ሎች": 2156,
  "የት": 2157,
  "ረጃ": 2158,
  "▁\"እ": 2159,
  "ንግ": 2160,
  "ኤል": 2161,
  "'ውን": 2162,
  "▁ኢዩ": 2163,
  "መል": 2164,
  "▁እሱ": 2165,
  "▁አብ": 2166,
  "በይ": 2167,
  "▁ቅዱ": 2168,
  "ዋን": 2169,
  "ሪካ": 2170,
  "ሩ።": 2171,
  "▁ዜ": 2172,
  "ርስዎ": 2173,
  "▁ነው.": 2174,
  "ኮነ": 2175,
  "ት።": 2176,
  "▁ደግሞ": 2177,
  "ድን": 2178,
  "ለይ": 2179,
  "ምር": 2180,
  "▁5": 2181,
  "▁ኣነ": 2182,
  "▁ዓይ": 2183,
  "▁.": 2184,
  "ህን": 2185,
  "ዘይ": 2186,
  "ጀመሪያ": 2187,
  "▁መንግ": 2188,
  "ናን": 2189,
  "▁አንተ": 2190,
  "መር": 2191,
  "▁በኋላ": 2192,
  "▁መዓል": 2193,
  "ቱም": 2194,
  "▁ኸኣ": 2195,
  "ሰር": 2196,
  "ረብ": 2197,
  "▁ምክንያ": 2198,
  "▁ክርስ": 2199,
  "▁ጉዳ": 2200,
  "▁በማ": 2201,
  "▁ብዛዕባ": 2202,
  "ሕሪ": 2203,
  "▁ኩሉ": 2204,
  "ስቲ": 2205,
  "ድረግ": 2206,
  "ክት": 2207,
  "▁መጠ": 2208,
  "የሱስ": 2209,
  "▁እቶም": 2210,
  "▁ከአ": 2211,
  "ላለ": 2212,
  "ሓት": 2213,
  "▁እርሱ": 2214,
  "ግር": 2215,
  "ዎ።": 2216,
  "ድል": 2217,
  "ረስ": 2218,
  "ርከ": 2219,
  "▁ምንም": 2220,
  "▁ክል": 2221,
  "▁ቅድ": 2222,
  "▁ራ": 2223,
  "ንዘ": 2224,
  "ርያ": 2225,
  "▁ነዚ": 2226,
  "▁ስም": 2227,
  "ህል": 2228,
  "ባል": 2229,
  "ተን": 2230,
  "▁ነበር።": 2231,
  "ገና": 2232,
  "▁ቤተ": 2233,
  "▁ዛ": 2234,
  "▁ማን": 2235,
  "ዕሊ": 2236,
  "▁ስለዚህ": 2237,
  "▁ከይ": 2238,
  "▁ንስ": 2239,
  "▁የማ": 2240,
  "▁ንሱ": 2241,
  "▁እሞ": 2242,
  "▁አሁን": 2243,
  "ሰማ": 2244,
  "▁በሚ": 2245,
  "▁ቅዱስ": 2246,
  "ችል": 2247,
  "ላቸው": 2248,
  "ኣብ": 2249,
  "▁እንዲህ": 2250,
  "▁ትምህ": 2251,
  "▁ቆ": 2252,
  "▁መሰ": 2253,
  "▁ኣብዚ": 2254,
  "ስታ": 2255,
  "▁ነበረ": 2256,
  "▁መንገድ": 2257,
  "ኖር": 2258,
  "ሎት": 2259,
  "ምላክ": 2260,
  "▁ህዝቢ": 2261,
  "ወዳ": 2262,
  "ናይ": 2263,
  "ላችሁ": 2264,
  "ማት": 2265,
  "ዎችን": 2266,
  "ያው": 2267,
  "ግብ": 2268,
  "▁ጎ": 2269,
  "▁ፕ": 2270,
  "ልን": 2271,
  "▁እንዴ": 2272,
  "ልካ": 2273,
  "ያስ": 2274,
  "▁እት": 2275,
  "ላም": 2276,
  "ስፋ": 2277,
  "ብሉ": 2278,
  "ጆች": 2279,
  "▁ዶ": 2280,
  "▁መካ": 2281,
  "ደን": 2282,
  "▁አይደለም": 2283,
  "▁ሀ": 2284,
  "▁እዮም።": 2285,
  "▁ብሓ": 2286,
  "ከተ": 2287,
  "▁እው": 2288,
  "▁ይሆ": 2289,
  "ዮም": 2290,
  "ርእ": 2291,
  "ሮም": 2292,
  "ሉም": 2293,
  "▁ጨ": 2294,
  "ገልግ": 2295,
  "ምሮ": 2296,
  "▁እናም": 2297,
  "▁ኣሎ።": 2298,
  "'ዩ።": 2299,
  "ትና": 2300,
  "▁ሎ": 2301,
  "ንዘብ": 2302,
  "ርቲ": 2303,
  "ወሰ": 2304,
  "ዎም": 2305,
  "ለህ": 2306,
  "▁ኣይት": 2307,
  "ከት": 2308,
  "ርካ": 2309,
  "ኘት": 2310,
  "መጣ": 2311,
  "ኞች": 2312,
  "▁ዓመታት": 2313,
  "▁ሕጂ": 2314,
  "▁ኃ": 2315,
  "▁ምድ": 2316,
  "ውቃ": 2317,
  "▁ይህን": 2318,
  "▁ሃገር": 2319,
  "ንስ": 2320,
  "▁በላይ": 2321,
  "▁እስከ": 2322,
  "▁ከምዝ": 2323,
  "▁19": 2324,
  "ረው": 2325,
  "ወስ": 2326,
  "▁ዝነ": 2327,
  "ምና": 2328,
  "▁ምኽ": 2329,
  "▁ወዲ": 2330,
  "▁ሁሉም": 2331,
  "▁ላ": 2332,
  "ፈለ": 2333,
  ":1": 2334,
  "▁እንዴት": 2335,
  "ርድ": 2336,
  "▁ኢኻ": 2337,
  "'ዚ": 2338,
  "ባቢ": 2339,
  "▁6": 2340,
  "ዋል።": 2341,
  "▁እተ": 2342,
  "ኖም": 2343,
  "▁ባለ": 2344,
  "ክል": 2345,
  "▁201": 2346,
  "ኣይ": 2347,
  "▁ጥሩ": 2348,
  "ሳት": 2349,
  "ዲስ": 2350,
  "ለሁ።": 2351,
  "▁ምዃ": 2352,
  "▁እታ": 2353,
  "▁ዝሓ": 2354,
  "ካል": 2355,
  "ሃል": 2356,
  "ጣን": 2357,
  "▁ኣን": 2358,
  "▁እነዚህ": 2359,
  "▁የለ": 2360,
  "ራኤል": 2361,
  "▁ይችላሉ": 2362,
  "▁ሴ": 2363,
  "▁ተጠ": 2364,
  "ነው": 2365,
  "▁ከተማ": 2366,
  "▁ዘንድ": 2367,
  "ኛው": 2368,
  "▁ብዙሕ": 2369,
  "ኔታ": 2370,
  "▁ርእ": 2371,
  "ሉት": 2372,
  "ዎን": 2373,
  "▁መካከል": 2374,
  "ገብር": 2375,
  "▁ሃገ": 2376,
  "▁እዋን": 2377,
  "▁ኣብቲ": 2378,
  "ሰው": 2379,
  "ዎቹ": 2380,
  "▁ደቂ": 2381,
  "▁ኢየሱስ": 2382,
  "▁ስር": 2383,
  "▁ስለዚ": 2384,
  "ፈልጋ": 2385,
  "▁ብዝ": 2386,
  "▁ብር": 2387,
  "▁መዓልቲ": 2388,
  "▁ሥራ": 2389,
  "▁ኵ": 2390,
  "▁አት": 2391,
  "▁ዲ": 2392,
  "ቅም": 2393,
  "▁ጥራይ": 2394,
  "ታል": 2395,
  "መሰ": 2396,
  "▁ከዚያ": 2397,
  "ተይ": 2398,
  "ደል": 2399,
  "ፍት": 2400,
  "▁እነሱ": 2401,
  "▁ጓ": 2402,
  "▁ኢና": 2403,
  "ፈልጥ": 2404,
  "▁ኢሉ": 2405,
  "▁ከምዚ": 2406,
  "▁ከምኡ": 2407,
  "ረጋ": 2408,
  "▁እግዚ": 2409,
  "ሓፍ": 2410,
  "▁እዮም": 2411,
  "▁ከፍ": 2412,
  "▁ሁኔታ": 2413,
  "ጨረ": 2414,
  "ቀር": 2415,
  "ልቅ": 2416,
  "▁ተስፋ": 2417,
  "ቀም": 2418,
  "▁ኣይኮነ": 2419,
  "▁ዓይነት": 2420,
  "▁ሎሚ": 2421,
  "▁8": 2422,
  "▁ንኣ": 2423,
  "▁እንዲሁ": 2424,
  "▁ሆነ": 2425,
  "▁እንኳ": 2426,
  "ይታ": 2427,
  "▁ያስ": 2428,
  "ብን": 2429,
  "ዓለም": 2430,
  "▁7": 2431,
  "▁ሌላ": 2432,
  "▁ወር": 2433,
  "▁ፖ": 2434,
  "ዶች": 2435,
  "▁ከሆነ": 2436,
  "▁፤": 2437,
  "ጥር": 2438,
  "▁ትን": 2439,
  "▁ምእ": 2440,
  "▁በፊት": 2441,
  "ወቅ": 2442,
  "▁ች": 2443,
  "ብረ": 2444,
  "ቶስ": 2445,
  "ሳሌ": 2446,
  "ተር": 2447,
  "▁ልጅ": 2448,
  "▁ጌታ": 2449,
  "ጨማሪ": 2450,
  "ባቸው": 2451,
  "▁10": 2452,
  "▁ለአ": 2453,
  "▁ቅድሚ": 2454,
  "ጣት": 2455,
  "▁ሕዝ": 2456,
  "▁ኢዩ።": 2457,
  "ባይ": 2458,
  "ጨረሻ": 2459,
  "ተው": 2460,
  "▁መር": 2461,
  "▁ታሪ": 2462,
  "▁ዝኾነ": 2463,
  "▁ጉዳይ": 2464,
  "ባር": 2465,
  "ሜሪካ": 2466,
  "▁ሂ": 2467,
  "ናንተ": 2468,
  "ክብ": 2469,
  "▁ድሕሪ": 2470,
  "ረን": 2471,
  "▁መግ": 2472,
  "ነቱ": 2473,
  "▁ስራሕ": 2474,
  "ጽእ": 2475,
  "▁አሉ": 2476,
  "ወት": 2477,
  "▁ንጉ": 2478,
  "▁ሸ": 2479,
  "▁ዝበ": 2480,
  "ስን": 2481,
  "▁ይጠ": 2482,
  "▁ኺ": 2483,
  "ቦች": 2484,
  "▁ሐ": 2485,
  "ዮን": 2486,
  "ታው": 2487,
  "▁እናንተ": 2488,
  "▁ያለው": 2489,
  "በብ": 2490,
  "▁ስል": 2491,
  "▁ገንዘብ": 2492,
  "ርግጥ": 2493,
  "ገለ": 2494,
  "▁ደረጃ": 2495,
  "▁አስተ": 2496,
  "ኒ።": 2497,
  "ረዳ": 2498,
  "▁ባህ": 2499,
  "▁ዮ": 2500,
  "▁ዝብል": 2501,
  "ወደ": 2502,
  "▁ንሕ": 2503,
  "ለች": 2504,
  "ርን": 2505,
  "ደት": 2506,
  "▁ማድረግ": 2507,
  "▁በዚ": 2508,
  "re": 2509,
  "ሰራ": 2510,
  "▁አድር": 2511,
  "ናገ": 2512,
  "▁ኣቦ": 2513,
  "ግኘት": 2514,
  "መይ": 2515,
  "▁ድረስ": 2516,
  "ትም": 2517,
  "▁የሆነ": 2518,
  "▁ኮይኑ": 2519,
  "ገዲ": 2520,
  "ፈላ": 2521,
  "▁መንፈ": 2522,
  "ብሎ": 2523,
  "▁ዝነበረ": 2524,
  "▁ኸም": 2525,
  "ለያ": 2526,
  "▁ግብ": 2527,
  "▁ልጆች": 2528,
  "▁ልዕሊ": 2529,
  "ንቀ": 2530,
  "▁ይችላል": 2531,
  "▁መሆን": 2532,
  "▁ኣፍ": 2533,
  "▁አምላክ": 2534,
  "ልም": 2535,
  "ግራ": 2536,
  "▁ገለ": 2537,
  "ፈር": 2538,
  "▁ክሳብ": 2539,
  "▁ኢና።": 2540,
  "ፈት": 2541,
  "▁እር": 2542,
  "ደም": 2543,
  "▁ንዓ": 2544,
  "▁እየ።": 2545,
  "ዞም": 2546,
  "ኣት": 2547,
  "▁አንዱ": 2548,
  "▁9": 2549,
  "ንቋ": 2550,
  "▁ዛሬ": 2551,
  "▁አለው": 2552,
  "ምል": 2553,
  "▁ካልእ": 2554,
  "ከፍ": 2555,
  "▁ይመስ": 2556,
  "መራ": 2557,
  "▁መብ": 2558,
  "▁ተገ": 2559,
  "▁አው": 2560,
  "▁ይኹ": 2561,
  "▁ከመይ": 2562,
  "ገኛ": 2563,
  "▁አንዳ": 2564,
  "ንካ": 2565,
  "▁ነኝ": 2566,
  "▁ነፍ": 2567,
  "▁ኻ": 2568,
  "▁ጣ": 2569,
  "ጠር": 2570,
  "▁እጅ": 2571,
  "ርከብ": 2572,
  "▁ምል": 2573,
  "ቤት": 2574,
  "▁በም": 2575,
  "▁ዩ": 2576,
  "▁ንግ": 2577,
  "ሠራ": 2578,
  "ላማ": 2579,
  "▁እምበር": 2580,
  "ኛውም": 2581,
  "▁ኦ": 2582,
  "▁እነርሱ": 2583,
  "▁ንስኻ": 2584,
  "ደይ": 2585,
  "ቢያ": 2586,
  "▁በል": 2587,
  "ን፡": 2588,
  "▁ነው?": 2589,
  "ኖች": 2590,
  "▁ሁለ": 2591,
  "ላው": 2592,
  "ክር": 2593,
  "▁ከዚህ": 2594,
  "▁ንሓ": 2595,
  "ይል": 2596,
  "ሄድ": 2597,
  "▁ኤርት": 2598,
  "▁‹": 2599,
  "ሄር": 2600,
  "▁ህይወት": 2601,
  "ነታት": 2602,
  "▁ክልተ": 2603,
  "▁የት": 2604,
  "ገው": 2605,
  "▁ምኽንያ": 2606,
  "ሰን": 2607,
  "▁ሁለት": 2608,
  "ድራ": 2609,
  "ሞች": 2610,
  "ያንዳን": 2611,
  "▁አባ": 2612,
  "▁ውድ": 2613,
  "▁M": 2614,
  "▁ተወ": 2615,
  "ግባር": 2616,
  "▁እንደሆነ": 2617,
  "በሉ": 2618,
  "ግል": 2619,
  "▁ዕድ": 2620,
  "▁በእርግጥ": 2621,
  "ኦት": 2622,
  "▁መለ": 2623,
  "▁በቀ": 2624,
  "▁ወን": 2625,
  "ፈላጊ": 2626,
  "ቀት": 2627,
  "▁ነበሩ": 2628,
  "▁ድም": 2629,
  "▁ሆይ": 2630,
  "ለን።": 2631,
  "▁እንድ": 2632,
  "▁መጽሓፍ": 2633,
  "▁ኣዝ": 2634,
  "▁ተሰ": 2635,
  "▁ገዛ": 2636,
  "ሬታ": 2637,
  "▁ቋ": 2638,
  "ዊት": 2639,
  "▁ፕሮ": 2640,
  "ገኘ": 2641,
  "ሳሳይ": 2642,
  "▁ሕይወት": 2643,
  "ዎት": 2644,
  "▁የእግዚአብሔር": 2645,
  "የር": 2646,
  "▁የሱስ": 2647,
  "ሕዝ": 2648,
  "ግም": 2649,
  "▁ነገሮች": 2650,
  "▁ምድሪ": 2651,
  "▁ሕቶ": 2652,
  "ማን": 2653,
  "ራን": 2654,
  "ማር": 2655,
  "▁ቡ": 2656,
  "▁ሰላም": 2657,
  "ለኛ": 2658,
  "ሰይ": 2659,
  "ገን": 2660,
  "▁ይህንን": 2661,
  "▁ብዘይ": 2662,
  "▁ንሳ": 2663,
  "▁ያህል": 2664,
  "▁እኳ": 2665,
  "▁ፊ": 2666,
  "ገም": 2667,
  "▁አስፈላጊ": 2668,
  "▁የመጀመሪያ": 2669,
  "ትዮ": 2670,
  "▁12": 2671,
  "▁ዝመ": 2672,
  "ቶችን": 2673,
  "▁C": 2674,
  "▁?": 2675,
  "▁ምክንያት": 2676,
  "▁ድማ፡": 2677,
  "▁በየ": 2678,
  "ከኣ": 2679,
  "▁ተፈ": 2680,
  "▁ጭ": 2681,
  "▁ክርስቶስ": 2682,
  "▁ጐ": 2683,
  "▁\"አ": 2684,
  "ነሱ": 2685,
  "▁ነይሩ።": 2686,
  "ላቅ": 2687,
  "▁እንዲሁም": 2688,
  "ላእ": 2689,
  "ናል።": 2690,
  "▁ንዝ": 2691,
  ":2": 2692,
  "▁አማ": 2693,
  "ቦም": 2694,
  "ሉን": 2695,
  "er": 2696,
  "ይና": 2697,
  "▁ፀ": 2698,
  "▁ኣይተ": 2699,
  "ላዊ": 2700,
  "በለጠ": 2701,
  "▁ትር": 2702,
  "ሐፍ": 2703,
  "ቡቕ": 2704,
  "ቀመ": 2705,
  "▁አዲስ": 2706,
  "▁ሙሉ": 2707,
  "▁መጥ": 2708,
  "▁ሓንቲ": 2709,
  "▁እርስዎ": 2710,
  "▁መደ": 2711,
  "▁ልብ": 2712,
  "መት": 2713,
  "▁ኣስ": 2714,
  "▁ይኽእል": 2715,
  "ነትን": 2716,
  "ረኽ": 2717,
  "ክርስ": 2718,
  "in": 2719,
  "▁በለ": 2720,
  "▁ንኽ": 2721,
  "▁ይሰ": 2722,
  "▁ሳይ": 2723,
  "▁15": 2724,
  "▁ምድር": 2725,
  "ገልግሎት": 2726,
  "▁ንእ": 2727,
  "▁በታ": 2728,
  "or": 2729,
  "ድና": 2730,
  "on": 2731,
  "▁ሰዓት": 2732,
  "ሃን": 2733,
  "ጠራ": 2734,
  "ሙን": 2735,
  "▁መሆኑ": 2736,
  "▁18": 2737,
  "ፍራ": 2738,
  "▁አንዳንድ": 2739,
  "ወጣ": 2740,
  "ሙሉ": 2741,
  "▁ማሕ": 2742,
  "ልፍ": 2743,
  "▁ኰ": 2744,
  "ብዙ": 2745,
  "▁ፍር": 2746,
  "▁ኣይኮነን።": 2747,
  "ዘን": 2748,
  "▁ይህም": 2749,
  "ቸው።": 2750,
  "▁ወንድ": 2751,
  "▁የማይ": 2752,
  "እታ": 2753,
  "▁ኤርትራ": 2754,
  "▁ብሎ": 2755,
  "▁ዋጋ": 2756,
  "▁እንኳን": 2757,
  "ሁሉም": 2758,
  "▁ኔ": 2759,
  "▁ቋንቋ": 2760,
  "▁11": 2761,
  "ብረት": 2762,
  "▁ምዃኑ": 2763,
  "ጀመር": 2764,
  "ስም": 2765,
  "ይድ": 2766,
  "ምንታይ": 2767,
  "ርባ": 2768,
  "ዀነ": 2769,
  "▁መንግስቲ": 2770,
  "▁እዚህ": 2771,
  "ሳዕ": 2772,
  "▁ይኹን": 2773,
  "▁ሓበ": 2774,
  "▁ለው": 2775,
  "ቲካ": 2776,
  "ሞክ": 2777,
  "ከራ": 2778,
  "ችኋ": 2779,
  "ቻቸው": 2780,
  "▁ያል": 2781,
  "ርና": 2782,
  "▁ሊሆን": 2783,
  "ታትን": 2784,
  "▁ዘለዎ": 2785,
  "▁አያ": 2786,
  "▁ፓ": 2787,
  "▁ከምቲ": 2788,
  "▁ምሕ": 2789,
  "▁በዚያ": 2790,
  "ደርጋ": 2791,
  "▁ዝግ": 2792,
  "በራ": 2793,
  "▁ሓድ": 2794,
  "▁ተባ": 2795,
  "▁መጻ": 2796,
  "▁ሶ": 2797,
  "▁ክኸውን": 2798,
  "▁የበለጠ": 2799,
  "▁ናቸው።": 2800,
  "▁A": 2801,
  "▁ሓቂ": 2802,
  "ያንዳንዱ": 2803,
  "ብራ": 2804,
  "ታቸው": 2805,
  "▁ምእንቲ": 2806,
  "▁ድር": 2807,
  "መና": 2808,
  "▁ገይ": 2809,
  "ትኩም": 2810,
  "ታን": 2811,
  "ኣብሔር": 2812,
  "▁ነቶም": 2813,
  "▁[": 2814,
  "▁እስራኤል": 2815,
  "ውስ": 2816,
  "▁ሌሎች": 2817,
  "▁እንጂ": 2818,
  "▁በት": 2819,
  "▁ትምህርቲ": 2820,
  "▁የምት": 2821,
  "ወን": 2822,
  "ችንን": 2823,
  "ገኙ": 2824,
  "ረ።": 2825,
  "ሱን": 2826,
  "▁ለምን": 2827,
  "▁ማዕ": 2828,
  "▁ኣየ": 2829,
  "ባዊ": 2830,
  "▁ንሕና": 2831,
  "ቀጥ": 2832,
  "▁ዘመን": 2833,
  "ብለ": 2834,
  "▁ጽሑ": 2835,
  "ስብ": 2836,
  "▁ቀዳ": 2837,
  "▁እያ።": 2838,
  "ነርሱ": 2839,
  "▁አካ": 2840,
  "ኝ።": 2841,
  "ኩል": 2842,
  "▁ስለዝ": 2843,
  "▁ብዙሓት": 2844,
  "ሰም": 2845,
  "▁ማእ": 2846,
  "▁እምነት": 2847,
  "ዕል": 2848,
  "▁ከሚ": 2849,
  "▁ገና": 2850,
  "ውሮ": 2851,
  "ሕቲ": 2852,
  "▁ኣባ": 2853,
  "▁ዝኣ": 2854,
  "ኾኑ": 2855,
  "▁እየተ": 2856,
  "▁በሎ": 2857,
  "▁ምናል": 2858,
  "▁መጠን": 2859,
  "▁14": 2860,
  "▁ምክንያቱም": 2861,
  "▁እንግ": 2862,
  "▁ፊት": 2863,
  "▁ለም": 2864,
  "ሽን": 2865,
  "▁ሊያ": 2866,
  "▁ሰለ": 2867,
  "ጉም": 2868,
  "ረባ": 2869,
  "▁ፋ": 2870,
  "▁እዚኣ": 2871,
  "▁ገሊ": 2872,
  "▁ደኣ": 2873,
  "ረድ": 2874,
  "ዉ።": 2875,
  "▁አሳ": 2876,
  "ሁንም": 2877,
  "ገዳ": 2878,
  "ያዊ": 2879,
  "▁ብኣ": 2880,
  "ባንያ": 2881,
  "▁ሓበሬታ": 2882,
  "▁ውሽ": 2883,
  "ትዮጵ": 2884,
  "ነዚህ": 2885,
  "ፋት": 2886,
  "▁\"የ": 2887,
  "ማዕ": 2888,
  "ቃሚ": 2889,
  "▁ተቐ": 2890,
  "▁ሽዑ": 2891,
  "ጠት": 2892,
  "ግደ": 2893,
  "ቀው": 2894,
  "▁ኬ": 2895,
  "ረም": 2896,
  "▁ይሆናል": 2897,
  "▁ሆኖ": 2898,
  "▁ኣሕ": 2899,
  "ድሕ": 2900,
  "ደሊ": 2901,
  "▁ከምዘ": 2902,
  "ጠው": 2903,
  "▁ሁል": 2904,
  "ላሉ": 2905,
  "ርብ": 2906,
  "ካም": 2907,
  "▁መረጃ": 2908,
  "▁ዝገ": 2909,
  "▁ዙ": 2910,
  "ግን": 2911,
  "ታል።": 2912,
  "▁በእው": 2913,
  "ህም": 2914,
  "▁ዝበለ": 2915,
  "ጥን": 2916,
  "ሩት": 2917,
  "▁ሲሆን": 2918,
  "▁በአንድ": 2919,
  "ስ፡": 2920,
  "▁ምናልባት": 2921,
  "ኹ።": 2922,
  "▁ጽቡቕ": 2923,
  "ክእ": 2924,
  "▁ያሉ": 2925,
  "▁አሁንም": 2926,
  "▁\"በ": 2927,
  "ርነት": 2928,
  "▁እንዲያ": 2929,
  "▁መሆኑን": 2930,
  "ሃብ": 2931,
  "20": 2932,
  "▁ዝር": 2933,
  "ቡር": 2934,
  "▁እኔም": 2935,
  "ዶም": 2936,
  "ለማ": 2937,
  "ሩን": 2938,
  "ተት": 2939,
  "ርሲ": 2940,
  "▁ሄ": 2941,
  "▁አም": 2942,
  "▁ነበረ።": 2943,
  "▁ተመል": 2944,
  "ፈላለ": 2945,
  "▁በቲ": 2946,
  "ቂት": 2947,
  "ለቲካ": 2948,
  "▁ሃገራት": 2949,
  "ነሳ": 2950,
  "ዋት": 2951,
  "▁እዛ": 2952,
  "ፈልጉ": 2953,
  "ኝነት": 2954,
  "▁ስርዓት": 2955,
  "ኩ።": 2956,
  "▁ብኸ": 2957,
  "▁ነው,": 2958,
  "▁ጀምሮ": 2959,
  "▁መንፈስ": 2960,
  "ራል": 2961,
  "▁+": 2962,
  "ዘጋ": 2963,
  "▁ጻ": 2964,
  "▁እንደገና": 2965,
  "▁ለሚ": 2966,
  "▁S": 2967,
  "ሥራ": 2968,
  "▁ወቅ": 2969,
  "'ቲ": 2970,
  "▁በሰ": 2971,
  "ህበ": 2972,
  "ቤተ": 2973,
  "▁መዝ": 2974,
  "ዛረብ": 2975,
  "▁ዋና": 2976,
  "ጥሮ": 2977,
  "ዋታ": 2978,
  "▁ብት": 2979,
  "▁ፍል": 2980,
  "▁ቪ": 2981,
  "▁ካብቲ": 2982,
  "▁ከዚያም": 2983,
  "ያቄ": 2984,
  "▁የለም": 2985,
  "▁ኵሉ": 2986,
  "ገዝ": 2987,
  "▁ካልኦት": 2988,
  "▁ምዕ": 2989,
  "▁የል": 2990,
  "ሆዋ": 2991,
  "▁የሰ": 2992,
  "ከታ": 2993,
  "መድ": 2994,
  "▁ከፍተኛ": 2995,
  "ቅስ": 2996,
  "ገዛ": 2997,
  "ጢአ": 2998,
  "▁ዝኸ": 2999,
  "ደጋ": 3000,
  "▁ትምህርት": 3001,
  "በቅ": 3002,
  "ካን": 3003,
  "ናገር": 3004,
  "▁ነይሩ": 3005,
  "ክክ": 3006,
  "ኣብሄር": 3007,
  "▁ይሄ": 3008,
  "ግና": 3009,
  "ጠና": 3010,
  "▁እሞ፡": 3011,
  "ነግ": 3012,
  "ራስ": 3013,
  "ዳት": 3014,
  "ይቲ": 3015,
  "▁ቴ": 3016,
  "▁200": 3017,
  "እን": 3018,
  "▁‹‹": 3019,
  "▁13": 3020,
  "ሞት": 3021,
  "▁ሕማ": 3022,
  "▁ኢን": 3023,
  "ውል": 3024,
  "▁ድን": 3025,
  "እቲ": 3026,
  "▁እግዚኣብሔር": 3027,
  "▁ተራ": 3028,
  "ደኛ": 3029,
  "▁በፍ": 3030,
  "▁ኻብ": 3031,
  "▁ምሳ": 3032,
  "ዲያ": 3033,
  "▁ነገራት": 3034,
  "ሉእ": 3035,
  "ወድ": 3036,
  "ነብር": 3037,
  "▁ሞት": 3038,
  "ዳር": 3039,
  "▁ሁሉንም": 3040,
  "ስተኛ": 3041,
  "▁ኩባንያ": 3042,
  "▁ኣለዎ።": 3043,
  "▁ሰማይ": 3044,
  "▁ወለ": 3045,
  "ስና": 3046,
  "ከር": 3047,
  "▁/": 3048,
  "▁መወዳ": 3049,
  "ነፍ": 3050,
  "ሻለ": 3051,
  "ለያዩ": 3052,
  "ሪዎች": 3053,
  "ትዮጵያ": 3054,
  "ነበሩ": 3055,
  "ሕግ": 3056,
  "በላ": 3057,
  "▁ህዝብ": 3058,
  "▁ውጤ": 3059,
  "▁መጽሐፍ": 3060,
  "ወለ": 3061,
  "▁ከሎ": 3062,
  "ርሕ": 3063,
  "ቲያን": 3064,
  "ፈልግ": 3065,
  "ሳዊ": 3066,
  "▁ተቀ": 3067,
  "▁አብዛ": 3068,
  "ስዕ": 3069,
  "▁ተሓ": 3070,
  "▁ክፍል": 3071,
  "ቡ።": 3072,
  "▁እርሱም": 3073,
  "ንታ": 3074,
  "▁በሙሉ": 3075,
  "▁ብፍ": 3076,
  "ወር": 3077,
  "▁በረ": 3078,
  "▁እውነ": 3079,
  "ዛረ": 3080,
  "ሉ.": 3081,
  "▁ኢኻ።": 3082,
  "▁ጥያቄ": 3083,
  "▁ኣእ": 3084,
  "ኒቨ": 3085,
  "▁ብል": 3086,
  "በሮ": 3087,
  "▁ኖ": 3088,
  "ምለ": 3089,
  "ሬት": 3090,
  "▁ምም": 3091,
  "ዝር": 3092,
  "በይቲ": 3093,
  "▁ሒ": 3094,
  "▁ተዋ": 3095,
  "▁ቀላል": 3096,
  "▁ተመሳሳይ": 3097,
  "ክን": 3098,
  "▁17": 3099,
  "ጠቃ": 3100,
  "ዕና": 3101,
  "መው": 3102,
  "▁ኣዝዩ": 3103,
  "ስራኤል": 3104,
  "▁የምን": 3105,
  "ገኝ": 3106,
  "▁16": 3107,
  "ችሉ": 3108,
  "ጌታ": 3109,
  "ዳም": 3110,
  "▁ታላቅ": 3111,
  "an": 3112,
  "ተሓ": 3113,
  "ደው": 3114,
  "▁ደስ": 3115,
  "▁ስራ": 3116,
  "▁ሜ": 3117,
  "▁ልክ": 3118,
  "▁ብተ": 3119,
  "▁ይሁን": 3120,
  "▁አቀ": 3121,
  "::": 3122,
  "ላህ": 3123,
  "ሆንም": 3124,
  "ሰት": 3125,
  "ባብ": 3126,
  "ድም": 3127,
  "▁ፍቕ": 3128,
  "▁በዓል": 3129,
  "▁ኽት": 3130,
  "ህዝ": 3131,
  "ሁኑ": 3132,
  "ለፈ": 3133,
  "▁በሌ": 3134,
  "▁ወይስ": 3135,
  "ቻችን": 3136,
  "▁በተጨማሪ": 3137,
  "▁ማንም": 3138,
  "▁ኣው": 3139,
  "ማኖ": 3140,
  "ንና": 3141,
  "'የ": 3142,
  "▁አለበት": 3143,
  "▁ባዕ": 3144,
  "▁መሳ": 3145,
  "ላ።": 3146,
  "▁ወቅት": 3147,
  "▁መልእ": 3148,
  "en": 3149,
  "▁አልተ": 3150,
  "ም.": 3151,
  "▁P": 3152,
  "▁ንመ": 3153,
  "ነብ": 3154,
  "▁መወዳእታ": 3155,
  "▁ተጨማሪ": 3156,
  "ቢት": 3157,
  "ኽቲ": 3158,
  "▁ኩነታት": 3159,
  "ጸን": 3160,
  "▁በዓለም": 3161,
  "▁ማስ": 3162,
  "▁ሰማ": 3163,
  "ገብሮ": 3164,
  "ኰነ": 3165,
  "ነገ": 3166,
  "▁እጅግ": 3167,
  "▁!": 3168,
  "ሶም": 3169,
  "▁ትንሽ": 3170,
  "ግባእ": 3171,
  "ርኢ": 3172,
  "▁\"ኣ": 3173,
  "ለየ": 3174,
  "▁ገጽ": 3175,
  "▁መግለ": 3176,
  "ፈራ": 3177,
  "ዲህ": 3178,
  "▁ትልቅ": 3179,
  "ፍን": 3180,
  "▁ምርጫ": 3181,
  "▁ኣብኡ": 3182,
  "ውሰ": 3183,
  "▁ሙሴ": 3184,
  "▁ክብ": 3185,
  "ራሳ": 3186,
  "▁ነበር.": 3187,
  "ጠቀ": 3188,
  "ለም።": 3189,
  "▁ስን": 3190,
  "ከውን": 3191,
  "▁ጀሚ": 3192,
  "ብኝ": 3193,
  "ከቱ": 3194,
  "▁መተ": 3195,
  "ሆና": 3196,
  "▁በጥ": 3197,
  "▁ተጋ": 3198,
  "▁ሃይ": 3199,
  "▁ውን": 3200,
  "▁ዝም": 3201,
  "▁የሚያስ": 3202,
  "▁ሆኖም": 3203,
  "▁ሰዓ": 3204,
  "ምት": 3205,
  "▁ልዩ": 3206,
  "▁ድዩ": 3207,
  "ደረገ": 3208,
  "▁ደን": 3209,
  "▁ለማድረግ": 3210,
  "መረ": 3211,
  "▁መልካም": 3212,
  "▁የታ": 3213,
  "ኹሉ": 3214,
  "ይቶ": 3215,
  "▁ኣካ": 3216,
  "ፋል": 3217,
  "ሳስ": 3218,
  "▁ሴት": 3219,
  "ቷል": 3220,
  "▁ስለሆነ": 3221,
  "000": 3222,
  "ነጋ": 3223,
  "ሳተ": 3224,
  "▁ይብ": 3225,
  "▁ጨዋታ": 3226,
  "ርክ": 3227,
  "▁ከባ": 3228,
  "▁30": 3229,
  "ዳይ": 3230,
  "▁የሆዋ": 3231,
  "ጥነት": 3232,
  "▁ውሳ": 3233,
  "ሊዝ": 3234,
  "▁ብእ": 3235,
  "▁ፍላ": 3236,
  "ዉን": 3237,
  "ኪና": 3238,
  "ዮች": 3239,
  "ቻል": 3240,
  "▁ለማግኘት": 3241,
  "▁ማይ": 3242,
  "ዮም።": 3243,
  "ቃል": 3244,
  "▁ሪ": 3245,
  "ሳን": 3246,
  "ፍቲ": 3247,
  "▁ስት": 3248,
  "▁ያለውን": 3249,
  "▁ሓይ": 3250,
  "ዲዮ": 3251,
  "ለመ": 3252,
  "ደግ": 3253,
  "▁እሷ": 3254,
  "ችንም": 3255,
  "ዎም።": 3256,
  "ላል።": 3257,
  "▁ፍቅር": 3258,
  "▁ዩኒቨ": 3259,
  "▁ነው፤": 3260,
  "▁...": 3261,
  "▁T": 3262,
  "▁ስድራ": 3263,
  "▁ብስ": 3264,
  "▁ዜና": 3265,
  "ኖራ": 3266,
  "ፈልጦ": 3267,
  "▁መገዲ": 3268,
  "ዅሉ": 3269,
  "▁ምት": 3270,
  "ዕቲ": 3271,
  "▁እግዚኣብሄር": 3272,
  "መኑ": 3273,
  "▁ወላ": 3274,
  "▁መሠ": 3275,
  "▁24": 3276,
  "▁እውነት": 3277,
  "▁የእርስዎ": 3278,
  "▁ይሆና": 3279,
  "ጹም": 3280,
  "ረጋገ": 3281,
  "፡-": 3282,
  "ምረ": 3283,
  "▁ዝዓ": 3284,
  "ፈጠ": 3285,
  "▁ንዘ": 3286,
  "ግበ": 3287,
  "ም፤": 3288,
  "ው።": 3289,
  "ካ።": 3290,
  "▁ቀናት": 3291,
  "ማል": 3292,
  "ፍር": 3293,
  "ዛት": 3294,
  "▁ነን": 3295,
  "▁ክፉ": 3296,
  "ኽእሉ": 3297,
  "ar": 3298,
  "19": 3299,
  "እዛ": 3300,
  "▁ኣል": 3301,
  "▁የው": 3302,
  "st": 3303,
  "▁ይበል": 3304,
  "ቀድ": 3305,
  "ቅድ": 3306,
  "▁ኲ": 3307,
  "▁ቐ": 3308,
  "ፖርት": 3309,
  "ራብ": 3310,
  "▁ማግኘት": 3311,
  "ቹን": 3312,
  "▁ኢሎም": 3313,
  "▁ስለምንታይ": 3314,
  "ላን": 3315,
  "at": 3316,
  "▁ሕጊ": 3317,
  "le": 3318,
  "▁ዝወ": 3319,
  "▁ግና፡": 3320,
  "ቡን": 3321,
  "ኖሩ": 3322,
  "ጠብ": 3323,
  "▁ገበ": 3324,
  "ሊት": 3325,
  "ፍለ": 3326,
  "▁ግንኙ": 3327,
  "ርሲቲ": 3328,
  "▁ነብ": 3329,
  "▁እንዳለ": 3330,
  "▁አጋ": 3331,
  "▁ወረ": 3332,
  "▁ዕድል": 3333,
  "▁ሱ": 3334,
  "▁ፖለቲካ": 3335,
  "▁ናት": 3336,
  "▁ኣጋ": 3337,
  "▁ተኣ": 3338,
  "▁ሰለስተ": 3339,
  "▁መሪ": 3340,
  ":3": 3341,
  "ከና": 3342,
  "▁ንጉስ": 3343,
  "▁ጥቅም": 3344,
  "▁ለዚህ": 3345,
  "ደርግ": 3346,
  "ወሰነ": 3347,
  "▁ልም": 3348,
  "▁ጥራሕ": 3349,
  "ታችን": 3350,
  "▁ነጻ": 3351,
  "▁በሕ": 3352,
  "ሙር": 3353,
  "ቂያ": 3354,
  "▁ፍላጎ": 3355,
  "▁እንተኾነ": 3356,
  "▁ኣመ": 3357,
  "▁ፈቃ": 3358,
  "ሮም።": 3359,
  "ጥፍ": 3360,
  "▁መድረ": 3361,
  "ኽእል።": 3362,
  "▁ጳ": 3363,
  "ከለ": 3364,
  "ህና": 3365,
  "▁ይፈልጋ": 3366,
  "▁ያውቃ": 3367,
  "ተኞች": 3368,
  "▁ኣቢ": 3369,
  "▁ግል": 3370,
  "ክስ": 3371,
  "ዘር": 3372,
  "▁መንገ": 3373,
  "▁በኢ": 3374,
  "▁ክሳዕ": 3375,
  "▁ሓድሽ": 3376,
  "▁የስ": 3377,
  "ራዊት": 3378,
  "ንዳ": 3379,
  "ኹም።": 3380,
  "ዋ።": 3381,
  "▁ናይቲ": 3382,
  "▁በር": 3383,
  "ኣን": 3384,
  "▁25": 3385,
  "▁ምኽንያት": 3386,
  "ተና": 3387,
  "ባህ": 3388,
  "▁እያንዳንዱ": 3389,
  "▁ኣገዳ": 3390,
  "▁በስ": 3391,
  "ጣል": 3392,
  "▁ኣም": 3393,
  "ሰርሕ": 3394,
  "ቸዋ": 3395,
  "ጥም": 3396,
  "▁ዝዀነ": 3397,
  "▁ሮ": 3398,
  "▁አይደለም።": 3399,
  "▁አለ።": 3400,
  "▁ይችላል።": 3401,
  "ዩ።": 3402,
  "መለስ": 3403,
  "▁ጽሑፍ": 3404,
  "▁ኣት": 3405,
  "▁ጐይታ": 3406,
  "ሮችን": 3407,
  "▁ተማሪ": 3408,
  "▁ኢለ": 3409,
  "ረኣ": 3410,
  "▁አገ": 3411,
  "ርግጠ": 3412,
  "ችሁን": 3413,
  "▁ቻ": 3414,
  "ከም": 3415,
  "ና፡": 3416,
  "▁በደ": 3417,
  "▁የኢ": 3418,
  "▁ችግር": 3419,
  "መጽእ": 3420,
  "▁ሰይ": 3421,
  "ያዳ": 3422,
  "▁መላእ": 3423,
  "ምራ": 3424,
  "▁ከለ": 3425,
  "▁ታሪኽ": 3426,
  "▁ብኸመይ": 3427,
  "ሊዮን": 3428,
  "▁ፍት": 3429,
  "ጠፋ": 3430,
  "▁ይችላሉ.": 3431,
  "▁ብርሃን": 3432,
  "▁ዓብ": 3433,
  "▁ይልቅ": 3434,
  "አን": 3435,
  "ገነ": 3436,
  "▁ስብ": 3437,
  "ጽሕ": 3438,
  "ልእ": 3439,
  "▁ኢትዮጵያ": 3440,
  "ይት": 3441,
  "▁ብዬ": 3442,
  "ኑን": 3443,
  "▁ዘለዉ": 3444,
  "▁ከባቢ": 3445,
  "ናዮ": 3446,
  "▁የእኔ": 3447,
  "▁ወርሒ": 3448,
  "▁ነበሩ።": 3449,
  "▁ኣድ": 3450,
  "ግደፍ": 3451,
  "ፈጸ": 3452,
  "▁ክንደይ": 3453,
  "▁ዓቢ": 3454,
  "▁መዓ": 3455,
  "ጅም": 3456,
  "▁ውሽጢ": 3457,
  "▁ምው": 3458,
  "ምነት": 3459,
  "▁አላህ": 3460,
  "ሞም": 3461,
  "ጠቀም": 3462,
  "▁በኩል": 3463,
  "ከላ": 3464,
  "▁ልጆ": 3465,
  "▁ዋላ": 3466,
  "▁ይገባ": 3467,
  "ክክል": 3468,
  "▁ኢኹም": 3469,
  "▁ስደ": 3470,
  "▁ቀደም": 3471,
  "ለወ": 3472,
  "ች።": 3473,
  "ገቡ": 3474,
  "▁ሠ": 3475,
  "▁ብለው": 3476,
  "ሎም።": 3477,
  "ዳል": 3478,
  "▁ደር": 3479,
  "▁ደቀ": 3480,
  "▁ኢልካ": 3481,
  "ገደ": 3482,
  "▁ዳዊት": 3483,
  "▁ነፃ": 3484,
  "▁ታሪክ": 3485,
  "▁መንእ": 3486,
  "ቸውም": 3487,
  "▁ዕለት": 3488,
  "ረኸ": 3489,
  "▁(አ": 3490,
  "▁በእግዚአብሔር": 3491,
  "ስማ": 3492,
  "▁መድ": 3493,
  "ሕት": 3494,
  "▁የተሻለ": 3495,
  "ተኛታት": 3496,
  "▁ትግ": 3497,
  "▁ኣይን": 3498,
  "▁N": 3499,
  "ኛል": 3500,
  "▁መንግሥ": 3501,
  "▁ምሉእ": 3502,
  "ሪያዎች": 3503,
  "ሎጂ": 3504,
  "▁የሕ": 3505,
  "▁ተግባ": 3506,
  "▁ተነ": 3507,
  "▁ዐ": 3508,
  "▁ንሳቶም": 3509,
  "▁ኣለዉ።": 3510,
  "ረክብ": 3511,
  "የው": 3512,
  "▁ፖሊ": 3513,
  "ሜን": 3514,
  "▁መንጎ": 3515,
  "▁I": 3516,
  "ፈው": 3517,
  "ውሎ": 3518,
  "▁ዓዲ": 3519,
  "▁እነሆ": 3520,
  "▁ጸሎት": 3521,
  "ቆም": 3522,
  "ራሱ": 3523,
  "▁ማየት": 3524,
  "ጠይ": 3525,
  "▁ነህ": 3526,
  "ሰል": 3527,
  "ግለ": 3528,
  "▁ክብል": 3529,
  "▁ወሲ": 3530,
  "▁ከነ": 3531,
  "▁በተጨማሪም": 3532,
  "ጠሩ": 3533,
  "ሓን": 3534,
  "በኛ": 3535,
  "it": 3536,
  "▁ጀመ": 3537,
  "▁ከማ": 3538,
  "▁እዞም": 3539,
  "ተኛው": 3540,
  "▁\"ን": 3541,
  "በው": 3542,
  "ገብረ": 3543,
  "▁ቃላት": 3544,
  "▁ኪዳን": 3545,
  "▁ሩ": 3546,
  "▁እንደተ": 3547,
  "▁ዘይተ": 3548,
  "ምስ": 3549,
  "ያል": 3550,
  "ደርጉ": 3551,
  "ወል": 3552,
  "▁ትኽእል": 3553,
  "▁አላቸው": 3554,
  "▁ሴቶች": 3555,
  "▁23": 3556,
  "▁ንገ": 3557,
  "▁እነርሱም": 3558,
  "ካብ": 3559,
  "▁ነታ": 3560,
  "ባሕ": 3561,
  "ሁለ": 3562,
  "▁ያሳ": 3563,
  "ራሽ": 3564,
  "ct": 3565,
  "ርመን": 3566,
  "▁ሁልጊዜ": 3567,
  "▁ካብዚ": 3568,
  "ጽል": 3569,
  "ምንት": 3570,
  "▁ይኸውን": 3571,
  "ያንስ": 3572,
  "▁ሕዝብ": 3573,
  "▁ህይወ": 3574,
  "ጣሚ": 3575,
  "▁ነው!": 3576,
  "ጠን": 3577,
  "ለዋ": 3578,
  "▁ዳር": 3579,
  "ቀል": 3580,
  "▁ምርጥ": 3581,
  "▁ነጥ": 3582,
  "ላንድ": 3583,
  "ሰባ": 3584,
  "ናዊ": 3585,
  "▁ለተ": 3586,
  "▁የብሉ": 3587,
  "▁ተዓ": 3588,
  "▁ዩኒቨርሲቲ": 3589,
  "ክምና": 3590,
  "ወይ": 3591,
  "▁መመ": 3592,
  "▁R": 3593,
  "▁ፎ": 3594,
  "▁ምህ": 3595,
  "▁21": 3596,
  "ድልየ": 3597,
  "▁ቁጥር": 3598,
  "▁ናቸው.": 3599,
  "ደስ": 3600,
  "በቃ": 3601,
  "▁በመጨረሻ": 3602,
  "▁ኣይኮነን": 3603,
  "ቸዋል።": 3604,
  "▁የቀ": 3605,
  "▁ደገ": 3606,
  "▁ኣይኮ": 3607,
  "▁እዩ፡": 3608,
  "ኞቹ": 3609,
  "▁ዘር": 3610,
  "▁ሚኒ": 3611,
  "ዋር": 3612,
  "ገልጽ": 3613,
  "ቻቸውን": 3614,
  "▁ቢሆን": 3615,
  "▁ብሓቂ": 3616,
  "▁እነዚህን": 3617,
  "▁ትእዛ": 3618,
  "▁22": 3619,
  "▁ስፍራ": 3620,
  "▁ከሌ": 3621,
  "▁ፍቕሪ": 3622,
  "▁ማወቅ": 3623,
  "ሜት": 3624,
  "▁ስጋ": 3625,
  "▁ምግ": 3626,
  "ወስድ": 3627,
  "▁ጥቂት": 3628,
  "▁ሃይማኖ": 3629,
  "ያ።": 3630,
  "▁ዝነበሩ": 3631,
  "▁ምፍ": 3632,
  "▁አለው።": 3633,
  "ደና": 3634,
  "ዱ።": 3635,
  "▁በብ": 3636,
  "ድካ": 3637,
  "ትያን": 3638,
  "ቸዋል": 3639,
  "▁ሓይሊ": 3640,
  "ረጋግ": 3641,
  "▁ሲያ": 3642,
  "በትን": 3643,
  "ዋቂ": 3644,
  "ስትሪ": 3645,
  "▁ተባሂ": 3646,
  "▁ህግደፍ": 3647,
  "▁መጺ": 3648,
  "▁ስነ": 3649,
  "ልኩም": 3650,
  "▁በተለይ": 3651,
  "ጻኢ": 3652,
  "▁ክህ": 3653,
  "ደለ": 3654,
  "መጡ": 3655,
  "ርካታ": 3656,
  "▁ዙሪያ": 3657,
  "▁ይችላል.": 3658,
  "ጥታ": 3659,
  "▁የብ": 3660,
  "ጽን": 3661,
  "▁አልነበረ": 3662,
  "▁ብድ": 3663,
  "ደረግ": 3664,
  "▁ኣይነበረ": 3665,
  "▁እባ": 3666,
  "▁ንዕ": 3667,
  "▁ወዳ": 3668,
  "▁ብዘ": 3669,
  "▁መልክ": 3670,
  "ሰቡ": 3671,
  "▁ቢያንስ": 3672,
  "▁መልሲ": 3673,
  "ዛብ": 3674,
  "▁እኮ": 3675,
  "▁ኸኣ፡": 3676,
  "ጥረት": 3677,
  "▁ሃብ": 3678,
  "▁ዘይኮነ": 3679,
  "▁ትዕ": 3680,
  "ግበር": 3681,
  "▁ዘላ": 3682,
  "ሽተ": 3683,
  "ኻትኩም": 3684,
  "ቅን": 3685,
  "▁ዝተፈላለ": 3686,
  "▁ሦ": 3687,
  "▁ከሰ": 3688,
  "▁ዘይት": 3689,
  "ችልም": 3690,
  "▁ኣገዳሲ": 3691,
  "የን": 3692,
  "ou": 3693,
  "ንግድ": 3694,
  "▁B": 3695,
  "'ዶ": 3696,
  "▁ኪኸውን": 3697,
  "ታማ": 3698,
  "▁እድ": 3699,
  "▁ይቀ": 3700,
  "ሮን": 3701,
  "▁ሓሳብ": 3702,
  "ልዑ": 3703,
  "▁የተለያዩ": 3704,
  "▁ምኽንያቱ": 3705,
  "በኣ": 3706,
  "ልክ": 3707,
  "▁ንደ": 3708,
  "▁ይታ": 3709,
  "▁ፍሉ": 3710,
  "ቦት": 3711,
  "ዕን": 3712,
  "▁ፅ": 3713,
  "....": 3714,
  "▁ስልጣን": 3715,
  "ደረጉ": 3716,
  "ሕን": 3717,
  "▁(1": 3718,
  "▁ኩሎም": 3719,
  "ዓተ": 3720,
  "ኻን": 3721,
  "▁አዳ": 3722,
  "▁ሻ": 3723,
  "▁ኃይል": 3724,
  "ድሊ": 3725,
  "ውንም": 3726,
  "▁ሓገዝ": 3727,
  "▁ዘመ": 3728,
  "▁ተረ": 3729,
  "▁G": 3730,
  "▁በምድር": 3731,
  "▁ከባድ": 3732,
  "ገራ": 3733,
  "▁ተማ": 3734,
  "ላሽ": 3735,
  "ምኑ": 3736,
  "▁መንገዲ": 3737,
  "▁የእኛ": 3738,
  "ጥረ": 3739,
  "▁አገልግሎት": 3740,
  "ክኖ": 3741,
  "ገት": 3742,
  "ልቁ": 3743,
  "▁መሬት": 3744,
  "ታቸውን": 3745,
  "ውሰድ": 3746,
  "▁ከኣ፡": 3747,
  "ይነ": 3748,
  "ሚያ": 3749,
  "▁ኃጢአ": 3750,
  "ፈልጡ": 3751,
  "▁E": 3752,
  "▁አካባቢ": 3753,
  "ንድን": 3754,
  "▁እርስ": 3755,
  "ባኤ": 3756,
  "▁መራ": 3757,
  "▁የወ": 3758,
  "▁ቢሆንም": 3759,
  "ገልግሎ": 3760,
  "ራሲ": 3761,
  "▁ለእኔ": 3762,
  "ውሮፓ": 3763,
  "▁ወሰ": 3764,
  "▁ዞ": 3765,
  "▁መዛ": 3766,
  "ንኛውም": 3767,
  "▁Me": 3768,
  "ዙይ": 3769,
  "ከኣል": 3770,
  "▁W": 3771,
  "ኢት": 3772,
  "▁ጆ": 3773,
  "▁ምግብ": 3774,
  "ለሁ፤": 3775,
  "ንኩ": 3776,
  "ሓይ": 3777,
  "ሩሳሌ": 3778,
  "▁ይፈ": 3779,
  "▁ምሳሌ": 3780,
  "▁የሰው": 3781,
  "▁ይኸ": 3782,
  "▁ብሕ": 3783,
  "ህይወት": 3784,
  "ከብ": 3785,
  "▁ፕሮግራ": 3786,
  "ንብ": 3787,
  "ረበ": 3788,
  "ሰበ": 3789,
  "▁ፍጹም": 3790,
  "ቡብ": 3791,
  "ካየ": 3792,
  "▁በእርሱ": 3793,
  "▁ኳ": 3794,
  "▁*": 3795,
  "ጸል": 3796,
  "ቱ።": 3797,
  "▁ጾ": 3798,
  "▁ይብል": 3799,
  "ሳኺ": 3800,
  "ዋዕ": 3801,
  "▁የለን።": 3802,
  "▁ዘየ": 3803,
  "ለፍ": 3804,
  "▁ንላ": 3805,
  "ገብሩ": 3806,
  "▁መጨረሻ": 3807,
  "››": 3808,
  "▁ሰብኣይ": 3809,
  "▁ክርስቲያን": 3810,
  "▁መኪና": 3811,
  "▁ትርጉም": 3812,
  "ic": 3813,
  "ጻእ": 3814,
  ":-": 3815,
  "▁ደም": 3816,
  "ብዛ": 3817,
  "ለስ": 3818,
  "▁ከእርሱ": 3819,
  "▁ግንኙነት": 3820,
  "▁ሲል": 3821,
  "▁ይስ": 3822,
  "ምጃ": 3823,
  "▁እዩ\"": 3824,
  "▁በርካታ": 3825,
  "▁ዝኽእል": 3826,
  "▁ጦ": 3827,
  "▁ይዘ": 3828,
  "ሪት": 3829,
  "መስል": 3830,
  ",000": 3831,
  "al": 3832,
  "▁ኣብታ": 3833,
  "▁ተኸ": 3834,
  "ስታት": 3835,
  "▁ብመ": 3836,
  "ለች።": 3837,
  "▁መጀመሪያ": 3838,
  "▁እስኪ": 3839,
  "▁መሠረት": 3840,
  "ዊሕ": 3841,
  "▁እወ": 3842,
  "▁ተደ": 3843,
  "ያዝ": 3844,
  "▁አካል": 3845,
  "▁ማህ": 3846,
  "ሃር": 3847,
  "ብጻ": 3848,
  "▁ሓላ": 3849,
  "▁ተጠቃሚ": 3850,
  "▁26": 3851,
  "ርያም": 3852,
  "ro": 3853,
  "▁ውጭ": 3854,
  "▁መቼ": 3855,
  "ሁለት": 3856,
  "ጤና": 3857,
  "▁ሳይሆን": 3858,
  "▁ዝሓለፈ": 3859,
  "▁ክብር": 3860,
  "▁ተዛ": 3861,
  "ክኖሎጂ": 3862,
  "▁ናብቲ": 3863,
  "▁መቀ": 3864,
  "ምበር": 3865,
  "ሓደ": 3866,
  "▁ነፍሲ": 3867,
  "▁ጸኒ": 3868,
  "▁(እ": 3869,
  "▁ደው": 3870,
  "▁ምጽ": 3871,
  "በየ": 3872,
  "ውቅ": 3873,
  "ስር": 3874,
  "▁ኣገልግሎት": 3875,
  "▁ጸጋ": 3876,
  "ጫወት": 3877,
  "▁በለ።": 3878,
  "ሃም": 3879,
  "▁አሉ።": 3880,
  "▁መብዛ": 3881,
  "ኩም።": 3882,
  "▁የነበረ": 3883,
  "▁ኣይኰነ": 3884,
  "▁እሱን": 3885,
  "ናግ": 3886,
  "▁እንስ": 3887,
  "▁መጣ": 3888,
  "ጠል": 3889,
  "▁ሰም": 3890,
  "ደገ": 3891,
  "▁ቀዳማይ": 3892,
  "ሁዳ": 3893,
  "ሪክ": 3894,
  "▁ንሰ": 3895,
  "ላር": 3896,
  "ነበር": 3897,
  "▁ይመ": 3898,
  "ቴን": 3899,
  "ይህ": 3900,
  "ጠቃላይ": 3901,
  "ቀኑ": 3902,
  "ጋና": 3903,
  "▁አገር": 3904,
  "▁ጳውሎ": 3905,
  "▁ምልክት": 3906,
  "ብዎ": 3907,
  "ዮ።": 3908,
  "▁ትክክ": 3909,
  "▁ችግ": 3910,
  "ካት": 3911,
  "ገልጋ": 3912,
  "ያውቁ": 3913,
  "ዘላ": 3914,
  "▁አቀፍ": 3915,
  "▁ጣቢያ": 3916,
  "ሻሻ": 3917,
  "ሎ።": 3918,
  "ኩት": 3919,
  "ረፈ": 3920,
  "▁ፍቓ": 3921,
  "ዝን": 3922,
  "▁ባል": 3923,
  "▁እዩ፣": 3924,
  "ዛሬ": 3925,
  "▁አታ": 3926,
  "▁ጃ": 3927,
  "▁እግዚአብሔርን": 3928,
  "▁ኢየ": 3929,
  "▁መሰል": 3930,
  "▁ነቢ": 3931,
  "ሃል።": 3932,
  "▁መፍት": 3933,
  "▁ኣኼ": 3934,
  "▁ለምሳሌ": 3935,
  "▁አሜሪካ": 3936,
  "ል?": 3937,
  "ጋዊ": 3938,
  "ጽዕ": 3939,
  "▁ይገኛ": 3940,
  "▁ኢኹም።": 3941,
  "▁Cor": 3942,
  "ዚቃ": 3943,
  "▁ትሕቲ": 3944,
  "▁ጥር": 3945,
  "oo": 3946,
  "▁D": 3947,
  "▁ይቕ": 3948,
  "▁አፍ": 3949,
  "▁አቅ": 3950,
  "▁\"ከ": 3951,
  "▁t": 3952,
  "▁ወከፍ": 3953,
  "ሕር": 3954,
  "ካይ": 3955,
  "▁ንላዕሊ": 3956,
  "▁ጫ": 3957,
  "▁እርምጃ": 3958,
  "ንት": 3959,
  "▁እፈልጋ": 3960,
  "▁ከእናንተ": 3961,
  "ታቶም": 3962,
  "▁ዀ": 3963,
  "ኝም": 3964,
  "ድቅ": 3965,
  "ሲ፡": 3966,
  "ስቡ": 3967,
  "ቆብ": 3968,
  "▁ሰነ": 3969,
  "▁ይቅር": 3970,
  "ራ።": 3971,
  "▁የሚሰ": 3972,
  "ፈስ": 3973,
  "▁ፕሮጀ": 3974,
  "▁መደብ": 3975,
  "▁ይላል": 3976,
  "▁ይሆናል።": 3977,
  "ሩሳሌም": 3978,
  "ጋሪ": 3979,
  "▁የሌ": 3980,
  "▁ማንኛውም": 3981,
  "▁ሕግ": 3982,
  "▁ቅር": 3983,
  "▁ሰበይቲ": 3984,
  "ልዓ": 3985,
  "▁ተሳ": 3986,
  "▁አባት": 3987,
  "▁ሓቢ": 3988,
  "▁ከቢ": 3989,
  "▁ሺ": 3990,
  "ብላ": 3991,
  "ከሰ": 3992,
  "▁ንድ": 3993,
  "▁ኣለዎ": 3994,
  "▁ወጻኢ": 3995,
  "▁ውሳኔ": 3996,
  "▁ኣበይ": 3997,
  "▁የባ": 3998,
  "▁ዝርዝር": 3999,
  "▁በዓ": 4000,
  "▁እንተዘይ": 4001,
  "▁ዘሎ።": 4002,
  "ቓል": 4003,
  "▁ድል": 4004,
  "ለሁ.": 4005,
  "ካዮ": 4006,
  "▁መሣ": 4007,
  "▁ካልኣይ": 4008,
  "▁በሎ።": 4009,
  "▁F": 4010,
  "▁እዚያ": 4011,
  "ሴፍ": 4012,
  "ናብ": 4013,
  "ተማ": 4014,
  "▁i": 4015,
  "ጠበ": 4016,
  "▁አይነት": 4017,
  "rect": 4018,
  "▁ይግባእ": 4019,
  "▁መታ": 4020,
  "ለውን": 4021,
  "▁ይበ": 4022,
  "ጣሪ": 4023,
  "▁ፍላጎት": 4024,
  "▁ይሆናል.": 4025,
  "▁ኣሜሪካ": 4026,
  "▁ዜጋ": 4027,
  "▁ዕድሜ": 4028,
  "▁እግ": 4029,
  "▁እምበር፡": 4030,
  "▁በቅር": 4031,
  "▁በመጀመሪያ": 4032,
  "ፉት": 4033,
  "▁አግ": 4034,
  "ጻር": 4035,
  "▁ከእኔ": 4036,
  "ል፤": 4037,
  "▁ኽን": 4038,
  "ሙያ": 4039,
  "▁(በ": 4040,
  "▁ብቐ": 4041,
  "ሶች": 4042,
  "ብረተ": 4043,
  "ገንዘብ": 4044,
  "ታችሁ": 4045,
  "▁ሰሚ": 4046,
  "▁ኣኼባ": 4047,
  "▁ተጫ": 4048,
  "ን?": 4049,
  "▁ብሰ": 4050,
  "▁እተን": 4051,
  "▁ፈር": 4052,
  "ጠፍ": 4053,
  "ንክ": 4054,
  "▁መጀመር": 4055,
  "▁ሁላ": 4056,
  "ምልከት": 4057,
  "▁አያስ": 4058,
  "▁Correct": 4059,
  "▁መልስ": 4060,
  "ኡን": 4061,
  "ሖዋ": 4062,
  "▁ብዓ": 4063,
  "▁ከሆነ,": 4064,
  "ረተ": 4065,
  "▁ቕ": 4066,
  "▁እኔን": 4067,
  "▁የሚል": 4068,
  "▁ኣባላት": 4069,
  "ፎም": 4070,
  "▁እንሆ": 4071,
  "▁የለም።": 4072,
  "▁ዝቐ": 4073,
  "▁በአሁኑ": 4074,
  "▁ሰን": 4075,
  "▁ኣደ": 4076,
  "▁ዶላር": 4077,
  "▁ጉዞ": 4078,
  "▁በታች": 4079,
  "▁ያደርጋ": 4080,
  "ጡ።": 4081,
  "▁ይቻ": 4082,
  "ሞን": 4083,
  "▁መግለጺ": 4084,
  "ጋፍ": 4085,
  "በራዊ": 4086,
  "▁የሚቆ": 4087,
  "▁ሚሊዮን": 4088,
  "ነይ": 4089,
  "ርዳ": 4090,
  "ክዎ": 4091,
  "▁ለውጢ": 4092,
  "▁መተግበ": 4093,
  "▁እናተ": 4094,
  "ብና": 4095,
  "ዲት": 4096,
  "▁ጸገም": 4097,
  "▁የለው": 4098,
  "ርእዮ": 4099,
  "▁እንደዚህ": 4100,
  "ጋሚ": 4101,
  "▁መሰረት": 4102,
  "መለከተ": 4103,
  "ዋይ": 4104,
  "▁ሰብኣ": 4105,
  "▁ትግራይ": 4106,
  "▁ቡድን": 4107,
  "▁ኾ": 4108,
  "ለው።": 4109,
  "▁ለመስ": 4110,
  "ፎች": 4111,
  "ኑዕ": 4112,
  "▁እንዳይ": 4113,
  "ርባዕ": 4114,
  "ሎን": 4115,
  "▁c": 4116,
  "▁በየቀኑ": 4117,
  "▁ቱ": 4118,
  "▁ተቓ": 4119,
  "▁ቀጥ": 4120,
  "▁(የ": 4121,
  "▁ይሰማ": 4122,
  "ገበ": 4123,
  "▁ወንጌ": 4124,
  "ቾች": 4125,
  "▁ዕላማ": 4126,
  "▁ይበልጥ": 4127,
  "ሁት": 4128,
  "ተል": 4129,
  "▁ኣማ": 4130,
  "ሳሳ": 4131,
  "▁ዉ": 4132,
  "▁ዅሉ": 4133,
  "▁እነሱን": 4134,
  "ይኖም": 4135,
  "▁ሳዕ": 4136,
  "ሉ?": 4137,
  "ሸት": 4138,
  "▁የበ": 4139,
  "▁ትኩ": 4140,
  "▁ታውቃ": 4141,
  "▁የግ": 4142,
  "ጎች": 4143,
  "ዘላለም": 4144,
  "▁አማራ": 4145,
  "▁መጋ": 4146,
  "▁ማሳ": 4147,
  "▁ንኣብ": 4148,
  "▁ኣይክእ": 4149,
  "▁በቂ": 4150,
  "ሁድ": 4151,
  "ሱ።": 4152,
  "om": 4153,
  "ጋራ": 4154,
  "▁አውቃ": 4155,
  "▁ስላ": 4156,
  "▁ለእርስዎ": 4157,
  "▁ስለሆነም": 4158,
  "ጅለ": 4159,
  "▁ንጹ": 4160,
  "▁እንከ": 4161,
  "መሰግና": 4162,
  "▁የፍ": 4163,
  "▁ጉባኤ": 4164,
  "ለል": 4165,
  "▁ይመል": 4166,
  "▁መሊ": 4167,
  "▁ማስተ": 4168,
  "▁ደቂቃ": 4169,
  "▁አንዳን": 4170,
  "▁ቪዲዮ": 4171,
  "መሳሳይ": 4172,
  "▁፥": 4173,
  "▁ምዕራ": 4174,
  "ታም": 4175,
  "ዕድ": 4176,
  "▁እውነተኛ": 4177,
  "▁ሥር": 4178,
  "▁ኖሮ": 4179,
  "ለህ?": 4180,
  "▁ሉ": 4181,
  "▁ጓደኛ": 4182,
  "▁H": 4183,
  "▁በው": 4184,
  "▁ያላቸው": 4185,
  "▁ገደ": 4186,
  "▁ምላሽ": 4187,
  "▁በእውነት": 4188,
  "ግእ": 4189,
  "▁ጕ": 4190,
  "▁ከል": 4191,
  "▁እርግጠ": 4192,
  "ህበራዊ": 4193,
  "▁ተማሪዎች": 4194,
  "▁ርክብ": 4195,
  "ጡት": 4196,
  "▁ደጊ": 4197,
  "▁የመጀመሪያው": 4198,
  "▁ብፍላይ": 4199,
  "▁ውል": 4200,
  "ፊቱ": 4201,
  "▁ዝኸውን": 4202,
  "ፈለግ": 4203,
  "▁ኰይኑ": 4204,
  "ሆኑም": 4205,
  "▁ቈ": 4206,
  "ቡራት": 4207,
  ":4": 4208,
  "ተዋል": 4209,
  "▁ንኣምላኽ": 4210,
  "ሳቸው": 4211,
  "ምህርት": 4212,
  "▁ጳውሎስ": 4213,
  "▁ተበ": 4214,
  "ረይ": 4215,
  "▁አዎ": 4216,
  "▁ካብኡ": 4217,
  "ዝና": 4218,
  "▁ዘበለ": 4219,
  "▁ዑ": 4220,
  "▁ጥን": 4221,
  "▁ጋዜ": 4222,
  "▁ትክክለኛ": 4223,
  "ደ።": 4224,
  "ቃት": 4225,
  "ስትዮ": 4226,
  "ኻል": 4227,
  "▁ሰዓታት": 4228,
  "ኩምን": 4229,
  "▁28": 4230,
  "ዱስትሪ": 4231,
  "▁የዚህ": 4232,
  "ሎችን": 4233,
  "▁ሰዎችን": 4234,
  "▁ኑ": 4235,
  "▁መው": 4236,
  "▁\"ኣብ": 4237,
  "▁ዝሰ": 4238,
  "▁ባሕሪ": 4239,
  "ነቶች": 4240,
  "ቐት": 4241,
  "ንጉ": 4242,
  "ወረ": 4243,
  "ስተው": 4244,
  "▁ሕዚ": 4245,
  "▁ሕማም": 4246,
  "ad": 4247,
  "▁የካ": 4248,
  "ሃት": 4249,
  "▁ያላ": 4250,
  "▁ኣመሪካ": 4251,
  "▁ጥበብ": 4252,
  "ኒት": 4253,
  "▁ቤተሰብ": 4254,
  "▁ሰሙን": 4255,
  "▁ይመጣ": 4256,
  "▁ተን": 4257,
  "ሙ።": 4258,
  "ንደ": 4259,
  "▁ወጣ": 4260,
  "▁ዓላማ": 4261,
  "▁እዩ፧": 4262,
  "ቲያ": 4263,
  "▁በማለት": 4264,
  "▁ባይ": 4265,
  "▁ንጥ": 4266,
  "ስራ": 4267,
  "▁ፈተና": 4268,
  "ዱት": 4269,
  "▁እሱም": 4270,
  "በባ": 4271,
  "▁አለብ": 4272,
  "▁አመ": 4273,
  "▁ሳል": 4274,
  "▁ዘለዎም": 4275,
  "ፈተ": 4276,
  "ኮኖ": 4277,
  "▁ሰል": 4278,
  "ድሪ": 4279,
  "-1": 4280,
  "▁በእውነቱ": 4281,
  "ክሮ": 4282,
  "ሌት": 4283,
  "▁ቍ": 4284,
  "▁የመጨረሻ": 4285,
  "▁የንግድ": 4286,
  "▁100": 4287,
  "▁ያንን": 4288,
  "ካ፡": 4289,
  "ኸይድ": 4290,
  "ርባዕተ": 4291,
  "▁ሃገራዊ": 4292,
  "ዘዝ": 4293,
  "▁ሀብ": 4294,
  "▁ኣዕ": 4295,
  "▁የተሰ": 4296,
  "▁ኒ": 4297,
  "▁ምዝ": 4298,
  "▁ሕይወ": 4299,
  "▁ዓቕ": 4300,
  "▁ጓደ": 4301,
  "▁ዝለ": 4302,
  "ቃስ": 4303,
  "▁እኛም": 4304,
  "ኑ።": 4305,
  "ዩን": 4306,
  "▁የሆኑ": 4307,
  "▁ጀርመን": 4308,
  "▁ሁለቱም": 4309,
  "ረፍ": 4310,
  "▁ጓል": 4311,
  "▁አብዛኛ": 4312,
  "▁እንችላ": 4313,
  "▁ደብ": 4314,
  "ራም": 4315,
  "ቶቹ": 4316,
  "▁ራስ": 4317,
  "ረታዊ": 4318,
  "▁ይወ": 4319,
  "ምህር": 4320,
  "ም፣": 4321,
  "▁^": 4322,
  "▁አለመ": 4323,
  "▁ጥዕና": 4324,
  "▁50": 4325,
  "▁መም": 4326,
  "▁በሌላ": 4327,
  "▁ከምዘይ": 4328,
  "▁በተመሳሳይ": 4329,
  "▁በስተ": 4330,
  "▁ገይሩ": 4331,
  "ፍጠር": 4332,
  "ጀት": 4333,
  "ሪቃ": 4334,
  "▁ኢልና": 4335,
  "▁ፊልም": 4336,
  "▁ብምባል": 4337,
  "▁አነ": 4338,
  "▁ግናኸ": 4339,
  "▁ይሕ": 4340,
  "▁በሆነ": 4341,
  "▁እምበኣ": 4342,
  "et": 4343,
  "ል,": 4344,
  "▁ዝያዳ": 4345,
  "▁ምግባር": 4346,
  "▁ቤተክርስ": 4347,
  "▁መላ": 4348,
  "▁ፌ": 4349,
  "ስ።": 4350,
  "▁ክህል": 4351,
  "ስቱ": 4352,
  "▁ብቸ": 4353,
  "▁ምስክር": 4354,
  "ጢር": 4355,
  "▁መከራ": 4356,
  "▁ኳስ": 4357,
  "ሴት": 4358,
  "▁ሰይጣን": 4359,
  "▁መጸ": 4360,
  "ሉ፡": 4361,
  "ጽበ": 4362,
  "▁ኣገባ": 4363,
  "▁ንጉሥ": 4364,
  "ዕዞ": 4365,
  "ፈለጉ": 4366,
  "es": 4367,
  "▁በጭ": 4368,
  "▁ረኺ": 4369,
  "ደራ": 4370,
  "▁ድርጅ": 4371,
  "▁ቫ": 4372,
  "▁ኣተ": 4373,
  "▁መሥ": 4374,
  "▁ኣካል": 4375,
  "▁ንኣብነት": 4376,
  "ዱን": 4377,
  "▁ኣዋ": 4378,
  "ሩብ": 4379,
  "ነዚያ": 4380,
  "መልከት": 4381,
  "▁s": 4382,
  "▁ነው\"": 4383,
  "▁እርግጠኛ": 4384,
  "ስዕብ": 4385,
  "▁\"እኔ": 4386,
  "▁በእኔ": 4387,
  "ቋቋ": 4388,
  "ጢኣት": 4389,
  "▁ይሆን": 4390,
  "ውሮጳ": 4391,
  "▁ከቢድ": 4392,
  "▁አግኝ": 4393,
  "▁እንድት": 4394,
  "▁ቶ": 4395,
  "ሉ፤": 4396,
  "▁ኮነ": 4397,
  "▁ትምህር": 4398,
  "▁ስለዚ፡": 4399,
  "▁ዘተ": 4400,
  "▁ማለ": 4401,
  "▁ዘይብሉ": 4402,
  "▁ግብሪ": 4403,
  "▁ንህዝ": 4404,
  "▁መኖር": 4405,
  "▁መረ": 4406,
  "▁በሎም።": 4407,
  "▁በፍጥነት": 4408,
  "ጹ።": 4409,
  "ኖረው": 4410,
  "ዒት": 4411,
  "▁አየ": 4412,
  "▁ኣቐ": 4413,
  "▁እነዚያ": 4414,
  "▁ምልክ": 4415,
  "▁መጻሕ": 4416,
  "▁L": 4417,
  "▁ምስኡ": 4418,
  "▁ሓሳ": 4419,
  "ስል": 4420,
  "ካከ": 4421,
  "▁ዘፍ": 4422,
  "ስታወ": 4423,
  "ሳል": 4424,
  "ብሃል": 4425,
  "▁ህጻ": 4426,
  "ጽሪ": 4427,
  "ዕለ": 4428,
  "ኾን": 4429,
  "▁አለባቸው": 4430,
  "▁አደጋ": 4431,
  "▁የልቦ": 4432,
  "▁ክልቲ": 4433,
  "▁ቤተሰ": 4434,
  "ቻችሁ": 4435,
  "▁መና": 4436,
  "▁አለኝ": 4437,
  "▁እንደሚያ": 4438,
  "▁ጅ": 4439,
  "▁የብሉን።": 4440,
  "ኮኖሚ": 4441,
  "▁ተብሎ": 4442,
  "ሃበ": 4443,
  "ማኝ": 4444,
  "▁ዓብዪ": 4445,
  "am": 4446,
  "ክርስቶስ": 4447,
  "ጠመ": 4448,
  "ቆጣ": 4449,
  "ታሕ": 4450,
  "▁ካብቶም": 4451,
  "▁መስመር": 4452,
  "▁ቀንዲ": 4453,
  "▁ፖለቲካዊ": 4454,
  "▁_": 4455,
  "▁ተግባር": 4456,
  "▁ስለሚ": 4457,
  "ቀደ": 4458,
  "ሓር": 4459,
  "▁ውሃ": 4460,
  "▁ተጫዋ": 4461,
  "ag": 4462,
  "▁199": 4463,
  "▁ለማስ": 4464,
  "ቡእ": 4465,
  "▁ኃይ": 4466,
  "▁ዝበል": 4467,
  "ሕል": 4468,
  "▁ኣህ": 4469,
  "▁ኢድ": 4470,
  "▁መንግስት": 4471,
  "ቶ።": 4472,
  "ውና": 4473,
  "▁ትችላ": 4474,
  "▁ኣለኹ": 4475,
  "▁ጠቃሚ": 4476,
  "▁m": 4477,
  "▁ሁላችንም": 4478,
  "▁40": 4479,
  "▁ሓደጋ": 4480,
  "▁ወት": 4481,
  "ላችሁ።": 4482,
  "መጥ": 4483,
  "▁ንብረት": 4484,
  "ዋም": 4485,
  "▁ኣለኹ።": 4486,
  "ንቅ": 4487,
  "ሊፉ": 4488,
  "▁ኣለዉ": 4489,
  "▁በነ": 4490,
  "▁ቤቱ": 4491,
  "ኒ፡": 4492,
  "▁ለማሳ": 4493,
  "መቱ": 4494,
  "▁ካር": 4495,
  "ቤቱ": 4496,
  "ዋል.": 4497,
  "▁አምላ": 4498,
  "▁በመን": 4499,
  "▁ፍሉይ": 4500,
  "ኣቶም": 4501,
  "ካየድ": 4502,
  "▁ሓሙ": 4503,
  "▁ችሎ": 4504,
  "▁ኣር": 4505,
  "▁ውድብ": 4506,
  "ረቱ": 4507,
  "▁ኣኽ": 4508,
  "▁መንግሥት": 4509,
  "▁ኮም": 4510,
  "▁በሁሉም": 4511,
  "▁መቅ": 4512,
  "ሩም": 4513,
  "▁ተጻ": 4514,
  "▁ከእነርሱ": 4515,
  "▁ወገን": 4516,
  "▁ከአንድ": 4517,
  "▁መሄድ": 4518,
  "ለህ።": 4519,
  "ዖም": 4520,
  "ቷል።": 4521,
  "▁ነገሮችን": 4522,
  "▁ተመለ": 4523,
  "▁ኣጸ": 4524,
  "ስተር": 4525,
  "ጠቀሙ": 4526,
  "▁ወገ": 4527,
  "▁ንኸ": 4528,
  "ቁር": 4529,
  "▁ስሜት": 4530,
  "▁ቴክኖሎጂ": 4531,
  "ሞቱ": 4532,
  "እምሮ": 4533,
  "▁በማንኛውም": 4534,
  "ናይት": 4535,
  "▁ድጋፍ": 4536,
  "▁ዘይም": 4537,
  "▁ለውጥ": 4538,
  "ኣኽ": 4539,
  "▁የለን": 4540,
  "ጠየ": 4541,
  "▁ልቢ": 4542,
  "ውነት": 4543,
  "ንካራ": 4544,
  "ገረ": 4545,
  "ጣዕ": 4546,
  "▁ክፋል": 4547,
  "ላችኋ": 4548,
  "▁\"ብ": 4549,
  "▁የዓለም": 4550,
  "ከባ": 4551,
  "▁ስእ": 4552,
  "▁ደህን": 4553,
  "▁ክፍለ": 4554,
  "ኮች": 4555,
  "ጨነ": 4556,
  "ፍል": 4557,
  "▁ፎቶ": 4558,
  "ac": 4559,
  "ለዉ": 4560,
  "ላፊ": 4561,
  "ዘራ": 4562,
  "ወሰኑ": 4563,
  "ስነት": 4564,
  "መንግ": 4565,
  "እት": 4566,
  "ጽሑ": 4567,
  "▁ኣፍሪቃ": 4568,
  "▁ባዕሉ": 4569,
  "ሰጥ": 4570,
  "ሖም": 4571,
  "ደንት": 4572,
  "▁ጥበ": 4573,
  "▁እንት": 4574,
  "▁ኣርባዕተ": 4575,
  "▁ኣይነበረን።": 4576,
  "ጋት": 4577,
  "▁ብወ": 4578,
  "▁ግድ": 4579,
  "▁ፍሬ": 4580,
  "▁ንክ": 4581,
  "▁ሰላ": 4582,
  "ጴጥሮ": 4583,
  "ጠላ": 4584,
  "▁ወንዶች": 4585,
  "▁ደስታ": 4586,
  "▁እንዳል": 4587,
  "▁ቃልሲ": 4588,
  "ጠበቅ": 4589,
  "▁27": 4590,
  "▁ይብል።": 4591,
  "ን፣": 4592,
  "▁ከይተ": 4593,
  "▁አላቸው።": 4594,
  "▁ጥቅ": 4595,
  "▁ማእከል": 4596,
  "ነግረ": 4597,
  "▁ተወዳ": 4598,
  "▁ብዙውን": 4599,
  "▁የእግዚአብሔርን": 4600,
  "▁የእስራኤል": 4601,
  "▁ጉድ": 4602,
  "▁ያልተ": 4603,
  "▁መቕ": 4604,
  "ልማት": 4605,
  "ዋርያት": 4606,
  "▁ይናገ": 4607,
  "ቅስቃ": 4608,
  "▁ኣለና።": 4609,
  "፧\"": 4610,
  "▁ገብ": 4611,
  "ዎ፡": 4612,
  "▁ልት": 4613,
  "▁መጥፎ": 4614,
  "▁ፈረን": 4615,
  "▁አይደለም.": 4616,
  "▁ዝኽ": 4617,
  "በረሰብ": 4618,
  "▁ኣቕ": 4619,
  "▁የነበሩ": 4620,
  "▁ዘጋ": 4621,
  "▁ብዝተ": 4622,
  "መነ": 4623,
  "▁ነዊሕ": 4624,
  "ትስ": 4625,
  "ዬን": 4626,
  "▁ንስኻትኩም": 4627,
  "▁ስለዝኾነ": 4628,
  "▁እንከሎ": 4629,
  "ሊል": 4630,
  "▁ንሓደ": 4631,
  "▁ክፍሊ": 4632,
  "▁አሸ": 4633,
  "▁ንኹሉ": 4634,
  "▁ክልል": 4635,
  "▁የብል": 4636,
  "▁ድምጺ": 4637,
  "ጽነት": 4638,
  "ብ።": 4639,
  "▁ሰፊ": 4640,
  "▁መብዛሕት": 4641,
  "▁ዘለና": 4642,
  "▁እንግሊዝ": 4643,
  "▁ለመሆን": 4644,
  "▁ስህ": 4645,
  "▁እዋ": 4646,
  "▁አድ": 4647,
  "▁ፈቃድ": 4648,
  "▁ለሌ": 4649,
  "▁ተደር": 4650,
  "▁እርዳ": 4651,
  "▁አምላኽ": 4652,
  "▁ብቕ": 4653,
  "▁ማርያም": 4654,
  "ኩም፡": 4655,
  "▁ነፍስ": 4656,
  "▁መዋ": 4657,
  "▁ብግ": 4658,
  "▁እንተኾ": 4659,
  "ጠባ": 4660,
  "ጽም": 4661,
  "ግርኛ": 4662,
  "▁ሙዚቃ": 4663,
  "▁በውስ": 4664,
  "▁ዴ": 4665,
  "ርአ": 4666,
  "ችው": 4667,
  "ታዎች": 4668,
  "ርም": 4669,
  "▁ትብ": 4670,
  "▁መንፈሳዊ": 4671,
  "ማዊ": 4672,
  "▁ዝጸ": 4673,
  "▁ክቕ": 4674,
  "▁ዕዳ": 4675,
  "▁ኣሎና።": 4676,
  "▁ትካ": 4677,
  "ለ።": 4678,
  "▁ዝርከብ": 4679,
  "▁የተመ": 4680,
  "▁ቀር": 4681,
  "ድዮ": 4682,
  "ኛል።": 4683,
  "id": 4684,
  "▁በቀላሉ": 4685,
  "▁ይኖር": 4686,
  "▁ልዑ": 4687,
  "ጽሞ": 4688,
  "▁ይችላሉ።": 4689,
  "▁መጠቀም": 4690,
  "he": 4691,
  "▁ንኽእል": 4692,
  "▁ብለ": 4693,
  "ላትና": 4694,
  "▁ለእናንተ": 4695,
  "▁አውሮ": 4696,
  "▁አገልግሎ": 4697,
  "▁ካባ": 4698,
  "ቀስ": 4699,
  "▁ሰራዊት": 4700,
  "አት": 4701,
  "ስለ": 4702,
  "▁ሓላፍ": 4703,
  "▁ንብ": 4704,
  "ለን.": 4705,
  "▁ሳምንት": 4706,
  "▁ጊ": 4707,
  "▁ከብ": 4708,
  "▁ነበር,": 4709,
  "▁መገ": 4710,
  "▁የሚፈልጉ": 4711,
  "▁መልእኽቲ": 4712,
  "▁ሓዲ": 4713,
  "ሪስ": 4714,
  "ፋን": 4715,
  "▁የነ": 4716,
  "ቅስቃሴ": 4717,
  "ንቱ": 4718,
  "ባዕ": 4719,
  "▁ፕሬ": 4720,
  "ፍለጥ": 4721,
  "▁ንምንታይ": 4722,
  "ግዚአብ": 4723,
  "ናይትድ": 4724,
  "▁ህን": 4725,
  "▁ተባሂሉ": 4726,
  "▁ለማየት": 4727,
  "ay": 4728,
  "▁ቀድ": 4729,
  "▁ኣገባብ": 4730,
  "ነስ": 4731,
  "▁ወስ": 4732,
  "▁መተግበሪያ": 4733,
  "ሰጣ": 4734,
  "▁መስጠት": 4735,
  "▁ፍርድ": 4736,
  "ፈልገ": 4737,
  "ኡ፡": 4738,
  "▁መንገዶች": 4739,
  "▁ሕል": 4740,
  "▁ዕድመ": 4741,
  "▁እምበኣር": 4742,
  "▁ከአንተ": 4743,
  "▁ይግባእ።": 4744,
  "▁ቲ": 4745,
  "▁ዘረባ": 4746,
  "▁ሞተ": 4747,
  "ሰያት": 4748,
  "ከተማ": 4749,
  "2)": 4750,
  "▁የራ": 4751,
  "▁ናይዚ": 4752,
  "ሁ።": 4753,
  "ዋርያ": 4754,
  "▁ከእግዚአብሔር": 4755,
  "▁ክስተ": 4756,
  "ገኘው": 4757,
  "▁ዝው": 4758,
  "▁ለሁሉም": 4759,
  "ዲሱ": 4760,
  "▁ያን": 4761,
  "▁ጠንካራ": 4762,
  "ወቁ": 4763,
  "▁ለመቀ": 4764,
  "ኣለም": 4765,
  "▁ለእኛ": 4766,
  "ደረገው": 4767,
  "ንግሊዝ": 4768,
  "'ዮም": 4769,
  "ሊያ": 4770,
  "፡1": 4771,
  "ቀመጥ": 4772,
  "▁ምቕ": 4773,
  "▁ክርስትያን": 4774,
  "▁ፍጻ": 4775,
  "▁ጉጅለ": 4776,
  "▁ምስጋና": 4777,
  "▁ርዕ": 4778,
  "▁ኣቦይ": 4779,
  "▁ወንጌል": 4780,
  "▁ሕቶታት": 4781,
  "▁ብን": 4782,
  "ሐይ": 4783,
  "▁29": 4784,
  "▁ይመለ": 4785,
  "▁ዮሴፍ": 4786,
  "▁ፍርዲ": 4787,
  "▁ክወ": 4788,
  "▁ከእኛ": 4789,
  "ም,": 4790,
  "▁ሕቡራት": 4791,
  "ላውያን": 4792,
  "ደልዩ": 4793,
  "▁ዕዮ": 4794,
  "▁በትክክል": 4795,
  "ብህ": 4796,
  "ናዳ": 4797,
  "▁እዝ": 4798,
  "▁የሚችል": 4799,
  "ችለው": 4800,
  "▁ምሽ": 4801,
  "▁ግብጺ": 4802,
  "▁ቻይና": 4803,
  "▁አስቸ": 4804,
  "▁ደጋ": 4805,
  "▁እነሱም": 4806,
  "ክተር": 4807,
  "ፋስ": 4808,
  "▁በላ": 4809,
  "▁ይወስ": 4810,
  "ረዱ": 4811,
  "▁ታዲያ": 4812,
  "ጮች": 4813,
  "▁እዩ?": 4814,
  "ሃሮ": 4815,
  "▁የምታ": 4816,
  "ዓለ": 4817,
  "▁ሰናይ": 4818,
  "▁መለሰ": 4819,
  "▁ምሕረት": 4820,
  "ምዕ": 4821,
  "21": 4822,
  "▁ስሙ": 4823,
  "▁ኮሚ": 4824,
  "ፖር": 4825,
  "▁ቀይ": 4826,
  "▁ክንዲ": 4827,
  "▁ሆነው": 4828,
  "ሏል": 4829,
  "ጫወ": 4830,
  "ዝም": 4831,
  "▁ቁጥ": 4832,
  "'ኳ": 4833,
  "ኬት": 4834,
  "▁ቀል": 4835,
  "▁ፈጺ": 4836,
  "ፈረ": 4837,
  "▁ትልቁ": 4838,
  "▁ተሸ": 4839,
  "▁ዘዴ": 4840,
  "እኔ": 4841,
  "▁ሽሕ": 4842,
  "▁ኣታ": 4843,
  "▁ኤል": 4844,
  "▁ነዛ": 4845,
  "▁ከው": 4846,
  "▁በጭራሽ": 4847,
  "▁የደ": 4848,
  "ከው": 4849,
  "▁ሂደት": 4850,
  "▁ይኽእል።": 4851,
  "▁ስደተኛታት": 4852,
  "ወጥ": 4853,
  "▁ደንበ": 4854,
  "▁ይሰጣ": 4855,
  "▁ቀሪ": 4856,
  "▁እንቅስቃሴ": 4857,
  "▁ለዘላለም": 4858,
  "ከረም": 4859,
  "ኣቱ": 4860,
  "ንግዲህ": 4861,
  "▁ክንድ": 4862,
  "ጽና": 4863,
  "▁ተቋ": 4864,
  "▁ትውል": 4865,
  "ስካ": 4866,
  "▁አንተም": 4867,
  "ዓን": 4868,
  "▁ይኸውን።": 4869,
  "ረቡ": 4870,
  "▁ክሓ": 4871,
  "▁ደብዳ": 4872,
  "▁ማር": 4873,
  "ራቸው": 4874,
  "▁ዓ.": 4875,
  "▁ነይረ።": 4876,
  "ክቶ": 4877,
  "ብሩ": 4878,
  "▁ይመልከቱ": 4879,
  "▁በመስ": 4880,
  "▁ብመን": 4881,
  "▁ይው": 4882,
  "▁ጥሪ": 4883,
  "ዘው": 4884,
  "ሃይ": 4885,
  "▁ይላ": 4886,
  "▁ክበ": 4887,
  "ንጎ": 4888,
  "▁ጀሚሩ": 4889,
  "▁አገልጋ": 4890,
  "▁ያሉት": 4891,
  "▁እንግዲህ": 4892,
  "▁ትም": 4893,
  "ናው": 4894,
  "▁በግል": 4895,
  "▁ኣዚ": 4896,
  "▁የግል": 4897,
  "ኔት": 4898,
  "▁ክነ": 4899,
  "▁ውስጥ,": 4900,
  "በሪ": 4901,
  "ነጋገር": 4902,
  "'ሞ": 4903,
  "▁ወድ": 4904,
  "▁ጌጋ": 4905,
  "▁ሠራ": 4906,
  "ታትና": 4907,
  "ረዳት": 4908,
  "▁ባለው": 4909,
  "▁መቶ": 4910,
  "ወቀ": 4911,
  "ሳሳሊ": 4912,
  "በሳ": 4913,
  "▁ቀረባ": 4914,
  "ፈልገው": 4915,
  "▁ፈለ": 4916,
  "▁ኢንተ": 4917,
  "▁ዳግ": 4918,
  "▁ትእዛዝ": 4919,
  "▁መነ": 4920,
  "ባን": 4921,
  "▁ሬ": 4922,
  "▁ኵሎም": 4923,
  "ስፒ": 4924,
  "ዎስ": 4925,
  "▁በጃ": 4926,
  "ሞክራሲ": 4927,
  "▁ዓሰር": 4928,
  "▁ብሩ": 4929,
  "ኣል": 4930,
  "▁እየን።": 4931,
  "▁ሦስት": 4932,
  "ጀመርያ": 4933,
  "▁ፕሮግራም": 4934,
  "▁አራት": 4935,
  "▁ግልጽ": 4936,
  "ላጥ": 4937,
  "▁ካለ": 4938,
  "▁ራሱ": 4939,
  "ብቅ": 4940,
  "▁ድኣ": 4941,
  "▁ጨምሮ": 4942,
  "▁ፕረ": 4943,
  "ፈጠረ": 4944,
  "ጣዕሚ": 4945,
  "ደሳ": 4946,
  "▁ሰራ": 4947,
  "▁p": 4948,
  "▁ሰር": 4949,
  "ሆኑት": 4950,
  "'ያ": 4951,
  ").": 4952,
  "ፈን": 4953,
  "ከፋ": 4954,
  "▁ስቴ": 4955,
  "ቦም።": 4956,
  "ቀቅ": 4957,
  "በን": 4958,
  "▁እህ": 4959,
  "ሕነት": 4960,
  "▁እግር": 4961,
  "ናን።": 4962,
  "ደርስ": 4963,
  "▁ብሰን": 4964,
  "▁አድርጎ": 4965,
  "ጽር": 4966,
  "ቀድሞ": 4967,
  "▁ወትሩ": 4968,
  "ቅረብ": 4969,
  "▁ዝቅ": 4970,
  "▁ዓበይቲ": 4971,
  "▁እንስሳ": 4972,
  "▁ደስተኛ": 4973,
  "ልኝ": 4974,
  "▁\"መ": 4975,
  "▁ይነ": 4976,
  "▁ባይቶ": 4977,
  "▁ኣርእ": 4978,
  "▁ለመጀመሪያ": 4979,
  "▁የአምላክ": 4980,
  "▁ፕሮጀክት": 4981,
  "▁ውግእ": 4982,
  "▁የተለየ": 4983,
  "ቻለ": 4984,
  "▁በቃ": 4985,
  "▁የተባ": 4986,
  "is": 4987,
  "▁ዝግጁ": 4988,
  "ረጅም": 4989,
  "▁ከዓ": 4990,
  "▁ይቆ": 4991,
  "▁ግድን": 4992,
  "▁ብርግ": 4993,
  "▁ኢያ": 4994,
  "▁ጥቕ": 4995,
  "▁እስካ": 4996,
  "▁መጀመርታ": 4997,
  "▁ዘው": 4998,
  "ሰምዕ": 4999,
  "ከረ": 5000,
  "▁ዝሕ": 5001,
  "▁ወል": 5002,
  "▁ነይሮም።": 5003,
  "ዳእ": 5004,
  "▁ደቡብ": 5005,
  "ላትን": 5006,
  "▁ማህበራዊ": 5007,
  "▁ገበያ": 5008,
  "▁አሎ": 5009,
  "ታቱ": 5010,
  "▁እችላ": 5011,
  "ing": 5012,
  "▁መስርሕ": 5013,
  "▁ፍቓድ": 5014,
  "ኩን": 5015,
  "▁የመጣ": 5016,
  "ንቀሳ": 5017,
  "ጠረ": 5018,
  "▁ማሕበር": 5019,
  "ብረተሰብ": 5020,
  "▁አጥ": 5021,
  "▁ወያ": 5022,
  "መዝ": 5023,
  "ቅዱ": 5024,
  "ጠቅ": 5025,
  "▁2020": 5026,
  "as": 5027,
  "▁የሚቆጠሩ": 5028,
  "▁ተጸ": 5029,
  "ምካ": 5030,
  "▁ልክዕ": 5031,
  "▁ተቃ": 5032,
  "▁ብጣዕሚ": 5033,
  "▁በሚቀጥ": 5034,
  "▁ዞባ": 5035,
  "▁ኣይኰነን።": 5036,
  "▁ኣተሓ": 5037,
  "ed": 5038,
  "▁ምምሕ": 5039,
  "ሮት": 5040,
  "▁ፈሪ": 5041,
  "ምሩ": 5042,
  "▁31": 5043,
  "▁ታላ": 5044,
  "▁ተመሊ": 5045,
  "▁ዝነበር": 5046,
  "▁ይርከብ": 5047,
  "ስኻ": 5048,
  "▁ብው": 5049,
  "ምነ": 5050,
  "▁በመቶ": 5051,
  "▁ሳይን": 5052,
  "▁አደርጋ": 5053,
  "▁ንዓይ": 5054,
  "▁ምባል": 5055,
  "▁ንጽ": 5056,
  "▁የሙ": 5057,
  "▁የፈ": 5058,
  "ነብሩ": 5059,
  "ጭር": 5060,
  "ፈሻ": 5061,
  "▁0": 5062,
  "ደርገው": 5063,
  "▁በእኛ": 5064,
  "▁ትኩረት": 5065,
  "ለብ": 5066,
  "▁ወዲያው": 5067,
  "▁ብርቱ": 5068,
  "▁ዝኾኑ": 5069,
  "ሐንስ": 5070,
  "▁ንው": 5071,
  "▁የጥ": 5072,
  "ረጋገጥ": 5073,
  "▁እፈልጋለሁ": 5074,
  "ሬን": 5075,
  "▁መሓ": 5076,
  "ቅርብ": 5077,
  "▁መጻኢ": 5078,
  "\"።": 5079,
  "▁አስቸጋሪ": 5080,
  "▁32": 5081,
  "▁አይደሉም": 5082,
  "ቤተሰብ": 5083,
  "ትታት": 5084,
  "ኦል": 5085,
  "▁ጽሕ": 5086,
  "▁ይን": 5087,
  "▁ክሕ": 5088,
  "ጅምር": 5089,
  "▁ጽባሕ": 5090,
  "ኦን": 5091,
  "የም": 5092,
  "▁ኹሉ": 5093,
  "▁ጴጥሮ": 5094,
  "▁ወጥ": 5095,
  "▁ሕብረት": 5096,
  "▁እባክ": 5097,
  "▁ንኽት": 5098,
  "▁ጽን": 5099,
  "▁ዝቕ": 5100,
  "▁ተናግ": 5101,
  "ረታ": 5102,
  "ብሪ": 5103,
  "▁ቁር": 5104,
  "▁ድምፅ": 5105,
  "▁ማስታወ": 5106,
  "▁ሆይ፥": 5107,
  "ረጥ": 5108,
  "ደድ": 5109,
  "▁ንርእ": 5110,
  "▁እንድን": 5111,
  "ታል.": 5112,
  "ገሩ": 5113,
  "ደሳች": 5114,
  "ቦ።": 5115,
  "▁እናውቃ": 5116,
  "▁ዱ": 5117,
  "▁ትግርኛ": 5118,
  "▁ይቻላል": 5119,
  "ይረስ": 5120,
  "ራር": 5121,
  "ፍና": 5122,
  "▁የሆነው": 5123,
  "▁ኢንዱስትሪ": 5124,
  "▁የመስ": 5125,
  "ደርገ": 5126,
  "▁ርእሱ": 5127,
  "ሪቱ": 5128,
  "▁ይሓ": 5129,
  "▁ህዝባዊ": 5130,
  "ችልም።": 5131,
  "ማም": 5132,
  "▁ሰራሕ": 5133,
  "▁ፈጣሪ": 5134,
  "ሄዱ": 5135,
  "▁ግለ": 5136,
  "ህ።": 5137,
  "ሴን": 5138,
  "ቦችን": 5139,
  "▁ሕክምና": 5140,
  "ዀኑ": 5141,
  "▁ኣይክ": 5142,
  "▁ኣብዛ": 5143,
  "▁ከእነዚህ": 5144,
  "▁ውጤት": 5145,
  "ሰሩ": 5146,
  "ዓዝ": 5147,
  "▁መዳ": 5148,
  "▁አስደሳች": 5149,
  "▁መሣሪያ": 5150,
  "ሣኤ": 5151,
  "ገስ": 5152,
  "▁አር": 5153,
  "ርከቡ": 5154,
  "▁በሕይወት": 5155,
  "▁ጻዕ": 5156,
  "ራኸ": 5157,
  "ጽሐ": 5158,
  "▁በተመለከተ": 5159,
  "ምረጥ": 5160,
  "ክእል": 5161,
  "▁ተም": 5162,
  "▁\"እቲ": 5163,
  "▁ኣቐዲ": 5164,
  "▁ዘለዋ": 5165,
  "▁የአሜሪካ": 5166,
  "▁ሁለቱ": 5167,
  "ኻ፡": 5168,
  "▁የሚታ": 5169,
  "▁ለማወቅ": 5170,
  "▁ኤውሮጳ": 5171,
  "▁አመት": 5172,
  "▁ንነ": 5173,
  "▁ዘሎና": 5174,
  "▁ምጥ": 5175,
  "▁ክእ": 5176,
  "በረታ": 5177,
  "▁ጸሎ": 5178,
  "▁ብመሰ": 5179,
  "▁ወሳ": 5180,
  "ore": 5181,
  "▁ሽማ": 5182,
  "ሞከር": 5183,
  "▁ግም": 5184,
  "▁ልን": 5185,
  "ሉ,": 5186,
  "▁መብት": 5187,
  "ዶቹ": 5188,
  "▁ዝስ": 5189,
  "▁ያስተ": 5190,
  "ዚያን": 5191,
  "▁ገዛእ": 5192,
  "▁ነኝ።": 5193,
  "▁ዝበሃል": 5194,
  "▁ሃይማኖት": 5195,
  "▁በተለይም": 5196,
  "ኩሉ": 5197,
  "▁ኣይከኣ": 5198,
  "▁ትካል": 5199,
  "▁በይ": 5200,
  "▁ቆልዑ": 5201,
  "ዕብ": 5202,
  "▁በበ": 5203,
  "▁መሸ": 5204,
  "ረኽቡ": 5205,
  "▁ኃጢአት": 5206,
  "▁ፍቅ": 5207,
  "▁ፈጣን": 5208,
  "▁ጤና": 5209,
  "▁ሰማያት": 5210,
  "▁ቆይ": 5211,
  "መስለ": 5212,
  "▁ለመግ": 5213,
  "▁ሕዝቡ": 5214,
  "▁ዝበዝ": 5215,
  "▁እናት": 5216,
  "ኸት": 5217,
  "▁እቲኣ": 5218,
  "▁ችሎታ": 5219,
  "▁ልዑል": 5220,
  "▁ትክክል": 5221,
  "ግዚአብሄር": 5222,
  "▁ማው": 5223,
  "▁ራሳ": 5224,
  "▁ምዕራፍ": 5225,
  "ድግ": 5226,
  "ኖረ": 5227,
  "▁የተቀ": 5228,
  "ለት።": 5229,
  "▁ብዘይካ": 5230,
  "ሲያ": 5231,
  "ኻ።": 5232,
  "▁U": 5233,
  "▁ክስ": 5234,
  "▁ጉዕዞ": 5235,
  "▁ምኽሪ": 5236,
  "▁ብሓባር": 5237,
  "▁የሞ": 5238,
  "▁መንእሰያት": 5239,
  "▁ተሞክ": 5240,
  "▁ይኖራ": 5241,
  "▁ሰባ": 5242,
  "▁አልቻ": 5243,
  "▁ክገብር": 5244,
  "▁ዳርጋ": 5245,
  "ሴቶች": 5246,
  "ውቁ": 5247,
  "▁መዛሙር": 5248,
  "ቃን": 5249,
  "▁ተጠቃሚዎች": 5250,
  "▁በክ": 5251,
  "ወሳኺ": 5252,
  "ጠኝ": 5253,
  "ፊያ": 5254,
  "ማሊ": 5255,
  "▁ግራ": 5256,
  "▁መጽና": 5257,
  "ረግ": 5258,
  "▁እንደም": 5259,
  "እይ": 5260,
  "▁ኣይፈልጥ": 5261,
  "▁የይ": 5262,
  "▁ድዩ?": 5263,
  "መስግ": 5264,
  "'ምበር": 5265,
  "▁እኛን": 5266,
  "ረገ": 5267,
  "ከተል": 5268,
  "▁መንእሰይ": 5269,
  "▁ሃገርና": 5270,
  "ሕና": 5271,
  "ምን?": 5272,
  "▁ጸገ": 5273,
  "ራሳቸው": 5274,
  "ማሽ": 5275,
  "ችሉም": 5276,
  "▁መበ": 5277,
  "▁ሚል": 5278,
  "▁ውጽ": 5279,
  "▁(ማ": 5280,
  "▁ንግድ": 5281,
  "▁ጠየ": 5282,
  "▁መስዋ": 5283,
  "▁ይባ": 5284,
  "▁ሕማቕ": 5285,
  "ሰና": 5286,
  "▁ሥጋ": 5287,
  "▁ምድርን": 5288,
  "ኞችን": 5289,
  "መም": 5290,
  "▁ፒ": 5291,
  "▁ምርት": 5292,
  "▁አመሰግና": 5293,
  "▁ኩባንያዎች": 5294,
  "▁አደረገ": 5295,
  "▁ሚስ": 5296,
  "ምድ": 5297,
  "▁ስድ": 5298,
  "ጓዝ": 5299,
  "ድኣ": 5300,
  "መናዊ": 5301,
  "ምቲ": 5302,
  "▁ከወ": 5303,
  "▁ነበር፤": 5304,
  "▁ብርግጽ": 5305,
  "ቅና": 5306,
  "▁ምንድን": 5307,
  "▁ኣእምሮ": 5308,
  ":5": 5309,
  "▁መቐ": 5310,
  "▁ህወ": 5311,
  "▁አምስት": 5312,
  "▁እግዚአብሔርም": 5313,
  "ion": 5314,
  "▁ዝፈ": 5315,
  "▁ዎ": 5316,
  "ነን": 5317,
  "▁በሉ": 5318,
  "▁ኮን": 5319,
  "▁የአየር": 5320,
  "▁ንሰብ": 5321,
  "▁ነጥብ": 5322,
  "ሃደ": 5323,
  "ፉን": 5324,
  "▁መፅ": 5325,
  "▁ልጁ": 5326,
  "▁ዕው": 5327,
  "▁ከቶ": 5328,
  "ዕቆብ": 5329,
  "▁ለይቲ": 5330,
  "ኖስ": 5331,
  "ጠቕ": 5332,
  "▁የእርሱ": 5333,
  "ርሻ": 5334,
  "ጸር": 5335,
  "▁ብኽ": 5336,
  "ህብ": 5337,
  "ኤላውያን": 5338,
  "▁ኼ": 5339,
  "ክራ": 5340,
  "▁መዓልታት": 5341,
  "▁አደ": 5342,
  "▁እርዳታ": 5343,
  "ሶት": 5344,
  "▁ሕጉ": 5345,
  "▁ህል": 5346,
  "▁በመሆኑም": 5347,
  "▁መራሕ": 5348,
  "▁ወጣት": 5349,
  "ብቲ": 5350,
  "▁ጊዜ,": 5351,
  "▁ኣሕዋ": 5352,
  "▁ፍጥነት": 5353,
  "▁ማሕበራዊ": 5354,
  "▁ንዘለ": 5355,
  "▁ተስማ": 5356,
  "▁መሆና": 5357,
  "▁\"ይህ": 5358,
  "ስቡክ": 5359,
  "▁ባለሙያ": 5360,
  "▁በብዙ": 5361,
  "▁ተከታ": 5362,
  "▁ሰልፊ": 5363,
  "▁ተሞክሮ": 5364,
  "▁ሆስፒ": 5365,
  "ዋለሁ": 5366,
  "▁)": 5367,
  "▁ፍረ": 5368,
  "ምለስ": 5369,
  "▁ፈሊ": 5370,
  "▁ኣይክእልን": 5371,
  "ሏል።": 5372,
  "▁ነጋ": 5373,
  "ወደን": 5374,
  "▁,": 5375,
  "▁ጠቅ": 5376,
  "ገርም": 5377,
  "▁ብሓደ": 5378,
  "ሕግዘ": 5379,
  "▁ውጤታማ": 5380,
  "▁ዝኾ": 5381,
  "ያቸው": 5382,
  "▁ለል": 5383,
  "▁ምርቶች": 5384,
  "▁ተዛሪ": 5385,
  "▁ሓዊ": 5386,
  "▁ምስቲ": 5387,
  "ደሉ": 5388,
  "▁ሁኔታዎች": 5389,
  "▁በድ": 5390,
  "ዛን": 5391,
  "▁2018": 5392,
  "ለምን": 5393,
  "▁ኣለዋ።": 5394,
  "የ።": 5395,
  "▁ኣላ": 5396,
  "▁ዝተፈላለዩ": 5397,
  "ሁሉ": 5398,
  "አል": 5399,
  "▁መሲ": 5400,
  "▁ጥራት": 5401,
  "▁ክርስቲያ": 5402,
  "▁የምና": 5403,
  "▁ኰነ": 5404,
  "ኡ።": 5405,
  "▁ስጦ": 5406,
  "▁ዓው": 5407,
  "▁ማንኛ": 5408,
  "▁ያስፈልጋ": 5409,
  "ጸም": 5410,
  "▁መዓስ": 5411,
  "▁ከጥ": 5412,
  "▁ሚስት": 5413,
  "▁\"እዚ": 5414,
  "ያትን": 5415,
  "ጽዕኖ": 5416,
  "ናውያን": 5417,
  "▁ምኻ": 5418,
  "▁ሰጥ": 5419,
  "▁ሀገር": 5420,
  "ሰርሑ": 5421,
  "ዳደር": 5422,
  "▁እስራ": 5423,
  "ሃንስ": 5424,
  "ሙት": 5425,
  "▁ክመ": 5426,
  "▁በደን": 5427,
  "▁ብሉ": 5428,
  "▁(ከ": 5429,
  "ቆየት": 5430,
  "ክሲ": 5431,
  "▁ባህሪ": 5432,
  "▁በግ": 5433,
  "▁ምንጭ": 5434,
  "▁ኢላ": 5435,
  "▁እሳት": 5436,
  "ክተ": 5437,
  "▁ቅን": 5438,
  "▁ታዋቂ": 5439,
  "▁ብድሕሪ": 5440,
  "▁በስተቀር": 5441,
  "ብሎም": 5442,
  "▁ኡ": 5443,
  "ያዘ": 5444,
  "▁ትብል": 5445,
  "▁የህ": 5446,
  "▁አብዛኛዎቹ": 5447,
  "▁አላው": 5448,
  "▁ይግ": 5449,
  "▁ሺህ": 5450,
  "ትያ": 5451,
  "▁ርእይቶ": 5452,
  "▁ቅል": 5453,
  "▁ርግ": 5454,
  "ሃለሁ": 5455,
  "ልጣን": 5456,
  "▁ብለን": 5457,
  "▁አይችልም": 5458,
  "▁ፈጽሞ": 5459,
  "▁ዀይኑ": 5460,
  "▁ኣብነት": 5461,
  "ቀኛ": 5462,
  "▁ኸተማ": 5463,
  "▁ኣባል": 5464,
  "▁ጸብጻ": 5465,
  "▁ምክር": 5466,
  "▁ስለዚህ,": 5467,
  "▁ኣለና": 5468,
  "▁ረኣ": 5469,
  "ሄዳ": 5470,
  "በርካ": 5471,
  "el": 5472,
  "ቻለሁ": 5473,
  "▁በእናንተ": 5474,
  "ቕር": 5475,
  "ነታ": 5476,
  "ልዩ": 5477,
  "▁ሚዲያ": 5478,
  "▁ከተሞች": 5479,
  "▁መዝሙር": 5480,
  "ኢየሱስ": 5481,
  "▁ተጽዕኖ": 5482,
  "ያተ": 5483,
  "▁ዝፍ": 5484,
  "ገልገል": 5485,
  "▁ኣዒ": 5486,
  "▁የላ": 5487,
  "▁ክብሪ": 5488,
  "ደሰ": 5489,
  "▁ጌርካ": 5490,
  "ማስ": 5491,
  "▁ሓላፍነት": 5492,
  "ያይ": 5493,
  "▁ብዕ": 5494,
  "▁ዝጸን": 5495,
  "ህናት": 5496,
  "▁ንበ": 5497,
  "▁መፍ": 5498,
  "▁ንመን": 5499,
  "ሻሻል": 5500,
  "'ዮም።": 5501,
  "▁ለእግዚአብሔር": 5502,
  "ንድነው": 5503,
  "▁ብተወሳኺ": 5504,
  "ዖን": 5505,
  "▁ሰሪ": 5506,
  "▁ከእንግዲህ": 5507,
  "ከናወ": 5508,
  "▁ሓሙሽተ": 5509,
  "▁ንምፍ": 5510,
  "▁ቀድሞ": 5511,
  "ሠሩ": 5512,
  "ig": 5513,
  "ርኩም": 5514,
  "ነቱን": 5515,
  "ትር": 5516,
  "ልዎ": 5517,
  "▁መስከረም": 5518,
  "ንዱ": 5519,
  "ጽኣ": 5520,
  "▁ጽድ": 5521,
  "▁አይደለሁ": 5522,
  "ዓይ": 5523,
  "ጻሕ": 5524,
  "▁ዅ": 5525,
  "▁አባላት": 5526,
  "ፈሩ": 5527,
  "ኻኽ": 5528,
  "▁ንተ": 5529,
  "ጋይ": 5530,
  "▁ዝኣመሰ": 5531,
  "▁ኣብ'ዚ": 5532,
  "▁ፖሊስ": 5533,
  "▁በቅርቡ": 5534,
  "▁ምዃን": 5535,
  "▁በእነዚህ": 5536,
  "▁ሁለተኛ": 5537,
  "▁ግን፡": 5538,
  "▁ጉዳዮች": 5539,
  "▁ግምት": 5540,
  "ራትን": 5541,
  "ልተ": 5542,
  "▁ፍለ": 5543,
  "▁አስተያ": 5544,
  "one": 5545,
  "ህሉ": 5546,
  "▁ናጽነት": 5547,
  "▁d": 5548,
  "▁አዳዲስ": 5549,
  "ሳእ": 5550,
  "▁ጦርነት": 5551,
  "▁በአሜሪካ": 5552,
  "ፍትዌ": 5553,
  "▁ገዲ": 5554,
  "ሽቶ": 5555,
  "▁ያገኛ": 5556,
  "▁\"እን": 5557,
  "▁መድሃ": 5558,
  "ባሪ": 5559,
  "ጊት": 5560,
  "▁ተጓ": 5561,
  "▁ቤቶች": 5562,
  "▁በሽ": 5563,
  "▁አገኘ": 5564,
  "▁ንቕ": 5565,
  "201": 5566,
  "▁እዚ፡": 5567,
  "ላቸው።": 5568,
  "▁ወጪ": 5569,
  "ኩን።": 5570,
  "ዳና": 5571,
  "ሕዛብ": 5572,
  "▁ቡድ": 5573,
  "▁ዚብል": 5574,
  "ዓልቲ": 5575,
  "▁ቅኑዕ": 5576,
  "▁ኣይነ": 5577,
  "▁መግቢ": 5578,
  "ደናቂ": 5579,
  "ሓድ": 5580,
  "▁ኢኮኖሚ": 5581,
  "▁በሁለ": 5582,
  "▁ናባ": 5583,
  "▁ከምዘሎ": 5584,
  "▁ኣጋጣሚ": 5585,
  "ቲት": 5586,
  "▁ሓው": 5587,
  "▁አውቃለሁ": 5588,
  "ዑ።": 5589,
  "▁O": 5590,
  "▁ብናይ": 5591,
  "▁ዲኻ": 5592,
  "ሌክት": 5593,
  "▁$": 5594,
  "▁እዙይ": 5595,
  "▁ተዘ": 5596,
  "▁ፊል": 5597,
  "▁የተወሰነ": 5598,
  "▁ጠላ": 5599,
  "ቀን": 5600,
  "ብርሃም": 5601,
  "▁ችግሮች": 5602,
  "ሊክ": 5603,
  "▁ሳምን": 5604,
  "50": 5605,
  "▁ሓጢኣት": 5606,
  "▁ያላቸውን": 5607,
  "ሳይያስ": 5608,
  "▁አዝ": 5609,
  "▁33": 5610,
  "▁ብሰንኪ": 5611,
  "▁ዝደ": 5612,
  "▁ምንቅስ": 5613,
  "ይዎ": 5614,
  "▁ስለዘ": 5615,
  "ጀራ": 5616,
  "▁ክፍያ": 5617,
  "ከፍተኛ": 5618,
  "▁ዝመጽእ": 5619,
  "▁ይኽእሉ": 5620,
  "▁ከፊ": 5621,
  "▁ቅጣት": 5622,
  "▁የወደ": 5623,
  "▁ሚኒስት": 5624,
  "▁ሰበይ": 5625,
  "ሓትት": 5626,
  "▁በጺ": 5627,
  "▁ከሁሉም": 5628,
  "▁ንኹ": 5629,
  "ጀመረ": 5630,
  "▁ክፍሎች": 5631,
  "▁አድርገ": 5632,
  "▁ኣብር": 5633,
  "ም?": 5634,
  "▁በዚያን": 5635,
  "▁መድረኽ": 5636,
  "▁ውሉ": 5637,
  "▁ሽወደን": 5638,
  "▁ፍጥረት": 5639,
  "3)": 5640,
  "ሰለ": 5641,
  "ን\"": 5642,
  "▁ንዓኻ": 5643,
  "ex": 5644,
  "ውሞ": 5645,
  "▁አዎን": 5646,
  "▁ዝሃ": 5647,
  "▁ሕዝቦች": 5648,
  "ላቶም": 5649,
  "ቃወ": 5650,
  "▁ቦታዎች": 5651,
  "▁ጀመር": 5652,
  "▁ግዝ": 5653,
  "ገናኘት": 5654,
  "ናገሩ": 5655,
  "▁ክተ": 5656,
  "▁ዓወት": 5657,
  "▁ኢሳ": 5658,
  "ዚደንት": 5659,
  "▁ምርምር": 5660,
  "ታውቁ": 5661,
  "▁ገሊኦም": 5662,
  "▁ስህተት": 5663,
  "▁ማንኛውንም": 5664,
  "ኒያ": 5665,
  "ና፣": 5666,
  "▁ባህር": 5667,
  "▁ተኻ": 5668,
  "ላኢ": 5669,
  "ብካ": 5670,
  "▁ኣላ።": 5671,
  "ይቱ": 5672,
  "▁ብሔ": 5673,
  "▁ክትከውን": 5674,
  "▁ኣስመራ": 5675,
  "ጡን": 5676,
  "▁መንግስታት": 5677,
  "▁አባል": 5678,
  "▁ትማሊ": 5679,
  "▁ኣለዎም።": 5680,
  "4)": 5681,
  "መታት": 5682,
  "ስሊ": 5683,
  "ቕን": 5684,
  "▁መውሰድ": 5685,
  "▁ተከ": 5686,
  "▁የሚለው": 5687,
  "▁እንችላለን": 5688,
  "በዝ": 5689,
  "ካባቢ": 5690,
  "ጽ።": 5691,
  "▁ዝግበር": 5692,
  "▁አገሮች": 5693,
  "▁ገል": 5694,
  "▁ከሌሎች": 5695,
  "ቶምን": 5696,
  "▁ዂ": 5697,
  "▁ምሥ": 5698,
  "-መ": 5699,
  "ኩዎ": 5700,
  "ጠኛ": 5701,
  "▁ሰብኣዊ": 5702,
  "▁ይፍ": 5703,
  "ብሎስ": 5704,
  "ኃጢአ": 5705,
  "ራል።": 5706,
  "ጋል": 5707,
  "▁እድል": 5708,
  "▁ትሕዝ": 5709,
  "▁ሀገ": 5710,
  "▁ብምዃ": 5711,
  "▁ደግሞም": 5712,
  "▁ስልክ": 5713,
  "▁የሆነውን": 5714,
  "▁አላውቅም": 5715,
  "ለካ": 5716,
  "ተወ": 5717,
  "▁ኢዮ": 5718,
  "▁ኸይ": 5719,
  "▁አሉት": 5720,
  "▁መሰረታዊ": 5721,
  "ለና": 5722,
  "▁ዝገበረ": 5723,
  "ስያ": 5724,
  "▁ገነት": 5725,
  "ሱም": 5726,
  "▁ዳን": 5727,
  "▁ውሑ": 5728,
  "▁ናብኡ": 5729,
  "▁አማራጭ": 5730,
  "▁ኣበ": 5731,
  "▁በዩ": 5732,
  "▁ንጉሡ": 5733,
  "ብሓ": 5734,
  "ሎ፡": 5735,
  "ብቻ": 5736,
  "▁2019": 5737,
  "▁ተገሊ": 5738,
  "ኮር": 5739,
  "ረኽቦ": 5740,
  "ባለ": 5741,
  "▁ጥረት": 5742,
  "▁ኮይኖም": 5743,
  "ቤን": 5744,
  "▁ይሖዋ": 5745,
  "ፈልግም": 5746,
  "▁ጉዳያት": 5747,
  "▁በጉ": 5748,
  "▁ኾነ": 5749,
  "▁የትምህርት": 5750,
  "▁ፍልጠት": 5751,
  "▁ጎን": 5752,
  "▁መልዕ": 5753,
  "▁ምርመራ": 5754,
  "ታረ": 5755,
  "30": 5756,
  "ቪዥ": 5757,
  "ጠበቀ": 5758,
  "▁ይፈልጥ": 5759,
  "▁ምሳይ": 5760,
  "▁ዝብሉ": 5761,
  "▁2017": 5762,
  "▁f": 5763,
  "▁ስብሰባ": 5764,
  "ቼን": 5765,
  "▁መበል": 5766,
  "▁ክኸ": 5767,
  "ጋጥ": 5768,
  "ዳንት": 5769,
  "▁ፖሊሲ": 5770,
  "▁መዘ": 5771,
  "▁ቀጺ": 5772,
  "ኽን": 5773,
  "▁(ዮ": 5774,
  "▁2016": 5775,
  "▁አጋጣሚ": 5776,
  "▁Re": 5777,
  "▁ይረዳ": 5778,
  "il": 5779,
  "▁ቅዱሳን": 5780,
  "▁ፍትሒ": 5781,
  "▁የድሊ": 5782,
  "ናገረ": 5783,
  "▁ርስ": 5784,
  "▁ሓን": 5785,
  "▁ወደፊት": 5786,
  "▁ጎይታ": 5787,
  "▁ዝገብር": 5788,
  "▁የሚከተ": 5789,
  "▁በሚያ": 5790,
  "ዳስ": 5791,
  "ችሁ።": 5792,
  "▁ወዲያውኑ": 5793,
  "▁በጎ": 5794,
  "ወለድ": 5795,
  "ቴዎስ": 5796,
  "እና": 5797,
  "▁የሚሆን": 5798,
  "ራው": 5799,
  "ቻይና": 5800,
  "ታት፡": 5801,
  "▁ይመስለኛ": 5802,
  "ጆቹ": 5803,
  "ፈቱ": 5804,
  "8)": 5805,
  "▁ጻድ": 5806,
  "▁በደንብ": 5807,
  "▁በአጠቃላይ": 5808,
  "▁ይወዳ": 5809,
  "▁ድኻ": 5810,
  "▁እዩ!": 5811,
  "▁ግንቦት": 5812,
  "▁ስርዓ": 5813,
  "▁ዝምልከት": 5814,
  "▁ወተ": 5815,
  "▁ናት።": 5816,
  "▁ቃለ": 5817,
  "ሳስባ": 5818,
  "5)": 5819,
  "▁b": 5820,
  "▁ቆን": 5821,
  "▁እንደምት": 5822,
  "▁ከእነሱ": 5823,
  "▁ትውልድ": 5824,
  "▁መጠበቅ": 5825,
  "▁ይገል": 5826,
  "▁እንደሆኑ": 5827,
  "▁ሁሉን": 5828,
  "▁ነውና": 5829,
  "▁አይችሉም": 5830,
  "▁አንቺ": 5831,
  "▁ተመራ": 5832,
  "▁በዚያም": 5833,
  "▁ደጊም": 5834,
  "▁ሀሳብ": 5835,
  "▁ከምኡ'ውን": 5836,
  "▁የልቦን።": 5837,
  "ኤን": 5838,
  "▁ላለ": 5839,
  "▁መመሪያ": 5840,
  "▁ክው": 5841,
  "▁ሾ": 5842,
  "▁በሰው": 5843,
  "ጽሐፍ": 5844,
  "▁ትካላት": 5845,
  "ጊያ": 5846,
  "▁ሰሜን": 5847,
  "▁ኮይና": 5848,
  "ገበረ": 5849,
  "▁ዘን": 5850,
  "▁ፋይ": 5851,
  "ዓብ": 5852,
  "▁ከላይ": 5853,
  "በስ": 5854,
  "ኝም።": 5855,
  "▁ዕለ": 5856,
  "▁አለን": 5857,
  "ነቶም": 5858,
  "ጎስ": 5859,
  "\">": 5860,
  "▁ዘለኹ": 5861,
  "ሏቸው": 5862,
  "ካዊ": 5863,
  "▁ምዕባ": 5864,
  "▁[.": 5865,
  "▁ባለቤ": 5866,
  "በ።": 5867,
  "ፖለቲካ": 5868,
  "▁በዳ": 5869,
  "▁አየር": 5870,
  "▁ስቴትስ": 5871,
  "▁ህወሓት": 5872,
  "|1": 5873,
  "ዓዊ": 5874,
  "▁ዳግም": 5875,
  "ልይ": 5876,
  "▁እመ": 5877,
  "ሊን": 5878,
  "ርሷ": 5879,
  "ሮና": 5880,
  "ጣቸው": 5881,
  "▁አብዛኞቹ": 5882,
  "▁ጥያቄዎች": 5883,
  "▁ተግባራዊ": 5884,
  "un": 5885,
  "▁Y": 5886,
  "፣+": 5887,
  "▁ዘይኰነ": 5888,
  "▁አሉት።": 5889,
  "እም": 5890,
  "▁ሊቀ": 5891,
  "▁ምክንያቶች": 5892,
  "▁ይጥ": 5893,
  "▁ርእሲ": 5894,
  "▁ውድድር": 5895,
  "▁ከምዝተ": 5896,
  "▁ጴጥሮስ": 5897,
  "▁ወጺ": 5898,
  "ጾም": 5899,
  "▁ዝን": 5900,
  "▁ተወዳጅ": 5901,
  "ተዋል።": 5902,
  "ባሉ": 5903,
  "ጣዊ": 5904,
  "▁መክ": 5905,
  "▁ተለ": 5906,
  "▁ሓለ": 5907,
  "▁አስደናቂ": 5908,
  "▁ኣቢሉ": 5909,
  "ከሩ": 5910,
  "▁እችላለሁ": 5911,
  "▁<": 5912,
  "ኪም": 5913,
  "▁መልአ": 5914,
  "▁አብረው": 5915,
  "▁ኣይም": 5916,
  "▁የተሻ": 5917,
  "ጸት": 5918,
  "▁ክቡር": 5919,
  "▁ተወሳኺ": 5920,
  "▁ነዋ": 5921,
  "▁ይቅርታ": 5922,
  "ስታው": 5923,
  "ጐስ": 5924,
  "ent": 5925,
  "▁ዓሰርተ": 5926,
  "ፅእ": 5927,
  "▁ሕብረተሰብ": 5928,
  "▁ግዴ": 5929,
  "▁ቀሊል": 5930,
  "ኳን": 5931,
  "▁ይም": 5932,
  "ስትራ": 5933,
  "ህቦ": 5934,
  "ጽው": 5935,
  "▁ዝተሓ": 5936,
  "ሰርቲ": 5937,
  "ዎቹን": 5938,
  "ወታ": 5939,
  "▁እንዲሆን": 5940,
  "ol": 5941,
  "▁ደረ": 5942,
  "▁ክፍት": 5943,
  "ጽኦ": 5944,
  "▁ይኣ": 5945,
  "▁ባቡር": 5946,
  "ሾች": 5947,
  "▁ላዕሊ": 5948,
  "ፈጥሮ": 5949,
  "▁እንደማይ": 5950,
  "▁ይጠቀ": 5951,
  "▁ኣስታት": 5952,
  "ዘዘ": 5953,
  "ጦች": 5954,
  "▁ማታ": 5955,
  "▁ኲናት": 5956,
  "▁ብመሰረት": 5957,
  "ያንዳንዳ": 5958,
  "ወጡ": 5959,
  "ፊዎች": 5960,
  "▁በፈ": 5961,
  "▁እስካሁን": 5962,
  "ሉም።": 5963,
  "ማውያን": 5964,
  "▁አንዲት": 5965,
  "▁እንተተ": 5966,
  "▁መጽሐ": 5967,
  "▁ማእከ": 5968,
  "ሰሉ": 5969,
  "ቶን": 5970,
  "▁ወራት": 5971,
  "▁ድሮ": 5972,
  "▁ንዕኡ": 5973,
  "ሃድ": 5974,
  "▁ኢዮም።": 5975,
  "▁ጥናት": 5976,
  "gle": 5977,
  "▁ወለዶ": 5978,
  "▁ቀጣ": 5979,
  "▁አስታው": 5980,
  "መልክ": 5981,
  "▁ክኢ": 5982,
  "ናገረው": 5983,
  "▁ኸምዚ": 5984,
  "ረ-": 5985,
  "ንዲ": 5986,
  "▁ውሳነ": 5987,
  "ላስ": 5988,
  "ረኛ": 5989,
  "ናቸው": 5990,
  "▁ዛንታ": 5991,
  "▁ኲሉ": 5992,
  "▁የሥራ": 5993,
  "▁V": 5994,
  "▁የጉ": 5995,
  "▁\"ም": 5996,
  "ድርጉ": 5997,
  "ሽከ": 5998,
  "ዎታል": 5999,
  "▁ሓያ": 6000,
  "▁ሆኗ": 6001,
  "▁ተሪ": 6002,
  "ግብፅ": 6003,
  "▁ግብረ": 6004,
  "▁ይሁዳ": 6005,
  "ሎቹ": 6006,
  "የይ": 6007,
  "▁ኣምላ": 6008,
  "▁ወንድሞ": 6009,
  "▁ፓርቲ": 6010,
  "▁ሌሊት": 6011,
  "▁ብርሃ": 6012,
  "▁ተፈጥሮ": 6013,
  "▁ስጉም": 6014,
  "ጻሊ": 6015,
  "ሳድ": 6016,
  "▁ወሰን": 6017,
  "▁ተመሳሳሊ": 6018,
  "▁ሶስት": 6019,
  ":9": 6020,
  "ኻዊ": 6021,
  "▁ስልጠና": 6022,
  "▁ዝተፈላለየ": 6023,
  "▁ንወ": 6024,
  "▁ውሕ": 6025,
  "▁ይጠይ": 6026,
  "▁የዘ": 6027,
  "▁ሕን": 6028,
  "7)": 6029,
  "ነሰ": 6030,
  "▁ምስጢር": 6031,
  "▁ዓር": 6032,
  "ያለሁ": 6033,
  "▁ሓጺ": 6034,
  "ረአ": 6035,
  "▁ገንዘ": 6036,
  "▁እንዲያውም": 6037,
  "▁መንበሪ": 6038,
  "▁ካሉ": 6039,
  "ከናወን": 6040,
  "▁ሹ": 6041,
  "ርሓ": 6042,
  "▁ግደ": 6043,
  "▁ኤርትራውያን": 6044,
  "ሰስ": 6045,
  "ልል": 6046,
  "▁ግዳ": 6047,
  "▁አማካ": 6048,
  "ከባቢ": 6049,
  "ዕ።": 6050,
  "ፎን": 6051,
  "▁ገባ": 6052,
  "ውር": 6053,
  "▁ከይት": 6054,
  "▁w": 6055,
  "▁እንሆ፡": 6056,
  "▁ኣባይ": 6057,
  "▁ቓል": 6058,
  "▁ዚኽእል": 6059,
  "▁ነይር": 6060,
  "መለከት": 6061,
  "▁ርኢ": 6062,
  "▁አያው": 6063,
  "▁ኢሉ።": 6064,
  "ch": 6065,
  "▁ትራ": 6066,
  "▁(ዘ": 6067,
  "▁በእርስዎ": 6068,
  "▁ራሱን": 6069,
  "▁ይለ": 6070,
  "▁ኢኺ": 6071,
  "▁በቀጥታ": 6072,
  "▁ደቂቃዎች": 6073,
  "▁ከታ": 6074,
  "▁አጠቃላይ": 6075,
  "ስቶ": 6076,
  "▁የመን": 6077,
  "▁ይገብር": 6078,
  "ርግጠኝነት": 6079,
  "▁ለሰ": 6080,
  "oogle": 6081,
  "ፓን": 6082,
  "▁ሰጠ": 6083,
  "▁ሽግር": 6084,
  "ሑ።": 6085,
  "▁ኣንስትዮ": 6086,
  "▁የተነሳ": 6087,
  "▁አለበት።": 6088,
  "▁አያውቁ": 6089,
  "▁ኣጽ": 6090,
  "ረና": 6091,
  "ዳው": 6092,
  "ምራት": 6093,
  "ያዙ": 6094,
  "▁ምሸት": 6095,
  "▁ደህና": 6096,
  "▁ኔሩ።": 6097,
  "▁ቆንጆ": 6098,
  "ወገድ": 6099,
  "▁ይመስላል": 6100,
  "ረሳ": 6101,
  "▁ይሻ": 6102,
  "በና": 6103,
  "▁የተወሰኑ": 6104,
  "▁እየ፡": 6105,
  "▁አና": 6106,
  "▁ጊዜም": 6107,
  "▁የቴ": 6108,
  "ጸሎት": 6109,
  "▁መጫወት": 6110,
  "▁ዝደሊ": 6111,
  "ቶቻችን": 6112,
  "▁በሚቀጥለው": 6113,
  "▁ከበ": 6114,
  "▁ይላል።": 6115,
  "▁ደብዳቤ": 6116,
  "▁ገም": 6117,
  "ንያት": 6118,
  "▁ልጄ": 6119,
  "▁አለብን": 6120,
  "ኒክ": 6121,
  "▁ውልቀ": 6122,
  "ሓዝ": 6123,
  "▁ግብር": 6124,
  "ልህ": 6125,
  "ሰሙ": 6126,
  "▁መዛሙርቱ": 6127,
  "ሞተ": 6128,
  "▁አመሰግናለሁ": 6129,
  "6)": 6130,
  "▁ክም": 6131,
  "ሕዝቡ": 6132,
  "▁ነይሮም": 6133,
  "ስምዓ": 6134,
  "▁እ.": 6135,
  "ቀርብ": 6136,
  "▁ሆስፒታል": 6137,
  "▁እራ": 6138,
  "ኽእልን": 6139,
  "ላቸውም": 6140,
  "▁ስነ-": 6141,
  "▁ዚኸውን": 6142,
  "▁እስቲ": 6143,
  "▁ፍጻሜ": 6144,
  "ሠረተ": 6145,
  "ረፍት": 6146,
  "▁የሚችሉ": 6147,
  "▁ክታ": 6148,
  "ዘርላንድ": 6149,
  "-2": 6150,
  "'የ።": 6151,
  "▁ንህዝቢ": 6152,
  "ባታ": 6153,
  "ዋጋ": 6154,
  "▁የምድር": 6155,
  "▁የእርስዎን": 6156,
  "▁ትሕ": 6157,
  "▁#": 6158,
  "▁ጠብ": 6159,
  "▁ንኻል": 6160,
  "▁ንዓና": 6161,
  "ነካ": 6162,
  "እካ": 6163,
  "▁ምንቅስቓ": 6164,
  "ድረስ": 6165,
  "ቲን": 6166,
  "▁እወዳ": 6167,
  "▁\"ስ": 6168,
  "▁የቆ": 6169,
  "▁ትጽ": 6170,
  "▁በቀር": 6171,
  "▁ኣይኰ": 6172,
  "▁እርሱን": 6173,
  "▁አድርጓ": 6174,
  "▁ሶፍትዌ": 6175,
  "▁ሞዴ": 6176,
  "ኩ፡": 6177,
  "▁ደህንነት": 6178,
  "ow": 6179,
  "ኖሪያ": 6180,
  "▁ለብዙ": 6181,
  "▁ወዲህ": 6182,
  "li": 6183,
  "▁እዚኦም": 6184,
  "▁በአንተ": 6185,
  "▁በማድረግ": 6186,
  "▁ብእኡ": 6187,
  "▁የክ": 6188,
  "▁ይጀ": 6189,
  "ለፉ": 6190,
  "ቻችንን": 6191,
  "▁ሆን": 6192,
  "▁በራሱ": 6193,
  "▁ሞያ": 6194,
  "ሳተፍ": 6195,
  "ሙሴ": 6196,
  "ባችሁ": 6197,
  "▁ብዙዎች": 6198,
  "ሰ።": 6199,
  "ኹ፡": 6200,
  "▁እንደሌ": 6201,
  "▁እንደሆን": 6202,
  "▁ያሉትን": 6203,
  "▁ክብሉ": 6204,
  "▁አፈ": 6205,
  "▁ይተ": 6206,
  "▁ሚልዮን": 6207,
  "▁ኣይኪ": 6208,
  "▁ሂወት": 6209,
  "▁ዝረኣ": 6210,
  "▁iP": 6211,
  "▁ጽል": 6212,
  "ድያ": 6213,
  "▁ትፈልጥ": 6214,
  "ነው።": 6215,
  "ነሣ": 6216,
  "ሆነው": 6217,
  "▁በቤት": 6218,
  "▁መት": 6219,
  "▁ንል": 6220,
  "▁ሽዑ፡": 6221,
  "ቕቲ": 6222,
  "▁ግበር": 6223,
  "ገናኝ": 6224,
  "ይታይ": 6225,
  "▁ስታ": 6226,
  "▁ዶ?": 6227,
  "▁ይርከብ።": 6228,
  "▁እኩ": 6229,
  "▁መናገር": 6230,
  "▁ኣስተ": 6231,
  "▁ረጅም": 6232,
  "በትም": 6233,
  "▁ይከ": 6234,
  "ፋይ": 6235,
  "ኣምን": 6236,
  "▁\"ይ": 6237,
  "▁35": 6238,
  "ዲኡ": 6239,
  "▁ከት": 6240,
  "▁ባሪያ": 6241,
  "▁በእርግጠኝነት": 6242,
  "▁ሓሳባት": 6243,
  "ላላ": 6244,
  "ደጋጋሚ": 6245,
  "▁ሕፃ": 6246,
  "▁አቅር": 6247,
  "ክም": 6248,
  "▁ንህ": 6249,
  "ቁ።": 6250,
  "ቡል": 6251,
  "▁ትሕዝቶ": 6252,
  "▁ለካ": 6253,
  "ሥር": 6254,
  "ነገር": 6255,
  ":10": 6256,
  "▁ዝምድና": 6257,
  "▁ጠይ": 6258,
  "▁ባለፈው": 6259,
  "▁ከስ": 6260,
  "▁ናቸው,": 6261,
  "▁፲": 6262,
  "▁ብላ": 6263,
  "▁ብዛት": 6264,
  "▁ሓተ": 6265,
  "ዛረቡ": 6266,
  "▁ኣለው።": 6267,
  "▁ዝገበር": 6268,
  "▁ግር": 6269,
  "▁ነይረ": 6270,
  "▁ምሳና": 6271,
  "ዳሪ": 6272,
  "▁የጎ": 6273,
  "▁መልሶ": 6274,
  "ባህር": 6275,
  "ሌቪዥ": 6276,
  "ቶት": 6277,
  "ዩት": 6278,
  "በት።": 6279,
  "▁ብቸኛው": 6280,
  "ቡቅ": 6281,
  "ነጻ": 6282,
  "▁ቸ": 6283,
  "▁ኢዮም": 6284,
  "▁ኣሕዋት": 6285,
  "▁ወላጆች": 6286,
  "ማማ": 6287,
  "ኹል": 6288,
  "▁ዝብ": 6289,
  "ወግ": 6290,
  "▁የኤ": 6291,
  "▁ስሜ": 6292,
  "ጠነ": 6293,
  "▁ሌላው": 6294,
  "▁እዚኣቶም": 6295,
  "ናትን": 6296,
  "ደብ": 6297,
  "▁ውኃ": 6298,
  "ደረጋ": 6299,
  "▁ጂ": 6300,
  "▁ከሆኑ": 6301,
  "▁ትናን": 6302,
  "ፍካ": 6303,
  "▁ክርስትያ": 6304,
  "ዘጋጅ": 6305,
  "▁2015": 6306,
  "▁ሱዳን": 6307,
  "▁ዝስዕብ": 6308,
  "▁የተለመ": 6309,
  "ገነዘ": 6310,
  "ችሁት": 6311,
  "ረር": 6312,
  "ገንባት": 6313,
  "ገዱ": 6314,
  "▁መልኩ": 6315,
  "▁በእሱ": 6316,
  "▁መጽናዕቲ": 6317,
  "ፍቅ": 6318,
  "▁ይሰጣል": 6319,
  "▁እንተኾይኑ": 6320,
  "ለሉ": 6321,
  "▁ዚህ": 6322,
  "▁ባን": 6323,
  "▁የሕይወት": 6324,
  "የ፡": 6325,
  "▁በወ": 6326,
  "▁ዘመናዊ": 6327,
  "▁\"ካብ": 6328,
  "▁በተቻለ": 6329,
  "ጽኡ": 6330,
  "▁ጥዑ": 6331,
  "▁መስተ": 6332,
  "▁ወታ": 6333,
  "ንዳንድ": 6334,
  "▁ነቢይ": 6335,
  "▁ስጦታ": 6336,
  "▁ኣካላት": 6337,
  "▁ጨዋታዎች": 6338,
  "▁ክህሉ": 6339,
  "▁ናተይ": 6340,
  "▁በመጨረሻም": 6341,
  "▁37": 6342,
  "ላችሁ?": 6343,
  "ዕላ": 6344,
  "▁አምላካ": 6345,
  "▁ወይ፡": 6346,
  "▁በእያንዳንዱ": 6347,
  "▁ዝበሉ": 6348,
  "▁ትንቢት": 6349,
  "▁አለብዎት": 6350,
  "ዴት": 6351,
  "▁ሕጋዊ": 6352,
  "▁ምሽት": 6353,
  "ረካ": 6354,
  "▁አሳል": 6355,
  "ረክ": 6356,
  "▁ለማስተ": 6357,
  "ጥና": 6358,
  "▁የኮ": 6359,
  "ቁን": 6360,
  "▁ኣብያተ": 6361,
  "▁ናትካ": 6362,
  "ሚት": 6363,
  ":8": 6364,
  "ሳኤ": 6365,
  "▁ኣዋርሕ": 6366,
  "▁በዙ": 6367,
  "▁ለመስጠት": 6368,
  "▁በከ": 6369,
  "▁መኣ": 6370,
  "መልከ": 6371,
  "ፈጸመ": 6372,
  "▁ዓባይ": 6373,
  "▁ስእሊ": 6374,
  "▁(2": 6375,
  "▁የማያ": 6376,
  "'ሎ።": 6377,
  ":6": 6378,
  "▁መምህር": 6379,
  "▁ይከኣል": 6380,
  "▁ታይ": 6381,
  "▁ምሳኻ": 6382,
  "▁እስራኤላውያን": 6383,
  "ሄደ": 6384,
  "አይ": 6385,
  "▁የገ": 6386,
  "▁ነው፣": 6387,
  "▁እየ\"": 6388,
  "▁አንተን": 6389,
  "▁በቀን": 6390,
  "ለማዊ": 6391,
  "ልና።": 6392,
  "ርኔት": 6393,
  "▁መምር": 6394,
  "▁ዓቕሚ": 6395,
  "ጠጣ": 6396,
  "ላማዊ": 6397,
  "ተናል": 6398,
  "ነበ": 6399,
  "▁ዘይን": 6400,
  "▁እየን": 6401,
  "ስታን": 6402,
  "▁ይቀጥ": 6403,
  "▁የሚገባ": 6404,
  "▁ኣንጻር": 6405,
  "ውዓተ": 6406,
  "▁መለያ": 6407,
  "ናስ": 6408,
  "ወቃ": 6409,
  "▁ኽሳዕ": 6410,
  "▁36": 6411,
  "▁\"ኣነ": 6412,
  "መላለ": 6413,
  "▁ውይ": 6414,
  "▁ህያ": 6415,
  "▁በአውሮፓ": 6416,
  "መለከቱ": 6417,
  "ር።": 6418,
  "▁ንእግዚ": 6419,
  "▁በዚህም": 6420,
  "▁የለውም": 6421,
  "▁መብዛሕትኡ": 6422,
  "ለኛው": 6423,
  "▁እውቀት": 6424,
  "▁ይመስል": 6425,
  "▁ዕን": 6426,
  "▁የነበረው": 6427,
  "▁መሥራት": 6428,
  "▁ሓሊፉ": 6429,
  "▁መግለጫ": 6430,
  "▁60": 6431,
  "ግምት": 6432,
  "ይሩ": 6433,
  "▁K": 6434,
  "▁ዘሕ": 6435,
  "▁ኣዳ": 6436,
  "▁ሁሌ": 6437,
  "▁ተስማሚ": 6438,
  "▁መምረጥ": 6439,
  "ገለግ": 6440,
  "▁ይብሉ": 6441,
  "▁ለአንድ": 6442,
  "ኔን": 6443,
  "▁ዝረኸ": 6444,
  "▁ኢሳይያስ": 6445,
  "▁ሕያው": 6446,
  "ስተኛው": 6447,
  "ሞላ": 6448,
  "▁መንግስ": 6449,
  "▁80": 6450,
  "ርቶ": 6451,
  "▁ንዅ": 6452,
  "▁ደሊ": 6453,
  "▁ይጠብ": 6454,
  "ub": 6455,
  "ጣጫ": 6456,
  "▁ከየ": 6457,
  "▁የአውሮፓ": 6458,
  "ደኣ": 6459,
  "ርዳት": 6460,
  "▁መራሕቲ": 6461,
  "▁ተና": 6462,
  "▁ንዅሉ": 6463,
  "▁ምንባር": 6464,
  "▁ብምሉእ": 6465,
  "▁ለአንተ": 6466,
  "▁ዳርቻ": 6467,
  "ቶቻቸው": 6468,
  "▁ዒ": 6469,
  "▁ኣቶ": 6470,
  "▁ዘለው": 6471,
  "▁ሙከራ": 6472,
  "▁እኩል": 6473,
  ":11": 6474,
  "▁ዕዳጋ": 6475,
  "ዊተር": 6476,
  "▁ሊሆኑ": 6477,
  "▁በኢየሱስ": 6478,
  "እያ": 6479,
  "▁አውታረ": 6480,
  "▁ነዞም": 6481,
  "▁አንቀ": 6482,
  "ድልዮ": 6483,
  "ማቸው": 6484,
  "▁ሰንበት": 6485,
  "ውኑ": 6486,
  "▁ረብሓ": 6487,
  "▁ቀልጢ": 6488,
  "ጥቀመ": 6489,
  "▁እዘን": 6490,
  "▁ተር": 6491,
  "▁ህጻናት": 6492,
  "▁ናቱ": 6493,
  "▁ዝዓበየ": 6494,
  "▁የውጭ": 6495,
  "▁ንጥፈ": 6496,
  "▁ድርጅት": 6497,
  "ext": 6498,
  "▁እርሷ": 6499,
  "▁ህዝብና": 6500,
  "ራቅ": 6501,
  "ድሕን": 6502,
  "▁እያለ": 6503,
  "▁ኣትሒ": 6504,
  "▁ሰሎ": 6505,
  "▁ኣቲ": 6506,
  "▁ናትና": 6507,
  "ባቸውን": 6508,
  "ክቱ": 6509,
  "▁መጀመርያ": 6510,
  "▁ዶክተር": 6511,
  "▁መጻሕፍት": 6512,
  "ኪያ": 6513,
  "▁በሳ": 6514,
  "ላዉ": 6515,
  "ሥት": 6516,
  "nd": 6517,
  "▁ንእሽቶ": 6518,
  "ጭት": 6519,
  "▁\"ለ": 6520,
  "▁ስፖርት": 6521,
  "▁ንሓድሕ": 6522,
  "አቸው": 6523,
  "▁ፈል": 6524,
  "▁ኣይመስ": 6525,
  "▁ንነፍ": 6526,
  "▁ምስሊ": 6527,
  "ሳተፉ": 6528,
  "▁በሕይወ": 6529,
  "▁ምብራ": 6530,
  "▁ማእሰርቲ": 6531,
  "ህዝብ": 6532,
  "▁ልዩነት": 6533,
  "ኮት": 6534,
  "እርሱ": 6535,
  "▁ክንም": 6536,
  "ታዊት": 6537,
  "ልማ": 6538,
  "ባህለ": 6539,
  "መ።": 6540,
  "ርሒ": 6541,
  "ዶችን": 6542,
  "▁ስኬ": 6543,
  "▁ካርድ": 6544,
  "▁ርእሰ": 6545,
  "▁በቁ": 6546,
  "▁መጥቃ": 6547,
  "ተነ": 6548,
  "▁መስቀል": 6549,
  "▁ይመስለ": 6550,
  "ዘተ": 6551,
  "▁የድልየ": 6552,
  "▁ተሰማ": 6553,
  "▁በምን": 6554,
  "ሰድ": 6555,
  "▁ትኽእሉ": 6556,
  "ለይ።": 6557,
  "▁ጸብጻብ": 6558,
  "ቶቡ": 6559,
  "▁በጥሩ": 6560,
  "▁ዀነ": 6561,
  "▁እናበለ": 6562,
  "ቀርባ": 6563,
  "▁ጀመረ።": 6564,
  "ርፍ": 6565,
  "ባባ": 6566,
  "▁ለእርሱ": 6567,
  "▁እንደሚችሉ": 6568,
  "▁መላእክት": 6569,
  "ለዎ": 6570,
  "▁ብስም": 6571,
  "▁ሆቴ": 6572,
  "▁ከምዝኾነ": 6573,
  "▁ያእ": 6574,
  "▁አንዳንዶቹ": 6575,
  "▁ተጫዋቾች": 6576,
  "▁ስለዘይ": 6577,
  "▁ብምኽ": 6578,
  "▁ይሠራ": 6579,
  "▁198": 6580,
  "ላፊነት": 6581,
  "▁ኣሎኹ።": 6582,
  "▁ዝሓዘ": 6583,
  "▁በኋላ,": 6584,
  "▁አሉ.": 6585,
  "▁ፕረዚደንት": 6586,
  "▁ለበ": 6587,
  "▁ባዕል": 6588,
  "▁ኾይኑ": 6589,
  "▁የዩ": 6590,
  "▁ቅድመ": 6591,
  "▁ዘል": 6592,
  "▁አለ?": 6593,
  "▁ሄደ": 6594,
  "ዘጋጀ": 6595,
  "▁ግጥ": 6596,
  "ገማ": 6597,
  "▁ማዕረ": 6598,
  "▁ፍጡ": 6599,
  "▁ዘይኮነስ": 6600,
  "ም)": 6601,
  "ሸነፍ": 6602,
  "▁በመካከ": 6603,
  "ዩ፡": 6604,
  "ጥሩ": 6605,
  "ሰጠ": 6606,
  "▁ገበር": 6607,
  "▁ትዝ": 6608,
  "▁ግንባር": 6609,
  "▁ብዙም": 6610,
  "▁የአንድ": 6611,
  "ዚሁ": 6612,
  "▁መዓልትታት": 6613,
  "▁ጀመረ": 6614,
  "▁ባለቤት": 6615,
  "▁መቼም": 6616,
  "ገልጸ": 6617,
  "፡2": 6618,
  "▁ዓመቱ": 6619,
  "ያብሎስ": 6620,
  ":15": 6621,
  "ገዛእ": 6622,
  "ምጣት": 6623,
  "▁ላይ,": 6624,
  "▁ስለዚህም": 6625,
  "▁አነስተኛ": 6626,
  "▁ተላ": 6627,
  "▁መጠየ": 6628,
  "▁አንዱን": 6629,
  "ዛዝ": 6630,
  "ጎብ": 6631,
  "▁34": 6632,
  "ሊሉ": 6633,
  "▁ምንባ": 6634,
  "▁ነይራ።": 6635,
  "ፈጸም": 6636,
  "▁ቤተክርስቲያን": 6637,
  "ልኪ": 6638,
  "ብኣ": 6639,
  "▁ነን።": 6640,
  "▁ልኡ": 6641,
  "ኖራቸው": 6642,
  "ናፊ": 6643,
  "▁የገንዘብ": 6644,
  "▁ሪፖርት": 6645,
  ":7": 6646,
  "▁የሩሳሌም": 6647,
  "▁ቁጽሪ": 6648,
  "▁እንደሚችል": 6649,
  "▁መፍትሄ": 6650,
  "▁ዝተዋ": 6651,
  "ኽእሉ።": 6652,
  "ከታተ": 6653,
  "ወራ": 6654,
  "▁ጽሕፈት": 6655,
  "ሓስ": 6656,
  "hone": 6657,
  "ኻልእ": 6658,
  "▁ይሸ": 6659,
  "ers": 6660,
  "ሙኤል": 6661,
  "ዕለት": 6662,
  "ግሪ": 6663,
  "▁ኋላ": 6664,
  "▁አክ": 6665,
  "ቃዊ": 6666,
  "▁ዓለምን": 6667,
  "ዛረቦ": 6668,
  "ላል.": 6669,
  "ንግሊዝኛ": 6670,
  "ve": 6671,
  "ደረጃ": 6672,
  "▁ርሑ": 6673,
  "▁ዘም": 6674,
  "ናቱ": 6675,
  "▁'እ": 6676,
  "▁በሌሎች": 6677,
  "▁ሳልሳይ": 6678,
  "▁አስተማ": 6679,
  "▁የቅርብ": 6680,
  "ከይ": 6681,
  "▁እብ": 6682,
  "▁ዛፍ": 6683,
  "▁ይብለ": 6684,
  "ውያንን": 6685,
  "ለይቲ": 6686,
  "▁2014": 6687,
  "ደረሰ": 6688,
  "▁መራሒ": 6689,
  "ለሽ": 6690,
  "▁ማጥ": 6691,
  "▁እንተዝ": 6692,
  "▁ድምጽ": 6693,
  "▁ምምሕዳር": 6694,
  "ቀሳ": 6695,
  "▁ኀ": 6696,
  "▁ትርጉ": 6697,
  "ልጣ": 6698,
  "▁ቀጠ": 6699,
  "▁ሲሉ": 6700,
  "ፍታ": 6701,
  "▁ማኅ": 6702,
  "▁በእነርሱ": 6703,
  "ሰቦች": 6704,
  "ኻየ": 6705,
  "▁እናደርጋ": 6706,
  "▁ትንሣኤ": 6707,
  "▁ሥርዓት": 6708,
  "▁ሓሶት": 6709,
  "▁ረድ": 6710,
  "▁አገልግሎቶች": 6711,
  "▁ባይታ": 6712,
  "▁ለይ": 6713,
  "ዶ?": 6714,
  "ርካብ": 6715,
  "ሩ፡": 6716,
  "▁አመለ": 6717,
  "▁የአባ": 6718,
  "▁እናንተም": 6719,
  "ልዮ": 6720,
  "▁በጌታ": 6721,
  "ፈላለየ": 6722,
  "▁ጸገማት": 6723,
  "▁ብኡ": 6724,
  "በሎ": 6725,
  "▁ብራ": 6726,
  "▁ጠን": 6727,
  "ፈጠር": 6728,
  "▁ኖር": 6729,
  "▁ኣየር": 6730,
  "▁እንከለ": 6731,
  "ላለፍ": 6732,
  "ጠ።": 6733,
  "ዚያም": 6734,
  "▁ባለፉት": 6735,
  "ጋም": 6736,
  "ፉ።": 6737,
  "▁ባሕር": 6738,
  "▁ኣጸቢ": 6739,
  "▁ከማን": 6740,
  "▁ስጉምቲ": 6741,
  "▁ዜጋታት": 6742,
  "ጉር": 6743,
  "▁አቅም": 6744,
  "▁ባህል": 6745,
  "▁ቅዳ": 6746,
  "▁ገይረ": 6747,
  "ርኣ": 6748,
  "▁ሓይል": 6749,
  "ጋር": 6750,
  "ጀርመን": 6751,
  "▁ታሕ": 6752,
  "▁አልፎ": 6753,
  "us": 6754,
  "▁ልታ": 6755,
  "▁ዝነበሮ": 6756,
  "▁መማር": 6757,
  "'ያ።": 6758,
  "ፕሮ": 6759,
  "▁ታማኝ": 6760,
  "▁ፈራ": 6761,
  "ፍሪካ": 6762,
  "▁ጄ": 6763,
  "ቆይ": 6764,
  "ተህ": 6765,
  "▁በግልጽ": 6766,
  "▁ዝና": 6767,
  "▁ዘርኢ": 6768,
  "ርዕ": 6769,
  "ሶን": 6770,
  "ዳዊት": 6771,
  "▁ከዋ": 6772,
  "▁ከፈለጉ": 6773,
  "▁ኢሎም።": 6774,
  "ቋር": 6775,
  "ነም": 6776,
  "▁ቪድዮ": 6777,
  "ዓሉ": 6778,
  "▁በተለያዩ": 6779,
  "ሂብ": 6780,
  "▁ምንድነው": 6781,
  "▁ቢያ": 6782,
  "ዱ፡": 6783,
  "ፃፀ": 6784,
  "▁እይታ": 6785,
  "▁መዳይ": 6786,
  "ቋቋም": 6787,
  "ቆች": 6788,
  "ገናኙ": 6789,
  "▁ሕዝቢ": 6790,
  "▁ዝቅተኛ": 6791,
  "▁ብሪ": 6792,
  "▁ክኣ": 6793,
  "▁ስዒ": 6794,
  "...]": 6795,
  "ባይል": 6796,
  "▁ብሔራዊ": 6797,
  "▁ነበራ": 6798,
  "▁ከእሱ": 6799,
  "ዓቢ": 6800,
  "▁ዊ": 6801,
  "▁እንጅ": 6802,
  "▁ሓያል": 6803,
  "▁ቅድም": 6804,
  "▁ፍርሃት": 6805,
  "▁አደርጋለሁ": 6806,
  "ቓይ": 6807,
  "▁አጠ": 6808,
  "▁ከሎ፡": 6809,
  "ራኒ": 6810,
  "▁ኩልና": 6811,
  "▁[...]": 6812,
  "ብያ": 6813,
  "ስኮ": 6814,
  "▁የሚገኙ": 6815,
  "▁አይገባ": 6816,
  "▁ንኻልኦት": 6817,
  "ሃሉ": 6818,
  "መረብ": 6819,
  "ኃይል": 6820,
  "▁ሓራ": 6821,
  "▁ሰብ፡": 6822,
  "ሓይሽ": 6823,
  "▁መስዋእቲ": 6824,
  "▁ተብ": 6825,
  "▁ዮሐንስ": 6826,
  "▁ይሆናል,": 6827,
  "▁ቆልዓ": 6828,
  "ገልግል": 6829,
  "▁ተግባራት": 6830,
  "▁ብደ": 6831,
  "▁ለስ": 6832,
  "▁38": 6833,
  "▁ብሄ": 6834,
  "▁ምዉ": 6835,
  "▁2013": 6836,
  "▁ክልቲኦም": 6837,
  "▁የጌታ": 6838,
  "▁ሓር": 6839,
  "▁ዝመጸ": 6840,
  "ራሳቸውን": 6841,
  "▁ጥርጥር": 6842,
  "ሌቪዥን": 6843,
  "▁ክትገብር": 6844,
  "▁ከምኡውን": 6845,
  "ደደ": 6846,
  "መለሱ": 6847,
  "▁ለማን": 6848,
  "▁70": 6849,
  "▁ስትራ": 6850,
  "▁እኹል": 6851,
  "ከታተል": 6852,
  "ur": 6853,
  "▁ራእይ": 6854,
  "መኛ": 6855,
  "ቀበል": 6856,
  "▁ንት": 6857,
  "▁ትል": 6858,
  "▁ኣህዛብ": 6859,
  "▁ተሳት": 6860,
  "ገዙ": 6861,
  "▁በሉ።": 6862,
  "▁የቁ": 6863,
  "▁አላት": 6864,
  "▁ኣብ'ቲ": 6865,
  "▁እንቅ": 6866,
  "▁ጓደኞች": 6867,
  "10": 6868,
  "▁ወንድሞች": 6869,
  "ቷን": 6870,
  "▁ጭንቀ": 6871,
  "ሯል።": 6872,
  "▁>": 6873,
  "▁እንደምን": 6874,
  "ጊዜው": 6875,
  "▁ከመይሲ፡": 6876,
  "▁ቫይረስ": 6877,
  "ክቶች": 6878,
  "ጉት": 6879,
  "ጥቀ": 6880,
  "▁ያድርጉ": 6881,
  ":12": 6882,
  "▁አቅጣጫ": 6883,
  "▁ብዓል": 6884,
  "ዳሚ": 6885,
  "▁ኣብኣ": 6886,
  "▁አለች": 6887,
  "እተ": 6888,
  "▁ተአ": 6889,
  "▁ባርያ": 6890,
  "▁ፈለማ": 6891,
  "▁ከዚህም": 6892,
  "ኸው": 6893,
  "▁ነውና።": 6894,
  "▁ኪዳ": 6895,
  "ሰማዕ": 6896,
  "▁ተራራ": 6897,
  "▁ጸላኢ": 6898,
  "▁Google": 6899,
  "▁ዝኣመሰለ": 6900,
  "▁ስደት": 6901,
  "▁ጽሑፋት": 6902,
  "ነኛ": 6903,
  "▁ያለን": 6904,
  "▁መቕደስ": 6905,
  "ሞ።": 6906,
  "ቐን": 6907,
  "▁ገዝ": 6908,
  "▁ለእነርሱ": 6909,
  "ወና": 6910,
  "▁በዘ": 6911,
  "▁ጸላእ": 6912,
  "▁አልነበረም።": 6913,
  "▁ያግ": 6914,
  "▁ብዝያዳ": 6915,
  "▁መምርሒ": 6916,
  "▁መጋቢት": 6917,
  "ቕርብ": 6918,
  "ፈሉ": 6919,
  "▁መዓልታዊ": 6920,
  "ርእዩ": 6921,
  "ትሪ": 6922,
  "▁አስባ": 6923,
  "▁ማህበረሰብ": 6924,
  "▁ለመርዳት": 6925,
  "▁ዝገበሮ": 6926,
  "▁ለባ": 6927,
  "▁ኮፍ": 6928,
  "▁In": 6929,
  "ሰረ": 6930,
  "▁ሓድነት": 6931,
  "ቁት": 6932,
  "▁አዲሱ": 6933,
  "▁ምቅ": 6934,
  "▁እንደማ": 6935,
  "ልባ": 6936,
  "▁ካን": 6937,
  "▁ዝነብር": 6938,
  "▁ሁለተኛው": 6939,
  "▁ማሰብ": 6940,
  "▁ጥበቃ": 6941,
  "▁ሳምንታት": 6942,
  "ሳካ": 6943,
  "ነ።": 6944,
  "▁ይዝ": 6945,
  "▁ክኽ": 6946,
  "ኹምን": 6947,
  "ቀርቡ": 6948,
  "▁አስተያየት": 6949,
  "▁ጥም": 6950,
  "ንጫ": 6951,
  "▁ይላሉ": 6952,
  "▁እንጀራ": 6953,
  "ችሁም": 6954,
  "ኸይ": 6955,
  "▁ዕብ": 6956,
  "▁ሙሉእ": 6957,
  "ሕግዝ": 6958,
  "▁2021": 6959,
  "▁ጉዳት": 6960,
  "ሕዝብ": 6961,
  "ገራሚ": 6962,
  "▁የእኛን": 6963,
  "ሯል": 6964,
  "▁ቁልፍ": 6965,
  "▁ንሃ": 6966,
  "▁ልጃ": 6967,
  "▁ተመስ": 6968,
  "▁ክፉእ": 6969,
  "▁ይሞክ": 6970,
  "▁ሐዚ": 6971,
  "▁ብኸም": 6972,
  "ስቴ": 6973,
  "አ።": 6974,
  "ግሌ": 6975,
  "▁ህዝብን": 6976,
  "▁ኮምፒ": 6977,
  "ዓመቱ": 6978,
  "▁መልኣኽ": 6979,
  "▁'ውን": 6980,
  "ድራሻ": 6981,
  "መውት": 6982,
  "ራእ": 6983,
  "ኣዊ": 6984,
  "▁መመለስ": 6985,
  "ግለጽ": 6986,
  "ዎቻችን": 6987,
  "▁ንናይ": 6988,
  "ሮ።": 6989,
  "ከማ": 6990,
  "▁መሰላት": 6991,
  "ራቢ": 6992,
  "ልቲ": 6993,
  "ድ።": 6994,
  "▁ስልጣ": 6995,
  "um": 6996,
  "▁ኣፈ": 6997,
  "▁አለኝ።": 6998,
  "th": 6999,
  "▁ኣዋል": 7000,
  "▁ካህናት": 7001,
  "▁ልቡ": 7002,
  "▁ወያነ": 7003,
  "▁ለመጠቀም": 7004,
  "▁መርበብ": 7005,
  "▁ለምንድን": 7006,
  "▁ኣተሓሳስባ": 7007,
  "pp": 7008,
  "ጅት": 7009,
  "▁ኣጋጢ": 7010,
  "▁a": 7011,
  "▁ንብዙ": 7012,
  "▁ከእርስዎ": 7013,
  "ወቅቱ": 7014,
  "▁በሰማይ": 7015,
  "ri": 7016,
  "ሓስብ": 7017,
  "ረጽ": 7018,
  "▁አለብኝ": 7019,
  "▁አይደለም,": 7020,
  "ወሰን": 7021,
  "▁ክታበት": 7022,
  "▁በካ": 7023,
  "▁ሰበ": 7024,
  "▁ካብታ": 7025,
  "▁ይገባል": 7026,
  "▁\"ሰ": 7027,
  "ሉትን": 7028,
  "ቷል.": 7029,
  "ፍረት": 7030,
  "▁ሓቀኛ": 7031,
  "▁በእስራኤል": 7032,
  "ማሪዎች": 7033,
  "▁አድርገው": 7034,
  "▁ንግሆ": 7035,
  "▁ገበረ": 7036,
  "▁ባሕ": 7037,
  "▁ዝበሎ": 7038,
  "ጥራ": 7039,
  "▁ቅርብ": 7040,
  "▁ሒዙ": 7041,
  "ሊስ": 7042,
  "▁ስግ": 7043,
  "▁በሊ": 7044,
  "▁ብታ": 7045,
  "▁መጥቃዕቲ": 7046,
  "ሙድ": 7047,
  "ሉ፣": 7048,
  "▁ስምምዕ": 7049,
  "▁ምስጢ": 7050,
  "▁ደገፍ": 7051,
  "▁ሸውዓተ": 7052,
  "ጨት": 7053,
  "ጽሓ": 7054,
  "▁ቤት-": 7055,
  "ረንሳይ": 7056,
  "▁በአላህ": 7057,
  "▁ዓይን": 7058,
  "ዳል።": 7059,
  "▁ወግ": 7060,
  "▁ንምርካብ": 7061,
  "▁አላህም": 7062,
  "▁ተቀባይ": 7063,
  "ጦም": 7064,
  "ጠባዊ": 7065,
  "▁መጓ": 7066,
  "▁መንነት": 7067,
  "▁አውሮፕ": 7068,
  "▁ዝዀ": 7069,
  "▁የተወለ": 7070,
  "▁ገይሮም": 7071,
  "▁ዝበለጸ": 7072,
  "▁መላእኽቲ": 7073,
  "▁ኮይን": 7074,
  ":18": 7075,
  "▁ክትብል": 7076,
  "ሕብ": 7077,
  "ቀይ": 7078,
  "▁ማመን": 7079,
  "▁ይፈልጋሉ": 7080,
  "▁ፍራን": 7081,
  "▁ገቢ": 7082,
  "▁ፈረ": 7083,
  "▁ይወድ": 7084,
  "ፈለገ": 7085,
  "▁ዝነበረት": 7086,
  "▁ሒዝ": 7087,
  "and": 7088,
  "▁ንኺ": 7089,
  "▁ህግ": 7090,
  "ህ?": 7091,
  "▁ነፋ": 7092,
  "▁ቢሆንም,": 7093,
  "ልያ": 7094,
  "▁h": 7095,
  "▁ህ.": 7096,
  "ገሪቱ": 7097,
  "▁ረኸ": 7098,
  "▁ማስረጃ": 7099,
  "▁ሊያስ": 7100,
  "ሰማያት": 7101,
  "ጻት": 7102,
  "▁ብጽ": 7103,
  "▁ማዕከ": 7104,
  "ገበር": 7105,
  "▁ጸሓይ": 7106,
  "▁ኣካይ": 7107,
  "▁በዝ": 7108,
  "▁ሚና": 7109,
  "▁ውስ": 7110,
  "▁ጌርና": 7111,
  "▁ለሌሎች": 7112,
  "▁ናብራ": 7113,
  "▁ንምግባር": 7114,
  "▁ደረጃዎች": 7115,
  "▁መምህ": 7116,
  "▁ዓንቀ": 7117,
  "ደንበ": 7118,
  "▁ዝሓሸ": 7119,
  "ችም": 7120,
  "ፋር": 7121,
  "▁ትኸውን": 7122,
  "▁ኣሎና": 7123,
  "▁ክንብል": 7124,
  "▁ንጸ": 7125,
  "▁የሳ": 7126,
  "▁ይመር": 7127,
  "▁ክር": 7128,
  "▁የአላህ": 7129,
  "▁ናቸው፤": 7130,
  "▁ተገቢ": 7131,
  "ለስተ": 7132,
  "▁የሚመጣ": 7133,
  "ካከል": 7134,
  "▁ኣብርሃም": 7135,
  "▁እብለ": 7136,
  "ዛሬው": 7137,
  "ልክት": 7138,
  "ቃይ": 7139,
  "▁ልበይ": 7140,
  "▁ተጠቒ": 7141,
  "▁ወለዲ": 7142,
  "ሩሲያ": 7143,
  "▁አራ": 7144,
  "▁ንምስ": 7145,
  "ዎቻቸው": 7146,
  "▁ሽልማት": 7147,
  "▁ዛሬም": 7148,
  "▁አፍሪካ": 7149,
  "የና": 7150,
  "▁ብኢ": 7151,
  "▁ውጽኢት": 7152,
  "▁ለረጅም": 7153,
  "ሌክትሪክ": 7154,
  "▁የሎ": 7155,
  "▁ቢሮ": 7156,
  "▁መስማት": 7157,
  "ኹን": 7158,
  "▁የሚሆኑት": 7159,
  "▁በምት": 7160,
  "▁ኣቱም": 7161,
  "▁ምኞ": 7162,
  "▁ጠዋት": 7163,
  "▁አውሮፓ": 7164,
  "ኽብ": 7165,
  "ግብኣ": 7166,
  "▁ተቐቢ": 7167,
  "▁ሰላምን": 7168,
  "ንጻ": 7169,
  "▁(መ": 7170,
  "▁በመጠቀም": 7171,
  "▁አበ": 7172,
  "▁ማረ": 7173,
  "▁ይጽ": 7174,
  "▁ተተ": 7175,
  "ቤል": 7176,
  "▁ጽቡቅ": 7177,
  "▁\"ሕ": 7178,
  "▁ደሞ": 7179,
  "▁የሚለውን": 7180,
  "▁ዝተኣ": 7181,
  "▁የድ": 7182,
  "▁ብህይወት": 7183,
  "▁ምሁ": 7184,
  "▁ወዘተ": 7185,
  "▁\"ተ": 7186,
  "ኽእሎ": 7187,
  "▁ማንበብ": 7188,
  "▁ቁሩብ": 7189,
  "▁ብቸኛ": 7190,
  "▁በፊ": 7191,
  "▁ይሰራ": 7192,
  "▁ክዕ": 7193,
  "ለወጥ": 7194,
  "ደልዮ": 7195,
  "▁ሆይ፣": 7196,
  "ሪን": 7197,
  "▁ዝገብሮ": 7198,
  "▁'ኣ": 7199,
  "ከይድ": 7200,
  "▁የቤት": 7201,
  "▁\"አንተ": 7202,
  "▁ሕጻ": 7203,
  "ቀበ": 7204,
  "▁ሀሳ": 7205,
  "▁ረገድ": 7206,
  "▁ሙስሊ": 7207,
  "of": 7208,
  "▁ጠፊ": 7209,
  "ስታወስ": 7210,
  "ፈለጥ": 7211,
  "ርሳ": 7212,
  "ተርፍ": 7213,
  "▁ስምዒት": 7214,
  "▁ነው;": 7215,
  "▁ባህሊ": 7216,
  "▁ግዴታ": 7217,
  "ጎም": 7218,
  "▁በከፍተኛ": 7219,
  "▁ክስተት": 7220,
  "▁ዝደለ": 7221,
  "▁ጣል": 7222,
  "▁ነጥቢ": 7223,
  "የሁ": 7224,
  "ቦን": 7225,
  "ጾች": 7226,
  "▁ይችላል,": 7227,
  "▁እድገት": 7228,
  "ሞችን": 7229,
  "ጋሕ": 7230,
  "▁አስገራሚ": 7231,
  "▁ቤተሰቦች": 7232,
  "እነዚያ": 7233,
  "▁ብና": 7234,
  "▁ናበይ": 7235,
  "▁ኣይደ": 7236,
  "ኹም፡": 7237,
  "▁አስተዋ": 7238,
  "እግዚአብሔር": 7239,
  "▁እየ፣": 7240,
  "▁ተሓቢ": 7241,
  "▁ሜዳ": 7242,
  "▁ሓጺር": 7243,
  "▁ስቕ": 7244,
  "▁ባንክ": 7245,
  "ሰጡ": 7246,
  "▁ተጣ": 7247,
  "▁ካልሆነ": 7248,
  "ጻል": 7249,
  "▁፦": 7250,
  "▁አሳይ": 7251,
  "▁ክነብር": 7252,
  "▁መልእክት": 7253,
  "ዘብ": 7254,
  "▁እርግጥ": 7255,
  "▁ዝድ": 7256,
  "▁ስዊ": 7257,
  "▁iPhone": 7258,
  "ናችሁ": 7259,
  "▁ሰራሕተኛታት": 7260,
  "ሠሩት": 7261,
  "▁ያው": 7262,
  "▁ውር": 7263,
  "▁ተራእ": 7264,
  "▁ርዕስ": 7265,
  "ላድ": 7266,
  "ጐይታ": 7267,
  "▁ዋዕላ": 7268,
  "ጡፍ": 7269,
  "▁ስማ": 7270,
  "▁ሓዳር": 7271,
  "መሩ": 7272,
  "▁ጊዜው": 7273,
  "ሦስት": 7274,
  "▁ናጻ": 7275,
  "▁ዓረብ": 7276,
  "▁42": 7277,
  "▁2012": 7278,
  "▁እናውቃለን": 7279,
  "▁ፍርቂ": 7280,
  "ከሰት": 7281,
  "▁በህ": 7282,
  "▁ብጥ": 7283,
  "▁ማግ": 7284,
  "▁አጠቃ": 7285,
  "▁ለመጠበቅ": 7286,
  "▁ላዕ": 7287,
  "▁ምግቢ": 7288,
  "መካ": 7289,
  "▁'ን": 7290,
  ":13": 7291,
  "እለ": 7292,
  "ግስ": 7293,
  "መይቲ": 7294,
  "ጀምር": 7295,
  "▁ዕር": 7296,
  "▁ተባዕ": 7297,
  "▁ግልፅ": 7298,
  "▁የተመሠረተ": 7299,
  "▁በውስጡ": 7300,
  "▁ሚኒስትር": 7301,
  "▁በሺ": 7302,
  "▁ደንበኞች": 7303,
  "ወዱ": 7304,
  "▁ጥቁር": 7305,
  "▁ዮሃንስ": 7306,
  "▁መጠየቅ": 7307,
  "▁ዝርከቡ": 7308,
  "▁ጊዜያት": 7309,
  "▁የማን": 7310,
  "ዳዊ": 7311,
  "▁ቓ": 7312,
  "▁ጠባ": 7313,
  "▁መሆናቸውን": 7314,
  "ወጽእ": 7315,
  "▁ነጊ": 7316,
  "▁ተጨ": 7317,
  "▁አባቴ": 7318,
  "ኮል": 7319,
  "▁አጭር": 7320,
  "▁197": 7321,
  "▁ምዃኖም": 7322,
  "ብጻሕ": 7323,
  "▁አይሆንም": 7324,
  "▁ስድስት": 7325,
  "▁ምንቅስቓስ": 7326,
  "▁ህብረት": 7327,
  "▁ክፍሊት": 7328,
  "▁በድን": 7329,
  "ሉን።": 7330,
  "▁ጸልማት": 7331,
  "▁ሳሙኤል": 7332,
  ":19": 7333,
  "▁ተቓውሞ": 7334,
  "ወካ": 7335,
  "▁የሚች": 7336,
  "ራስዎ": 7337,
  "ባቱ": 7338,
  "▁ሶፍትዌር": 7339,
  "ብሪካ": 7340,
  "ጨለማ": 7341,
  "ላችኋለሁ": 7342,
  "▁ኣርእስቲ": 7343,
  "ቹም": 7344,
  "▁ክፋ": 7345,
  "▁ልማት": 7346,
  "▁እያንዳንዳ": 7347,
  "▁መርከብ": 7348,
  "▁ትሆና": 7349,
  "▁ናብታ": 7350,
  "▁ስምምነት": 7351,
  "▁90": 7352,
  "▁ራስህን": 7353,
  "ብዝ": 7354,
  "ረኽበ": 7355,
  "-19": 7356,
  "▁ዎቹ": 7357,
  "▁\"ነ": 7358,
  "▁በእጅ": 7359,
  "ግብኦ": 7360,
  "▁የጤና": 7361,
  "▁የሚያደርጉ": 7362,
  "▁ሰባት፡": 7363,
  "▁ይዞ": 7364,
  "▁ግቡእ": 7365,
  "▁የሚጠ": 7366,
  "▁ዶብ": 7367,
  "▁ሕልሚ": 7368,
  "ምም": 7369,
  "ጉን": 7370,
  "▁አመጣ": 7371,
  "ወስደ": 7372,
  "▁ማስታወቂያ": 7373,
  "መዓ": 7374,
  "▁ትራም": 7375,
  "▁ገን": 7376,
  "▁ክንከውን": 7377,
  "▁ንምሕ": 7378,
  "▁ዝለዓለ": 7379,
  "▁አሸናፊ": 7380,
  "ግሩ": 7381,
  "ፍሬ": 7382,
  "▁ሓቲ": 7383,
  "ርግጋ": 7384,
  "▁ሥልጣን": 7385,
  "ጋገ": 7386,
  "▁ኅ": 7387,
  "▁ንባዕ": 7388,
  "▁ሰማዕ": 7389,
  "▁ክንገብር": 7390,
  "▁ቦታታት": 7391,
  "ዘጋጀት": 7392,
  "ሽከርካ": 7393,
  "▁ይከኣ": 7394,
  "▁ዝናብ": 7395,
  "▁ተው": 7396,
  "▁ቤተክርስትያን": 7397,
  "ሊና": 7398,
  "▁ፈት": 7399,
  "▁ተጠንቀ": 7400,
  "▁ናችሁ": 7401,
  "▁ኣበር": 7402,
  "▁ፈላ": 7403,
  "▁ነበር?": 7404,
  "▁የእሱ": 7405,
  "▁'የ": 7406,
  "▁ሚእ": 7407,
  "ሓዊ": 7408,
  "▁የራሱ": 7409,
  "▁ብለህ": 7410,
  "ዎችም": 7411,
  "▁ይኽ": 7412,
  "▁ግንዛ": 7413,
  "ወሰደ": 7414,
  "▁መሳሪያ": 7415,
  "ቃቄ": 7416,
  "ባእ": 7417,
  "▁n": 7418,
  "▁ኣይሁድ": 7419,
  "▁ሰነድ": 7420,
  "ሽቱ": 7421,
  "ክሩ": 7422,
  "▁እፈልጥ": 7423,
  "▁ንደቂ": 7424,
  "3|": 7425,
  "▁እንዳት": 7426,
  "▁ልምዓት": 7427,
  "▁....": 7428,
  "እዝ": 7429,
  "▁በገ": 7430,
  "▁J": 7431,
  "▁የፀ": 7432,
  "▁ዓሳ": 7433,
  "ለድ": 7434,
  "▁ዳዊ": 7435,
  "eb": 7436,
  "ለበት": 7437,
  "▁እንፈልጋ": 7438,
  "▁ጠፍ": 7439,
  "ዘዙ": 7440,
  "▁ኢዱ": 7441,
  "▁ሞትን": 7442,
  "▁ዝኸፍ": 7443,
  "▁አይደለሁም": 7444,
  "▁ንዝተ": 7445,
  "▁ስንት": 7446,
  "▁በባ": 7447,
  "▁ነዎት": 7448,
  "ወስዱ": 7449,
  "ኮን": 7450,
  "▁በዋ": 7451,
  "▁ዝብሎ": 7452,
  "▁በመላው": 7453,
  "▁ሳለ": 7454,
  "ቤተሰ": 7455,
  "ዱሽተ": 7456,
  "▁ኣሰ": 7457,
  "▁ፈቃደኛ": 7458,
  "ታታ": 7459,
  "▁ልደት": 7460,
  "▁አብሮ": 7461,
  "▁ፍቅሪ": 7462,
  "ቖም": 7463,
  "▁ኣደይ": 7464,
  "▁ያም": 7465,
  "▁ተሰም": 7466,
  "▁ከሰማይ": 7467,
  "'ኸ": 7468,
  ":,": 7469,
  "▁ክኸይድ": 7470,
  "▁ዓይኒ": 7471,
  "ሰምዑ": 7472,
  "ሳውያን": 7473,
  "ደነ": 7474,
  "ላችሁም": 7475,
  "ታውን": 7476,
  "▁ህያው": 7477,
  "▁ፀገም": 7478,
  "▁ይላሉ።": 7479,
  "ሱት": 7480,
  "ጽሑፍ": 7481,
  "ወከፍ": 7482,
  "ፊክ": 7483,
  "▁በራ": 7484,
  "▁ለጥ": 7485,
  "▁ሓሊ": 7486,
  "▁በአብዛ": 7487,
  "▁ድንቅ": 7488,
  "ሽም": 7489,
  "ለኝ": 7490,
  "ክረ": 7491,
  "ዘም": 7492,
  "▁ማነው": 7493,
  "▁ልምድ": 7494,
  "ዚ፡": 7495,
  "ፈሪ": 7496,
  "▁ከተማታት": 7497,
  "ረፉ": 7498,
  "▁መልካ": 7499,
  "ንግል": 7500,
  "▁እንደሚሆን": 7501,
  "▁ፍልልይ": 7502,
  "ምባ": 7503,
  "ታችንን": 7504,
  "▁ተቀም": 7505,
  "▁ትደሊ": 7506,
  "ኤስ": 7507,
  "▁አንድም": 7508,
  "▁መጺኡ": 7509,
  "▁ይገኛል": 7510,
  "▁እንግሊዝኛ": 7511,
  "▁ገር": 7512,
  "▁የቤተሰብ": 7513,
  "▁ለመሄድ": 7514,
  "▁በልዎ።": 7515,
  "ቪዲዮ": 7516,
  "ተም": 7517,
  "▁በሃ": 7518,
  "▁ከሁለት": 7519,
  "▁ፍለጋ": 7520,
  "▁መድሃኒት": 7521,
  "ጨመር": 7522,
  "▁በረራ": 7523,
  "ሳር": 7524,
  "▁በሀ": 7525,
  "▁ለመጀመር": 7526,
  "▁ዘለኻ": 7527,
  "▁ኒው": 7528,
  "▁ጠላት": 7529,
  "ልዕ": 7530,
  "▁፳": 7531,
  "▁መርዓ": 7532,
  "▁ውህ": 7533,
  "▁እንዳለው": 7534,
  "ላታት": 7535,
  "ማራ": 7536,
  "▁ኸአ": 7537,
  "ካኤል": 7538,
  "▁ኮሌ": 7539,
  "ስዕቡ": 7540,
  "▁ቁጥጥር": 7541,
  "ልስ": 7542,
  "▁ፕሬዚ": 7543,
  "▁ብርቱዕ": 7544,
  "ድርግ": 7545,
  "▁መሣሪያዎች": 7546,
  "▁ብሰላም": 7547,
  "መንግስቲ": 7548,
  "ቀኝ": 7549,
  "▁ያመጣ": 7550,
  "▁መደባት": 7551,
  "ጠይቅ": 7552,
  "▁ፈረንሳይ": 7553,
  "ኒ\"": 7554,
  "ያጭ": 7555,
  "▁ኢልኩም": 7556,
  "ot": 7557,
  "▁ይግባ": 7558,
  "▁ወሪ": 7559,
  "በልና": 7560,
  "▁ምምላ": 7561,
  "▁ኩለን": 7562,
  "▁ሆይ፤": 7563,
  "'ዶ?": 7564,
  "እ።": 7565,
  "▁ነግ": 7566,
  "ነገሩ": 7567,
  "▁ይዘት": 7568,
  "▁ኣረኣ": 7569,
  "▁ባሉ": 7570,
  "▁ዝፈልጦ": 7571,
  "ዳሉ": 7572,
  "▁ለእነሱ": 7573,
  "ታ።": 7574,
  "ጠም": 7575,
  "▁ፍቃ": 7576,
  "ኻየደ": 7577,
  "ማድ": 7578,
  "▁አለም": 7579,
  "▁ሒደት": 7580,
  "▁ጥንካ": 7581,
  "ዛረብ።": 7582,
  "▁የመስመር": 7583,
  "▁ሰሙ": 7584,
  "▁ትው": 7585,
  "ጠየቅ": 7586,
  "ዋለሁ።": 7587,
  "▁ክሊ": 7588,
  "ምህርቲ": 7589,
  "ክርስቲያን": 7590,
  "▁1.": 7591,
  "▁ያደርገ": 7592,
  "▁ዓለምና": 7593,
  "▁እባክዎን": 7594,
  "▁ወተሃደ": 7595,
  "▁ጋር,": 7596,
  "▁ይሄን": 7597,
  "▁ጋዜጠኛ": 7598,
  "▁ይሆን?": 7599,
  "ጓደ": 7600,
  "▁እላ": 7601,
  "ውቀው": 7602,
  "▁መድኃ": 7603,
  "▁በደል": 7604,
  "ህንም": 7605,
  "ማረ": 7606,
  "ማሩ": 7607,
  "በታል።": 7608,
  "▁በሁለት": 7609,
  "▁ማክ": 7610,
  "ለሁ\"": 7611,
  "200": 7612,
  "▁ንዚ": 7613,
  "▁Next": 7614,
  "▁ኣይኮንኩ": 7615,
  "ዎታ": 7616,
  "▁ክኾኑ": 7617,
  "▁አረ": 7618,
  "▁ብምን": 7619,
  "ሎምን።": 7620,
  "ተቱ": 7621,
  "አላህ": 7622,
  "▁ምናልባትም": 7623,
  "▁ኣይፈልጥን": 7624,
  "ss": 7625,
  "ነ-": 7626,
  "▁በህይወት": 7627,
  "▁48": 7628,
  "▁ፈጺሙ": 7629,
  "በሮም": 7630,
  "▁39": 7631,
  "▁ጋዜጣ": 7632,
  "▁ዜጎች": 7633,
  "▁የባቡር": 7634,
  "ትኻ": 7635,
  "ኻት": 7636,
  "▁ኴ": 7637,
  "▁ዝመስ": 7638,
  "▁ያምና": 7639,
  "ቆጣጠር": 7640,
  "▁ወሳኝ": 7641,
  "▁ደል": 7642,
  "▁አይችልም።": 7643,
  "▁ር.": 7644,
  "ትል": 7645,
  "▁ከዛ": 7646,
  "ገለጸ": 7647,
  "▁ይችላሉ,": 7648,
  "ዋሚ": 7649,
  "▁ካናዳ": 7650,
  "ኝን": 7651,
  "ዕር": 7652,
  "ጣር": 7653,
  "▁ለወ": 7654,
  "▁ዝተቐ": 7655,
  "▁ጸኒሑ": 7656,
  "▁ኻል": 7657,
  "ation": 7658,
  "ገነባ": 7659,
  "ጸራ": 7660,
  "▁ፈቲ": 7661,
  "▁ድሕሪኡ": 7662,
  "▁ኹ": 7663,
  "▁ኣረ": 7664,
  "ንነት": 7665,
  "▁ሓጥ": 7666,
  "▁ቀለም": 7667,
  "▁ብዝኾነ": 7668,
  "ጦር": 7669,
  "▁ከደ": 7670,
  "▁ኔሩ": 7671,
  "ጊዕ": 7672,
  "▁ዘዳ": 7673,
  "ዋህ": 7674,
  "▁በጽ": 7675,
  "▁ጥቓ": 7676,
  "▁ህፃ": 7677,
  "▁ኦም": 7678,
  "▁በዛ": 7679,
  "▁ድሕ": 7680,
  "▁ደራሲ": 7681,
  "ስትና": 7682,
  "▁ኣፍሊ": 7683,
  "ጠብቅ": 7684,
  "▁ወንጀ": 7685,
  "▁ድሕነት": 7686,
  "▁ዓመታዊ": 7687,
  "'ታ": 7688,
  "▁\"ወ": 7689,
  "▁ሁሌም": 7690,
  "▁በሎም": 7691,
  "▁ንቡር": 7692,
  "▁ምልክቶች": 7693,
  "▁ትራምፕ": 7694,
  "▁የቱ": 7695,
  "ገናኘ": 7696,
  "▁ምዕራብ": 7697,
  "▁ምንጪ": 7698,
  "ዩም": 7699,
  "▁የሚያሳ": 7700,
  "ድማ": 7701,
  "▁ፃ": 7702,
  "▁በወቅቱ": 7703,
  "▁ማዕከል": 7704,
  "▁ስኬታማ": 7705,
  "ለኒ": 7706,
  "▁አይኖር": 7707,
  ":17": 7708,
  "▁ተቀባይነት": 7709,
  "አዊ": 7710,
  "▁ኮይነ": 7711,
  "▁ያውቃል": 7712,
  "▁ጡ": 7713,
  "▁ናብዚ": 7714,
  "▁መዝገብ": 7715,
  "▁ተዋሂ": 7716,
  "ርሽ": 7717,
  "▁ብጾ": 7718,
  "▁ምሃብ": 7719,
  "▁እዋን፡": 7720,
  "▁ጥበበኛ": 7721,
  "▁አእምሮ": 7722,
  "▁ምስቶም": 7723,
  "▁ይመለሳ": 7724,
  "ድስ": 7725,
  "ጠፉ": 7726,
  "▁ነተን": 7727,
  "ሃይማኖ": 7728,
  "በራት": 7729,
  "ታትካ": 7730,
  "▁አንደ": 7731,
  "▁ግናኸ፡": 7732,
  "ሙና": 7733,
  "ርኪ": 7734,
  "ሸን": 7735,
  "ኑን።": 7736,
  "ኮይኑ": 7737,
  "▁ተካ": 7738,
  "▁ካለው": 7739,
  "ገናኛ": 7740,
  "ሳው": 7741,
  "▁እግዚአብሄር": 7742,
  "▁ቀድሞውኑ": 7743,
  "▁ታሕቲ": 7744,
  "▁ኣምላኽ፡": 7745,
  "▁ያእቆብ": 7746,
  "▁ትብል።": 7747,
  "ልበት": 7748,
  "▁ለማንኛውም": 7749,
  "ናፍ": 7750,
  "ጣሉ": 7751,
  "ገኙት": 7752,
  "▁\"ከም": 7753,
  "ኻኽር": 7754,
  "ቦና": 7755,
  "▁መቃ": 7756,
  "▁ያዕቆብ": 7757,
  "▁ተሰጥ": 7758,
  "▁ተማሂ": 7759,
  "▁የለውም።": 7760,
  "▁44": 7761,
  "▁ዝኣክል": 7762,
  "▁ኣንስቲ": 7763,
  "art": 7764,
  "▁የሶ": 7765,
  "▁ንምው": 7766,
  "ግዳ": 7767,
  "ፍትን": 7768,
  "▁መገድ": 7769,
  "▁ካሊ": 7770,
  "እስ": 7771,
  "▁በረኻ": 7772,
  "▁ሰሎሞን": 7773,
  "ሯቸው": 7774,
  "ተይን": 7775,
  "▁ስምዒ": 7776,
  "▁ትንሳኤ": 7777,
  "ተተ": 7778,
  "▁አቤቱ": 7779,
  "▁አንዴ": 7780,
  "▁እወ፡": 7781,
  "▁Read": 7782,
  "እኛ": 7783,
  "▁ንብረ": 7784,
  "▁ተመለስ": 7785,
  "▁ቅድሜ": 7786,
  "▁አድርግ": 7787,
  "የሩሳሌም": 7788,
  "▁አሰ": 7789,
  "▁ኣይመስለን": 7790,
  "ሪዝም": 7791,
  "▁መስራት": 7792,
  "▁ርእስኻ": 7793,
  "ኸል": 7794,
  "▁የኔ": 7795,
  "▁ይት": 7796,
  "▁·": 7797,
  "▁እንተድኣ": 7798,
  "▁ዚርከብ": 7799,
  "▁እጃ": 7800,
  "▁ኣቡ": 7801,
  "▁ኤርትራዊ": 7802,
  "▁የድር": 7803,
  "▁ነገረ": 7804,
  "▁ምርኣይ": 7805,
  "▁የመጨረሻው": 7806,
  "▁ሓርነት": 7807,
  "▁አይደል?": 7808,
  "ምልከ": 7809,
  "ከላከል": 7810,
  "▁አምና": 7811,
  "▁ኢሜ": 7812,
  "▁ከምት": 7813,
  "▁ሕገ": 7814,
  "▁አማካኝነት": 7815,
  "▁እቅድ": 7816,
  "ነትና": 7817,
  "▁እንደነበረ": 7818,
  "ዋቸው": 7819,
  "▁ለሰው": 7820,
  "▁ዩናይትድ": 7821,
  "ሌን": 7822,
  "ቀረ": 7823,
  "ጠብቃ": 7824,
  "ምፒ": 7825,
  "▁ናይቶም": 7826,
  "▁ለዚህም": 7827,
  "መሓ": 7828,
  "▁የን": 7829,
  "▁እንጌ": 7830,
  "▁ብምስ": 7831,
  "ስትራሊያ": 7832,
  "▁ዘብ": 7833,
  "▁ጸሓ": 7834,
  "▁ሂደ": 7835,
  "▁ኣዝዮም": 7836,
  "▁ይሁንና": 7837,
  "vi": 7838,
  "ቨር": 7839,
  "ቪድ": 7840,
  "ፈጥር": 7841,
  "▁በትን": 7842,
  "▁(ለ": 7843,
  "▁ታስ": 7844,
  "▁ቃሉ": 7845,
  ":20": 7846,
  "▁ንገረ": 7847,
  "▁ይመጣል": 7848,
  "ቑ።": 7849,
  "ጠቐ": 7850,
  "ፀን": 7851,
  "▁ኛው": 7852,
  "▁መኖሪያ": 7853,
  "▁ኣለው": 7854,
  "▁(ም": 7855,
  "▁ሳይንስ": 7856,
  "ላቀ": 7857,
  "▁ጤ": 7858,
  "ባ።": 7859,
  "▁የመንግ": 7860,
  "▁እግሪ": 7861,
  "▁በርሱ": 7862,
  "▁የፍቅር": 7863,
  "▁ዝዝ": 7864,
  "▁ኣይረኸ": 7865,
  "▁ክርስቲያኖች": 7866,
  "▁ጋንታ": 7867,
  "ቆት": 7868,
  "ባረ": 7869,
  "▁ቢኖር": 7870,
  "ወሰድ": 7871,
  "▁ኢየሱስም": 7872,
  "▁እሷን": 7873,
  "▁ዑቕ": 7874,
  "▁ዂሉ": 7875,
  "▁ህዝብታት": 7876,
  "ገበያ": 7877,
  "ኮኑ": 7878,
  "ጋስ": 7879,
  "ፔን": 7880,
  "▁ስላል": 7881,
  "▁መሊሱ": 7882,
  "▁መሐ": 7883,
  "▁ንነብ": 7884,
  "▁አልችልም": 7885,
  "▁ዘለና።": 7886,
  "▁ቅድሚኡ": 7887,
  "▁ብለዋል": 7888,
  "ረፍቲ": 7889,
  "▁ኣዴ": 7890,
  "▁ወፍ": 7891,
  "▁አለበት.": 7892,
  "ቃም": 7893,
  "ለዩ": 7894,
  "ውቲ": 7895,
  "▁ምቹ": 7896,
  "▁ደቅ": 7897,
  "▁መፈለግ": 7898,
  "▁ነገሩ": 7899,
  "▁ያስፈልግ": 7900,
  "ዛረበ": 7901,
  "▁ንነዊሕ": 7902,
  "▁አሕዛብ": 7903,
  "▁ትፈልጋ": 7904,
  "▁ያየ": 7905,
  "▁ጥፍ": 7906,
  "▁ንምም": 7907,
  "ብሃ": 7908,
  "▁መልአክ": 7909,
  "ጁን": 7910,
  "▁አይቀር": 7911,
  "▁የእኔን": 7912,
  "ጅነት": 7913,
  "ስጥኤ": 7914,
  "▁አለ.": 7915,
  "ላፍ": 7916,
  "▁=": 7917,
  "ook": 7918,
  "ሎምን": 7919,
  "▁ዄ": 7920,
  "▁ዝካየድ": 7921,
  "▁ክዛረብ": 7922,
  "▁እነሆ፥": 7923,
  "▁ብህ": 7924,
  "▁ቀስ": 7925,
  "▁እየሰራ": 7926,
  "፡+": 7927,
  "▁ገጹ": 7928,
  "▁ረሲ": 7929,
  "▁መቐለ": 7930,
  "▁ከጥቂት": 7931,
  "አንተ": 7932,
  "▁የሐ": 7933,
  "▁ዝመል": 7934,
  "ከላከ": 7935,
  "▁ንኣብነት፡": 7936,
  "▁እሺ": 7937,
  "▁ድኽ": 7938,
  "ገልጽ።": 7939,
  "▁አስተማማኝ": 7940,
  "ሓሉ": 7941,
  "▁ክረም": 7942,
  "▁ዓሚ": 7943,
  "▁ምንታይ": 7944,
  "ለታ": 7945,
  "▁ብፁ": 7946,
  "▁ውድባት": 7947,
  "▁ጾም": 7948,
  "--": 7949,
  "ወሩ": 7950,
  "▁ክለ": 7951,
  "▁ስለተ": 7952,
  "▁ፈርኦን": 7953,
  "▁ክድ": 7954,
  "▁ዓድ": 7955,
  "▁2009": 7956,
  "ችልም.": 7957,
  "ግረ": 7958,
  "▁ኸዓ": 7959,
  "በርካታ": 7960,
  "▁ንጥፈታት": 7961,
  "መተ": 7962,
  "▁አስቀድሞ": 7963,
  "▁ፕላ": 7964,
  "▁ሃገረ": 7965,
  "▁ቤተሰቦ": 7966,
  "ጎድ": 7967,
  "▁ትኽእል።": 7968,
  "▁2008": 7969,
  "▁የድሊ።": 7970,
  "▁ነበረት።": 7971,
  "ሩኽ": 7972,
  "▁ምስል": 7973,
  "ምስት": 7974,
  "ራጃ": 7975,
  "▁ይጨ": 7976,
  "▁45": 7977,
  "▁ብዝሒ": 7978,
  "▁ሽማግሌ": 7979,
  "ውነ": 7980,
  "ና፤": 7981,
  "ጽዓ": 7982,
  "▁ምግባ": 7983,
  "▁መብራ": 7984,
  "▁ድንኳን": 7985,
  "▁ክሰ": 7986,
  "▁ለመኖር": 7987,
  "▁ዳሕ": 7988,
  "ድሽ": 7989,
  "▁ንማ": 7990,
  "▁ኣለዋ": 7991,
  ":16": 7992,
  "▁ኣፍል": 7993,
  "▁ተጫዋች": 7994,
  "▁ወታደ": 7995,
  "-3": 7996,
  "ቋንቋ": 7997,
  "ጥቀም": 7998,
  "▁በይነ": 7999,
  "▁ሊኖር": 8000,
  "ድኩም": 8001,
  "▁ምድረ": 8002,
  "▁ክዳ": 8003,
  "▁በቅ": 8004,
  "ያዝያ": 8005,
  "op": 8006,
  "▁ዝብሃል": 8007,
  "መንት": 8008,
  "ቢብ": 8009,
  "▁ሰፈር": 8010,
  "▁ህዝቡ": 8011,
  "▁ዛዕባ": 8012,
  "ጠፍእ": 8013,
  "▁ሓያሎ": 8014,
  "ረትን": 8015,
  "▁ቅዱስን": 8016,
  "ጢሩ": 8017,
  "▁ነዳ": 8018,
  "▁ይደሊ": 8019,
  "▁ደሓን": 8020,
  "ርእየ": 8021,
  "▁ትእዛዛት": 8022,
  "ቡና": 8023,
  "ዑ፡": 8024,
  "▁(ይ": 8025,
  "▁ልብስ": 8026,
  "▁ዙርያ": 8027,
  "ረደ": 8028,
  "ነግር": 8029,
  "▁ብምኽንያት": 8030,
  "▁ዕቃ": 8031,
  "▁ኪቕ": 8032,
  "▁በዙሪያ": 8033,
  "ጎብኘት": 8034,
  "▁አምል": 8035,
  "▁ባዶ": 8036,
  "ለይን።": 8037,
  "▁ድርጅቶች": 8038,
  "▁ወረዳ": 8039,
  "ቡት": 8040,
  "ቴጂ": 8041,
  "ኝ፤": 8042,
  "ጸና": 8043,
  "▁መደበኛ": 8044,
  "▁ጽድቂ": 8045,
  "ia": 8046,
  "ፃኢ": 8047,
  "▁ይሁ": 8048,
  "▁ክዝ": 8049,
  "▁ካላ": 8050,
  "▁የእግር": 8051,
  "ሃል?": 8052,
  "▁ተወሊ": 8053,
  "14": 8054,
  "▁መረዳ": 8055,
  "▁እንዲህም": 8056,
  "ut": 8057,
  "▁እንዴ?": 8058,
  "▁መድረክ": 8059,
  "▁የነበሩት": 8060,
  "▁ጥላ": 8061,
  "▁ጥል": 8062,
  "▁ንድሕሪ": 8063,
  "▁ውሕስነት": 8064,
  "ርዎ": 8065,
  "ቨስት": 8066,
  "▁ጸዊ": 8067,
  "▁አብረን": 8068,
  "ቸዋል.": 8069,
  "▁በተሻለ": 8070,
  "ፈታ": 8071,
  "▁የመጡ": 8072,
  ":14": 8073,
  "▁ኣንብ": 8074,
  "ew": 8075,
  "▁ይደ": 8076,
  "▁ንፍ": 8077,
  "▁እንደመ": 8078,
  "▁መሳሪያዎች": 8079,
  "▁የብሉን": 8080,
  "em": 8081,
  "▁እሷም": 8082,
  "▁እድሜ": 8083,
  "▁አለ,": 8084,
  "▁መለስ": 8085,
  "▁ክስተቶች": 8086,
  "ሞንተ": 8087,
  "እነርሱ": 8088,
  "ጻፍ": 8089,
  "▁ኣጥ": 8090,
  "ሰይጣን": 8091,
  "ቶቡስ": 8092,
  "ለቅ": 8093,
  "ሚን": 8094,
  "ጓድ": 8095,
  "▁ይናገራ": 8096,
  "▁ንሶም": 8097,
  "▁ተቆ": 8098,
  "▁ተመዝ": 8099,
  "▁ይመስላል።": 8100,
  "▁ተረኺ": 8101,
  "▁መራኸ": 8102,
  "▁ምዕባለ": 8103,
  "ኦ።": 8104,
  "▁ፋብሪካ": 8105,
  "▁ይገባል።": 8106,
  "ኒን": 8107,
  "▁ዉን": 8108,
  "▁ያረጋግ": 8109,
  "▁ሐሳብ": 8110,
  "▁ቋንቋዎች": 8111,
  "ፈሻዊ": 8112,
  "ላ፡": 8113,
  "ኣያ": 8114,
  "▁ሓይልታት": 8115,
  "ሁ፤": 8116,
  "ሻል": 8117,
  "▁ባህላዊ": 8118,
  "ላጽ": 8119,
  "▁የራስ": 8120,
  "▁ሓጢ": 8121,
  "▁ዘይሕ": 8122,
  "ቸዋለሁ": 8123,
  "ናሽ": 8124,
  "ኖ።": 8125,
  "ኦምን": 8126,
  "▁ማል": 8127,
  "▁ወደዚህ": 8128,
  "ቃሉ": 8129,
  "ኑ፡": 8130,
  "ኛታት": 8131,
  "▁ንዓለም": 8132,
  "▁ማራ": 8133,
  "ብርሃን": 8134,
  "▁ግምገማ": 8135,
  "▁አድና": 8136,
  "▁ኢያ።": 8137,
  "በልዕ": 8138,
  "▁ሆነ።": 8139,
  "ራሳችን": 8140,
  "▁ይክ": 8141,
  "▁ፈጠ": 8142,
  "▁ተደርጓ": 8143,
  "ነር": 8144,
  "▁ጩ": 8145,
  "▁መጽሔ": 8146,
  "የትኛውም": 8147,
  "ኒ፣": 8148,
  "▁ተነሳ": 8149,
  "▁ልዕል": 8150,
  "▁ለማረጋገጥ": 8151,
  "▁196": 8152,
  "ሊያን": 8153,
  "ላዕ": 8154,
  "▁መርመራ": 8155,
  "ፈጠረው": 8156,
  "▁ኢየሩሳሌም": 8157,
  "▁ሽማግለ": 8158,
  "▁ኣረጋ": 8159,
  "▁ከጊዜ": 8160,
  "ጠንቀ": 8161,
  "▁አህ": 8162,
  "▁እንኮ": 8163,
  "▁ውጪ": 8164,
  "▁ዝርዝ": 8165,
  "▁ኢሳያስ": 8166,
  "▁ዕዉ": 8167,
  "▁ከመጀመሪያ": 8168,
  "ቱ፡": 8169,
  "▁አንብ": 8170,
  "ኾም": 8171,
  "▁X": 8172,
  "▁ረዳ": 8173,
  "▁ባህሪያ": 8174,
  "▁በአምላክ": 8175,
  "▁ብቑ": 8176,
  "ሽሓት": 8177,
  "▁ሆኑ": 8178,
  "▁ከንቱ": 8179,
  "▁ይወጣ": 8180,
  "▁ተልእ": 8181,
  "▁\"ወደ": 8182,
  "▁ማእከላይ": 8183,
  "▁ኣረኣእያ": 8184,
  "▁ጾታዊ": 8185,
  "ሸጥ": 8186,
  "▁አሮ": 8187,
  "▁እዮም፣": 8188,
  "ችኋል።": 8189,
  "▁ክመጽእ": 8190,
  "ኃጢአት": 8191,
  "እዎ": 8192,
  "▁ለወደ": 8193,
  "▁ካም": 8194,
  "▁ኩባንያው": 8195,
  "▁ተገኝ": 8196,
  "▁ከሁሉ": 8197,
  "▁ለመረዳት": 8198,
  "▁ገበን": 8199,
  "ጥቀመሉ": 8200,
  "ሰጠው": 8201,
  "ጨመረ": 8202,
  "ጫን": 8203,
  "▁ብጻ": 8204,
  "▁ሓሲ": 8205,
  "▁ተሳትፎ": 8206,
  "ሰባት": 8207,
  "ፊል": 8208,
  "▁ኮሮና": 8209,
  "▁በታላቅ": 8210,
  "▁ንባብ": 8211,
  "▁ያደረገ": 8212,
  "ዓትን": 8213,
  "▁በሥራ": 8214,
  "▁ይነብር": 8215,
  "▁ብምግባር": 8216,
  "▁ነበርኩ": 8217,
  "▁ነጻነት": 8218,
  "ላቸውን": 8219,
  "ሽነት": 8220,
  "ኩት።": 8221,
  "ገባት": 8222,
  "▁ስኬት": 8223,
  "▁አይታ": 8224,
  "▁በመሆኑ": 8225,
  "ሰምዖ": 8226,
  "▁ይል": 8227,
  "▁ብጸ": 8228,
  "▁ምና": 8229,
  "▁ቀኝ": 8230,
  "▁አለው.": 8231,
  "▁በረከት": 8232,
  "▁መርገ": 8233,
  "ላውን": 8234,
  "▁የከ": 8235,
  "▁ዝግባእ": 8236,
  "▁ግዙ": 8237,
  "ዋዕት": 8238,
  "▁ያግኙ": 8239,
  "'ከ": 8240,
  "ቶም።": 8241,
  "▁ጎዳና": 8242,
  "▁አስተዳደር": 8243,
  "▁ቘ": 8244,
  "▁ንገዛእ": 8245,
  "▁ያገኘ": 8246,
  "▁ኣዳም": 8247,
  "▁ይገ": 8248,
  "▁ወኪ": 8249,
  "▁ተሰሚ": 8250,
  "▁ተጋዳ": 8251,
  "1)": 8252,
  "ቶቻችሁ": 8253,
  "▁ሽዱሽተ": 8254,
  "▁ሃብቲ": 8255,
  "ባችን": 8256,
  "ያቂ": 8257,
  "▁ዘጸ": 8258,
  "▁አባቱ": 8259,
  "▁ጦር": 8260,
  "▁መፍትሔ": 8261,
  "ብሊክ": 8262,
  "▁በሐ": 8263,
  "▁ግፍ": 8264,
  "▁ማቴ": 8265,
  "▁ኣቀ": 8266,
  "▁ሓጐስ": 8267,
  "▁\"እኛ": 8268,
  "ቐርብ": 8269,
  "እናንተ": 8270,
  "ያል።": 8271,
  "▁ይሞ": 8272,
  "ካከት": 8273,
  "ውንቲ": 8274,
  "▁ሠራተኞች": 8275,
  "▁ይከኣል።": 8276,
  "▁በማይ": 8277,
  "▁ወይኒ": 8278,
  "▁ጸወታ": 8279,
  "▁ጠር": 8280,
  "▁ኣነን": 8281,
  "▁ገደማ": 8282,
  "▁አብዛኛውን": 8283,
  "ቀቀ": 8284,
  "ቕ።": 8285,
  "▁የኃይል": 8286,
  "▁ንግዲ": 8287,
  "ንጉሡ": 8288,
  "ዓር": 8289,
  "▁ህዝበይ": 8290,
  "▁ኣማራ": 8291,
  "ላዪ": 8292,
  "▁ብ19": 8293,
  "▁መግዛት": 8294,
  "▁መልእክ": 8295,
  "ላቱ": 8296,
  "ሥጋ": 8297,
  "▁ሕያ": 8298,
  "▁እንደዚሁ": 8299,
  "▁የእነሱ": 8300,
  "ዋስ": 8301,
  "▁ቀለ": 8302,
  "▁ትጽቢት": 8303,
  "▁ዕቅድ": 8304,
  "▁መጻሕፍቲ": 8305,
  "▁የውሃ": 8306,
  "ያዕቆብ": 8307,
  "ጹጽ": 8308,
  "▁ከብዙ": 8309,
  "▁ጥቂ": 8310,
  "▁ኣለዎም": 8311,
  "roid": 8312,
  "'ቶም": 8313,
  "▁በጥን": 8314,
  "▁ነው...": 8315,
  "▁ዳይ": 8316,
  "▁ያልሆነ": 8317,
  "ቅል": 8318,
  "ጎዳ": 8319,
  "▁ኣመል": 8320,
  "▁ሆይ!": 8321,
  "▁ቡድኖች": 8322,
  "ሃሩ": 8323,
  "ኖችን": 8324,
  "▁ምንድነው?": 8325,
  "ኖት": 8326,
  "ይ።": 8327,
  "▁\"ል": 8328,
  "▁አማልክት": 8329,
  "▁ዋናው": 8330,
  "▁ብዘየ": 8331,
  "▁in": 8332,
  "▁ተኽ": 8333,
  "▁ቀጻሊ": 8334,
  "▁የተመሰ": 8335,
  "▁ናቸው?": 8336,
  "▁2011": 8337,
  "▁ኣንታ": 8338,
  "▁ዳንኤል": 8339,
  "ባበር": 8340,
  "ፕሬ": 8341,
  "▁መቓ": 8342,
  "ለዋል": 8343,
  "▁ማለትም": 8344,
  "▁የምር": 8345,
  "ፍለጥ።": 8346,
  "ም፥": 8347,
  "ደርሱ": 8348,
  "በልካ": 8349,
  "▁ድሕር": 8350,
  "ሩይ": 8351,
  "▁ንዑ": 8352,
  "▁ግሩም": 8353,
  "ስተን": 8354,
  "▁ወንድም": 8355,
  "▁መዛሙ": 8356,
  "▁ለመስራት": 8357,
  "▁ዝኽእሉ": 8358,
  "▁በእሳት": 8359,
  "ንዱስትሪ": 8360,
  "ፌስቡክ": 8361,
  "▁የዕ": 8362,
  "▁መሰኻኽር": 8363,
  "ለጥ": 8364,
  "ክሬን": 8365,
  "▁And": 8366,
  "ነታቸው": 8367,
  "▁ውብ": 8368,
  "▁ለመሆኑ": 8369,
  "ባበ": 8370,
  "ኣም": 8371,
  "ወርድ": 8372,
  "ውያ": 8373,
  "▁ለመድረስ": 8374,
  "▁ዝተኸ": 8375,
  "ሞክራስ": 8376,
  "▁ይቕረ": 8377,
  "▁ንድሕሪት": 8378,
  "▁እላችኋለሁ": 8379,
  "▁የሽ": 8380,
  "ያውቅ": 8381,
  "▁ሙሴን": 8382,
  "▁ዩኒቨርስ": 8383,
  "▁መፍትሒ": 8384,
  "▁የትኛው": 8385,
  "▁ምፍላጥ": 8386,
  "▁መሪሕነት": 8387,
  "▁ጣቢያዎች": 8388,
  "መጸ": 8389,
  "▁ጒ": 8390,
  "▁'ዩ": 8391,
  "▁ጥንካሬ": 8392,
  "ኣኸ": 8393,
  "▁ቊ": 8394,
  "▁እሙን": 8395,
  "▁ተመልከቱ": 8396,
  "▁ንዘለኣለም": 8397,
  "ዞች": 8398,
  "▁መሳርሒ": 8399,
  "▁ጆሮ": 8400,
  "ፈፀ": 8401,
  "▁የተጻ": 8402,
  "▁ለማለት": 8403,
  "▁የጉዞ": 8404,
  "ኩባንያ": 8405,
  "ክሮች": 8406,
  "▁ኣይሓ": 8407,
  "▁ሊቃ": 8408,
  "▁ምዃና": 8409,
  "-ሰብ": 8410,
  "▁ነቢያት": 8411,
  "ክኒ": 8412,
  "▁ካልተ": 8413,
  "▁ነበረው": 8414,
  "▁የብልናን።": 8415,
  "ራረብ": 8416,
  "ኣለ": 8417,
  "▁መረዳት": 8418,
  "▁በሺዎች": 8419,
  "ቀሰ": 8420,
  "▁ይችላል?": 8421,
  "▁ወጣቶች": 8422,
  "ብር።": 8423,
  "▁ኮር": 8424,
  "▁ንጹር": 8425,
  "ጋዝ": 8426,
  "▁ንየ": 8427,
  "▁ወረቐት": 8428,
  "ሓትን": 8429,
  "ዮ፡": 8430,
  "▁እንድታ": 8431,
  "▁የሚያስችል": 8432,
  "▁መብዛሕትኦም": 8433,
  "▁ዝጸንሐ": 8434,
  "▁ብኻልእ": 8435,
  "▁ክሰርሕ": 8436,
  "▁ማረጋገጥ": 8437,
  "▁ሓወይ": 8438,
  "▁ምክል": 8439,
  "▁በፍቅር": 8440,
  "ሪኽ": 8441,
  "ቛንቋ": 8442,
  "ያየ": 8443,
  "▁ንፈልጥ": 8444,
  "ፈልጠ": 8445,
  "▁እንደሚያስ": 8446,
  "▁የለም.": 8447,
  "▁com": 8448,
  "▁ኢንተርነት": 8449,
  "4|": 8450,
  "▁ክምለስ": 8451,
  "ሰብኩ": 8452,
  "▁ብዝብል": 8453,
  "▁ብድሕሪኡ": 8454,
  "40": 8455,
  "ስታውስ": 8456,
  "▁እንግዳ": 8457,
  "ማህ": 8458,
  "ም\"": 8459,
  "▁ሞይ": 8460,
  "▁ንሰባት": 8461,
  "▁ፌስቡክ": 8462,
  "▁የሰማ": 8463,
  "▁ዝመር": 8464,
  "ለን፤": 8465,
  "▁የአንተ": 8466,
  "ርድኦ": 8467,
  "ስእ": 8468,
  "ደዱ": 8469,
  "▁በኤ": 8470,
  "▁ማዳ": 8471,
  "▁ድቃስ": 8472,
  "▁(ኤ": 8473,
  "ቀመጡ": 8474,
  "▁እንዳለበት": 8475,
  "ኪን": 8476,
  "▁የገባ": 8477,
  "▁መኽ": 8478,
  "▁ርሕ": 8479,
  "ሳሰብ": 8480,
  "ፋዊ": 8481,
  "▁;": 8482,
  "▁መረብ": 8483,
  "▁ዝፈልጥ": 8484,
  "▁ሰላማዊ": 8485,
  "▁ምስራሕ": 8486,
  "▁\"እናንተ": 8487,
  "ሳችሁ": 8488,
  "▁ከን": 8489,
  "▁ኣለካ።": 8490,
  "▁ሥራዎች": 8491,
  "▁more": 8492,
  "ቶቹን": 8493,
  "ቻለሁ።": 8494,
  "▁የሀ": 8495,
  "▁መከ": 8496,
  "▁አድርጌ": 8497,
  "▁ጥቅሞች": 8498,
  "▁ሓዲሽ": 8499,
  "ረሻ": 8500,
  "ንዛ": 8501,
  "▁ዘበ": 8502,
  "▁ድንግል": 8503,
  "▁ሓባር": 8504,
  "▁አይፈ": 8505,
  "▁አካባቢዎች": 8506,
  "▁ቈልዑ": 8507,
  "▁You": 8508,
  "▁ይድ": 8509,
  "▁ፍጥረ": 8510,
  "▁መስክ": 8511,
  "▁ክርስትያናት": 8512,
  "▁ጥልቅ": 8513,
  "▁የተከ": 8514,
  "▁ኣለኻ": 8515,
  "igr": 8516,
  "ሻይ": 8517,
  "▁ይካ": 8518,
  "▁ሕሉ": 8519,
  "ብዙሕ": 8520,
  "▁ተመልሶ": 8521,
  "ost": 8522,
  "▁አይተ": 8523,
  "▁ውጤቶች": 8524,
  "ብላዕ": 8525,
  "▁ተቋማት": 8526,
  "18": 8527,
  "ሟላ": 8528,
  "ቕካ": 8529,
  "ፁ።": 8530,
  "ፍሩ": 8531,
  "ሰርሐ": 8532,
  "▁መልክዕ": 8533,
  "▁ጆን": 8534,
  "ዶን": 8535,
  "ግነት": 8536,
  "ጻወ": 8537,
  "▁የተጠበቀ": 8538,
  "▁ጨለማ": 8539,
  "▁በቅርብ": 8540,
  "▁ህጻን": 8541,
  "▁ዘጋጠመ": 8542,
  "▁ፍጡር": 8543,
  "ፋእ": 8544,
  "▁አዛ": 8545,
  "▁ንዘይ": 8546,
  "▁መናፍ": 8547,
  "▁ምብራቕ": 8548,
  "▁ስትራቴጂ": 8549,
  "ይይ": 8550,
  "ከተሉ": 8551,
  "▁ይኹን።": 8552,
  "▁(ማቴ": 8553,
  "መዱ": 8554,
  "ራሪ": 8555,
  "ፕሎ": 8556,
  "▁ስኢ": 8557,
  "▁ካቶ": 8558,
  "▁ክትረክብ": 8559,
  "▁እንችላለን።": 8560,
  "▁የሚፈልጉትን": 8561,
  "▁ይመስለኛል": 8562,
  "ab": 8563,
  "ቐር": 8564,
  "ደሰት": 8565,
  "▁እዩ፤": 8566,
  "▁ዘይብል": 8567,
  "ደልየ": 8568,
  "መደ": 8569,
  "ምረው": 8570,
  "▁ዝተሰ": 8571,
  "መለክ": 8572,
  "ፈልገውን": 8573,
  "ቅዱስ": 8574,
  "ram": 8575,
  "▁እናበሉ": 8576,
  "▁2010": 8577,
  "▁ንዅሎም": 8578,
  "▁ሰልፍ": 8579,
  "▁ግዛት": 8580,
  "▁(ኢ": 8581,
  "ባትን": 8582,
  "▁ሕልና": 8583,
  "▁43": 8584,
  "▁መለወጥ": 8585,
  "ጋን": 8586,
  "ጺሩ": 8587,
  "▁ዘድሊ": 8588,
  "▁ነጋዴ": 8589,
  "▁ውሉድ": 8590,
  "▁እንጌራ": 8591,
  "▁ግዛ": 8592,
  "በሩት": 8593,
  "▁በሽታ": 8594,
  "-የ": 8595,
  "ዝቃ": 8596,
  "▁ተዳ": 8597,
  "▁ካብ'ቲ": 8598,
  "▁500": 8599,
  "▁የመጀመሪያውን": 8600,
  "ሃቦ": 8601,
  "ኾና": 8602,
  "▁በዛሬው": 8603,
  "▁ተጀ": 8604,
  "ዕም": 8605,
  "▁ዘይብሎም": 8606,
  "ላችሁ፤": 8607,
  "ስክ": 8608,
  "▁መላው": 8609,
  "▁ግማሽ": 8610,
  "▁ኩላትና": 8611,
  "▁አመለካከት": 8612,
  "ራንስ": 8613,
  "▁የፖለቲካ": 8614,
  "▁ኣሎ፡": 8615,
  "▁እንዳያ": 8616,
  "ጹር": 8617,
  "▁ናባይ": 8618,
  "▁ትሑ": 8619,
  "ምለሱ": 8620,
  "ጸንሕ": 8621,
  "▁ኣህጉ": 8622,
  "▁ጤናማ": 8623,
  "▁ዑቕባ": 8624,
  "▁ለእያንዳንዱ": 8625,
  "▁ጫማ": 8626,
  "▁አያውቅም": 8627,
  "ቀትን": 8628,
  "▁ሳኦል": 8629,
  "ስማማ": 8630,
  "▁መዕ": 8631,
  "▁Android": 8632,
  "ላክ": 8633,
  "መናን": 8634,
  "▁በራስ": 8635,
  "▁ክግ": 8636,
  "▁ኣይከኣል": 8637,
  "▁ተወል": 8638,
  "▁ዝኸይድ": 8639,
  "▁ግንዛቤ": 8640,
  "ir": 8641,
  "ter": 8642,
  "ዱስ": 8643,
  "ጽሊ": 8644,
  "▁ኛ": 8645,
  "▁መፍጠር": 8646,
  "▁ዝፈት": 8647,
  "▁አደገኛ": 8648,
  "▁ሓም": 8649,
  "▁ምርካብ": 8650,
  "▁ኽልተ": 8651,
  "ሷል": 8652,
  "ጋኑ": 8653,
  "▁ከምድር": 8654,
  "▁ተመር": 8655,
  "▁እንደሚቻል": 8656,
  "▁ኮሚቴ": 8657,
  "▁ማስታወሻ": 8658,
  "ምራል": 8659,
  "ቶቻቸውን": 8660,
  "▁መሬ": 8661,
  "▁ሳን": 8662,
  "▁ማረፊያ": 8663,
  "ማመን": 8664,
  "ጂታል": 8665,
  "▁ዝተኻየደ": 8666,
  "▁የወይን": 8667,
  "▁እወዳለሁ": 8668,
  "ሽቲ": 8669,
  "ቀጣ": 8670,
  "▁ኣሰራ": 8671,
  "▁ደሓር": 8672,
  "▁እንደነበር": 8673,
  "▁አለ:": 8674,
  "▁መግባት": 8675,
  "ለዋይ": 8676,
  "ድሕሪ": 8677,
  "▁ዝብለ": 8678,
  "▁እናመሰግና": 8679,
  "▁\"ሓ": 8680,
  "▁እነዚያን": 8681,
  "▁ግዜ፡": 8682,
  "▁ድንጋ": 8683,
  "▁ታላላቅ": 8684,
  "▁ብኸምዚ": 8685,
  "ሒፉ": 8686,
  "ሳራ": 8687,
  "▁የሠራ": 8688,
  "▁ኣወዳ": 8689,
  "▁መወ": 8690,
  "▁\"ጌታ": 8691,
  "ላሉ።": 8692,
  "▁ያካት": 8693,
  "ውጣት": 8694,
  "▁ስለ'ዚ": 8695,
  "▁ዕረፍቲ": 8696,
  "▁ወርቂ": 8697,
  "▁ብስራት": 8698,
  "ርና።": 8699,
  "ዓም": 8700,
  "ዥም": 8701,
  "▁ጽድቅ": 8702,
  "▁ንምዃ": 8703,
  "▁41": 8704,
  "ዒሉ": 8705,
  "▁ኣበባ": 8706,
  "▁ንቁ": 8707,
  "▁አልቻል": 8708,
  "'ዩ?": 8709,
  "▁ዘሎካ": 8710,
  "ጠለ": 8711,
  "▁አቋ": 8712,
  "▁ራዕ": 8713,
  "▁የስራ": 8714,
  "▁ፕሬዝ": 8715,
  "ሙም": 8716,
  "▁ክረክብ": 8717,
  "▁ሓፈሻዊ": 8718,
  "ምንቱ": 8719,
  "▁እያሉ": 8720,
  "▁ሰፊሕ": 8721,
  "▁ብቁ": 8722,
  "▁በአንዳንድ": 8723,
  "ወንዶች": 8724,
  "▁ሀገሮች": 8725,
  "ነጽ": 8726,
  "▁ብሏል": 8727,
  "▁ደይ": 8728,
  "▁የሚፈ": 8729,
  "▁ሮሜ": 8730,
  "ous": 8731,
  "▁በመንገድ": 8732,
  "▁ክበሃል": 8733,
  "ዳማይ": 8734,
  "▁››": 8735,
  "▁የኢየሱስ": 8736,
  "▁ሀብት": 8737,
  "▁ልዕ": 8738,
  "ወደው": 8739,
  "▁ብለዋል።": 8740,
  "ኞቻቸው": 8741,
  "ፁም": 8742,
  "▁መሪዎች": 8743,
  "ቀመጠ": 8744,
  "▁የባህር": 8745,
  "▁ይሁኑ": 8746,
  "▁ኢድካ": 8747,
  "▁ካበይ": 8748,
  "▁ነበርኩ።": 8749,
  "ነገረ": 8750,
  "▁v": 8751,
  "▁ይግበር": 8752,
  "▁ማቅረብ": 8753,
  "▁አምላክን": 8754,
  "▁አማራጮች": 8755,
  "ገግ": 8756,
  "▁ኣዲስ": 8757,
  "▁ሊኖረው": 8758,
  "ብርሃ": 8759,
  "ቱንም": 8760,
  "▁ንኡ": 8761,
  "▁ትፈልጡ": 8762,
  "▁ታያ": 8763,
  "▁ገደብ": 8764,
  "ሮስ": 8765,
  "▁ሃዋርያ": 8766,
  "ኩምዎ": 8767,
  "ዋታው": 8768,
  "ደባ": 8769,
  "▁ክብረ": 8770,
  "▁ዘርእ": 8771,
  "እንደ": 8772,
  "ጨነቅ": 8773,
  "▁ኣዚዩ": 8774,
  "▁ብሩህ": 8775,
  "▁በዩናይትድ": 8776,
  "▁ወይንም": 8777,
  "ቸዉ": 8778,
  "ፎችን": 8779,
  "▁አደረግ": 8780,
  "▁ለመን": 8781,
  "ልን።": 8782,
  "▁\"ዝ": 8783,
  "▁ሚካኤል": 8784,
  "▁ቋንቋታት": 8785,
  "▁ኣቐዲሙ": 8786,
  "ለለ": 8787,
  "ሪው": 8788,
  "ታተ": 8789,
  "▁ሰውን": 8790,
  "▁መምጣት": 8791,
  "ፈ።": 8792,
  "▁የጋራ": 8793,
  "▁ሞንጎ": 8794,
  "▁የግብ": 8795,
  "▁መቆ": 8796,
  "▁ይልቁ": 8797,
  "▁እንስሳት": 8798,
  "▁ባዕልኻ": 8799,
  "▁ዌ": 8800,
  "-አ": 8801,
  "▁\"ደ": 8802,
  "ነበሩት": 8803,
  "ውተር": 8804,
  "▁ጽም": 8805,
  "▁ጥንታዊ": 8806,
  "ስከ": 8807,
  "ኒ?": 8808,
  "▁መብላት": 8809,
  "os": 8810,
  "ፋሽ": 8811,
  "▁አደረጉ": 8812,
  "▁የዋ": 8813,
  "▁የቤተ": 8814,
  "▁ነጭ": 8815,
  "▁ወደይ": 8816,
  "▁በደስታ": 8817,
  "▁ብማ": 8818,
  "▁ልሙድ": 8819,
  "▁ለእሱ": 8820,
  "▁ከአሁን": 8821,
  "ክብካ": 8822,
  "▁ሰላምታ": 8823,
  "ሁለተኛ": 8824,
  "▁ወገኖች": 8825,
  "▁ዳግማይ": 8826,
  "▁ለመግባት": 8827,
  "▁ዝርከ": 8828,
  "▁\"ት": 8829,
  "▁\"ንስ": 8830,
  "▁ዓለ": 8831,
  "▁የተሳ": 8832,
  "▁ሚስጥ": 8833,
  "ካር": 8834,
  "▁ንባ": 8835,
  "▁ዝህ": 8836,
  "▁ሚያዝያ": 8837,
  "ታል፤": 8838,
  "▁እንቅልፍ": 8839,
  "▁ተጋዳላይ": 8840,
  "ቻችሁን": 8841,
  "ፍታት": 8842,
  "▁ደካ": 8843,
  "▁ከአላህ": 8844,
  "▁ኣፍልጦ": 8845,
  "▁ግዘ": 8846,
  "▁አለዎት": 8847,
  "▁ቁጠባ": 8848,
  "▁ኣቦና": 8849,
  "▁ተንሲ": 8850,
  "22": 8851,
  "ሊዮ": 8852,
  "▁ኣሉ": 8853,
  "▁ካኣ": 8854,
  "▁ያለበት": 8855,
  "▁ውይይት": 8856,
  "▁ክብደት": 8857,
  "▁ትክክለኛውን": 8858,
  "በሃል": 8859,
  "ኞቻችን": 8860,
  "▁ታቦት": 8861,
  "▁በቤተ": 8862,
  "▁መሞከር": 8863,
  "▁ፕሬዚዳንት": 8864,
  "▁100%": 8865,
  "▁ራሳቸውን": 8866,
  "/ር": 8867,
  "ባቴ": 8868,
  "▁ዲሞክራሲ": 8869,
  "▁ታውቃለህ?": 8870,
  "▁አጠገብ": 8871,
  "9)": 8872,
  "ነበብ": 8873,
  "ዮችን": 8874,
  "▁ዝነብሩ": 8875,
  "ሰራው": 8876,
  "▁ይፈልጋል": 8877,
  "ያያዘ": 8878,
  "▁ይእ": 8879,
  "▁ወዮ": 8880,
  "▁ይህች": 8881,
  "-ኣ": 8882,
  "ላሳ": 8883,
  "ናቶች": 8884,
  "ገሰ": 8885,
  "▁ፍታሕ": 8886,
  "15": 8887,
  "ኤት": 8888,
  "ይዛ": 8889,
  "▁ለዘ": 8890,
  "▁\"ስለ": 8891,
  "▁ካህን": 8892,
  "▁አላህን": 8893,
  "ሜራ": 8894,
  "▁ለት": 8895,
  "▁ብቻውን": 8896,
  "▁የሚያደርግ": 8897,
  "▁ሚኒስተር": 8898,
  "በደ": 8899,
  "ውው": 8900,
  "ውላው": 8901,
  "▁ብሏል።": 8902,
  "▁እንቋ": 8903,
  "ድድ": 8904,
  "▁እማ": 8905,
  "▁አዳም": 8906,
  "▁ይርከ": 8907,
  "▁ለኔ": 8908,
  "▁ኣለካ": 8909,
  "▁ገሊኡ": 8910,
  "▁ነዋሪዎች": 8911,
  "▁ጭንቀት": 8912,
  "▁ዓንቀጽ": 8913,
  "▁ኣመን": 8914,
  "▁ከሰው": 8915,
  "▁ሕይወትን": 8916,
  "▁y": 8917,
  "▁የህዝብ": 8918,
  "▁ዋስትና": 8919,
  "▁እንዳሉ": 8920,
  "▁ኣየናይ": 8921,
  "▁ሰማያዊ": 8922,
  "▁ብግቡእ": 8923,
  "ቀቁ": 8924,
  "ታሉ": 8925,
  "ጥ።": 8926,
  "▁ክግበር": 8927,
  "▁ዘግ": 8928,
  "▁የምግብ": 8929,
  "▁ቅዱስ፡": 8930,
  "▁መልእኽ": 8931,
  "▁የቀድሞ": 8932,
  "▁ንካል": 8933,
  "▁(ሉ": 8934,
  "▁ለመፍጠር": 8935,
  "ሂዱ": 8936,
  "ቡ፡": 8937,
  "ጀርባ": 8938,
  "ጥቅ": 8939,
  "▁ተጠቅ": 8940,
  "ላችን": 8941,
  "ቦይ": 8942,
  "ኣትዉ": 8943,
  "▁ስደተኛ": 8944,
  "ስተዋ": 8945,
  "▁ቅዱሳት": 8946,
  "▁የራሱን": 8947,
  "ሥራት": 8948,
  "ኻዮ": 8949,
  "▁ምብ": 8950,
  "▁ዘቕ": 8951,
  "▁እምኒ": 8952,
  "▁እስከሚ": 8953,
  "ሻው": 8954,
  "▁በከተማ": 8955,
  "▁የጨ": 8956,
  "▁ነገድ": 8957,
  "▁ኤልያስ": 8958,
  "▁ከጌታ": 8959,
  "▁ትኽ": 8960,
  "ሃሃ": 8961,
  "ሃዊ": 8962,
  "ቫይረስ": 8963,
  "ኑት": 8964,
  "ይር": 8965,
  "▁ዝሃበ": 8966,
  "ዘጋጁ": 8967,
  "▁ህይወቱ": 8968,
  "▁ህይወተይ": 8969,
  "▁ሰራተኞች": 8970,
  "ረከ": 8971,
  "ዶ፧": 8972,
  "▁ይሓይሽ": 8973,
  "▁ጌታዬ": 8974,
  "▁ሰማይን": 8975,
  "▁ሞዴል": 8976,
  "ኩኝ": 8977,
  "ደሙ": 8978,
  "▁በ19": 8979,
  "▁አደረ": 8980,
  "▁እየጨመረ": 8981,
  "ind": 8982,
  "ርምያስ": 8983,
  "ሕካ": 8984,
  "ኦም።": 8985,
  "ዕካ": 8986,
  "▁ዘድልየ": 8987,
  "▁ገብረ": 8988,
  ":22": 8989,
  "▁ዓቢይ": 8990,
  "ክፍ": 8991,
  "▁እንተሎ": 8992,
  "መልስ": 8993,
  "▁ሕጂ'ውን": 8994,
  "▁ኵነታት": 8995,
  "ዮቹ": 8996,
  "▁ናይታ": 8997,
  "▁ሑ": 8998,
  "▁አይችልም.": 8999,
  "▁በመሆን": 9000,
  "▁ቆር": 9001,
  "▁ብሓፈሻ": 9002,
  "ናጋ": 9003,
  "▁የጌ": 9004,
  "▁የሚኖሩ": 9005,
  "▁ዚመጽእ": 9006,
  "ልካም": 9007,
  "▁ምዝራብ": 9008,
  "▁ጥቃት": 9009,
  "▁ምስተ": 9010,
  "▁ታው": 9011,
  "▁ሓደገኛ": 9012,
  "▁አገልጋይ": 9013,
  "ak": 9014,
  "▁ለመናገር": 9015,
  "▁ጠጅ": 9016,
  "▁ቀዳሞት": 9017,
  "▁ይሆናሉ": 9018,
  "▁ነዉ": 9019,
  "▁ሓቅ": 9020,
  "▁ፓር": 9021,
  "▁አልነበረም": 9022,
  "▁ተሳታ": 9023,
  "ome": 9024,
  "5|": 9025,
  "ሃህ": 9026,
  "▁ንኣይ": 9027,
  "▁ኣቦኡ": 9028,
  "▁አብርሃም": 9029,
  "ኣና": 9030,
  "▁ዝተዓ": 9031,
  "ጠይቃ": 9032,
  "ወን።": 9033,
  "▁ባቢ": 9034,
  "▁ምሳኻትኩም": 9035,
  "▁ጥዑም": 9036,
  "ሃለሁ።": 9037,
  "▁የኦ": 9038,
  "▁ብድሆ": 9039,
  "ሕድ": 9040,
  "▁ለብ": 9041,
  "▁\"'": 9042,
  "▁ባር": 9043,
  "▁ብዝምልከት": 9044,
  "▁ነኝ.": 9045,
  "ራችን": 9046,
  "▁ያውቃሉ": 9047,
  "▁አጠቃቀም": 9048,
  "▁ኣሚ": 9049,
  "▁ቀረ": 9050,
  "▁እውነትን": 9051,
  "▁እብለኩም": 9052,
  "▁ኣገልግሎ": 9053,
  "ታቲ": 9054,
  "ኽእልን።": 9055,
  "ሰምዓ": 9056,
  "ህበካ": 9057,
  "/ም": 9058,
  "▁ንምን": 9059,
  "▁ሓጎስ": 9060,
  "▁ዓይነቶች": 9061,
  "ከን": 9062,
  "▁ንፋስ": 9063,
  "▁አንባቢ": 9064,
  "ራጽ": 9065,
  "▁አዋ": 9066,
  "▁መደም": 9067,
  "▁የሕክምና": 9068,
  "▁እሳ": 9069,
  "▁እንደዚያ": 9070,
  "▁የድል": 9071,
  "▁ትዊተር": 9072,
  "▁ዝተገብረ": 9073,
  "▁ሰዎችም": 9074,
  "ገድስ": 9075,
  "▁ነገሥ": 9076,
  "▁ብእምነት": 9077,
  "▁ኣይኰነን": 9078,
  "▁ጻዕሪ": 9079,
  "ul": 9080,
  "ጸሩ": 9081,
  "▁ቑ": 9082,
  "▁መታን": 9083,
  "▁ድሌት": 9084,
  "▁\"ማ": 9085,
  "▁መጥቶ": 9086,
  "▁አንዳንዶች": 9087,
  "ሮቹ": 9088,
  "▁መገለ": 9089,
  "▁ሕልም": 9090,
  "9|": 9091,
  "ጓዙ": 9092,
  "▁ተኽእሎ": 9093,
  "▁ውዕል": 9094,
  "▁1,": 9095,
  "▁ፍሽ": 9096,
  "በልጥ": 9097,
  "▁አብዛኛው": 9098,
  "▁የሎን።": 9099,
  "አል።": 9100,
  "ይሊ": 9101,
  "ጋጥም": 9102,
  "▁ዝስዕቡ": 9103,
  "▁ዐዋቂ": 9104,
  "ትሮ": 9105,
  "▁ጎረ": 9106,
  "▁መቀበል": 9107,
  "▁ኮሌጅ": 9108,
  "11": 9109,
  "ንቺ": 9110,
  "ክፉ": 9111,
  "ፈሳዊ": 9112,
  "▁ዘስ": 9113,
  "▁አልፈልግም": 9114,
  "▁ኃላፊነት": 9115,
  "ከሰተ": 9116,
  "▁በሞ": 9117,
  "▁ከቤት": 9118,
  "▁ከሚያ": 9119,
  "▁ተጋደል": 9120,
  "▁የጠ": 9121,
  "▁ሂድ": 9122,
  "▁የብለይን።": 9123,
  "▁የላቀ": 9124,
  "oc": 9125,
  "ኩበት": 9126,
  "▁ይመራ": 9127,
  "▁እውን፡": 9128,
  "▁ጨረ": 9129,
  "▁ኢየሱስን": 9130,
  "▁የሰማይ": 9131,
  "ወለደ": 9132,
  "▁መውጣት": 9133,
  "▁ዝኾነት": 9134,
  "በዛ": 9135,
  "ክልት": 9136,
  "ፈልጡን": 9137,
  "▁ብመንፈስ": 9138,
  "ሩዕ": 9139,
  "ሰቢያ": 9140,
  "ኣክል": 9141,
  "ዎትም": 9142,
  "▁ጁ": 9143,
  "▁ያኔ": 9144,
  "▁የሚገኝ": 9145,
  "▁ብዙዎቹ": 9146,
  "ቋቋመ": 9147,
  "ክብካቤ": 9148,
  "ቁም": 9149,
  "ባራዊ": 9150,
  "ያዎች": 9151,
  "▁ይመጽእ": 9152,
  "▁ጐይታይ": 9153,
  "▁ኢንቨስት": 9154,
  "ኣሉ": 9155,
  "▁አዘ": 9156,
  "▁ተረድ": 9157,
  "▁ወደዚያ": 9158,
  "▁ሌሎችን": 9159,
  "▁ክልቲኡ": 9160,
  "ሎሚ": 9161,
  "ሒት": 9162,
  "ገሲ": 9163,
  "▁ሕጉስ": 9164,
  "ሰ-": 9165,
  "▁ንምዕ": 9166,
  "▁ስርዓተ": 9167,
  "ችኋለሁ": 9168,
  "▁&": 9169,
  "▁መጓዝ": 9170,
  "▁ስለማ": 9171,
  "▁2.": 9172,
  "▁ተጋሩ": 9173,
  "▁ጳጳ": 9174,
  "▁በኮ": 9175,
  "▁ያመኑ": 9176,
  "▁ውበት": 9177,
  "▁ቀኑን": 9178,
  "▁አስታ": 9179,
  "▁ቀጥተኛ": 9180,
  "ራኸብ": 9181,
  "▁መራኸቢ": 9182,
  "ቃለ": 9183,
  "ደሩ": 9184,
  "▁ተታ": 9185,
  "▁እኔና": 9186,
  "▁ዲግሪ": 9187,
  "▁በረኸት": 9188,
  "▁የተለመደ": 9189,
  "▁በኔ": 9190,
  "▁ከሳ": 9191,
  "▁እናቴ": 9192,
  "▁ኢትዮጵ": 9193,
  "▁ለማጥ": 9194,
  "▁እምበኣር፡": 9195,
  "▁ለመግዛት": 9196,
  "▁የሱስ፡": 9197,
  "ube": 9198,
  "▁g": 9199,
  "▁ኣግ": 9200,
  "▁ለን": 9201,
  "▁ረአ": 9202,
  "8|": 9203,
  "▁መሃ": 9204,
  "▁ኣምላኽና": 9205,
  "▁ንግግር": 9206,
  "▁ተከታታይ": 9207,
  "▁ሆቴል": 9208,
  "▁ምክልኻል": 9209,
  "▁ዝተባህለ": 9210,
  "▁ብምሕ": 9211,
  "▁ስራሕቲ": 9212,
  "▁ኢዮብ": 9213,
  "ሄደው": 9214,
  "ቃለስ": 9215,
  "ፍቅር": 9216,
  "▁ኣምል": 9217,
  "▁(መዝ": 9218,
  "▁ለመገንባት": 9219,
  "▁በእርስ": 9220,
  "▁በእነሱ": 9221,
  "▁ያስፈልገ": 9222,
  "ቕሪ": 9223,
  "ብኡ": 9224,
  "▁ከሆን": 9225,
  "▁ያነሰ": 9226,
  "▁ሚእቲ": 9227,
  "▁ተመልከት": 9228,
  "▁ለወደፊቱ": 9229,
  "ኻብ": 9230,
  "▁ሶርያ": 9231,
  "▁ሀብታም": 9232,
  "▁ተደርጎ": 9233,
  "ንሳ": 9234,
  "▁ይነግረ": 9235,
  "ፈልየ": 9236,
  "▁ከእሷ": 9237,
  "▁ጀመሩ።": 9238,
  "▁አላቸው.": 9239,
  "12": 9240,
  "ኑም": 9241,
  "▁ነጠላ": 9242,
  "▁ቤቱን": 9243,
  "▁ቃሉን": 9244,
  "▁አይደሉም።": 9245,
  "በሮ።": 9246,
  "▁the": 9247,
  "ዕድሜ": 9248,
  "ዛር": 9249,
  "ጣንያ": 9250,
  "▁ንአ": 9251,
  "▁ወፃኢ": 9252,
  "▁ወደሚ": 9253,
  "▁ላከ": 9254,
  "▁ይብሉ።": 9255,
  "ቻሉ": 9256,
  "▁እትብል": 9257,
  "▁ዝሓለፉ": 9258,
  "▁ኣውጺ": 9259,
  "▁ኣይመስለንን።": 9260,
  "ነታዊ": 9261,
  "ና\"": 9262,
  "ጡ.": 9263,
  "ኢታዊ": 9264,
  "ጋው": 9265,
  "▁የከተማ": 9266,
  "▁ይኖ": 9267,
  "▁ውዳ": 9268,
  "▁ሳላ": 9269,
  "▁ዝዓበ": 9270,
  "ሀብ": 9271,
  "ቃጥ": 9272,
  "ነቴ": 9273,
  "▁እንኽእል": 9274,
  "▁ሃዋርያት": 9275,
  "▁ስድራቤት": 9276,
  "▁አገልጋዮች": 9277,
  "▁ከቀ": 9278,
  "▁ዚገብር": 9279,
  "▁ኃይለኛ": 9280,
  "▁ንየሱስ": 9281,
  "▁አለቃ": 9282,
  "▁ለማሻሻል": 9283,
  "▁ጽልዋ": 9284,
  "'ኮ": 9285,
  "▁ከይን": 9286,
  "▁በእግር": 9287,
  "▁አማካይ": 9288,
  "▁አካላት": 9289,
  "▁ብጹ": 9290,
  "ላቸውም።": 9291,
  "▁ፍልስጥኤ": 9292,
  "▁ብረት": 9293,
  "▁ሲኦል": 9294,
  "▁ኢና\"": 9295,
  "▁ሂወ": 9296,
  "ጽሕፍ": 9297,
  "▁በላቸው።": 9298,
  "▁ባሪያዎች": 9299,
  "▁አውቃለሁ።": 9300,
  "ቡዕ": 9301,
  "ነኽ": 9302,
  "▁Tigr": 9303,
  "▁በሙ": 9304,
  "▁ቀጣይ": 9305,
  "ቲክ": 9306,
  "ግሶ": 9307,
  "▁ዝዀኑ": 9308,
  "▁ሕድሪ": 9309,
  "▁አገራት": 9310,
  "▁ሬሳ": 9311,
  "▁ሕንፃ": 9312,
  "ልፉ": 9313,
  "▁ከም'ዚ": 9314,
  "▁ለመክ": 9315,
  "▁ከለኹ": 9316,
  "▁ንጹህ": 9317,
  "መሉ": 9318,
  "ቲቱ": 9319,
  "▁ዓለምለ": 9320,
  "ሰይቲ": 9321,
  "ደረጉት": 9322,
  "na": 9323,
  "ስቶች": 9324,
  "ተዋ": 9325,
  "ጆቼ": 9326,
  "▁ከሞት": 9327,
  "▁ሓኪም": 9328,
  "▁ዮሓ": 9329,
  "▁ምዝገባ": 9330,
  "▁ዳግመኛ": 9331,
  "የሉ": 9332,
  "▁ጢ": 9333,
  "▁ድዮም": 9334,
  "▁ዘለዎ።": 9335,
  "ፈልጥን": 9336,
  "▁መቅደስ": 9337,
  "▁እራስ": 9338,
  "▁ይፈልጉ": 9339,
  "▁ተዛረ": 9340,
  "▁ካባይ": 9341,
  "▁የቁማር": 9342,
  "ግድ": 9343,
  "▁አታውቁ": 9344,
  "▁ጥቅምቲ": 9345,
  "▁አምላኬ": 9346,
  "▁ህንጻ": 9347,
  "ሳሰል": 9348,
  "▁ሲባል": 9349,
  "▁ጸን": 9350,
  "▁በተቃ": 9351,
  "ክልተ": 9352,
  "▁አድርጉ": 9353,
  "▁በሰላም": 9354,
  "▁በፊቱ": 9355,
  "▁ዝመስል": 9356,
  "▁የሚችለው": 9357,
  "▁እምብኣ": 9358,
  "ኩስ": 9359,
  "ዎቻቸውን": 9360,
  "ጠሉ": 9361,
  "ጫው": 9362,
  "▁ነች": 9363,
  "▁የተመረ": 9364,
  "ልን?": 9365,
  "▁ይፈልጋሉ?": 9366,
  "▁ከለዉ": 9367,
  "▁ትችላለህ": 9368,
  "▁ለማሳየት": 9369,
  "6|": 9370,
  "ኩር": 9371,
  "ጠቃሚ": 9372,
  "▁እገዳ": 9373,
  "ንተርኔት": 9374,
  "▁እንዳልሆነ": 9375,
  "ra": 9376,
  "ራውያን": 9377,
  "▁በቢ": 9378,
  "▁ደመና": 9379,
  "▁ደሴት": 9380,
  "▁ናይ'ቲ": 9381,
  "▁ካብተን": 9382,
  "▁ነበርቲ": 9383,
  "▁መስፈር": 9384,
  "▁ንምድ": 9385,
  "▁በሚገባ": 9386,
  "▁ማሕበረሰብ": 9387,
  "▁ፍልስ": 9388,
  "▁ይኸይድ": 9389,
  "ኣስ": 9390,
  "ጣል።": 9391,
  "▁እንዲሆኑ": 9392,
  "▁ሃሳብ": 9393,
  "▁ክትቅ": 9394,
  "▁በመንፈስ": 9395,
  "ጨምር": 9396,
  "▁በይኑ": 9397,
  "▁ኣይክት": 9398,
  "▁ዓሻ": 9399,
  "▁ኣትዩ": 9400,
  "ለር": 9401,
  "ወምቲ": 9402,
  "ዮስ": 9403,
  "▁ጮ": 9404,
  "▁የመጽሐፍ": 9405,
  "▁ልብና": 9406,
  "ont": 9407,
  "▁ወገናት": 9408,
  "▁ኣዋልድ": 9409,
  "▁ጻድቅ": 9410,
  "▁ለሚያ": 9411,
  "▁ንን": 9412,
  "▁የሚመ": 9413,
  "ደገፍ": 9414,
  "▁ጥርጣ": 9415,
  "▁ሁለቱንም": 9416,
  "▁ርግጸ": 9417,
  "ኖቹ": 9418,
  "ከስ": 9419,
  "ዕሉ": 9420,
  "▁ሂቡ": 9421,
  "ገለግል": 9422,
  "ኖም።": 9423,
  "▁በቤ": 9424,
  "ርጅ": 9425,
  "ቸውንም": 9426,
  "▁ዮርዳ": 9427,
  "▁ንብዙሓት": 9428,
  "በጽሕ": 9429,
  "ቢሲ": 9430,
  "▁ሓዘን": 9431,
  "▁በአካባቢ": 9432,
  "▁ዘለኹም": 9433,
  "በሩ።": 9434,
  "ህነት": 9435,
  "▁በጌ": 9436,
  "▁ዝባ": 9437,
  "▁ዝዕ": 9438,
  "▁ያቀ": 9439,
  "▁የሚኖር": 9440,
  "ሎም፡": 9441,
  "▁ሃገርን": 9442,
  "stag": 9443,
  "ውቅም።": 9444,
  "ከላከያ": 9445,
  "ታለሁ": 9446,
  "ውድ": 9447,
  "ዕዎ": 9448,
  "▁አዲ": 9449,
  "▁ያወጣ": 9450,
  "▁ሳም": 9451,
  "▁ቁጠባዊ": 9452,
  "ወሰዱ": 9453,
  "▁ነጥብታት": 9454,
  "ሓዲ": 9455,
  "ፎር": 9456,
  "▁ኣዘ": 9457,
  "▁ውሸ": 9458,
  "▁ጥፋት": 9459,
  "ስተይቲ": 9460,
  "▁ክንክን": 9461,
  "▁አካላዊ": 9462,
  "▁ኣሕሊ": 9463,
  "▁ያውቃል።": 9464,
  "▁ኑሮ": 9465,
  "ኒው": 9466,
  "▁ቁም": 9467,
  "▁More": 9468,
  "ሕዝን": 9469,
  "▁CO": 9470,
  "▁ኣዋጅ": 9471,
  "ቕና": 9472,
  "ጣቱ": 9473,
  "▁ለዓለም": 9474,
  "▁ሕዝቡን": 9475,
  "▁ኮይኑ፡": 9476,
  "ሓሰ": 9477,
  "ብድ": 9478,
  "ና፥": 9479,
  "ዐን": 9480,
  "ዕግ": 9481,
  "ፖሊስ": 9482,
  "▁ኣጆ": 9483,
  "▁ዝሃብ": 9484,
  "▁ዘለኹ።": 9485,
  "▁ዲያብሎስ": 9486,
  "ደርጉት": 9487,
  "▁እባክህ": 9488,
  "ልበ": 9489,
  "ቃል።": 9490,
  "ቢይ": 9491,
  "ፈርቲ": 9492,
  "▁ፆ": 9493,
  "▁ዘይክእል": 9494,
  "▁ሌሊ": 9495,
  "▁ዓይነቱ": 9496,
  "▁ዮርክ": 9497,
  "▁እውነቱን": 9498,
  "▁ፍቃድ": 9499,
  "ጀንዳ": 9500,
  "x)": 9501,
  "ያለሁ።": 9502,
  "ጸ።": 9503,
  "▁ይደግ": 9504,
  "▁ሓምለ": 9505,
  "▁አይደለም፤": 9506,
  "▁ደቀን": 9507,
  "▁በመስመር": 9508,
  "ስቴር": 9509,
  "▁በአብዛኛው": 9510,
  "-ተ": 9511,
  "▁ተከት": 9512,
  "▁ማድረ": 9513,
  "▁ጀጋኑ": 9514,
  "▁ርእሶም": 9515,
  "▁እንድሕር": 9516,
  "▁ሦስተኛ": 9517,
  "▁ኣቕሪ": 9518,
  "▁ላዕለዋይ": 9519,
  "ሊ።": 9520,
  "ዕሎ": 9521,
  "▁ወዱ": 9522,
  "▁እንደ,": 9523,
  "▁ጉብኝ": 9524,
  "▁ማለት፡": 9525,
  "▁ባለሙያዎች": 9526,
  "ሰላ": 9527,
  "ት፡": 9528,
  "▁በሲ": 9529,
  "▁ቀዳመይቲ": 9530,
  "ኣትን": 9531,
  "ፈርድ": 9532,
  "▁ኣማል": 9533,
  "▁ዝነበራ": 9534,
  "▁የለኝም": 9535,
  "▁በፍጹም": 9536,
  "▁ትዕግ": 9537,
  "▁ክህልዎ": 9538,
  "▁ይዕ": 9539,
  "▁ንኽን": 9540,
  "▁ወላዲ": 9541,
  "ኣምኑ": 9542,
  "▁ከሙ": 9543,
  "▁ድራ": 9544,
  "▁ቅዋም": 9545,
  "▁ዮና": 9546,
  "▁ጥቕሚ": 9547,
  "▁ይግበረ": 9548,
  "im": 9549,
  "ይሮ": 9550,
  "▁ግቡ": 9551,
  "▁ውሻ": 9552,
  "▁ሓረስ": 9553,
  "▁ሕርሻ": 9554,
  "▁አይቻ": 9555,
  "ምላካ": 9556,
  "▁ሲመጣ": 9557,
  "▁ተነሥ": 9558,
  "ንብብ": 9559,
  "ታዩ": 9560,
  "ኣነ": 9561,
  "▁በማስ": 9562,
  "▁የለበት": 9563,
  "▁መሠረታዊ": 9564,
  "ዎም፡": 9565,
  "▁ዘዴዎች": 9566,
  "▁ጠባቂ": 9567,
  "▁እንክ": 9568,
  "▁ዝተፈ": 9569,
  "▁ያልሆኑ": 9570,
  "ነግሩ": 9571,
  "▁መበገሲ": 9572,
  "▁ውሑዳት": 9573,
  "ዝቃዛ": 9574,
  "ሱ፡": 9575,
  "ሶችን": 9576,
  "▁ኣሸ": 9577,
  "▁ክመር": 9578,
  "▁ብሓድሽ": 9579,
  "ፈልግም።": 9580,
  "ጨነቁ": 9581,
  "▁በመካከላቸው": 9582,
  "መጹ": 9583,
  "ጋብ": 9584,
  "ገልግሉ": 9585,
  "▁ይወስዳል": 9586,
  "▁\"ታ": 9587,
  "ርትዖ": 9588,
  "▁ቡና": 9589,
  "▁በሰዎች": 9590,
  "stagram": 9591,
  "ያሉ": 9592,
  "ደፍ": 9593,
  "ጣራ": 9594,
  "▁እንክብካቤ": 9595,
  "▁አንድን": 9596,
  "▁ሰብኡ": 9597,
  "▁በቀጣ": 9598,
  "▁ሓላፊ": 9599,
  "▁አለመሆኑ": 9600,
  "መኒ": 9601,
  "በኒ": 9602,
  "▁ያተ": 9603,
  "ዋል,": 9604,
  "ጠናቀቅ": 9605,
  "ወረደ": 9606,
  "▁ወሳኒ": 9607,
  "__": 9608,
  "ቅም።": 9609,
  "ቋል": 9610,
  "▁ብቃት": 9611,
  "▁ደህንነቱ": 9612,
  "ጋሩ": 9613,
  "▁ጋብቻ": 9614,
  "ነበረው": 9615,
  "ጠቀሙበት": 9616,
  "▁ማውራት": 9617,
  "▁ህያብ": 9618,
  "▁እናደርጋለን": 9619,
  "▁አሻ": 9620,
  "▁አመራ": 9621,
  "▁ከሕ": 9622,
  "▁ተሽከርካ": 9623,
  "▁ስህተ": 9624,
  "▁መዳረሻ": 9625,
  "ብዓተ": 9626,
  "ጦስ": 9627,
  "▁ዝጽ": 9628,
  "▁ሃብታም": 9629,
  "ርዳእ": 9630,
  "▁አለባቸው።": 9631,
  "▁ስለእ": 9632,
  "▁መግዛ": 9633,
  "▁ንእግዚኣብሔር": 9634,
  "ሊም": 9635,
  "ስ?": 9636,
  "ግዝ": 9637,
  "'ዩ\"": 9638,
  "▁ቦርድ": 9639,
  "▁እውነታ": 9640,
  "▁ጕዳይ": 9641,
  "▁ጥበብን": 9642,
  "▁ሕሉፍ": 9643,
  "7|": 9644,
  "ver": 9645,
  "▁በዲ": 9646,
  "▁ዝሰርሕ": 9647,
  "▁ትእ": 9648,
  "ክር።": 9649,
  "▁ፀሐይ": 9650,
  "▁ብቐሊሉ": 9651,
  "▁ኮሚሽን": 9652,
  "▁መረዳእታ": 9653,
  "▁እሙ": 9654,
  "▁ኣሎ?": 9655,
  "▁ከመቼ": 9656,
  "ህንነት": 9657,
  "▁መብዛሕ": 9658,
  "▁ንድፍ": 9659,
  "▁እንቅስቃሴዎች": 9660,
  "▁ጻድቃን": 9661,
  "ቆስ": 9662,
  "ወሳ": 9663,
  "ወቀው": 9664,
  "▁ማሽ": 9665,
  "▁ጌሩ": 9666,
  "▁ኣማራጺ": 9667,
  "▁ይኖራል": 9668,
  "ማል።": 9669,
  "▁ተሰብ": 9670,
  "ባልነት": 9671,
  "▁ለሰዎች": 9672,
  "▁ርሑቕ": 9673,
  "ዳቸው": 9674,
  "▁በን": 9675,
  "▁በላ።": 9676,
  "▁ምሥራ": 9677,
  "ረጋገጫ": 9678,
  "ከላኸ": 9679,
  "▁ወዳጅ": 9680,
  "▁ከማንኛውም": 9681,
  "ዘመን": 9682,
  "ፋቸው": 9683,
  "▁ርክ": 9684,
  "▁ዝመጹ": 9685,
  "▁ካባና": 9686,
  "▁ካህና": 9687,
  "▁ቅሬታ": 9688,
  "▁ጭምር": 9689,
  "ክክለኛው": 9690,
  "▁በድጋሚ": 9691,
  "ሟላት": 9692,
  "ጣኝ": 9693,
  "▁ይበሉ": 9694,
  "▁ውስጥ.": 9695,
  "▁ብምል": 9696,
  "▁ያስፈል": 9697,
  "▁እባክዎ": 9698,
  "▁ፍሉጥ": 9699,
  "ቃወም": 9700,
  "ማትን": 9701,
  "ሠር": 9702,
  "ራችሁ": 9703,
  "▁ያድ": 9704,
  "▁ኮይኑ።": 9705,
  "ሲኖ": 9706,
  "ካፈል": 9707,
  "▁ጀነ": 9708,
  "▁ይኸው": 9709,
  "▁ጫፍ": 9710,
  "▁ፈረንሳ": 9711,
  "▁ኖርወይ": 9712,
  "▁አውሮፕላን": 9713,
  "ቆሮ": 9714,
  "▁እጥፍ": 9715,
  "▁ንምግ": 9716,
  "▁እትኽእል": 9717,
  "▁ዲፕሎ": 9718,
  "▁ዑደት": 9719,
  "▁ኣሃ": 9720,
  "▁ኣዲ": 9721,
  "▁አቶ": 9722,
  "▁መያዝ": 9723,
  "▁ንኩሉ": 9724,
  "▁ተስ": 9725,
  "▁ሲሆኑ": 9726,
  "▁49": 9727,
  "▁ዲና": 9728,
  "▁ደርፊ": 9729,
  "▁የብሎምን።": 9730,
  "▁ለመቀበል": 9731,
  "ሂድ": 9732,
  "▁ስሪት": 9733,
  "▁የአሁኑ": 9734,
  "▁ድርሻ": 9735,
  "▁የተሻለው": 9736,
  "▁ኣትሒዙ": 9737,
  "ለቲ": 9738,
  "ተሉ": 9739,
  "ፊው": 9740,
  "▁ምጅ": 9741,
  "▁ዓም": 9742,
  "▁እንተደኣ": 9743,
  "▁እንድና": 9744,
  "▁ቂ": 9745,
  "▁ብቅ": 9746,
  "▁ተሞ": 9747,
  "▁ባርነት": 9748,
  "▁ህልም": 9749,
  "▁ዕላል": 9750,
  "▁በየዓመቱ": 9751,
  "▁ርዕሰ": 9752,
  "▁ሓንሳብ": 9753,
  "ሒቱ": 9754,
  "ዱሽ": 9755,
  "▁የትም": 9756,
  "▁ሕዳር": 9757,
  "▁ጽዋ": 9758,
  "▁ነፃነት": 9759,
  "ሳሰ": 9760,
  "ዘኛ": 9761,
  "▁በቴ": 9762,
  "▁ዝት": 9763,
  "▁ውሰድ": 9764,
  "▁ቅጥ": 9765,
  "▁ኪሎ": 9766,
  "▁በርሳቸው": 9767,
  "▁ኣድላዪ": 9768,
  "▁ህይወትን": 9769,
  "▁ኣጋጢሙ": 9770,
  "ትምህርቲ": 9771,
  "ኝ\"": 9772,
  "እሰይ": 9773,
  "ክሌ": 9774,
  "ጀን": 9775,
  "▁እሰጣ": 9776,
  "▁ኪዀኑ": 9777,
  "▁በኋላም": 9778,
  "▁ባህርያ": 9779,
  "ከባከብ": 9780,
  "▁ተምሃሮ": 9781,
  "▁ታሕሳስ": 9782,
  "ሶስት": 9783,
  "▁ከድ": 9784,
  "▁ይዛ": 9785,
  "▁ብሃ": 9786,
  "▁ውፅ": 9787,
  "▁ዓይኖች": 9788,
  "▁ክርስትና": 9789,
  "▁ኣቦታት": 9790,
  "▁ኻልእ": 9791,
  "ዴን": 9792,
  "▁ሓዳስ": 9793,
  "ግብሪ": 9794,
  "▁ውሽጣዊ": 9795,
  "▁ተቐሚ": 9796,
  "ወይም": 9797,
  "▁የይሖዋ": 9798,
  "ኅበራዊ": 9799,
  "▁አታው": 9800,
  "▁ብዚ": 9801,
  "▁ጥቃ": 9802,
  "▁ውድቀት": 9803,
  "▁ኢየ።": 9804,
  "▁ታላቁ": 9805,
  "▁ንነፍሲ": 9806,
  "ንጻሩ": 9807,
  "ሓቕ": 9808,
  "ዋውያን": 9809,
  "▁ስለመ": 9810,
  "'ሎ": 9811,
  "▁መባ": 9812,
  "▁ኢል": 9813,
  "▁በመባል": 9814,
  "▁ለማቅረብ": 9815,
  "ጥንት": 9816,
  "ፈቀደ": 9817,
  "▁ሣ": 9818,
  "▁ነውን": 9819,
  "▁ያውቁ": 9820,
  "▁ጸጥታ": 9821,
  "ባሳ": 9822,
  "▁በራሳቸው": 9823,
  "▁2007": 9824,
  "▁ለተወሰነ": 9825,
  "▁ሕዝቡም": 9826,
  "ሐን": 9827,
  "▁\"ናይ": 9828,
  ":30": 9829,
  "▁ሩቅ": 9830,
  "ha": 9831,
  "ኩሮ": 9832,
  "ገፍ": 9833,
  "▁ንኽእል።": 9834,
  "ላዊነት": 9835,
  "▁ልብኻ": 9836,
  "▁በትምህርት": 9837,
  "▁አመታት": 9838,
  "▁ህመም": 9839,
  "ላልቅ": 9840,
  "ፈለማ": 9841,
  "▁እዮም፡": 9842,
  "▁ፍላጎቶች": 9843,
  "ከሰቱ": 9844,
  "ቢያው": 9845,
  "ገላ": 9846,
  "▁ኣገደ": 9847,
  "▁ይወር": 9848,
  "ገልጾ": 9849,
  "ሞክራስያዊ": 9850,
  "ግብር": 9851,
  "▁ይኖረ": 9852,
  "▁ወሬ": 9853,
  "▁እንዲኖር": 9854,
  "▁ዝኸፍአ": 9855,
  "ቅረ": 9856,
  "▁ኣምላክ": 9857,
  "ለያየ": 9858,
  "▁ብሉጽ": 9859,
  "ip": 9860,
  "ቃሽ": 9861,
  "ጋራት": 9862,
  "▁መቸ": 9863,
  "▁ንደሊ": 9864,
  "▁ታሪካ": 9865,
  "መለከታ": 9866,
  "▁ሞተ።": 9867,
  "▁መክፈል": 9868,
  "▁አምላካችን": 9869,
  "ቾት": 9870,
  "ይሽ": 9871,
  "▁ብመልክ": 9872,
  "▁ዘራ": 9873,
  "▁ጠጠው": 9874,
  "በልኩ": 9875,
  "▁ውልቃዊ": 9876,
  "▁ተናግረ": 9877,
  "ላይን": 9878,
  "▁እርምጃዎች": 9879,
  "▁ግጥሚ": 9880,
  "▁ወዴት": 9881,
  "▁ዘድል": 9882,
  "▁ንስድራ": 9883,
  "▁ሸሞንተ": 9884,
  "ኒቨርሲቲ": 9885,
  "▁ከመቼውም": 9886,
  "ኪ።": 9887,
  "▁ትስ": 9888,
  "▁አላገኘ": 9889,
  "መላለስ": 9890,
  "ተኞችን": 9891,
  "ኞቼ": 9892,
  "ዕናን": 9893,
  "ዳድ": 9894,
  "▁የቪዲዮ": 9895,
  "▁ዝረ": 9896,
  "▁ልና": 9897,
  "'ዩ፡": 9898,
  "▁ሞተር": 9899,
  "▁መካከ": 9900,
  "▁ወሲዱ": 9901,
  "▁ሆኗል": 9902,
  "▁ያገለግ": 9903,
  "▁ጥራ": 9904,
  "▁ኤስ": 9905,
  "▁ዲኹም": 9906,
  "▁የታወቀ": 9907,
  "ርአ።": 9908,
  "ነይቲ": 9909,
  "ዚል": 9910,
  "▁መንበር": 9911,
  "▁እንተዀነ": 9912,
  "▁መስመ": 9913,
  "▁በአንድነት": 9914,
  "▁ይፍለጥ።": 9915,
  "▁ያደረገው": 9916,
  ":26": 9917,
  "▁ታውቃላችሁ": 9918,
  "▁ቀሪቡ": 9919,
  "▁ኣይነበሮ": 9920,
  "▁ኾነው": 9921,
  "ሁፍ": 9922,
  "▁በጀት": 9923,
  "▁ክገብሮ": 9924,
  "▁ኣይፍ": 9925,
  "▁ጋሻ": 9926,
  "▁ኣሎ\"": 9927,
  "▁ቆጸራ": 9928,
  "▁ወርቅ": 9929,
  "ንብቡ": 9930,
  "▁ምዉታት": 9931,
  "ነተይ": 9932,
  "ዱእ": 9933,
  "▁የግን": 9934,
  "▁ግጥም": 9935,
  "▁ያደረግ": 9936,
  "ሓልፍ": 9937,
  "ስተኞች": 9938,
  "▁አብዚ": 9939,
  ":24": 9940,
  "ቶቼ": 9941,
  "▁ክገብሩ": 9942,
  "▁ማና": 9943,
  "ቸው፤": 9944,
  "▁ፈተነ": 9945,
  "▁ዓመጽ": 9946,
  "▁Pre": 9947,
  "ዝገብ": 9948,
  "▁የሚሆኑ": 9949,
  "▁የመጀመሪያዎቹ": 9950,
  "▁ዝሃቦ": 9951,
  "▁ትናንት": 9952,
  "▁ላም": 9953,
  "▁ዓሣ": 9954,
  "▁ሚዛን": 9955,
  "ስብስብ": 9956,
  "▁አወ": 9957,
  "በርት": 9958,
  "▁ሞገስ": 9959,
  "▁ቅልውላው": 9960,
  "▁በይን": 9961,
  "ጀመሩ": 9962,
  "▁ኣንቢ": 9963,
  "ሉስ": 9964,
  "▁የጸ": 9965,
  "▁ንገብር": 9966,
  "▁አስቀድ": 9967,
  "ዋሩ": 9968,
  "▁ኣሳ": 9969,
  "▁ይፋ": 9970,
  "▁ዝከኣል": 9971,
  "▁ኣይነበረን": 9972,
  "▁ሕግታት": 9973,
  "ሕግዘካ": 9974,
  "▁አላት።": 9975,
  "ክታ": 9976,
  "▁ከመስ": 9977,
  "▁ንኢ": 9978,
  "▁የሚሆነው": 9979,
  "▁ኣሎ፣": 9980,
  "▁194": 9981,
  "▁ሃይማኖታዊ": 9982,
  "▁ይቻላል።": 9983,
  "▁ዝኽሪ": 9984,
  "▁እዋናዊ": 9985,
  "▁ንኹሎም": 9986,
  "▁አሏ": 9987,
  "▁ፈታ": 9988,
  "ለን?": 9989,
  "▁ብምው": 9990,
  "▁ገሊጹ።": 9991,
  "ጴዛ": 9992,
  "▁ንኩ": 9993,
  "▁ፈተው": 9994,
  ":25": 9995,
  "▁አማኞች": 9996,
  "▁የሰጠ": 9997,
  "▁ይኣክል": 9998,
  "ቋረጥ": 9999,
  "ነውን": 10000,
  "▁ይሉ": 10001,
  "▁ኢህ": 10002,
  "መልካ": 10003,
  "▁ወዲያ": 10004,
  "ጠራጠር": 10005,
  "▁ልጆቹ": 10006,
  "▁ዝነበርኩ": 10007,
  "ኽዎ": 10008,
  "የረ": 10009,
  "▁ፔ": 10010,
  "▁አመስ": 10011,
  "▁ከየት": 10012,
  "▁ብቀ": 10013,
  "▁ሰብን": 10014,
  "ዋል፤": 10015,
  "▁እናምና": 10016,
  "'ዛ": 10017,
  "መቻ": 10018,
  "ታተይ": 10019,
  "▁በቦ": 10020,
  "▁ተቖ": 10021,
  "▁(ተ": 10022,
  "መለሳ": 10023,
  "▁ማሕበራት": 10024,
  "ጸው": 10025,
  "▁ርእስና": 10026,
  "▁አስተማሪ": 10027,
  "▁ኣልቦ": 10028,
  "▁ምህላ": 10029,
  "ላቀል": 10030,
  "▁ይምረ": 10031,
  "▁መልሱ": 10032,
  "▁ለእስራኤል": 10033,
  "▁ሸቶ": 10034,
  "ቦቹ": 10035,
  "አንድ": 10036,
  "ኸኝ": 10037,
  "ጸበ": 10038,
  "▁እሄዳ": 10039,
  "▁የሚያውቅ": 10040,
  "▁አስተሳሰብ": 10041,
  "▁ማዕጾ": 10042,
  "▁ኬንያ": 10043,
  "ate": 10044,
  "▁አዎንታዊ": 10045,
  "ላህም": 10046,
  "ድኑ": 10047,
  "ጎት": 10048,
  "▁ከኢ": 10049,
  "▁ተሻ": 10050,
  "▁ዘለኣለም": 10051,
  "▁ሆና": 10052,
  "▁ምስክርነት": 10053,
  "ሃራይ": 10054,
  "ምሌ": 10055,
  "ራሴ": 10056,
  "▁ስው": 10057,
  "▁መዝሙ": 10058,
  "▁ደሞዝ": 10059,
  "ነሆ": 10060,
  "▁ኣብተን": 10061,
  "▁በእምነት": 10062,
  "▁ኩነት": 10063,
  "ስልጣን": 10064,
  "▁ባቢሎን": 10065,
  "▁አሥር": 10066,
  "▁ከላ": 10067,
  "▁ትግራ": 10068,
  "▁ብሎግ": 10069,
  "-በ": 10070,
  "ብስ": 10071,
  "▁መሆ": 10072,
  "▁ዓመተ": 10073,
  "ወስዶ": 10074,
  "▁ኣየድልየ": 10075,
  "ችሉም።": 10076,
  "ዮሴፍ": 10077,
  "ፉእ": 10078,
  "▁ሔ": 10079,
  "▁በድር": 10080,
  "▁ኣነስ": 10081,
  "▁\"አንድ": 10082,
  "▁ኣእዳ": 10083,
  "▁መንገዱ": 10084,
  "▁ይናገራል።": 10085,
  "▁ቬ": 10086,
  "▁ዘገባ": 10087,
  "▁ደቒ": 10088,
  "▁ያደርጋል": 10089,
  "▁ዕውቀት": 10090,
  "▁መሲሉ": 10091,
  "▁ብሪጣንያ": 10092,
  "▁በቻይና": 10093,
  "ሓዘ": 10094,
  "ብጥ": 10095,
  "▁አጣ": 10096,
  "▁ዓ/ም": 10097,
  "ጀመረው": 10098,
  "▁ቢል": 10099,
  "▁አየሁ": 10100,
  "▁ዲኻ?": 10101,
  "ሕተት": 10102,
  "ድስት": 10103,
  "ጻድ": 10104,
  "▁ክፈ": 10105,
  "▁ይኽእል'ዩ።": 10106,
  "▁ኣይፈልጥን።": 10107,
  "▁ዝእ": 10108,
  "▁ተጽ": 10109,
  "▁ስምንት": 10110,
  "▁ትርከብ": 10111,
  "▁ደመ": 10112,
  "▁ወንዝ": 10113,
  "▁ኣዝየ": 10114,
  "▁ነህ።": 10115,
  "▁ሾብዓተ": 10116,
  "▁ህጹጽ": 10117,
  "▁መሥዋዕት": 10118,
  "ዋሪ": 10119,
  "የለ": 10120,
  "ገጥ": 10121,
  "▁ብሽ": 10122,
  "▁ህይወትና": 10123,
  "▁በጥቂት": 10124,
  "ቻለው": 10125,
  "ቸውም።": 10126,
  "▁ግን,": 10127,
  "▁ኪንግ": 10128,
  "▁ኤርምያስ": 10129,
  "▁ቪዛ": 10130,
  "▁Pl": 10131,
  "ጠብቁ": 10132,
  "▁መድረስ": 10133,
  "ሟል": 10134,
  "▁ጸሐ": 10135,
  "በይነ": 10136,
  "▁ንስኺ": 10137,
  "▁ተጠያቂ": 10138,
  "ችኋል": 10139,
  "ሰያስ": 10140,
  "▁ንክት": 10141,
  "▁ለመማር": 10142,
  "▁እንተወ": 10143,
  "▁ዘለዉ።": 10144,
  "▁ለውጦች": 10145,
  "ዑን": 10146,
  "▁መቆየት": 10147,
  "▁ንፈለማ": 10148,
  "▁ሽም": 10149,
  "ላለች": 10150,
  "▁ድንጋይ": 10151,
  "▁ምኻኑ": 10152,
  "ደሱ": 10153,
  "ጽሓፍ": 10154,
  "▁ስድራቤ": 10155,
  "▁ልጆችን": 10156,
  "ጽሐፉ": 10157,
  "▁ንየሆዋ": 10158,
  "ያችሁ": 10159,
  "ደቅ": 10160,
  "▁ውሂብ": 10161,
  "መሃር": 10162,
  "ቦቻቸው": 10163,
  "ጋጠ": 10164,
  "▁እኽእል": 10165,
  "▁ታች": 10166,
  "▁ኮድ": 10167,
  "▁ኣምላኽን": 10168,
  "▁ቅድሚያ": 10169,
  "ፈጠሩ": 10170,
  "▁ልምምድ": 10171,
  "▁ሰራሕተኛ": 10172,
  "ብዎት": 10173,
  "▁ተናገ": 10174,
  "▁ኣሎኹ": 10175,
  "▁ኤር": 10176,
  "ርእይ": 10177,
  "▁ገሊጹ": 10178,
  "▁መረጃዎች": 10179,
  "▁ቱርክ": 10180,
  "▁ብምዃኑ": 10181,
  "▁ፈገግ": 10182,
  "▁ሊረዳ": 10183,
  "▁ዝተበ": 10184,
  "▁ዩኒቨርስቲ": 10185,
  "ሓኒ": 10186,
  "ዕምሮ": 10187,
  "▁ፈጥ": 10188,
  "ገብራ": 10189,
  "ወትር": 10190,
  "▁ቀጺሉ": 10191,
  "ስበው": 10192,
  "ቀሱ": 10193,
  "ኵሉ": 10194,
  "▁ውስብስብ": 10195,
  "▁ላሉት": 10196,
  "መዘ": 10197,
  "ና!": 10198,
  "ከሉ": 10199,
  "▁መገናኘት": 10200,
  "▁ግዲ": 10201,
  "ወስዳ": 10202,
  "▁ሩስያ": 10203,
  "▁ፕሮግራሞች": 10204,
  "▁ምልክታት": 10205,
  "▁ዓውዲ": 10206,
  "ሞቹ": 10207,
  "ይዝ": 10208,
  "ጄሪያ": 10209,
  "▁ተመን": 10210,
  "▁ግብይት": 10211,
  ":23": 10212,
  "ሀል": 10213,
  "ሕ።": 10214,
  "▁ተለይ": 10215,
  "▁ትገብር": 10216,
  "▁ሃንደ": 10217,
  "▁የአካባቢ": 10218,
  "▁ምስራቅ": 10219,
  "▁እፈልጋለሁ።": 10220,
  "▁ተቋም": 10221,
  "▁ኣስተው": 10222,
  "▁የክርስቶስ": 10223,
  "▁ከካ": 10224,
  "▁ግንባታ": 10225,
  "ለች፤": 10226,
  "▁ወለድ": 10227,
  "▁ባህርያት": 10228,
  "▁ኣህጉራዊ": 10229,
  "ያር": 10230,
  "▁የራሳቸውን": 10231,
  "▁ክካየድ": 10232,
  "▁ሓደስቲ": 10233,
  "▁በተለየ": 10234,
  "ሰማው": 10235,
  "▁እችላለሁ?": 10236,
  "ሕስ": 10237,
  "ጠቅም": 10238,
  "▁ተገል": 10239,
  "▁ርቀት": 10240,
  "▁ይችላሉ?": 10241,
  "▁ቕድ": 10242,
  "▁ኣምላኸይ": 10243,
  "ገጽ": 10244,
  "▁ንምቕ": 10245,
  "▁ራእ": 10246,
  "▁ዘመናት": 10247,
  "▁የሚሠራ": 10248,
  "▁300": 10249,
  "ሰማም": 10250,
  "▁ዝነበረ።": 10251,
  "ክሲኮ": 10252,
  "▁ይጀምራ": 10253,
  "ጣው": 10254,
  "▁አዋቂ": 10255,
  "▁ምክንያቱ": 10256,
  "ረጋጋ": 10257,
  "▁መብቶች": 10258,
  "ሕግዙ": 10259,
  "▁ብተመ": 10260,
  "▁የወደፊት": 10261,
  "ህሳስ": 10262,
  "ባቸዋል።": 10263,
  "ጎን": 10264,
  "ነቕ": 10265,
  "▁\"መን": 10266,
  "▁የምስ": 10267,
  "▁ማንነት": 10268,
  "ሁለቱም": 10269,
  "▁ተጋደልቲ": 10270,
  "እቱ": 10271,
  "ፈና": 10272,
  "▁ሰራዊ": 10273,
  "▁በአለም": 10274,
  "▁ዓይኖ": 10275,
  "▁አውጥ": 10276,
  "ሞክራ": 10277,
  "▁ኣሕሊፉ": 10278,
  "▁ሠር": 10279,
  "ወልድ": 10280,
  "ት፣": 10281,
  "▁ዝዛረብ": 10282,
  "▁ብዙኅ": 10283,
  "ለህ፤": 10284,
  "▁ሐዋርያ": 10285,
  "▁ዝወጸ": 10286,
  "▁ጥፍኣት": 10287,
  "▁ስዉ": 10288,
  "▁ተፈሊ": 10289,
  "▁ሰይጣ": 10290,
  "▁እናመሰግናለን": 10291,
  "ራቱ": 10292,
  "ጆቻቸው": 10293,
  "▁ዘይፈልጥ": 10294,
  "▁ተመሃሮ": 10295,
  "▁መጺኦም": 10296,
  "▁(1)": 10297,
  "ልታ": 10298,
  "ነበራ": 10299,
  "ጽፍ": 10300,
  "▁ኣገልጋ": 10301,
  "▁ያስታው": 10302,
  "...\"": 10303,
  "ነፍስ": 10304,
  "ያድ": 10305,
  "▁በፓ": 10306,
  "ባቸው።": 10307,
  "▁አስተዳ": 10308,
  "ፈትዎ": 10309,
  "ወንጌ": 10310,
  "▁የግድ": 10311,
  "▁የተሰጠ": 10312,
  "ጸረ": 10313,
  "▁ይለኛ": 10314,
  "▁ሚዛ": 10315,
  "ረው።": 10316,
  "▁ይመስል።": 10317,
  "ፕል": 10318,
  "፡\"": 10319,
  "▁ይጫወ": 10320,
  "▁ኸሎ": 10321,
  "vious": 10322,
  "▁ደካማ": 10323,
  "ሃነም": 10324,
  "▁በግብፅ": 10325,
  "▁የኾነ": 10326,
  "▁ከከም": 10327,
  "▁እንበር": 10328,
  "▁ማቆም": 10329,
  "▁ፈጠራ": 10330,
  "▁ከለኻ": 10331,
  "ዕድመ": 10332,
  "▁ይሞክሩ": 10333,
  "ም!": 10334,
  "ከቡ": 10335,
  "ጥበ": 10336,
  "▁ንኤ": 10337,
  "▁ንፈ": 10338,
  "▁\"ናብ": 10339,
  "▁አልነበሩ": 10340,
  "▁የምርት": 10341,
  "▁\"እግዚአብሔር": 10342,
  "▁የማት": 10343,
  "ሆናቸው": 10344,
  "▁ትዕዛ": 10345,
  "በካ": 10346,
  "ኸፍ": 10347,
  "ዞን": 10348,
  "▁ንጹሕ": 10349,
  "▁Instagram": 10350,
  "▁ኣገደስቲ": 10351,
  "ሮኒ": 10352,
  "ተዉ": 10353,
  "ወቂያ": 10354,
  "ደላ": 10355,
  "ጠጥ": 10356,
  "▁እኽ": 10357,
  "▁ለመገናኘት": 10358,
  "▁ኢንተርኔት": 10359,
  "▁የከፋ": 10360,
  "▁ኣድላይ": 10361,
  "▁to": 10362,
  "),": 10363,
  "▁ቖ": 10364,
  "▁የላቸውም": 10365,
  "▁ዚነብሩ": 10366,
  "ዎቹም": 10367,
  "▁በጃኻ": 10368,
  "ሉው": 10369,
  "▁ንሽ": 10370,
  "▁ዓስ": 10371,
  "▁እየሞ": 10372,
  "▁ዚሕ": 10373,
  "▁ቢሊዮን": 10374,
  "▁አለብን።": 10375,
  "▁አያውቁም።": 10376,
  "▁ጠንቂ": 10377,
  "ማሚ": 10378,
  "ውት": 10379,
  "▁መመልከት": 10380,
  "▁ነው:": 10381,
  "▁ሓባራዊ": 10382,
  "ብልን": 10383,
  "ንግተን": 10384,
  "▁መርዳት": 10385,
  "▁ተወሲ": 10386,
  "ክርስቲያ": 10387,
  "▁ሪፖር": 10388,
  "▁ዝወሃብ": 10389,
  "▁ንሓድሕዶም": 10390,
  "ዎታል።": 10391,
  "ግኡ": 10392,
  "ፋቱ": 10393,
  "▁መእተ": 10394,
  "▁ብላችሁ": 10395,
  "▁ዝሰር": 10396,
  "▁ማለት'ዩ።": 10397,
  "ህን?": 10398,
  "▁ፓስ": 10399,
  "▁ይፈልጋል።": 10400,
  "ዎች,": 10401,
  "▁ወንበር": 10402,
  "▁ኣተወ": 10403,
  "▁ኣመልኪ": 10404,
  "ጠቓ": 10405,
  "ጣችሁ": 10406,
  "▁የወጣ": 10407,
  "▁ነሽ": 10408,
  "▁ይሳ": 10409,
  "▁ማጣት": 10410,
  "▁ማሽን": 10411,
  "▁የሚከተሉትን": 10412,
  "16": 10413,
  "መመ": 10414,
  "ዳለወ": 10415,
  "ፕላ": 10416,
  "▁ስምህ": 10417,
  "▁ከይዱ": 10418,
  "▁ኣይትረስ": 10419,
  "▁ኢኻ፡": 10420,
  "ለዋል።": 10421,
  "▁ይሰርሕ": 10422,
  "▁ዄንካ": 10423,
  "▁መጽሔት": 10424,
  "ሓል": 10425,
  "▁የፊ": 10426,
  "▁ይር": 10427,
  "▁ማረጋገጫ": 10428,
  "▁ዓን": 10429,
  "▁ጥረ": 10430,
  "▁ቀና": 10431,
  "▁ለማዳን": 10432,
  "▁ያለፈ": 10433,
  ":21": 10434,
  "▁ጀሚሩ።": 10435,
  "▁ዓርቢ": 10436,
  "▁ምንባሩ": 10437,
  "ኖሩት": 10438,
  "ዶም።": 10439,
  "▁የጽ": 10440,
  "▁ከሆኑት": 10441,
  "▁ለፊት": 10442,
  "▁ሽግ": 10443,
  "▁ሌላውን": 10444,
  "▁ጃፓን": 10445,
  "▁ካሊእ": 10446,
  "ቆማ": 10447,
  "▁ኣድራሻ": 10448,
  "▁ሓተት": 10449,
  "▁የተነሣ": 10450,
  "▁ተኣሲ": 10451,
  "▁ተበጊ": 10452,
  "▁ሓፍ": 10453,
  "▁ዮሃ": 10454,
  "▁ዘይኰነስ፡": 10455,
  "ለኹ": 10456,
  "▁አወጣ": 10457,
  "▁ንጥረ": 10458,
  "▁እያንዳንዱን": 10459,
  "▁ደጋጊ": 10460,
  "ነቅ": 10461,
  "▁የገና": 10462,
  "▁ፋሕ": 10463,
  "ነቃ": 10464,
  "ያ፡": 10465,
  "▁ግዳይ": 10466,
  "ትንና": 10467,
  "ፈላለዩ": 10468,
  "ንደዚህ": 10469,
  "▁ትርጉሙ": 10470,
  "2|": 10471,
  "ኣኒ": 10472,
  "ዕዝ": 10473,
  "▁አበባ": 10474,
  "▁ክዳን": 10475,
  "መለሰ": 10476,
  "▁ከምዘለዎ": 10477,
  "hat": 10478,
  "ፍረ": 10479,
  "▁በቃል": 10480,
  "ሰማማዕ": 10481,
  "▁ብዝበለ": 10482,
  "▁እስራኤልን": 10483,
  "ጠበቁ": 10484,
  "OS": 10485,
  "od": 10486,
  "ኩትን": 10487,
  "▁ይኽእሉ።": 10488,
  "▁ዝፍለጥ": 10489,
  "▁አይመስለ": 10490,
  "▁ኸመይ": 10491,
  "ወዳደር": 10492,
  "▁የልቦን": 10493,
  "▁እዋናት": 10494,
  "▁አስባለሁ": 10495,
  "▁(ብ": 10496,
  "ለምዶ": 10497,
  "▁ነብዪ": 10498,
  "▁ኣይኮኑን።": 10499,
  "ቢዎች": 10500,
  "▁ክጥ": 10501,
  "▁ድሌ": 10502,
  "▁ዝተረፈ": 10503,
  "▁ጠረ": 10504,
  "▁ኪድ": 10505,
  "▁ሚስቱ": 10506,
  "▁Home": 10507,
  "ህ፤": 10508,
  "ዖም።": 10509,
  "▁ኸተ": 10510,
  "ሰብሰብ": 10511,
  "▁ትዕዛዝ": 10512,
  "ሮሜ": 10513,
  "ጽሙ": 10514,
  "▁ንንጉ": 10515,
  "▁ትብሉ": 10516,
  "▁ትንቢ": 10517,
  "▁ምክንያት,": 10518,
  "▁ገጽታ": 10519,
  "▁ሓቢሩ።": 10520,
  "ሜል": 10521,
  "▁በክርስቶስ": 10522,
  "▁በለት።": 10523,
  "▁ህላ": 10524,
  "ግራም": 10525,
  "▁ይኖርብ": 10526,
  "▁ናባኻ": 10527,
  "ሐሴ": 10528,
  "ይቅ": 10529,
  "ጎበ": 10530,
  "▁ማብ": 10531,
  "▁መስሎ": 10532,
  "መርመር": 10533,
  "ጻም": 10534,
  "▁አክብ": 10535,
  "▁ለራሱ": 10536,
  "▁ካሜራ": 10537,
  "ሽታ": 10538,
  "ቆር": 10539,
  "ፅል": 10540,
  "▁እምብዛ": 10541,
  "▁ብምእ": 10542,
  "ጽሖ": 10543,
  "ፈይ": 10544,
  "▁አድራ": 10545,
  "▁ምስት": 10546,
  "▁ሰውነት": 10547,
  "▁መጥተው": 10548,
  "▁ድዩ፧": 10549,
  "▁ልጁን": 10550,
  "▁ይሠራል": 10551,
  "ቲ፡": 10552,
  "የኒ": 10553,
  "▁ንምር": 10554,
  "▁የሚያስተ": 10555,
  "▁ንእኡ": 10556,
  "▁ሰብኣይን": 10557,
  "▁ምኻድ": 10558,
  "ካሚ": 10559,
  "ዓቱ": 10560,
  "▁re": 10561,
  "▁እረፍት": 10562,
  "▁መርከ": 10563,
  "▁ኸምኡ": 10564,
  "▁ብዘሎ": 10565,
  "▁ንእግዚኣብሄር": 10566,
  "24": 10567,
  "ቋረ": 10568,
  "▁ከነሱ": 10569,
  "▁ያዘ": 10570,
  "▁\"ኢ": 10571,
  "▁በተወሰነ": 10572,
  "▁ምርቶችን": 10573,
  "▁46": 10574,
  "▁ብሓን": 10575,
  "▁ያሳያል": 10576,
  "ቸዋል፤": 10577,
  "ack": 10578,
  "▁ፈሪሳውያን": 10579,
  "▁በተቃራኒ": 10580,
  "▁ተንቀሳ": 10581,
  "ልናን": 10582,
  "▁ንምፍላጥ": 10583,
  "▁ባለቤቴ": 10584,
  "▁ግዙፍ": 10585,
  "▁ተንስ": 10586,
  "▁ክብለ": 10587,
  "▁ላይ.": 10588,
  "▁ምስማዕ": 10589,
  "▁አይደለች": 10590,
  "▁በእውነ": 10591,
  "▁ፈሊጥ": 10592,
  "መልከቻ": 10593,
  "▁ለንደን": 10594,
  "pt": 10595,
  "ራረ": 10596,
  "ሷን": 10597,
  "ቓት": 10598,
  "ዩ?": 10599,
  "ዳ።": 10600,
  "ፃር": 10601,
  "▁ኣመስ": 10602,
  "▁ተዘር": 10603,
  "▁ዜግነት": 10604,
  "▁ራብ": 10605,
  "ዙ።": 10606,
  "ዳል.": 10607,
  "ጸይ": 10608,
  "▁ዝል": 10609,
  "▁ደብረ": 10610,
  "ኩም?": 10611,
  "▁በይፋ": 10612,
  "ላሊ": 10613,
  "ተኞቹ": 10614,
  "▁ከዘ": 10615,
  "▁ዳኛ": 10616,
  "▁ነበረች": 10617,
  "▁እንዲያገኙ": 10618,
  "▁በመጀመሪያው": 10619,
  "▁ብቐጥታ": 10620,
  "▁ጠየቀ": 10621,
  "ህ፣": 10622,
  "ሳቁ": 10623,
  "ዐ።": 10624,
  "ድገት": 10625,
  "▁ኣዛ": 10626,
  "▁የዘላለም": 10627,
  "▁ሚኒስቴር": 10628,
  "▁ጅግና": 10629,
  "▁ኣጸጋሚ": 10630,
  "▁በሁለቱም": 10631,
  "▁እንፈልጋለን": 10632,
  "ይረ": 10633,
  "ፐር": 10634,
  "▁እከይ": 10635,
  "▁ኣሽሓት": 10636,
  "▁ዘካ": 10637,
  "▁\"ክ": 10638,
  "▁ኣይትፍር": 10639,
  "ገራችን": 10640,
  "ቕታ": 10641,
  "ዓና": 10642,
  "▁ክትሕ": 10643,
  "▁ዘለካ": 10644,
  "▁እንተኾነ፡": 10645,
  "▁ዘላቂ": 10646,
  "▁በነፃ": 10647,
  "ጻሕፈ": 10648,
  "▁መቓብር": 10649,
  "ሉይ": 10650,
  "ጓጓ": 10651,
  "ጣቢያ": 10652,
  "▁ስዕ": 10653,
  "▁ለናንተ": 10654,
  "▁ያደረ": 10655,
  "▁ሓዳ": 10656,
  "▁ደቁ": 10657,
  "▁ብዛዕባኡ": 10658,
  "▁በደቡብ": 10659,
  "'ዉን": 10660,
  "ቆሙ": 10661,
  "▁l": 10662,
  "▁የዳ": 10663,
  "▁የፓ": 10664,
  "▁ይጸ": 10665,
  "▁\"ምን": 10666,
  "▁ጊዜ፣": 10667,
  "▁የተፈጥሮ": 10668,
  "▁(እና": 10669,
  "▁ተገሊጹ": 10670,
  "፡3": 10671,
  "▁ኣታዊ": 10672,
  "▁ከጓደ": 10673,
  "▁ብማዕ": 10674,
  "▁ሳያ": 10675,
  "▁ብምት": 10676,
  "▁ደርሶ": 10677,
  "▁ረኺበ": 10678,
  "ተናል።": 10679,
  "ዲን": 10680,
  "ግዜ": 10681,
  "ጠኑ": 10682,
  "ጧል": 10683,
  "▁መከተል": 10684,
  "▁ከሐ": 10685,
  "▁ዝጥ": 10686,
  "▁ንምእ": 10687,
  "▁ፕሮፌ": 10688,
  "▁ነገሥታት": 10689,
  "መታ": 10690,
  "ሩቅ": 10691,
  "ሳም": 10692,
  "በታል": 10693,
  "ገሉ": 10694,
  "▁መዓት": 10695,
  "▁ዓወ": 10696,
  "▁ኣሎካ።": 10697,
  "▁ንምት": 10698,
  "▁ሥነ": 10699,
  "▁ጀርባ": 10700,
  "ፈልጉት": 10701,
  "ለወጠ": 10702,
  "▁መልክተኛ": 10703,
  "▁ለመውሰድ": 10704,
  "▁ፈው": 10705,
  "▁ዝግጅት": 10706,
  "▁ለማንበብ": 10707,
  "▁ኣሰራርሓ": 10708,
  "▁ትሽ": 10709,
  "▁ለመመለስ": 10710,
  "▁በትክክለኛው": 10711,
  "ወልደ": 10712,
  "▁ግለሰብ": 10713,
  "ows": 10714,
  "ጋዚ": 10715,
  "▁47": 10716,
  "▁በየአ": 10717,
  "▁ትናንሽ": 10718,
  "ጸባር": 10719,
  "ፃእ": 10720,
  "▁የጦር": 10721,
  "▁የሚተ": 10722,
  "▁ጥናቶች": 10723,
  "▁ሌሎቹ": 10724,
  "ጥፍእ": 10725,
  "ፈጸሙ": 10726,
  "▁እራሱን": 10727,
  "ካሄድ": 10728,
  "▁የሚሆነ": 10729,
  "▁እያ፡": 10730,
  "▁ሥራው": 10731,
  "▁ነኝ፤": 10732,
  "▁ብንጹር": 10733,
  "▁ደጋግ": 10734,
  "▁በጥንቃቄ": 10735,
  "ፍሕ": 10736,
  "▁አለ፤": 10737,
  "▁እሱራት": 10738,
  "▁ከምዝነበረ": 10739,
  "ገለጠ": 10740,
  "▁ኣምጺ": 10741,
  "▁ዝበዝሕ": 10742,
  "▁ይመስለኛል።": 10743,
  "▁ምምላስ": 10744,
  "ቀበሉ": 10745,
  "▁መንደ": 10746,
  "▁ምስኣ": 10747,
  "▁በአንዱ": 10748,
  "▁በነጻ": 10749,
  "ልጠና": 10750,
  "ኤም": 10751,
  "ካኒ": 10752,
  "▁የጊዜ": 10753,
  "▁መቁ": 10754,
  "▁ንዂ": 10755,
  "▁ግጭት": 10756,
  "▁ሲቪ": 10757,
  "▁የአካል": 10758,
  "ናል፤": 10759,
  "▁ብምጥ": 10760,
  "▁ለማሳደግ": 10761,
  "▁የፈጠራ": 10762,
  "▁ኣይከኣለን።": 10763,
  "▁ኣማልኽቲ": 10764,
  "ኖን": 10765,
  "መሰግ": 10766,
  "▁እርስዎን": 10767,
  "ጠይቁ": 10768,
  "▁አሳልፎ": 10769,
  "▁ወተሃደራዊ": 10770,
  "▁የጌታን": 10771,
  "▁ዮሓንስ": 10772,
  "በይነመረብ": 10773,
  "ቀፍ": 10774,
  "ፋፍ": 10775,
  "▁ይይዛ": 10776,
  "▁ተናገር": 10777,
  "▁ሓለዋ": 10778,
  "▁መዓልትን": 10779,
  "▁ወሰደ": 10780,
  "▁ብቕዓት": 10781,
  "ሙስ": 10782,
  "ብሮ": 10783,
  "ዎታል.": 10784,
  "ዶ።": 10785,
  "▁አሰል": 10786,
  "▁ዝህል": 10787,
  "▁ላይም": 10788,
  "▁በመንግ": 10789,
  "▁ድርጊት": 10790,
  "ዘጋጃ": 10791,
  "▁ግለሰቦች": 10792,
  "▁ይጠቀማ": 10793,
  "▁ኣይደልን": 10794,
  "▁ይልቁንም": 10795,
  "ሳሲ": 10796,
  "▁ለሁለት": 10797,
  "▁ኮርያ": 10798,
  "▁በሚቀጥሉት": 10799,
  "ቀና": 10800,
  "ነፈ": 10801,
  "ይስ": 10802,
  "▁ኸለዉ": 10803,
  "▁ኣለኒ።": 10804,
  "▁ድልየት": 10805,
  "▁ክንድዚ": 10806,
  "▁ልቦም": 10807,
  "▁ዘይኰ": 10808,
  "▁ሳት": 10809,
  "▁የአት": 10810,
  "▁የሚያውቁ": 10811,
  "▁ርእየ": 10812,
  "ክብት": 10813,
  "▁ከይተረፈ": 10814,
  "በታ": 10815,
  "▁አጠፋ": 10816,
  "▁ብክ": 10817,
  "▁ሊወስድ": 10818,
  "▁ተመክሮ": 10819,
  "▁ቢኖሩ": 10820,
  "▁ዲዛ": 10821,
  "ብራውያን": 10822,
  "▁ከመጀመሪያው": 10823,
  "ሁም": 10824,
  "ሻገር": 10825,
  "ተ-": 10826,
  "ጥል": 10827,
  "▁ይደረጋ": 10828,
  "▁በተደጋጋሚ": 10829,
  "ወርቅ": 10830,
  "▁ተዋህ": 10831,
  "▁እናውቃለን።": 10832,
  "▁መልዕክት": 10833,
  "▁ወፍሪ": 10834,
  "ሪቡ": 10835,
  "ዊን": 10836,
  "▁ኣና": 10837,
  "▁ነቦ": 10838,
  "▁ክወስድ": 10839,
  "▁ለኢ": 10840,
  "▁ኮከብ": 10841,
  "▁ነገስታት": 10842,
  "▁ቁጣ": 10843,
  "▁በሚል": 10844,
  "▁እዋን'ዚ": 10845,
  "▁መድኃኒ": 10846,
  "▁ብተመሳሳሊ": 10847,
  "ID": 10848,
  "ጐድ": 10849,
  "▁የዓ": 10850,
  "▁ኣፍሪካ": 10851,
  "▁የነበረውን": 10852,
  "▁ባልደረ": 10853,
  "▁ለመቀነስ": 10854,
  "ር፡": 10855,
  "ያሽ": 10856,
  "ጽበት": 10857,
  "▁ክገብረ": 10858,
  "▁ኣይንኽእልን": 10859,
  "▁ክእለት": 10860,
  "▁የሚችሉት": 10861,
  "ስስ": 10862,
  "ዘረ": 10863,
  "▁ንፉ": 10864,
  "በረሉ": 10865,
  "▁ሰውራ": 10866,
  "▁ኰን": 10867,
  "▁ገብቶ": 10868,
  "▁እንደሌለ": 10869,
  "ከብር": 10870,
  "▁ብብዝ": 10871,
  "▁ሕግን": 10872,
  "▁ወይን": 10873,
  "▁ብሓይሊ": 10874,
  "▁መግቢያ": 10875,
  "ኮረ": 10876,
  "ጪው": 10877,
  "ጹን": 10878,
  "▁እሁድ": 10879,
  "▁መጡ": 10880,
  "▁ይኾኑ": 10881,
  "▁ዝጠፍ": 10882,
  "▁ኣብቶም": 10883,
  "▁ድማ፣": 10884,
  "▁ዋይ": 10885,
  "ከተለው": 10886,
  "▁በፊትህ": 10887,
  "▁ዙር": 10888,
  "መለከተው": 10889,
  "ጅምር።": 10890,
  "▁መልዕክ": 10891,
  "▁አንደኛው": 10892,
  "te": 10893,
  "ነታቸውን": 10894,
  "▁ስሚ": 10895,
  "▁ስፖር": 10896,
  "▁ተገን": 10897,
  "▁ካርታ": 10898,
  "ርማ": 10899,
  "ጻጸ": 10900,
  "▁ዝቑ": 10901,
  "▁ልቤ": 10902,
  "▁ኻብቲ": 10903,
  "ዋ፡": 10904,
  "ፃፍ": 10905,
  "▁ለህ": 10906,
  "▁ለደ": 10907,
  "▁ዋንጫ": 10908,
  "▁ጌርኩም": 10909,
  "▁ፓሪስ": 10910,
  "▁ዙፋን": 10911,
  "▁ዩኒቨርሲቲዎች": 10912,
  "▁መድሃኒ": 10913,
  "▁ሚእታዊት": 10914,
  "ber": 10915,
  "ኳይ": 10916,
  "ገመ": 10917,
  "▁እል": 10918,
  "▁ከምታ": 10919,
  "▁ህጋዊ": 10920,
  "▁እዮም\"": 10921,
  "▁ተሰሪ": 10922,
  "▁ወረቀት": 10923,
  "ቅያ": 10924,
  "ጥዓ": 10925,
  "▁of": 10926,
  "▁አዘጋጅ": 10927,
  "▁አይቶ": 10928,
  "▁ኩራት": 10929,
  "▁ብምቕ": 10930,
  "▁ጉዳዩ": 10931,
  "▁ፍልጠ": 10932,
  "▁በውጭ": 10933,
  "▁ተመለሱ": 10934,
  "▁መንግስትን": 10935,
  "▁ስግኣት": 10936,
  "በቁ": 10937,
  "ያችን": 10938,
  "▁ኣወ": 10939,
  "▁እንመልከት": 10940,
  "▁(2)": 10941,
  "▁የተካ": 10942,
  "▁ወደኋላ": 10943,
  "▁ዶ/ር": 10944,
  "▁ቀይሕ": 10945,
  "▁እንቋዕ": 10946,
  "ባለው": 10947,
  "ብቆ": 10948,
  "ቴና": 10949,
  "▁ዘድልዮ": 10950,
  "▁፡-": 10951,
  "▁ንምጥ": 10952,
  "▁ዝሓለ": 10953,
  "▁ምእታው": 10954,
  "▁ፎቶግራ": 10955,
  "▁ለማምጣት": 10956,
  "▁ሚሊ": 10957,
  "▁ድርጊ": 10958,
  "▁Previous": 10959,
  "ችው።": 10960,
  "ኻ?": 10961,
  "▁ይገለ": 10962,
  "ውንት": 10963,
  "▁አለው,": 10964,
  "▁2006": 10965,
  "▁ባዕለይ": 10966,
  "▁መተግበሪያዎች": 10967,
  "ሃረ": 10968,
  "ድቕ": 10969,
  "▁ሓዋርያ": 10970,
  "▁በማን": 10971,
  "▁መቀጠል": 10972,
  "ለትን": 10973,
  "▁ዘብል": 10974,
  "▁ዓርከ": 10975,
  "▁ዚቕ": 10976,
  "▁ሞይቱ": 10977,
  "መልክት": 10978,
  "▁መእተዊ": 10979,
  "ፈነ": 10980,
  "▁በየትኛውም": 10981,
  "▁ምረ": 10982,
  "▁ምቾት": 10983,
  "▁ካሉት": 10984,
  "ባሕር": 10985,
  "▁ይገኛል።": 10986,
  "▁ቅዳሜ": 10987,
  "ጦርነት": 10988,
  "▁ተዘጋጅ": 10989,
  "▁አምራ": 10990,
  "▁ተመልሰ": 10991,
  "▁ቀጣዩ": 10992,
  "ሌክ": 10993,
  "▁በሪ": 10994,
  "▁ዘይከኣ": 10995,
  "▁2000": 10996,
  "▁ባለሥ": 10997,
  "▁ኻባ": 10998,
  "▁የቀረ": 10999,
  "ዋሕ": 11000,
  "ድመ": 11001,
  "▁ከረን": 11002,
  "▁ይከፍ": 11003,
  "▁ህይወትካ": 11004,
  "▁ኢኮኖሚያዊ": 11005,
  "ኹን።": 11006,
  "ወያ": 11007,
  "ጻሚ": 11008,
  "▁ተይ": 11009,
  "▁ስና": 11010,
  "▁ነው፥": 11011,
  "▁እየሆነ": 11012,
  "ንንት": 11013,
  "▁መንግስተ": 11014,
  "▁ንልዕሊ": 11015,
  "ሪኡ": 11016,
  "▁ተፋ": 11017,
  "▁ዘገርም": 11018,
  "▁ማሻሻ": 11019,
  "▁አይችሉም።": 11020,
  "▁እውቅና": 11021,
  "▁ልዕሊኡ": 11022,
  ":28": 11023,
  "▁የማይታ": 11024,
  "▁ይሆናል፤": 11025,
  "▁የወንድ": 11026,
  "▁አያስፈልግ": 11027,
  "▁ይጠቀሙ": 11028,
  "▁በድንገት": 11029,
  "▁አለመሆኑን": 11030,
  "ፕሪ": 11031,
  "▁በፀ": 11032,
  "▁ያካ": 11033,
  "▁ኢደይ": 11034,
  "ፈልጣ": 11035,
  "▁ይህንንም": 11036,
  "▁ሥራውን": 11037,
  "▁የማይቻል": 11038,
  "▁ማዕበል": 11039,
  "▁የለም፤": 11040,
  "▁ዘመቻ": 11041,
  "▁ትራንስ": 11042,
  "ለቲከ": 11043,
  "ne": 11044,
  "ሚሩ": 11045,
  "▁ነበርና።": 11046,
  "▁በአው": 11047,
  "▁እምቢ": 11048,
  "▁ምኽንያታት": 11049,
  "▁እሆና": 11050,
  "በለዚያ": 11051,
  "▁ራሴ": 11052,
  "▁መዓልቲ፡": 11053,
  "ቫል": 11054,
  "ድብ": 11055,
  "▁ነባሪ": 11056,
  "▁ዝገለ": 11057,
  "▁ስሞች": 11058,
  "▁አሉታዊ": 11059,
  "▁ጣፋ": 11060,
  "▁ሜላ": 11061,
  "▁ክብርን": 11062,
  "▁ሳዕቤ": 11063,
  "▁ብሄራዊ": 11064,
  "ክሉ": 11065,
  "ዕሶ": 11066,
  "▁ዝርያ": 11067,
  "▁የእነዚህ": 11068,
  "▁ቤትካ": 11069,
  "ለመደ": 11070,
  "▁ፅቡቕ": 11071,
  "▁ተኻይ": 11072,
  "ሬሽን": 11073,
  "▁ችላ": 11074,
  "▁ከፈ": 11075,
  "▁ዝረአ": 11076,
  "▁ያደርጉ": 11077,
  "▁ጽዮን": 11078,
  "▁ትንታ": 11079,
  "▁ተፈጥ": 11080,
  "▁ያውቃሉ?": 11081,
  "▁ለሌላ": 11082,
  "▁ውህበት": 11083,
  "▁ፍሽኽ": 11084,
  "0)": 11085,
  "ውዓል": 11086,
  "▁መሮ": 11087,
  "▁ዝሰማዕ": 11088,
  "▁የተሞላ": 11089,
  "▁ንስኹም": 11090,
  "▁በኢየሩሳሌም": 11091,
  "ፍጸም": 11092,
  "▁መዚ": 11093,
  "▁ክፈልጥ": 11094,
  "▁ሓንጎ": 11095,
  "ስተማ": 11096,
  "ታይን": 11097,
  "▁ቻይ": 11098,
  "▁ያደርጋል።": 11099,
  "ዕለቱ": 11100,
  "▁ተመስገን": 11101,
  "ቅሮ": 11102,
  "ከኝ": 11103,
  "ዓታት": 11104,
  "▁የቻይና": 11105,
  "▁ከርሱ": 11106,
  "▁ሰሌ": 11107,
  "▁ኣይትሕ": 11108,
  "▁ኣባይቲ": 11109,
  "ውዒት": 11110,
  "ፋሉ": 11111,
  "▁ይከሰ": 11112,
  "▁ናቶም": 11113,
  "▁ሲነ": 11114,
  "▁'በ": 11115,
  "▁ይሄንን": 11116,
  "▁ኢኺ።": 11117,
  "ሕብባር": 11118,
  "▁ሙስሊም": 11119,
  "s:": 11120,
  "ስበ": 11121,
  "▁በግን": 11122,
  "▁አመስግ": 11123,
  "ገልጹ": 11124,
  "▁ገምጋም": 11125,
  "▁ወንጀል": 11126,
  "▁ተታሒ": 11127,
  "ce": 11128,
  "▁በጨ": 11129,
  "▁የሩሲያ": 11130,
  "▁\"ኣይ": 11131,
  "▁ንምዝ": 11132,
  "▁እርሻ": 11133,
  "መኝ": 11134,
  "▁እሞ፣": 11135,
  "ቸዋለሁ።": 11136,
  "▁ብሕጊ": 11137,
  "▁ንቕድ": 11138,
  "▁ጠላቶች": 11139,
  "indows": 11140,
  "ሌፎን": 11141,
  "▁ነው)": 11142,
  "ይንስ": 11143,
  "ደንቕ": 11144,
  "▁ዓብይ": 11145,
  "▁ይናገራል": 11146,
  "▁ንርእሱ": 11147,
  "ካሪ": 11148,
  "▁ይፈር": 11149,
  "▁ዓይነ": 11150,
  "▁ጨር": 11151,
  "▁ጨን": 11152,
  "ድሕነ": 11153,
  "▁በርስ": 11154,
  "▁ወጋሕ": 11155,
  "▁ውሰ": 11156,
  "▁ድያ": 11157,
  "▁ታደርጋ": 11158,
  "▁ምእንታ": 11159,
  "ብረሉ": 11160,
  "ቀመጫ": 11161,
  "▁ሒዞም": 11162,
  "▁ሉቃስ": 11163,
  "▁ሕጉሳት": 11164,
  "▁ንጉሡም": 11165,
  "ሐ።": 11166,
  "ማችሁ": 11167,
  "▁በርግጥ": 11168,
  "▁ጥፋ": 11169,
  "▁ምድሓን": 11170,
  "▁ምዃነይ": 11171,
  "▁እንደምታ": 11172,
  "▁አስተያየ": 11173,
  "ኘው": 11174,
  "አልና": 11175,
  "የን።": 11176,
  "▁የቡ": 11177,
  "▁ስጕ": 11178,
  "▁(፪": 11179,
  "▁የተጠቀ": 11180,
  "▁አይደለህ": 11181,
  "▁ምዃንካ": 11182,
  "▁ርእስ": 11183,
  "ውስኽ": 11184,
  "▁ሙሴም": 11185,
  "▁ኣምሓ": 11186,
  "▁ዘፍጥረት": 11187,
  "▁መርትዖ": 11188,
  "▁ውላድ": 11189,
  "▁ጋር.": 11190,
  "▁3.": 11191,
  "▁እያደገ": 11192,
  "ቀጥለው": 11193,
  "▁ለማስወገድ": 11194,
  "▁ተመሊሱ": 11195,
  "▁ዝበዝሐ": 11196,
  "▁ግዳያት": 11197,
  "▁መብራህ": 11198,
  "ራቢያ": 11199,
  "▁ያቀር": 11200,
  "▁የሚባል": 11201,
  "▁ግን፣": 11202,
  "▁አንዳች": 11203,
  "▁ነቢዩ": 11204,
  "ጠንቀቂያ": 11205,
  "ሃቦም": 11206,
  "ራራ": 11207,
  "▁በላቸው": 11208,
  "▁ዓሌ": 11209,
  "▁ገዳም": 11210,
  "▁ለመጫወት": 11211,
  "▁አይደለምን?": 11212,
  "▁ፍትሕ": 11213,
  "ቀሉ": 11214,
  "ፈኒ": 11215,
  "ፋል።": 11216,
  "▁ኣገልገል": 11217,
  "▁ውዒ": 11218,
  "▁ከእስራኤል": 11219,
  "ርትራ": 11220,
  "▁'ቲ": 11221,
  "▁ከመጠን": 11222,
  "ባቸውም": 11223,
  "▁ቀዳም": 11224,
  "▁ከምዘለ": 11225,
  "▁ቶን": 11226,
  "▁ፈለግ": 11227,
  "ራጭ": 11228,
  "▁የሚከ": 11229,
  "▁ሲኾን": 11230,
  "▁ኣይትኽእልን": 11231,
  "▁ተገይሩ": 11232,
  "▁መጻፍ": 11233,
  "▁የመጣው": 11234,
  "og": 11235,
  "ማ።": 11236,
  "ንኩም": 11237,
  "እል": 11238,
  "▁የሃ": 11239,
  "▁ንገለ": 11240,
  "▁ቁማር": 11241,
  "▁ሁለቱን": 11242,
  "▁ቴክኒ": 11243,
  "▁ችግሩ": 11244,
  "▁አቅራቢ": 11245,
  "▁ሉቃ": 11246,
  "▁እንደሆንኩ": 11247,
  "ፈጥ": 11248,
  "▁ተል": 11249,
  "▁ሓዱሽ": 11250,
  "▁እዩ'": 11251,
  "▁ልማድ": 11252,
  "▁ባልና": 11253,
  "▁ዲያ": 11254,
  "▁ምሕደራ": 11255,
  "▁ብተደጋጋሚ": 11256,
  "▁በዓላት": 11257,
  "▁የአምላክን": 11258,
  "▁ሕፃን": 11259,
  "-4": 11260,
  "ቂዎች": 11261,
  "ኑይ": 11262,
  "ደትን": 11263,
  "▁ሎም": 11264,
  "▁በአን": 11265,
  "▁ዚግበር": 11266,
  "▁ለይትን": 11267,
  "▁ኣረጋጊ": 11268,
  "በያ": 11269,
  "ትለት": 11270,
  "▁መሃል": 11271,
  "▁ተግ": 11272,
  "▁ታገኛ": 11273,
  "ግባባት": 11274,
  "▁ንሓዋሩ": 11275,
  "▁ልቦና": 11276,
  "▁በመጽሐፍ": 11277,
  "▁ጸው": 11278,
  "▁ሽልማ": 11279,
  "▁ርእሰይ": 11280,
  "▁ጌታችን": 11281,
  "▁ባዕሎም": 11282,
  "▁ምህላዉ": 11283,
  "▁ኣበርክቶ": 11284,
  "'ሲ": 11285,
  "ሰሰ": 11286,
  "▁ይወስድ": 11287,
  "▁ስማዕ": 11288,
  "▁ዘወትር": 11289,
  "▁ፍራ": 11290,
  "ሪያው": 11291,
  "▁ቤተ-": 11292,
  "ርባን": 11293,
  "▁በሌሊት": 11294,
  "▁ይቀበ": 11295,
  "▁ማህበረ": 11296,
  "▁ዓሰርተው": 11297,
  "25": 11298,
  "ፅን": 11299,
  "▁የሥ": 11300,
  "▁ዝወደ": 11301,
  "▁ወብ": 11302,
  "ለሁ,": 11303,
  "▁ዘሎ፡": 11304,
  "▁ነብያት": 11305,
  "▁ወረርሽ": 11306,
  "ሰጣቸው": 11307,
  "▁ጨረቃ": 11308,
  "ዙት": 11309,
  "▁በምር": 11310,
  "▁አዝና": 11311,
  "▁የኑ": 11312,
  "▁ልባ": 11313,
  "▁ጽሒ": 11314,
  "ፈርዖን": 11315,
  "▁በጉጉት": 11316,
  "▁ጻድቕ": 11317,
  "▁ጣልቃ": 11318,
  "AD": 11319,
  "ራቸውን": 11320,
  "ካከለ": 11321,
  "▁በእን": 11322,
  "▁እንደሚሰራ": 11323,
  "▁ተፈጺ": 11324,
  "▁ተበግሶ": 11325,
  "▁ኣዕሩኽ": 11326,
  "▁ህንዲ": 11327,
  "▁ፍጥረታት": 11328,
  "▁ፍልስጥኤማውያን": 11329,
  "▁ለዚያ": 11330,
  "▁ሊብያ": 11331,
  "▁ክትባት": 11332,
  "▁ከአምላክ": 11333,
  "▁ኣዝያ": 11334,
  "▁በጺሑ": 11335,
  "ካስ": 11336,
  "ኳቸው": 11337,
  "▁የብሎ": 11338,
  "▁ነፈርቲ": 11339,
  "▁ካሲኖ": 11340,
  "▁2ይ": 11341,
  "▁እምባ": 11342,
  "ናንስ": 11343,
  "▁ኃጢኣት": 11344,
  "▁ተጠር": 11345,
  "ታቸውም": 11346,
  "▁የሌለው": 11347,
  "▁እነዚያም": 11348,
  "▁ኣምልኾ": 11349,
  "ke": 11350,
  "ናሕ": 11351,
  "ጊዎች": 11352,
  "▁ኣዘራ": 11353,
  "▁ንታ": 11354,
  "▁ወራ": 11355,
  "▁ስመይ": 11356,
  "▁ለመለ": 11357,
  "▁ነበር\"": 11358,
  "ሳተፍቲ": 11359,
  "▁ሕጻን": 11360,
  "ዎታለን": 11361,
  "▁ነውን?": 11362,
  "▁አመስጋ": 11363,
  "ly": 11364,
  "ሑን": 11365,
  "ኢሉ": 11366,
  "▁እርግ": 11367,
  "▁ዚው": 11368,
  "▁ኣለኹም": 11369,
  "ኻእለ": 11370,
  "ጻዕቲ": 11371,
  "▁ምተ": 11372,
  "▁ክሲ": 11373,
  "▁ነህ?": 11374,
  "▁በመጨረሻው": 11375,
  "ርግጋጽ": 11376,
  "▁ርግጸኛ": 11377,
  "▁ይግበ": 11378,
  "▁እናያ": 11379,
  "▁ድኅ": 11380,
  "▁በተለምዶ": 11381,
  "መለከ": 11382,
  "▁ሰማእ": 11383,
  "▁Windows": 11384,
  "▁የሚሰጡ": 11385,
  "▁የሙዚቃ": 11386,
  "▁ዕለታዊ": 11387,
  "ኣትና": 11388,
  "▁ትኽእሉ።": 11389,
  "▁በአየር": 11390,
  "▁ምንባብ": 11391,
  "▁ሆኜ": 11392,
  "▁በሚያስ": 11393,
  "▁ከእነርሱም": 11394,
  "▁ይኖሩ": 11395,
  "▁ምብጻሕ": 11396,
  "▁ክምር": 11397,
  "▁ገላ": 11398,
  "▁ፈጣ": 11399,
  "▁ነበር!": 11400,
  "▁ተመሪ": 11401,
  "▁እትርከብ": 11402,
  "▁ነበሩ.": 11403,
  "▁ሩሲያ": 11404,
  "▁አልቻለም": 11405,
  "ሮታ": 11406,
  "ተዋል.": 11407,
  "ዩኒ": 11408,
  "▁ኣመና": 11409,
  "▁የሰራ": 11410,
  "▁ብደረጃ": 11411,
  "▁ጸበባ": 11412,
  "▁ምድላው": 11413,
  "ተረ": 11414,
  "▁ኣውሮጳ": 11415,
  "▁ማጣ": 11416,
  "▁ድሒ": 11417,
  "▁ክትዕ": 11418,
  "▁ብርክት": 11419,
  "▁ንስኻን": 11420,
  "▁ዕድሚ": 11421,
  "ቀጥታ": 11422,
  "▁ቪዲዮዎች": 11423,
  "ቕጢ": 11424,
  "ኝ.": 11425,
  "▁ዘዕ": 11426,
  "▁ዘይክ": 11427,
  "▁ጸጥ": 11428,
  "▁400": 11429,
  "▁ማሕበረ": 11430,
  "ኣንስትዮ": 11431,
  "▁ሠራዊት": 11432,
  "▁ኣይክእልን።": 11433,
  "▁ዕብየት": 11434,
  "▁ነፋሪት": 11435,
  "▁መምህራን": 11436,
  "ጓስ": 11437,
  "▁ኣመራ": 11438,
  "▁አሎ።": 11439,
  "▁ዓሊ": 11440,
  "▁አንደኛ": 11441,
  "▁55": 11442,
  "▁ተገረ": 11443,
  "▁ከለና": 11444,
  "▁ከእርሱም": 11445,
  "17": 11446,
  "ቴም": 11447,
  "▁ተዕለት": 11448,
  "▁ለዓ": 11449,
  "▁ያጠፋ": 11450,
  "▁የአይ": 11451,
  "▁መጠንቀ": 11452,
  "ርእይዎ": 11453,
  "ጠራው": 11454,
  "ኾኑን": 11455,
  "▁ስራዎች": 11456,
  "▁ለማሳካት": 11457,
  "▁ቓላት": 11458,
  "ሃይማኖት": 11459,
  "▁ፕሬዝዳንት": 11460,
  "መሙ": 11461,
  "ቸስኮ": 11462,
  "▁ኣይፈ": 11463,
  "▁ቅሩብ": 11464,
  "▁ፈረስ": 11465,
  "▁እስር": 11466,
  "ውልድ": 11467,
  "▁ክህብ": 11468,
  "▁ሓቢርና": 11469,
  "ልቶ": 11470,
  "ሬው": 11471,
  "በሰ": 11472,
  "▁ካሳ": 11473,
  "▁አይኮነ": 11474,
  "▁ዕጣ": 11475,
  "▁ቅድመይ": 11476,
  "▁(አስታውስ": 11477,
  "▁ብዝተፈላለየ": 11478,
  "ሞም።": 11479,
  "▁ሃሳ": 11480,
  "▁ዚገልጽ": 11481,
  "▁ሞኝ": 11482,
  "▁መዝና": 11483,
  "ለመደው": 11484,
  "▁ብብዝሒ": 11485,
  "ዕራ": 11486,
  "ደጉ": 11487,
  "▁የሁሉም": 11488,
  "▁ተጠና": 11489,
  "▁ትሑት": 11490,
  "ክኒክ": 11491,
  "ጋችሁ": 11492,
  "▁ከዓለም": 11493,
  "▁ከነዚህ": 11494,
  "▁\"ኦ": 11495,
  "▁\"ምስ": 11496,
  "ለሁ፥": 11497,
  "ነበረበት": 11498,
  "ክርስትያን": 11499,
  "▁ትኸውን።": 11500,
  "ሳል።": 11501,
  "ዎን።": 11502,
  "ጥበብ": 11503,
  "▁እጆች": 11504,
  "▁የረጅም": 11505,
  "▁ዘላ።": 11506,
  "▁ናይ'ዚ": 11507,
  "▁ኣየድል": 11508,
  "▁ጐይታና": 11509,
  "▁ቈልዓ": 11510,
  "▁ለካቲት": 11511,
  "ውቀ": 11512,
  "ዕራብ": 11513,
  "ጉስ": 11514,
  "ፍጥረት": 11515,
  "▁ቄ": 11516,
  "▁ይደር": 11517,
  "▁ተጠቀም": 11518,
  "▁አባቶች": 11519,
  "ረጋግጽ": 11520,
  "▁ወጥቶ": 11521,
  "▁ለበዳ": 11522,
  "ታንያ": 11523,
  "ውዒ": 11524,
  "▁እደሊ": 11525,
  "▁ሰሜ": 11526,
  "▁የሚፈልግ": 11527,
  "▁ገፅ": 11528,
  "▁ለመመልከት": 11529,
  "▁ሊታ": 11530,
  "▁'ተ": 11531,
  "▁ሙቀት": 11532,
  "▁ንምድሪ": 11533,
  "ine": 11534,
  "▁ዝቐረበ": 11535,
  "80": 11536,
  "ቃሉ።": 11537,
  "ቶ፡": 11538,
  "▁የሠ": 11539,
  "▁ብብዙሕ": 11540,
  "▁ወይ?": 11541,
  "▁የእናንተ": 11542,
  "▁ወንድሜ": 11543,
  "▁ንዘሎ": 11544,
  "▁መንግስታዊ": 11545,
  "ብላት": 11546,
  "▁]": 11547,
  "▁ኣይበ": 11548,
  "ሁለቱ": 11549,
  "▁መናእሰይ": 11550,
  "▁ንባዕሉ": 11551,
  "▁ማነው?": 11552,
  "▁መቸም": 11553,
  "ምረት": 11554,
  "▁ዝማ": 11555,
  "▁ተኝ": 11556,
  "▁ተርእዮ": 11557,
  "▁ዛጊት": 11558,
  "▁ይዘው": 11559,
  "▁ዀነ፡": 11560,
  "▁ሀሳቦች": 11561,
  "▁ጠፊኡ": 11562,
  "▁ኣገልጋሊ": 11563,
  "ኢቱ": 11564,
  "ዕ፡": 11565,
  "▁ይውሰ": 11566,
  "▁ክክክ": 11567,
  "▁ትነብር": 11568,
  "▁ዝተጠቕ": 11569,
  "▁ኣለኩም።": 11570,
  "ስትዮን": 11571,
  "'ዚ፡": 11572,
  "▁ሐዋርያት": 11573,
  "▁ደቀይ": 11574,
  "▁እህት": 11575,
  "ጽአ": 11576,
  "▁እቃ": 11577,
  "▁መቻል": 11578,
  "▁ብሔር": 11579,
  "▁ብግዜ": 11580,
  "ቧል": 11581,
  "ዛም": 11582,
  "▁ኣውራጃ": 11583,
  "ደንበኞች": 11584,
  "ንጋ": 11585,
  "▁በጨለማ": 11586,
  "▁አድራሻ": 11587,
  "▁የሸ": 11588,
  "▁የህይወት": 11589,
  "▁ከፊት": 11590,
  "▁ዝገልጽ": 11591,
  "▁ያቀርባ": 11592,
  "▁መጠቀ": 11593,
  "▁ኣስዒ": 11594,
  "▁ፓርክ": 11595,
  "▁ዝርርብ": 11596,
  "▁ተመልከ": 11597,
  "▁ማሳየት": 11598,
  "▁(አስታውስ)": 11599,
  "ብት": 11600,
  "ኣካ": 11601,
  "ፍሉ": 11602,
  "▁and": 11603,
  "▁መኪ": 11604,
  "▁ንርአ።": 11605,
  "▁ጽብ": 11606,
  "▁65": 11607,
  "▁ይታወቃ": 11608,
  "▁ያገኛሉ": 11609,
  "▁የኤሌክትሪክ": 11610,
  "▁በጋራ": 11611,
  "▁ዝፈር": 11612,
  "▁ተለዋ": 11613,
  "▁የሚወ": 11614,
  "▁የአፍሪካ": 11615,
  "▁መብጽዓ": 11616,
  "▁የስፖርት": 11617,
  "▁አደረገ።": 11618,
  "ሪያን": 11619,
  "▁ይከተ": 11620,
  "▁ባቡ": 11621,
  "▁እንዳላቸው": 11622,
  "ለይ፡": 11623,
  "▁ዘንድ.": 11624,
  "▁በለቶ።": 11625,
  "▁እስኪያ": 11626,
  "▁ርግጽ": 11627,
  "▁ይጀምራል": 11628,
  "ኮታዊ": 11629,
  "ደራል": 11630,
  "▁←": 11631,
  "▁ከግምት": 11632,
  "▁ኣይሰ": 11633,
  "ላትኩም": 11634,
  "▁ብምም": 11635,
  "▁ድሕሪኡ፡": 11636,
  "ጠራጥር": 11637,
  "▁ክፉት": 11638,
  "▁New": 11639,
  "▁ስዊዘርላንድ": 11640,
  "ፍጽም": 11641,
  "▁ተቆጣ": 11642,
  "▁ዘመኑ": 11643,
  "▁ትሓ": 11644,
  "▁ባት": 11645,
  "▁አሉ,": 11646,
  "▁ገሊፆ": 11647,
  "▁ፍቓደኛ": 11648,
  "ዘራረብ": 11649,
  "መጨረሻ": 11650,
  "ሰቃ": 11651,
  "ዩተር": 11652,
  "▁ማያ": 11653,
  "▁ሞክ": 11654,
  "▁ቁሳቁ": 11655,
  "▁እናም,": 11656,
  "ረኸበ": 11657,
  "▁ደብዳበ": 11658,
  "ተመ": 11659,
  "ከዚያም": 11660,
  "ወዝ": 11661,
  "▁ብየ": 11662,
  "▁ዝህብ": 11663,
  "▁ጋራ": 11664,
  "▁ዕም": 11665,
  "▁መርሃ": 11666,
  "▁\"እንታይ": 11667,
  "ቁ.": 11668,
  "ኳኑ": 11669,
  "ግሮ": 11670,
  "▁ብከ": 11671,
  "▁የሚመጡ": 11672,
  "▁ስምም": 11673,
  "ክእሉ": 11674,
  "▁ተመልሰው": 11675,
  "▁ጀመርኩ።": 11676,
  "ን፤": 11677,
  "ዳችሁ": 11678,
  "ጋንዳ": 11679,
  "▁ክሳ": 11680,
  "▁ዘጠኝ": 11681,
  "▁በመጣ": 11682,
  "▁በተያያዘ": 11683,
  "▁'አ": 11684,
  "▁ጀግና": 11685,
  "▁ቤተይ": 11686,
  "▁የባለ": 11687,
  "▁ማጥናት": 11688,
  "▁ደቀንስትዮ": 11689,
  "▁አይቻልም": 11690,
  "ኩኹም": 11691,
  "ደመ": 11692,
  "ዳግ": 11693,
  "▁የሕግ": 11694,
  "▁ይዋ": 11695,
  "▁ኣለኒ": 11696,
  "▁አስከ": 11697,
  "▁ቅድስት": 11698,
  "▁ከምዝኽእል": 11699,
  "▁ባለመ": 11700,
  "ረምት": 11701,
  "▁ጓደኛዬ": 11702,
  "▁ባለቤቶች": 11703,
  "ቓሕ": 11704,
  "ኣ።": 11705,
  "ክዕ": 11706,
  "▁መፈ": 11707,
  "▁እንደምና": 11708,
  "▁ዕማም": 11709,
  "▁ለምሳሌ,": 11710,
  "▁ተከታዮች": 11711,
  "|3": 11712,
  "▁እኒ": 11713,
  "▁ብሂ": 11714,
  "▁ርዝ": 11715,
  "ምህሮ": 11716,
  "▁አጋማሽ": 11717,
  "▁ፕሮጀክቶች": 11718,
  "▁አዝማ": 11719,
  "qu": 11720,
  "ሆም": 11721,
  "ለቆ": 11722,
  "የውን": 11723,
  "ፎቶ": 11724,
  "▁በሆኑ": 11725,
  "▁ተከተ": 11726,
  "▁(ወይም": 11727,
  "ትን፡": 11728,
  "▁ለመጎብኘት": 11729,
  "▁ሰውም": 11730,
  "▁ከይዲ": 11731,
  "▁Tag": 11732,
  "▁ዘመነ": 11733,
  "▁የሚሰጥ": 11734,
  "▁በሳምንት": 11735,
  "ረዝ": 11736,
  "ፋኑ": 11737,
  "▁መደረ": 11738,
  "▁ዓድና": 11739,
  "▁ኪኸ": 11740,
  "▁ዘሎኹ": 11741,
  "ግባብ": 11742,
  "▁ረቡዕ": 11743,
  "▁ኣልዒ": 11744,
  "ተፍ": 11745,
  "ዴራል": 11746,
  "▁በኃ": 11747,
  "▁ቀትሪ": 11748,
  "▁ነገርን": 11749,
  "▁'ከ": 11750,
  "▁ነይራ": 11751,
  "▁ታሪኮች": 11752,
  "▁ፍራንቸስኮ": 11753,
  "ሽት": 11754,
  "ጻወት": 11755,
  "▁የሙያ": 11756,
  "▁ሕራይ": 11757,
  "▁ምንጮች": 11758,
  "መልሰ": 11759,
  "▁አስፈላጊነት": 11760,
  "▁ኲሎም": 11761,
  "▁ኢኹም፡": 11762,
  "▁ማስተዋል": 11763,
  "▁(ማቴዎስ": 11764,
  "ደሰቱ": 11765,
  "▁ኣይነበሮን።": 11766,
  "ካ?": 11767,
  "ጎል": 11768,
  "▁ነፋስ": 11769,
  "▁ህጎች": 11770,
  "▁ለመከላከል": 11771,
  "▁ኣምላኽካ": 11772,
  "▁መቃብር": 11773,
  "ላሴ": 11774,
  "ረኩም": 11775,
  "ግቡ": 11776,
  "▁፴": 11777,
  "▁ኣቃ": 11778,
  "▁ሓሚ": 11779,
  "በልዑ": 11780,
  "▁ሙያ": 11781,
  "▁አውቀ": 11782,
  "▁ታውቃለህ": 11783,
  "▁ይሰጣል።": 11784,
  "ለ፡": 11785,
  "▁መኸ": 11786,
  "▁እንታ": 11787,
  "▁ግበሩ": 11788,
  "▁ደቓይ": 11789,
  "▁ስለምን": 11790,
  "▁ለመሞከር": 11791,
  "▁ጠቕ": 11792,
  "▁እናንተን": 11793,
  "▁ይሰጠ": 11794,
  "▁ካንሰር": 11795,
  "▁ካቶሊ": 11796,
  "ሙኒ": 11797,
  "ምን።": 11798,
  "ድይ": 11799,
  "▁ፉ": 11800,
  "▁በበለጠ": 11801,
  "▁ቀዝቃዛ": 11802,
  "▁የተሟላ": 11803,
  "▁ጸሓፍ": 11804,
  "ብራሂ": 11805,
  "▁ወጋሕታ": 11806,
  "ሯዊ": 11807,
  "ኅን": 11808,
  "ጠፈ": 11809,
  "▁e": 11810,
  "▁አሏቸው": 11811,
  "▁ሰኔ": 11812,
  "▁ያውቅ": 11813,
  "▁ኩናት": 11814,
  "ፈልጋቸው": 11815,
  "▁በዚያው": 11816,
  "▁ኣካይዳ": 11817,
  "▁አምልኮ": 11818,
  "▁ተሰሚዑ": 11819,
  "ርፎ": 11820,
  "ግዒ": 11821,
  "▁ደስተኞች": 11822,
  "▁የሚሰማ": 11823,
  "▁ክትሓ": 11824,
  "▁ውድድ": 11825,
  "▁የነበራ": 11826,
  "▁የሚመጣው": 11827,
  "ሰሳ": 11828,
  "ንቂ": 11829,
  "ዱር": 11830,
  "▁በቶም": 11831,
  "▁አረጋግ": 11832,
  "▁ብሚ": 11833,
  "▁ናችሁ።": 11834,
  "▁የሚገኘው": 11835,
  "▁ክንርኢ": 11836,
  "▁ጣዖ": 11837,
  "▁ኣመሓ": 11838,
  "ጫወቱ": 11839,
  "▁የደህንነት": 11840,
  "▁ብውሑ": 11841,
  "▁ግዝኣት": 11842,
  "በበ": 11843,
  "ቡኒ": 11844,
  "ጣቸው።": 11845,
  "▁ይኑ": 11846,
  "▁ዘኽእል": 11847,
  "▁ይህል": 11848,
  "▁አልፈ": 11849,
  "▁ርኣ": 11850,
  "▁ክንቅ": 11851,
  "▁ቴሌቪዥን": 11852,
  "▁ማስቀመጥ": 11853,
  "▁እንዳለባቸው": 11854,
  "ገነይ": 11855,
  "▁ፍጻመ": 11856,
  "▁ውሑድ": 11857,
  "▁አፈፃፀ": 11858,
  "ኩሞ": 11859,
  "ውታ": 11860,
  "ውም።": 11861,
  "▁እራሳቸውን": 11862,
  "▁ነሓሰ": 11863,
  "▁እናስ": 11864,
  "ለሁ!": 11865,
  "▁ለማሸነፍ": 11866,
  "መስረት": 11867,
  "ከልቲ": 11868,
  "▁ይሻላል": 11869,
  "▁ንኡስ": 11870,
  "ስሕ": 11871,
  "ውቀት": 11872,
  "ዳጅ": 11873,
  "ጋብቻ": 11874,
  "▁ለሕዝቡ": 11875,
  "▁ከምን": 11876,
  "▁የተስፋ": 11877,
  "▁ዘይኮ": 11878,
  "▁ኣነውን": 11879,
  "▁ይሆናሉ።": 11880,
  "▁የሆኑት": 11881,
  "▁ቀርቶ": 11882,
  "▁ወያኔ": 11883,
  "▁ወኪል": 11884,
  "መቅ": 11885,
  "ኖቼ": 11886,
  "ክበር": 11887,
  "ዋለን": 11888,
  "▁ይቅ": 11889,
  "▁ክውን": 11890,
  "▁ውስን": 11891,
  "▁አልጋ": 11892,
  "▁ይጠራ": 11893,
  "በላሸ": 11894,
  "▁\"ኣምላኽ": 11895,
  "▁አንዳንዴ": 11896,
  "▁ብዘይካዚ፡": 11897,
  "▁ፊልሞች": 11898,
  "ችውን": 11899,
  "ግባት": 11900,
  "▁ሕብረተ": 11901,
  "▁ለማንም": 11902,
  "▁ንኣቦ": 11903,
  "▁ለጥቂት": 11904,
  "▁ዮርዳኖስ": 11905,
  "ላጅ": 11906,
  "ሽተይ": 11907,
  "ተኣ": 11908,
  "ዕቢ": 11909,
  "ደቱ": 11910,
  "▁የሕዝብ": 11911,
  "▁ንሙሴ": 11912,
  "▁ሃገሮም": 11913,
  "▁ለመስማት": 11914,
  "▁መረፃ": 11915,
  "▁ብዘየገድስ": 11916,
  "ment": 11917,
  "ሆች": 11918,
  "ነግራ": 11919,
  "ጾም።": 11920,
  "▁የብለ": 11921,
  "▁መሕ": 11922,
  "▁ነዉ።": 11923,
  "▁ከዚያን": 11924,
  "▁እዚያው": 11925,
  "▁ኣሎኒ።": 11926,
  "▁ቃንዛ": 11927,
  "▁አስተናጋ": 11928,
  "ርፊ": 11929,
  "ዷል": 11930,
  "ገሱ": 11931,
  "▁ማቴዎስ": 11932,
  "▁ኣይኣ": 11933,
  "▁አይሰ": 11934,
  "▁ዘይብ": 11935,
  "▁አንስቶ": 11936,
  "▁ጠበ": 11937,
  "▁የመረጃ": 11938,
  "▁ኢና፡": 11939,
  "▁ዝግበ": 11940,
  "ራሳችንን": 11941,
  "▁ዴሞክራሲ": 11942,
  "▁ጠቅላይ": 11943,
  "እምማን": 11944,
  "▁መትከል": 11945,
  "▁ዳይሬ": 11946,
  "▁አዲሱን": 11947,
  "ወሉ": 11948,
  "▁ይጸል": 11949,
  "▁ምቁ": 11950,
  "▁ዝሰርሑ": 11951,
  "▁ውሸት": 11952,
  "▁ደሃይ": 11953,
  "▁ብርኪ": 11954,
  "▁ንገሩ": 11955,
  "▁ዅሎም": 11956,
  "▁ዝረኸብ": 11957,
  "▁(፪x)": 11958,
  "መጣም": 11959,
  "▁ክርኢ": 11960,
  "▁ትበ": 11961,
  "▁ያለም": 11962,
  "▁1)": 11963,
  "▁አለን።": 11964,
  "▁ጽኑዕ": 11965,
  "▁ጠው": 11966,
  "▁እውነቱ": 11967,
  "ሃል፤": 11968,
  "▁ባዕልና": 11969,
  "▁ምኽንያቱ፡": 11970,
  "▁በፈረንሳይ": 11971,
  "ብ፡": 11972,
  "ኣንን": 11973,
  "ገማት": 11974,
  "ጽሎ": 11975,
  "▁ይግብኣ": 11976,
  "▁ክፈት": 11977,
  "▁(ያ": 11978,
  "▁ስምካ": 11979,
  "▁ደቂ-": 11980,
  "▁ጣፋጭ": 11981,
  "ቀዱ": 11982,
  "ነታችን": 11983,
  "ዩና": 11984,
  "ድዎ": 11985,
  "ልካ።": 11986,
  "▁ብሓዊ": 11987,
  "▁ገንዘብን": 11988,
  "▁በዓልቲ": 11989,
  "▁ቶሎ": 11990,
  "ዘሎ": 11991,
  "ጉይ": 11992,
  "▁ከቅርብ": 11993,
  "▁ምላ": 11994,
  "▁ተሳተፍቲ": 11995,
  "▁ሕሰብ": 11996,
  "▁ካብዞም": 11997,
  "መስሉ": 11998,
  "መልእ": 11999,
  "መልካም": 12000,
  "መርቲ": 12001,
  "ብራራ": 12002,
  "▁ስብከት": 12003,
  "▁አገልግሎቶችን": 12004,
  "▁ሰጥቶ": 12005,
  "ልጡፍ": 12006,
  "▁እንመ": 12007,
  "▁ኢሰያስ": 12008,
  "▁የተገነባ": 12009,
  "▁ቡን": 12010,
  "▁ስደተኞች": 12011,
  "▁ምህላው": 12012,
  "▁የነበሩትን": 12013,
  "▁አድነ": 12014,
  "▁ዝበዝሑ": 12015,
  "Tube": 12016,
  "▁›": 12017,
  "▁ዝደል": 12018,
  "▁ሓጊ": 12019,
  "▁በመተ": 12020,
  "▁ሳንቲ": 12021,
  "ገባው": 12022,
  "▁ጎብ": 12023,
  "ወንታዊ": 12024,
  "▁የቀረበ": 12025,
  "▁ተሪፉ": 12026,
  "ebook": 12027,
  "ኋቸው": 12028,
  "ኻኸ": 12029,
  "ታትኩም": 12030,
  "▁እነርሱን": 12031,
  "▁ተቐባልነት": 12032,
  "▁ያውቃሉ።": 12033,
  "ሕዛ": 12034,
  "ሕድሕ": 12035,
  "▁በጠ": 12036,
  "▁የዛሬ": 12037,
  "▁መተው": 12038,
  "▁ከይወ": 12039,
  "▁ኣብዘን": 12040,
  "▁እናቱ": 12041,
  "▁እንደ.": 12042,
  "▁ክትረኽቡ": 12043,
  "▁ሰውዬ": 12044,
  "▁የማያውቁ": 12045,
  "▁\"አይ": 12046,
  "▁የኢኮኖሚ": 12047,
  "▁ይገኛሉ": 12048,
  "▁መካከለኛ": 12049,
  "ቐስ": 12050,
  "▁ቝ": 12051,
  "▁በሰማያት": 12052,
  "▁ትቕ": 12053,
  "▁ውጊያ": 12054,
  "▁ዓለማዊ": 12055,
  "▁የሚሰራ": 12056,
  "▁የሚመራ": 12057,
  "ጊዜም": 12058,
  "▁ቦታን": 12059,
  "▁ፖለቲከ": 12060,
  "▁ንዝኾነ": 12061,
  "▁ቆይቷል": 12062,
  "▁ምኞት": 12063,
  "▁እገዛ": 12064,
  "▁ብቓ": 12065,
  "▁\"ዓ": 12066,
  "በርግ": 12067,
  "▁ሃና": 12068,
  "▁አንችልም": 12069,
  "▁ተረዲ": 12070,
  "1|": 12071,
  "ry": 12072,
  "ሞታ": 12073,
  "▁ይገድ": 12074,
  "▁ለታ": 12075,
  "▁ፈተ": 12076,
  "▁በተፈጥሮ": 12077,
  "▁ብዘይም": 12078,
  "ወለዱ": 12079,
  "▁መንገዱን": 12080,
  "▁for": 12081,
  "▁Z": 12082,
  "▁2,": 12083,
  "ፈለጠ": 12084,
  "▁ብኣንጻሩ": 12085,
  "▁ከወንድ": 12086,
  "▁ንቕድሚት": 12087,
  "ሳቢ": 12088,
  "▁ይገልጽ።": 12089,
  "▁ንቤት": 12090,
  "▁ክብረት": 12091,
  "▁ሓዋርያት": 12092,
  "▁ዘይኣ": 12093,
  "▁በመቀ": 12094,
  "▁ለማገልገል": 12095,
  "▁በአማ": 12096,
  "▁የሚያደርገው": 12097,
  "▁ግብፅ": 12098,
  "ሰይፍ": 12099,
  "▁ነጥቦች": 12100,
  "▁የዚህን": 12101,
  "ቆጣጠ": 12102,
  "▁ይኖራል።": 12103,
  "▁ርስት": 12104,
  "▁ፓርላማ": 12105,
  "PS": 12106,
  "ይም": 12107,
  "ጨን": 12108,
  "▁ክኣቱ": 12109,
  "▁ስለነበር": 12110,
  "▁ኣንፈት": 12111,
  "▁ስጋት": 12112,
  "▁ፈርዖን": 12113,
  "▁ሰባትን": 12114,
  "-እ": 12115,
  "ባውያን": 12116,
  "▁'ዩ።": 12117,
  "▁ድራር": 12118,
  "▁ሕጽ": 12119,
  "ይወቱ": 12120,
  "▁ሞባይል": 12121,
  "ተንስ": 12122,
  "▁St": 12123,
  "▁የሚሰሩ": 12124,
  "▁መላክ": 12125,
  "▁ታሪካዊ": 12126,
  "ልኩ": 12127,
  "ጋዜ": 12128,
  "፣\"": 12129,
  "▁በሦ": 12130,
  "▁በኦ": 12131,
  "▁የቅ": 12132,
  "▁ማመልከቻ": 12133,
  "▁ደድሕሪ": 12134,
  "▁ስለሌ": 12135,
  "ስፋት": 12136,
  "▁ተቐቲ": 12137,
  "▁ቻር": 12138,
  "ጽዕር": 12139,
  "▁የበላይ": 12140,
  "▁ትምህርትን": 12141,
  "▁እንስሳታት": 12142,
  "_\"": 12143,
  "ለንም": 12144,
  "ላሕ": 12145,
  "መጠ": 12146,
  "ዐት": 12147,
  "▁ግራት": 12148,
  "▁ገመድ": 12149,
  "▁በሚሊዮን": 12150,
  "▁በእርግጥም": 12151,
  "ord": 12152,
  "▁ቐዳማይ": 12153,
  "▁ንብዓት": 12154,
  "ን.": 12155,
  "ዋፍ": 12156,
  "▁የሴት": 12157,
  "▁እናኣ": 12158,
  "▁(ሮሜ": 12159,
  "▁ሓደሽቲ": 12160,
  "▁መጻምድ": 12161,
  "▁ምህረት": 12162,
  "▁መገኘት": 12163,
  "በል።": 12164,
  "የትን": 12165,
  "▁አትፍራ": 12166,
  "ረንጓ": 12167,
  "▁የተሻሉ": 12168,
  "▁ባህሪያት": 12169,
  "ሽ።": 12170,
  "በጥ": 12171,
  "ኩላ": 12172,
  "ደልን": 12173,
  "▁ላል": 12174,
  "▁ክምል": 12175,
  "▁\"\"": 12176,
  "▁(ኣብ": 12177,
  "▁አለብዎ": 12178,
  "▁ዲጂታል": 12179,
  "▁ከምኡ።": 12180,
  "ወደድ": 12181,
  "▁ተፈጸ": 12182,
  "▁ንእስራኤል": 12183,
  "▁2005": 12184,
  "co": 12185,
  "ቆመ": 12186,
  "▁00": 12187,
  "▁መሰው": 12188,
  "▁ፍርሒ": 12189,
  "ህዝቢ": 12190,
  "▁ይመስለኒ።": 12191,
  "▁ቅድሜኻ": 12192,
  "▁የአትክልት": 12193,
  "ሊኡ": 12194,
  "ላቸዋል።": 12195,
  "ሓና": 12196,
  "▁የበረ": 12197,
  "▁ዘድ": 12198,
  "▁እዩ፥": 12199,
  "▁ክንገብሮ": 12200,
  "▁ኮነ።": 12201,
  "▁እመኑ": 12202,
  "▁መገንባት": 12203,
  "▁ማርያ": 12204,
  "▁ለመፍታት": 12205,
  "▁የአእምሮ": 12206,
  "▁ዓይነታት": 12207,
  "ኖርበት": 12208,
  "ከፍል": 12209,
  "▁ፍልል": 12210,
  "▁ድኻታት": 12211,
  "▁ሓለቓ": 12212,
  "▁ድኽነት": 12213,
  "▁መደምደም": 12214,
  "ረኞች": 12215,
  "ያል.": 12216,
  "ጅን": 12217,
  "▁የሲ": 12218,
  "▁ንጐይታ": 12219,
  "▁ያዩ": 12220,
  "▁መጠጥ": 12221,
  "ላለች።": 12222,
  "▁ጨው": 12223,
  "▁ፋይል": 12224,
  "▁ትችላለህ።": 12225,
  "▁ሓለፍቲ": 12226,
  "▁ድራማ": 12227,
  "▁አዝማሚያ": 12228,
  "ሕይወት": 12229,
  "ጋለ": 12230,
  "▁ክትን": 12231,
  "▁ለሆኑ": 12232,
  "▁ኣብዝ": 12233,
  "▁በአዲስ": 12234,
  "▁ምርኮ": 12235,
  "▁ኖህ": 12236,
  "▁ቁጥሮች": 12237,
  "▁ያደርገዋል": 12238,
  "ና.": 12239,
  "ጽጻር": 12240,
  "▁በጀርመን": 12241,
  "▁የደረ": 12242,
  "▁ይስምዓ": 12243,
  "▁ማስታወስ": 12244,
  "▁ፈጽ": 12245,
  "▁እየቀ": 12246,
  "መስልም": 12247,
  "▁ከይደ": 12248,
  "▁ሌላኛው": 12249,
  "▁ሕማማት": 12250,
  "▁በኢትዮጵያ": 12251,
  "ምዎ": 12252,
  "ዛእ": 12253,
  "ፋሕ": 12254,
  "▁@": 12255,
  "▁መዳን": 12256,
  "▁ንኸውን": 12257,
  "▁ተዛረብ": 12258,
  "▁ያንብቡ": 12259,
  "▁ጥንቲ": 12260,
  "▁ጎብኝ": 12261,
  "▁ኢኻ\"": 12262,
  "▁ኣንበብ": 12263,
  "▁ታሪኻዊ": 12264,
  "▁በረከ": 12265,
  "▁ግንኙነቶች": 12266,
  "ገብረሉ": 12267,
  "▁ጥንሲ": 12268,
  "acebook": 12269,
  "▁ደጋፊ": 12270,
  "▁ኣመንቲ": 12271,
  "ፎ።": 12272,
  "▁የሆ": 12273,
  "▁ክነግረ": 12274,
  "▁ኣይከ": 12275,
  "▁(3": 12276,
  "▁ርአ።": 12277,
  "▁ቪዲዮዎችን": 12278,
  "▁ዕለተ": 12279,
  "▁እያንዳንዳቸው": 12280,
  "▁ያስፈልግዎታል": 12281,
  "▁ደቓይቕ": 12282,
  "ላቁ": 12283,
  "ሽጢ": 12284,
  "ቆዩ": 12285,
  "ተራ": 12286,
  "ውሉ": 12287,
  "ዑዲ": 12288,
  "▁ትኽእ": 12289,
  "▁የሚወድ": 12290,
  "▁ካብኣ": 12291,
  "▁ዝተረፉ": 12292,
  "ላችሁን": 12293,
  "▁ኵናት": 12294,
  "ሙሉእ": 12295,
  "ህበኩም": 12296,
  "▁ደንብ": 12297,
  "▁የሚፈልጉት": 12298,
  "▁ኣጽዋር": 12299,
  "▁Play": 12300,
  "ዝራ": 12301,
  "ጳውሎ": 12302,
  "▁ስሩዕ": 12303,
  "ግዚኣብሔር": 12304,
  "▁እተቐ": 12305,
  "ማንነት": 12306,
  "▁ትርፍ": 12307,
  "▁አሳየ": 12308,
  "ዳምነት": 12309,
  "▁ንደቀ": 12310,
  "ረንጓዴ": 12311,
  "TV": 12312,
  "ሁትን": 12313,
  "ላለን": 12314,
  "ዘገ": 12315,
  "ዚኡ": 12316,
  "ዝብ": 12317,
  "▁እቶት": 12318,
  "▁ምስዚ": 12319,
  "▁ፖር": 12320,
  "ጀመርታ": 12321,
  "ርብዓ": 12322,
  "▁ተኣኪ": 12323,
  "▁ዝቕጽል": 12324,
  "▁ተወልደ": 12325,
  "ኧረ": 12326,
  "ፋ።": 12327,
  "▁የዲ": 12328,
  "▁ከግብፅ": 12329,
  "▁ዝሞቱ": 12330,
  "▁(C": 12331,
  "ንተን": 12332,
  "▁ኮሪያ": 12333,
  "▁ያስባ": 12334,
  "▁በምንም": 12335,
  "▁ፊደ": 12336,
  "▁ሊያደርግ": 12337,
  "▁\"የአ": 12338,
  "▁ሳይንሳዊ": 12339,
  "▁ሰበይቱ": 12340,
  "▁ነዳዲ": 12341,
  "▁you": 12342,
  "ዋና": 12343,
  "ገበሩ": 12344,
  "▁በገዛ": 12345,
  "▁ኔርና።": 12346,
  "▁ኣሕመድ": 12347,
  "▁ዘጋጠ": 12348,
  "▁የተባበሩት": 12349,
  "▁ንበይኑ": 12350,
  "ማማት": 12351,
  "ሳትን": 12352,
  "ኛውን": 12353,
  "ፃሚ": 12354,
  "ፅር": 12355,
  "፧'": 12356,
  "▁ወሊ": 12357,
  "▁ትህ": 12358,
  "▁በእጃ": 12359,
  "▁ዕግ": 12360,
  "መስገን": 12361,
  "▁ህዝቢ፡": 12362,
  "▁ዝነበሮም": 12363,
  "▁ኰይኖም": 12364,
  "▁ይሰማኛል": 12365,
  "▁ተሓቢሩ።": 12366,
  "ዎትን": 12367,
  "▁ሰረገ": 12368,
  "▁ጥሜት": 12369,
  "▁ጊዜ።": 12370,
  "▁የተናገረው": 12371,
  "ለውም": 12372,
  "▁Ch": 12373,
  "▁የምንችለው": 12374,
  "▁ኣካላዊ": 12375,
  "▁ዘርፍ": 12376,
  "▁ብዓይ": 12377,
  "▁የቴክኖሎጂ": 12378,
  "ምባሲ": 12379,
  "▁አቋም": 12380,
  "ማኝነት": 12381,
  "ጮችን": 12382,
  "▁ብኹሉ": 12383,
  "▁ኢጣል": 12384,
  "▁ጸል": 12385,
  "▁አዎ,": 12386,
  "▁ዲፕሎማ": 12387,
  "ካን።": 12388,
  "ጭሩ": 12389,
  "ፌሶን": 12390,
  "▁k": 12391,
  "▁ቺ": 12392,
  "▁ከጎ": 12393,
  "▁ይብሎ": 12394,
  "▁ብድሕ": 12395,
  "▁ውላ": 12396,
  "▁ተመላለ": 12397,
  "ወንጀ": 12398,
  "▁ኢኹም\"": 12399,
  "▁የካቲት": 12400,
  "▁በእውነተኛ": 12401,
  "▁አሥራ": 12402,
  "▁ክፋት": 12403,
  "▁ማለፍ": 12404,
  "▁ሓደራ": 12405,
  "▁ግዜን": 12406,
  "ታውቅ": 12407,
  "▁በልጅ": 12408,
  "▁እስራኤል፡": 12409,
  "▁ምጥቃም": 12410,
  "▁የተወለደው": 12411,
  "▁ንንጉስ": 12412,
  "▁ዓርከይ": 12413,
  "ምንም": 12414,
  "ኗኗ": 12415,
  "ዲሙ": 12416,
  "ዳዩ": 12417,
  "ጲላ": 12418,
  "▁ዝሐ": 12419,
  "▁ሓመድ": 12420,
  "▁ላይሆን": 12421,
  "▁ውስጥም": 12422,
  "▁ህው": 12423,
  "▁በአዲሱ": 12424,
  "▁አልገባ": 12425,
  "▁የምፈልገው": 12426,
  "▁ነበረ፡": 12427,
  "▁አሮጌ": 12428,
  "▁መግዛእቲ": 12429,
  "ሞክር": 12430,
  "ሳሉ": 12431,
  "ዎ፣": 12432,
  "ደበት": 12433,
  "▁አሞ": 12434,
  "▁የሉም": 12435,
  "▁ከግ": 12436,
  "▁ሓልዮ": 12437,
  "ብዛዕባ": 12438,
  "▁አልቻሉም": 12439,
  "ww": 12440,
  "▁የጠፋ": 12441,
  "▁ዘኽ": 12442,
  "▁ደቆም": 12443,
  "▁ነበረች።": 12444,
  "▁ክርክር": 12445,
  "▁ዝምልከ": 12446,
  "▁ከምቶም": 12447,
  "▁ኣይሕ": 12448,
  "▁ባየ": 12449,
  "▁ቤቴ": 12450,
  "ነው፤": 12451,
  "ሰንበት": 12452,
  "▁\"አሁን": 12453,
  "ቀጥል": 12454,
  "ገኝም": 12455,
  "▁በዓመት": 12456,
  "▁ጕድ": 12457,
  "▁ባንኪ": 12458,
  "▁ኣይኮንኩን።": 12459,
  "▁ስሙን": 12460,
  "▁ዘመድ": 12461,
  "▁ያጣ": 12462,
  "ነት።": 12463,
  "▁ማስጠንቀቂያ": 12464,
  "▁ስላለው": 12465,
  "ስራኤላውያን": 12466,
  "▁ነጋዴዎች": 12467,
  "ሐጕ": 12468,
  "ቸት": 12469,
  "ጠቀመ": 12470,
  "▁Q": 12471,
  "▁ዜማ": 12472,
  "ችኋል፤": 12473,
  "ፈልጦን": 12474,
  "ከባቢው": 12475,
  "▁መስፈርቶች": 12476,
  "ሀን": 12477,
  "ቡም": 12478,
  "▁የኛ": 12479,
  "▁ኢ-": 12480,
  "▁በዚሁ": 12481,
  "▁ዩክሬን": 12482,
  "▁ጥምቀት": 12483,
  "▁የተሳሳተ": 12484,
  "▁ይርከቡ።": 12485,
  "ማቾች": 12486,
  "▁የተሰጠው": 12487,
  "ለምንታይ": 12488,
  "▁የፕሮ": 12489,
  "▁ትኹ": 12490,
  "▁ጸቕጢ": 12491,
  "▁ረዳት": 12492,
  "▁ምሕሳብ": 12493,
  "▁ምሳታቶም": 12494,
  "▁ኣውስት": 12495,
  "▁አውሮፕላ": 12496,
  "ሃህላ": 12497,
  "ኞቹን": 12498,
  "ዓዪ": 12499,
  "▁ኣያ": 12500,
  "▁ኣንስ": 12501,
  "▁ተገዲ": 12502,
  "▁ልኢ": 12503,
  "በር።": 12504,
  "▁መሰና": 12505,
  "▁ጎደና": 12506,
  "▁ክርስቶስን": 12507,
  "▁ቀዳሚ": 12508,
  "▁ይበሃል።": 12509,
  "▁ተልእኮ": 12510,
  "60": 12511,
  "ሁት።": 12512,
  "ቂኝ": 12513,
  "ቆብን": 12514,
  "ጠጡ": 12515,
  "▁እራት": 12516,
  "▁በወር": 12517,
  "▁ከሲ": 12518,
  "▁ብነጻ": 12519,
  "▁ያያ": 12520,
  "▁ቀረብ": 12521,
  "▁ዚነብር": 12522,
  "▁ቁፅ": 12523,
  "ርከስ": 12524,
  "▁ማስወገድ": 12525,
  "▁መግለፂ": 12526,
  "▁መነሻ": 12527,
  "▁ጻዕዳ": 12528,
  "▁የእርሱን": 12529,
  "▁ትሕትና": 12530,
  "▁መገለጫ": 12531,
  "ተካ": 12532,
  "ነቲ": 12533,
  "▁ለመለወጥ": 12534,
  "▁ህይወቶም": 12535,
  "ቡጥ": 12536,
  "ጋገብ": 12537,
  "በልኩም": 12538,
  "▁ኣንበሳ": 12539,
  "ናገሩት": 12540,
  "▁ድምፂ": 12541,
  "▁ወከፍና": 12542,
  "▁ዅነታት": 12543,
  "▁<<": 12544,
  "ን!": 12545,
  "ፈርት": 12546,
  "▁በጊዜ": 12547,
  "▁የጭ": 12548,
  "▁ክንዳ": 12549,
  "▁ራስን": 12550,
  "▁ምድብ": 12551,
  "▁መጻእ": 12552,
  "▁ኣእዳው": 12553,
  "▁እንተዘይኮይኑ": 12554,
  "▁ዳዊትን": 12555,
  "13": 12556,
  "ሸጡ": 12557,
  "ቐል": 12558,
  "ከብራ": 12559,
  "▁መጨመር": 12560,
  "▁ከመን": 12561,
  "▁ብጉ": 12562,
  "▁ምነው": 12563,
  "▁ደሴ": 12564,
  "▁ልጥፍ": 12565,
  "▁ጥገና": 12566,
  "▁ፍን": 12567,
  "▁ለመዋ": 12568,
  ":27": 12569,
  "if": 12570,
  "ቤቴ": 12571,
  "▁በሜ": 12572,
  "▁ብግብሪ": 12573,
  "▁ገዢ": 12574,
  "▁ባሉት": 12575,
  "▁(S": 12576,
  "▁ሰብነት": 12577,
  "▁የአለም": 12578,
  "ሮም፡": 12579,
  "▁ለአን": 12580,
  "▁ኣገዳስነት": 12581,
  "▁ቀጥሎ": 12582,
  "▁አግኝቷል": 12583,
  "▁ምሥክሮች": 12584,
  "▁የግብይት": 12585,
  "▁ሰብኡት": 12586,
  "ኮም": 12587,
  "▁ኣጀንዳ": 12588,
  "▁ለነሱ": 12589,
  "▁(ኣ": 12590,
  "▁ጊዜ.": 12591,
  "▁ዮናስ": 12592,
  "▁ተዳል": 12593,
  "▁መንደር": 12594,
  "▁(A": 12595,
  "▁ዘይሓ": 12596,
  "ቶችም": 12597,
  "▁የመኪና": 12598,
  "▁ቢሆኑ": 12599,
  "▁ቆሞ": 12600,
  "▁ይመጣል።": 12601,
  "▁ማለቴ": 12602,
  "▁መፍራት": 12603,
  "መጽ": 12604,
  "በተ": 12605,
  "ቶቻችንን": 12606,
  "▁እዉን": 12607,
  "▁የጣ": 12608,
  "▁የፈጠረ": 12609,
  "▁ይችል": 12610,
  "▁ዝኮነ": 12611,
  "▁እቲ፡": 12612,
  "▁ቢሆኑም": 12613,
  "▁ኮምፒውተር": 12614,
  "▁የጃ": 12615,
  "▁ዝሞተ": 12616,
  "▁ትደልዩ": 12617,
  "▁ሳኦ": 12618,
  "▁ንዝብል": 12619,
  "ላሉ.": 12620,
  "▁የኢትዮጵያ": 12621,
  "▁ቱሪዝም": 12622,
  "▁ሰሌዳ": 12623,
  "ቢድ": 12624,
  "ጋድ": 12625,
  "ጓል": 12626,
  "▁ኣኺ": 12627,
  "▁የሱ": 12628,
  "▁(E": 12629,
  "▁ኸነ": 12630,
  "▁ጠለ": 12631,
  "▁ሙታን": 12632,
  "▁ወለደ": 12633,
  "▁አጋር": 12634,
  "▁ወዳጄ": 12635,
  "ልቦ": 12636,
  "ሎስ": 12637,
  "ካችሁ": 12638,
  "▁on": 12639,
  "▁ትኸ": 12640,
  "ነትን።": 12641,
  "▁ዝተዛረቦ": 12642,
  "▁በሰሜን": 12643,
  "▁ውጤቶችን": 12644,
  "ለፈው": 12645,
  "መንግስት": 12646,
  "▁ይሰጣል.": 12647,
  "ሰኝ": 12648,
  "ቆረ": 12649,
  "ዘት": 12650,
  "ዝጊ": 12651,
  "▁መብር": 12652,
  "▁ዝከኣ": 12653,
  "▁ትግል": 12654,
  "▁የተዋ": 12655,
  "▁ዝተመር": 12656,
  "▁ጠባይ": 12657,
  "ተኛት": 12658,
  "▁አላውቅም።": 12659,
  "▁ይኹን'ምበር": 12660,
  "▁በመስጠት": 12661,
  "▁ሓጥያት": 12662,
  "▁የተጻፈ": 12663,
  "▁አቃ": 12664,
  "▁የሮ": 12665,
  "ንድር": 12666,
  "▁የለበትም": 12667,
  "▁ደምበ": 12668,
  "▁ማለቱ": 12669,
  "▁የፈረንሳይ": 12670,
  "▁ማውጣት": 12671,
  "▁ህልውና": 12672,
  "▁እላለሁ": 12673,
  "አር": 12674,
  "▁በሶ": 12675,
  "▁ዝፈጠ": 12676,
  "▁ለራስ": 12677,
  "▁ድየ": 12678,
  "▁እየፈለጉ": 12679,
  "▁ኣለኻ።": 12680,
  "መልሱ": 12681,
  "ንስሳት": 12682,
  "▁በላይ,": 12683,
  "▁በለኒ።": 12684,
  "▁ኔሮም።": 12685,
  "▁መረጃን": 12686,
  "▁ማህበር": 12687,
  "▁ጩኸት": 12688,
  "ሃለወ": 12689,
  "ኃት": 12690,
  "ናሉ": 12691,
  "ዙን": 12692,
  "▁አሰራ": 12693,
  "▁ከረ": 12694,
  "▁ስቓይ": 12695,
  "▁የሚሉ": 12696,
  "▁የሚቻል": 12697,
  "▁አለበለዚያ": 12698,
  "▁በመሠ": 12699,
  "▁ኮቪድ": 12700,
  "▁ኣለኩም": 12701,
  "▁ኢና!": 12702,
  "▁ያስደ": 12703,
  "▁ኣባጊዕ": 12704,
  "ity": 12705,
  "▁ሰሚዐ": 12706,
  "▁ትምህርቶች": 12707,
  "▁ቁርኣን": 12708,
  "▁ዓውደ": 12709,
  "▁አያውቁም": 12710,
  "ሕትና": 12711,
  "ሮው": 12712,
  "ሽሽ": 12713,
  "የሽ": 12714,
  "▁የጀርመን": 12715,
  "▁ይለያ": 12716,
  "▁ንመር": 12717,
  "▁\"ለምን": 12718,
  "▁የአው": 12719,
  "ግባቡ": 12720,
  "▁ሃገሩ": 12721,
  ":29": 12722,
  "▁ፍልይ": 12723,
  "▁ተቓወምቲ": 12724,
  "▁ዳዊትም": 12725,
  "▁ብሓንሳብ": 12726,
  "ልዋ": 12727,
  "▁ጠንክ": 12728,
  "▁አስር": 12729,
  "▁አፍቃ": 12730,
  "▁(ዮሓ": 12731,
  "▁(ዮሐንስ": 12732,
  "▁የመንግስት": 12733,
  "ፍራት": 12734,
  "▁መኖ": 12735,
  "▁ንከ": 12736,
  "▁ኣይወ": 12737,
  "▁1x": 12738,
  "▁ለመቆየት": 12739,
  "▁ጠቓ": 12740,
  "▁አልባ": 12741,
  "ሓትት።": 12742,
  "▁እንጂ።": 12743,
  "▁ሪፐ": 12744,
  "▁ለመቀጠል": 12745,
  "ቀብ": 12746,
  "ንሱ": 12747,
  "▁ቀንም": 12748,
  "▁(19": 12749,
  "▁ኢትዮጵያውያን": 12750,
  "▁አደጋዎች": 12751,
  "ንቀሳቀስ": 12752,
  "▁ብሉይ": 12753,
  "▁መገድታት": 12754,
  "ሕዋ": 12755,
  "ራዕ": 12756,
  "ሶ።": 12757,
  "ቢሩ": 12758,
  "ዖንም": 12759,
  "▁ዝቖ": 12760,
  "▁ሓፋሽ": 12761,
  "▁ኣይበል": 12762,
  "▁ገዳይ": 12763,
  "▁ወደቀ": 12764,
  "▁በእንግሊዝኛ": 12765,
  "▁ፈንታ": 12766,
  "▁ዝተፈጸመ": 12767,
  "▁በአስ": 12768,
  "▁ኣምባሳ": 12769,
  "▁ጉድጓድ": 12770,
  "▁መገሻ": 12771,
  "iv": 12772,
  "ቧን": 12773,
  "ዜና": 12774,
  "ድገ": 12775,
  "▁እሰ": 12776,
  "▁በጣ": 12777,
  "▁በሩሲያ": 12778,
  "▁የያዘ": 12779,
  "▁ንጎ": 12780,
  "▁ታናሽ": 12781,
  "▁ክትም": 12782,
  "ባልን": 12783,
  "ፈለየ": 12784,
  "▁ሆነን": 12785,
  "▁ዩሮ": 12786,
  "▁2004": 12787,
  "▁መተማመን": 12788,
  "▁በኢንተርኔት": 12789,
  "▁ኣኽራን": 12790,
  "▁ዔ": 12791,
  "▁ብቋንቋ": 12792,
  "▁ወሃብ": 12793,
  "▁ዘሎና።": 12794,
  "▁አይደለም?": 12795,
  "▁150": 12796,
  "▁እዋኑ": 12797,
  "▁ያስፈልጋል": 12798,
  "አብ": 12799,
  "አለሁ": 12800,
  "ዛይ": 12801,
  "ጊድ": 12802,
  "▁ለቤተ": 12803,
  "▁(ይህ": 12804,
  "▁ኤም": 12805,
  "ንግሊ": 12806,
  "▁ንኣኻ": 12807,
  "ren": 12808,
  "▁ሶማል": 12809,
  "ህበና": 12810,
  "ባብሮ": 12811,
  "▁ብስክ": 12812,
  "▁መዛሙርቲ": 12813,
  "ርጋ": 12814,
  "ሲካ": 12815,
  "▁በለት": 12816,
  "ለች.": 12817,
  "▁አለው:": 12818,
  "ሠራው": 12819,
  "▁ተኣምራት": 12820,
  "▁ከሌላው": 12821,
  "icle": 12822,
  "▁ተብለው": 12823,
  "▁የጨዋታ": 12824,
  "ዳሉ።": 12825,
  "▁እቅ": 12826,
  "▁አተ": 12827,
  "▁ደረት": 12828,
  "▁ሕተ": 12829,
  "ትንስ": 12830,
  "ለን\"": 12831,
  "▁ዘሎኒ": 12832,
  "▁መለሱ": 12833,
  "▁ክወጽእ": 12834,
  "▁ሽማግሌዎች": 12835,
  "▁YouTube": 12836,
  "ተጨማሪ": 12837,
  "ያቸውን": 12838,
  "ጻብ": 12839,
  "▁እንደነበሩ": 12840,
  "▁ደንበኛ": 12841,
  "▁ንድኻ": 12842,
  "▁ተወዳዳሪ": 12843,
  "▁ወልድ": 12844,
  "ዓዝያ": 12845,
  "▁ተዛሪቡ": 12846,
  "▁ያለንን": 12847,
  "▁ኮይንካ": 12848,
  "▁አቤቱ፥": 12849,
  "500": 12850,
  "ሃለ": 12851,
  "ቀሩ": 12852,
  "ታ፡": 12853,
  "▁እምላ": 12854,
  "▁ገጾች": 12855,
  "▁አንጻር": 12856,
  "በልጡ": 12857,
  "▁ንእግዚአብሔር": 12858,
  "▁ከምዘለዉ": 12859,
  "▁ዓለምለኻዊ": 12860,
  "▁የብለይን": 12861,
  "ልምና": 12862,
  "ርዓት": 12863,
  "ታችንም": 12864,
  "▁እጁን": 12865,
  "▁ከኔ": 12866,
  "▁ብጀ": 12867,
  "▁ንፁ": 12868,
  "▁ክሪ": 12869,
  "▁ሃፍቲ": 12870,
  "▁አላማ": 12871,
  "▁ራሴን": 12872,
  "▁ሓድሓደ": 12873,
  "▁ትእዛዛ": 12874,
  "▁ገበረ።": 12875,
  "▁ጠረጴዛ": 12876,
  "ችበት": 12877,
  "ደበ": 12878,
  "ጋቢ": 12879,
  "ፍያ": 12880,
  "▁ማብራ": 12881,
  "▁አይሁድ": 12882,
  "ለንን": 12883,
  "▁ረቂ": 12884,
  "▁ብዛዕባ'ዚ": 12885,
  "▁በምድረ": 12886,
  "▁ትርጕ": 12887,
  "▁ልጆቼ": 12888,
  "▁መንግሥታት": 12889,
  "▁የብልናን": 12890,
  "23": 12891,
  "▁እጁ": 12892,
  "▁ከማይ": 12893,
  "▁ተክ": 12894,
  "▁ማሸነፍ": 12895,
  "▁ስለም": 12896,
  "▁ለማዳ": 12897,
  "▁እተፈላለየ": 12898,
  "▁ሸነኽ": 12899,
  "▁ዝግጅ": 12900,
  "▁ሄደ።": 12901,
  "ቅድሚ": 12902,
  "▁ከባቢታት": 12903,
  "ርዳታ": 12904,
  "ተልቲ": 12905,
  "▁ጨንፈር": 12906,
  "ላላው": 12907,
  "ገቢ": 12908,
  "▁ዝግብኦ": 12909,
  "▁ሓጋዚ": 12910,
  "ገዛት": 12911,
  "ረጋገጠ": 12912,
  "▁መጣ።": 12913,
  "▁መጸለይ": 12914,
  "▁እቲኣ፡": 12915,
  "VID": 12916,
  "ማምን": 12917,
  "ጋባ": 12918,
  "ፍዎ": 12919,
  "▁መማ": 12920,
  "▁ማዘጋጀት": 12921,
  "▁ምስታ": 12922,
  "▁በተን": 12923,
  "ርእያ": 12924,
  "▁ኃላፊ": 12925,
  "▁አባባል": 12926,
  "ማንኛውም": 12927,
  "▁ጀምሮ,": 12928,
  "▁ኻብቶም": 12929,
  "▁የፍርድ": 12930,
  "▁ነዋሪ": 12931,
  "ሳ።": 12932,
  "ብሊ": 12933,
  "ፃፅ": 12934,
  "▁ብለይቲ": 12935,
  "▁ወደብ": 12936,
  "▁በተግባር": 12937,
  "▁ሽጋራ": 12938,
  "ናልድ": 12939,
  "ገብሮም": 12940,
  "▁53": 12941,
  "▁ያስችላ": 12942,
  "▁ሳይቆይ": 12943,
  "▁ምግቦች": 12944,
  "▁ብመገዲ": 12945,
  "▁መኣዲ": 12946,
  "▁\"ነቲ": 12947,
  "▁ጉብኝት": 12948,
  "ህቦም": 12949,
  "ሐት": 12950,
  "ራ፡": 12951,
  "ቆጠሩ": 12952,
  "▁እፈ": 12953,
  "▁ዘሕዝን": 12954,
  "▁ትላልቅ": 12955,
  "▁ባንተ": 12956,
  "▁በአገሪቱ": 12957,
  "▁ጠራ": 12958,
  "▁ጉልበት": 12959,
  "▁ረዥም": 12960,
  "▁ቁል": 12961,
  "▁ቆይታ": 12962,
  "ቲካዊ": 12963,
  "▁ህንፃ": 12964,
  "▁ከታች": 12965,
  "▁ሰሙናት": 12966,
  "▁አምናለሁ": 12967,
  "▁li": 12968,
  "▁ብክርስቶስ": 12969,
  "▁ዘና": 12970,
  "▁ኢራን": 12971,
  "▁ኢትዮ": 12972,
  "▁ድረ": 12973,
  "▁ልማ": 12974,
  "▁ሲያስ": 12975,
  "▁ምንዳ": 12976,
  "▁ነበረበት": 12977,
  "ነጋገሩ": 12978,
  "▁ኣዒንቲ": 12979,
  "▁ግርማ": 12980,
  "▁ከሆንክ": 12981,
  "ነባ": 12982,
  "▁ይገር": 12983,
  "▁ይግለ": 12984,
  "▁ሰደ": 12985,
  "▁ዓይኑ": 12986,
  "▁ሕሙ": 12987,
  "▁ቀኖች": 12988,
[...]
