#version: plain BPE baseline
á Ī
á Ĭ
á ĭ
á ī
á Į
Ġ áĬ
Ġ áĭ
Ġ áĪ
áĬ ķ
á į
Ġ áī
áī µ
áĭ į
áĪ Ŀ
áĪ Ń
áĪ į
Ġáĭ ¨
ĠáĬ ¥
ĠáĬ ł
áĪ Ī
Ġáī ł
áĪ µ
áį ¢
áī ½
Ġ áĮ
áĪ ĺ
áĭ Ń
áĬ ĵ
áī °
áĬķ áĭ
áĭ «
áĮ Ī
ĠáĪ ĺ
áĪ ĭ
áĬ Ĳ
ĠáĬ Ĳ
áĮ į
áĪ ħ
áĪ ¨
Ġáĭ Ń
áī ¥
áī ł
áĭ °
áĪ «
áī ³
áĪ Ľ
áĭ µ
ĠáĬ ¨
ĠáĪ Ī
áĪ ļ
áĮ ¥
áĪ ī
Ġ áį
áĪ °
áĭ İ
áī £
ĠáĬ¥ áĬķáĭ
áĬ Ń
ĠáĬĲ áĭį
áĮ ł
áī Ģ
áĪ ģ
Ġáī °
Ġáĭ «
áī ħ
áĬ ł
Ġáĭ Ī
áī ¸
áĪ ³
áĪ Ĩ
áĬ ¨
áĭ Ī
áĭ ļ
áį į
áĬ Ľ
ĠáĪ Ľ
áĪ ª
áĬ ¥
áī¸ áĭį
ĠáĪ µ
áĮ £
áį Ī
ĠáĪ Ŀ
Ġáĭ¨ áĪļ
ĠáĬ¥ áĬĵ
áĭİ áī½
áĮ ĭ
áĭ ¨
áĬ «
áĭ ĭ
áĭ ³
Ġáī ¥
Ġáĭ į
Ġ áį¢
áī ±
áī ¶
ĠáĪ ĭ
ĠáĪ °
ĠáĬ¥áĬķáĭ °
áĪ ±
áĪ ©
áĬ Ŀ
áĪ ®
ĠáĮ į
ĠáĪĭ áĭŃ
áī ĥ
áĬķáĭ µ
ĠáĪ ģ
áĭļ áĪħ
áĬĲ áīµ
áĬ Ķ
Ġáĭ¨ áī°
áī »
áĪµ áĮ¥
áĬ ĸ
ĠáĬł áĭŃ
áĪ İ
áĭ Ŀ
áĬ ĳ
áĬķ áĪĿ
Ġáī µ
Ġáĭ °
Ġ "
Ġáĭį áĪµáĮ¥
ĠáĭŃ áĪħ
áĮĪ áĪŃ
áĭ ľ
áĪ ŀ
áĪĪ áĭį
áī½ áĬķ
ĠáĮ ¥
ĠáĪ į
Ĭ áĭľ
áĪ ½
áĪĪ áĪĿ
áĭ Ĭ
Ġáī Ģ
áīł áĪŃ
áį ¤
ĠáĭĪ áĭ°
ĠáĮ Ĭáĭľ
áīł áīµ
ĠáĬ¥ áĬķ
áĭ ĺ
ĠáĮį áĬķ
ĠáĬ¥áĬķáĭ ²
Ġáī £
ĠáĪĪ áĪĺ
áĮ ħ
áĪĨ áĬķ
ĠáĪµ áĪĪ
ĠáĬł áĪµ
áį £
Ġáīł áĪĺ
áĪ »
Ġáį £
áĪª áĭ«
áĬ ©
áĮ Ģ
áĭį áĬķ
áį ĭ
áī¶ áī½
ĠáĮ ĭ
áĪĪ áĪģ
áĭ Ľ
Ġáĭ ĵ
ĠáĪ ²
áĪĭ áĪį
. .
ĠáĬł áĪĪ
áĭ ²
áī ¡
ĠáĪ Ĭ
ĠáĪģ áĪī
áĮ ī
ĠáĪĪ áĪĽ
ĠáĬ Ń
ĠáĬĲ áĮĪáĪŃ
áĪ Į
Ġ 1
áĪ Ļ
áĪĨ áĬĲ
áĪ ¬
Ġáĭ µ
Ġáĭ¨ áĪĺ
áĪĪ áīµ
áī ¢
Ġáīł áĬł
ĠáĬĲ áīłáĪŃ
ĠáĮ Ī
áĮ ¨
ĠáĮĭ áĪŃ
áĭ Ļ
áĭĭ áĪį
áĪŃ áĪµ
áį Ĭ
Ġáĭ ĺ
Ġáī ³
ĠáĬł áĬķáĭµ
áī ģ
áī Ĩ
Ġáį ¡
ĠáĪ Ĩ
Ġáīł áĬ¥
Ġáīł áī°
Ġ 2
áĮ ½
ĠáĬł áĪį
Ġ (
áĮ ĥ
áī½ áĪģ
áĭ ®
áī ¹
áī° áĬĽ
áĭ ĵ
ĠáĪĺ áĬķ
Ġáĭ¨ áĬł
â Ģ
áĭ ©
áĮ «
Ġáĭ¨ áĬ¥
áĮ Ń
áĬķ áī°
áĪ ľ
áĪµ áīµ
áįĪ áĪį
áĪ ĥ
áī ²
áĭ ±
ĠáĬ ĵ
áĬĵ áĪį
Ġáĭ¨ áĪĿ
ĠáĭĪ áĭŃ
Ġáī ¤
ĠáĭŃ áī½
áī Ĥ
ĠáĬ¥ áĬĶ
áĪĨ áĬĳ
áīµ áĬķ
áĭ ķ
áĪ Ĭ
áĪ Ħ
áĭ° áĪŃ
áĮ£ áĪĿ
áī ¤
áĪ Ķ
ĠáĬ¥ áĬĲ
Ġáį į
áĮ ¡
áĪĪ áĬķ
ĠáĬ «
áĮ İ
Ġáī ¢
áĭµ áĪŃ
ĠáĪ ³
Ġáīł áĮ£áĪĿ
áĪģ áĬķ
ĠáĮ ł
ĠáĪ° áĭį
Ġáīł áĬ
áĭ° áĪ¨
áĪ ¥
áī ¦
Ġáĭ¨áĪļ áĭ«
áī ´
áĬł áī¥
áĬ ĺ
áĭµ áĪ¨
ĠáĬłáĭŃ áĭ°
Ġ -
Ġáĭ¨ áĪĽ
ĠáĮ ī
áĮį áĭļ
ĠáĪĿ áĬķ
ĠáĬ¥ áĭ¨
áĬ ®
áĭļ áĭ«
Ġáī¥ áĭĻ
áīł áĪ¨
Ġáį Ī
áĪŃ áĪ±
Ġáī ħ
áĮįáĭļ áĬłáī¥
ĠáĬ ¢
ĠáĬł áĬķáĭ
áĪĶ áĪŃ
ĠáĭĪáĭŃ áĪĿ
áĪ« áīµ
áĪµ áī°
Ġáī¥ áī»
ĠáĬ¥ áĪµ
áĮįáĭļáĬłáī¥ áĪĶáĪŃ
ĠáĪ ķ
áĬķáĭ «
áĪĿ áĬķ
áī¸áĭį áĬķ
áĮĪ áī£
áĪĭ áĭŃ
ĠáĬĵ áī¸áĭį
ĠáĪ ħ
áĪ® áī½
ĠáĭŃáĪħ áĬķ
áĮĢ áĪĺ
áī ĭ
ĠáĬ¥áĬķáĭ ³
ĠáĪ Į
áĭį áĪĿ
´ áīµ
Ġáīł áĭļáĪħ
áĪĭ áĪī
áĬ ŀ
áĪ ķ
ĠáĬ¥áĬķáĭ° áĪļ
Ġáīł áĪĽ
ĠáĪĺ áĪį
ĠáĪ° áĭİáī½
áĪ¨ áīµ
ĠáĬ ķ
Ġáĭ° áĮį
áĬ Ĵ
ĠáĪ ¥
áĪ¨ áĮĥ
áĪ ¸
áĮ Ĩ
áį ¥
áī³ áĪį
áĪĺ áĪĪ
Ġáĭĵ áĪĺ
ĠáĪĿ áĬŃ
Ġáĭ°áĮį áĪŀ
áĪİ áī½
áĪ ł
áĪŃ áīµ
áĮĪ áĭµ
áĪ ²
áĭ ¬
áīµ áĪĿ
ĠáĬ¨ áĬ¥
áĪĽ áĪª
ĠáĬ¥ áĭ«
ĭ áĪĭ
ĠáĬłáĭŃáĭ° áĪĪáĪĿ
áĭ ¶
áį ī
Ġáĭ« áĪĪ
.. .
áĪ Ĳ
áĪĭ áī¸áĭį
âĢ ¹
áīħ áĪŃ
áĬ Ļ
áĬķ áĮį
áĬ ¤
ĠáĬ¨ áī°
ĠáĬł áĮĪ
áĭ« áĬķ
áī± áĬķ
áĭµáĪ¨ áĮį
áĪ ´
áĪ° áī¥
áĪį áĪĿ
Ġáĭ ĭ
Ġáīł áĪļ
áĬ ³
áĪŃáĪµ áĭİ
áĮ Ĥ
Ġáĭ« áĪĪáĭį
ĠáĬł áĪģáĬķ
ĠáĪ Ļ
ĠáĪ ļ
ĠáĬ¥ áĬĽ
ĠáĪ Ģ
ĠáĪĺ áĪµ
áĮ »
áĬ ª
Ġáī ģ
ĠáĭŃáī½ áĪĭáĪį
áĭ¨ áīµ
áĪ ¶
ĠáīłáĬ ĭáĪĭ
Ġáī ½
áĪĺ áĪµ
áį ĥ
ĠáīĢ áĬķ
áĭŃ áĭĪ
áĪĺ áĪį
áĬ¨ áĪį
áī£ áīµ
ĠáĪĿáĬŃ áĬķáĭ«
áĮł áīĢ
ĠáĮī áĭ³
áĭİáī½ áĬķ
áĬĲ áĭį
áī³ áīµ
Ġáĭ Ŀ
áĪĺ áĬķ
áī ·
Ġáī£ áĪĪ
ĠáĬł áĪĿ
Ġ 3
Ġ .
Ġáĭ« áĪµ
áĬ¨ áī°
áĬĶ áī³
0 0
ĠáĪĽ áĬķ
ĠáĪĪ áĬ¥
Ġáĭ ķ
âĢ º
Ġáī ¦
ĠáĬŃ áįį
áĮ Ĭ
áĮĢáĪĺ áĪªáĭ«
áĮ ¸
áĬĸ áĪŃ
ĠáĬĲ áĮĪ
áīħ áĪĿ
ĠáĪģ áĬĶáī³
ĠáĪĿ áĪŃ
áĬĽ áĪį
áį İ
ĠáĬł áĬķ
áĮį áĪŃ
ĠáĪĽ áĪĪáīµ
Ġáī¤ áīµ
áĪī áĪĿ
áįĬ áīµ
ĠáĬł áĪĭ
áĪ¨ áĭį
ĠáĬ¥áĬķáĭ ´áīµ
áī Ħ
ĠáĭŃáī½ áĪĭáĪī
áĭ² áĪµ
áį ħ
ĠáĬ¥ áĪŃ
ĠáĪĿ áĬķáĪĿ
áĬĵ áīµ
áĭ« áĭį
áĪī áīµ
ĠáĮ Ģ
áī ¼
ĠáĬł áī¥
ĠáĬ¨ áĬł
áĪ« áĪį
ĠáĬłáĪµ áī°
áĭ ´
áĮĪ áĬĵ
áĪĭ áīµ
Ġáī ĥ
áĬĽ áĭį
áĪ° áĪĽ
áĬĺ áīµ
ĠáĬ¥áĬķáĭ² áĪħ
ĠáĮ ¨
ĠáĬ¥ áĮįáĭļáĬłáī¥áĪĶáĪŃ
áĪª áĬ«
Ġáīł áĪĭáĭŃ
áĬķáĭ ³
ĠáĬł áĬ«
áĪµ áī³
áĪĺ áĮ£
áĪĺ áĪŃ
áĪ³ áĭŃ
áĬŀ áī½
áĮ ĵ
áĪħ áĬķ
áīĢ áĪŃ
áī± áĪĿ
áĪ« áĭĬ
ĠáĪµáĪĪ áĭļáĪħ
áĪĪ áĭ«
áĪ¨ áĪµ
áį ĸ
ĠáĪĺáĬķ áĮĪáĭµ
áĬ ¢
ĠáĪĺ áĮł
ĠáĬ¨ áįį
ĠáĪ «
ĠáĬ¨ áĪĺ
áĪ° áĭį
ĠáĮ¥ áĪ©
áī£ áī¸áĭį
ĠáĪ ŀ
ĠáĭŃ áĪĨ
Ġáī¦ áī³
áį ¡
ĠáĬ¥ áĭį
áĪ Ģ
ĠáĪ¥ áĪ«
áĪĪ áī½
áĮ¨ áĪĽáĪª
áī¢ áĭ«
áĮ ¤
ĠáĪĨ áĬĸ
áīł áĪ©
áĮį áī£
ĠáĬ¥ áĪ±
Ġ2 0
ĠáĪģáĪī áĪĿ
áĭ ī
áĪį áīħ
Ġáĭ Ľ
ĠáĪĮ áĪĭ
ĠáĬ¥áĪµ áĬ¨
ĠáĬł áĬķáī°
ĠáĬł áĭį
ĠáĬ¥áĬĲ áĭļáĪħ
ĠáĬł áĪī
ĠáĪ³ áĭŃ
ĠáĭĵáĪĺ áīµ
áī¥ áĪŃ
áĭĿ áī¥
áįĪáĪį áĮĭ
ĠáĬł áĪĺ
áĭĪ áīħ
áĬĲ áīłáĪ¨
áĭ« áĪµ
áĮĨ áī½
ĠáĬłáĬķáĭ ³
áī£ áĪį
áĮł áīĥ
áĪħ áĪį
áį ķ
ĠáĪĺ áĬ«
Ġáī Ĩ
Ġáĭ¨ áīł
áĪ° áĪ«
áĬ¨ áīµ
Ġáį ķ
áĪĪ áĪħ
ĠáĬ¨ áĭļáĪħ
áĪĿ áĪ®
áĮ¨ áĪ¨
ĠáĭŃáĪĨ áĬĵáĪį
ĠáĪĺáĬķ áĮį
áĭĪ áĪ°
áĪĭ áī½áĪģ
ĠáĬ ®
Ġáĭ ³
ĠáĪ ĥ
áī¦ áī½
Ġáĭµ áĪŃ
áĭİ áī¹
ĠáĬ ĥ
Ġ âĢ¹
áĭŃáĭĪ áīµ
Ġáĭ¨ áĪĨáĬĲ
áĮ¥ áĪŃ
áĮ£ áīµ
áĬŃ áīµ
ĠáĬ¥áĬķ áĬ³
Ġáīł áīĢ
áī³ áĭį
ĠáĬł áĭµáĪŃ
ĠáĬ¥áĬķáĭ² áĪģ
ĠáĬ¨ áĪĨáĬĲ
Ġ 4
ĠáĭĽ áĪ¬
ĠáĪĪ áĬł
ĠáĪĽ áĭµáĪ¨áĮį
áĬķáĭ ĺ
áĮį áĬĺáīµ
áĭŃ áĪį
áĭ ŀ
Ġáī¥ áĪİ
áĪĿ áĪħ
áīł áĪį
áĬķáĭ ±
áĭ« áīĦ
áĮ Į
áĮ ¦
Ġáīł áįĬáīµ
Ġáĭĵ áĭŃ
Ġáĭ° áĪ¨áĮĥ
áĭİ áĬķ
áī° áĭį
áĪ £
Ġ 5
áī· áĪį
ĠáĪį áĮħ
áĪĿ áĪŃ
áĪĭ áĬŃ
ĠáĬ¥áĭ¨ áī°
ĠáĬł áīµ
áĭĵ áīµ
Ġáĭ¨ áĪĪáĪĿ
ĠáĪĺáĬ« áĬ¨áĪį
ĠáĬ¨ áĭļáĭ«
áį Ģ
ĠáĬł áĪĽ
áĮĪ áĭį
áĪ ·
áįį áīµ
ĠáĪĨ áĬĲ
Ġáį Ĭ
ĠáĬ¥ áĪŃáĪ±
ĠáĪĺ áĪĨáĬĳ
áĮį áī¥
áĬķ áĪµ
Ġáĭµ áĪ¨áĪµ
Ġáĭ« áĪį
áį ĵ
áĮ¨áĪ¨ áĪ»
áī½ áĪį
áĪ¨ áĮĭ
áįĪ áĪĪ
Ġáĭ¨ áĭĪ
ĠáĮ¥ áĭ«áīĦ
áĪļ áĭ«
áĬĵ áĮĪ
áīµ áĭ®
áĬŃ áĪį
áĪ¨ áĭ³
áĮł áĪŃ
áĪį áĮį
ĠáĬł áĭ²áĪµ
áĬķ áīµ
áĪĦ áĭµ
áĮ µ
áī³ áĭĬ
áĪĪ áĮł
ĠáĭŃáĪħáĬķ áĬķ
ĠáĬł áī£
áī£ áī¢
áĪ ı
Ġáĭ¨ áīµ
ĠáĪĺ áĪ¨áĮĥ
áĪŃ áĮį
Ġáī° áĪĺ
áĬĸ áī½
áĪ³ áīµ
Ġáĭĺ áĬķáĭµ
ĠáĪµ áĪĿ
áĪŃ áĭµ
áĬĽ áĭįáĪĿ
ĠáĪĺ áĪĨáĬķ
áĮį áĪį
ĠáĮ £
áĮ ģ
ĠáĬ¥ áĮħ
áĬķ áĬķ
áīµáĭ® áĮµ
ĠáĮīáĭ³ áĭŃ
áĪ± áĪµ
ĠáĬ ¤
áĬķáĭĺ áī¥
ĠáĪģ áĪĪáīµ
Ġáĭ« áĪħáĪį
Ġáī¤ áī°
ĠáĮ İ
áĭµ áĬķ
ĠáĬłáĪµ áįĪ
ĠáĬ¥áĬķ áĮĤ
ĠáĬ¥ áĭļáĪħ
áĪİ áīµ
áĪµ áįĭ
ĠáĬłáĬķáĭ ±
r e
áĪĿ áĬĵ
áĮį áĪ«
ĠáĭŃ áĪĦ
áĭ¨ áĪ±áĪµ
áī³ áī¸áĭį
áī¶ áī½áĬķ
áĪĽ áīµ
ĠáĪģ áĪĪ
áĮĪ áĬĺ
áĪª áĬŃ
ĠáĭŃ áĮĪ
áĪ° áĮł
ĠáĭŃ áĮł
áĬĲ áī±
Ġáīĥ áĪį
áĪµ áĪ«
áĭİ áīµ
ĠáĪĿáĬŃáĬķáĭ« áīµ
Ġáĭ¨áĪĽ áĭŃ
áĪĭ áĮĬ
áĭĵ áĪĪáĪĿ
Ġáīł áĪŃ
ĠáĬ¥áĬķáĭ° áĪĨáĬĲ
áīĢ áīµ
ĠáĮ ½
áĪľ áĪªáĬ«
áĪ± áĬķ
áĭĪ áĮ£
ĠáĬł áĪĪáĭį
Ġáīł áĭ¨
ĠáĬ¨áįį áī°áĬĽ
Ġáĭĵ áĪĪáĪĿ
áĮ Ĭáĭľ
Ġáīµ áĬķ
áī¤ áīµ
áīĥ áĪį
Ġ C
ĠáĪ Ń
áĬ ¬
áī¸ áĭĭáĪį
áĪ¨ áī¥
áĮłáīĢ áĪĿ
Ġáī° áīĢ
áī³ áī½áĬķ
áĬ© áĪį
áĪ³ áī¥
ĠáĭĪ áīħ
áĮĪ áĬĻ
ĠáĬĲ áĬĿ
áĪ³ áĪĮ
Ġáīł áĪĿ
Ġ M
ĠâĢ¹ âĢ¹
ĠáĪĽ áĪµ
áĬĲ áĪ³
áĮĪ áĬĿ
áĮĪ áĪĪ
ĠáĪ ¨
áīĢ áĭį
áĪŀ áī½
ĠáĪ Ĳ
ĠáĪĪ áĪĿáĬķ
áĭĺ áĮĭ
ĠáĬł áĭ«
ĠáĬłáĮĪ áĪįáĮį
áīµáĭ®áĮµ áĭ«
ĠáĬ¥áĬķáĭ µ
ĠáĪµ áĪ«
Ġáī ¡
áĭŃ áīµ
Ġáĭ¨ áĬ¢
ĠáĮ Į
áĭ° áĭį
áĪĪáĭ« áĭ©
Ġ '
ĠáĭŃ áĪĺáĪµ
áĬĵ áĭį
ĠáĬłáĪµáįĪ áĪĭáĮĬ
Ġáį ĵ
áĪ ¯
áĪĽ áĪŃ
ĠáĬĲáĮĪ áĪ®áī½
ĠáĪį áĮĨáī½
Ġáīµ áĪĿáĪħ
Ġáī½ áĮįáĪŃ
Ġáįķ áĪ®
Ġáĭį áĮ¤
ĠáĬ¥áĬĵ áĪĿ
áĬĿ áĬĲáīµ
ĠáĬ¥áĬķáĬ³ áĬķ
áī° áĪŃ
áĭĪ áĪµ
ĠáĪĻ áĪī
áĮ£ áĬķ
ĠáĬł áĪ³
áĮ½ áĪĲ
ĠáĬ¥ áĪŃáĪµáĭİ
o r
áī½ áĪĭ
áīĢ áĮ¥
ĠáĭŃáĪħ áĪĿ
áĭĪ áĭ³
ĠáĪ ½
áĪ³ áĪ³áĭŃ
Ġáĭ¨áĪĺ áĮĢáĪĺáĪªáĭ«
áĪ¨ áĬķ
ĠáĬ¥áĬĵ áĬķáī°
ĠáĪµ áĪį
áĭĭ áī³
áĪµ áī°áĬĽ
áĭ° áĬķ
ĠáĪĺ áī°
ĠáĬ¥áĬķáĭ²áĪģ áĪĿ
áĭ² áĭ«
áĭ¨ áĪŃ
áĬ¤ áĪį
Ġáį ¤
Ġáĭ¨ áī³
áĮ ª
ĠáĪĬ áĭ«
áĮł áĬĵ
ĠáĬłáĬķáĭ³ áĬķáĭµ
Ġáĭ ľ
ĠáĬł áīĢ
áĪģ áĪīáĪĿ
áį Į
ĠáĪĺáĪĨáĬĳ áĬķ
áĬķáĭ ¶
ĠáĪĺ áĮį
áĭ°áĪŃ áĮĭ
ĠáĪĮ áĪİáī½
ĠáĬłáĪĪ áīłáīµ
áĬ« áĪĿ
áĬ¨ áĪŃ
áĮį áĪĿ
ĠáĪĬ áĪĨáĬķ
ĠáĬ ©
ĠáĪ Ĥ
ĠáĬŃáįį áĪį
ĠáĭĵáĪĺ áī³áīµ
áĭ° áīµ
Ġáĭ¨áĪĿ áīµ
ĠáĪĺ áī¥
áĪ Ĥ
Ġáį ĸ
áĬ ĭ
áĭ° áĪĿ
Ġáĭ¨áĪļáĭ« áĪµ
Ġáĭ¨ áĪĪ
ĠáĮ Ń
áīĤ áĭ«
ĠáĬł áĪģ
áĮĪ áĬķ
áį Ĵ
Ġ 6
áĪŃáĪµ áī²
Ġáīł áĪĻ
Ġ20 1
áĭ¶ áī½
áĪ Ł
áĬĿ áĪĿ
ĠáĪ ´
Ġáīł áĮ¥
áĪł áĪ«
áĪĺ áĪ¨
ĠáĪ² áĪĨáĬķ
áĪŀ áĬŃ
áĪĪ áĭŃ
áĮł áīł
ĠáĪį áĭ©
Ġáĭĭ áĮĭ
Ġáĭ¨ áĭį
ĠáĬ¨ áĪļ
ĠáĪĺ áĪ°
Ġáĭ¨ áĬĲ
áĪ« áī¸áĭį
Ġáĭ« áĪī
ĠáīłáĬł áĬķáĭµ
ĠáīłáĬ¥ áĪŃáĮį
áī» áī½áĬķ
ĠáĬł áĭ°
áĮĪ áĪį
ĠáĬ¥áĬķáĭ² áĭ«
ĠáĪµ áĪŃ
âĢº âĢº
áīł áī¥
ĠáĭĪáīħ áīµ
áī½ áĪįáĪĿ
Ġáīł áīµ
áĬķáĭ °
áĪĭ áĭį
Ġáīħ áĭ±
áī ª
Ġáĭ¨ áīĢ
áĬ ĥ
áĮ ¢
áĪª áĭİáī½
ĠáĭŃ áĪ°
áī» áĪį
áĪ© áīµ
áĪĭ áĪĿ
ĠáĪĪ áĪĿ
Ġáĭ¨áīł áĪĪáĮł
áĪ© áĬķ
ĠáĬłáĪģ áĬķáĪĿ
ĠáĬ¢ áĭ¨áĪ±áĪµ
áĮį áīł
¾ áī½
Ġáī° áĪµáįĭ
áĬ ¦
Ġáĭ ²
Ġáīł áĭļáĭ«
ĠáĭĪ áĪŃ
áĬ¨ áĪ«
áĬĲ áĭļáĪħ
Ġ 7
áĮł áĪ«
ĠáĮ¨ áĭĭáī³
áĮ ¹
áįĪ áĭį
áī° áĭĭáĪį
ĠáĭŃ áĪģáĬķ
áĪ¥ áĪ«
áĭ® áī½
Ġ 8
áĬ¨ áī³
ĠáĪĿ áĪµ
áĭ°áĪ¨ áĮĪ
ĠáĬ¨áī° áĪĽ
ĠáĬ¥áĬĲ áĪ±
áįĪáĪį áĮī
Ġáį ĭ
Ġáī¥ áĪŃ
ĠáĬ¥ áĭµ
Ġáĭ¨áĪĿ áĬķ
ĠáĮĢ áĪĿáĪ®
Ġ A
áī¥ áĬķ
ĠáĭŃ áĮĪáī£
áīµ áĬĵ
Ġáĭķ áĭµ
Ġáĭ¨ áĪħ
ĠáĭĵáĭŃ áĬĲáīµ
áĮ£ áĪį
áĪĿ áĬĲáīµ
Ġáīł áįį
o n
ĠáīĢ áĪĭáĪį
ĠáĪĪ áĭļáĪħ
ĠáĮĪ áĬķáĭĺáī¥
ĠáĪĺ áĮ¥
Ġ1 0
áĪĺ áĭį
áĬķáĭ³ áĬķáĭ±
áĪĭ áīħ
i n
Ġáĭ¨ áĪµ
ĠáīµáĪĿáĪħ áĪŃáīµ
áĪģ áĬĳ
ĠáĬłáĪį áī°
Ġáī° áĮ¨áĪĽáĪª
Ġáĭ¨ áĪ°
áĬ« áī³
áĬ ¸
Ġáī¥ áĭ¬
áī³ áĭĪ
áĪ½ áĬķ
áīĢ áĪĺ
áī¥ áĬĿ
Ġáĭ¨áĬ¥ áĪŃáĪµáĭİ
ĠáĮĮ áī³
áĬĵ áĬķáī°
áīł áĭį
áĪĪ áī²
Ġáīł áī³
áĭĽ áīµ
ĠáīłáĬ ¢
áĪĭ áĪĽ
Ġáīłáī° áĮ¨áĪĽáĪª
áĪĨ áĬķáĪĿ
ĠáĬłáĪĿ áĪĭáĬŃ
áĭ ¥
Ġáīł áĪĮ
ĠáĪĺ áĪŃ
ĠáĪ ł
áīĤ áīµ
Ġáĭ¨ áĪ«
ĠáĬ¥áĮħ áĮį
áĬĵ áĮĪáĪŃ
ĠáĬ ¦
ĠáĬĲ áīłáĪ¨
áĪ» áĪĪ
Ġáĭ ¶
ĠáĭĪ áĬķáĭµ
áĭ² áĪħ
áĪ¥ áīµ
áĪĪ áĬĽ
Ġáĭĺ áĪĺáĬķ
Ġáī° áĮįáī£
e r
ĠáĪ ¶
áī» áī¸áĭį
ĠáĪĺáĮł áĬķ
áĬĲ áĮĪ
ĠáĬł áĭµ
Ġáĭ¨áĪļ áĪį
áī º
áĬĲ áĮĭ
Ġáīµ áĪįáīħ
áĬĲ áĪ±
ĠáīłáĪĻ áĪī
áĬ Ĺ
Ġáīµ áĬŃ
áĪı áĪį
áĭ² áĭ®
áĪĪ áĭĭáĪį
ĠáĪĺ áĪĪ
Ġáĭ« áĭį
áĪ³ áī¸áĭį
ĠáĪĿáĬŃáĬķáĭ« áī±áĪĿ
áĪĭ áĪĪ
áį¡ -
áĮ Ħ
ĠáĪĽ áĪħ
2 0
ĠáĪį áī¥
Ġáĭ¨ áĮĪ
áĬ¨ áįį
áĮį áĬĵ
ĠáĪĪ áĭį
Ġáīł áĪ°
ĠáĪĺ áĮ½áĪĲ
áī ¨
áĬ© áīµ
áī¤ áī°
Ġ /
áĭ® áĬķ
ĠáĬ« áĪį
áĭ³ áĬķ
Ġ1 9
áĪĺ áĪ°
Ġáĭ¨áĬ¥ áĮįáĭļáĬłáī¥áĪĶáĪŃ
ĠáĮ ĵ
áĮ« áĭĪ
áĮł áīµ
Ġáīł áĪµ
Ġáīħáĭ± áĪµ
ĠáĬ¥áĬķ áĮį
áī£ áĬķáĭ«
Ġáīł áĭį
áĪŃ áĭĿ
ĠáĪģáĪī áĬķáĪĿ
áĮ ®
áĪį áĬķ
áī¥ áĪ¨
ĠáĪĪ áĪļ
ĠáĬł áĮĭ
Ġáĭ¨ áĮį
Ġáĭ¨ áī£
Ġáĭ¨ áĪķ
ĠáīłáĬ¥áĪŃáĮį áĮ¥
: :
Ġáīł áĬ©áĪį
ĠáīµáĬķ áĪ½
ĠáĮ ¸
ĠáĬ¨ áĪĽ
Ġáī° áī¥
áįĪ áĪŃ
ĠáĬł áĮĪáĪŃ
Ġ P
áĪį áįį
ĠáĬł áĭ³
áĮįáīł áĪªáĭ«
ĠáĬ ª
Ġ 9
áĬ¨ áĪĭ
ĠáĪĪáĪĽ áĭµáĪ¨áĮį
ĠáĬ¥áĭį áĬĲ
áĭĪ áĭ°
áĬķ áīĢ
áĭ¨ áĭį
ĠáĪ Ħ
Ġáī½ áĮį
áĪĺ áĪ«
áĪĪáī² áĬ«
áĬĵ áī¸áĭį
Ġáī³ áĪªáĬŃ
Ġáīģ áĮ¥áĪŃ
ĠáĬ¨ áī£
Ġáĭµ áĬķ
Ġáĭ ©
ĠáĪĪ áī°
áĪĭ áĮİ
Ġáĭ«áĪĪáĭį áĬķ
ĠáĪĺ áĪł
ĠáĬł áĪŃ
áĪ° áĮ¥
Ġáīł áĪķ
Ġáĭĭ áĬĵ
ĠáĪĪáĪĽ áĮįáĬĺáīµ
Ġáīł áĪ«
áī¥ áĭĻ
ĠáĪģ áĪį
áĪĥ áĪį
ĠáĬ¥áĬķáĭ° áĮĪáĬĵ
áĬŃ áĪŃ
ĠáĬłáĪĽ áĪ«
áĭĿ áī¡
áī½áĬķ áĬķ
Ġáī°áĪĺ áĪ³áĪ³áĭŃ
ĠáĪĺáĪį áĬ«áĪĿ
áĪ¨ áĮ¥
áī½ áĬĭ
áįĭ áīµ
ĠáĪĽ áĮįáĬĺáīµ
áĭ°áĪ¨ áĮį
ĠáĬłáĭŃ áĬĲáīµ
áĪ® áī½áĬķ
áĪŃ áĭ«
áĮ¥ áĬĲáīµ
ĠáĪµáĪĪ áĪĨáĬĲ
áį ¦
ĠáĭŃ áĭĺ
Ġáĭµ áĪĿ
ĠáĬķ áĮį
ĠáĪĿ áĬķáĭµ
áī³ áĭŃ
áĭ³ áĪį
Ġáĭ¨áĪļ áĪĪáĭį
Ġáĭ Ļ
áī½ áĪī
ĠáĬłáĬ« áī£áī¢
áĬ¨ áī±
ĠáĪĨ áĭŃ
ĠáĭµáĪŃ áĮħ
áĭį áĪį
áĪĪ áĪĺ
ĠáĬ¥áĬĲ áĪŃáĪ±
áĬ ħ
áĪ° áī£
ĠáīłáĬ¥ áĭį
Ġáī£ áĪħ
ĠáĪ² áĭ«
ĠáĪµ áīµ
ĠáĬ¥áĬĶ áĪĿ
áĮĪ áĪ«
Ġáī¢ áĪĨáĬķ
áĪĺáĪĪ áĪµ
ĠáĬ¥áĬķáĭ³ áĪĪ
Ġáī° áįĪ
Ġáī ª
Ġáĭ¨áī° áĪĪáĭ«áĭ©
áĪ¨ áĪĿ
ĠáĪµ áĪľ
ĠáĮįáĬķ áĬĻ
ĠáĪ ´áīµ
áĮł áī¥
áĬ¨ áĪ°
Ġáīµ áĪŃ
ĠáĪ° áĭĵáīµ
ĠáĬłáĮĪáĪįáĮį áĪİáīµ
Ġáī ĭ
áĮĪ áī¥
Ġáĭ« áĪ³
áįĪ áĪµ
ĠáĭŃ áĪĭáĪį
ĠáĪĺáī° áĮįáīłáĪªáĭ«
áĬŃ áĪµ
ĠáĬĲ áįĥ
Ġáįį áĪĭáĮİ
áĪĿáĬķ áīµ
áĭĭ áĪĪáĪģ
áĭ°áĪŃ áĮį
áĮłáīĥ áĪļ
ĠáĪĿáĪŃ áĮ«
ĠáĪ³áĭŃ áĪĨáĬķ
áĪĺ áĬĵ
c t
ĠáĪĨáĬĸ áĪĿ
ĠáĬ¥áĭį áĬĲáīµ
Ġáįį áīħáĪŃ
Ġáĭ¨ áĬĲáīłáĪ¨
áĮĪ áĬĽ
Ġáī¥ áĪĪáĭį
áĬĸ áĪ©
ĠáĮ¥ áīħáĪĿ
áĪ° áĮ¡
ĠáįĬ áīµ
áĭµ áĪŀ
áīħ áĭµ
áĪ ¹
Ġáī° áĪĺáĪį
áĪ ĳ
ĠáĬĲ áīłáĪ©
áĪĽ áĭŃ
áįį áĪ«
ĠáĬ¥áĬķ áīħ
áī¹ áĬķ
áĪµ áĪĽ
ĠáĪĺ áīĢ
Ġ S
áįĪáĪį áĮį
ĠáĮĵ áĭ°
áĬķ áīĭ
ĠáĪĺ áĪĺ
ĠáĪķ áĭŃáĭĪáīµ
ĠáĬ© áī£áĬķáĭ«
Ġáīłáī° áĪĪáĭŃ
Ġáī° áĮĪ
ĠáīĢ áĬĵáīµ
ĠáĬ¥áĬķáĭ° áī°
áīĥ áīµ
áī° áĬŀáī½
áī½ áĬķáĪĿ
áĪ¨áĮĭ áĮĪ
áĪį áĬŃ
áĪŃ áī²
ĠáĬł áīħ
áĪµ áī¥
ĠáĮį áī¥
áĭ°áĪ¨ áĮī
áĪ« áĪī
Ġáīł áĭ°
Ġáĭ° áĬķ
ĠáīłáĪŃ áĬ«áī³
áĬķ áĬĽáĭįáĪĿ
ĠáĬł áĪĭáī¸áĭį
ĠáĪĺ áĭį
áĪ° áī¡
ĠáĬłáī¥ áĭĽ
Ġáīł áĪį
Ġ ...
áĪµ áĬķ
Ġáī ´
áĮĪ áī¡
áįĸ áĪŃáīµ
áī° áīµ
áĮł áĪ©
áĪĺ áīµ
ĠáĪµ áī¥
ĠáĮį áĪĿ
ĠáĪĺáĬķáĮį áĪµáīµ
áĪ£ áĪªáĭ«
áĪĪáĭį áĪĿ
áĭ« áĪį
ĠáĪĽ áĪ³
áī¥ áĪ¨áīµ
áĭ°áĪŃ áĮī
ĠM e
ĠáĬ¥áĪŃ áĮį
áĪ» áĪ»
ĠáĪĺ áĭ°
ĠáĬĲ áĬķ
Ġáīł áĭĵáĪĪáĪĿ
áī°áĬĽ áĭį
áĬĵ áĭĪ
ĠáĪĺáĬķ áĮĪ
ĠáĭŃ áī»
ĠáĮł áīħ
áĪĪ áĪĽ
ĠáĪĿ áĭµáĪŃ
áĮł áĭŃ
ĠáĬ ĸ
ĠáĭĿ áĮį
ĠáĬ¥áĬķáĭ³ áĭŃ
ĠáĮ ¦
Ġáĭį áĭµ
ĠáĪĺáĮ½áĪĲ áįį
Ġáīłáī°áĮ¨áĪĽáĪª áĪĿ
Ġáĭ¨ áĪį
áĭŃ áĬķ
Ġ ?
ĠáįĪ áīĥ
Ġáĭ° áĪµ
áĮ¥ áĪ®
áĪĺ áĭµ
ĠáĪĽ áĬķáĪĿ
áĭŃ áĬĵ
Ġáīł áĭĵ
áĪģ áĪĪ
ĠáĪ ¸
áĭ° áĮį
ĠáĮ£ áī¢áĭ«
ĠáĬ¨áĭļáĭ« áĪĿ
ĠáĬ¨ áĪĮ
áĪĺáĪĪ áĬ¨áī°
ĠáĪ ª
ĠáĬĵ áīµ
ĠáĭŃ áĪįáīħ
ĠáĪ ľ
ĠáĬĥ áĭŃáĪį
áĪĬ áĭ®áĬķ
ĠáĭŃáī» áĪĭáĪį
Ġáī° áīĭ
ĠáĪĽ áĪµáī°
áĮĢ áīµ
Ġáī° áĪĽáĪª
ĠC or
áĬķáĭ¶ áī½
áĬł áīµ
áĪħ áĪĿ
áī£ áĭŃ
áĮłáīĥ áĪĭáĭŃ
ĠáĬł áįį
áĪĿ áĮĥ
áĮħ áĪĿ
ĠáĮĪ áĬĵ
ĠáĭŃáĮĪáī£ áĪį
áĪ º
áīł áīĥ
áĭ« áĭĿ
ĠáĪĿ áĬĵáĪį
áĪŃ áĬĲáīµ
s t
áĪĭ áįĬ
áĮł áįĭ
áīłáīµ áĬķ
áĬķ áĬ«
Ġáī° áĮł
áĪ¨ áĭµ
Ġáī³ áĪĭáīħ
Ġáĭ¨áĬ¥ áĬĶ
ĠáĪ² áĪį
áĪŃáĪµ áī¶
re ct
Ġáĭ¨áī° áĪ»áĪĪ
ĠáĭŃ áįĪáĪįáĮĭ
Ġáį İ
Ġáī£ áĪį
áī° áĬķ
ĠáĬ¥ áī£
áĪ¶ áī½
áĪŃáĪµáī² áĭ«áĬķ
Ġáį Ģ
áīĢ áĪĿ
ĠáĪĿáĪŃ áĮ¥
áĬ¨ áī¥
Ġáīħ áĪŃ
áĪ¨ áĭĭáĪį
ĠáĪķ áĭĿáī¥
áĮĢáĪĺ áĪŃ
ĠáĪħ áĭĿáī¥
ĠáĬķ áĮī
ĠCor rect
áĭ Į
Ġáĭ¨ áįĪ
ĠáĪµ áĬķ
áĭĽ áĪ¬
áĪ³ áĪį
áī³ áī¸áĭįáĬķ
ĠáĭŃ áīĢ
Ġáĭ¨ áĪĮ
Ġáīħ áĭµ
ĠáĬłáĬ« áĪį
ĠáĪĺ áĭĿ
áĪģ áīµ
áĪģ áĪĪáīµ
ĠáĬłáĪį áĬĲáīłáĪ¨
l e
ĠáĬ¥ áĪ«
ĠáĮĪ áĮ½
ĠáĪĺ áĪ£áĪªáĭ«
ĠáĪĺáĪį áĪµ
áĭį áĭ«áĬķ
áĮł áĪ¨
Ġ [
ĠáĭĿ áĪŃáĭĿ
ĠáĮįáĬķáĬĻ áĬĲáīµ
a n
ĠáĬł áīł
áĭį áīĥ
ĠáĬłáīĢ áįį
ĠáĬłáĪĪ áĪĺ
áĪĭ áĭĬ
áĬķáĮį áĭµ
áīł áĭ«
áĬĳ áĬķ
ĠáĪ ¦
áĪħ áĬĵ
áĪĻ áĭ«
áĪµ áīĥ
áĪµáī³ áĭĪ
ĠáĪ¥ áĪŃ
Ġáīĭ áĬķáīĭ
Ġáīł áĬĲ
ĠáĪĺ áī¼
áĭ«áĬķ áĪµ
áĪī áĬķ
ĠáīłáĪĺ áĪĨáĬĳ
áĪ« áĪ½
ĠáĪį áĬŃ
ĠáĪĺ áĪ³
Ġáī° áĮłáīĥáĪļ
ĠáĬłáĪĪ áĬĿ
áĮł áĭį
áĮĪ áīµ
Ġáĭ¨áī° áĭĪáĪ°
áĮł áĬĽ
áĮĭ áīµ
ĠáĮį áĪį
áĬ« áīµ
Ġáīł áĭĪ
áī½ áĭį
ĠáĪĽ áĭ¨áīµ
ĠáĬ¨áī£ áĭµ
áĭŃ áī³
Ġáĭį áĮŃ
áĪĪ áĭ¨
áīł áĪ«áĭĬ
ĠáĪĪáĪĽ áĪµ
Ġáĭµ áĮĭ
áĪ¯ áĪį
áĮłáīĢ áĪĻ
áĭĭ áĬķ
ĠáĪĺ áĪĿ
ĠáĪĺáĬķáĮį áĪ¥áīµ
áī §
ĠáĪĺ áĮ£
áĬ¨ áĬĵáĭĪ
ĠáĪĺ áĭµáĪ¨
Ġ !
áĪ® áįĵ
áĬĲ áĪµ
ĠáĪĺ áī³
áįī áīµ
ĠáĬ¥áĪŃ áĪĿáĮĥ
áĮİ áī½
Ġ1 5
áĪĨ áĬĵ
ĠáĭĪ áĬķ
áī³ áĪĽ
Ġáĭ¨ áĪ°áĭį
áĬĲ áĪŃáĪ±
Ġáīµ áĬ©
ĠáĬ¥áĬĲáĭļáĪħ áĬķ
ĠáĬ¥áĭ« áĬķáĭ³áĬķáĭ±
áĪ¬ áīµ
1 9
Ġáĭ«áĪį áī°
áĪį áīģ
ĠáīµáĬŃ áĬŃ
áĪį áĬĿ
a r
áĪĭ áĪ½
ĠáĬł áĪľáĪªáĬ«
ĠáĪ´ áī¶áī½
ĠáĪĽ áĭĪáīħ
ĠáĬłáĪµ áĭ°
áīµáĪĿ áĪħ
áĭµ áĪĿ
Ġáĭ¨ áĭĺ
Ġáĭ¨áĬ¥ áĬĽ
Ġáĭ¨ áĮ¥
ĠáĬłáĭŃ áī½áĪįáĪĿ
áīĨ áĪĿ
ĠáĮ¥ áīĤáīµ
áĪĽ áĪį
ĠáĭĪ áĮ£
áĭ« áĭĺ
áīł áĬĽ
ĠáĭĻ áĪªáĭ«
áīł áīħ
áīĨ áĮ£
Ġ1 2
Ġáī¢ áĭ«áĬķáĪµ
Ġáīł áĮį
Ġáī° áĬĵ
áĬª áĬĵ
áĬĲ áĮį
áī£ áĪĪ
ĠáĬ¥áĬķáĭ° áĪĿ
áĪŃáĪµáī¶ áĪµ
ĠáĭŃ áĪĨáĬķ
áī¨ áĪŃ
Ġ i
áĭİ áī³áĪį
ĠáīĢ áĮ¥
ĠáĬł áĮį
áĪµáīĥ áĪ´
Ġáĭ ®
ĠáĪĺáĪł áĪ¨áīµ
áĪ° áĭµ
ĠáĬ¥ áĬ®
áĮĢ áĪĿ
áĬ« áĪį
áĬ¥ áĬĶ
Ġáī° áĮ«
Ġáīł áĪħ
áĬķ áĬŃ
áĪ³ áĬĶ
áī½áĪģ áĬķ
ĠáĬŃ áĪį
áĭĪ áĪĪ
áī¥ áĪ«
áĮĪ áĬĲ
áįİ áī½
Ġáĭ¨ áĭļáĪħ
Ġáīł áīħáĪŃ
ĠáĭŃ áįĪ
áĪª áī±
a t
ĠáĬĲ áĮ»
ĠáĬ¥ áĪ·
áĪŀ áīµ
ĠáĬłáĪµáī° áĭ«
Ġáī°áī¥ áĪİ
áĪĪ áĬĽáĪį
ĠáĭŃ áī³
Ġáĭ« áĪĭáī¸áĭį
Ġ T
ĠáīłáĬł áĪģáĬĳ
ĠáĬ¥áĪŃáĪ± áĪĿ
áĭ³ áīµ
áĪŃ áĬŃ
ĠáĪĿ áĮįáī¥
ĠáĬł áĪ°
ĠáĪĽ áĭķ
ĠáīłáĪĽ áĪĪáīµ
ĠáĪ º
Ġáĭľ áĬĵ
áĮ¡ áīµ
Ġ2 00
Ġáīłáī³ áī½
áī´ áĬķ
áĪĬ áĭĿ
ĠáĭŃ áīłáĪį
áĪ° áĪŃ
Ġáĭ« áĬķ
Ġáĭ¨ áįį
Ġáĭ¨ áĪĨáĬĳ
áī ¾áī½
áĮł áĪį
ĠáĬ¥áĪµ áĬª
ĠáĪĢ áĮĪáĪŃ
áīĥ áĪī
áĬŀ áī¹
Ġ â
Ġáĭ Ĳ
ĠáĮ ¤
ĠáĪĺ áįįáīµ
áīħ áĪ¨áī¥
ĠáĪĺáĮį áĪĪ
áĬŃ áĪĿáĬĵ
Ġáĭ¨áī° áįĪ
áĬ® áĬĸ
ĠáĪĽáĬķ áĬĽáĭįáĪĿ
ĠáĪļ áĬĴ
Ġáĭ¨ áĪĪáĭįáĪĿ
ĠáĬ« áĪĪ
Ġ N
Ġ1 1
Ġáī£ áĭŃ
áĭĭ áīĤ
ĠáĭŃ áĬĸ
ĠáĬ¥áĬķáīħ áĪµáīĥáĪ´
áĪĥ áĬķ
ĠáįķáĪ® áĮįáĪ«
ĠáĪµáĪĪ áĪļ
áĮĮ áī³
ĠáĪĪáĭį áĮ¥
áĮĭ áĪ«
ĠáĬĲ áĮ¥
ĠáĬł áĮ¥
ĠáĪģáĪį áĮĬáĭľ
ĠáĪį áĮĨ
ĠáĭŃáĪĺáĪµ áĪĭáĪį
Ġáī¡ áĭµáĬķ
áįĪ áĪ«
Ġáįĵ áĪŃáī²
Ġáĭĺ áĪŃ
ĠáĬ¥ áĭļáĭ«
ĠáįįáĪĭáĮİ áīµ
Ġ1 8
ĠáĬłáĭ° áĮĭ
o u
áīĤ áīĥ
ĠáĭĪ áĭ³
ĠáīłáĪĺ áĮ¨áĪ¨áĪ»
ĠáĪĪáĪĺ áĪµ
áīĥ áĪĪáĪģ
áīµáĪĿáĪħ áĪŃáīµ
Ġáĭ¨ áĭ°
áĪİ áī½áĬķ
áĮĪ áĪĽ
áĬķ áĬĵ
ĠáĭµáĮĭ áįį
ĠáĮ «
ĠáĭŃáĮĪ áĬĽáĪį
Ġáĭ¨ áįĸ
áĪİ áĮĤ
ĠáĬłáĪĺ áīµ
ĠáĪĿáĬĵáĪį áī£áīµ
áĪį áĮ£
ĠáĪĺ áĮ¨áĪ¨áĪ»
ĠáĭįáĮ¤ áīµ
áīł áĪĭ
áī½ áĪĪáĭį
Ġáīł áĭŃ
Ġáĭ« áĪĭ
Ġáīª áĭ²áĭ®
áĬĲ áī¶áī½
áīł áī³áĪį
ĠáĬ¢ áīµáĭ®áĮµáĭ«
ĠáĮī áĭŀ
áĭŃ áĪĽ
áĭĪ áĮ¥
áĪĺáĪį áĬ¨áīµ
áĪ°áĮł áĭį
ĠáĪĽ áĪĪ
ĠáĪŃ áĭķ
Ġáī¢ áĪĨáĬķáĪĿ
ĠáĬł áĭ«áĪµ
áĪ³ áī°
ĠáīµáĬŃáĬŃ áĪĪáĬĽ
áĪ° áīł
áĭ« áīµ
Ġ I
Ġáĭ¨ áĬŃ
ĠáĪĤ áĭ°áīµ
ĠáĪĺ áĮĢáĪĺáĪªáĭ«
Ġ W
ĠáĪĺáī¥ áīµ
ĠáĮ½ áĪĳ
ĠáĪµáĪľ áīµ
áĪ° áĬķ
Ġáī¥ áīµ
áīłáīµ áĪĿ
áĮł áĭ¨
Ġáĭį áĪ³áĬĶ
áĪ² áī²
ĠáĭŃ áĪĺáĪį
ĠáĭŃ áīħáĪŃ
ĠáĬ¥ áĪĿáĬĲáīµ
Ġáīł áĪ¨
ĠáĪĪáĪĿ áĪ³áĪĮ
Ġáī° áĭ°
áĮĪ áĭ°
Ġ E
ĠáĬ ³
áĪµáĪ« áĬ¤áĪį
áĭŃáĪĽ áĬĸ
ĠáĬ¥áī£ áĬŃ
áĮĭ áĪª
ĠáĭŃ áĬĸáĪŃ
áĬ¨ áĪĪ
ĠáĮ¥ áīħ
e n
ĠáīłáĪĮ áĪĭ
ĠáĬ¥áĬķáĭ³ áĪį
Ġáīłáīµ áĬŃ
áĪĭ áīĢ
áī£ áĪī
áĬĹ áĪį
áīĭ áīĭ
Ġáĭ«áĪµ áįĪáĪįáĮĭ
áĬĴ áī¨áĪŃ
áĬł áĪį
ĠáĪĪáĬ¥ áĬĶ
Ġáĭ« áĭ°áĪŃáĮĭ
Ġáĭ° áīĤáīĥ
áī³ áĭİáī½
ĠáĬ¨ áĪĿ
áĮĪáĬĺ áĭį
áįĪáĪį áĮĪ
.. ..
ĠáĬ¥áĬķáĭ° áĭļáĪħ
Ġ G
áįĪáĪĪ áĮį
ĠáĮł áīĥ
Ġáī »
ĠáĮįáĪĿ áĮĪáĪĽ
áĮ«áĭĪ áīµ
Ġáīł áīĤ
Ġ1 4
ĠáĬĲ áĪħ
áĬĴáī¨áĪŃ áĪ²áī²
ĠáĭŃ áĭĪ
ĠáĬłáĪĪ áī£áī¸áĭį
ĠáĪ° áĪĭáĪĿ
Ġáĭĺ áĪĺ
áĪĪ áĬĿ
áĮĪ áĭĽ
ĠáĮĪ áī¥
áĪ° áĪ©
ĠáĪĺ áįį
ĠáīłáĪĺ áĮĢáĪĺáĪªáĭ«
ĠáĮłáīĥ áĪļ
Ġáĭ¨ áĬķáĮįáĭµ
Ġáīł áīł
o m
ĠáĬ¥áĪµ áĬ«
ĠáīĢ áĪŃ
Ġáĭĵ áĪĭáĪĽ
ĠáĪĺ áĮłáīĢáĪĿ
áĭ³ áĪŃ
ĠáĪļ áĪĬáĭ®áĬķ
áīģ áĪĿ
áī¶ áī¹
ĠáĭĿáĪŃáĭĿ áĪŃ
ĠáĪ³ áĪĿáĬķáīµ
Ġáīł áĪ½
áĪ« áĬķ
áĭļ áĪģ
ĠáīłáĪĺ áī¶
ĠáĮį áĭµ
Ġáįĸ áĪĬ
ĠáīłáīĢ áĪĭáĪī
ĠáīłáĪĺ áĪµ
ĠáīĢ áĭ°áĪĿ
ĠáĬ¥ áįĪáĪįáĮĭ
áĬ® áī½
ĠáĪĽ áĪµáī³áĭĪ
Ġáįİ áī¶
Ġáī° áĭĪ
ĠáĭĪ áĪ¨
ĠáĪĺ áĬĲ
áĬĲáīµ áĬķ
áĬķ áīħ
ĠáĬ¥áĬķáĭ°áĪļ áĭ«
ĠáĪĺ áĭµ
áī¸áĭį áĪĿ
ĠáĪĺáĬķ áįĪáĪµ
áĪ« áĪ²
áĪ¨áĮĭ áĮį
Ġáĭ¨áĪļ áĬ¨áī°
Ġáīł áĬŃ
áĭ³ áĭ°áĪŃ
áĭ°áĪ¨ áĮĪáĭį
áĬ¨ áįĪ
ĠáĪĿáĬŃ áĪŃ
áī» áĪĪáĪģ
áĪĻ áĬķ
áĬ« áĪĦ
ĠáĬł áĭĿ
ĠáĬłáĮį áĬĿ
áĪ³ áĭĬ
áīĢ áĪ¨
áĪ° áīµ
áĬĸ áĪ¨áĭį
áī¡ áĪŃ
áĮĪ áĪĿ
áĭ« áĭĬ
áį ģ
ĠáĪĿ áĪį
áĪ ¾
ĠáĮīáĭ³ áĭ®áī½
áĪĭ áĪŃ
áī¥ áīµ
ĠáĬł áī³
áĭ« áĬĶ
áĮłáīł áīħ
i t
Ġáī¥ áĪĪáĭĭáĪį
Ġ1 3
ĠáĬłáĪįáĬĲáīłáĪ¨ áĪĿ
ĠáĪĢ áĮĪ
áī½áĪĭ áĪĪáĬķ
áī¦ áīµ
áĮī áĪĿ
áĬŃ áĬĸ
áīĢ áĬĳ
Ġáī° áīĥ
ĠáĭŃ áĪĺ
Ġáĭ¨áĪĺ áĮ¨áĪ¨áĪ»
áīĢ áīħ
ĠáĪµ áĪĭ
ĠáĪĿ áĪ³áĪĮ
ĠáĬ¥áĬĲ áĪĨ
áĮ¥ áī³
ĠáĬ¥áĬķ áī½áĪĭáĪĪáĬķ
ĠáĪĺ áĬĸáĪŃ
00 0
ĠáĬ¥áįĪáĪįáĮĭ áĪĪáĪģ
Ġ B
ĠáĪ ©
ĠáĪµ áĪħ
Ġáĭ¨ áĪĻ
ĠáĪĺáĮįáĪĪ áĮ«
ĠáĬł áĬŃ
áĪĽ áĬķ
áĪĭ áī½áĬķáĪĿ
áĮ£ áĪļ
áĮ¹ áĪĿ
áĮ® áī½
Ġáīł áĪĨáĬĲ
Ġáĭ¨áĪļ áī½áĪį
ĠáĬłáĪĺ áĪ°
ĠáĬĲ áįį
ĠáĬłáĮĪáĪįáĮį áĪİ
Ġáĭ¨ áī¥
áĬķáĭ Ľ
ĠáĪĺáĪĺ áĪªáĭ«
Ġ3 0
áĭ± áīµ
áīĢáĪĺ áĮ¥
áįĬ áĭ«
r o
áĪµ áī±
ĠáĪ ±
Ġáĭ¨ áĪŀ
ĠáĪį áĪĿ
Ġáī³ áĭ²áĭ«
ĠáĬł áĪ¸
áĭĽ áĭĿ
áīĢ áĪµ
áĮ ©
i c
" >
áĬĲ áįį
Ġáī¥ áĪĪáĬķ
Ġáīģ áĮ¥
ĠáįķáĪ® áĮĢ
áĭ° áĪŃáĪµ
Ġáĭ¨ áĬ«
ĠáĬ¥ áĪŃáĪµ
áīĢ áīł
áĬķáĭ ²
ĠáĪĪáĪĽ áĪ³
áī «
áĭĺ áĬķ
ĠáĬ¨ áĭĪ
áĬķáĭ± áĪµáīµ
Ġáī°áĮ« áĭĭ
Ġáĭĺ áĭ´
áĭ° áĪį
áĪ¨ áī°
ĠáīµáĬ© áĪ¨áīµ
Ġáĭ¨ áĭĵáĪĪáĪĿ
áĭ« áĪĪáĪģ
Ġáī° áĪ«
ĠáįĪáīĥ áĭµ
áĭ¬ áĬķ
ĠáĬł áįĪ
ĠáĬł áĭİ
áĭļ áīĥ
Ġáī°áĬĵ áĮį
Ġáĭ¨áĪļ áīĨ
áĪĪ áĪį
áĪĿ áĪĭáĬŃ
áĬ¨ áįĭ
Ġáī° áĭ°áĪŃ
ĠáĬ ĳ
ĠáĪķ áĮį
áĬ®áĬĸ áĪļ
Ġ R
áįĪáĪĪ áĮī
Ġáįķ áĪ¬
ĠáĪĺáĪµ áĮłáīµ
Ġáĭį áĪĥ
áĪ ´áīµ
ĠáĪ« áĪµ
Ġ F
áĮ §
áī£ áĪĪáĭį
ĠáĬłáĭµáĪŃ áĮİ
ĠáĬłáĭŃáĭ° áĪīáĪĿ
áĭį áĪ®áįĵ
áįĪ áĮ¸
Ġáĭ¨ áĮįáĪį
Ġáĭ¨áĪĺáĮĢáĪĺáĪªáĭ« áĭį
ĠáĬ¥ áĪĿ
Ġáĭ« áĬķáĬķ
ĠáĬłáĪĭ áĭį
áĪ© áĪĿ
áī° áĬĵ
ĠáĮĪ áĪį
Ġáĭ° áĪŃ
áĬ ¾
áĬĲ áīłáĪŃ
áĭ £
áī¤ áī±
áĬŃáĬĸ áĪİáĮĤ
ĠáĭµáĪŃáĮħ áīµ
Ġáĭ« áĭµáĪŃ
áĪį áĮ£áĬķ
Ġáĭ« áĪīáīµ
Ġáī½ áĪİ
o o
ĠáĪµ áįįáĪ«
ĠáīłáĬ¥ áĮįáĭļáĬłáī¥áĪĶáĪŃ
áīģ áīµ
áĭĬ áīµ
ĠáĪĺ áĪ¥
áĪĺáĮ£ áĪį
áī¥ áĭİáīµ
áĭĭ áīµ
áĮł áĬķ
áĬķáĬ« áĪ«
Ġáĭ¨áī° áĪĺ
ĠáĪĺ áĪª
áĮĵ áĪį
áī½áĬĭ áĪį
áĭĺ áĪŃ
ĠáĭŃáĪĺáĪį áĬ¨áī±
ĠáĪĺáĪ³ áĪªáĭ«
ĠáĬł áĬĲ
Ġ +
áĬķáīĢ áĪ³
ĠáĬł áī¶
ĠáĪĽ áĭį
áĪ° áī¦áī½
ĠáĪ ®
ĠáĪĺáĪį áĬ©
ĠáĬłáĭ³ áĭ²áĪµ
Ġáī£ áĪĪáĭį
ĠáĮ¤ áĬĵ
áī° áĬĵáĪį
áĪĭ áĬķ
ĠáĪĪáĪĺ áīĢ
Ġ _
ĠáĬŃáįį áĭ«
Ġáī°áĪĽáĪª áĭİáī½
ĠáĬł áī£áīµ
a l
áĮł áīħ
ĠáĬłáĪĽ áĬ«
ĠáĭŃáĪĺáĪµ áĪĪáĬĽáĪį
ĠáĪĿ áĪĭáĪ½
áī» áī¸áĭįáĬķ
ĠáĭĪ áĮ¥
áĬķáĮį áĪµáīµ
áĪį áĪħ
Ġáīł áĮįáĪį
ĠáĪĪáĪĺ áĮį
ĠáĬ £
ĠáĭŃáīłáĪį áĮ¥
ĠáĮ¥ áĪ«áīµ
Ġáĭ¨áĪļ áĪ°áĮ¡
áĪ° áĮ£
ĠáĬł áĭ«áĭį
áĪĬ áīµ
ĠáĮ Ĩ
áī³ áī½áĪģ
Ġáĭ° áĪħáĬķ
Ġáīłáįį áĮ¥áĬĲáīµ
áĭķ áĪ«
áĭ³ áī³
áĮ£ áĪª
áĬ© áĪĿ
ĠáĪĿáĬķáĭµ áĬķ
Ġáĭķáĭµ áĪľ
Ġáīł áĮŃ
Ġáįį áĪŃáĭµ
áĪĪ áįį
áįĪáĪį áĮįáĪĿ
Ġáĭ¶ áĪĭáĪŃ
áĪĽ áĪĽ
áĪ¨áĭ³ áīµ
ĠáĬ³ áĪµ
Ġ *
Ġ1 6
áĭ² áĭ«áĭį
ĠáĮį áĪĪ
ĠáĬ¥áĭįáĬĲ áī°áĬĽ
áĮŃ áĪŃ
ĠáĭĪáĭŃ áĪµ
Ġáīł áĪµáī°
ĠáĪĪáĬ¥ áĪŃáĪµáĭİ
Ġ c
ĠáīłáĭļáĪħ áĪĿ
Ġáī£áĪĪ áĪĻáĭ«
Ġáī¤ áī±
ĠáĬ¥áĬĽ áĪĿ
Ġáĭ¨áĪĺ áĪµ
ĠáĪĪ áĭĺ
ĠáĬ¨áĬł áĬķáĭµ
ĠáīłáīµáĬŃ áĬŃáĪį
Ġáīł áī¥
Ġáīłáī° áĪĺáĪĪáĬ¨áī°
áīłáĪ© áīµ
áĪľ áĬķ
áĭ« áĬķáĭ³áĬķáĭ±
Ġáīłáī° áĪĺ
áĪ¨áĮĭáĮĪ áĮ¥
ĠáĬ¥áĪŃáĮį áĮłáĬĽ
ĠáĮĪ áĭ°
Ġáĭ¨áĬł áĪľáĪªáĬ«
ĠáĬł áĪ«áīµ
Ġáĭ¨áī° áĪĪáĭ¨
ĠáĬ¥áĪ± áĬķ
ĠáĪģáĪĪ áī±áĪĿ
Ġáīµ áĭķ
áĮĭ áĭŃ
áĪŃ áĪĿ
ĠáĬĲáĮĪ áĪ®áī½áĬķ
Ġ D
ĠáĭŃ áĪ°áĪĽ
ĠáīĨ áĭŃ
áĬ¨áī° áĪĽ
áĭ³ áĪļ
ĠáĬłáĪĽáĪ« áĮŃ
áĪĿ áįĴ
ĠáĪµáĪĪáĪĨáĬĲ áĪĿ
áĮ¥ áĪĿ
ĠáīłáĪĽ áĬķáĬĽáĭįáĪĿ
áĭ ·
ĠáĭŃáįĪáĪįáĮĭ áĪī
Ġáīłáĭ¨ áīĢáĬĳ
ĠáĬ¨ áĪ°
ĠáĪ¦ áĪµáīµ
Ġáī½áĮį áĪ®áī½
ĠáĮĵáĭ° áĬĽ
áĭ¨ áĪĿ
ĠáĬĲáĭį áĬĵ
Ġ1 7
Ġáĭ¨áĪĺ áĮ£
áĪŃ áī£
áĮįáĬĵ áĪĪáĪģ
ĠáĪĨ áĬĲáĭį
áĪ ¡
Ġáĭ¨áĪĨáĬĲ áĭį
ĠáĬ¥áĬķáĭµ áīµ
Ġáīħáĭµ áĪļáĭ«
ĠáĬ¥áĬĶ áĬķ
Ġáĭ© áĬĴáī¨áĪŃáĪ²áī²
áĭ¨ áĪģ
ĠáĬ¢ áĬķ
áīĢ áĭµ
ĠáĬ¥áĬķáĮį áĭ²áĪħ
áĪĺ áĪĿ
ĠáĬĥ áĮ¢
ĠáĬłáĪĪ áī¥áĬķ
Ġáīł áĮĪ
t h
ĠáĭĪ áĮª
áī£ áĭĬ
ĠáĬł áīħáĪŃ
ĠáĬłáĪµ áī¸
áĪŃáĪµáī² áĭ«
Ġáīł áī£
áĬķáĭ±áĪµáīµ áĪª
ĠáĪĺ áĬªáĬĵ
ĠáĬłáĪĭáĭį áīħáĪĿ
áīł áĬŀáī½
Ġáĭį áĭŃ
Ġáī° áĭĪáĭ³
ĠáĮł áĬķáĬ«áĪ«
áī» áĪĪ
áįĪ áīµ
áīĭ áĪį
áĬĲáĮĭ áĮĪáĪŃ
áĬ¨ áĭį
ĠáĬłáĬķáĭ °
áĭ² áĪ±
Ġ H
ĠáĪĺ áĪĭ
áĪĺ áĮ¡
ĠáĪĪ áĪĮ
áĮ£ áĪī
Ġáĭ¨áĪļ áįĪáĪįáĮī
áĪĭ áĪĪáĪĿ
áī¡ áī¥
Ġáī¤ áī¶áī½
Ġáĭ¨ áĪ¥áĪ«
Ġáĭ¨áįĸ áĪĪáī²áĬ«
Ġáĭ¨ áīĨ
ĠáĬłáĪĪ áĬķ
áĭ°áĪŃ áĮĪ
áĪĭ áĪħ
áĪ ¦
Ġ2 4
Ġáī° áĪ°
ĠáĬŃ áĪŃáĪµáī²áĭ«áĬķ
áĮĪ áĪ¨
ĠáĬ¥áĬķáĭ ´
Ġáīł áĭµ
áĭį áĪµ
ĠáĪį áĬķ
ĠáĬłáĪµáī°áĭ« áĭ¨áīµ
áĪ³ áī¸áĭįáĬķ
ĠáĬ¥áĪµáĬ« áĪģáĬķ
Ġáĭ«áĪµáįĪáĪįáĮĭ áĪį
1 0
Ġáīł áĪģáĪīáĪĿ
áĪĺ áĮ¥
áĪ¨ áĭ±
Ġáī°áĮįáī£ áĪŃ
ĠáĬł áĪīáīµ
ĠáĮ¥áĭ«áīĦ áĭİáī½
Ġáĭ¨ áĮİ
ĠáĮĭ áĭľ
ĠáĪĺáĪį áĬ¥
áĬ¬ áīµ
áįĭ áĪį
áĭĪ áĭµ
ĠáĬĲ áĭī
áĮħ áīµ
Ġáīł áĭ°áĬķ
Ġáī¡ áĭµ
áĬ« áĬ¨
ĠáĭŃáĪ° áĮ£áĪį
ĠáĪµáĪŃ áĭĵáīµ
ĠáĪµáī¥ áĪ°áī£
áĪİ áĪµ
ĠáĬĸ áĪ®
Ġáī° áĮ½
ĠáĪĮáĪĭ áĭį
ĠáĭĿ áĪĿ
ĠáĮį áĪ«
e s
ĠáīłáĬ¥áĭį áĬĲáī±
áī£ áī¥
ĠáĬłáĪĺáĪ° áĮįáĬĵáĪĪáĪģ
Ġáĭ¨áĪļ áĮĪáī£
áĪĺ áī±
áĪµ áĪŃ
ĠáĪ°áĭİáī½ áĬķ
áī¦ áī½áĬķ
ĠáĪĿ áĪŃáīµ
áĮĪ áĪªáī±
Ġáĭ« áĮį
ĠáĬŃáĪį áĪį
ĠáĪ° áĪŃ
Ġáī° áĬ¨áī³
ĠáĮ½áĪĳ áįį
áĪ« áĭį
áīħ áĬĵ
Ġáī° áĪµáĪĽ
áĭ° áĮĪ
Ġ2 5
áĮ¥ áĪ¨áīµ
áĮĭ áĪį
ĠáĪĺ áīħ
áĭįáĪį áĭµ
áĪ´ áī¶áī½
ĠáĪº áĪħ
Ġáīµ áī½áĪĭ
áĬĵ áīĤ
Ġáĭ¨áĬĲáīłáĪ¨ áĭį
Ġáīµ áĪįáīģ
Ġáĭ¨áĪĿ áī³
áī¥ áĭĽ
ĠáĭŃ áī£
ĠáĭĪ áĪĭ
áĭ« áĭĻ
áĮĭ áĬĵ
áĬ¨áįį áī°áĬĽ
áĮ£ áĭŃ
áī½ áĪīáĪĿ
áīģ áĪŃ
Ġáĭ« áĪµáī°
ĠáĭŃ áīĨ
ĠáĪĺ áĪĦáĭµ
Ġáī ¶
áĪ ĵ
Ġáĭ«áĭµáĪŃ áĮī
ĠáįĪ áĮ£áĬķ
Ġáĭ¨áĪļ áī³
ĠáĪĺáĪµ áĪĺáĪŃ
ĠáĬłáī£ áĪĭáīµ
Ġ L
Ġáī¥ áī¸
ĠáĭŃ áĬĵáĮĪ
áĮ¥ áįį
áĬĲ áī±áĬķ
áĬķáĭ ´
Ġáīłáī°áĪĺ áĪ³áĪ³áĭŃ
ĠáĬ¥áĬĲ áĪ±áĬķ
ĠáĪĪ áĪģáĪīáĪĿ
ĠáīłáĪĿ áĭµáĪŃ
ĠáĬł áīħáĪĿ
Ġáĭ¨áĪĿ áĬĵ
ĠáĮ¦ áĪŃáĬĲáīµ
ĠáĪį áīµ
ĠáĪĪ áĪ«
ĠáĭĪ áĮĪ
ĠáĪ »
áĪ ĸ
áĪµ áī¡
áĭ°áĪ¨ áĪ°
áĪĭáī¸áĭį áĪĿ
ĠáĪĺáĬķáĮĪ áĭ¶áī½
ĠáĪ° áĮ¥
áĬ« áī£áī¢
ĠáĬŃ áĪŃáĪµáī¶áĪµ
ĠáĪģ áĪĭáī½áĬķáĪĿ
áĪ´ áĬķ
ĠáĪĺáĪ° áĪ¨áīµ
áīħáĪŃ áī¥
áĮĭ áĪļ
ĠáĬłáĪĿ áĪµáīµ
ĠáĬłáĭŃ áĪĺáĪµ
ĠáĪļáĬĴ áĪµáīµ
ĠáĪĺ áĪĪáĭ«
Ġáĭ° áĪµáī³
ĠáĮ¨ áĪĿáĪ®
áĪµ áĬĵ
áĭ° áĮĭ
áĬ¨áī³ áī°
Ġáī¤áī° áĪ°áī¥
Ġáĭ¨ áĬ®
ĠáĬķáĮį áĭµ
áĪŃ áĪĥ
ĠáĬ¨ áĪį
ĠáĭĿ áīħ
ĠáĪħ áĭŃáĭĪáīµ
ĠáĪµáĪį áĬŃ
ĠáĬŃ áī¥áĪŃ
ĠáĭŃ áĪĭáĪī
ĠáĪ° áĭĵ
ĠáĪĢ áĪ³áī¥
áĪ³ áī½
áĬĽ áĪī
ĠáĮįáĪį áĮ½
ĠáĬłáīł áī£
áī³ áĬķ
áĪĥ áĪĪáĪģ
ĠáĪĺ áī¶
ĠáĪ° áī¥
ĠáĬłáī¥áĭĽ áĬĽ
ĠáĬŃ áįī
áĪ« áĪŃ
áĮł áĪĭ
ĠáīłáĪĽ áĭµáĪ¨áĮį
áĭ°áĪŃ áĮĪáĭį
áĪ»áĪ» áĪį
áĪĭ áĬķáĭµ
áĭĪ áĪŃ
áĭ ĸ
a m
ĠáĬ¥áĬĲáĪŃáĪ± áĪĿ
ĠáĪ² áĪī
ĠáĮĪ áīłáĭ«
ĠáĬ¨ áĪĭáĭŃ
áĭĿ áĬĵ
ĠáĬłáĭį áīĥáĪĪáĪģ
áįĸ áĪŃ
Ġáĭ¨ áī¤áī°
áĮ¤ áĬĵ
ĠáĪĺ áĬŃ
áĪĿ áĪ¨
Ġáīł áĮī
ĠáĬ¥ áī½áĪĭ
ĠáĪĺ áĭĭ
ĠáĪł áĪ«
ĠáĬ¥áĬķáĭ° áĪĽ
áĬª áĭ«
ĠáīłáĪĺáĪĨáĬĳ áĪĿ
ĠáĪĺáĪį áĬŃ
áī¡ áīµ
Ġáī° áĪ³
ĠáĬł áī£áĪį
ĠáĮ¥ áĪ¨áīµ
ĠáĪĺáĮ¥ áįİ
áĬķ áīĥ
Ġáĭ¨ áĬ¤
áįĪ áĬķ
áįĪáĪį áĮĪáĭį
áīĢ áĪį
ĠáĬĥ áĪĭáįĬ
ĠáĬłáĮĭ áĮ£áĪļ
ĠáĭĿáĮį áĮģ
áĬ¨ áī£
áī¡ áĬķ
ĠáĪĺ áĮ»
ĠáĬ¥áĮįáĭļáĬłáī¥áĪĶáĪŃ áĬķ
ĠáĪĪáĪĽ áĭĪáīħ
áĬķ áĮī
ĠáĮįáĬķ áī£
ĠáīłáĪĺ áĬķ
ĠáĪĺáĪį áĭķ
ĠáĬĥ áĭŃ
áīĢ áĭ°
ĠáĪĺ áĮĪ
Ġáĭ¨áĬ¥áĪŃáĪµáĭİ áĬķ
áīłáĪ¨ áĪ°áī¥
áĮį áĬķ
Ġáīł áīħ
áĪª áīµ
áĬ¸ áĭį
ĠáĬŃ áĪµáī°
áĬ¨áī° áĪį
Ġáĭ¨áĬ¢ áīµáĭ®áĮµáĭ«
áĪĦ áĪŃ
ĠáīłáīħáĪŃ áī¡
ĠáĪķ áĭĿ
ĠáĪĿáĪŃ áī¶áī½
áĬĲ áīł
ĠáĬ¨ áĮ¥
ĠáĬ¥áĭ« áĪĪ
ĠáīłáĬ¥áĭį áĬĲáīµ
Ġáīłáī°áĪĪáĭŃ áĪĿ
áīĢáĪŃ áī¥
ĠáĪ° áĪĽ
ĠáĬ¥áī½áĪĭ áĪĪáĪģ
ĠáĪĪáĪĽ áĭ¨áīµ
ĠáĭŃ áīł
ĠáĭĪ áĭ²áĭ«áĭį
ĠáĬŃáįį áĪİáī½
ĠáĪĪáĪĺ áĪĨáĬķ
áĪĬ áĭ«
áĬķáī° áĪŃ
ĠáĪĨ áĬĹáĪį
áĮ¦ áī½
ĠáĪ¶ áĪµáīµ
ĠáĪ« áĪ±
ĠáĪķ áĭĿáī¡
a c
Ġáĭ¨ áĪĢ
ĠáĪĿáĬķáĭµ áĬĲáĭį
áĪĪ áĮĭ
áīĢáĮ¥ áĪĪáĭį
áĪĺ áĬĳ
ĠáĭĪ áĪµ
áĬĵ áĪī
ĠáĬ¥áĬĵ áīµ
áĮ¥ áĪ¨
Ġáį Į
áį Ķ
áĬ¨áĪĭ áĬ¨
a g
ĠáīµáĪŃ áĮīáĪĿ
Ġáĭ¨áīĢ áĪ¨
Ġáī¥áĭĻ áĭįáĬķ
Ġáī ±
áī½áĬĭ áĪĪáĪģ
Ġáī° áĭĭ
áĪĻ áīµ
Ġáĭ¨áĬł áĭ¨áĪŃ
Ġ <
Ġáī° áĬĲ
Ġáĭ ´
áĪĨáĬĲ áĭį
áĬ¥ áĪĿáĪ®
e x
Ġáĭ³ áĪŃ
áĪ· áĪį
áĭ« áī¸áĭį
ĠáįķáĪ®áĮįáĪ« áĪĿ
Ġáĭ° áĪµáī°áĬĽ
Ġáīł áĪĢ
ĠáĬłáĪµáĭ° áĪ³áī½
ĠáĮįáĪĿáĮĪáĪĽ áĭİáī½
ĠáīµáĬŃ áĬŃáĪį
ĠáĬł áĭ°áĪŃáĮĭ
ĠáĬł áīĭ
on e
áĪ³ áĬķ
ĠáĬłáĪµáī¸ áĮĭáĪª
ĠáīłáĬ¥ áĪŃáĪ±
ĠáĬł áĭ¨áĪŃ
áĮłáīł áīĢ
áĭĪ áĮ¡
áĭķ áĬĸ
ĠáĪļ áĭ²áĭ«
áĪĽ áĪ½
áĪĦ áĭ±
Ġáīłáĭ°áĬķ áī¥
ĠáĪĺáįįáīµ áĪĦ
áīµ áĪŃ
ĠáĭĪ áĪ«áīµ
áĪĶ áĪ«áĭĬ
áĭµ áĪµáīµ
Ġáĭ¨áĪļáĪĪáĭį áĬķ
áĪ« áĪĪáĪģ
ĠáĪģáĬĶáī³ áĭİáī½
1 2
Ġáĭķáĭµ áĪį
Ġáĭ¨ áīµáĪĿáĪħáĪŃáīµ
ĠáīłáĬ¥ áĬĶ
ĠáĬķáĮī áĪ¥
Ġáĭ«áĭ°áĪŃáĮĭ áĪį
ĠáĬ¨áĬ¥ áĪŃáĪ±
ĠáĪĺ áĬĸ
áĭµáĪ¨ áĪµ
áĪį áĭµ
ĠáīłáĬł áĮłáīĥáĪĭáĭŃ
ĠáĪ° áĪ«
1 5
ĠáĮīáĭ³ áīµ
ĠáīĢ áĭµáĪŀ
ĠáĪŀ áīµ
Ġáįĸ áĪĪáī²áĬ«
áĪ¨ áįį
Ġ 0
áĪ» áĪį
Ġáīł áĮİ
ĠáĬ¥áĬķáĭ° áĪĽáĭŃ
ĠáĪĿáĪį áĬŃáīµ
Ġáįį áĮ¥áĬĲáīµ
áĭ³ áĪĿ
áĭ ¢
áĬĶ áīµ
ĠáįĪ áĮ½
ĠáĬĲ áĭĭ
áĮĪáĪ« áī½áĬķ
Ġáī°áĮĪ áī¢
e t
áį ı
áĪī áīµáĬķ
áī³ áĪĿ
áĪ°áĪĽ áĭŃ
ĠáĪµáĪħ áī°áīµ
Ġáįį áĮ¹áĪĿ
ĠáĭĪ áĮ£áīµ
ĠáĬłáĪį áī»
Ġáīµ áĪ«
áĮ¨ áĬĲ
áĪ¬ áĬķ
ĠáĭµáĪĿ áįħ
Ġáīłáī° áĪĪáĭ«áĭ©
ĠáĭŃ áĭĪáĪµ
Ġáī¥áĪŃ áĪĥáĬķ
ĠáĭįáĮ¤ áī³áĪĽ
Ġáįĭ áĭŃ
áĪŀ áĬ¨áĪŃ
Ġáĭ¨áĪļ áįĪ
ĠáĭŃ áĭŀ
áĪĺáĪĪ áĬ¨áīµ
ĠáįĪ áī°áĬĵ
áĪĤ áī¥
Ġáī³ áĭįáīĥ
ĠáĬ¨áĬ¥ áĬĶ
áĭĭ áī¸áĭįáĬķ
ĠáĪĪáĪĺ áįį
áĪ¨ áĮħáĪĿ
ĠáĪĽáĪħ áīłáĪ«áĭĬ
áĪĪáĭį áĬķ
Ġáĭ° áĮĭ
ĠáĪģáĪĪ áī°áĬĽ
Ġ1 00
ĠáĮ ĥ
Ġáĭ¨áĬł áĬķáĭµ
áĭĭ áĪĪáĬķ
áĪĮ áĬŃáīµ
áī Ń
áī³ áĭ°
Ġáĭ¨ áĭŃ
Ġáīł áīĥ
ĠáĬłáĪµ áī³áĭį
Ġáī° áĮĭ
ĠáĪģáĪĪ áī±
ĠáĬłáĭŃ áī½áĪīáĪĿ
áĪ« áī½áĬķ
Ġáīł áįĪ
áįĬ áī±
Ġáīłáĭį áĪµ
ĠáĭµáĪŃ áĮĬ
áĭ« áĭŃ
ĠáĮ¥ áĬĵáīµ
Ġáĭ¨áĪļ áĮĪáĬĻ
áįį áĪªáĬ«
ĠáĬł áĮłáīĥáĪĭáĭŃ
áĪ¨ áī±
Ġáĭ¨ áĭĭ
ĠáĮł áī¥
áī¥áĪ¨ áī°
áĮĢ áĪį
ĠáĬ¨ áī³
áĭ¨ áĪ©
áĪª áĭį
áĬŀ áī½áĬķ
áĭ¨ áĬķ
áĪĽ áī¸áĭį
áĪŀáĬŃ áĪ«áĪ²
ĠáĭĪ áĮĪáĬķ
áĪĸ áĭĭ
Ġáīł áĭĺ
áĪ° áĪį
ĠáĬłáĭ°áĪŃáĮĭ áĪĪáĪģ
áĮ£ áĮ«
Ġáĭ° áī¥
ĠáĪįáĭ© áĬĲáīµ
Ġáĭ¨áī° áĬĲáĪ³
ĠáĪĺáĬķáĮį áĪ¥
Ġáī½áĪİ áī³
Ġáī¦áī³ áĭİáī½
Ġáĭ¨ áĮī
áĮł áĬĿáĬĲáīµ
Ġáī´ áĬŃáĬĸáĪİáĮĤ
ĠáĬłáĪĪ áī¥áĭİáīµ
ĠáĪ° áĪĿ
áĪ« áĪĪáĬķ
áĭŃ áĪħ
Ġáīł áĪģáĪĪ
áĪ¨ áī³áĭĬ
áĮĪ áĪ©
ĠáīłáĮŃ áĪ«áĪ½
áĪµ áĪĿ
ĠáĮ¥ áĪŃ
ĠáĬ¥áĪ± áĪĿ
ĠáĪĿáĬŃáĬķáĭ« áī¶áī½
Ġ2 1
Ġáĭ ±
áĭĪáĪ° áĬĲ
áĪĺ áĬĲ
ĠáĭĪ áĬķáĭ¶áī½
áĮĬáĭľ áĭį
áĪ® áįķ
ĠáĭĪ áĭ²áĪħ
Ġáī£áĪĪ áįĪáĭį
áīłáĪ¨ áī³
ĠáĬ¥áĪµ áĪ«
áĭ³ áĬķáīµ
áĬ¨ áĪ¨
Ġ Â
ĠáĬ¥áĭµ áĪį
áĬĵ áĭŃáīµ
áĮĵ áĭĿ
Ġáĭ¨áĭį áĮŃ
ĠáĬ¥ áĮįáĪŃ
áī³ áĪĪáĪģ
ĠáĮĪ áī¢
áĭŃáĪĽáĬĸ áīµ
ĠáĬ¥áĬķáĭ² áĪĨáĬķ
Ġáĭ¨áĪļ áĪĨáĬĳ
Ġáįį áĪ¬
Ġáĭ° áĪħáĬĵ
áĬĵ áĬķ
Ġáī£ áĪķ
áĭĺáĮĭ áĮħ
Ġáī°áĮłáīĥáĪļ áĭİáī½
i d
ĠáĬłáĪį áįİ
áī¥ áī»
áī¶ áī»áī½áĬķ
ĠáĪĪ áĪį
Ġáĭ¨áĪļáĪ°áĮ¡ áĭĭáī¸áĭįáĬķ
áĮĭ áĭĬ
áĬĽáĭį áĬķáĪĿ
Ġ2 2
ĠáĪ° áĬĲ
Ġáĭ¨áĪĿ áĪŃ
ĠáīłáĪ« áĪ±
ĠáĬłáĭŃáĭ° áĪį
Ġáĭ¨áĪļ áī½áĪī
ĠáĬ« áĪŃ
ĠáĬ ¬
ĠáĪĪáĪĺ áĮĢáĪĺáĪªáĭ«
Ġáĭ¨áĪļ áĪĨáĬķ
ĠáĬł áĭĭ
ĠáĬ¥áĪŃ áĭ³áī³
ĠáĮ ³
ĠáĬ¨ áĪĨáĬĳ
áĪµ áĬŃ
Ġáīł áī¥áĭĻ
Ġáĭ«áĮį áĬĻ
ĠáĭŃáĮł áĭŃ
Ġáīĥ áĪĭáīµ
ĠáīłáīĢ áĮ¥áī³
áī£ áĪĪáĪģ
ĠáĬłáĭµ áĪ«
áĪĭ áĪĪáĪģ
áĬķáĮį áĪĬáĭĿ
áĪ³ áī½áĬķ
ĠáĬłáĪµáī° áĭĭ
ĠáĭŃ áĪ¨áĭ³
Ġáī³ áĪĭ
ĠáĪķ áĭŃáĭĪ
ĠáĬĲáĮ¥ áī¥
ĠáĪĺ áĪ¬áīµ
ĠáĭŃ áĮĢáĪĿ
ĠáĪģ áĪĮ
ĠáĪį áĪĽáīµ
ĠáīłáĬ¥ áĬĽ
Ġáī¥ áĪį
áĭ Ĳ
áįĬ áĭİáī½
áī¸ áĭī
ĠáĪĺ áĮĭ
ĠáĬłáĭŃ áī»
áĭĿ áĪĿ
áĭĪ áĮĪáĭµ
áĭ¨ áīħ
Ġáĭ¨ áĪµáĪ«
áĮŃ áīµ
ĠáĮīáĭ³ áĭ©
ĠáĬ¨áĪĮ áĪİáī½
1 1
Ġ âĢºâĢº
áĪĺáĬĵ áĭĬ
Ġáĭ¨ áĪĥ
Ġáĭ¨ áĭµáĪŃ
ĠáĪĿ áĭµ
ĠáĪĥ áĪ³áī¥
áĪĭ áĬ«
áĭĪáīħ áī±
ĠáĭŃ áīĢáĮ¥
ĠáīłáĪļ áĭ«
áĪ¨áĬķ áĪ³áĭŃ
ĠáĭŃ áī³áĭĪ
ĠáĬķ áī¥áĪ¨áīµ
ĠáĬłáĬķ áīĢ
áĭĺáĮĭ áĮĢ
Ġáī³ áĭĭáīĤ
ĠáĬ® áĪļ
áĪ½ áĬ¨áĪŃ
áĭ± áĬķ
Ġáĭ° áĪ¨
Ġ2 3
ĠáĬ¨áĬ¥ áĬĲáĭļáĪħ
áĬ¨áĪĭ áĬ¨áĪį
áī¢ áīµ
áĪµ áī¶
Ġáĭ¨áī° áīĢ
áīł áĪµ
áĪŃ áĪĺáĬķ
ĠáĭŃáĭĺ áīµ
áĪİ áī¹
Ġáĭ¨ áī¤áīµ
ĠáĮĪ áī£
áĪ½ áīµ
ĠáĪĺ áīĨ
Ġáīł áĭĭ
áī³áī½áĬķ áĬķ
áĭĺ áĭį
áĪ ¾áī½
áīĢ áĬķ
a y
áĬķáĮį áĭ²áĪħ
a d
ĠáĬł áĪĺáĪĪ
ĠáĪĻ áĭļáīĥ
áĪĲ áĬķáĪµ
áĪĮ áīµ
ĠáīĨ áĬķ
áī³ áĪī
Ġáĭ¨ áĬ¦
ĠáĪĽ áĬħ
ĠáĬłáĪĭ áĪħ
ĠáĭŃáĪĦ áĬķ
Ġáĭ¨ áĪ½
áĪ« áī½áĪģ
ĠáĮ¨áĭĭáī³ áĭİáī½
áĬ¨áĬĵáĭĪ áĬķ
Ġáĭ¨áī°áĭĪáĪ° áĬĲ
Ġáĭ¨áĪļáĭ« áĪ³
Ġáīµ áĭįáĪįáĭµ
Ġáĭ¨ áīħ
ĠáĬłáĭŃ áĪĨáĬķáĪĿ
áįį áĬķ
áĪĺáĪĪ áĪ±
Ġáīł áĪĿáĬķ
áīĭáīĭ áĪĿ
áĬĵáĮĪ áĪ©
ĠáĪ¥áĪŃ áĭĵáīµ
Ġáĭ¨ áĬĥ
ĠáĬ¨áĬ¥ áĬĵáĬķáī°
ĠáĬłáīħ áĮ£áĮ«
ĠáĬ¥ áĪħ
ĠáĪĪáĪĿ áĬķáĭµ
ĠáĮ ħ
áĭŃ áĪĿ
a s
áĪµ áī´
áĬķáĭ Ŀ
áĪĺ áĪ©
Ġ >
ĠáĭŃ áĪĺáĮ£áĪį
áĮįáī£ áĪŃ
ĠáĭŃáįĪáĪįáĮĭ áĪį
ex t
Ġáĭ¨áĭĪ áĭ°
ĠáīłáĪĺ áĮłáīĢáĪĿ
Ġáĭ¨áī° áĪĪáĪĺ
ĠáĬłáĮĪ áĬĺ
2 1
áĮĬ áĭ«
áĪĻ áĪŃ
ĠáĪĪáĬ¥ áĬĽ
Ġáī° áĬ¨
áĬĵáĭŃáīµ áĭµ
ĠáĪ« áĪ±áĬķ
Ġáĭ«áĪĪ áīłáīµ
ĠáĪĪ áĪµ
ĠáīłáĬł áĪľáĪªáĬ«
áĪŁ áĪį
áĪŀ áĪĭ
ĠáĪµ áĮ¦
Ġáī° áĪ¸
ĠáĪĽáĪµáī³áĭĪ áīĤáĭ«
áĪı áī¸áĭį
áĭ³ áĪī
áĮ Ĳ
áĭĪ áīĢ
áĬĸ áĪ¨
ĠáĪĪ áĪħ
ĠáĬł áĪĪáĪĿ
ĠáĭĪáĭ° áįĬáīµ
ĠáīµáĪĿáĪħ áĪŃ
áĮ¨ áīµ
ĠáĬ¨ áĬĲ
áĭµ áīħ
áĬĴ áīµ
ĠáĪĻ áĬ¨áĪ«
áĭ« áĮŃ
ĠáīłáĪļ áĪį
áĭİáī¹ áĬķ
áĪł áĪ©
ĠáĬłáĮĪ áĪ®áī½
ĠáĪĺáĭį áĪ°áĭµ
áįįáīµ áĭĮ
Ġ5 0
Ġáīµ áĬ¥
ĠáĪµáĪĿ áĪĿáĬĲáīµ
ĠáīłáĬ¢ áīµáĭ®áĮµáĭ«
Ġáĭ¨áĮĪ áĬķáĭĺáī¥
ĠáĪļ áĪµáīµ
ĠáĭŃáīħáĪŃ áī³
ĠáĪĺ áĬ¨áĪ«
Ġ p
áĮł áī£
Ġáī°áĮįáī£ áĪ«áĭĬ
ĠáĬŃ áī¥
áī½ áĪĿ
ĠáĪĿ áĭķáĪ«
áĬĲ áĪ°
áĬŃ áī°áĪŃ
áĪĿ áĪĿ
ĠáĬłáĬķáĭ ²
áĭ° áĪ«
ĠáĭŃáĮĪ áĬĽáĪī
Ġáį ħ
1 8
ĠáĬ¥áĬķáĭµ áĬķ
áĪµáī° áĬ«
ĠáĬŃ áĪŃáĪµáī²áĭ«
áĭį áĬĵ
Ġáĭ¨áī° áĪ»
ĠáĪĿáĬķ áĮŃ
áĬŃ áĪ²
ĠáĭĽáĪ¬ áĪĿ
ĠáĬłáī¥ áĪ®
Ġáĭ«áĪĭ áī¸áĭįáĬķ
Ġáĭ¨áĬ¥áĮįáĭļáĬłáī¥áĪĶáĪŃ áĬķ
áĪµ áī²
áī¥ áĪħ
Ġáĭį áĮª
Ġáĭ¨áĪļáīĨ áĮłáĪ©
ĠáĪµ áī´
ĠáĪĺ áįĪ
ĠáĪħ áĭŃáĭĪ
ĠáīłáĪµáī° áīĢáĪŃ
ĠáĭįáĭŃ áĭŃáīµ
ĠáĪĽ áĮį
e d
áĬł áĭŃ
áĬ¨ áĬķ
ĠáĬłáĬķ áīº
Ġáī¥ áĪıáĪį
ĠáĪĺáī¼ áĪĿ
ĠáĬłáĭŃáī» áĪįáĪĿ
Ġáīģ áĪŃ
ĠáīĨáĬķ áĮĨ
Ġáĭ¨ áī´
Ġáī¥ áĪĭ
ĠáīłáĬ¥ áĬĲáĭļáĪħ
áĬ© áĬĿ
ĠáĬłáĭµáĪŃ áĮĪ
ĠáĬ¥áĬĽ áĬķ
áĪĪ áĮ¥
Ġáīł áĪ°áĭį
ĠáĪĽáĬķ áĬĽáĭįáĬķáĪĿ
Ġáī¢ áĭ«
ĠáĬłáĪµáī° áĭ³áĭ°áĪŃ
áī ¾
áĪĪ áĪ½
Ġáį Ĵ
ĠáĬ¥ áĬ©áĪį
Ġ Ġ
ĠáĬłáįį áĪªáĬ«
áĮł áĬĿ
Ġáĭ¨áī°áĭĪáĪ° áĬĳ
ĠáĬłáĭŃ áĮĪáī£
ĠáĬ¨ áĪģáĪīáĪĿ
ĠáĬ¥áĬĲ áĭļáĭ«
ĠáĪĿ áĪįáĬŃ
áĭ³ áī¤
áĬ¨áĪĭáĬ¨ áĭ«
ĠáĬ¥áĬķ áĪµ
Ġ )
áĪĭ áĪĭ
áĪĲ áĭŃ
áĪĪ áĬĿáĪĿ
áĬķ áĬĲáīµ
Ġáī£áĪĪ áī¤áīµ
áī» áĭŃáĬĵ
ĠáĮī áī£
ĠáĪĺáĮł áīłáīħ
áĪģ áįį
áįī áĬķ
áĬŃ áĪŃáĪµáī²áĭ«áĬķ
ĠáĬ¨ áĭį
ĠáĬ¨ áĪµ
Ġáī¥ áĭĽáīµ
ĠáĪĪ áĭĪ
ĠáĬ¨áĬ¥ áĬĽ
ĠáĪĪáĬł áĬķáĭµ
ĠáĪį áĮģ
Ġáĭ«áĭį áīĥáĪį
Ġáī° áĬķ
ĠáĮ¥ áĪª
Ġáī° áĪŀáĬŃ
áĭ© áīµ
Ġáĭ¨ áĭµ
ĠáĬłáĬĲ áĪµáī°áĬĽ
áĪ³ áĪ°áī¥
áįĪáĪĪ áĮĪ
Ġi P
Ġáĭ³ áĭĬáīµ
ĠáĪĺ áĪ¸
Ġáīł áĭĿ
ĠáĪ½ áĪį
Ġáī°áĭĪáĭ³ áĮħ
Ġáĭ«áĭį áīĥáĪī
ĠáĪ ī
Ġáĭ¨ áĭķ
ĠáĬ¥áĬķáĭ° áĪĮ
áī£ áī¸áĭĭáĪį
ĠáĪĢ áī¥
Ġáĭ ŀ
áĪģ áĪī
Ġ s
Ġáī°áĪµáĪĽ áĪļ
áĭĺ áĮĪ
Ġáī³ áĪª
Ġáī «
Ġáĭ¨áĬĲ áīłáĪ©
áīĢ áĭĭáĪį
Ġáĭľ áĮİáī½
áĪĭ áī½áĬķ
ĠáĪĿáĪŃ áĪĺáĪ«
áĪħ áĪŃ
áĬ £
áĬķ áī£
áĪĪ áĭĭ
ĠáĮ¥ áīłáī¥
ĠáĬł áĬĵ
ĠáĬ¥áĪµ áī²
áĭ³ áĮħ
ĠáĪĺáĭµáĪ¨ áĬŃ
áĬĲ áĬĽ
ĠáĭŃáĮł áī¥
ĠáĪµ áī³
áĬĵáĮĪ áĪ¨
ĠáĪĪáĭļáĪħ áĪĿ
Ġ m
Ġáīłáĭĵ áĪį
ĠáĪĪáĪĽ áĬķ
in g
ĠáĪĦ áĭ°
áĬ¨ áĪĽ
áĪį áĪµ
áĬŃ áī¶
áī§ áĪį
áĭ« áĪī
áĬĲ áĪ£
áĬķ áĮ«
áĪµáī¡ áĬŃ
áĭ³ áĬĵ
ĠáįĪ áĪį
áĭ° áĪ°
áĪ³ áĬ«
ĠáĬł áĪ«
ĠáĪ° áįĬ
ĠáĪĪáĪĺáĪµ áĮłáīµ
ĠáīłáĬ¥ áĪŃáĪµáĭİ
ĠáįĪáĮ½ áĪŀ
ĠáĬ¨ áīł
áįķ áĪ®
áī£ áī½áĪģ
áĮ ¾
Ġ O
áĪŃ áī¶
ĠáĬ©áī£áĬķáĭ« áĭİáī½
áĭİ áī»áī½áĬķ
ĠáĭĪ áĪ°
ĠáĪ³ áĪĿáĬķ
ĠáĬ¥áĬķáĭ°áĪļ áī½áĪį
ĠáĪĺ áĪĨ
Ġáĭ°áĪħáĬķ áĬĲáīµ
áīµ áĪµ
áī³ áĪ¨
áĭ° áĬĽ
1 4
ĠáĭĪáĭ²áĭ«áĭį áĬĳ
ĠáĪĽ áĮ¥
áĪ² áĭ«
1 3
Ġáĭ¨ áĬĶ
ĠáĪĺ áĬĵáĮĪáĪŃ
áĪĪ áīħ
Ġáĭ¨ áįĢ
ĠáĬłáĮĪ áĪį
ĠáīłáĪ½ áī³
áĬ« áĪª
ĠáĬ¥áĬķáĭ°áĪĿ áīµ
áī³ áĪĪáĬķ
áĭ ĳ
ĠáĪĺ áĪĨáĬĵ
áī· áĬķ
Ġáĭ¨áī° áī£
áĪĪáĪģ áĪĿ
áīĨáĮ£ áĮłáĪŃ
áĪģ áĭµ
ĠáīĢ áĮł
Ġáī°áĪŀáĬŃ áĪ®
áĪ¨ áĬĽ
ĠáĪĺ áĮ½
áĭ¨áĪ© áĪ³áĪĮ
áĪ³ áĬĿ
áĪ³ áĪī
ĠáĪ° áī£áīµ
Ġáĭķ áĭį
ĠáĪĽ áĪŃ
ĠáĮį áī¥áĪŃ
ĠáĮī áĭµ
Ġáĭ¨áĪĽ áĭ«
ĠáĬ¢ áĬķáĭ±áĪµáīµáĪª
áįĢ áĪĿ
ĠáĭŃ áįĭ
áĪ³ áī½áĪģ
áī» áī½áĪģ
áĮł áĪ¨áĭį
áĬĵ áĭĬ
áīĢ áĭµáĪŀ
ĠáĬ¨áĬ¥ áĬĲáĪŃáĪ±
ĠáĪĺáĪµ áĪ«áīµ
Ġáīģ áĪįáįį
Ġ f
ĠáĭŃáĪĨ áĬĵáĪī
Ġáĭ¨ áĮ¤áĬĵ
ĠáĬ¥ áĭĪáĭ³
ĠáĬł áĭ°áĪ¨áĮĪ
ĠáĪĽ áīħáĪ¨áī¥
áĬŃ áī¥
ĠáĮį áĭ´
áĭ« áīĤ
ĠáĪ° áĭŃ
Ġáīł áĬ¨áįįáī°áĬĽ
Ġ #
ĠáĪĪáĭĺ áĪĭáĪĪáĪĿ
áĪ® áĬķ
Ġáĭĭ áĬĵáĭį
Ġáī°áīĢ áī£áĭŃ
Ġáĭ¨áĪĺáĪµ áĪĺáĪŃ
Ġáĭķ áīĥ
2 00
Ġáįį áīµ
Ġáī ²
áĪĺáĪĪ áĬ¨áī±
ĠáĭĪ áĭ«áĬĶ
áĮī áīµ
áĮĪáĬĵ áĬĺáīµ
áĪ¸ áīµ
áĪĿ áĮ£áīµ
ĠáĬł áĪ¨
ĠáĬ¥ áĭŃáī³
áī ¿
i s
áĬĳ áĪĿ
áĬķáĭ¶ áī¹
áĪĪ áīłáīµ
áĬķáīĥ áīĦ
e l
Ġáĭ¨áĬ¥ áĪµáĪ«áĬ¤áĪį
Ġáīł áĭĪáīħáī±
áĭįáīĥ áĪĪáĬķ
ĠáĭŃ áĬ
áĮ ¾áī½
Ġ2 6
Ġáī°áĮ½ áĭķáĬĸ
áĬĲ áĮĪáĪŃ
áī¸ áĭĭáĪĪáĪģ
áĪµáīµ áĬĵ
áĪ¸ áĬĲáįį
ĠáĪµ áĬķáīµ
ĠáĪĺáĬĲ áĪ»
ĠáĭŃ áī°
áĪĪ áī¥
áĬ ĭáĪĭ
áĪĪ áīĢ
áĬł áĬķáĭµ
Ġáĭ¨áĪĪ áīłáīµáĪĿ
ĠáĬłáĪµáĭ° áĬĵáīĤ
áĬ« áĪĦáĭµ
Ġáī°áīĭ áĪĽáīµ
ĠáĪĺáĪįáĬ¥ áĬŃáīµ
ĠáīłáĪķ áĭŃáĭĪáīµ
ĠáįķáĪ®áĮĢ áĬŃáīµ
ĠáĪĽ áĪ°áī¥
Ġáĭ¨ áīħáĪŃáī¥
Ġáĭ¨ áīģ
Ġáĭ° áĪĿ
áĪ«áĭĬ áīµ
Ġáĭ°áīĤáīĥ áĭİáī½
ĠáĪĽ áĪ¨
ĠáĪĺáĬķ áįĪ
áĬķ áī²
áĮį áĭ³
Ġáĭ¨áĪĨáĬĲ áĭįáĬķ
ĠáĪĽ áī³
áĪ¨ áįįáīµ
áĪĭáĪĪ áįį
ĠáĬ«áĪį áĪĨáĬĲ
ĠáĪĪ áĮ¥
áĬĵ áĪĪáĪģ
áĭ° áĪµ
áĬķáĮį áĪ¥áīµ
áĪŀ áĬķ
ĠáĬłáĬķáī° áĪĿ
áĪĺ áĬĿ
ĠáĪĬ áĭ«áĪµ
ĠáĬ¥áĬķáĭ°áĪļ áī»áĪį
ĠáĪĺáįįáīµ áĪĶ
áĮĢáĪĺ áĪ¨
áĮ§ áĪį
áĭ Ł
Ġáī¥áĭĻ áĪĿ
áĪĪáĪĿ áĬķ
ĠáĭŃ áĭį
Ġáĭ« áĪĿ
áĭ« áĭ«áĭĺ
áĬĲ áīłáĪ©
Ġáĭ¨áī° áĪ°
ĠáĪĢ áĪ³
áĪµáī° áĭĭ
ĠáĪļ áĬĵ
áĪ¥ áĪŃ
ĠáĪĪáĪĽ áĪĪáīµ
ĠáĮł áĭ¨
ĠáĭµáĪŃáĮħ áī¶áī½
Ġáīł áĪ³
Ġáīł áĪĥ
Ġáĭ¨ áĭ©
Ġáĭ« áĭ°áĪŃáĮĪ
ĠáĬłáĭŃáĭ° áĪĪáĪģáĪĿ
ĠáĬ¥áĬķáĭ²áĭ« áĭįáĪĿ
ĠáĬŃáįį áĪĪ
áī£ áī¸áĭįáĬķ
Ġáĭ¨áĪĺ áĬķ
áĪĽ áĪī
áĭĺáĮĭ áĮĢáīµ
ĠáĬłáĭŃ áīĢáĪŃ
Ġáĭ ī
áĬĵáĮĪ áĪ¨áĭį
áīĥ áĭĪ
ĠáĭĿáīħ áī°áĬĽ
áĮįáĭļáĬłáī¥ áĪĦáĪŃ
ĠáĬł áĮłáīĥ
ĠáĮł áĭŃ
ĠáīłáĪĮ áĪİáī½
Ġáĭ« áīĢáĪŃ
ĠáĪħ áĮį
áĬķ áĪ°
Ġáĭ¨áĪļáĭ« áĭį
áĬķáĭ° áĪŃ
ĠáīłáĪĺáĮ¨áĪ¨áĪ» áĪĿ
ĠáĬłáĬ« áĪĭáīµ
ĠáĬ¥ áĮį
ĠáĬł áĮł
áĮ« áĬķ
ĠáĪª áįĸáĪŃáīµ
ĠáĮ¥ áīłáīĥ
áĬŃ áī±
áĪµ áįĴ
Ġáĭ¨ áĮįáī¥
áĭ° áĭµ
Ġáī£áĪĪ áįīáīµ
Ġáī¥ áĪĶáĪ«áĭĬ
ĠáĭŃ áĪµ
1 6
Ġ U
áĬĴ áĭ«
ĠáĪ¨ áĮĪáĭµ
h one
ĠáĭŃáī£ áĪĭáĪį
ĠáĪģáĪī áĬķ
Ġáīł áīģ
Ġáĭį áĪµ
ĠáĬłáĮĪáĪįáĮįáĪİ áī¶áī½
ĠáĪĺáĪĿ áĪ¨áĮ¥
áĪ³ áĪµ
ĠáĬł áĭİáĬķ
áĪ± áīµ
áĪ« áĬĴ
áĪŃ áīħ
ĠáĬł áĪħ
Ġ4 0
ĠáĬ¨áĭļáĪħ áĪĿ
ĠáĪĺáĪį áĪ¶
áĮİ áī¥
áįı áĪį
ĠáĬ« áĪī
Ġáī°áĬĵáĮį áĪ¨áĭĭáĪį
ĠáĪĪ áĪķ
ĠáĭµáĪĿ áĮ½
Ġáīħ áĬķ
Ġáĭ°áī¥ áĭ³áī¤
áĭį áĪİáĪµ
ĠáįĬ áĪįáĪĿ
ĠáĪĿáĪµ áĮĭáĬĵ
áĬł áĭ´
Ġáī£áĪĪ áī¤
) .
ĠáīłáĮ¥ áĪ©
ĠáĪ¶ áįįáīµáĭĮ
ĠáĬ¨áĬ¥ áĬķáĮįáĭ²áĪħ
ĠáĬ ĭáĪĭ
ĠáĬłáĬķáĭ ´
áĬĸáĪŃ áĪĿ
áĮ¦ áĪŃ
áĪ° áī¦
ĠáĬ Ľ
Ġáī³ áĭį
1 7
Ġ V
áĬ¥ áĬĽ
ĠáīłáĪ« áĪµ
Ġáĭ« áĮĪáĬĽ
ĠáĬ¥áĭµ áĪľ
3 0
Ġáĭ¨áĪħ áĭĿáī¥
ĠáĬł áĭĪ
Ġ d
Ġáī£áĪħ áĪª
ĠáĬ Ĵ
ĠáīłáĬ¥ áĮħ
ĠáĮĢ áĪĺáĪŃ
áĭĪ áĪĵ
ĠáĪŃáĭķ áĪµ
ĠáĬ¨ áĭĽ
ĠáĬł áĭ²áĪ±
áĮłáĭŃ áīħ
áĮ« áĭį
áĮĪáī£ áīµ
áī£ áīµáĪĿ
Ġáĭ¨ áįĮ
ĠáĬłáĭµáĪŃ áĮĪáĭį
áĪµ áīłáĭį
áĮĪáĬķ áī£áīµ
ĠáĬ¥áĬĵ áĭįáīĥáĪĪáĬķ
ĠáĬł áĭ°áĪ¨
ĠáĬĲ áĮĭ
áĪł áĪ¨áī°
áĭĺ áĭĿ
ĠáĮĢ áĪĺáĪ¨
áĭĽáĪ¬ áĭį
áĮ£ áĭ©
áĮĪáī£ áĭį
Ġáī¥áĭĻ áĭİáī½
ĠáīłáĪĽ áĪµ
Ġáĭ«áĪµ áįĪáĪįáĮĪ
ĠáĪ° áĪĽáĭŃ
ĠáĪĺáĭ° áīłáĬĽ
ĠáĪģáĪĪ áī°áĬĽáĭį
ĠáĮĬáĭľ áĭį
áĮłáĬĵ áīĢ
ĠáĪĺáĪ¥ áĪ«áīµ
áĪĬ áĬŃ
Ġáĭ¨áĮį áĭµ
Ġáī¥ áĪĪáĪħ
áįĥ áĬĵáīµ
áĪį áīłáīµ
Ġáī° áĮ¨
ĠáĬłáĬķáĭµ áĪĿ
ĠáĮ¥ áīĥáīµ
áĭĪáĪ° áĬķ
ĠáĬłáĭ«áĭį áīħáĪĿ
ĠáĪ ¬
ĠáĪĤ áĭ°
ĠáĭŃáĬĸ áĪ«áĪį
ĠáĪ İ
áĮĢ áĪĿáĪŃ
áĮ£ áī¸áĭį
áĭ° áī¥
ĠáĭĪ áĪ³áĬĿ
ĠáĬŃ áīµ
áĬ« áĬ¨áīµ
áĪ³ áĭį
ĠáĪĺ áĭ³
áī£ áī£
ĠáĪµáĪŃ áĭĵ
Ġáĭ«áĪī áīµáĬķ
áįĪ áĪ¨
áīĨ áī½
ĠáĬ¨áī° áĪŀáī½
áĭķ áĪį
ĠáīłáĮįáĪį áĮ½
ĠáĪģáĪĮ áĪĿ
ĠáĭĪáĮ£ áī¶áī½
Ġáĭ¨áĪĪ áĬĿáĪĿ
Ġáīµáī½áĪĭ áĪĪáĪħ
áĬĸ áĪ«áī¸áĭį
áĭĽ áĪį
ĠáĬª áĭ³áĬķ
ĠáĮł áĪĭ
áĪģ áĭ³
áĬĵ áįĬ
áĭį áĭį
áĪµ áĪĬ
áĬł áĬķáī°
ĠáĪħ áĭĿáī¡
n d
ĠáĪ¨ áĮħáĪĿ
ĠáīłáīĢ áĬķ
áĪ± áĪĿ
ĠáĬ¥áĬĲáĪ± áĪĿ
Ġáīł áī¤áīµ
ĠáĬ¥áĬķáĭ° áĪĨáĬĳ
ĠáĬłáĪĪ áī¥áĬĿ
áĬķáī°áĪŃ áĬĶáīµ
áĮī áĪŃ
áĪĺáĮ£ áĭį
Ġ2 8
ĠáĮ ¡
Ġáĭį áĪĤáī¥
ĠáĬłáĪ³ áĪį
Ġáīł áĭ©
áĬ ļ
áĬĲ áī³áī¸áĭį
Ġáĭ¨áĪļ áĮł
áī¼ áĬķ
ĠáĪĽáĪµ áĪ¨áĮĥ
áĪª áĪµ
ĠáĮ¨ áĪ¨
ĠáĪĬ áīĢ
ĠáĬŃáįį áīµ
ĠáīłáĪļ áīĢáĮ¥áĪĪáĭį
ĠáĬłáĪį áī½áĪįáĪĿ
áĬŃ áī¶áī½
áĬĵ áĭ³
ĠáīĢ áĪ¨
ĠáĪĬ áĪĨáĬĳ
ĠáĪĪáĪĺ áĮłáīĢáĪĿ
ĠáĪħ áĭĿ
áĪ« áī¢
ĠáĬłáĬķáĭ² áīµ
áĭ¥ áĬķ
Ġáīł áī¤áī°
áĮ¡ áĬķ
áĭ³ áĪª
áĭĺ áĪĿ
áĭ· áĪį
Ġáīł áĪģáĪĪáīµ
ĠáĬł áĭ¨
Ġáĭ« áĪĪáĬķ
áĬķáĭ³ áĬķáĭµ
áĮłáĭ¨ áīħ
ĠáĪįáĪĿ áĭµ
áĮĪ áĪįáĮį
ĠáĪĺ áĪĿáĪħ
áĬł áĭĬ
ð Ł
Ġáĭ¨áĬ¥ áĪŃáĪ±
ĠáĪĽáĪħ áīłáĪ¨áĪ°áī¥
Ġáĭĺ áĪĺáĬĵáĭĬ
ĠáįķáĪ¬ áĭļ
ĠáĬ¥ áĪĺ
ĠáĬ¥áĭ« áĪī
áįĪáĮ¸ áĪĿ
ĠáĬłáĪĪ áī½
ĠáīĢ áĪĪáĪĿ
Ġáĭ¨ áĭ³
Ġáī° áĬ¨áīµ
áĬķ áįĥ
áĮ£ áĭį
ĠáĮĬáĭľ áĪĿ
áĪĦ áĭ³
áĮĪáĪ« áĪļ
ĠáĪ°áĭĵ áī³áīµ
o p
Ġáī ¸
ĠáĮ »
ĠáĪĪáĪĺ áĭį
ĠáĬłáī¥ áĪ¨áĭį
ĠáĮ¥ áĬĵ
áĬ¨ áĪĿ
ĠáĭŃ áĪĺáĪĪ
Ġáĭ°áĮįáĪŀ áĪĿ
g le
áĪĪ áĬĽáĭį
áĮ½áĪĲ áįį
Ġáĭ¨áĪļ áĪĨáĬĲáĭį
áĪ« áĭŃ
ĠáĪĺáĮł áĭ¨áīħ
Ġ $
ĠáĬ¥áĬĵ áĭ°áĪŃáĮĭ
áĮĪáĬĵ áĬĿ
áĪŃ áĪ»
ĠáīģáĮ¥ áĮ¥áĪŃ
Ġáĭ¨áĪļ áī£áĪį
áĬ¨áĪ° áīµ
áĪ¨ áĮĪ
Ġáĭ¨ áĮĭáĪ«
Ġáĭ¨áĪĿ áĮįáī¥
ĠáĭŃ áĪŀáĬŃ
Ġáĭ¨ áįĵ
áĪĪ áĬĵáĪį
Ġáįį áĪĪáĮĭ
áī¥ áĪį
áĪĮ áīª
ĠáĬ¥áĭį áīĢáīµ
Ġáīł áĬ«
ĠáįĸáĪĬ áĪ²
áĪŃ áĪ½
áĭĭ áĭķ
ĠáĮłáīħ áĪĭáĭŃ
áĪĽ áĪ«
ĠáĬ«áĪį áī°
Ġáĭ¨áĪļ áĪĺ
áĮĪáĬĵ áĬĽ
áĮ¨ áĪĺáĪŃ
áĬ ľ
áĪĺáĪį áĬ¨
áĭİ áīµáĪĿ
ĠáĪĿ áĬĵ
ĠáĭĪ áī³áĭ°
áĮĪáĪĪ áĮį
ĠáĪĪáĬ¥ áĬĵáĬķáī°
áĪĮáĬŃáīµ áĪªáĬŃ
ĠáĭŃ áĭ°áĪ¨
áĭĽ áī¥
ĠáĬ¨ áĬ¢
ĠáĬ¥áĭµ áĮĪáīµ
áĬķáĭĽ áī¤
Ġáĭ«áĮĪáĬĽ áĪī
áįĭ áĬķ
ĠáĬł áĮŃáĪŃ
áĮį áĪ©
áĮĨ áī¹
Ġáĭ¨áĪļ áĭĪ
Ġáĭ¨áĪļ áī½áĪĪáĭį
o l
áĪ¨ áĮį
áĭĪáĪµ áĭµ
áĭĽ áĭį
Ġáĭ¨ áĮ¨
áī° áĪħ
Ġ t
ĠáĬłáĭį áĪ®áįķ
ĠáĬłáĪµ áĮĪáĪ«áĪļ
ĠáĭŃáī³ áĭ«áĪį
áĭķ áīĨ
i l
ĠáįĬ áĪį
ĠáĬ¨áĬ¥ áĮįáĭļáĬłáī¥áĪĶáĪŃ
ĠáĪµáĮ¦ áī³
ĠáĭĪáĮĪ áĬĸáī½
ĠáīłáĬ ĥ
ĠáĪµ áĬ¬
áĭĭ áĭĪ
áĬķ áī³
ĠáĬ¥áī£áĬŃ áĭİáĬķ
oo gle
ĠáĪĿ áĪ½áīµ
ĠáĬ¥ áĪ³áīµ
ĠáĬ¥áĬķáĭ° áĬĲáīłáĪŃ
ĠáĭŃ áĭĪáĭ³
ĠáĪĪ áī¥áĭĻ
áĪĺáĪ° áĮįáĬĵ
ĠáĬłáĭŃáĪĺáĪµ áĪĪáĬĿáĪĿ
áĭµ áĪľ
ĠáĬ¥áĪŃáĮį áĮ¥
Ġáī£ áĪªáĭ«
Ġáīł áĪĭ
ĠáĬĲ áī½
ĠáĬł áĪ³áĭŃ
Ġáī°áīĢáī£áĭŃ áĬĲáīµ
ĠáĪµáĪĪáĭļáĪħ áĪĿ
áī ¬
Ġáīłáī° áī»áĪĪ
Ġáī¢ áĪ®
Ġáĭµ áĪį
ĠáĬ¨áĬł áĬķáī°
áĬĵ áĬĿ
ĠáĭĿáĮį áĮħáīµ
áĭ¨áĪ©áĪ³áĪĮ áĪĿ
ĠáĪ² áī£áĪį
áĭİáī½ áĪĿ
Ġáī³ áĪĽ
ĠáĬ¥áĭĪáĭ³ áĪĪáĪģ
ĠáĪĲ áĪ³áī¥
áĪ° áĪµ
ĠáĪµ áĭµáĪµáīµ
Ġ2 7
áī¥ áĪªáĬ«
Ġáĭ°áĪ¨áĮĥ áĭİáī½
ĠáĪŀ áĭ´
Ġáĭ¨ áĪ¶
i on
ĠáīłáĬ ®
áĬ¨ áīłáĪŃ
Ġ20 20
ĠáĭŃáĬĸáĪŃ áī¥
ĠáĬ¢ áĬ®áĬĸáĪļ
áĪĪáĭ« áĭ¨
ĠáĪĺ áĪĽáĪŃ
áĪĭ áī¸áĭĭáĪį
Ġáīł áĭķ
áĪŀ áī½áĬķ
ĠáīłáĭŃ áįĭ
Ġáĭ«áĪ³ áĭ«áĪį
ĠáĪį áĮĦ
áĬł áī¸áĭį
áĮ¥ áĬķ
Ġáĭ¨áĬł áĭįáĪ®áįĵ
Ġáĭį áĬĥ
áĪģ áĪĿ
ĠáĬłáī¥áĭĽ áĬŀáī¹
ĠáĬ¥áĬĵáĭ°áĪŃáĮĭ áĪĪáĬķ
ĠáĬ¨ áįĪáĪĪáĮī
c h
áīĢ áĬĿ
ĠáĪĺ áĮĪáĪĪ
ĠáĪĪ áĪ°
áĬ¥ áĮįáĭļáĬłáī¥áĪĶáĪŃ
áĮ¨ áĪĿ
áĪĽ áĪ©
ĠáĬłáĭŃáīĢáĪŃ áĪĿ
ĠáĪĺ áĭĽ
ĠáĪ¥ áĮĭ
ĠáĪĽ áĪĺáĬķ
Ġáĭ¨áĪ« áĪµ
ĠáĭŃ áĪ»
ĠáįĪ áĪŃ
Ġáī° áĮĪáĬĿ
Ġáĭ°áĬķ áīłáĬŀáī½
ĠáĭĪ áĭµ
Ġáĭ³áĪŃ áī»
áĪĺ áĭĭáĪį
ĠáĪµ áĪĭáĪį
ĠáĪĺáĪ£áĪªáĭ« áĭİáī½
ĠáĬ¥áĬķáĭ° áĪĿáĬķ
ĠáĬ¥áĭ¨ áĪ°áĪ«
ĠáĬłáĪµáī° áĪ³áĪ°áī¥
ĠáĪļáĬĴáĪµáīµ áĪŃ
áĬ«áī£áī¢ áĭį
áĬŃ áĪ®
Ġáĭ¨áĬł áĪĿáĪĭáĬŃ
áĭ¨ áĬł
ĠáīłáĬ¥áĪŃáĮį áĮłáĬĿáĬĲáīµ
Ġáĭ¨áĭį áĪĥ
ĠáĪĽáĬķ áīłáī¥
áĬ¨ áĪ¨áĪĿ
ĠáĪĨ áī´
áĬĲáīłáĪ¨ áĭį
ĠáĬłáĪµ áī£áĪĪáĪģ
ĠáīłáĬł áī¥áĭĽ
Ġáīłáĭļáĭ« áĬķ
ĠáĬ¥áĬķáĮį áĪĬáĭĿ
ĠáĬ¥áĮįáĭļáĬłáī¥áĪĶáĪŃ áĪĿ
áĬĵ áĪ½
ĠiP hone
ĠáĮĪ áīł
Ġáĭ¨ áĭĵ
áĪµ áĪĪ
Ġáī¥ áĬķ
ĠáĬłáĪĺáĪĪ áĬ«áĬ¨áīµ
ĠáĬłáĬķáĭ± áĬķ
Ġáīµ áĪĭ
áīĨ áĭŃ
áīł áĪĪ
Ġáī°áĮ«áĭĭ áī¾áī½
áĬĴ áĬŃ
áīł áīĥáĪį
Ġáĭ İ
o w
ĠáĪĺ áĮ«áĭĪáīµ
ĠáĮŃ áĪĿáĪŃ
ĠáĪĪáĬ¥ áĮįáĭļáĬłáī¥áĪĶáĪŃ
Ġáĭ¨ áĪĭáī¸áĭįáĪĿ
áĪĽ áĪ¨
áĪµáī° áĪŃ
áĪĽ áĭĬ
ĠáĬłáĪĺ áī³áīµ
ĠáĪĪáĪĺ áĪĨáĬĳ
ĠáĬĥáĮ¢ áĬłáīµ
áĭ¶ áī½áĬķ
ĠáĮ¦ áĪŃ
ĠáĪµáĪĪ áī°
ĠáĮįáĬķáī£ áī³
ĠáĪĻ áĪ´
áĮĪáĬĵ áĬĻ
áĮįáĪĿ áīµ
ĠáĪĺáįį áĮłáĪŃ
ĠáĬ¥áĬķáĭ°áĪļ áī½áĪī
ĠáĮ³ áĭįáĪİáĪµ
áĪ³ áĪ°
ĠáĪµ áĪĻ
ĠáĬĵ áī½áĪģ
ĠáĪ¥ áĬĲ
áĬ¥ áĬķáĭ°
áīĥ áĪ½
ĠáĪĺ áĪĺáĪĪáĪµ
ĠáĪĪ áĬ¢
áįį áĪį
áĭµ áįį
ĠáĪµáĪĪ áĪĺ
Ġáīł áįĬ
ĠáĪĿ áīµ
áĪ¦ áĪµáīµ
ĠáīłáĬ ¤
áī£ áĪ¨
Ġáĭ¨áĪļ áĮĪáĬĿ
Ġáĭ³ áĮįáĪĿ
ĠáĭĪ áĪĪ
ĠáĬ¥áĬķáĭ° áĪĨáĬķ
ĠáĬĳ áĪ®
Ġáĭ¨áĬ¥áĬĽ áĬķ
áĮĪáĪĪ áĮ¸
áīł áĪī
Ġáī°áīĭ áĪĿ
áĪĿ áĪ¨áīµ
áĭ¨ áī°
ĠáĪµ áĭ°
ĠáĬłáĪµáī° áĭ³
áĪµáī°áĬĽ áĭį
Ġáĭ¨áĪļáĭ«áĪµ áī½áĪį
Ġáī° áĪ°áĮ¥
ĠáĮ¸ áĪİáīµ
ĠáĭĿ áĬĵ
Ġáĭĭ áĪµáīµáĬĵ
ĠáĪ° áĪĭ
Ġáĭ¨ áĭ°áĬķ
ĠáĮį áĭľ
ĠáĭŃ áĪł
ĠáĭŃ áĪ¸
áīª áĭ²áĭ®
ĠáĪĭ áĪĪ
ĠáĮĪ áĪĪ
áĪ ¼
áĬĳ áīµ
ĠáĮ Ħ
ĠáĬłáĭµáĪŃ áĮĵáĪį
Ġáĭ¨ áįĭ
ĠáĮ¥ áīģáĪŃ
ĠáĬł áĪ»
áĭĿ áĮĪáī£
áĭĪ áĪ¨
ĠáīĢ áĮ£áĭŃ
áĭį áĪŀ
ĠáĪĬ áĬĸáĪŃ
ĠáĪĺáĭµ áĪĥ
áī° áĬ®
áĮĢ áĪ«
Ġáĭ¨áīĢ áĭµáĪŀ
ĠáīłáīħáĪŃ áī¥
Ġáĭ¨áĪ« áĪ±
áĪĽáĪª áĭİáī½
áīĥ áī¸áĭį
Ġáĭ¨áī° áĭĪáĪĪ
áĬ¥ áĬĵ
Ġ b
ĠáĭĪáĬķ áĮĮ
ĠáĪĿ áī¹
ĠáĪĽ áĬŃ
áį Ĳ
ĠáĬłáĮĪ áĪ«áīµ
áĭĭ áĪļ
ĠáĭĺáĪŃ áįį
áīµ áĪį
ĠáĮİ áĬķ
ĠáĬķáĮī áĪ¡
Ġáī³ áĪµ
ĠáĬ« áĪĪáĭį
áĬ¤ áĪµ
áĪ°áĪ« áĭį
Ġáī°áīĢ áĪĿ
Ġ w
áīł áĪ³
ĠáĪĪáĪĽ áĬķáĬĽáĭįáĪĿ
Ġáīł áĭ³
áĪĺ áī»
Ġáĭ« áĪ¨áĮĭáĮį
áĬĵ áĭŃ
ĠáĬłáī¥áĭĽáĬĽ áĭİáī¹
Ġáĭ«áĪį áĪĨáĬĲ
Ġáīł áĭ¨áīµ
ĠáĬłáĪµáī°áĭ« áĭ¨
áĮł áĬĲ
ĠáĪŀ áī°
áĪĪ áĭĪáĮ¥
áĮį áĪ¬
ĠáĬ¥áĪµáĪ« áĬ¤áĪį
i a
ĠáĪĺ áĪ¨
áī£ áĪŃ
ĠáĮīáī£ áĬ¤
áĭķáīĨ áī¥
Ġáī½áĮį áĪ©
ĠáĪĺáĮ» áĪķ
Ġáĭ«áĭ°áĪŃáĮĪ áĭĭáĪį
ĠáĮ¥ áĪĭ
Ġáīµ áĮįáĪį
ĠáĪįáī¥ áĪµ
áĪĺáĪµ áĪį
Ġáĭ¨áĪĪ áī¥
ĠáĬĲ áĭİáīµ
ĠáĬķáĮį áĮįáĪŃ
ĠáĬłáĬķáĭ³ áĬķáĭ¶áī¹
áĪµáīµ áĪ«
Ġáĭ« áĬĶ
ĠáĬłáĪį áī»áĪį
ĠáĬ¥ áīħáĭµ
áĪ³ áī¢
Ġáī» áĭŃáĬĵ
Ġáī° áĪ³áīµ
áĭĪáĪĵ áīµ
Ġáĭ¨áĬĥ áĭŃáĪį
Ġáī£ áĪħáĪį
ĠáįĪ áĮ£áĪª
Ġáĭįáĭµ áĭµáĪŃ
ĠáĪĽ áĮ£
ĠáĭŃáī³áĭĪ áīĥáĪį
Ġ Y
áĬĿ áĬķ
Ġáĭ¨áĪĿ áĪŃáīµ
áĬ¨ áĪ©
áĪĺ áĪ¨áī¥
ĠáĮł áįį
áĪ° áĭĭáĪį
ĠáĭŃáĮĢáĪĿ áĪ«áĪį
ĠáĭŃáĪģáĬķ áĬĵ
ĠáĪµáī´ áīµáĪµ
ĠáĬ¤ áĪį
Ġáī¥ áīĥáīµ
Ġáĭ¨áĪļáĭ« áĭ°áĪŃáĮī
ĠáĭŃáĭĪáĪµ áĭ³áĪį
áĪĺ áĭĿ
áĭĽ áĬķ
áĪķ áĭĽáī¥
ĠáĪĮ áĪĬáīµ
Ġáīł áīĢáĪŃ
Ġáīł áĭµáĬķ
áĪĺáĪ°áĮįáĬĵ áĪĪáĬķ
áĬķáĭ³ áĬķáĭ³
ĠáĬ¨ áĪģáĪĪáīµ
ĠÂ ·
áī¤ áĬķ
áĪĭ áĪµ
Ġáĭķ áĪĪáīµ
áī£ áĭŃáĪį
ĠáīłáĬ¢ áĭ¨áĪ±áĪµ
áĬ¨áī³áī° áĪį
u n
áĪĿ áįķ
ĠáĬłáĭį áī³áĪ¨
áī¥ áīħ
ĠáĬ¨ áĭ¨áīµ
Ġáĭ¨ áĪ°áĪĽ
Ġáĭ« áĮĪáĬĺ
ĠáĮįáĪį áįħ
áĪ° áĪĪ
ĠáĪĨ áĬĵ
ĠáĪĺáĪįáĭķ áĬŃáīµ
... ]
áĭ°áĪ¨áĮī áīµ
áĭŃ áĬĲ
ĠáĬłáĬ«áī£áī¢ áĭİáī½
Ġáī£ áĬķáĬŃ
ĠáĪµáĪį áĮ£áĬķ
ĠáĪĽáĪµáī³áĭĪ áĪ»
áĪį áīĥ
ĠáĪ¶áįįáīµáĭĮ áĪŃ
Ġáī° áĪį
áĪ³ áīģ
ĠáĬ« áĪŃáĭµ
ĠáĬĥáĪĭáįĬ áĬĲáīµ
áĬĲ áĭļáĭ«
áĬĲáĮĪ áĪ©
ĠáĪĪ áĪ¨áĮħáĪĿ
ĠáĪħ áī¥áĪ¨áīµ
áĪĭáĪĽ áĭĬ
áĪĽ áĮį
Ġáī£ áĪī
áĬ¨ áī£áī¢
5 0
áĪŁ áĪĭ
áĬĵ áĬķáīµ
áĪĨáĬĳ áĪĿ
ĠáĪĿáĪŃ áĪĿáĪŃ
ĠáĬ¥áĬķáĭ³ áĪĪáĭį
ĠáĪĽáĭķ áĬ¨áĪį
Ġ[ ...]
áĮĪáĬĻ áīµ
ĠáĬ¥áĬĵ áĪĺáĪ°áĮįáĬĵáĪĪáĬķ
áĭ³ áī¸áĭį
ĠáĭŃ áĬ¸
v i
Ġáī£áĪħ áĪªáĭ«
ĠáĬłáĭµáĪ« áĪ»
áĭµ áĪ©
Ġáĭ¨ áĮĮáī³
áĭ³ áĭį
áĪĥ áīµ
áĮĪ áĪĺ
ĠáĪĪáĪĿáĬķáĭµ áĬķ
áīĢáĪŃ áī¡
ĠáĪĿ áĬŀ
Ġáĭ¨áī° áĪ³
áī£ áĪĪáĬķ
ĠáĪį áĮĥ
ĠáīłáĬ¥ áĭ«áĬķáĭ³áĬķáĭ±
áĪŃ áĪĽ
ĠáĬłáĬķ áī¥
ĠáĮł áĭĭáīµ
Ġáī³ áĭŃ
Ġáĭ¨áĪĺ áĬķáĮįáĪµáīµ
áīĢ áīłáĪį
Ġáĭ¨ áĭ°áĪ¨
áī° áĪĿ
áįķ áĪ¬
áĪ° áĪĻ
áĬ« áĭŃ
Ġ2 9
áĬĺ áĭį
áīł áĭĭáĪį
áĬ« áī°
ĠáĭŃáĬĵáĮĪ áĪ«áĪį
áĪ¨ áĪ³
áĪĺáĪįáĬ¨ áī»
áĮ ³
áĪĮáīª áĭ¥áĬķ
ĠáĪ° áĪĪ
áĪĺáĪĪ áĬŃ
ĠáĪĺáĪĨáĬĵ áī¸áĭįáĬķ
Ġ ....
Ġáĭ¨áĪķ áĭŃáĭĪáīµ
ĠáĬłáīĭ áĪĿ
Ġáĭ¨áįį áīħáĪŃ
l i
áĪµáī³ áĬķ
ĠáīĢ áĭŃ
ĠáĪĺáĪ¨áĮĥ áĭİáī½
áĪ« áĮŃ
: -
ĠáĪį áī³
áĪĭáī½áĪģ áĪĿ
Ġáī° áĭĺ
ĠáĪµáĪĪ áĪĽ
2 2
ĠáĪ° áĮł
áĬķ áīłáīµ
ĠáĬł áĪ°áĪ«
ĠáĮį áĬķáĭĽáī¤
áĪĽáĪĽ áĬĿ
áĪ¯ áī¸áĭį
áĪľ áĪį
ĠáĪ¥áĪ« áĭİáī½
Ġ h
áī³ áĪĪáī½
ĠáĭĪáĭŃ áĬķáĪĿ
ĠáĬĲáīłáĪ¨ áī½
ĠáĪ ¹
áĬ¨áī° áĪĪáĭį
Ġáĭ® áĪĲáĬķáĪµ
ĠáĪĪáĪĺ áĮĢáĪĺáĪŃ
ĠáĪĽ áĬĲáĭį
ĠáĬł áĭĺ
áī» áĪĪáĭį
ĠáĪĺ áįħ
áĪ¨áĮĭáĮĪ áĮ«
Ġáīł áĭļáĪģ
ĠáĬ¥áĬķáĭ³ áīµ
Ġáĭ«áĪµ áįĪáĪįáĮį
ĠáĭµáĬķ áīħ
ĠáĬłáĪ¸ áĬĵáįĬ
Ġáīł áĮ¨
áįį áĬĵ
áīł áī°
ĠáĬłáĪµ áīĢáĭµáĪŀ
áīģ áĬķ
Ġáĭ¨ áī±
ĠáĮĢ áĪĿ
ĠáĬłáĪįáī» áĪĪáĪĿ
áĪĪ áī±
áī£áī¸áĭį áĪĿ
áĭĺáĮĭ áĮģ
Ġáĭ¨ áī¡
ĠáĬ¥áĬķáĭ Ī
Ġáĭķ áīħáĭµ
ĠáĪĺ áĪªáĭİáī½
ĠáĭĪáĬķ áĮĢáĪį
ĠáĭŃ áĪĸáĭĭ
áĪĭ áī¸áĭįáĬķ
áĪ¨áĪĿ áīµ
ĠáĬłáĭį áĪ®áįĵ
ĠáĬł áī³áĭį
áĬķáīĢáĪ³ áīĥáĪ½
ĠáīĢáĭµáĪŀ áĭį
Ġáī°áĮł áīħ
ĠáĬłáĪĽáĬ« áĬĿáĬĲáīµ
áĪĭ áĪĪáĬķ
ĠáĬłáĪĽáĪ« áĮ®áī½
ĠáĭµáĪŃ áĪ»
ĠáĭįáĮ¤ áī¶áī½
áįĬ áĭį
ĠáĬ¥ áīĥ
Ġáĭ¨ áĪ¥
áĮį áĪĪ
Ġáī°áįĪ áĮ¥áĪ®
ĠáĬŃáĪµáī° áīµ
Ġ K
áĪµ áī¶áī½
áįĵ áĬķ
áĭĪ áĮį
Ġáīłáĭļáĭ« áĪĿ
ĠáĬ¢ áĭ®
áĭµ áĬĵ
áĮī áĬķ
Ġáĭ« áĮĭ
áĪĬ áĬķ
áī£ áī½áĬķ
ĠáĪĪáĪĮ áĪİáī½
ĠáĭĪ áĪ¬
Ġáī°áĪ« áĪ«
ĠáĭŃáĬ ¼
ĠáĮĬáĭľ áĭ«áīµ
áĪĿ áĪµáīµ
ĠáĪĨ áĪµáįĴ
áĭ« áĪĿ
áĭ³ áĪľ
o st
ĠáĪµ áĪªáīµ
áĬ¨ áīł
áĬ© áīłáīµ
ĠáĪ¥ áĪįáĮ£áĬķ
ĠáīłáĬ¥ áĬĵáĬķáī°
áĮł áĪªáĭ«
ĠáĪ³áĪĿáĬķ áī³áīµ
Ġáĭ¨áĪļáĬ¨áī° áĪīáīµáĬķ
Ġáī¥áī¸ áĬĽáĭį
Ġáĭ¨áĬł áī£
ĠáĪŃáĭķ áĪ°
ĠG oogle
ĠáĪĺáĬķáĮį áĪµ
áįĬ áĬŃ
áĪŃ áĬķ
ĠáĬĲáĮĪ áĪ©
ĠáĪĺáĪµ áįĪáĪŃ
Ġáī° áīĨ
Ġáĭ¨áĪĺáĮ¨áĪ¨áĪ» áĭį
áĭĪáĮ£ áĪį
áĬ«áĪĦ áĭ°
áĬŃ áī°
Ġáī°áĭ°áĪŃ áĮİ
Ġáīµ áĭĿ
áĪŃáĭ« áĪĿ
áĪ® áī¹
áīłáĪŃ áĬ«áī³
áĭĪ áīģ
Ġáīģ áĪĿ
ĠáĪĺáĮį áī£áīµ
ĠáĪĽ áĭµáĪ¨
ĠáĪĽ áĪ¨áĮĭáĮĪáĮ¥
ĠáĪĿáĪįáĬŃ áī¶áī½
áĬķáĭ Ī
Ġ19 9
Ġáĭ¨áī°áĪĺ áĪłáĪ¨áī°
áĪ¸ áĬķ
Ġc om
ĠáĪĿáĪµ áĬŃáĪŃ
ĠáĬ¨ áĪ«
Ġáī°áīĢ áī¥
áĮĢ áĪŃáĪĺáĬķ
ĠáĬĥáĮ¢ áĬł
ĠáĬ® áĪĿáįĴ
Ġáĭ¨ áĮ¸
áĬĸ áī½áĬķ
Ġáīħáĭµ áĪĺ
Ġáīłáī° áįĪ
ĠáĬ« áĪĭ
áīĨ áĭ¨áīµ
áĮ» áįį
ĠáīłáĭįáĪµ áĮ¡
ĠáĪĺáĮį áĭĽáīµ
áĮĪáĬĲ áĭĺ
Ġáĭ¨áĪļ áī°
ĠáĬ¥áĬķáĭ° áĪĺ
ĠáįĸáĪĬ áĪµ
áĪ°áĮ£ áī¸áĭį
áĪĿáĪ¨ áĮ¡
áĮħ áĬĲáīµ
ĠáĪį áĪĽ
Ġáī³áĭįáīĥ áĪĪáĪħ
Ġáīł áĭĻ
Ġáĭ¨ áĮł
Ġáī°áĮ«áĭĭ áī½
áĭĪ áĪ«
Ġáĭ¨ áĪĭ
ĠáĪĬ áįĪ
Ġáĭ« áĭ°áĪ¨áĮĪ
ĠáĬłáĭŃ áįĪ
ĠáĪĢ áī¥áīµ
ĠáĭĪáĪĭ áĮĨáī½
Ġáī°áĮł áĭ«áīĤ
áĮĭ áĭį
áĮłáĬĵ áīĢáīħ
áĪŃ áĭ±
áĮĪ áĮį
ĠáĪĪáĪĽ áĪ¨áĮĭáĮĪáĮ¥
áĪħ áīłáĪ«áĭĬ
p p
ĠáĬ¥áĭ¨ áĮ¨
ĠáĬ¥áĭįáĬĲ áī³
áĬĵ áįį
ĠáĮįáĭ´ áī³
áĪ« áī¸áĭįáĬķ
Ġáīł áĮĭáĪ«
ĠáĪ³ áĪĪ
Ġáī¥áī¸ áĬĽ
áĪĻ áĬĵ
ĠáĬł áĬ¥áĪĿáĪ®
ĠáĪĪáĪĺ áĪŃ
áĭ«áĭį áīģ
Ġáīł áĮ½
Ġáī°áĭ°áĪŃ áĮĵáĪį
ĠáĬł áī¤áī±
ĠáĪĺ áĮĢáĪĺáĪŃ
áĭ ´áīµ
u m
áĭĭ áĪĿ
Ġáĭ¨áīµ áĬĽáĭį
áĮįáĪ« áĭŃ
ĠáĬ¨áĬ¥ áĬĲáĪ±
ĠáĮ Ĥ
Ġáī°áĬ¨áī³ áī³áĭŃ
áĬ© áĬķ
áī£ áĭį
Ġáĭ¨ áĪĲ
ĠáĬłáĭµáĪŃ áĮĮ
ĠáĬĲáįį áĪµ
áĭĪáĮ£ áĭį
áĭĭ áī³áĭį
ĠáĬ¨ áīĢ
ĠáĬ¨ áĪħ
áĪµáī³ áĭĪáĪµ
Ġáīł áĭµáĪŃ
ĠáĬłáĮłáīĥ áīĢáĪĿ
áĪĢ áĪį
ĠáĬł áĮ£
ĠáĬłáĬķáī° áĬķ
u s
Ġáįĭ áĭŃáĪį
v e
Ġáĭ«áīĢáĪŃ áī£áĪį
ĠáĬ¨ áįĪ
áĮįáī£ áī¥
áīĢ áĪ³
áĬł áĬķ
áĪ³ áī½áĬķáĬķ
áį Ĩ
u b
ĠáĪĪ áĭŃ
ĠáĮįáī¥ áĭŃáīµ
áĪĺáĬķ áīµ
Ġáĭ¨ áĬ¨áī°áĪĽ
áĮĵ áĮĵ
áĪ» áĭį
ĠáĭŃ áĪĿáĪ¨áĮ¡
ĠáīłáĪķ áĭŃáĭĪ
áĬķáĪµ áįĸáĪŃáīµ
ĠáĪħ áĪĺáĪĿ
Ġáī£ áĬķ
áīĢ áįį
ĠáīłáĪĺ áĪĭáĭį
ĠáĬłáĪį áįĪáĪįáĮįáĪĿ
ĠáĪĽáĪĪáīµ áĪĿ
ĠáĪĽáĬķ áĬĲáīµ
ĠáĪĺ áĪ«
ĠáĪĺáĪµ áĬŃ
ĠáĪľ áĭ³
ĠáīłáĬł áĭįáĪ®áįĵ
áĭµ áĪ®
ĠáĬ¨ áĪķ
ĠáīĢáĮ¥ áĪİ
ĠáĭŃ áĮłáīĢ
ĠáĪĽ áĭ³
áĮ« áĬĳ
áĬķ áĪ°áĪŃ
ĠáĬĲáįĥ áĬĲáīµ
ĠáĬ¢ áīµáĭ®áĮµ
áĬĲ áĬķ
áįĪ áĭĭáĪį
Ġáī¥áĪİ áĮį
áīħ áĬķ
áĮĢáĪĺ áĪ©
áĬ ¹
áī½áĪģ áĪĿ
áĭ°áĮĭ áĮĭáĪļ
áĬ ½
ĠáĭŃáĪł áĪ«áĪį
ĠáĬ¨áĬ¥ áĪŃáĪµáĭİ
ĠáĬ¥áĬķáĭ°áĪļ áĪĨáĬķ
áĬķáĮįáĪĬáĭĿ áĬĽ
áĪĽ áĪĺáĬķ
áī» áĪī
áĮł áĭĭáĪį
ĠáĭŃ áĬ¸áĭį
ĠáĬłáĭŃáĮĪáī£ áĪĿ
áĪĺ áĬĽ
áĭ«áĭį áĭ«áĬķ
áĪį áĬ®
áĮ ¿
áĭĪ áĭ«
áĬ³ áĭŃ
ĠáĪĿ áĮį
Ġáīłáī° áĪ»áĪĪ
áĪ¨ áĪ±
ou s
ĠáĪĺ áĮ¡
ĠáĪĪ áĪĻ
áĮłáī¥ áīħ
ĠáĪ³ áĭ«
áĭ°áĪŃ áĪ±
áĬĲ áī³áī½áĬķ
ĠáĪĨ áĬķ
áĭĭ áĪŃáĭ«
áĮĪ áĭ±
áĪĦ áĭ°
Ġ a
áĭ« áĭİáī½
ĠáĭµáĪŃáĮĬ áīµ
Ġ ,
Ġáī° áĮĪáĪį
ĠáĬłáĪĿ áĬĵáĪĪáĪģ
ĠáīµáĬ¥ áĭĽáĭĿ
´ áĮ¥áĪ®
ĠáīłáĪĺ áĪĨáĬķ
áĪĬ áĪµ
ĠáĪĺáĪ³áĪªáĭ« áĭİáī½
Ġáīħ áĪ¬
Ġáĭ¨áī° áĪĺáĪ°
ĠáĪĪáĪĺáįį áĮłáĪŃ
Ġáī¢ áĬĸáĪŃ
ĠáĬł áĮĢ
ĠáĪĪáĪĺ áĪ¨áĭ³áīµ
áĪµáī°áĬ« áĬ¨áĪį
áī± áīµ
ĠáĬ¥áĪŃ áĪ·
áĮĵ áĭ°
áįĭ áĪī
ĠáĪĪáĪĺáĪµ áĪ«áīµ
Ġáī¡áĭµ áĬĸáī½
ĠáĭŃáĮĪ áĪį
áĮ¥ áĪ©
Ġáī¤áī° áĬŃáĪŃáĪµáī²áĭ«áĬķ
Ġáī£áĪĪáĪĻáĭ« áĭİáī½
ĠáĬłáĪĭ áīµ
ĠáīłáĪļ áĮĪáī£
áĪŃ áįį
ĠáĬłáĬķ áī½áĪįáĪĿ
ĠI n
áĪĭ áĪ³
Ġáīł áīµáĬķ
Ġáĭ¨áĪĽ áĬķ
áĪ¨ áįĪ
áī¢ áĭ«áĭį
áīĭ áĪ¨áĮ¥
áĪĽ áĭį
ĠáĬłáī£ áī´
áĮ¸ áĪį
ĠáĪµáĪ« áĭİáī½
Ġáĭ¨áī°áĪĪáĪĺ áĭ°
Ġáī£áĪĪ áĪµ
ĠáĬ¥áĬķáĭ³ áĪī
áĪ³ áĪĪáĪģ
áĪĪ áī³áĪį
Ġáī°áĬ¨áīµ áĪİ
ĠáĭĵáĪĺ áī±
ĠáĪļáĬĴ áĪµáī´
ĠáĮįáĪĿ áīµ
Ġáĭ¨áĭĪ áĮ£
Ġáīł áĪŀ
ĠáĮĪáĪį áĮ¸
ĠáĬłáĬķ áĮ»
áĮ¥ áĪį
áĪ¨ áĪ»
áī¨ áĪµáīµ
áĮĪáĬĿ áĪĿ
Ġáīłáī° áĭ°áĮĭáĮĭáĪļ
Ġáĭ¨ áĮ½
ĠáĪĥ áĪ³
ĠáĪĺ áĬ¨áĪĭáĬ¨áĭ«
áĪ´ áįį
ĠáĬ¨ áīµ
Ġáĭ¨áī° áī£áĪĪáĭį
ĠáĬłáī¥ áĪ¨áĬķ
ĠáįĪ áĪĪ
Ġáĭ«áĬķ áī¥
Ġáĭ« áĬ«áīµ
áĭ® áī½áĬķ
Ġáĭĺ áĮĪáī£
r i
áĬł áĪĪáĪģ
áĪĿ áĬķáĪĿ
áĮĪáĪįáĮį áĪİáīµ
ĠáĮ¤áĬĵ áĪĽ
Ġáīģ áĪ³áīģ
ĠáĪłáĪ« áī°áĬŀáī½
ĠáĪ½áĪį áĪĽáīµ
áĪ³ áĪ½
áĭį áĬĲáīµ
Ġáī£áĪķ áĪŃ
Ġ X
áī¢ áĭŃ
áĪĭ áī½áĬĭáĪĪáĪģ
áī½ áĪīáīµ
2 4
áĪĺáĪĪ áĪ°
ĠáĬ¥áĬķ áįĪáĪįáĮĭ
ĠáĪĽáĪ¨ áįĬáĭ«
ĠáĮĵáĭ° áĬŀáī½
áĪĭ áīĤ
ĠáĪĪáĪĺ áĪĿ
ĠáĪĽ áĪ«
ĠáĬłáĪµáī° áĪĽáĪĽáĬĿ
ĠN ext
ĠáĪĪáĪĽ áĪµáī°
ĠáĪµ áĪĽ
ĠáĪµ áĬ¬áīµ
áīĥ áĭŃ
áĮ¨ áĪĿáĪŃ
ĠáĬŃ áĪĪ
ĠáĪĺáĪµ áĪĽáīµ
ĠáĬ¨ áī¤áī°
ĠáĬ¥áĬķáĭ³áĪĪ áīłáīµ
ĠáĪĪáĪĺ áĮłáīłáīħ
ĠáĪĺáĬĸ áĪªáĭ«
áīł áĬł
áĬĲ áĭĭáĪį
2 5
áĪİ áĬķ
Ġáī¡ áĬĵ
Ġáĭ¨áĪļ áĪī
Ġáĭ¨áĬ¢ áĬ®áĬĸáĪļ
áĭ¥ áĪĿ
ĠáĬ ħ
ĠáĪĺáĬķáįĪ áĪ³áĭĬ
áįĭ áĪµ
áĬ® áīµ
áīĥ áĪĪáĬķ
ĠáĬĲáĮ¥ áī¦áī½
áĪħ áĬĲáīµ
áĮĪ áĭĻ
Ġáīµ áĬĵáĬķáīµ
ĠáĭŃáĮł áīłáīĥáĪį
áĬŃ áĪĿ
² áį
en t
Ġáī° áĬĲáĪ³
ĠáĮ¥ áĬķáĬ«
áĪŁ áĪĭáīµ
Ġáīłáī° áĭ«áĭ«áĭĺ
áĬł áĪģáĬķ
áĭŃ áī±
áĮĭ áī¸áĭį
ĠáĪĿáĬĵáĪį áī£áīµáĪĿ
ĠáĮ¥áīħ áĪŀáī½
áįĪ áĪ©
áĬĲ áĭįáĬķ
Ġáĭį áī¥
Ġáīł áĮĢáīµ
áĭ° áī£
ĠáĭĺáĪĺ áī»
ĠáĭŃ áĮłáīĢáĪĻ
Ġáĭ¨áī¤áī° áĪ°áī¥
ĠáĮį áĭĽáīµ
áĭĭáĭķ áīµ
ĠáĬł áĪĺáĪį
ĠáĮįáĪĪ áĪ°áī¥
Ġáįĭ áī¥áĪªáĬ«
Ġáĭ¨ áĪģáĪĪ
ĠáĬ¥áĬķáįĪáĪįáĮĭ áĪĪáĬķ
ĠáĪĺ áĪ¨áĭ³áīµ
Ġáī³ áĪªáĬ«
Ġáī£ áīµ
áĭ° áĭĭáĪį
Ġáī° áĪŃ
Ġáī° áįħ
ĠáĬ¥áĪ« áĪµ
áĪŃáĪĥ áīµ
Ġáīł áįĸ
áĪ« áĪĿ
Ġáīł áĪ¶
ĠáīĢ áĬĵ
áĬ¥ áĬĵáĬķáī°
áĭĭ áī¸áĭį
Ġáīłáī° áīĥ
ĠáĭŃáīĢáĮ¥ áĪĭáĪį
áĮģ áĬķ
Ġáīłáįį áīħáĪŃ
ĠáĬ¥áĬķ áĪĺáĪįáĬ¨áīµ
ĠáīłáĬł áĭ²áĪµ
áĪ¸ áĮ¥
ĠáĬ¥áĬķ áĮħ
áĭī áĬķ
ĠáĬĲáīłáĪ¨ áĭį
ĠáĬķ áĭµáįį
Ġáīħ áĮ½
ĠáĪĻ áĪµáĪĬ
ĠáīłáĪħ áĭŃáĭĪáīµ
Ġáĭ¨áĪļáĪĨáĬĳ áīµ
ĠáĪĽ áĪ¨áĮĭáĮĪáĮ«
áĭ° áĪ©
ĠáĪĪáĪĺ áĭµáĪ¨áĪµ
ĠáĪĺáīĢ áīłáĪį
Ġáĭ¨áĪļáįĪáĪįáĮī áīµáĬķ
Ġáĭ¨ áĭĽáĪ¬
ĠáĬĲáĭĭ áĪªáĭİáī½
ĠáįķáĪ¬ áĭĿ
ĠáĭŃ áĬķ
ĠáĪĿ áĪħ
ĠáĭµáĬķ áĮĭ
áĬĲ áĬ«
ĠáĬłáĪĪ áīĥ
Ġáĭ¨ áĪ°áĮł
Ġáĭ¨áĬł áįįáĪªáĬ«
ĠáĭŃáĪ» áĪĭáĪį
Ġáī£ áī¡áĪŃ
áįĥ áĬķ
ĠáĪŀ áĬŃ
ĠáįĵáĪŃáī² áĭİáī½
ĠáĬ¨áĮ¥ áīĤáīµ
Ġáĭĺ áĮį
áī² áĬŃ
ĠáīłáĬłáī¥áĭĽ áĬĽáĭį
áĬ¨ áįĬ
áī¶ áī»áī¸áĭį
áĬĶ áĬķ
ĠáĪħ áĪį
ĠáĬ¥áĬķáĮį áĭ³
Ġáĭ¨áī° áĪ°áĮł
áĭ Ķ
áĮ» áįĪ
ĠáīĨáĭŃ áī·áĪį
ĠáĬłáĪĿ áĪĭáĬ«
áīħ áĭ±
ĠáĪ°áĪ« áī°áĬŀáī½
áĬĸ áĪµ
ĠáĪ° áī£
Ġáįį áīħ
áĪĽáĮį áĪĮ
Ġáĭ« áĭ¨
áĪĭáįĬ áĬĲáīµ
ĠáĬĲáĮĭ áĭ´
ĠáĭŃáĮłáĭŃ áīĥáĪį
Ġáĭ¨áĬ¥ áĮįáĪŃ
áĮĢáĪĺ áĪ¨áĭį
ĠáĪµáĬ¬ áī³áĪĽ
áĪ² áī¥
áĮ» áĮ¸
Ġáĭ° áĪĺ
áī¥áĪ¨áī° áĪ°áī¡
áĭ° áīł
áĮł áĪĿ
áĭĿ áĬķ
áī½áĪģ áīµ
áĪ® áīµ
ĠáĬłáīħ áĪ«áī¢
Ġáīħ áĮ£áīµ
ĠáĭŃ áĪģáĬĳ
áĬ¥ áĪŃáĪ±
ĠáĬ¥áĬķáĭ³ áĭ«
ĠáĪĺáĬķáĮįáĪµ áī³áīµ
áĬĲ áīłáī¥
áĭ³ áĭ©
Ġáĭ¨áĪķ áĭĿáī¥
ĠáīłáĬ¥ áĪ±
ĠáĮł áī£
áīĢ áĬĵ
áĪŃ áĪ·
o t
áĬ¨ áīłáĪ¨
ĠáĬ¥áĬķáĭ°áĪļ áĭ«áĪµ
áįĪáĪįáĮĪ áĭįáĬķ
Ġáĭĺ áĭŃáīµ
ĠáĬłáĬķáīĢ áĮ½
ĠáĪĪ áīµ
Ġáĭ¨ áĭ«áĭĺ
áĪ« áī´
ĠáĪĪáĪĺ áĪĦáĭµ
ĠáĬłáĪĿ áĪ«
ĠáĮĪ áĬķáĭĺ
ĠáĬłáĪĺ áĪ«
Ġáīł áĪī
ĠP re
Ġáīł áĪ¥áĪ«
Ġáīł áĪĿáĪŃ
ĠA nd
áĬłáĭ´ áĮį
Ġáĭ¨ áĮĪáī£
ĠáĬ¨ áĬŃ
ĠáĮ¥ áīĤ
ĠáĬłáĪĪ áĪĽ
Ġáĭ¨áī£ áĪħáĪŃ
ĠáĪĪ áī¤áī°
ĠáĮł áĪĭáīµ
Ġáĭ¨ áĪĭáīĢ
ĠáĪĽ áĭ«
ĠáĪĽ áī¥
ĠáĭŃ áĪį
áĪ°áĪĽ áĭį
ĠáĮİ áĭ³áĬĵ
ĠáĪĺáĮį áī¢áĭ«
áĮ¿ áĪį
Ġáīł áĪŃáĮį
ĠáĬ¥ áĪº
Ġáĭ°áĬķ áīł
Ġáį ¥
Ġáīµáĭķ áĭĽáĭĿ
áĪµáĪ« áīħ
ĠáĪ¥áĪŃ áĭĵ
ĠáĭŃáĭ°áĪ¨ áĮĭáĪį
ĠáĪĺ áīģ
Ġ201 8
ĠáĭŃáĬĵáĮĪ áĪ«áĪī
ĠáĪµ áĪĪáĪĿ
Ġáĭ¨ áįĬ
Ġáĭ«áĬķáī¥ áī¡
ĠáĭĽ áįį
ĠáĬłáĭį áī¶
ĠáĬł áĪĺáĮ£
áĭĿ áīĥ
Ġáĭ¨áĪĮ áĪĪáĭį
áĬĲ áī´
áĪĭ áīµáĬķ
Ġáĭ¨áī£ áī¡áĪŃ
ĠáĪĺáĭį áĮ£áīµ
ĠáĬ¥áĬķáīħ áĪįáįį
ĠáīłáĪĿ áīµ
áĬĲ áī¥
ĠáĪĽáĪ³ áĭ«
ĠáĬķ áĮ¹
áĪĺáĪĪáĬ¨áī° áĭį
ĠáĬĲ áĮŃ
Ġáĭ¨ áĮĭ
ro id
Ġáī¤áī° áĪ°áī¦áī½
áĪµáī° áĭį
ĠáĬłáĭµáĪŃ áĮį
ĠáīĨ áĭŃáī³
áĬª áĪĿ
áĪµáī³ áĭį
áĭ³ áĭŃ
áĪĺáĪĪ áĬ¨
ĠáīłáĬĲ áįĥ
áĮĭ áī¢
Ġáīł áĪĲ
áĬ¨áī° áĪī
Ġ201 7
Ġáĭ¨áīł áĪĭáĭŃ
ĠáĮİ áĪį
áĪ¨ áĬĿ
áĪªáĭ« áĭį
áĬ³ áĬķ
áĭĪ áĪį
ĠáĪĭáĭŃ áĪĿ
o re
Ġáīł áĬ¨áī°áĪĽ
ĠáĭŃáĭĺ áĭį
Ġáĭ«áĪµ áī³áĭį
ĠáĮįáĬķ áī¦áīµ
áĭ«áĭį áīħ
ĠáĬ¥áĬķáĭ° áĭļáĭ«
ĠáĮī áī¥áĬĿ
áīĢáĮ¥ áĪį
áĪĿáĬķ áī±
ĠáĪĺáĮĪáĪĪ áĮ«
áĪ° áī¢áĭ«
áĪĮ áĬķ
áĬķ áīĢáīµ
áĪĪ áĪµ
áĪ¨ áĭĿ
Ġáĭ¶ áĬŃáī°áĪŃ
Ġáĭ¨áĪĿ áĪµ
áĮįáī£ áī£áīµ
áĬ³ áī¸áĭį
ĠR e
áĭŃ áĪ¨áĪµ
ĠáĪĺáĪĪ áĪµ
ĠáīłáĪĺ áīĢ
Ġ J
Ġáīł áī¦
ĠáĪĺ áįĪáĪĪáĮį
ĠáĮ£áī¢áĭ« áĭİáī½
Ġáīł áĭĽ
Ġáĭ¨ áĮ¦áĪŃ
Ġáĭ« áĭ°áĪ¨
áĬ¤ áĪĿ
ĠáīłáĪĺáĪµ áĪĺáĪŃ
Ġáĭµ áĪ¨
ĠáĪĪáĪĺáĪŃ áĭ³áīµ
Ġ ðŁ
Ġáĭ¨áĪĽ áĪµ
Ġáĭ¨áī° áĮłáīĢ
ĠáĮįáĪĪ áĪ°áī¦áī½
ĠáĭĪáĬķáĭµ áĪŀ
áĬ© áī£áĬķáĭ«
ĠáĬ¨ áĪļáĭ«
áī¶ áī¹áĬķ
áĭİ áī»áī¸áĭį
áīł áĭĽ
áī² áīµ
ĠáĪ³áĭŃ áĬķáĪµ
Ġáĭĺ áĭŃ
áĬ« áĭĬ
ĠáĬłáī¥áĭĽáĬĽ áĭįáĬķ
ĠáīħáĪŃ áī¥
áĮį áĪª
áĪĺáĮ£ áĪī
- -
Ġáī° áĭ«áĭŃ
áįİ áī½áĬķ
áĪ¥ áĪ«áīµ
áĪµáĪĽ áĪĽ
ĠáĬł áĭĽ
ĠáĬłáĪĿ áī£
ĠáĬłáī¥áĭĽ áĬĽáĭį
ĠáĪĽ áĪĺáĪįáĬ¨áī»
áĬĲ áįĥ
Ġáĭ¨ áĭ²
áĪĨ áĬĵáī¸áĭį
Ġáĭ¨áĬł áĪģáĬĳ
áĪ» áĮĪáĪŃ
ĠáĬ¥áĭ¨áĮ¨ áĪĺáĪ¨
áĮ¢ áĪŃ
ĠáĬ¥áĬķáĭ³áĪį áĪĨáĬĲ
áįģ áĪĿ
Ġáĭ¨áī° áĮłáīłáīĢ
ĠáĬ¥áĪŃáĪ± áĬķ
Ġáĭ¨áĪļáĭ« áĭ°áĪŃáĮį
Ġáĭ¨ áĪ³
ĠáĬ¥ áĪį
ĠáĪĺáĮ»áĪķ áįįáīµ
Ġáī£áĪĪ áĪĺ
ĠáĪĿáĭķáĪ« áįį
áĭĵ áĭĬ
Ġ201 9
áĭ© áĪĿ
áĮĪáĬĵ áĬĺ
Ġáĭ«áĪµáįĪáĪįáĮį áĭİáī³áĪį
Ġáĭ¨ áĬķ
áįį áĪ¨áīµ
ĠáĪĺáī°áĮįáīłáĪªáĭ« áĭİáī½
ĠáĪĪ áĭĪáĭ°
áĬĲ áīĥ
Ġáĭ« áĪ°
ĠáīłáĬ ¦
Ġáĭ¨ áĪ©
ĠáĪĪ áĪ°áĭį
áĬ¨áĪ° áī°
ĠáĪĺáĭµ áĬĥ
ĠáĮ¥ áīĥ
áĬ¥ áĪµ
Ġáī° áĬ«
ĠáĬłáĬķáĭ³ áĬķáĭ´
ĠáĪµ áĮĭáīµ
ĠáĪµáĪį áĮłáĬĵ
áĪ® áĭį
Ġ3 1
ĠáĪĺáĪį áĬł
ĠáįķáĪ¬áĭļ áĭ³áĬķáīµ
ĠáĬłáĪį áī£
Ġáĭ«áĪĪ áįĪ
Ġáī°áĮįáī£ áĪ«áīµ
áĮįáī£ áī¡
ĠáĬł áīĥ
áĬĸ áī¹
áĮª áĭį
áĪ½ áĪĿ
ĠáĭĵáĭŃ áĬĲáī±
áĭ¨ áĪļ
áĮł áĪĺ
ĠáĬ¥áī£áĬŃ áĭİ
áĪ« áĪĪáī½
ĠáĪĿ áĭĿáĮĪáī£
áĬĵ áĮĭ
Ġ201 6
áĪ® áĪŀ
Ġáī°áĪ³áīµ áįİ
Ġáĭ¨áī° áīĢáĪĺ
áĪ¶ áī½áĬķ
ĠáĭĪáĪ¨ áīĢáīµ
Ġáĭ° áĪŀ
áĬ« áī¤
Ġáīł áĮįáī¥
ĠáĬ¥ áĪĭáĪĪáĪģ
Ġáĭ¨áī° áĪĺáĪ¨
Ġáĭ¨áĬ¥áĬĶ áĬķ
ĠáĪĪáĪĽ áīħáĪ¨áī¥
áĮĪ áĭĿ
Ġáīĥ áĪĪ
Ġáīł áĪº
ĠáīłáĪĽ áĬķ
áĮ£ áĬĿ
ĠáĬłáįĪ áįĥ
ĠáĪĪ áĬĶ
áī£ áĮŃ
Ġ< /
Ġáĭ¨áĬł áĬ«áĪį
áĮİ áĭ³
áĬĲ áī°áĬĽ
ĠáĬ¨ áĬķ
áĭ¨ áĪĺ
ĠáĪĺáĪĪ áĭĪáĮ¥
áĬŀ áī»áī½áĬķ
Ġáĭ°áĪ¨ áĪ°
ĠáĪµáĪħ áī°
ĠáĪĺ áĭ«áĭĿ
áĪĪáī½ áĪĿ
áī¸ áīµ
áĭĭ áĪŃ
ĠáīĢáĭµáĪŀáĭį áĬĳ
áĭĿ áĮį
ĠáĮį áĪĽáĪ½
ĠáĪĬ áĬĸáĪ¨áĭį
ĠáĭŃáĪĦ áĬķáĬķ
ĠáĪĪáĪĺ áĬĵáĮĪáĪŃ
áįį áĪ¬
Ġáĭ¨ áĮĬáĭľ
ĠáĬłáĪĽáĬ« áĭŃ
áĭĬ áī°áĪŃ
ĠáĬ¥áĬķ áĬŃáī¥
Ġáĭ¨áĪļ áĮĪáĪŃ
áĭĪáĪ° áĭµ
Ġáĭ³ áĮį
áĪĿ áĪ©
áĬĵ áī±
ĠáĬłáĭ° áĮĪáĬĽ
ĠAnd roid
ĠáĪĢáĮĪ áĪ«áīµ
ĠáĬłáĬķ áī£áī¢
áĮİáī¥ áĬĺáīµ
ĠáĭĪ áĭĺ
áī¥ áī¥áĪŃ
Ġáĭ¨áĪļ áī£áĪĪáĭį
áĪĳ áįį
ĠáĪĨ áĬĳ
ĠáĪĺ áĭĺ
Ġáī£áĪħ áĪŃ
áĪĬ áĭ«áĬķ
ĠáīłáĬł áĬķáī°
Ġáī¥ áĪ©
ĠáĭŃ áĪĪáĬĽáĪį
Ġáĭ¨ áīµáĪĿ
ĠáĭŃ áĪįáīģ
u r
áĬ ¡
áĮ» áĬĵáīµ
Ġáĭ¨ áī¦
áĮĪ áĪµ
ĠáĪĪáĪĺ áĬ¨áĪĭáĬ¨áĪį
Ġáĭ¨áĪĺ áĪ¨áĮĥ
ĠáĭŃ áĪī
ĠáĪħ áĮĪ
ĠáĬłáĪĪ áĭİáīµ
áĪĤ áĭµ
ĠáĮĪ áĮ¾áī½
ĠáĬ¨ áĪ°áĭį
ĠáĬĲáīłáĪŃ áĬ©
ĠáĭŃáĪĺáĪµ áĪį
ĠáĪķ áĮĪ
ĠáĮ¥áĬķáĬ« áĪ¬
ĠáĪ³ áĪį
ĠáĪĺáĭ³ áĪ¨áĪ»
áĪĻ áĪĿ
ĠáĪĺáĪĭ áĬ¥
ĠáĪĿáĪµ áĪį
Ġáīł áĬĲáĮĪ
áĮĤ áī³áĪį
áĪĺáĪį áĪµ
ĠáĪĿ áĪ¥
Ġ3 2
áĬ« áĬķ
Ġáĭ¨áĪĿ áĭµáĪŃ
ĠáĮ½ áĪģáįį
áĮ¢ áĬłáīµ
áī¥áĪ¨áī° áĪ°áī¥
Ġáī° áĭį
ĠáĬ¥áĬĵáĬķáī° áĪĿ
áĪŃ áĪ³
áĮŃ áĪ©
ĠáĪª áįĸáĪŃ
ĠáĪļáĬĴáĪµáī´ áĪŃ
ĠáĬłáĭį áĮ¥
er s
ĠáīĢáĪŃ áī¶
vi ous
ĠáīĭáĬķáīĭ áĭİáī½
ĠáĪħ áĬŃáĪĿáĬĵ
áī° áĬ©
áĭİ áī³áĪĪáĬķ
ĠáĬ¥áĭ¨ áĪĨáĬĲ
Ġáĭ¨ áĮ£
ĠáĭĪáĬķáĮĮ áĪį
Ġ6 0
ĠáĭĵáĭŃ áĬĲáī¶áī½
áĪµ áī¸
ĠáĬłáĬķáĮ» áĪŃ
áĪĭáĭĬ áĬĲáīµ
ĠáĪĺáĪł áĪ¨áī³áĭĬ
ĠPre vious
ĠáĬ¥áĪµ áĪŃ
ĠáĪĪ áĮĪ
e b
ĠáĪĪ áĭļáĭ«
áĮĪáĪį áĮĪáĪį
ĠáĪĺáĪ° áĪ¨áī³áĭĬ
Ġáīł áĪ©
Ġáĭ° áīĢ
ĠáĪĪ áī¥
Ġáĭ¨áĬ¥ áĪ±
ĠáĮ« áĪĽ
ĠáīĢ áĪĪ
ĠáĮĨ áĪ®
Ġâ Ĩ
áīł áĪ«
áī£ áīłáĪŃ
áĭĵ áĪĺáī±
áĮĢ áĪŃáī£
ĠáĬ®áĪļ áī´
áĪłáĪ« áĭį
áĮł áĪĪ
ĠáĭĪáĬķáĭµ áĪĿ
Ġáĭ¨áĪļáĬ¨áī° áĪīáīµ
ĠáĬ¨ áĮĬáĭľ
áĭ° áĬĲ
Ġáĭ° áī¡áī¥
Ġáĭ« áĮĪ
áĮ¥ áįĭáīµ
áĪ» áĪĪáĪģ
áĭİ áĪµ
ĠáĮĪáī¥ áī¶
Ġáīł áĭĽáĪ¬áĭį
ĠáĮĪáĪįáĮ¸ áĭĭáĪį
ĠáĪĪ áĬ«
Ġáĭ¨áĬĲáīłáĪ¨ áĭįáĬķ
ĠáĮ Ĭ
áĭį áī°áĪŃ
ĠáĬłáĮĪáĪį áĮĭ
ĠáĬłáĭ«áĭį áīģáĪĿ
áĪ³áī° áįį
O S
ĠáĬłáĪĿ áĪĭ
ĠáĬ¨ áī¶
áĪµáįĭ áīµ
ĠáĬłáĮĢ áĬķáĭ³
Ġáī° áĪ½áĬ¨áĪŃ
Ġáīł áįĮ
áĪµáī° áĭ³
ĠáĬ¨ áĭĭ
ĠáĪĪáĪĽ áĭį
Ġáĭ² áĭĽ
ĠáĮ ´áĮ¥áĪ®
áĬ¤ áĪįáĪĿ
Ġáī¥ áĪĦ
ĠáĮĭáĭľ áĮ£
áĪĤ áĭ±
ĠáĪµáīµ áĪ«áī´
ĠáĪĪ áįį
áĪ¨ áĬĵáĪį
Ġáīłáĭµ áĮĭáĪļ
áĭŁ áĪį
Ġáīł áĪ¥
ĠáĬłáĪµ áīĢáĭµ
ĠáĪ« áĪ³áī¸áĭįáĬķ
Ġáīł áįĵ
ĠáįĪ áĮ¥
ĠáĬłáĭŃ áĬĸáĪŃáĪĿ
áīĨ áīµ
ĠáĬ¨ áī¥
Ġáī¦ áĪŃáĭµ
ĠáĬ¥áĬĵ áī´
ĠáīłáĬĲ áĮ»
ĠáīłáĪĺáĪµ áĮłáīµ
ĠáĬł áĭ²
ĠáĬ¨ áī¤áīµ
Ġáĭ³ áĭŃ
ĠáĮ¥ áĬķ
ĠáĬŃ áĪŃ
ĠáĭŃ áĮ¨áĪĿ
áĭĺ áĪ¨
ĠáĬłáĪĺ áĪ«áĪŃ
ĠáĪĺáĭµáĪ¨ áĪµ
ĠáĬ¨ áĮİ
Ġáĭ¨áĪļ áĮĪáĬĺáĭį
ĠáĪ £
Ġáĭ°áĪŃ áĪ¶
áĬĽ áĪĪáĪģ
ĠáĮĪáĭ° áĪĽ
áĪĽ áĪµ
ĠáĬŃáĪµáī° áī¶áī½
áĬķ áĪ²
ĠáĪĽ áĪ»áĪ»
ĠáĬ¥áĬķáĭµ áī³
2 3
áĭķ áĪĿáĪ®
áĬĵ áīĢ
ĠáīłáĪĽ áĭŃ
áĬĲ áĪŃ
áĪ½ áĬĳ
Ġáĭ¨áĪļ áĬĸáĪ©
ĠáĬłáĪĭ áĪĽ
ĠáĪĪáĪĺ áĬŃ
áĪħáĬķ áĬĲáīµ
ĠáĬķ áĮ¥áĪ¨
áī³ áī½
ĠáĬłáĭįáĪ®áįķ áĪĭáĬķ
áĮł áĬķáīĢ
Ġáĭ¨áī£ áĪĪ
Ġáĭ°áĮĭ áĮį
ĠáĬłáĭĭ áĮħ
ĠáĪĽ áĪŃáĭ«áĪĿ
Ġáįį áīĥ
ĠáĬŃáī¥ áĭ°áīµ
ĠáĮ¥ áįĭáīµ
ĠáįĪáīĥ áĭ°áĬĽ
ĠáĬłáĬķáĭµ áĬĲáīµ
áī£ áī¢áĭ«
ĠáĪĽ áĪ°
áĪŃ áĪĭáĪĽ
áĬĲ áĪĿ
Ġáĭ¨áīµ áĪ«
ĠáĭŃ áĬĲ
ĠáĮ¥ áĪįáīħ
Ġáĭ¨áĪ« áĪ±áĬķ
ĠáĪµ áĬĵ
áĭĪáĪ° áĬĳ
Ġáī° áĪ°áĪĽ
ĠáĭŃáĪĦ áĭ³áĪį
áī² áĬķ
ĠáĬ¨ áī¥áĭĻ
áĪµáī° áĭĭáĪį
áī¥ áĪµ
ĠáĪĺ áīĥ
ĠáĬ¨ áĪĺáĪµ
áĪª áĭĿáĪĿ
áĪ¨ áīł
ĠáĪĺáī¥ áī¶áī½
ĠáĭĪáĭĺ áī°
Ġáī¥ áī³
ĠáĪµáīµáĪ«áī´ áĮĤ
Ġáīł áĪµáĪ«
áīł áĭĿ
áĬĵáī¸áĭį áĪĿ
Ġáī° áĬĲáĪµ
áīħ áĪį
Ġáī¶ áĪİ
ĠáĪŃ áīĢáīµ
Ġáĭ¨áĬł áĭį
ĠáĭĪáĭ° áĭļáĪħ
ĠáĪĪáĪĺ áĬĸáĪŃ
áĭµáĪŃ áĮį
áĬĽ áĭįáĬķ
ĠáĪį áĬĵ
ĠáĬ¨ áĪģáĪī
ĠáĪĪ áīĢ
ĠáįĪ áĮĪáĮį
áĪľ áīµ
Ġáī¤áī° áĪ°áī¦
áĪ¨áĮĭ áĮĭ
áĪĬ áĬĵ
Ġáĭľ áĮĭ
Ġáī° áĮĵ
Ġáīłáī° áĮįáī£áĪŃ
ĠáĪĺ áĪ¨áī¥
ĠáĭĪáīħ áī³áĭĬ
ĠáĬ® áĬķ
ĠáĭŃáĪŀáĬŃ áĪ©
ĠáĬ¨áĬ¥ áĪ±
ĠáĭŃ áĮį
ĠáĪķáĭĿ áī¦áī½
Ġáĭ¨áīĢáĪ¨ áīł
ĠáĬłáĬķ áįĥ
ĠáīĢ áĮ£áĭ©
ĠáĪĪáĪĽ áĪ»áĪ»áĪį
áĪľ áĭŃáĪį
ĠáĪĺ áĪĺáĪįáĬ¨áīµ
Ġáĭ¨ áĬ¨áįĭ
Ġáĭ¨áĮī áĭŀ
Ġáī³áĪĽ áĬĿ
Ġáĭ¨ áĬĳ
ĠáĪĪáĬł áĬķáī°
áĬŃáĪį áĪī
ĠáĪĥ áĭŃáĪĽáĬĸ
ĠáĭŃáĬĸ áĪ«áĪī
áĪĮ áĮħ
ĠáĪ°áĬĲ áĭµ
Ġáĭ´ áĪŀáĬŃáĪ«áĪ²
ĠáĬłáĬķáĭ° áĬĽáĭį
ĠáĬĲ áīł
áĭ© áĬķ
ĠáĮĪáĮ½ áī³
ĠáĪĪáĪĺáįį áī³áīµ
ĠáĪĨáĪµáįĴ áī³áĪį
Ġáī¥áī» áĭįáĬķ
ĠáĬł áĭ¨áĪģ
áĮĪáĪĪ áĮįáĪį
áĬ«áĪĦ áĭ°áĭį
áī£ áīł
áįį áĪŃ
ĠáĪķ áĬŃáĪĿáĬĵ
áĭ³ áĪ´
Ġáĭ¨áĪĿáĪŃ áĮ«
ĠáīłáĪĺ áī°
Ġáĭį áīłáīµ
ĠáĪĺáĮ¥ áī¶
ĠáĭŃáĪħáĬķ áĬķáĪĿ
ĠáĪĥ áĭŃáĪĽáĬĸáīµ
ĠáĪ° áĭįáĬķ
h e
o s
Ġáĭ¨áĪķ áĮį
ĠáĬ ¡
ĠáĬ¥áĪŃáĪĿáĮĥ áĭİáī½
áĭ± áĪĿ
ĠáĬłáĮł áĮĪáī¥
áĪĽ áĮŃ
áĮ½ áĬĵ
áī³áĭĪ áīĢ
áĭĭ áĪĪáĪħ
Ġáĭ¨ áĭľ
Ġáīµ áĪĨáĬĵ
ĠáĬłáĪĪáĪĺ áĪĨáĬĳ
Ġáĭ¨ áĪ²
Ġáĭ¨ áĬĽ
ĠáĪĺ áĪŀáĬ¨áĪŃ
ĠáĪĪáĪĽáĬķ áīłáī¥
áĪª áī±áĬķ
áĭ° áī½
ĠáĬł áĪłáĪ«
ĠáĭŃ áĪŀ
ĠáĬłáī£ áī£áĪį
áī³ áĬĿ
ĠáĪ«áĪµ áĪħáĬķ
ĠáĮ¥ áĮĪáĬĵ
áĬł áĪĿ
áĬŃáĪį áīµ
áĪ¨ áĮł
áī Ī
Ġáī£ áĭ¶
ĠáĬłáĬķáĭ³ áĬķáĭ¶áī½
áĪĿ áĪĮ
áĬķáĮį áĪ¥
áĭ® áī¹
Ġáĭ¨áĪļ áĪ°áĮ¥
ĠáīĢ áĬĿ
ĠáĬ Ķ
áįĪ áĮłáĪŃ
ĠáĬ ¾
áĪľ áĪ«
áįķ áĪį
áĬĵáĮĪ áĪ©áīµ
ĠáĪĪ áīł
ĠáĪĪáĪĺáĮį áĭĽáīµ
ĠáĬ¨ áĮį
ĠáĬ¥áĭ« áĬķáĭ³áĬķáĭ³
áĬ© áīµáĬķ
Ġáī°áĪĺ áĪ«
ĠáīłáĪ° áĪĭáĪĿ
ĠáĬ¥áĬķáĭ° áĭļáĪģ
Ġáĭ³ áĬķ
áī£ áĪª
Ġ201 3
áįĪ áĮ½
áĪĪ áĬķáĪĿ
áĪĭ áĮŃ
áįĭ áī¸áĭį
ĠáĬłáĬķáĭµ áĬķ
Ġáī³ áī½
áĭ³ áĮĬ
áĪ³áī° áįī
Ġáĭ« áĭ°áĪ¨áĮĪáĭį
ĠáĪµ áĮĭ
áĪ» áĪ½
ĠáĭŃáĪ° áĪ«áĪį
Ġ8 0
ĠáįĪ áĪ¨áĬķáĪ³áĭŃ
Ġáĭ¨ áĪł
ĠáĪĪáĪĺ áĪĺáĪĪáĪµ
áĮ£ áī±
Ġáĭ¨ áĪīáĪĿ
ĠáĮ¨ áĪĪáĪĽ
áīł áĬ¥
Ġáĭ¨áĬĲ áīłáĪ©áīµ
áĬĲ áī³
Ġáĭ¨áĪļ áīĢ
Ġáĭ° áĬ«
ĠáĪ ¾
Ġáīł áĮĭ
o f
áĬ¦ áĪį
ĠáĪ½ áĪĽáĮįáĪĮ
ĠáĬ©áī£áĬķáĭ« áĭį
ĠáĪĥ áĭŃ
Ġáī°áĪĺáĪį áĪ¶
ĠáĬł áĪ®
áĭ« áĪĪáĬķ
ĠáĬ¤ áĪĿ
áĬ¨ áĬĿ
ĠáĬĲ áĮį
Ġáīłáĭ° áĪµáī³
ĠáĪ² áĪĺáĮ£
Ġáĭ¨ áīªáĭ²áĭ®
Ġáīłáĭį áĮŃ
Ġáį ²áį
ĠáĪĪáĭį áĮ¦áī½
ĠáīµáĪŃ áįį
áī£ áī±
Ġáī°áīĥ áĭįáĪŀ
áī¥ áĪ©
ĠáĪĿáĬŃ áĪ®áī½
ĠáįĪ áĮłáĪ«
áĭĺáĮĭ áĮĥ
ĠáĬ¥áĬķáĮįáĪĬáĭĿ áĬĽ
áĭ´ áĪ«áĪį
áĮłáīĢáĪĻ áīłáīµ
áĪĺ áī³áīµ
ĠáīłáĬł áĮįáī£áī¡
áĮ¨áĬĲ áīħ
áĪª áĬķ
ĠáĪĬ áī³
ĠáĪĺáĪµ áĬ¨áĪ¨áĪĿ
ĠáĪĺáĪµ áĪİ
Ġ th
áīłáĪį áĮ¥
ĠáĬ¥ áĭįáĬķ
ĠáĬł áĭĺáĮĭáĮħ
om e
áĮħ áī±
ĠáĪĪáĪĺáĮį áī£áīµ
Ġáĭ¨ áĪ°áī¥
áĪ® áĬĵ
ĠáĭµáĬķ áĮĭáĭŃ
Ġáĭ¨áī° áĮ£
ĠáĬ¥ áĮįáĭļáĬłáī¥áĪĦáĪŃ
ĠáĪĪáĪĺáīĢ áĬĲáĪµ
Ġáĭ¨ áĮŃ
ĠáĪ³ áīµ
Ġáī°áĪ³ áī³
ĠáĪĿ áĪģ
ĠáĬ® áĪŃ
Ġáĭ¨áī°áī£ áīłáĪ©áīµ
áī¤ áĪį
áĭĪ áĪ©
ĠáĬ¨áĪĺ áĮĢáĪĺáĪªáĭ«
Ġáĭ¨áĪļ áĭ°áĪ¨áĮį
Ġáīłáĭ¨ áĭĵáĪĺáī±
ĠáĪĺáĬŃ áįĪáĪį
áĬ« áĪļ
ĠáĬ¥áĪµ áĬŃ
áĪįáĮ£ áĬĵáīµ
ĠáīłáĬł áĬķáĭ³áĬķáĭµ
ĠáīµáĬŃáĬŃáĪĪáĬĽ áĭįáĬķ
ĠáĬŃ áĪµ
ĠáĪĨ áĬľ
Ġáĭ¨ áĪ¸
Ġáĭ¨áī° áĭĭ
áī° áĬĿáĬĲáīµ
ĠáĪĪáĬ¥ áĭ«áĬķáĭ³áĬķáĭ±
ĠáĭŃáĪ° áĮ£áĪī
áĬ¾ áĬķ
ĠáĬłáĭµáĪŃáĮĪ áĭĭáĪį
Ġáĭ¨áī° áĭ°áĪ¨áĮĪ
áĪ¨ áĮ¡
ĠáīłáĬĭáĪĭ áĪĿ
áĮł áĬŀáī½
áĮ ´
Ġ3 3
áĮ£ áĮ¥
r am
áĭ° áĪ°áīµ
Ġáĭĺáĭ´ áĭİáī½
áī¡ áĪĿ
áīħ áĪ¨
ĠáĭĪáĭ° áĪļ
ĠáĬłáĪµ áīĢáĪĿ
Ġáĭ« áĭµ
Ġáĭį áĪŃ
áĬķáĭ İ
Ġáĭ¨áĪļáĮĪáī£ áĭį
Ġáĭ° áĪ«áĪ²
áĪ³áĭŃ áĭ«áĪµ
ĠáĪĨáī´ áĪį
in d
ĠáĮ ©
áĭŀ áī½
Ġáīł áĪ°áĪĽáĭŃ
Ġáĭ« áĬĲáĪ°
ĠáĭŃáĪ°áĪĽ áĬĽáĪį
Ġáīł áĬķ
Ġáĭ¨áĪĺ áĬªáĬĵ
Ġáīłáĭ° áī¡áī¥
Ġáīł áĭ°áĪ¨
áĮĪ áīł
áĬĵ áĮį
ĠáĪĽ áĭŃ
áĬ¨ áįĪáĪį
Ġáī³áĪĭ áĪĭáīħ
ĠáĪĽ áī¥áĪ«
Ġáĭį áĪį
Ġáī°áīĥ áĭĭáĪļ
ĠáĬłáī¥ áĭŃ
Ġ3 6
ĠáĪį áĮ¥áįį
Ġáĭ¨áĪĺ áĮ¡
ĠáīłáīĢ áĮ£áĭŃ
áĪ® áĪĿ
áĮĭ áī½áĪģ
áĬ®áĬĸ áĪļáĭ«
ĠáĬ¥áĬķ áĮĢáĪ«
ĠáĭĪáĬķáĭµ áĪŀáī½
ĠáĪĻ áīĢáīµ
Ġáĭ¨áĪļ áĭĪáĪµ
ĠáĬ¥áĬķáĬŃáī¥ áĬ«áī¤
ĠáĪµ áĪĿáĬķáīµ
ĠáĪĪ áĪļáĭ«
ĠáĬłáĬ« áĪĦáĭµ
áĮł áĮ£
Ġáī° áĪĪáĭĭ
Ġáī¥ áĭµáĪŃ
áĪĺ áĮ£áĪĿ
ĠáīĢ áĪµ
ĠáĪĺáĪµáįĪáĪŃ áī¶áī½
ĠáīłáĪĺ áĬ«áĬ¨
ĠáīłáĬ¥ áĪµáĪ«áĬ¤áĪį
Ġáīłáĭ¨áīµ áĬĽáĭįáĪĿ
áĪĭ áĪĪáī½
ĠáĬł áĮįáī£áī¥
áįĭ áĮŃ
ĠáĮ¥áĪŃ áĮ¥áĪŃ
áĬ³ áĪŃ
th i
áĪĿ áĭµ
ĠáĭĪ áĭ´áīµ
ĠáĪĽáĪħ áīłáĪŃ
áĪ³ áī±
ĠáĪħ áĮĭáĭĬ
Ġáī° áĪĪáĭŃ
Ġáĭ² áĭ«
ĠáĬ¨ áĭĵ
ĠáĬ¨ áįĬ
áĪĪáīµ áĪĿ
ĠáĪµ áįĸáĪŃáīµ
ĠáīĢ áĭ³áĪļ
ĠáīłáĬ¥ áĬĲáĪŃáĪ±
ĠáĪĪáĪĺáīĢ áīłáĪį
Ġáĭ¨áī°áįĪ áĮ¥áĪ®
Ġáīł áĮ¸
áĪį áĬ©
Ġáī°áī¥ áĪıáĪį
Ġáī³áĭįáīĥ áĪĭáī½áĪģ
Ġáĭ¨ áįķáĪ®
ĠáĪĿ áĪķ
ĠáĬłáĪįáī»áĪį áĬ©áĪĿ
áĬķáĭĽ áĪ¬
Ġáĭ¨áĪļ áĪīáīµ
ĠáĬ¥áī£áĬŃ áĪħ
ĠáĭŃáĬĸáĪŃ áīłáī³áĪį
Ġáĭ¨ áĪ°áĪ«
ĠáĪĻ áĭ«
Ġáī° áī£áĪĪ
Ġáĭ¨áĪļ áĪĺáĪµ
Ġ ^
ĠáĬ¨ áĭĺ
Ġáĭ¨áī° áĮĭ
Ġáīł áī´
áĭĪ áĭĿ
Ġáĭ«áĪį áĪĨáĬĳ
Ġáī° áĭŃ
Ġáĭ¨áĪĺáĮĢáĪĺáĪªáĭ« áĭįáĬķ
Ġáĭ¨áĪķ áĬŃáĪĿáĬĵ
áĬ¥ áĬĸ
Ġáĭ¨áīģ áĪĽáĪŃ
4 0
ĠáĪĺáīĢ áĮłáĪį
Ġáĭ«áĭ°áĪŃáĮĭ áĪī
Ġáĭĺ áĪĭáīĤ
áįĶ áĬķ
Ġ =
ĠáĪµáĪĪ áĬĲáīłáĪŃ
Ġáĭ¨áĪļ áĪĺáĮ£
e m
ĠáĮį áī¥áĪ¨
ĠáĪħ áĪįáĪĿ
Ġáĭµ áī¥
ĠáĪĪ áĪģáĪĪ
ĠáĬłáĭŃ áī³
ĠáĭŃ áĭŃ
ĠáĮį áĭĻ
áĪŃ áĪ¶
áĪĪ áĭµ
ĠáĮ¥ áĬķáīĥáīĦ
Ġáī° áĭĺáĮĭáĮħ
áĪĥ áĭĬ
Ġáĭ¨ áī½
Ġáĭ¨áįĪ áĮłáĪ«
ĠáĮĪ áĬķ
áįį áĭ«
ĠáĪĽáĪµ áīĢáĪĺáĮ¥
Ġáīł áīµáĪĿáĪħáĪŃáīµ
ĠáĪĺáĬ« áĬ¨
áĭĪáĪĪ áĭµ
... "
ĠáĪĤ áĪ³áī¥
an d
áĪ« áĪ¨áī¥
Ġáī° áĮłáĬĵ
áī½ áīµ
Ġ3 5
ĠáĬ¨áĬł áĪģáĬķ
ĠáĬ¥áĭ¨ áī³
Ġáīłáįį áĮ¹áĪĿ
Ġ20 21
áī³áĭĪ áīĢáĭį
ĠáīħáĪŃ áĮ¸
áĪĪáĭį áĮ¥
ĠáĪ« áĪµáĬķ
áĮłáīł áīģ
Ġáī£áĪħáĪªáĭ« áīµ
ĠáīłáĬł áĪĪáĪĿ
áĪĺáĪµ áĮĪáĬķ
áĭĸ áĬķ
áĪ¬ áĭį
ĠáĭŃáĪ¨áĭ³ áĪį
Ġáĭ°áĬķ áī¥
ĠáįĭáĭŃ áĪİáī½
áĪĺ áĭĺ
áĬķáīĢáĪ³ áīĢ
e w
áīĥ áĬķ
ĠáĭŃáĮł áīłáīħ
ĠáĪļ áĪĬ
Ġáįİáī¶ áĭİáī½
ĠáĪĪ áĬŃ
Ġáīłáī°áīĥ áĪ«áĬĴ
ĠáĬ¢áĭ¨áĪ±áĪµ áĪĿ
ĠáĪĪáĬ¥ áĪŃáĪ±
áĪĺ áī½
áįĥ áįį
áĮĵ áĭĻ
ĠáĪĺáĪĪ áĪ°
ĠáĪµáī¥ áĪµáī¥
ĠáĪĺ áĪĲ
ĠáĮłáīħ áĪĭáĪĭ
u t
Ġáī°áįĪ áĮ¥
ĠáĬ Ģ
Ġáĭİ áī¹
Ġáī¥ áīħ
Ġáĭ¨áĪĺáĮ£ áĭį
áĬĸ áĪªáĭ«
áīĤ áĬĿ
ĠáĬ¥áĬķáĪµ áĪ³áīµ
ĠáĬ¤ áĪµ
oo k
ĠáĪŀáĭ´ áĪį
ĠáĪĽ áĪ½áĬķ
áĪ« áīµáĬķ
áĪµáī° áĪĿ
áĬ¨áĪĭ áĭĬ
áĪ« áĪµ
ĠáĬł áĭĭáīĤ
ĠáĬ¨ áĭ°
áį¤ +
ĠáĪĺáī¥ áĪĭáīµ
áĪ¨ áī³
ĠáīħáĪ¬ áī³
áĭ°áĪŃáĮī áīµ
Ġáĭ¨ áĪģáĪīáĪĿ
áĭ° áĪªáĭ«
ĠáĮ ®
ĠáĮĢ áĪŃáĪĺáĬķ
ĠáĭĪ áĬķáĭĿ
Ġáįį áĪ«
áĮĵ áĭ´
áĪµáī¥ áĪµáī¥
Ġáī¢ áĪĬáĭ®áĬķ
áĪĺáĪŃ áĪĺáĪŃ
áī£ áĬķ
áĭį áīĢáĭį
ĠáĮ¸ áĪĲ
Ġáĭ« áĪĪáĪĿ
Ġáĭ¨áĬ¤ áĪĮáĬŃáīµáĪªáĬŃ
áĭ« áī½áĬķ
ĠáĮį áĮ¥
áĪĥ áĭµ
Ġáīħ áĭ³áĪľ
ĠáĬłáĪī áĬĿ
Ġáĭ¨áĬł áĪĪáĪĿ
ĠáĬ¥ áĪģáĭµ
ĠáĭĪáĪŃ áīħ
ĠáĪ° áĪįáįį
ĠáĬ¨ áĮĪ
ĠáĪĪ áĪģáĪĪáīµ
ĠáĪĺáĪį áĬ«
ĠáĪĺ áī»áĪį
ĠáĭŃ áĪĪáĭ«
Ġáĭ¨ áī»áĭŃáĬĵ
áĭŃ áĭĿ
áĪ°áī¥ áĪ°áī¥
ĠáīłáĬł áĭį
áĪį áĮłáĬĵ
ĠáĬ¥áĭį áīħáĬĵ
áĭµ áĪį
Ġáĭķáīĥ áĭİáī½
ĠáĪĺ áĪĭáĭį
Ġáĭ°áĪŃ áĪ·áĪį
áĬ¨ áĪī
ĠáĬ« áĪħ
Ġáĭ Ĭ
áĪ¨áĬķ áĮĵáĭ´
Ġáī¥áĪŃ áī±
ĠáĬ¨áĪĺ áĮłáĬķ
áĭµ áī¥
Ġáīłáĭ¨ áĬł
áĬĲ áĪħ
ĠáĪĺáīĢ áĬĲáĪµ
ĠáĬ¥áĬķáĭ²áĪħ áĪĿ
ĠáĮį áĮŃáīµ
áĮ» áĪļ
ĠáĭĿáĬĵ áī¥
Ġáĭ¨áĪļ áĬĸáĪŃ
ĠáĪĺáĪĿ áĮ£áīµ
ĠáĬłáĭĿ áĪĽ
áĮĭ áĪ«áīµ
Ġáĭĭ áĬķáĮ«
áĪħ áĬłáĭ´áĮį
ĠáĬ¥áĬķáĭ² áĪĨáĬĳ
Ġáī¥ áĪ«
áīĢ áĭĿ
áĪ£ áĬ¤
Ġáĭ¨áĪĺ áī°
ĠáĬłáĬķáįĥ áĪŃ
ĠáĪĽáĭį áĪ¨áĭµ
áĪĪáī² áĬ¨
ĠáīłáĬł áĬķ
Ġ201 5
ĠáĮīáĭ³áĭ© áĬķ
Ġáīł áĮ£
ĠáĪĢáĮĪ áĪ®áī½
áĭŃáĬĵ áĬķáĪµ
Ġáīģ áĮŃ
áĬĵ áī½áĬķ
ĠáĬŃáĪŃáĪµáī²áĭ« áĬĸáī½
ĠáĮ¥ áįĭ
Ġáĭ¨áĪĪ áĬķáĪĿ
áĮĭ áĮ¥
áī´ áĭİáĪµ
Ġáīµ áįĪáĪįáĮĭ
áĬ« áī½áĪģ
Ġáī° áĪĿ
Ġáĭ¨áī° áĪ°áĪ«
t ext
áĪŀ áī±
Ġáĭ« áĭĺ
ĠáĭŃ áĬĲáĮį
ĠáĬłáīħáĪŃ áī¦áīµ
ĠáĭŃáĪħáĬķ áĬĳ
ĠáĬłáĭ³ áĪĿ
Ġáĭ¨áī° áīĥ
áĬ®áĬĸáĪļáĭ« áĭĬ
ĠáĬłáįĪáįĥ áįĢáĪĿ
Ġáī°áĪĺáĪį áĬŃ
áĮĪáĬĽ áĪĪáĬķ
Ġáĭ¨áĪħ áĭŃáĭĪáīµ
Ġáī´ áĬŃ
ĠáĬ¥áĬķáĭ° áĬĲáīłáĪ¨
ĠáĬłáĮĪáĪį áĮĭáĭŃ
áĪĪ áĭĪ
ĠáīłáĪ« áĪ³áī¸áĭį
ĠáĮĭ áī¥áī»
ĠáĬĲáīłáĪŃ áĬĵ
áĪį áĬŃáīµ
ĠáĬłáĪ°áĪ« áĪŃ
ĠáĮĪáĭ° áī¥
ĠáĬĲ áĮłáĪĭ
ĠáīĢ áĭįáĪµ
ĠáĪĺáĭĿ áĪĻáĪŃ
áĮł áįī
áĪ°áĪ« áĪĿ
ĠáĬłáĬķáĭ° áĬĽ
ĠáĭŃ áĭ°áĮį
ĠáĬ¥ áī¥
ĠáĪĪáĪĽáĪ³ áĭ¨áīµ
ĠáĪĽ áĬ¥
Ġáī į
áĭµ áĭ«
áĪĿ áĬĳ
ĠáĬ¥ áĮ¥áĪ¨áīµ
áĪ¨áĮĭáĮĪ áĮł
ĠáĬ¥ áĮĪáĭĽ
Ġáĭį áĪµáī¥áĪµáī¥
Ġáĭ¨áī³ áĭĪáīĢ
ĠáĬ¥áĬķáīħáĪµáīĥáĪ´ áĭİáī½
Ġáĭ°áĪħáĬķ áĬĲáī±
ĠáĬ¢áĬķ áī¨áĪµáīµ
ĠáĬ¨áī³ áī½
áīĢáīł áĪī
ĠáĬłáĪĭ áĮĪáĬĺ
áĮ¥ áĮ¥áĪŃ
ĠáīĢáĮł áĪ®
Ġáĭ¨áĬł áĭŃ
Ġáīł áĪĤ
Ġáĭ¨ áĪĨ
ĠáĬłáĮĪ áĬĵáĬĿ
Ġáĭ¨ áī¢
ĠáĬ¥áĪ· áĬķ
ĠáĪ° áĪį
ĠáĭĪáĬķ áĮĢ
áīĢ áĭįáĬķ
áįĪáĪĪ áĮĪáĭį
ĠáĪĺáĭĽ áĪĻáĪŃ
Ġáī¥ áĪĭáī½áĪģ
ĠáīłáĪ¨ áĬ¨áīµ
Ġáī½áĮį áĪ©áĬķ
ar t
ĠáĪĿ áĬĲáĭį
Ġáīµ áĬĵáĬķ
Ġáīł áīħáĭµ
áĮ» áĪľ
Ġáĭ¨áĪĺ áĬķáĮįáĪ¥áīµ
áĬĭ áī¸áĭį
áĮ¦ áĪŃáĬĲáīµ
Ġáĭ«áĪµáįĪáĪįáĮĪ áĬĵáĪį
áĪĺ áĭ±
ĠáĬłáĪī áĬķ
ĠáĬłáĪį áĮĪáī£
ĠáĪļ áĪµ
ĠáĪµáĪĪ áĬ¥
ĠáĪĥ áĮĪáĪŃ
2 6
áĭ° áīłáĬĽ
ĠáĬłáĪįáī» áĪīáĪĿ
áī± áĬķáĪĿ
Ġ201 2
áĪĭáĪį áīħ
Ġáīł áĬĶ
Ġáī°áĬĵáĮį áĪ¯áĪį
áĭ°áĮĪ áįį
áĬķáĮī áĪ¡
ĠáīłáĬ¥ áĪŃáĪµ
ĠáīłáĪĺáĬķ áįĪáĪµ
ĠáĭĪ áĪ°áĬķ
áĪ°áī¥ áĬ©
Ġáī¥áĭĻ áĭİáī¹
Ġáīħáĭ± áĪ³áĬķ
ĠáĪĤ áĭµ
áĬĲ áī³áī¸áĭįáĬķ
Ġ9 0
Ġáĭ¨áĪĻ áĭļáīĥ
ĠáĬł áĭ°áĪ¨áĮį
Ġáĭ¨áĬ¥ áĬķ
ĠáĭŃáĬĸáĪŃáī¥ áĬĵáĪį
ĠáĬ¨ áĬĲáĭļáĪħ
ĠáĪ°áĭŃ áĮ£áĬķ
áĮĪáĬĲ áī£
áĬŃ áĪī
ĠáĭĪáĮ¥ áī¶
ĠáĪĮ áĪİáī½áĬķ
áĬ¸ áĬĿ
ĠáĬķ áī¥áĪ¨
ĠáĮ£ áįĭáĮŃ
ĠáĬłáĭ«áĪµ áįĪáĪįáĮįáĪĿ
áĮį áĬĲáīµ
Ġáī£áĪĪ áĪ¥
ĠáĬĲ áĪ½
áĬ® áĪį
áĪŃáĭĿ áĪŃ
ĠáĭŃ áįĪáĪįáĮī
ĠáĪ² áĪĨáĬĳ
áįĥ áĪļ
ĠáĪĪáĬ¥ áĬĲáĪ±
Ġáĭ«áĬ«áīµ áī³áĪį
áīµáĬķ áĬĵ
Ġáĭ¨ áĭµáĪĿ
ĠáĪĪ áĮĬáĭľáĭį
ĠáĪ¥áĪ« áĭį
ĠáīłáĮ¥ áĬķáīĥáīĦ
áĮĪ áĮ¥
ĠáĭĵáĪĪáĪĿ áĬķ
Ġáīł áīĨ
ĠáĬł áĭ°áĪ¨áĮī
2 8
áĬĲ áĮįáĪŃ
Ġáīł áĪ°áĪĽ
ĠáĪ³ áĬķ
ĠáĭŃáĭĪ áĭµ
ĠáĪĽ áĪ½
ĠáĭŃ áĭ°
Ġáīł áĭ²
Ġáĭ¨áĪļ áĪ°áĪ«
áĪĺáĪĪ áĬ¨áī³
ĠáĪĽ áīĨáĪĿ
áīĢáĮ¥ áĪīáīµ
ĠáĬĥáĭŃ áĪĪáĬĽ
áĭĪ áĭ°áĭį
áĭ³ áĪĪáĬķ
ĠáĭŃáīĢ áīł
ĠáĭĵáĭŃ áĬķ
Ġáĭ¨ áĪ´áī¶áī½
ĠáĬłáĪµáī°áĭĭ áĮ½
ĠáĪĺ áĬ¨áī°áĪį
áĬĲ áįĪ
ĠáĭįáĪµáĮ¥ áĪĿ
Ġáĭ«áĪ¨áĮĭáĮį áĮ¡
a b
Ġáĭ¨áĪļ áĪ°
ĠáĪĪ áįĬáīµ
ĠáĭŃáīł áĪī
ĠáīłáĪĺ áĪį
Ġ &
áįĪ áĪŃáīµ
áĬĵáĭį áĭ«áĬķ
áĪµ áĬ®
Ġáĭ¨áĬł áĮĪáĪŃ
ĠáĪĺáĭµáĪĥ áĬĴáīµ
ĠáĮį áĭĽ
áĭ² áīµ
Ġáĭ¨áĪĽáĭŃ áī³
ĠáĬ¥áĪµáĬ¨ áĪļ
ĠáĪļáĬĴáĪµáīµ áĪ©
ĠáĬ¥áĪ· áĪĿ
áĬ¨áĪ° áī±
áĮ ĩ
Ġáīł áįĢ
áĭĪ áīµáĪŃ
áį ª
áĬ¨áī° áĪīáīµ
áĬ« áĬ¨áĪį
ĠáĬłáĮįáĬĿ áī·áĪį
ĠáĪĪ áĪĢ
Ġáĭ¨ áĭ°áĪĿ
Ġáī¥ áĪ¨áīµ
áĪ¨ áĬŀáī½
ĠáĪĪáĪĮ áĪĭ
Ġ n
áĭĺ áĬĽ
áī° áĬŀáī½áĬķ
ĠáĮłáī£ áīĤ
ĠáĭŃ áĮ«áĬĳ
ĠáĬ¥áĬķáĭ² áĬĸáĪŃ
ĠáīłáĪº áĭİáī½
ĠáĪĪáĪĽáĪµ áĭĪáĮĪáĭµ
áī¢ áĭį
ĠáĪĺ áĮĵáĭĿ
áĪ« áĭİáī½
ĠáĮ£ áĪįáīĥ
ĠáĬ¥áĭįáĬĲ áī±áĬķ
ĠáĬ¥ áĮ¥áįį
Ġ in
áĬ« áĪªáĭİáī½
ĠáĪµáĪĪ áĪĮ
ĠáĪµ áĪĭáĪĪ
ĠáĪ³ áĪĻ
ĠáĪĢáĪ³ áī¦áī½
ĠáĬ¥áĬķáĭ°áĪļ áĮĪáī£
i r
Ġáīłáī° áĪĪáĭ¨
áĮ¨áĪ¨ áī³
Ġáī°áĪĺáĪį áĬ¨áīµ
Ġáīł áĮĮáī³
Ġáĭ« áĮĪáĪĪáĮį
ĠáĬłáĭµáĪŃ áĮĪáĬķ
Ġáīłáĭĭ áĬĵ
ĠáĬłáĭİáĬķ áī³áĭĬ
áĬĸ áĪ©áīµ
ĠáĪĺáĪ¨áĮĥ áĭİáī½áĬķ
ĠáĬ¨ áĮįáĪĿáīµ
áĭ° áĭ°
ĠáĮł áĪŃ
áĬķáĮį áĪį
ĠáĪĽáĭį áĮ£áīµ
Ġáī¥áĪŃ áĪĥ
áĭŃ áīħ
áĬ¨ áĬĵáĭį
ĠáĭĪáĪ¨ áĪŃáĪ½
áī¥ áĭİ
áī° áĪ½
áī° áĮ¨áĪĽáĪª
ĠáĬ¨áĪĺ áī¼
Ġáĭ¨áĬ¢ áĭ¨áĪ±áĪµ
áīĢáĪĺ áĮ«
áĮİ áīł
ĠáīłáĬłáĬķáĭµ áĬĲáīµ
áĮ¢ áĬł
áįİ áĪŃ
ĠáĪł áĪŃ
áīłáĪĪ áĭļáĭ«
ĠáĮ¸ áĪİ
Ġáĭ© áĬĵáĭŃáīµáĭµ
ĠáĬłáĬ« áĪĭáĭĬ
áīĢáĪ¨ áīł
§ áĪ¨
áĬķáī° áĬķ
áīĥáĭĪ áĪĿ
st ag
Ġáĭ¨ áĭ°áĪ¨áĪ°
áĪħ áĬķáĪĿ
áĮĢáĪĺ áĪŃáĭ«
ĠáĬĽ áĭį
áĭ« áĭ£
ĠáĭŃ áĮ«áĭĪ
ĠáīĢáĮ¥ áī°áĬĽ
ĠáĬł áĬĵáĭį
áĪĭáīĢ áĪį
áĭķ áĪĪáīµ
áĭ°áĪ° áī±
ĠáĪĮáĪĭ áĭįáĬķ
Ġáĭ« áīĢ
áĪµáīµáĪ« áĪĬáĭ«
ĠáĬłáĪµáī° áĪĽáĪª
ĠáįķáĪ¬áĭĿ áĭ³áĬķáīµ
ĠáĮ ¾
at ion
áĬķáĭ² áĪħ
Ġáī° áĪ°áī¥
ĠáĭĪ áĪį
ĠáĪĽ áīĨ
Ġáĭ¨áĪļ áĮĪáĪį
áĭĪ áĪĥáīµ
ĠáĪ°áĭį áĭ¬
áĭŃ áĪħáĬķ
ĠáĬłáĭ° áĪ«
áĬķáīĢáĪ³ áīĢáĪµ
áĬĲáīłáĪ¨ áīłáīµ
Ġáĭ¨áĪļáĭ« áĭ°áĪŃáĮĪáĭį
áĪĪ áĪŃ
ĠáĮĪ áįħ
ĠáĬ¥ áĪĭáī½áĬĭáĪĪáĪģ
Ġáīł áĪ²
ĠáĬ¨ áĪ°áĪĽáĭŃ
stag ram
áĪ« áĪª
áĭ° áĭ±
áĪ· áĬķ
ĠáĪĺ áĬ®
ĠáĪ°áĭį áĬĲáīµ
ĠáĭĪ áĭ²áĭ«
áĪµ áįĪ
ĠáĬ¨ áĮįáī¥
ĠáĬ® áĭµ
ĠY ou
áĪĥ áī¥
ĠáĪĪ áī³
áĭĽ áĪī
ĠáĪĮ áĪİáī¹
áĮĵáĮĵ áĭ£
ĠáĪĺáĪµ áĪĺ
Ġáīł áĮł
Ġáĭ¨áĭĪ áĬķ
ĠáīłáĮ¥ áīĤáīµ
áī³áĭĪ áīģ
áĬĲáĮĪ áĪ¨
áįķ áĪª
ĠáīłáĬł áĬ«áī£áī¢áĭį
ĠáĪĨáĬĲ áĬķ
áĬŃ áĬķ
ĠáĭĪáĭ° áĬĭáĪĭ
ĠáĮĪ áĭ¢
Ġáĭ³áĭŃ áĪ¬
áĪĭ áī½áĬĭáĪį
áīł áĪĺ
Ġáĭ¨áī° áĪ°áĮłáĭį
áīª áĭµ
Ù Ħ
áīĤáĭ« áĭİáī½
áĭ® áĪĲáĬķáĪµ
Ġáĭ« áĪĺáĪĪáĬŃ
ĠáįķáĪ®áĮĢ áĬŃáī¶áī½
Ġáįį áĪŃáĪĥáīµ
ĠáĪĪ áĭĵ
Ġáīłáīł áĬ©
Ġáĭ¨áĬ¥ áĭį
Ġáĭ¨ áĮĪáĬĵ
áī¶ áĬķ
áĪŃ áĮħ
Ġáīµ áĮį
áĭİáī½ áĬĵ
ĠáĮĢ áĪŃáī£
Ġáī³áĪªáĬ« áĭĬ
ĠáįķáĪ®áĮįáĪ« áĪŀáī½
ĠáĬłáĪµ áĪŃ
Ġáīĭ áĪļ
áĬŃ áĬŃ
ĠáĭŃ áĬ¨áįį
ĠáīµáĪŃ áĮī
áīĭ áĪļ
Ġáī° áĬķáīĢáĪ³áīĥáĪ½
ĠáīłáĪĺ áĭį
ĠáįįáĪĭáĮİ áī¶áī½
Ġáī° áĮ£
ĠáĪĽ áĭĺáĮĭáĮĢáīµ
áĪĪáĪħ áĪĿ
áį¤ "
áĭ° áīħ
Ġáĭ« áĬĲáĪ³
ĠáĮ« áĬĵ
ĠáĭŃ áĪ°áĮł
ĠáĭŃáĪħ áī½
ĠáĬł áĭĪáĮ£
áĬĿ áīµ
Ġáīµ áĪį
ĠáĪĺáĬķ áĪµ
ĠáĭĿ áĪŃáĭ«
ĠáĭĪáĭ³ áĮħ
áĪŃ áĮ¥
áĭ´ áĬķ
ĠáĪĪáī° áĭĪáĪ°áĬĲ
ĠáĭĪáĭ³ áĮĦ
áī¦ áĬĵ
áĮĨ áī¼
2 7
ĠáĬł áĪĺáĪµ
áī¸ áĭĭáĪĪáĬķ
Ġáĭ¨áī° áĪŀáĪĭ
ĠáĭĻ áĪŃ
áĪ¨ áĬ¨
ĠáĪĽáĪĪ áī´
ĠáĪĬ áĪ¨áĭ³
ĠáĮ¥áĬĵ áī¶áī½
ĠáīĢ áĬĳáĬķ
áī½ áīłáīµ
Ġáī° áĬĵáĮĪáĪ¨
Ġáĭ² áĮįáĪª
Ġáĭ¨áī£ áĬķáĬŃ
Ġáĭ°áĬ« áĪĽ
áĭ° áĪĪ
Ġáĭ«áĪµ áī½
Ġáĭ¨ áī¥áĭĻ
ĠáįĮ áĪµáī¡áĬŃ
Ġáīłáĭ¨ áĮĬáĭľáĭį
Ġáīł áĮĬáĭľ
Ġáī° áĭĪáĪµ
ĠáĬł áĪ¨áĮĭáĮį
Ġáī³áĪĭ áīģ
áī¤ áī´
áĪķ áĪŃ
ĠáĪĽ áĮ£áīµ
áĪĭ áī±
ĠáĪį áĮ¥
ĠáĬ¥áĬķáĭ²áĭ« áĮĪáĬĻ
áĮł áĪ«áĪį
thi op
ĠáĬ« áĪ³
ĠáĬłáĭį áĪ«
ĠáĪĺ áĬĵ
áĭµ áĬĳ
áī¥ áĮ¥
Ġáĭ¨ áĪłáĪ«
áĭŃ áĭµ
Ġáĭ¨áĬł áĭ²áĪµ
ĠáĬĲáĭį áĬķ
ĠáĪµ áĬĲ
u l
ĠáĪµ áĪŀáī½
ĠáĭŃ áĪĿ
ĠáĪµáĪĿ áĪĿ
ĠáĪĽáĭį áĪ«áīµ
ĠáĬłáĪĪ áĪħ
ĠáīłáĬ¥áĮħ áĮī
ĠáĪĥ áĮĪ
ĠáĪĽáĪµ áĮĪáī£áīµ
ĠáĬ¢ áĪ³áĭŃáĭ«áĪµ
ĠáĬŃáĪį áĪİáī½
ĠáĪģ áĬķ
ĠáĬ¨ áįĭ
Ġáĭ²áĭĽ áĭŃáĬķ
ĠáĪĺ áĬª
ĠáĪĪáĪĽáĪ³ áĬ«áīµ
t er
ĠáĭŃ áĭ°áĪŃ
áĭķ áĪĿ
áĬĵ áī¸áĭįáĬķ
ĠáĬł áĪıáī¸áĭį
ĠáĪļ áĪµáĮ¥
ĠáĪĲ áĪ³
áĪ¨ áĭ°
o c
Ġáīłáī° áĭĪáĪ°áĬĲ
ĠáĪĽáī¥áĪ« áĪªáĭ«
ĠáĬłáĬķ áĪµáī¶
áĪµáī¸ áĬ³áĭŃ
ĠáĬłáĪį áĮĭ
ĠáĪĪáĪĺ áĮĪáĬķáī£áīµ
Ġáĭ¨áĪĺ áĪį
áĬķáĭ ĭ
áīł áĬķ
ĠáĪĪáĪ« áĪµ
áī¹ áĪĿ
Ġáĭ¨áĬ¥ áĬĲáĭļáĪħ
Ġâ ĺ
áĭ® áīµ
áĭĿáīĥ áĭĽ
Ġ âĢº
áĬĲ áī¶áī½áĬķ
ĠáĬ¢áīµáĭ®áĮµáĭ« áĭĬ
ĠáĬłáĭŃáĪĺáĪµ áĪįáĪĿ
ĠáĬĴ áĭį
ĠáīłáĪĿ áĬķáĪĿ
ĠáĪĺáīĢ áĭ¨áĪŃ
ĠáīłáĬ¥ áĪ³áīµ
ĠáĬłáĪ° áĪįáĮ£
áĪ« áĪ«
ĠáĭŃ áĪĪ
ĠáĪ° áĬķ
ĠáĪ° áĪĭáĪĽáĭĬ
áĪµáĬŃ áĪĮáīµ
Ġáĭ¨áī° áĮĪáĬĺ
ĠáĪ° áĮª
Ġáīµ áĭį
áĬĿ áī³
áĭĪ áĮ£áīµ
ĠáĪį áĭįáĭį
ĠáĬ¨ áĪĨáĬķ
ĠáĪ¦ áĪµáī°áĬĽ
áĪ°áĮ¥ áĪĿ
Ġáĭ¨áĬł áĪĿ
áĪŃáĪĥ áĪĿ
ĠáĮį áĪ©áĪĿ
áĬ« áĪ½
áīł áĪ»
áī¡ áĪį
Ġáīł áĪŃáĪµ
Ġáĭ¨áĪĺ áĪ°
ĠáīłáĬ¥ áĮįáĪŃ
Ġáĭ¨áĪħ áĬŃáĪĿáĬĵ
ĠáĪĺ áĮ¨áĪĺáĪŃ
ĠáĪµáĪĪ áĪĽáĭŃ
ĠáĪĺ áĮ¸
áĬĲ áĭĺ
Ġáĭ« áĪĿáĬĵ
ĠáĬłáī£ áī±
áĪĭáĭį áĭ«áĬķ
áĪİ áĪĿ
ĠáĪ½ áĭ«áĮŃ
Ġáĭ¨áī° áĪŁáĪĭ
ĠáĪĪ áĬĲáĮĪáĪ©
ĠáĪĪáĪĺ áī°
ĠáĪĪ áĬłáī¥
áĭµ áĮį
áįĪ áĬĲ
áĪĺáĪµ áĪ¨áīµ
ĠáĪĨáĬĲ áĭĭáĪį
ĠáĬłáĪµáī°áĭ«áĭ¨ áī¶áī½
Ġáĭ¨áĪĿáĬķ áī½áĪĪáĭį
ĠáĬ¥áĬķáĪµ áĪ³
ĠáĬ« áĪľáĪ«
áįİ áī¶
ĠáĪ° áĬłáīµ
Ġáĭ¨áĭĪáĭ° áįĬáīµ
ĠáĪĪáĪĽáĪ³ áĭ°áĮį
ĠáīłáĪĺ áĮį
Ġáĭ¨áĬł áīµ
Ġáīłáī°áįĪ áĮ¥áĪ®
áĪĪáĪĽ áī½áĬķ
Ġáĭ¨áĪĻ áīĢáīµ
áĮĪ áįį
Ġ7 0
áĬĳ áĪŃ
ub e
ĠáĬ¨ áĪĻ
ĠáĬķ áĮĪ
ĠáĮĢ áĮįáĬĵ
ĠáĪŃ áĭĿ
Ġáįķ áĪĭ
ĠP ost
ĠáĬŃáĪŃ áĬŃáĪŃ
ĠáīłáĪĺáĬķ áĮĪáĭµ
ĠáĮįáĭĻ áįį
áĭ Ĵ
Ġáĭ¨áĭĪ áĭ«áĬĶ
Ġáī° áĬŃ
ĠáīĨ áĪ»áĪ»
ĠáīłáĪģáĪĪ áī±áĪĿ
ĠáĬłáĪī áī³áĭĬ
Ġáĭ¨áĮį áī¥áĪŃ
Ġáĭ¨áĭļáĪħ áĬķ
ĠáĪĪ áī£
Ġ201 4
ĠáĪĪáĭĪáĭ° áįĬáī±
áĪİ áĮį
áĮłáĭŃ áīģ
Ġáīłáĭ° áĪį
ĠáĪĽáĪµ áĭĪáĮĪáĭµ
ĠáĪĺáĪŃ áĪĥ
ĠáĮĵáĭ° áĬŀ
ĠáĪĺ áĪĭáĬŃ
ĠáĮī áĪŃáĪ»
áĪĪáĪĺ áĭ°áĭį
Ġáĭ¨áĪļ áĪ°áĪĽ
ĠáĬłáĬŃ áī¥
Ġáĭ¨áĪĨáĬĳ áīµ
Ġáĭ¨ áīłáĪ¨
áĮ£ áĪ¬
áĮłáĬĵáīĢ áīĢ
Ġáĭ¨áĬł áĪµáī°
Ġáīªáĭ²áĭ® áĭİáī½
ĠáĭŃ áĮįáī£
Ġáĭ¨áī°áĪ» áĪĪáĭį
áĪµ áĪį
ĠáĪĪ áĭ°
ĠáĬłáĪµáī° áĬĵáĮĭ
ĠáĮŃ áĬķáīħ
ĠáīłáĪĺ áĪł
ĠP l
ĠáĪĺáĮ» áįį
Ġáĭ¨áĭ° áĪħáĬķáĬĲáīµ
ĠáĮį áįĬáīµ
áĪŃ áĮĭ
ĠáĪĿáĭµáĪŃ áĬķ
ĠáĬĲáĭĭ áĪª
áĪ° áĬĿ
ĠáĬ¥áĬĶ áĬĵ
áĮĪáĪ¨ áĬĿ
áĬŃ áĪŃáĪµáī²áĭ«
áĭĭáĪŃáĭ« áīµ
ĠáĪµáĭ° áī°áĬŀáī½
áĪ« áī±
Ġáĭ¨ áĪĤ
Ġáĭ¨áĪµ áįĸáĪŃáīµ
áĮ«áĭĪ áī»
ĠáĬłáĪį áĬĲáīłáĪ©
áĬķáĭ° áĬķ
ĠáĪ°áĮ¥ áī¶
ĠáĬ¥áĭ¨ áīĢ
ĠáĬ¢ áĬ®áĬĸáĪļáĭ«áĭĬ
áĪĭ áĮħ
Ġáĭ¨áĪĽ áīµ
ĠáĮ¸ áĮĭ
ĠáīłáĪļ áĭ«áĪµ
áĭ° áī±
Ġáĭį áĪ»
Ġáĭ¨áĪļ áĪ°áĮłáĭį
ĠáĪĥ áĭŃáĪį
áĭ° áĪī
Ġáĭ¨áĪļ áī½áĪīáīµ
ĠáīłáĮī áĮīáīµ
ĠáĮł áĮħ
Ġáĭĺ áĮłáĬĿ
áĪ¯ áĭĬ
áĪĮáĬŃáīµ áĪ®
ĠáĬłáĭĿáĪĽ áĪļáĭ«
ĠáĪĪáĪĽ áĪĿáĮ£áīµ
ĠáĬłáĬķáĭ³ áī½
ĠáīłáĬł áĮŃáĪ©
Ġáīµáī½áĪĭ áĪĭáī½áĪģ
ĠáĮīáī¥áĬĿ áīµ
ĠáīłáĪŃáĮį áĮ¥
áįĪ áī³
Ġáĭĺ áĭį
ĠáĪĺáĭĿ áĬĵ
ĠáĪĽáĪĪ áįį
áĬ¨ áĪĺ
áī¥ áĪĬáĬŃ
áĭĭ áĮŃ
Ġáĭ¨áĬł áĮĪáĪįáĮįáĪİáīµ
ĠáĭĺáĭŃ áī¤
ĠáĪĺáĪĨ áĬĵáī¸áĭį
áĮł áĮ¥
Ġáīłáĭĵ áĪĺáīµ
ĠáĭŃáĬĸ áĪ¨áĭĭáĪį
ĠáĬłáĭŃ áī°
áĪĪáĪĿ áĭ¶
áĭįáĬķ áīµ
áĭĪáĪ° áĭ°
áĬ µ
ĠáĬ¨áĭį áĮŃ
Ġáĭ¨ áĭµáĬķ
Ġáī° áĮłáĪŃ
Ġáĭ«áĪĿáĬĵ áĪī
ĠáĪŀ áī°áĪŃ
Ġáĭ¨ áĭļáĭ«
Ġáīł áĪĨáĬĳ
áĭ¨ áĬ¥
Ġáĭ¨áĭĪ áĭŃáĬķ
ĠáĬłáĭµáĪŃ áĮī
Ġ g
Ġáī¥ áīģ
áĮĪáĬĻ áĪĿ
áĪ¶ áĪµáīµ
áĪį áīĢáīµ
Ġáĭ¨áĪļ áĪĺáĮ£áĭį
ĠáĬ¥áĪ« áĪ±áĬķ
Ġáĭ¨áĪĺ áĪ¬áīµ
Ġ19 8
áīĢ áĭįáĪĿ
s s
áĬ« áĭ®áī½
áĭĽ áĪĽ
áĮł áīģ
Ġáĭ¨áĪļ áĪ¸
ĠáĪĭ áĪĪáĪĺ
áĪŃáĪµ áīµáĬĵ
áĮł áĪī
áĪĲ áĪ´
ĠáĬłáĭŃ áĭĪ
áīłáĪ¨ áĪ°áī¡
áĬĲáīµ áĬĵ
Ġáĭ¨áĪĽ áĪħ
Ġáī£áĪĪ áīłáīµ
Ġáīł áĪµáįĭáīµ
i m
ĠáĬ¥áĬķáĭµ áĬĵ
áįĭ áĪª
ĠáĪ½áĪį áĪĽ
Ġáī° áīĨáĮ£
áĮłáĪ« áĭį
áĪ¬ áĪ½áĬķ
Ġáĭ¨áĪļáĭ« áĪ³áĭŃ
ĠáĬł áĪķáĭĽáī¥
ĠáĪ¥áĪ« áĭįáĬķ
áĬ© áĪµ
ĠáīłáĬł áĮĪáĪªáī±
Ġáī¤ áī±áĬķ
ĠáĪ² áĭ«áĪµ
ĠáĬ¥áĬķáĭ°áĪĮ áĪĪ
Ġáĭ¨áĪħ áĮį
áĮł áĪ©áīµ
ĠáĬ¨áĪĺáī¼ áĭįáĪĿ
Ġáĭ¨áī° áĭĺáĮĭáĮĢ
Ġáĭ¨áī° áĪĪáĭ«áĭ¨
áĮ» áĪį
" áį¢
Ġáīł áīĥáĪį
Ġáīł áĪĨ
ĠáĮĢ áĪĺáĪ©
áĪ¨ áĬ«
áĭĪáĪ° áĭ±
Ġáĭ¨áĬł áĬ«áī£áī¢
Ġáĭ¨áī° áĪ¸
áĭĪáĭ³ áĭ°áĪŃ
ĠáĭĪáĭ° áĭļáĭ«
áīĨ áĪĽ
ĠáĬłáĪµ áĪĺáĪį
áĮłáĭ¨ áīģ
ĠáĪĽáĪµ áĮłáĬķáīĢ
áĮĥ áįĵáĬķ
ĠáĬ¥áĪŃáĪµáĭİ áĬķ
ĠáĬŃ áĪħ
áĬŃ áĪ©
ĠáĪĺáī°áĮįáīłáĪªáĭ« áĭį
ĠáĮĭáĭľ áĮłáĬĽ
áĮ® áī½áĬķ
ĠáĭĿáĮį áĮħ
ĠáīłáīµáĬŃ áĬŃ
ĠáĪĪáĬ¥ áĬĲáĪŃáĪ±
ĠáīłáĬĲáĮĪ áĪ«áī½áĬķ
ĠáĪķ áĬķáįĥ
Ġáįį áĪŃ
Ġáī° áĬ³
áĪ° áĬĵ
áīĢ áī½
ĠáĬ¢ áĭ«
áĮĪáī£ áī¸áĭį
ĠáĮį áĮ¥áĪĿ
áĮ½ áįį
ĠáĪģáĪĪáī± áĬķáĪĿ
áĪĿ áīłáĪŃ
áįį áĮłáĪŃ
Ġáĭ® áĪ´áįį
áĪ¸ áĪ«
ĠáĬłáĮ¥ áī¥
áĪŃ áĭ³áī³
áĪı áīµ
Ġáĭĭ áĬĲáĬĽ
ĠáĭŃ áĪĺáĮ£áĪī
ĠáĪģáĬĶáī³ áĭį
ĠáĬłáĪĪáĪĺáĪĨáĬĳ áĬķ
ĠáĪĿáĪŃ áī¶áī½áĬķ
áįķ áĪİ
ĠáĪĺáĪ¥ áĭĭáĭķáīµ
áĮĪ áĪĭ
ĠáĬķ áīģ
Ġáĭ¨ áĪ±
Ġáĭ¨áĪ° áĪĭáĪĿ
ĠáĭŃ áĮ¥
Ġáĭ³áĬķ áĬ¤áĪį
Ġáį ³
áĪļ áĬĴ
áĬ Ģ
ĠáĮ© áĬ¸
ĠáĮ Ĳ
Ġáį Ķ
ĠáīłáĬł áĪĽ
ĠáĬłáĪµáī°áĭĭáĮ½ áĬ¦
ĠáĬ¥áĪŃ áĪ»
ĠáĬ¥ áĪ³áī¸áĭį
Ġáĭ¨ áĪĻáĭ«
Ġáĭ¨ áĪ´áīµ
áĮ£ áĭĬ
ow s
Ġáĭ°áĬķ áīłáĬĽ
áĪ¨ áĬŃ
ĠáĬ¥áĬķáĭ°áĪļ áĪ°áĪ«
a k
ĠáĭŃáĭĪáĭ³ áĪį
ĠáĪĺáīĨ áĭ¨áīµ
ĠáĪĪáĪĿáĬķáĭµ áĬĲáĭį
ĠáĭŃáĭĪ áīģ
ĠáīłáĬł áĮŃáĪŃ
ĠáĪĺáĮ½ áĪĶ
Ġáĭ« áĭ°áĪ¨áĮį
Ġáĭ« áĭķáīĨáī¥
ĠáĬ¨ áĪŀ
ĠáĭĪ áĬª
áĮİ áīµ
Ġ3 4
ĠáįĢ áĪĲáĭŃ
áĭŃ áĭŃáīµ
áĭ¨ áĬĿ
ĠáĪĦ áĭ¶
áĬĵ áī½áĪģ
áĬķáĭ ®
Ġáĭį áĪ¸áīµ
ĠáīłáĬŃ áĪŃáĪµáī¶áĪµ
Ġáĭ Į
ĠáĬ¨ áĪģáĪĪ
áĪĽ áĭįáĭ«áĬķ
áĮĭ áĮĪáī¥
ĠáĪĪ áĭ¨áīµ
ĠáĪĪáĪĺáĭį áĪ°áĭµ
ĠáĬĲ áī¢áĭ«
Ġáĭ¨áĬł áĪĭáĪħ
áĪĽ áī½áĬķ
ĠáĬł áĮłáĬĵ
Ġáĭ¨áī° áĭĪ
ĠáĮ¥ áīł
ĠáĭµáĪŃ áĭµáĪŃ
Ġ3 7
ĠáĪĺáĪįáĬł áĬŃ
áĪ³ áĪ«
ĠáĪķ áĭ«áĭį
áĪ« áī¶áī½
áĭ« áĭķáīĨáī¥
ĠáĪĪáĪĺ áĬķ
ĠáīłáĬł áĭ¨áĪŃ
áĪ¨ áī¡
áī¨ áĪŃáĪµáī²
Ġáįĸ áĪĪáī²áĬ¨
Ġáī¥ áĪĶáĪŃ
áĬĲ áīħ
áĭĺáĪŃ áĪĭáĬķáĭµ
áĭŃáĬĲ áĪĺáĪ¨áī¥
áįĭ áĭį
áī»áī½áĬķ áĬķ
áįĭ áĪŃ
ĠáįĪ áĪ«
áĪĭ áĬ©
ĠáĭŃ áĭĪáĮ£áĪį
Ġáī°áĭ° áĪ«áĪ½
áĮĵ áĭµ
Ġáī£áĪħ áĪĭáĭĬ
Ġáīłáĭļáĭ« áĭį
áįį áĪ©
Ġáīµ áī¥áī¥áĪŃ
ĠáĪĽáĮį áĬĽ
áĬķ áīº
ĠáĪĺáĮł áĮ¥
ĠáĬ¥ áĭĽ
ĠáįķáĪ® áįĮ
ĠáĮł áīĢ
áĭ³ áī½áĪģ
áī¥áĪŃ áĪĥáĬķ
áĬŃáĪį áĪį
ĠáīĢáĮ¥ áĪıáĪį
ĠáĪĽáĪ³ áĭ¨áīµ
ĠáĬ¨ áĪĢ
Ġáĭ¨áĬ¥ áĬĲáĪ±
ĠáĪį áī¤
áĮłáī¥ áīģ
ĠáĪĺ áĮ¨
áīĢáĪĺ áĮ¡
Ġáī°áī¥ áĪĪáĭį
áĭ°áĪŃ áĮįáĪĿ
ĠáĪĺáīħ áĭ°áĪµ
áĭį áĪī
áĬ¥ áĭŃ
ĠáĪĪáĪĻ áĪī
ĠáĬ¥ áĪ¨áįįáīµ
ĠáĪĽ áĪ¸áĬĲáįį
áĪį áīł
ĠáĪĪáĪĺ áĪĪ
Ġáĭ© áĬĴ
áĬłáĪį áĬĵ
áĭĺ áĭĺ
ĠáĭĪáĬķáĭµ áĪľ
ĠáĪ° áĬĶ
ĠáĬ¥ áīħ
Ġáįį áĮ»áĪľ
Ġi OS
ĠáĪĺáĬķáĮĪ áĭ±
ĠáĭĪáī³áĭ° áĪ«áĭĬ
áĮĪáĪĪ áįĢ
ĠáĬłáĭŃáĭ° áĪĪáĬķáĪĿ
áĪ«áī¸áĭį áĪĿ
Ġáī£ áĪ»áĮĪáĪŃ
ĠáĬłáĪ³áĪį áįİ
Ġáīł áī»áĭŃáĬĵ
áĬ¨áī³ áī³áĭŃ
áī°áĬ® áĪŃ
ĠáĪ© áīħ
Ġáīł áĪľ
áī¾ áīµ
ĠáīłáĪĺ áĪŃ
ĠáīłáĪĺ áī£áĪį
: ,
6 0
Ġáĭ¨áĪį áī¥
áĬķáĭ° áĭļáĪħ
áĮİ áī½áĬķ
áĬĲáĮĭ áĮį
ĠáĭŃáĪįáīģ áĬķáĪĿ
áĭĺáĮĪ áīł
áī¥ áĪ®áī½
ĠáīĨ áĪŃ
ĠáĪĺ áĪĥáĪį
áĭ° áĪ«áĪį
ĠáĬ¥áĬķáĭ°áĪļ áĬ¨áī°áĪĪáĭį
Ġáĭ¨áī°áĪ³ áĪ³áī°
ĠáĬ¥áĭ«áĬķáĭ³áĬķáĭ± áĬķ
Ġáī° áī°
áĭ¨ áĭįáĬķ
Ġáīł áĬ©
Ġáĭ«áĪĪ áī¥áĬķ
Ġáĭ¨áĪį áĪĽáīµ
áĪ¨áĭ³ áĭį
ĠáĬ® áĪĮáĮħ
ĠáīłáĬł áįįáĪªáĬ«
Ġáĭ«áĪĪ áī£áī¸áĭį
Ġáĭ¨áĪĺ áĮ½áĪĲáįį
ĠáĪĿáĬķ áĮ®áī½
ĠáĭŃáĮł áīħ
i g
áĪļ áĬķ
ĠáĪĿ áĪµáĪ«áīħ
Ġáĭ¨áĪĺ áĪŃ
ĠáĪĮáĪĭ áĬĽáĭį
ĠáĪĺ áĮĪáĬĵáĬĺáīµ
Ġáĭ«áĪĪáĪĿ áĬķáĪĿ
ĠIn stagram
áĪĪ áĭ©
áīĥ áī½áĪģ
Ġáīłáĭ© áĬĵáĭŃáīµáĭµ
áĪĺ áĮł
Ġáĭ¨áĭĭ áĮĭ
ĠáĪĿáĮį áī¦áī½
Ġáīł áī½
Ġáĭ« áĭ°
ĠáĪĪáĪĺáĮį áĪĪ
áī³ áĭįáĬķ
ĠáĪĭáĪĪ áįīáīµ
ĠáĬłáĪį áīł
ĠáĬ¢áĭ¨áĪ±áĪµ áĬķ
ĠáĪ« áĪ´áĬķ
ĠáĪĽ áĪį
ĠáĬ¥áĬĵ áĪµ
áĪĢ áīµ
áĬĵ áĭįáĬķ
Ġáī°áĪĺáĪį áĬ¨áī±
ind ows
áī³ áĭ¨áĭį
áī¶ áī¼
ĠáĬĲáĮ» áĬĲáīµ
ĠáĪ° áĪŀ
ĠáĭŃáįĪ áĮ¥
ĠáīłáĬł áĪĿ
Ġáĭ¨áĪ½ áĭ«áĮŃ
áĬŃ áįĪ
Ġáĭ¨áī° áī£áĪĪ
Ġáĭ¨áĪµ áĪįáĬŃ
ĠáĮ´áĮ¥áĪ® áĪµ
ĠáĭŃ áĬ¨áįĪ
ĠáĬ¨áĪĽ áĬķáĬĽáĭįáĪĿ
ĠáĪħáĭĿ áī¦áī½
áĪ¨áĮĭ áĮĭáīµ
ĠáīłáĬł áĬķáĭ±
Ġáīłáī° áĪĪáĪĿáĭ¶
ĠáĪĮáĪİáī½ áĪĿ
áīĨáĮ£ áĮłáĪªáĭ«
Ġáĭķáĭį áīĢáīµ
ĠáĬ¨ áĪĥ
áĭİ áīµáĬķ
áįį áī³
ĠáĪĪáĪĺ áĪĽáĪŃ
ĠáĬ¥áĭ« áĭ°áĪ¨áĮĪ
Ġáĭī áĪµáĮ¥
ĠáĬĲáīłáĪŃ áĬķ
Ġáĭ¨áĪ« áĪ³áī¸áĭįáĬķ
ĠáĭĿáĪŃáĭĿ áĪ®áī½
áĮį áĮįáĪŃ
Ġáĭ¨áĭį áĪĤáī¥
áīĨ áĪĻ
áĪ³áĭŃ áĬķáĪµ
áĭį áĬķáĪĿ
ĠáīłáĭµáĬķ áĮĪáīµ
áīĢ áīµáĬķ
Ġáĭ¨áĪĿ áĪĪáĭį
ĠáĭŃ áĭĽ
Ġáī° áĪĺáĪŃ
áįĪáĪįáĮī áīµ
ĠáīµáĬ¥ áĭĽ
áīĨ áĭ©
áĬħ áīłáĪ«áĭĬ
ĠáĪĺ áĪ¬
áĬ¨áĬĵáĭĪ áĬĳ
ĠáīģáĮ¥ áĪ®áī½
Ġáĭ« áĭ°áĪŃáĮī
ĠáĪĺ áĬķáĭ°áĪŃ
ĠáĪĿ áĬ¥
áī¢ áĭİáī½
a p
áĪĪ áīĨ
Ġáī° áīł
ĠáĪ° áĪľáĬķ
ĠáĪ½ áįĭáĬķ
ĠáĪĺáĭ° áī¥áĪŃ
ĠáĪĺáĬķáĪµ áĬ¤
áĪį áī£
áĮĨ áī»áī¸áĭį
Ġáĭ¨áĮ¨ áĭĭáī³
ĠáĪĪáĪĺ áĪĺáĪįáĬ¨áīµ
ĠáĬĲáīłáĪ¨ áīłáīµ
Ġáĭ¨áĪļ áī»áĪį
Ġáĭ¨áĪĺ áĮį
áīĨ áĪĺ
áĭĭ áĪĪáī½
Ġáĭ«áĪĪ áĬĲáĭį
ĠáĪĽáĮ¥ áįĭáīµ
áĮ¨áĬĲ áīģ
áĬ¨ áī¥áĪŃ
Ġáīµ áĭ³áĪŃ
ĠáĬłáĮĭ áĪŃ
Ġáĭ³áĮį áĪĺáĬĽ
áĭĪ áĭŃáĪĿ
19 9
Ġ5 00
ĠáĪĪ áĪĨáĬĳ
ĠáĬłáīħáĪŃ áī¦
ĠáīłáĪ³ áĪĿáĬķáīµ
ĠáĭŃ áĭĪáĪ°
Ġáĭ³ áĭĬ
Ġáĭ¨áĮĪ áīłáĭ«
ĠáįĸáĪĪáī²áĬ« áĭĬ
Ġáĭ¨áī°áįĪ áĮłáĪ¨
áĮĪ áĪī
ĠáĪĺáĪį áĪ±
ĠáĬ¨ áĮĵáĭ°
Ġáīµ áĮįáīł
ĠáĪĺáĬķáĮįáĪ¥ áī³áīµ
Ġáī£áĪį áī°
áĮ£ áĪĪáĪģ
Ġáī« áĭŃáĪ¨áĪµ
áĭ® áĬĸáī½
áĬĴ áĬ«áĭĬ
áī³ áĪŃ
ĠáĪĪ áīħ
ĠáĪĿ áĪĭ
áĬķ áĪ³áĭĬ
ĠáĬ¨ áĪĿáĬķ
áī£ áī´
áĬĵ áĮĪáĭµ
Ġáĭ¨áĪļ áĪ°áĪ©
ĠáīµáĬĵáĬķ áĪ½
ĠáĪĪáĪµ áĪĭáĪ³
áĮł áī¢áĭ«
ĠE thiop
ĠáĪķ áĮĭáĭĬ
Ġáĭ¨áĪļ áī³áĭŃ
ĠáĪĬ áĮį
áĭĭ áĭŃ
ĠáīĢ áĪª
Ġáĭĺ áįį
Ġáĭ ĳ
ĠáĪĺáĪįáĬ¥ áĬŃ
áĬ¤ áĪĭáĭįáĭ«áĬķ
ĠáĬ¥áĪ« áĪ±
áįĪ áĮłáĪ¨
ĠáĬ¥áĭļáĭ« áĭį
ĠáĬłáĮĭ áĪĽáĪ½
Ġ âĢ
áĮŃ áīłáĪŃ
ĠáĬ¨áĪĨáĬĳ áīµ
áĪį áīµ
ĠáĬłáī£ áī¶áī½
áĪĻ áĪµ
Ġáī° áĬ¨áī°áĪį
áįĪ áĮ¥
áī¥ áĪİáĪµ
ĠáĬłáĪįáĬĲáīłáĪ© áĪĿ
ĠáĪĪáĬ¥ áĪ±
o d
ĠáĬ¥ áĪ´áīµ
t e
áīĢ áĪ°
ĠáĬ¥ áĪĽ
ĠáĬĲáĮĪ áĪ¥
áĪĽ áī½áĪģ
áĬĹ áĬĹ
Ġáī£ áĪīáīµ
Ġáĭ¨ áĮłáįĭ
ĠáĭŃáĮ¨áĪĿ áĪ«áĪį
ĠáĮŃ áĬķáīĢáīµ
Ġáĭ¨áī° áĪ°áĪĽ
Ġáī°áĬĲ áĪ¥
ĠáĪĪáĪĺ áĭ«áĭĿ
áĭĪáĪĪ áĭ°
Ġáī¡áĭµ áĬĳ
áĬĸ áĪ¨áĬķ
Ġáĭ± áīĦ
ĠáĪįáĮģ áĬķ
Ġáĭ¨áĭĺ áĪŃ
áĪ° áĬĵáĪį
áī¢ áĭ©
Ġáĭ«áĪµ áī£áĪī
áĮĢ áĬķáĪ²
áĬ« áĪŃ
Ġáīµáĭķ áĭĽ
áĭ ª
Ġáĭ¨ áĬª
ĠáĬ¥ áĮĪ
Ġáĭ« áĪĺáĮ£áĪį
ĠáĭĪáĬķ áīłáĪŃ
Ġáī³áĭį áīĭáĪį
ĠáĪĪ áĭĵáĪĪáĪĿ
Ġáĭ«áĪįáī° áĪĪáĪĺ
Ġ3 8
áįķ áĪĭ
Ġáĭ¨ áĭ¶
Ġáī¥áĪĦ áĪ«áĭĬ
ĠáĬ¢áĭ® áī¥
áĬķáĭ ´áīµ
áĪµ áĭ«
áĬĵ áīµáĬķ
ĠáĪµáīµ áĪį
áĪ°áĮ¡ áīµ
ĠáĬłáĪłáĪ« áĪŃ
ĠáĬ® áĪªáĭ«
ĠáĮ ģ
Ġáĭ¨áī° áĬĲáĪ£
Ġáī Ĥ
áĮįáĪ« áĪĿ
áī³ áĬĶ
ĠáĭŃáīłáĪį áĮ£áĪį
ĠáĪĪáĪĺ áī³
ĠáĪĺáĪµ áįĪáĪŃáīµ
ĠáĭŃ áĬ¨áĪ°
Ġáīłáī³ áĪĭáīħ
ĠáĪĽ áĬ¨áĪĽ
ĠáĪĽáĪ»áĪ» áĭ«
ĠáĬ¥áĭįáĬĲáīµ áĬķ
áĭĺ áĭĭáĪį
Ġáĭ¨áĭĪ áĬķáĭµ
ĠáĬĵ áĪĻáĬĵ
ĠC O
ĠáĬłáĮĪáĪįáĮįáĪİ áī¶áī½áĬķ
áīĭ áĬķáīĭ
ĠáĪĺ áĮĪáĬķáī£áīµ
ĠáĬ¨ áīħáĪŃáī¥
ĠáīłáĪļ áĪĪáĭį
ĠáĬ¥áĭ« áĭ°áĮĪ
ĠáĬłáĮĪ áĪªáī±
áĪŃáīµ áĪ«
ĠáĪĺáĮĪ áĪĺáīµ
ĠáĪĬ áī°
ĠáĬłáĬĵáĭį áīħáĪĿ
Ġáī° áĮİ
ĠáĪ°áĭį áĭ¨áĭį
ĠáĭŃ áįį
ĠáĪ° áĬŀ
ĠáĬ¥áĪµáĬª áĭ«
ĠáĬłáĮĪ áĬĵ
Ġáīģ áĪį
áĬĲ áĬĿ
Ġáĭ« áĭĪáĮ£
ĠáĬ¥ áĮĥ
áīł áĮ¥
ĠáĬ¥ áĪ³
ĠáĪ³ áĪĿ
ĠáĮĪ áĭĿ
áįī áĪĿ
ĠáīłáĬł áĮĪáĪŃ
áĪ½ áĬĲáīµ
áīĥ áĪµ
ĠáĬłáĪµ áīĤáĬĿ
ĠáĮĪ áĭ¥
ĠáĬ« áĬĵáĭ³
ĠáīłáīĢ áĭ³áĪļ
áĪ° áĪ¨
áī» áī½áĪģáĬķ
áīł áĭļáĪħ
Ġáĭķ áĮ£
áĪŃáĪµ áīµ
ĠáĪ°áĭİáī½ áĪĿ
ĠáĭŃ áĪĤáĭ±
Ġáĭ« áĭĪ
áĭ« áĪľ
ĠáĪĮ áĪĬ
ĠáĬłáĭ² áĪ±áĬķ
áĬķ áī§
ĠáĭŃ áĪ°áĪ«
ĠáĬ® áĬ¨áī¥
áīº áĬķ
áīĭáīĭ áĪĺ
Ġáī³áĪª áĬ®áī½
Ġáĭĺ áĭĪáīµáĪŃ
áĪĺáĮ£ áĮ£áĬĿ
Ġáĭ¨áĪļ áĮĪáī¡
ĠáĪĭ áĪį
áĭĺ áĪĺáĬķ
ĠáĪįáĮĨ áī½áĬķ
ĠW indows
ĠáĬłáĪĿáĪĭ áĬ¬
Ġáĭ¨áĮįáī¥ áĭŃáīµ
ĠáĪĪáĪĺ áįĪ
ĠáĪĺáĪįáĭķ áĬŃ
Ġáĭ¨ áĭ¨
Ġáī°áīĥ áĪ«áĬĴ
áī½ áĭįáĬķ
áĪ¨ áĪŃ
áĬķáĮį áī°áĬķ
ac k
2 9
ĠáĪĢáī¥ áī³áĪĿ
ĠáĭŃ áĮĪáĬĵ
áĪĺ áĬĵáĪį
áĪ« áī¢áĭ«
ĠáĪ³áĭŃ áīĢáĪŃ
ĠáĮ¥áĭ«áīĦ áĭİáī½áĬķ
Ġáįİáī¶ áĮįáĪ«
Ġáī°áĪ°áĮ¥ áī¶
Ġáīłáī° áĪĪáĭ«áĭ¨
áĮłáīĢ áĪ°áĭį
Ġáĭ¨áĭ° áī¡áī¥
áĮ¥ áīħ
ĠáĪĽ áįį
áĬ¨áĬĵáĭĪ áĬĲ
áĭķ áĭŃ
n e
áĬķ áĮİ
áī° áĭĪ
Ġáī° áĪ¨áĭµ
áĬ¨áĪ° áī°áĭį
áĪ¨ áĪ°
Ġáī°áĮ¨ áī£áĮŃ
Ġáīģ áĪĽáĪŃ
ĠáĭįáĭŃ áĭŃ
ĠáĬŃ áĬķ
ĠáīłáĬł áĭŃ
áĪĿáĬĵ áĪĪáĬķ
ĠáĪ³áĪĻ áĬ¤áĪį
áĪª áįį
ĠáīłáĬ¥áĪŃáĮįáĮ¥ áĪĿ
áĭĪáĭ« áĭ¨áīµ
ĠáĪµáĪĪ áĪļáĭ«
Ġáīłáī¥ áĭĽáīµ
ĠáĬ¨ áĪŀáīµ
Ġáį ī
áī¡ áĪµ
ĠáĮ¨ áĭĭáī³áĭį
Ġáįį áĮ¡
ĠáĬłáĪį áĬ©
ĠáĬłáįĪ áĮ»áĮ¸
Ġáĭ¨ áĬĵ
ĠáĪĺáĬ«áĬ¨ áĪĪáĬĽ
Ġáĭ°áĮĭ áįĬ
ĠáĬłáĪŃ áī²
áĮłáīĢáĪĿ áīłáīµ
áĬ¥ áĬĲ
Ġáĭį áĪµáĬķ
áĪĿ áĪµ
v er
ĠáĬ¥ áĪ°áĮ£
) ,
áĮ» áįĪáĭį
áĭµ áĪµ
áĪµáī³ áĭįáĪµ
Ġ200 8
ĠáĪĪáĪĺ áĪį
ĠáĬ¢ áĭ¨áĪ©áĪ³áĪĮáĪĿ
ĠáĪĪ áĭ°áĬķ
áĪģ áĪĭáī½áĬķáĪĿ
áĪµáī° áĬŀáī½
ĠáĭĵáĪĺ áī³áĭĬ
ĠáĭŃáĪĦ áĭ³áĪī
áĮ£ áī¢áĭ«
áĬķáī£ áī³
ĠáĪ°áĪĭáĪĿ áī³
ĠáĪĿáĬŀ áīµ
ĠáĪĺáĪĭáĬ¥ áĬŃáīµ
áĪĽ áĪĺáĮ¥
áĪĽ áĪĿ
Ġáī³ áĪĿ
ĠáĪĬ áĭĪáĪµáĭµ
Ġ4 5
ĠáĬ¨áĪĺáĮĢáĪĺáĪªáĭ« áĭį
ĠáĬł áĪ¥áĪŃ
áĬŃ áĪ®áī½
ĠáĮİ áĪ¨
ĠáĬłáĪµáĪĺáĪį áĬŃáī¶
ĠáĪĺ áĭ°áĪ¨áĮį
Ġáĭ¨áĬ¢ áĬķ
Ġáĭ¨áī° áĮłáīĥáĪļ
Ġáĭ«áĪµ áĬ¨áīµ
ĠáĭµáĬķ áīłáĪŃ
Ġáī£áĪį áĭ°áĪ¨
Ġáĭ¨áĪ°áĭį áĬĲáīµ
ĠáĬłáĬķáĭ ·
ĠáīłáĪĺáĮĢáĪĺáĪªáĭ« áĭį
ĠáĭŃ áĪĺáĪŃ
áĮ£ áĪªáĭİáī½
ĠáĪĽáĪµáī° áĭĭáĪį
áĭĽ áĬĿ
áĬª áĬķ
áĪ¥áĪ« áīħ
ĠáĬ¥áĬĵ áĪĿáĬĵáĪĪáĬķ
ĠáĬ¥ áĪĦáĭ³
Ġáĭį áĪİ
áĭ± áĪµ
ĠáīĨ áĪŀ
Ġáĭį áĪħ
Ġáīĥ áĪī
áĭĽ áī¸áĭį
ĠáĬ®áĪĿáįĴ áĭįáī°áĪŃ
ĠáĪĺáĮ¥ áī°áĭį
Ġáĭ¨áĪļ áĪĺáĪ«
Ġáīħ áĬĵáĪ½
ĠáĪĽ áĪ»áĪ»áĪį
Ġáĭ«áĮĪ áĬĽáĪį
áĮ£ áįį
3 2
ĠáĬ« áĬķáĪ°áĪŃ
Ġáĭ¨áĪĪáī¥ áĬķáĪĿ
ĠáĬłáĭŃ áīĢ
ĠáĬ¥áĬķáĭ° áĪĿáĬĵ
áĬ³ áīµ
áīĢáĮ¥ áī³
ĠáĬ¨ áĭĵáĪĪáĪĿ
áĪª áī³
áĪ« áī¸áĭĭáĪį
ĠáĪĽáĪµáī° áĪĭáĪĪáįį
ĠáīĨ áĭ³
Ġáĭ¨áĪļáįĪáĪįáĮī áīµ
áĪŃ áĭ³
ĠáĬ¨áĪĮ áĪĭáĭį
áĪħ áĪ³áĪµ
ĠáĪķáĭĿáī¡ áĬķ
áĪĺ áĬŃ
ĠáĮł áīłáīĥ
ĠáĪļ áĭĽáĬķ
ĠáĪĪáĪĽ áĬķáĪĿ
ĠáĭŃ áĬ«áĪĦ
ĠáĬ« áĪīáīµ
ĠáĬ¨áĪĿ áĭµáĪŃ
ĠáĪµáĪĭ áĪĪáĭį
áĬ »
ĠáĮł áĪ¨
ĠáĬł áĪ¨áĬķáĮĵáĭ´
ĠáĮł áīģ
áĪµáī° áĬķ
áĬĸáĪ© áĪĿ
ĠáĬłáĭŃ áī¶
áī° áĪĺ
áĬŃ áīłáĪŃ
Ġáĭ¨áĪļáĬ¨áī° áĪĪáĭįáĬķ
áĬ¨áįĪ áī°
Ġáĭķáĭµ áĮĪáīµ
Ġáīł áī¡
áĮį áīłáĪŃ
ĠáĪł áĪ«áĭĬáīµ
ĠH ome
ĠáĮłáīĢ áĪľ
Ġáĭ¨áĪĺ áĬĲ
ĠáĪĺáĪĪ áĬªáĭ«
áī¶áī½ áĪĿ
ĠáĪĺ áī³áĭĪ
áĬŃ áĪ¬áĬķ
áĬĲ áĬĽáĭį
ĠáĪĺ áĮ«áĬķ
ĠáĬ¥áĭ« áĪ³
Ġáĭ¨áĬ¢ áĬķáĭ±áĪµáīµáĪª
áį¤ âĢºâĢº
Ġáĭµ áĮį
ĠáĪ« áĪ´
áĮĦ áĪªáĭ«
Ġáīł áĮłáīħ
Ġáĭ¨áĬł áĬ¥áĪĿáĪ®
Ġáīłáīł áĪĪáĮł
ĠáĬ¥áĭ¨áī° áĭ°áĪ¨áĮĪ
Ġáī¥ áĪįáĪħ
ĠáĪĺáĭĿ áĮĪáī¥
áĭĺáĪ¨ áĭĺ
ĠáĪĺáĪ¨áĮĥ áĬķ
Ġáĭ¨áĪĢ áĮĪáĪŃ
áī³ áīµáĬķ
ĠáįĬáĪį áĪŀáī½
ĠáĬ¥ áĪĪáīµ
áĮ£ áī½áĪģ
Ġáī± áĪŃáĬŃ
ĠáĪĺáĮĪ áĬķáĭĺáī¥
áĮį áī¥áĪŃ
áīĥ áīĤ
áĪ² áĬĸ
áī³áĭĪ áīħáĪĿ
ĠáĪµ áĭķ
ĠáĬ¨áĪĮ áĪĪ
ĠáĬłáīµ áī½áĪįáĪĿ
ĠáīłáĪ° áĪľáĬķ
ĠáīłáĭĿ áĪŃáĭĿáĪŃ
ĠáĬ¥áĪĦáĭ³ áĪĪáĪģ
Ġ y
ĠáĭŃ áĮĭ
áĬ« áī½
ĠáĪĺáĪ° áĪį
ĠáĮ¥áĭ«áīĦ áĭį
áĬ« áĭį
Ġáį ¦
Ġáĭ¨áĪĽáĭŃ áī»áĪį
ĠáīłáĬł áĬ«áĪį
Ġáįįáīĥ áĭµ
ĠáīĢ áĭµ
Ġáĭĺ áįĪáĬķ
ĠáĬ¢áīµáĭ®áĮµ áĭ«áĭįáĭ«áĬķ
ĠáĭŃáĪĦ áĭį
ĠáĪĺáĪĿáĪħ áĪŃ
Ġáīħ áĮ¥
áĭ ¤
Ġáĭ¨áĮį áĬķ
ĠáīłáĭŃ áĬĲ
ĠáĭŃáĭĪáĭ³ áĪī
áĭİáī¹ áĪĿ
Ġáī¢ áĪĨáĬĳ
áī į
ĠáīłáĪ° áĭİáī½
áĪį áĬĵáĪį
ĠáīµáĬķ áī¢áīµ
áĬ¥ áĬĲáĭļáĪħ
ĠáĪĦ áĭ±
ĠáīłáĪĺ áĬķáĮįáĪµáīµ
áīĤ áīħ
áĪµáī² áĬŃ
ĠáĬł áī¡
Ġáī°áīĢ áĪĽáĮŃ
b r
ĠáĬłáĮĪáĬĺ áĪģ
áĪ¨ áīµáĬķ
ĠáĭŃáĮĪáī£ áĭĭáĪį
Ġáĭ«áĪĪ áĪĺ
ĠáĪµ áĪĪáĪĿáĬķ
áĭķ áĬ®
Ġáĭ¨áĪĽ áĭµáĪ¨áĮį
áĮ¡ áĪĿ
Ġáĭ¨áīĢáĭµáĪŀ áĭį
áĬ¨áī£ áĬ¨áī¥
Ġáī£ áĪĭ
Ġáĭ¨ áĭ±
ĠáĬł áĬ³
Ġáĭ ļ
ĠáīµáĪĿáĪħáĪŃ áī¶áī½
ĠáĬłáĪĺáĪ« áĪ®áī½
ĠáĪ± áĭ³áĬķ
ĠáĪįáĮĨ áī¹
ĠáįĢ áĮīáĪŃ
áī¥ áĬĽáĪį
ĠáĪĺ áīĨáĮ£áĮłáĪŃ
áĮĨ áī³
ĠáĭŃ áĪµáĮ¥
áĮłáīĢ áĪĽ
ĠáĪĺáī° áĪĽáĪĺáĬķ
ĠáīĢ áĪį
áĮİ áĬķ
áĬ¾ áĬĳ
áĪ« áīħ
ĠáĪħ áĮİáī½
áīĢáĪ³ áīĢáĪµ
ĠáĪĺáĭµáĪĥ áĬĴ
áĪŀ áī¹
ĠáĪģáĪĪ áī±áĬķ
ĠáĮ« áįį
áĮ«áĭĪ áī±
Ġáĭ¨áĪŀ áī£áĭŃáĪį
Ġáįį áĮ¥áĪ¨áīµ
Ġáĭ«áĪµ áīĢáĪĿ
ĠáĬ¨ áĪ³
ĠáĭµáĬķ áĮĪáīµ
ĠáĪĪáĪĽ áĬ¨áĬĵáĭĪáĬķ
Ġáĭµ áĪįáĭµ
Ġáī°áĭ«áĭŃ áĭŀ
Ġáĭ¨áĭį áĪµáĮ¥
áĬķ áĮĭ
ĠáĪĭ áĪĪáĭį
Ġáīħáĭ±áĪµ áĬķ
ĠáĬª áĪİ
ĠáĪĺáĪŃ áĬ¨
áĮłáīĢ áĪµ
áĪ¨ áīħ
áīĢ áī±
áĪ¶ áĬķ
ĠáĪĺáī¥ áĪ«áīµ
Ġáĭ¨ áī»
ĠáĭĪáĪµ áĭ¶
Ġáĭ¨áī°áĪ» áĪī
ĠáĭĺáĬķáĭµ áĪ®
ĠáĬłáĪ¸ áĬķ
ĠáĪĺáĪµ áĮł
ĠáĮĵáĭ°áĬĽ áĭ¬
ĠáĬłáĪį áīĢ
Ġáĭ¨áĬ¥ áĮħ
áĪ° áĭ±
ĠáĪµáĪį áĮ£
ĠáĬłáĪį áįĪ
ĠáĬ ¹
ĠáĪĿáĪµ áĪİáī½
Ġáīł áĪĭáī¸áĭį
áĮ ¬
ĠáĪĪáĪĺ áĮĪáĬĵáĬĺáīµ
ĠáĪĥ áĭ«
ĠáĮ¥áīħáĪĿ áīµ
áĬĸáĪŃ áīłáīµ
ĠáĮĢáĪĺáĪŃ áĬ©
ĠáĭŃ áīĢáĪŃ
ĠáĪľ áīµáĪŃ
ĠáĬ«áĪĪ áĭİáīµ
c e
ĠáĪĽ áĪĿ
ĠáīłáĪķ áĮį
ĠáĪĺáĭĭ áīħáĪŃ
áĭ« áī¸áĭįáĬķ
áĬ¨áĪĪ áĬĽáĭį
Ġáĭ¨ áĪ®
ĠáĪĺáĪŃ áĭ³áīµ
Ġáĭ¨áĪĿ áįĪáĪįáĮĪáĭį
ĠáĪĽáĪµáĮłáĬķáīĢ áīĤáĭ«
Ġáī°áĭĪáĭ³ áĭ³áĪª
áĭ¨ áī±
ĠáĮŃ áĪĽáĪª
áįĪáĪįáĮī áĪĿ
Ġáĭ¨áĪĺ áĪ³áĪ°
áīĢáĪŃ áīłáĭį
Ġáĭįáĭµ áĭµ
Ġáī° áĪĺáĪĪáĪ°
áĪĭ áĪĭáĭį
Ġáī° áĭķáĪĪáīµ
áĮ¦ áīµ
áĪµáĪ« áĬ¤áĪįáĪĿ
Ġáĭ® áĪŃáĬŃ
ĠáĪ°áĪŀ áĬĳáĬķ
Ġáĭ¨áĪļ áįĪáĪįáĮį
áĪŀáĬŃ áĪŃ
áī³áī¸áĭį áĪĿ
ĠáĬł áĪŀ
Ġáīªáĭ²áĭ® áĭİáī½áĬķ
ĠáīµáĪ« áĬķáĪµáįĸáĪŃáīµ
ĠáĬłáĪĪ áīłáĪĪáĭļáĭ«
áĪµ áĪĲ
Ġáĭ« áĮłáįĭ
áĭŀ áĬķ
ĠáĬ¨áĪį áī¥
ĠáįĪ áĬķáī³
áĬ¨ áįĪáĪĪ
Ġ v
ĠáĭĪáī³áĭ° áĪ®áī½
Ġáī°áįħ áĭķáĬĸ
ĠáĬłáĪµ áī¥
Ġ re
áīĨ áĮłáĪŃ
ĠáĬłáīĢ áĪ«áĪ¨áī¥
áĮ¦ áī½áĬķ
ĠáĪĬáĭ« áĭ°áĪŃáĮį
ĠáĬŃáįįáĭ« áĭİáī½
ĠáĪĺáĪĪ áĭ¨áīµ
ĠáĪĺ áĭĪáĪ°áĬķ
áĭ« áĭ«áĭĻ
ĠáīłáĬ¥ áĬĲáĪ±
áĪ¹ áĬķ
ĠáĬłáĭŃáĭ° áĪĪáī½áĪĿ
ĠáĬ¨áī£ áĪĪ
ĠáĮįáī¥ áįħ
ĠáĪĺáĪĺáĪªáĭ« áĭİáī½
ĠáĮ¥áĬķ áī³áĭĬ
ĠáĪĿ áī¾áīµ
áĭĭ áĪª
ĠáĪ° áĪĮ
ĠáĪ² áī³áĭŃ
áĬĻ áĬĲáīµ
áĮįáĪ« áī¸áĭį
áĮĢáĪĿ áĪ©
Ġáī¥ áĬŃ
áĪģ áīµáĬķ
Ġáī¥áĪİ áĬĽáĪį
ĠáĬ¥áĬķáĭ³áĪĪ áī£áī¸áĭį
áĬ« áįĪáĪį
Ġáī¥ áĪĶ
ĠáĪĺ áĮĪáĬĵáĬĽ
ĠáĬłáĪį áĪĨáĬĲ
ĠáīłáĪģáĪĪ áī±
áĭĻ áīµ
3 5
ĠáĪĺáĪ° áĪĪáĬĿ
ĠáĬłáĮĪáĪįáĮĭ áĭ®áī½
Ġáīłáī°áīĥáĪ«áĬĴ áĭį
Ġáĭ¨áįį áĪŃáĭµ
ĠáĭŃ áĬĸáĪ©
ĠáĮīáĭ³ áĭ®áī½áĬķ
ĠáĪµáĪĪ áĪĨáĬĳ
ĠáĪĪáĬ¥ áĬĲáĭļáĪħ
ĠáĬ¨áĬķ áī±
áĬ¨ áĭļáĪħ
ĠáĪĺ áīĨáĮ£áĮłáĪªáĭ«
áīĢáĪŃ áī£áĪĪáĬķ
áĪĢ áī¥
áĪĽ áĪªáĭ«
ĠáĮį áĪŃ
ĠáĬłáĪĽ áĪįáĬŃáīµ
áĪĭ áĮĨáī½
áĬŃáĪ² áĬ®
ĠáĭįáĮ¤ áī±
áī° áįį
Ġáĭ¨ áĪģáĪĪáīµ
ĠáĪĺ áīĭáīĭáĪĿ
áĬ® áī½áĬķ
ĠáĬł áįĭ
ĠáīłáĬ¢ áĬķáī°áĪŃáĬĶáīµ
ĠáĭĲ áĭŃ
ĠáĮİ áī¥áĬĿ
Ġáī°áĪĪáĭĭ áĭĭáĮŃ
ĠáĪĪáĪĺ áĪ¥áĪ«áīµ
ĠáīµáĬķ áī³áĬĶ
Ġáĭ¨áī´ áĬŃáĬĸáĪİáĮĤ
ĠáĬŃ áĪĪáī¥
áĭİ áī»áī¸áĭįáĬķ
ĠáĭµáĪŃáĮħ áī±
3 3
áĪĻ áĪĭáīµ
áĭĵ áĬķ
ĠáĪĪáĪ« áĪ±
ĠáīłáĬł áĭ²áĪ±
ĠáĬłáĮĪ áĭĽáĭĿ
ĠáĬłáĭ«áĪµ áįĪáĪįáĮĪ
ĠáĬ¥áĭ« áĭ°áĪ¨áĮī
Ġáī³ áĮĪáĬĽ
ĠáĪĪ áĮī
áī¶ áī»áī¸áĭįáĬķ
áĪ°áīł áĪ°áī¡
ĠáĪĺ áĬ¨áĪĭáĬ¨áĪį
áĪ¬ áĭ«áĪĪáĪģ
Ġáĭ¨áĪ© áĪ²áĭ«
Ġáĭ¨áī° áīĨ
Ġáĭ¨áī° áĭ°áĪ¨áĮĪáĭį
Ġáĭ¨áĪļáĭ«áĭį áīħ
áĭµ áĭ®
ĠáĮ¥áĪŃ áĮ£áĪ¬
áĭĺ áīµ
Ġáī¥ áĮģ
Ġáīģ áĮ£
at e
Ġáīł áĪģ
ĠáĪ« áĪ³áī¸áĭį
áĮ« áĭİáī½
ĠáīĢ áĭ³
ĠáīłáĭĭáĬĵ áĬĲáīµ
áĬ¨ áīłáĪ©
ĠáĭŃáĮłáī¥ áīģ
ĠáīłáĭĪ áĪŃ
ĠáīłáĮįáĪį áįħ
ĠáĬ¥ áĪ°
áĪŃáĪĿ áĭ«áĪµ
Ġáĭ² áĮĤáī³áĪį
ĠáĬª áĬķáĮį
ĠáĬłáĪĪ áī¥áĪħ
ĠáĪĭ áĪīáīµ
ĠáĮį áĮŃ
ĠáĭĿ áĪĽ
Ġ201 1
áĪį áī³
áĭ³ áĬĿ
áĪĭáī½áĪģ áĬķ
ĠáīłáĬ¥ áĪĿáĬĲáīµ
ĠáĭŃáī½ áĪį
Ġáī£áĪĪáī¤ áī´
ĠáĪĺáĮ¥ áī·áĪį
P S
ĠáĮī áĪįáīłáīµ
ĠáīĢ áĭĿáīĥáĭĽ
áīµ áĪĺáīµ
Ġáĭ¨áī°áĪĪáĪĺ áĭ±
Ġáĭ«áĪµáįĪáĪįáĮĪ áĭĭáĪį
ĠáĪĺ áĪµáī°
áĭµ áĬ©
Ġáį¡ -
ĠáīłáĪļ áīĢáĮ¥áĪīáīµ
ĠáĪ¨ áĭµ
Ġáĭ«áĪĪ áĬĿ
áįķáĪİ áĪĽ
ĠáĪ Ĵ
ĠáĬ®áĪļ áĪ½áĬķ
ĠáĮįáĬķáī£ áĪŃ
ĠáĪĪáĪĽ áĭ³áĬķ
áĬķáĪµ áĪ³áīµ
ĠáīłáīµáĬŃáĬŃ áĪĪáĬĽáĭį
Ġáĭ¨ áĪ´
ĠáĪĿáĬŃáĬķáĭ« áī±
áĪĪ áįĪ
Ġáĭ« áīĢáĪ¨
áĮĪáĪĪ áĮ¹
ĠáįĢ áĪĲ
ĠáĪĺáĮĪ áĬĺáīµ
Ġáĭ¨ áįĬáīµ
áī°áĬĽ áīµ
ĠáĬ¥áĪħ áīµ
Ġáĭ«áĪĺáĪĪáĬŃ áī³áĪį
áĮħáĪĿ áĪĭ
áĬĲ áĪ³áīµ
áīĨ áĮ¥
Ġáīĥ áĪīáĬķ
ĠáĮįáĭµ áī¥
ĠáĪįáĭįáĭį áĮ¥
ĠáĬł áī°
áįį áĪĿ
Ġáī°áĪĺáĪį áĪ°áĭį
ĠáĬŃáīµ áī£áīµ
Ġáīł áī¢
Ġáī°áĬ¨áī³ áĭ®áī½
ĠáĬłáĪĿáĪ« áī½
Ġáĭ« áĮ£
ĠáĭĭáĮĭ áĭİáī½
ĠáĬ¥áĬķ áīģ
ĠáĬª áĭ³
ĠáĬłáĭµ áĬĵáīĤ
ĠáĬ¨áĪĮ áĪĭ
áī¶ áĬĽáĪį
ĠáĬ¨ áĪĺáĬķ
Ġáĭ¨áĪļáĭ« áĪµáī°
ĠáīµáĬŃáĬŃ áĪĪáĬĽáĭį
áĪ° áīłáĭį
ĠáĭĪáĮĪ áĬĸ
ĠáĪ° áįĪáĪŃ
ĠáĬ¥áĬķáĭ³ áĪĭáī¸áĭį
Ġáĭ¨áĪļ áĪĪ
Ġáĭ¨áī°áĪĺáĪ° áĪ¨áī°
Ġáĭ¨áī° áĮĪáĭ°
ĠáĬłáĭŃ áī»áĪĪáĪģ
ĠáĬŃ áī¡áĪŃ
ĠáīłáĭĻ áĪªáĭ«
áīłáīµ áĬĵ
áĪĺ áĭ°
ĠáĬ¥áĬĵ áĭ«áĪĪáĬķ
ĠáĪŃ áĬ«áĪ½
ĠáīħáĪŃ áĬķáĮ«
ĠáĭŃáīĢáĮ¥ áĪī
áĭĪ áĬĵ
áĪ¨ áī¶áī½
ĠáĬ¥áī£ áĬ«áī½áĪģ
c o
ĠáĬ¥ áĬ©
ĠáĪĪáĪĽ áĪ¸áĬĲáįį
Ġáĭ¨áĪµ áĬĲ
áĭ« áĬĳ
áīĢ áĭ±
ĠáĮ½ áĭµáīħ
ĠáĪµáĪŃ áĮŃáīµ
áĬŃ áĬķáĭ«
Ġáĭ¨áĪĺ áĬĸáĪªáĭ«
ĠáĬ¥áĭ« áĪµ
ĠáĪĬ áīĥ
áĭĭ áĭį
ĠáĬłáĪĺáĪį áĬŃ
ĠáĪĪáĪĺ áīħ
Ġáĭ¨áĪĪ áī£áī¸áĭįáĪĿ
ĠáĭŃáĭĺ áĬķ
ĠáĬłáĪµáįĪáĪĭáĮĬ áĬĲáīµ
ĠáĪĪáĮ¥ áīĤáīµ
Ġáī° áĬ¨áįį
ĠáĮ¥áĪĭ áī»
ĠáĬ¥áĪµáĬ¨ áĭĽáĪ¬
ĠáĪµ áĭķáĪį
Ġf or
áĪŃ áī¥
ĠáĬķ áĮĪáĪ¨áĬĿ
ĠEthiop ia
Ġáĭ«áĭį áīģ
Ġáĭ¨áīĨ áĭ¨
áĪĪáĭ« áĭŃ
áį Ħ
ĠáĪĽáĪµáī° áĪĽáĪŃ
ĠáĮįáĭµ áĮįáĭ³
ĠáĭįáĮ¤ áī¶áī½áĬķ
Ġáĭ«áĪĪ áī¥áĭİáīµ
áĪĺ áĪ³
Ġáī° áĪ¨áīµ
ĠáĪĭáĭŃ áĪĨáĬķ
ĠáĪĺáī³ áĭ¨áīµ
ĠáīģáĪ³áīģ áĪ¶áī½
ĠPl ay
ĠáĪĪáĪį áĮĨáī½
Ġáĭ¨áĪĺ áĬ¨áĪĭáĬ¨áĭ«
ĠáĭŃ áĬĲáĪ³
áīĢ áĪ©
ĠáĬłáĮĭáĮ£áĪļ áĭİáī½
ĠáĪĺ áīĢáĪĺáĮ«
ĠáĬ© áĪ«áīµ
áī£ áī£áĭŃ
ĠáĪķáĭĿáī¡ áĪĿ
Ġ |
áĪ½ áĭį
ĠáĪĺ áī°áĭį
áīª áĪį
áĭį áīħ
ĠáĬłáĭµ áĪĽ
ĠáĬ« áĪµ
ĠáĭŃ áĮĪáĪŃ
áĬĲáįĥ áįĢ
ĠáĪĿ áĪ½
ĠáĬłáĭ«áĪµ áįĪáĪįáĮį
ĠáīłáĮĪ áĬķáĭĺáī¥
ĠáĪ¶ áĪµáī°áĬĽ
áĪªáĭ« áĭİáī½
ĠáīłáĪ° áįĬáĭį
Ġáīł áĪ¬
áĭµ áĭµáĪŃ
ĠáĬł áīģ
áĪ³ áī½áĪģáĬķ
ĠáĪĿáĭµ áī¥
ĠáĬ¥ áĪĨáĬĵ
Ġáī½áĮį áĪ®áī½áĬķ
ĠáĬĥáĭŃ áĪİáī½
áī¥ áĬĵáĪį
Ġáĭ° áĪ´áīµ
áĬ¨áīµ áĪį
Ġáīł áĬ¨áįĬ
Ġáĭ¨áĬł áĬķáī°
áĭ«áĭį áīģáīµ
Ġáī´ áĪĮáīªáĭ¥áĬķ
áĬł áĪĭáĪħ
Ġáįį áĪįáĪµ
áĮĬáĭľ áĪĿ
áĪ ĩ
áĮĥ áĮĢáīµ
Ġáī¥ áĭ¨
áĪį áī¶
Ġáĭ¨áī° áĪµáįĭ
áĬª áĭİáī½
Ġáįĵ áĪŃáĬŃ
Ġáĭ¨áĬĲ áįĥ
ĠáīłáĪĽ áĪ³
áĭķáĪ« áī¥
ĠáĪ°áĪ« áī°áĬĽ
Ġáī°áĪµáĪĽ áĪĿ
ĠáĪ¨ áĭ¥áĪĿ
ĠáĪĪáĪĺáĪµ áĪĽáīµ
Ġáī° áĪĺáĪĪáĪ±
ĠáįĭáĭŃ áĪİáī½áĬķ
áįĪáĪįáĮĭ áī¸áĭį
Ġáĭ¨áĪļ áīł
áĪĪáīµ áĬķ
Ġáī³ áĭ«
Ġáī°áĪį áĭķáĬ®
ĠáīĢ áīł
ĠáĪłáĪ« áī°áĬĽ
áĪŃ áī±
ĠáĪŃáĭĿ áĪĺáīµ
Ġ l
áī½ áĬĿ
Ġ 00
ĠáĪĺáĮ¨áĪ¨áĪ» áĭį
ĠáĭŃáĪ° áĮ¥
Ġáī° áĬĿ
ĠáĮĨ áĬķ
Ġáĭ«áĪµáĬ¨áīµ áĪĭáĪį
ĠáĪµ áĭ«áĪľ
Ġáī°áĮ« áĪ«
áĭĵ áī±
ĠáĬłáĪ³ áĪ³áī¢
Ġáīł áĪ±
Ġ Ø
áīł áĪ°
ĠáĬ¨ áĮ¨
ĠáĮĪ áĪĺáĭµ
ĠáĬ¥áĪŃ áĪ³áī¸áĭį
áĮĪ áįĭ
áĬ¢ áīµáĭ®áĮµáĭ«
Ġáĭ« áĭ°áĪ¨áĮī
ĠáįĪ áĪª
Ġáĭ¨áī³ áĪªáĬŃ
3 1
Ġáĭ¨ áĮĢáĪŃáĪĺáĬķ
ĠáĬłáĭ« áĭ«áĭĿ
áĮĪ áī°áĬĽ
ĠáĬ« áĪĿ
Ġáĭµ áĪ®
Ġáĭ¨áĬłáīµ áĬŃáĪįáīµ
Ġáī°áĭĪ áĬ«áĭ®áī½
áĪĺ áĪĭ
ĠáĬĲáĮĭáĭ´ áĭİáī½
ĠáīłáĪĺ áĪĦáĭµ
áĮİ áĪĿ
Ġáĭ¨ áī¤
ĠáĬ¥ áĪŀáĬŃ
ĠáĭįáĪµ áĮ£áĭĬ
Ġáīµ áĪĭáĪįáīħ
áĭĮ áĭŃ
áĭ« áī½áĪģ
ĠáĬłáĪµáī³áĭį áīĭáĪį
b er
Ġáĭ« áĮĪáĬĻ
Ġáĭ¨áĪį áĮħ
Ġáĭ¨áĪļ áĪĺáĮ¡
ĠáĪķ áįĥáĬĵáīµ
Ġáĭ¨áįĢ áĪĲáĭŃ
áĭŀ áĪŃ
áīł áī³
ĠáĪĪáĪĽ áĭ³
áĮĪáĪĪáĮ¸ áĭį
ĠáĮį áĭ¢
ĠáĭĪ áĪ¨áĭ³
ĠáĬłáĭ° áī£áī£áĭŃ
ĠáĮįáĬķáĬĻ áĬĲáī¶áī½
ĠáĪĺáĮĭ áī¢áīµ
áĮ« áĭĭ
Ġáĭ¨áĬŃ áĪŃáĪµáī¶áĪµ
Ġáī°áĭĺ áĮį
ĠáĮ¨ áĪĿ
ĠáĪĿáĪµ áĮ¢áĪŃ
áĪĭáīĢ áĪī
ĠáīłáĬł áĪĿáĪĭáĬŃ
ĠáĬłáĭįáĪ®áįķ áĪĭ
Ġáī ¬
Ġáĭĺ áįĪ
ĠáīłáĪĽ áĪħáīłáĪ«áĭĬ
ĠáįĮ áĭ´
áĮĪ áĪ¬
áĪĨ áī½
Ġáĭ¨áīĢ áĬķ
áĮłáī£ áīł
áĬķ áĮĢ
ĠáĬĲ áī¥
áĮ¸ áĪĺ
Ġáīłáīħáĭµ áĪļáĭ«
áĪ°áĮł áĬķ
áĪµáī³áĭĪ áīĤáĭ«
ĠáĭŃáĭį áĪĭáĪį
Ġáīł áĭĺáĪŃ
ĠáĪ¥ áįįáĪ«
Ġ201 0
ĠáĮł áįĭ
Ġáī¤ áī´
ĠáīłáĪĺ áĪĿ
Ġáĭ¨áĪį áĮĨáī½
ĠáĪĺáĭµáĪ¨ áĪ»
Ġáĭ¨áĭĺ áĪĭáĪĪáĪĿ
áīĤ áĭİáī½
Ġáĭķ áĭ³
ĠáĬłáĭĿ áĪ«áĪŃ
ĠáĬ §áĪ¨
áĮ£ áĪĪáĬķ
áīĥ áĮłáĪį
Ġáī³ áĭĽ
Ġáīł áī¤
ĠáĪĢ áĭŃ
áĮĭ áĮł
in e
áĭ³ áĪĪáĪģ
ĠáĮį áī¦áī½
Ġáĭ° áĪµáī°áĬŀáī½
ĠáĬłáĪ® áĮĮ
áĭĿ áĮĪáī¥
Ġáĭ¨áĬ« áī²áīµ
ĠáĪ² áī³
áĬ¥ áĬķ
Ġáĭ¨áĬ¥ áĬĵáĬķáī°
ĠáĭŃáī³ áĭ«áĪī
ĠáĪĪáĪĺ áĮİáī¥áĬĺáīµ
áī¥ áĪĭáīµ
Ġáī° áī½
áĮĪ áĭĭáĪį
Ġáĭ«áĪµ áĮĪáī¡
áįĸ áĪĪáī²áĬ«
áĭ« áĬķáĪĿ
ĠáĪĺ áīĨáĪĿ
áĬ« áī°áīµ
ĠáĬ¥áĬķáĭ°áĪĿ áī³
ĠáĬłáĪµáī°áĭĭ áįħ
ĠáĪĺ áĪ»áĪ»áĪį
Ġ4 8
ĠáĬª áĪ³áĪ«
Ġáĭ¨áĪĿ áĬĵáĭį
áĭī áĪĿ
áĭļáĭ« áĪĿ
ĠáĬ¤ áĮĢáĬķáĪ²
ĠáĬ¢ áĬķáī°áĪŃáĬĶáīµ
ĠáĪĪáĪĺ áĪĪáĭĪáĮ¥
ĠáĬ¥ áĮłáī¥
Ġáĭ¨áĪĺáĮĢáĪĺáĪªáĭ« áĭİáī¹
Ġáĭ¨ áĬ¬
ĠáĪĪáĪĺ áĮ«áĭĪáīµ
Ġáĭ¨ áĪĬ
áī£áī¢áĭ« áĭĬ
ĠáĬłáĪµ áĪ«
áĪĭ áīģ
ĠáĬłáĭį áīĢ
Ġáī¤áī° áĪ°áī¡
áįİ áĬķ
ĠáĬ¨áĪļ áĭ«áĪµ
Ġáĭ¨áįĪ áĪ¨áĬķáĪ³áĭŃ
Ġáĭ¨ áīĢáĮ¥áī³
áĭ°áī£ áī£áĭŃ
ĠáĪĽáĪµáī° áĬ«áĬ¨áĪį
ĠáĮ£ áī¢áĭ«áĭį
ĠáĬłáĭµ áĬĵ
Ġáĭ¨ áĪ¨
ĠáĬ¥ áĪ«áīµ
áĬĹ áĬķ
áī¥ áĪĶáĪŃ
Ġáĭ¨ áĪ¨áĮħáĪĿ
ĠáįĪ áĪ¨áĬķ
áĪŃáĪµáī¶ áĪµáĬķ
ĠáīłáĪĺ áĪĭ
ĠáĪĪáĪĺ áīĨáĮ£áĮłáĪŃ
ĠáĬĲáīłáĪ¨ áĬĿ
ĠáįĪáĪį áĮĮ
Ġáĭ«áĪĪ áĪĽ
Ġáĭ¨áĪĮ áĪĭ
Ġáĭ¨áīł áĭŃáĬĲáĪĺáĪ¨áī¥
ĠáĬ¥áĭ¨ áĪŀ
Ġ3 9
ĠáĬłáĭŃ áĪ°áĪ«áĪĿ
Ġáĭ¨áĬĲ áĮĪ
áĮ´ áĭĽ
Ġáī°áĪ½áĬ¨áĪŃ áĬ«áĪª
ĠáĭŃáĮłáīĢ áĪĽáĪī
ĠáīłáĬł áĪį
áĬ® áĪŃ
ĠáĪĺáĪį áĪ°áĭį
ĠáĬ¨áĬ¥ áĪ·
Ġáī° áĭ°áĪ¨áĮĪ
Ġáĭ¨áĪļ áĪĨáĬĲ
ĠáĮ¨áĪ¨ áīĥ
ĠáĪĪáĪĺáĪĿ áĪ¨áĮ¥
áĬĲáĮĭ áĮĪáĪ©
áī¦ áĬķ
áī£áī£ áĪª
ĠáĬ¥áĬķáĭ° áĭįáĪĿ
Ġáī §
ĠáĬ¤ áĬŃáĪµ
ĠáĪĺ áĮįáī£áī£áīµ
ĠáĪĤáĭ° áī±
Ġáīł áĪĪ
ĠáīĢáĮł áĪĪ
ĠáīłáĪĽ áĮį
áīµ áĪ®
áĬĸáĪ¨ áĭįáĪĿ
ĠáĪĪáĪĺ áĪŀáĬ¨áĪŃ
ĠáĬ¥áĬķ áīłáĪį
Ġáĭ°áĮĭ áįĬáĭİáī½
Ġáĭ¨áīłáĪĭáĭŃ áĬĲáīµ
Ġ Q
Ġáī½ áĪĭ
ĠáĮİ áĪ«
ĠáĬ¥áĪ«áĪµ áĭİáĬķ
ĠáĪĿ áĮįáī£áĪŃ
ĠáĬłáĮĭ áĮ¥
ĠáĬł áįķáĪį
ĠáīłáĪŃ áĪ³áī¸áĭį
Ġáī°áĬ³ áĪĥ
ĠáĬł áįĪáĪŃ
ĠáĬłáĪŃ áī£
ĠáĪĬ áī£áĪį
Ġáĭ¨áĬł áĮĪáĪªáī±
ĠáĪĺáĪµ áīĢáĪį
áĪ³ áĪĿ
ĠáĪĪáĪĺ áĮłáĭ¨áīħ
r a
Ġáĭ² áĪŀáĬŃáĪ«áĪ²
Ġáī°áĮĪáĪį áĮ¿áĪį
Ġáīł áĮĪáĭĽ
áĮĪ áĬķáĭĺáī¥
áĪįáĪĿ áĬĵ
Ġáī°áĭ° áĮĭ
ĠáĪĪ áĮį
ĠáĪĽáĬķ áĬķ
ĠáĬłáĪĽ áĪŃ
áĬĲáĪ³ áĭį
áĪ« áī¥
áĪ° áĬŀ
ĠáĪĺ áĬĲáĮĭáĮĪáĪŃ
ĠáĪĪáĪĽ áĮ¥áįĭáīµ
ĠáĬ¨áī° áĪĪáĭ«áĭ©
áĭ¨ áĪ¨
ĠáĪĪáĪĽ áĪŁáĪĭáīµ
áĭ¨ áĪµ
áīł áĪ«áīµ
ĠáĬłáĪ³ áĭĽáĬĿ
ĠáĪįáĪĽ áĭµ
ĠáĪĽáĬķ áĪ³áīµ
áĮłáĬĵ áĬ¨áĪŃ
ĠáīħáĪŃáĮ¸ áīµ
Ġáĭ¨ áĪŀáīµ
ĠáĬ¥áĬķáĭ² áįĪ
áīĨ áĪŃ
ĠáĬ¥áĭµ áĮĪ
ĠáĪ¬ áĭ²áĭ®
Ġáī°áĪ³áī³ áįĬ
Ġáĭ¨áĪĽ áĪµáī°
Ġáī°áĪ° áĪĿ
ĠáīłáĪĺ áĮ½áĪĲáįį
Ġáį³ áį
ĠáĪļ áĭĽ
ĠáĬ¥áĬĲáĭļáĭ« áĬķ
Ġáĭ°áĪĺ áĭĪáĭĿ
áĪħ áĪ¨
Ġáīł áĮįáĪĿáīµ
ĠáĬ¥áĭį áĬĲáī±
ĠáĮĪáĪį áĮ¿áĪį
ĠáĬłáĪµ áĬªáĭ«
ĠáĬ¥ áĮįáĭļ
Ġáĭį áĮĬáĭ«
ĠáĭĵáĭŃ áĬĸáī½
ĠáĪĪ áĬĲ
ĠáĪĺáĪµ áĪªáĭ«
ĠáĬ¥áĪŀáĬŃ áĪ«áĪĪáĪģ
Ġáī ¼
ĠáĪħ áĭĪáĪĵáīµ
áĮĵ áī¸áĭį
Ġáĭ¨áī° áĮ»áįĪ
ĠáĮ½ áįıáĪį
áīĨ áīħáĪį
ĠáĮĪ áĪĪáĪį
áĪĺáĭĿ áĮĪáī¥
áĪĨáĬķ áīłáīµ
ĠâĨ Ĳ
Ġáī° áĬĵáĮĪáĪ©
ĠáĬ¥áĬĵ áīĢáĪŃáī£áĪĪáĬķ
Ġáĭį áĪ¸
áĪĪ áī³
Ġáĭ«áĪµ áĭ°
áĬ¨ áĬĲ
ĠáįĪ áī³áĬĿ
Ġáĭ±áīĦ áīµ
Ġáī Ħ
ĠáĭŃ áĬ¨áī¥
ĠáĪĽ áĬ¨áĬĵáĭĪáĬķ
ĠáĪĺáĮł áĮ£áīµ
ĠáĬłáįį áīĥ
Ġáī°áĪĺ áĪĭáĪ½
áĭĪáĪµ áĭ±
Ġáĭ³ áĬĽ
ĠáīłáĪĺ áĭ°áīłáĬĽ
áĪµáī³ áĭĬ
Ġáĭ¨áĪļ áī»áĪĪáĭį
áĪĪ áĪĪ
ĠáĪ° áĭī
ĠáĭĺáĮį áĭŃ
ĠáĬ¥áĪµáĬ¨ áĪĺ
áĮĭ áĬķ
áĮĭ áĮŃ
Ġáī³ áĮį
ĠáĮ½ áĪģ
Ġáįįáīµ áĪħ
ĠáĬłáĭĿ áĬĵáĬĿ
Ġ200 9
Ġáĭ« áĪħ
ĠáĬ¢ áĬķáī°áĪŃ
ĠáĭĭáĮĭ áĭį
ĠáĪĺáĬķáĮĪ áĭ±áĬķ
áĪŃ áĮĤ
ĠáĪĺáįį áī³áīµ
Ġáĭµ áĪ«
ĠáĪ³ áĬķáī²
ĠáĭŃáĮĪáĬĵ áĬĽáĪī
T ube
ĠáĬłáĪĽáĬ« áĪª
Ġáīłáįį áĪŃáĭµ
ĠáĪĪáĪħ áĭĿáī¥
Ġáĭ¨ áĬĴ
áī¸ áĮį
Ġáĭ¨áī° áĪ«
Ġáī£áĪį áĬĵ
áĪ½ áī³
ĠáīłáĪĺáĮ¨áĪ¨áĪ» áĭį
ĠáīłáĬ¥ áĬķáĮįáĪĬáĭĿáĬĽ
ĠáĪĺáĭµáĬĥ áĬĴ
ĠáīłáĪĺ áĪĨáĬĵáī¸áĭį
ĠáĪĺáĪµ áĬ®áīµ
Ġáī° áī£
áīħ áĭ«
ĠáĬ¨ áĮł
ĠáĬ¥áĬĵ áĮĪáĬĽáĪĪáĬķ
ĠáīłáĬ¢ áĭ¨áĪ©áĪ³áĪĮáĪĿ
Ġáĭŀ áĬķ
áĬ¨ áĭįáĬķ
áĭ³ áĮįáĪĿ
ĠáĪĺáĪŃ áĪħ
áĪĿ áĬĲáĭį
ĠáīĢáĪŃ áī¦
Ġáĭ¨áĬĳ áĪ®
Ġáĭ¨áī° áĬ¨áĪĪ
Ġáīłáī¦ áī³áĭį
ĠáĬ¥áĬķáĭ³ áĪīáīµ
áĪ° áĪ³
ĠáĬķ áīħ
Ġáĭ« áĪĺ
ĠáĪ½ áĬķ
ĠáĭŃáĬ¨áĪ° áī³áĪį
áĬĲ áĭįáĪĿ
ĠáĪ² áĬĵáĮĪáĪŃ
Ġáī³ áĭ°áĪŃáĮĭ
áĪĢ áįį
ĠáĬ¥ áĪļ
ĠáĪĺ áĪŀ
áīĢ áĭŃ
ĠáĭŃáĬ¸ áĭįáĪĿ
ĠáĬłáįĪáĮ»áĮ¸ áĪĿ
ĠáĪµáĪĪ áĪĨáĬķ
áĮ£ áĮ£
áįĭ áĭĬ
Ġáīłáįĸ áĪĪáī²áĬ«
ĠáĮİ áī¥
ĠáĬłáĪįáī° áĮĪáĬĺ
Ġ Z
Ġáīłáī° áĬ¨áī³áī³áĭŃ
áĪ¶ áī¹
ĠáĭĪáĮª áĭİáī½
áĪį áĪĽ
ĠáīĢ áĬĳ
ĠáĬ¨ áĬĶ
Ġáĭ¨áĪĺ áĪĨáĬķ
áĪ°áĮł áĬĿ
Ġáī° áĬłáĪĿ
ĠáĮį áįį
ĠáĪĽ áĪµáī³áĭĪáĪµ
áĪµáĪĪ áĭļáĪħ
ĠáĬłáĪµáįĪ áįĥáĪļ
ĠáĪĥ áĪĭáįĬáĬĲáīµ
ĠáĪĽ áĪĿáĮ£áīµ
ĠáĪĺáīħ áĭ°
ĠáīłáĪģáĪĪ áī°áĬĽáĭį
ĠáĪĿáĪķ áĪ¨áīµ
Ġáĭ«áĪµ áī½áĪį
ĠáĪµ áĭµ
ĠáĬłáĪį áĪ°áĪĽ
ĠáĭŃáīĨ áĭ«áĪį
ĠáīłáĬł áĬ«
Ġáĭ«áĪĪáĬķ áĬķ
áįĪ áīĢáĭ°
áĪį áĬĽáĪį
Ġáī° áĬ¨áĪ«
Ġáī° áĪ°áĪŃ
Ġâĺ ħ
ĠáĬ¥áĬĲ áĪĽáĬķ
áĮłáīĥ áĪį
áĭĺ áī¥
ĠáĭŃáĬ«áĪĦ áĭ³áĪį
Ġáīł áĪŀáīµ
Ġ ]
ĠáĮ¨áĭĭáī³ áĭİáī½áĬķ
ĠáīłáĪµ áĪįáĬŃ
ĠáĪĺ áĬ¨áī³áī°áĪį
Ġáĭį áĮ£
Ġáĭ¨áĪļ áĪłáĪ«
Ġáĭ¨áĪĻ áĬ¨áĪ«
ĠáīłáĪĺ áĮ£
ĠáĮĪáīł áĪ¬
ĠáĪħ áįĥáĬĵáīµ
ĠáīłáĪĺ áĪ°
Ġáĭ¨ áĬ©áī£áĬķáĭ«
ĠáĮį áī¢
Ġáī³ áĭ³áĮĬ
áī£ áīłáĪį
ĠáĪļ áĪµáī±
ĠáĪģáĪįáĮĬáĭľ áĪĿ
Ġáĭ¨áĬŃ áįįáĭ«
áĪĥ áįį
ĠáĪ°áĬĲ áĭ¶áī½
ĠáĬŃáīµ áīµáĪį
ĠáĪĪáĪĺáĮįáĪĪ áĮ½
ĠáĪ° áįĭ
ĠáĭĪáĮ£ áī±
áĪŃ áĬ©
ĠáĬĲ áĭ³áĮħ
ĠáĬ¥áĪĿ áī¢
áīĢ áĬĽ
ĠáĪĺáįħ áĪĲ
ĠáĭŃ áĪĺáĪ¨
ĠáĪµ áįĸáĪŃ
ĠáĮ¥ áĪ¬
áī£ áĪįáĪĿ
ĠáīłáĮįáī¥ áįħ
Ġáĭ¨ áįįáīµ
ĠáĭĪáĪĪ áĭµ
Ġáī° áĮįáĭ³
áĭķ áĬĵ
ĠáĬŃáįį áī°áīµ
Ġáįį áĮ¥áĪ¨
áĪ° áĭįáĬķ
áĬŃ áĪĮ
ĠáĬł áĪªáįį
Ġáīłáīģ áĮ¥áĮ¥áĪŃ
Ġth e
ĠáĬ¨ áĬ¤
Ġáī£áĪħ áĪªáĭİáī½
ĠáĬłáĪĿáĪĭáĬ« áī½áĬķ
áĪµáī³áĬķ áī¡áĪį
ĠáĭµáĬķáĮĭ áĮĮ
áī¥ áĪ°áī£
Ġáĭ¨áĪļ áĮłáīĢáĪĻ
áĪĺ áĪĻ
ĠáĬłáĪµáįĪ áĪª
ĠáīłáĬ Ĵ
I D
Ġáĭ¨áĪĺ áī³
ĠáĭŃ áĭŁáĪį
Ġáĭ¨áī´ áĬŃ
ĠáĬĲ áĪĲáĪ´
ĠáĪĿáĪŃáĮ« áĭį
ĠáĬ«áĪŃ áī³
Ġáĭ« áī°áĬ®
i f
Ġ19 7
o g
áī³ áĭ°áĪŃ
ĠáīłáĪį áĮħ
ĠáĮĮáī³ áĭ¬
áĮĨ áĪ®
ĠáĪĮáĪĭ áĪĿ
ĠáĪ°áĪĽ áĭ«áĭĬ
ĠáĪĽáĬŃ áīłáĪŃ
ĠáĬ¤ áĪŃáĪĿáĭ«áĪµ
ĠáĭĪáĪ¨áĪŃáĪ½ áĬĿ
Ġáīł áĭµáĪĿ
ĠáĪĽ áĪŀ
ĠáĬłáĪµ áī³
ĠáĬŃ áĪ¨áĪĿáīµ
Ġ/ >
ĠáīĨáĭŃ áī°áĭĭáĪį
áĬŀ áī¹áĬķ
áĪĺáĬĵ áĬķ
áĭļ áĪį
ĠáĪĺáĭĿáĬĵ áĬĽ
áīģ áĬĿ
áĪŃ áĪ³áī¸áĭį
áĪĺ áīħ
ou t
ĠáĭŃáĬĸáĪŃ áī£áī¸áĭĭáĪį
ĠáĭĪáĭŃ áĬķ
ĠáĪ¨ áīĤáīħ
Ġáĭ«áĪµáįĪáĪįáĮĭ áī¸áĭĭáĪį
ĠáĪĪ áĪ½
ĠáĪµáĬķ áĪį
ĠáĭŃáĪµ áĮ¡
Ġáĭĺ áĬĵ
áĮĪ áī¢áĭ«
áĪī áīłáīµ
áī² áī±
Ġ... "
ĠáĬłáĭŃ áĬķ
áĬ¥ áĬķáĭ´áīµ
áįİ áĬ«
ĠáĪµáĪ« áĭį
áĮĢáĪĿ áĪ¨áĭį
Ġáĭ¨ áĪĨáĬķ
ĠáĪħ áĮ»áĬĵáīµ
ĠáĪĺáĮ½áĪĶ áīµ
ĠáĬ«áĪħ áĬĵáīµ
ĠáĪ² áĭ°áĪŃáĪµ
ĠáĮĪáĪį áįĢ
ĠáĭĪ áĮį
áĭĪ áīĤáĭ«
áĬ¨áįĭ áįĪáĪį
ĠáĪĪ áĮĭ
ĠáĮłáĭ¨ áīĢ
ĠáĭŃ áĬĲáĮĪ
ĠáĬ¥áĬĲáĪĨ áĪĿ
Ġáĭ¨áī° áĭ«áĭ«áĭĺ
áīĢáīł áĪĪáĭį
ĠáĬ¥áĭ« áĪįáĬ©
ĠáīłáĬł áĪĭáĪħ
áĭŃ áĪ¨áĪ±
Ġáī¢ áĪĨáĬĳáĪĿ
áĬ¨áįĪ áīµ
áĬ¥ áĬĲáĪŃáĪ±
ĠáīłáĪķ áĭĿáī¥
ĠáĬ¥áĭ« áĭ¨
áĪĺáī» áī¸áīµ
áī ®
Ġáī° áĬ¨áĪĭ
ĠáĮĬáĭľ áĭįáĬķ
áī³áĭŃ áĪĿ
áī¶áī»áī½áĬķ áĬķ
áĭķ áĪĪ
Ġ e
áīĢ áĪ»
Ġáīłáī³ áĪªáĬŃ
ĠáĪĺ áīµ
ĠáĬ¨ áĪĿáĪŃ
Ġáĭ¨áī° áĮĢáĪĺáĪ¨áĭį
Ġáĭ°áĬķ áī¦áī½
áĭĪ áĪŃáĭµ
ĠáĬ¥áĬķ áĮłáī¥
áĪµáįĪ áĪĭáĮĬ
ĠáĬ¥áĭ¨ áĪłáĪ«
áĪ£ áĭŃ
Ġáĭ¨áįĮ áĭ´áĪ«áĪį
Ġáī° áĪĺáĪĪáĪµ
áīĢ áĮ£
ĠáĪ° áĪ«áĭĬáīµ
ĠáĪ¨ áĭ³áīµ
ĠáĪķ áįĥáĬķ
ĠáĬłáĪµáī°áĬĵáĮĭ áĮħ
Ġáĭ¨áĪļáĭ« áĪĿáĪŃ
or d
ĠáĬłáĪģ áĬĳ
ĠáĪµáĪį áīµ
ĠáīłáĭŃ áĬĲáĮĪ
ĠáīłáĪ¨ áĪ«
ĠáĪ°áĮ¥ áī·áĪį
ĠáĪĻáĪµáĪĬ áĪĿ
Ġáī°áĪĺ áĭĿ
ĠáīłáĬ¨áįĬ áĪį
m ent
áĪĺ áī°
ĠáĬłáĪĭ áī½áĪģ
áĬ«áī° áī°
ĠáĬł áĬĲáĪ³
áĪ³ áĪĪáĬķ
h at
Ġáĭ¨áĪĽáĭŃ áī½áĪį
ĠáĪĽáĬķ áĬķáĪĿ
Ġáĭ«áĪ³ áĭµ
ĠáĪĽ áĭĭ
áĪ¨áĮĭáĮį áĮ¥
ĠA pp
áĮłáīł áīĢáĭį
Ġ Ã
ĠáĬĲ áī¢áĭŃ
áįĭ áĭŃ
Ġáĭĵ áĪ£
ĠáĪ¸ áĪĽ
ĠáĬłáĭŃ áī³áĭĪáīħáĪĿ
ĠáīłáĬł áĪµáī°
áįĪ áĪ³áĭĬ
áĬł áĭİ
Ġ4 2
ĠáĪĽáĭķ áĬ¨áĪĭáĭĬ
ĠáĪĽáĪµáī° áĬ«áĬ¨
áĭķ áĭµ
ĠâĢ ¢
áįĥ áįĪ
ĠáĮĮ áī³áī½áĬķ
ĠáĬĲ áįĭáĪµ
áĭ ¦
Ġáĭ¨áĪļ áĭ°áĪ¨áĮĪáĭį
ĠáĪ°áĪĮ áĭ³
áĮłáĭŃ áīĢáĭį
ĠáĮ¨áĪ¨ áī³
áī³ áī½áĬķáĪĿ
áįĲ áĪŃ
ĠáĪµáĪħáī° áī¶áī½
áĬĹáĬĹ áĪŃ
áī³ áĪĭáī½áĪģ
ĠáĪĪáĬ¢ áīµáĭ®áĮµáĭ«
ĠáĪĽáĮį áĬĺ
ĠáĪ« áĪ³áī½áĬķáĬķ
l y
áĪĽ áī¸áĭįáĬķ
ĠáĬķ áĭĳ
ĠáīłáĪĢ áĮĪáĪŃ
ĠáĬ« áĮĪáĬĺ
Ġáĭ¨áĪĮ áĪĭáī¸áĭį
ĠáĬ¥áĬĵ áī±
áĬ¾ áĬĲ
áĭŃ áĮ£áĬķ
ĠáĪĢ áĭŃáĪį
ĠáĮįáī¥ áĭ£
Ġáī° áĪĺáĪµ
áīłáĪĭ áĪ¸
Ġáīł áīłáĪŃáĬ«áī³
áĪ®áĬķ áī¶
ĠáĬĲáīł áĪ«áī¸áĭį
Ġáĭ¨ áĪ»
áĪĺ áĬĵáīµ
ĠáĬ¨ áĮī
ĠáĬ¨áĪĺ áī¶
ĠáĬ¥áĪ« áĪ´áĬķ
áī° áĬŀáī¹
ĠáĬłáĭŃáĭ°áĪĪáĪĿ áĬķ
áĭ´ áĪŀáĬŃáĪ«áĪ²
ĠáīłáĮ¨ áĪĪáĪĽ
áĮ» áįī
Ġáī° áĪŀ
ĠáĭŃáĮĪ áĪĪ
áĪĭ áīµáĪĿ
áĪĺ áĪĭáĪĪ
Ġáĭįáĭµ áīĢáīµ
áĪ® áĮ¥
Ġáĭ¨áīµ áĭ³áĪŃ
ĠáĪĪáĪĺáĭį áĮ£áīµ
ĠáīłáĪĨáĬĲ áĭį
ĠáīłáĪĺ áĮ¥
Ġáī½ áĪıáĪį
Ġáĭ¨áĪļ áĪĦáĭµ
ĠáĬłáĪį áī³
ĠáĮ³ áĮ³
ĠáīµáĮįáīł áĪ«
Ġáīł áĮ¨áĪ¨
ĠáĬł áĬ¨áī£áī¢
ĠáĪĬ áĬ¨áĪ°áīµ
áĭľ áĪĽ
Ġáī£áĭŃ áĪĨáĬķ
áĭĭ áĭĪáīħ
áĭ³ áĪĽ
ĠáĪ¨ áĭĺáĪĿ
ĠáĪįáĪĿ áĪĿáĭµ
ĠáĬ¢áīµáĭ®áĮµ áĭ«áĬķ
Ġáĭ¨ áĬ©
ĠáĬŃ áĪĬ
ĠáĬĲ áįĭ
ĠáĬĲáĮĪ áĪ©áĬķ
ĠáĪĺáĭµáĬĥ áĬĴáīµ
ĠáĬł áĬĲáĮĭáĮĪáĪŃ
Ġáĭ© áĪ®
Ġáĭ¨áī°áĭĪáĪĪ áĭ°áĭį
Ġáĭ¨áī° áĭĽ
ĠáĮ¨ áĪŃ
áĪµáĪĽ áĪĻ
áĬ¢ áĭ¨áĪ±áĪµ
ĠáĭŃ áĬ¨áī°áĪī
ĠáĪģ áĪĭáī½áĬķ
Ġáĭ¨áĬł áĪĽáĪ«
ĠáĬłáĪĭ áĪµ
ĠáĪ© áĪ²áĭ«
Ġáĭ¨áĪļáĮĪáĪŃ áĪĺáĭį
ĠáīłáįĮ áĪµáī¡áĬŃ
ĠáįĢ áĪ¨
ĠáĬ¥ áĮģáĬķ
ĠáĮ©áĬ¸ áīµ
áĬ³ áĪµ
áĪł áĪ©áīµ
ĠáīµáĬķ áĪ£áĬ¤
Ġáĭ¨áĪĿáĪŃ áĪĿáĪŃ
ĠáĪĿáĭķáĪ« áī¥
Ġáīł áįĬáī±
Ġáī° áĬĵáĮĪáĪŃ
áĭ° áĭŃ
ĠáĭŃáĮłáĭŃ áīģ
Ġáĭ¨áįĵ áĪŃáī²
áĪĿ áĪ³
áĬ« áī¸áĭį
ĠáĪĪ áī¥áī»
ĠáīłáĬ¥ áĮĥ
Ġáĭ³ áī¦
Ġáįĵ áĪŃáĪĭáĪĽ
áĭĬ áĭį
Ġáĭĭ áĬĲáĬĽáĭį
Ġ4 4
ĠáĬłáĭ°áĮĭ áĭİáī½
ĠáĪĬ áĭįáĪį
Ġáĭ¨áĪ« áĪ³áī¸áĭį
ĠáĪĺáĭĽáĪĻáĪŃ áī±
Ġáĭ« áĬķáī°
áī»áī¸áĭį áĪĿ
3 4
áĬķáīħ áĪįáįį
ĠáīłáĪĺ áĬ«
ĠáĮł áĬķáĬŃ
Ġáĭ« áĬĲ
ĠáĪĪáĪĺ áįĪáĪĪáĮį
ĠáĪĺáĬĸ áĪ©áĬķ
áĬ« áĬ¤áĪį
ĠáĪ° áĬ¨
ĠáĪŀ áĬĿ
áĪ®áįķ áĪĭáĬķ
ĠáĬłáī³áĭį áīħáĪĿ
8 0
ĠáĬł áĪ¥áĪ«
ĠáĬ¨ áįĬáīµ
ĠáĪĪ áĭĽ
ĠáĪ² áįĪ
ĠáĬ¥áĪĨáĬĵ áĪĪáĪģ
áĬĲáīµ áĪĿ
Ġáĭ¨áĪ¥ áĬĲ
áĮį áĪŀ
ĠáĪĪ áĭµáĪŃ
Ġáī° áĬĲáĮį
ĠáĮħ áĪĿáĪŃ
Ġáĭ¨áĪļáĭ«áĭ°áĪŃáĮī áīµ
ĠáĬ¥áĪŃ áĮ¥
ĠM ac
ĠáĬłáĪµáī°áĭ³ áĭ³áĪª
Ġáīłáī£ áĪħáĪŃ
áī¡ áĬĵ
Ġ3 00
áĭŃ áĪµ
ĠáĬ¥áĬķáĭ°áĪļ áĪīáīµ
áĪĦ áĭ°áĭį
ĠáĬłáĭŃ áī¼
ĠáĪķ áįĥ
Ġáī¢ áĪį
Ġáĭ¨áĪļáī³ áĭĪáīħ
Ġáĭ¨ áĪľ
Ġáĭ¶ áĪ®
Ġáĭ® áĬĵ
ĠáĪĿ áĬķáĭĽáĪ¬
ĠáīłáĪħ áĭŃáĭĪ
ĠáĮ¥áīĤ áī¶áī½
ĠáĪĽáĬ¨áĪĽ áī»
ĠáĪ Ķ
ĠáĪĿáĬŃáĬķáĭ« áī³áĭĬ
ĠáīłáĪĽ áĪ°áī¥
ĠáĬ¨ áĬĥ
ĠáĪĺáī³áĭĪ áīĤáĭ«
Ġáīł áĪ¦
áĬ¨ áĪ«áĪį
ĠáĬł áĮłáįĭ
áī° áĪ¨
áī£ áĬŃ
áĬķ áĮ»
Ġáĭ¨ áĪ°áĮłáĭį
áĭ³ áĪªáĭİáī½
Ġáīł áĮĢáĪŃáĪĺáĬķ
Ġáĭ¨áĪļáī³ áĭ¨áĭį
ĠáĬŃáĪĪ áī¦áī½
áĭį áĪŃ
áĪį áĭ©
Ġáīłáįį áįģáĪĿ
ĠYou Tube
Ġáĭ¨áĪĽ áĮįáĬĺáīµ
áįĪáĮ¸ áĪĺ
ĠáĮ¥ áī¥áīħ
Ġáĭ¨áĪĽ áĪį
ĠáĬłáīĢ áĪĽáĪĺáĮ¥
Ġáī°áĬĲáĪµ áī¶
ĠáĬłáī¥ áĪŃáĪĥáĪĿ
Ġáĭ¨áĬ¥ áĪ³áīµ
áĮİ áĪį
ĠáĪĿáĬķ áĮĬáĭľáĪĿ
ĠáĬ¨ áĭµ
ĠáĬłáĪĽáĪŃ áĬĽ
áĮĪ áĮ½
áīĨ áĪµ
ĠáĪµáĪĪ áĬĲáīłáĪ¨
áīħáĪĿ áīµ
Ġáĭ« áīł
Ġáĭ« áĭĿ
ĠáĭŃáĪĺáĪĪ áĬ¨
ĠáĬł áĪĥ
ĠáĬłáī¥ áĭ®áīµ
áĬ¤ áĬķ
ĠáĪĺ áī½
áĭĭ áĭįáĭ«áĬķ
áĬ¨áĬĵáĭĪ áĬĲáĭį
Ġáĭ¨áĪĿ áī³áĭį
ĠáĬķ áįģ
ĠáīłáĪĺáĬ«áĬ¨ áĪĭáī¸áĭį
Ġáī¦áī³ áĭį
ĠáīģáĪŃ áĮ¥
áįĭ áī±
Ġáī° áĪ»
áĮ§ áī¸áĭį
áĮĭ áĮ£áĪļ
áĭĪáĪĪ áĭ±
ĠáĭŃáĭ°áĮį áįĭáĪį
Ġáĭ¨áĪŀ áī°
ĠáĬłáĪĿáī£ áĮĪáĬĲ
Ġáĭ«áĪµáī½áĪį áĭİáī³áĪį
ĠáĪħ áĮ»
áĭİ áī¼
Ġ 000
ĠáĬ« áĪ²áĬĸ
ĠáīłáĮ¥ áī¥áīħ
ĠáĪ² áĬĲ
Ġáįį áĮĨáī³
ĠáĬ¥ áĮłáĭŃ
Ġáĭ« áĪĪáĪģ
ĠáĬ¥áĭ¨ áĪ°áĪ©
Ġáĭ¨áĪ° áĭįáĬķ
ĠáĬłáĮĪ áĪĭáĪĪ
Ġáī°áįĪáĮ¥ áĪ¯áĭĬ
ĠáīĢ áĪįáĭµ
áīĭ áī¸áĭį
ĠáĪ°áĭį áĪĿ
ĠáĭŃáīĢ áĬķ
ĠáĪĿ áĭķ
áĭ«áĭĻ áīµ
Ġáīł áĪŃáĪ±
ĠáĮĪ áĮ¹
ĠáĬ¥áĬĵ áĭµáĪŃáĮį
ĠáĪĪáĪĺ áĭĭ
áĮĪáī£ áĬĿ
ĠáĭŃáĪ° áĮ£
ĠáĬłáĪĽáĬ«áĭŃ áĬĲáīµ
ĠáĬķ áī£áī¥
Ġáī¶ áĬķ
Ġáĭ¨áĪĺáĬķ áĮĪáĭµ
ĠáĪĪáĪĺáīĢ áĮłáĪį
ĠáĭŃ áĮİáī¥
ĠáĬ¨ áĬ®
ĠáĬ¥áĬķáĭ²áĭ« áĭ°áĪŃáĮī
ĠáĪĽáĪµáī³áĭĪáīĤáĭ« áĭİáī½
ĠáĪĺáĪ¸ áĮ¥
ĠáĬłáĭŃ áįĪáĪįáĮįáĪĿ
áĪĺ áĬķáĮįáĪµáīµ
ĠáĬ¤ áĬķ
ĠáĪĽáīĨ áĪļáĭ«
áĮĪáĪŃ áĪĿ
ĠáĬŃ áĪ¬
Ġáī° áĪ¨áĮĭáĮį
ĠáĪĽ áĪ¸
Ġáīł áĪĬ
ĠáĬłáĪĿáĪĭáĬŃ áĬķ
áĭµ áĪĽ
ĠáĬ¥áĭįáĬĲ áī³áĭį
ĠáĬłáĭŃ áĬĲáī¶áī½
ĠáĬ¥áĬķáĭ² áĭ«áĪµ
áĬŃ áī¥áīµ
Ġáĭ¨áĬĲ áĭ³áĮħ
Ġáĭ¨áĮį áĬķáī£áī³
Ġáīł áī£áĪĪ
áĭ« áĭ«
áĬĲáĮĪ áĪ¨áĭį
Ġáī°áĮĪáĬĿ áī·áĪį
áĪĺáĪĪáĬ¨ áī³áī¸áĭį
ĠáĪ² áĪĦáĭµ
ĠáĭŃáĪĺáĪĪ áĪ³áĪį
Ġáī£ áĪŃ
Ġáī°áĬĵ áĮĭáĪª
áĬĲáīł áīł
Ġáī£áĪĪáī¤ áī¶áī½
Ġáį Ĩ
Ġáĭ« áĭ°áĪ¨áĮīáīµ
ĠáĪĬ áĬĸáĪ©
ĠáĭĺáĪĺ áĬĳ
ĠáĬ¥áĬķáĭ° áĬĲáīłáĪ©
ĠáĭŃáįĪáĮ¥ áĪ«áĪį
ĠáĬłáĪĭ áĭ¨áĪģ
ĠáĪĬ áĪĺáĮ£
ĠáĭŃ áĮİ
Ġáįį áĪ°áīµ
ĠáĮŃ áĬĲáīµ
Ġáī§ áĬķáī§
áī³ áī½áĪģáĬķ
áįĬ áīµáĪĿ
a re
ĠáĭĪ áī°áīµ
ĠáĭĪ áĪ²áī¥
áĮĪáĪį áĮĪ
ĠáĭĪáĪĭ áĮħ
on t
Ġáĭ©áĬĴ áī¨áĪŃáĪµáī²
ĠáīłáĪĺ áī³
Ġáīłáĭ¨áĬł áĪĺáī±
ĠáĪħ áĬķáĭµ
ĠáĬłáĪ° áĮ£áĮ¥
ĠáĬłáĪĿ áĪįáĬ®
áĪ¨áįį áī°
ĠáĪģ áĬĲáī³
ĠáĬŃ áĪĿ
Ġáīª áĭĽ
áĭ°áĪ¨ áĮĥ
Ġáĭ¨áĮĪ áĭĽ
áĮ¨ áĭį
áĪ© áīµáĬķ
áĭĻ áĬķ
ĠáĭŃáĮİáī¥ áĬĻ
áī» áĪĪáĪĿ
ĠáĪ¥áĪ« áĭİáī½áĬķ
áĪĺ áī³
ĠáĬłáĪ» áĬķáĮī
ĠáĭĵáĪĭáĪĽ áĭİáī½
ĠáĬ¥áĭ¨ áįĪáĪĪáĮī
ĠáĪĪáĪĽ áĭĺáĮĭáĮĢáīµ
Ġáĭ¨áĪļ áĬĸáĪ¨áĭį
ĠáĪķ áĪį
ĠáĪ½ áī¥áĪŃ
ĠW i
ĠáĪĺ áĮįáī£
ĠáĭŃáĮłáīĢ áĪĽáĪį
Ġáī£áĪĪáĪµ áĪįáĮ£áĬĵáīµ
ĠáĪĽáĪĪ áī±
ĠáĪĪáĪ° áĭİáī½
ĠáĮĢ áĪįáī£
áī£ áī¶áī½
ĠáĪµ áĪĻáĬķ
Ġáĭ¨áĪļ áĪ¨áĭ±
áĪĪáĭĪ áĮł
ĠáĬķáĭĳ áĪµ
áĭ°áĬķ áīħ
áīħáĭµ áĪĺ
áĬ¥áĬĲ áĪĨ
ĠáīłáĭŃáĬĲáĮĪ áĮ½
ĠáĮ¸áĪĲ áįĬ
ĠáĪĪáĪķ áĭĿáī¥
áĬŃ áĪ½áĬķ
áĬĵ áīħ
ĠáĭµáĬķ áĬ³áĬķ
Ġáĭ¨ áĮ¨áĪ¨áī³
áĪ«áĭĬ áī±
áĪģ áĬķáĪĿ
Ġáī°áĬĲáĪ³ áĪ½áĬĲáīµ
áĭ° áĬĿ
ĠáĪ³ áĮ¥áĬķ
ĠáĬłáĪµ áī³áĭĪáīĢ
Ġáĭ Ĵ
ĠáĬ¥áĬķ áī£
ĠáĪĽáĭ³ áĪĺáĮ¥
áĮĪáĪĪ áĮ½
ĠáīµáĪ« áĪĿáįķ
Ġáĭ¨áĭĪ áĪ²áī¥
Ġáī°áĮł áĬķáīĢ
ĠáĮłáĪĭ áī¶áī½
ĠáĬ¥ áĮ©
áĮĭ áī£
Ġáī¥ áĪµáĬŃáĪĮáīµ
Ġáĭĺ áĪ¨
ĠáĮĪáĮ½ áī³áĭİáī½
ĠáĬ¥áĮłáī¥ áīĥáĪĪáĪģ
ĠáīłáįĪ áĪ¨áĬķáĪ³áĭŃ
Ġáįĵ áĪµ
áĬĲáįĥáįĢ áĪŃ
3 6
ĠáĬ¥áĬķ áĪĺáĪĪáĬ¨áī³
áĬ¨ áĪµ
ĠáĬłáĪŃ áĪ¶
Ġáĭ¨áĪļ áĪ¨áĭ³
ĠáĬķáĮīáĪ¡ áĪĿ
Ġáĭ° áĪŃáĮį
Ġáĭ° áĪĺáĬĵ
áĭ° áĬŀáī½
áī¦ áī¹
áĪĭ áĪ´
áĮį áĭµ
áĪī áĬĿ
ĠáĪµáĪ« áĭįáĬķ
ĠáĬĲ áīħ
áĭ¨ áĭįáĪĿ
ĠáĪĪáĪĺ áĮ¨áĪ¨áĪ»
ĠáĭŃáĮł áĪ«áĪį
Ġáī£áīµ áĪª
áī´ áĪĿ
ĠáĮ¤ áĬķáĬĲáīµ
áī° áĪ®áī½
Ġáĭ« áĭ©
Ġáĭ« áĬŃáĪį
Ġáĭ¨áī° áĮĪáĬĲ
áĭĪáĭ° áĭµ
ĠáĪĲ áĪĿáĪĮ
ĠáīµáįĪáĪįáĮĭ áĪĪáĪħ
ĠáĬ¥ áĮĨáī½
ĠáĪĽáĮ£ áĪªáĭ«
ĠáĬłáĪħ áĪĺáĭµ
ĠáĬ¥áĬķáĭ°áĪĨáĬķ áĬ©
ĠáĭĵáĭŃ áĬĸ
eb ook
áĬ® áĭĿ
Ġáī¥ áĬĵ
ĠáĪĺáĪµáĪĺ áĪ®áī½
áĬķáĭ Ļ
ĠáĪĪáĬ¥ áĪµáĪ«áĬ¤áĪį
áįĪáĪĪáĮĪ áĭįáĬķ
ĠáĪĺ áĭ«áĭ£
Ġáĭ¨áī° áĬĵáĮĪáĪ¨áĭį
ĠáĮ¥áīħ áĪį
Ġáīµ áĭįáĪį
ĠáīłáĮį áĪĮ
ĠáĪĪáĪĽ áĮ£
áĮłáī£ áīłáīħ
áĭĳ áĪį
ĠáĬ¨áĪĽ áĬķ
Ġáĭ¨áĪĥ áĭŃáĪĽáĬĸáīµ
áĭĪ áĬķáĭµ
áī¢ áĪ²
ĠáĬł áĮ½
áīł áĪħ
áĬ¨áĬķ áī±
ĠC h
áĭ« áī°
ĠáĪĺáĪĿáĪħ áĪ«áĬķ
ĠáĬłáĪĪ áīĨáī½
ĠáĪĻ áĪ½
ĠáĪĺ áīĢáĪĺáĮ¥
Ġáĭ« áī¥áĪ«
ĠáĬłáĭ³ áĪ«áĪ½
ĠáĪĺáĮ¸ áĪĪáĭŃ
ĠáĭŃ áĭ°áĪ°áī±
áī¿ áĬķ
Ġáīł áĪ¦áĪµáīµ
Ġáĭ¨áĪĮ áĪĪ
áĬ¥ áĬĲáĭļáĭ«
Ġáĭ° áĪ´áī¶áī½
ĠáĮĬáĭľ áĬķ
ĠáĬ¥áĭ¨áī° áĬ«áĪĦáĭ°
ĠáĪĽáĬŃ áĪ°áĬŀ
ĠáĮłáīĢáĪľ áī³
áī¶ áī»áī½áĪģ
Ġáīłáī° áĪ«
ĠáĪĽáĪħ áīłáĪ¨
ĠáĬ¨ áĪ©
Ġáĭ¨áīµáĪ« áĬķáĪµáįĸáĪŃáīµ
ĠáĬ¥áĬĲáĭļáĪħ áĪĿ
ĠáĪĪáĪĺáĬŃ áįĪáīµ
áįĪ áī»
Ġáĭ¨áīł áĪĪ
áĬ¨áī£ áĬ¨
ĠáĬ¨ áĪ¥áĪ«
h t
ĠáīłáĭļáĪħ áī½
ĠáĮĭ áĪ«
Ġáįį áīº
Ġáĭį áĪ°áĭµ
áĭ°áĪŃáĮĭ áī¸áĭį
ĠT ag
Ġáĭ¨áī° áĪłáĪ«
ĠáīłáīĢ áĪµ
áĪ« áĪ±
Ġáĭ¨ áĮĢáĪĺáĪ¨áĭį
ĠáĪĲ áĬªáĪĿ
Ġáįĵ áĭį
Ġáĭ¨áĭŃ áĪĪáįį
áĬ¨áī£ áĭµ
áĬ« áī¾áī½
Ġáī³ áĭµáĭ«
Ġáĭ¨áĮĪ áī¢
áīĢ áīłáĪĭ
ĠáĪ¦ áĪµáī°áĬĽáĭį
ĠáĬ¥áĬķáĮłáī¥ áīĥáĪĪáĬķ
ĠáĪĺ áĬĸáĪ©
áīħáĭµ áĪĿ
ĠáĬ« áįĴ
Ġáĭĺáįį áĮ¥áĪ¨áīµ
ĠáĪ¥ áĪįáĮłáĬĵ
ĠáĪŀ áīµáĬķ
áĭ°áĪŃáĮĪ áĭįáĬķ
Ġáĭ¨ áĪŃ
ĠáĭµáĪŃ áĮ£áī¢áĭ«
áĮĭ áĬķáĭ³
áĭĿ áĬĲáĪµ
ĠáĮį áĪŃáĪĽ
ĠáīłáĬĥ áĪĭ
áĭ° áĪĪáĭį
ĠáīłáĬł áĮĪáĪ«áī½áĬķ
ĠáĮ¥áīħ áĪµ
ĠáĬĲáĮĪáĪ¥ áī³áīµ
áĭĭ áĪĭ
ĠáĬ¥áĬķáĭ³ áĪµ
áĮ¥ áīłáī¥
Ġáīħ áĮĤ
ĠáĪĿáĬŃ áīµáĪį
ĠáĭĵáĭŃ áĬĲáī±áĬķ
ĠáĭŃáĭĪ áĪŃ
ĠáĪĿ áĪ³
áĬķáĭ° áīħ
áīĢ áĪī
ĠáĬ¨áĪĿ áĬķáĪĿ
ĠáīłáĪĺ áĮįáĪĪ
áĪ Ĵ
ĠáĬķáĮ¹ áĪķ
áī° áĮĪ
áį ĳ
ĠáĬłáĭŃ áī°áĭį
Ġáī£áĪªáĭ« áĭİáī½
Ġáĭ¨áįĭ áĭŃáĬĵáĬķáĪµ
ĠáĬ¥áĭ«áĬķáĭ³áĬķáĭ³ áī¸áĭį
ĠáĪĬáĭ« áĪ³
áĮłáīħ áĪĭáĭŃ
Ġáĭ¨áĪļ áĮłáīłáīħ
ĠáĮĪ áĭµ
Ġáĭ¨áĮĮáī³ áĬķ
Ġáĭ¨áī° áĭ°
áīĢ áī¶áī½
ĠáĬłáĭŃ áĮĪáĬĿáĪĿ
ĠáĬ¥áĭ¨ áĪĺáĮ£
áĮĪáĪį áĮ½
áĭ°áĪ¨áĮĪ áĪĿ
áĬŃ áĪĭáĪį
ĠáĬłáĪįáĬĲáīłáĪ¨ áĭįáĪĿ
áĮ½áĪĲ áįī
ar d
Ġáī° áĮĪáĭµ
ĠáīĢ áĪĪáĪį
áĬ¥ áĪĿ
áī¦ áī³áĭį
Ġáīħ áĭ°áĪĿ
ĠáĪ³áĭŃ áĬķáĪ³áĭĬ
Ġáī° áĮĪáĬĵáĬĿ
áĬ® áĬķ
Ġáĭ¨áĪĺáĬķ áįĪáĪµ
ĠáĮ ¢
ĠáĭĺáĪŃ áįİáī½
ĠáĬ¥áĬķáĭ³ áĪĭ
q u
ĠáĪĪáĪĽ áĪµáī°áĬ«áĬ¨áĪį
Ġáī°áĪµáįĭ áĭ¬
áĬķáīĢáĪ³áīĢ áĪ±
Ġáĭ¨ áĪ°áĪĽáĭŃ
ĠáĪĽáĪĪ áĭ³
ĠáīłáĮī áĭ³áĭ©
ĠáīłáĬ¥áĭį áĬĲáī°áĬĽ
áīł áĬĵáĪį
áī£ áĬ¤
ĠáĮĪ áĭĽ
ĠáĬłáĪµáīĢáĭµ áĪĺáĭį
ĠáīłáĪį áĭ©
Ġáī¥áĪ© áĪħ
Ġáĭ« áĭ°áĪŃ
Ġáī¸ áĪŃ
ĠáĪª áįĲ
ĠáĬ¥áĬķáĭ° áĭĽ
ĠáĬłáī¥ áĪ¨
ĠáĭŃ áĪĽ
Ġáī£áĬķ áĬ®áī½
ĠáĪĺáĮł áĭŃáīħ
Ġáī¥ áĪµ
áĬĴ áĪįáĬŃ
áĭ³ áī½áĬķ
ĠáīłáĪĮ áĪĬáīµ
ĠáĬĲáīłáĪ¨ áī¥áĬĿ
áĭĺ áĭĻ
Ġáĭ¨áĮį áĪĭáĭĬáĬĲáīµ
ĠáĬ¨áĪ° áĭĵáīµ
áĬ¨áįį áĪį
ĠáĪ°áĪĪ áī£
áĪ³ áĪĿáĬķáī±
i p
Ġ of
. "
Ġáĭµ áĬķáĮįáĪį
ĠáĬłáĮįáĬĿ áī°áĭĭáĪį
ĠáĪĺáĬĲ áĪ³áīµ
ĠáīłáĪĺáĪł áĪ¨áī±
ĠáĬ¥áĬķáĪĺáĪĪáĬ¨áī³ áĪĪáĬķ
ĠáĪĪáĪĺ áĪ¸
ĠáĮĪ áī¡
ĠáĬĲáĮĪáĪŃ áĬķ
ĠáĬłáĪį áĭĪ
ĠáĭĺáĪĺ áĬĵáīµ
ĠáĪĿáīµ áĬ¬
ĠáĬł áĭķáĪĿáĪ®
áĬ¤ áįį
Ġ on
áĪŁ áĪī
áĪĨáĬĵ áī½áĪģ
ĠáĬ¨ áĪ¨
Ġáīł áĮįáĪ«
Ġáī°áĮłáīĥáĪļ áĭį
áīĤ áī±
áĭµ áĭĭ
Ġáĭ¨áĬ¥ áĬķáĮįáĪĬáĭĿáĬĽ
ĠáĭľáĬĵ áĭİáī½
ĠáĪĪ áĬķáĮįáĭµ
áĮ¸áĪį áĭŃ
ĠáĬłáĭŃ áĬĲáī±
ĠáīłáĬ ª
ĠáĬ¥áĬĵáĬķáī° áĬķ
Ġâ Ĺ
ĠáĪĬ áĬĸáĪ«áī¸áĭį
ĠáĭŃ áĭĭ
ĠáĬ¨ áĪ±
ĠáĪĺáĭµáĪ¨ áĬ®áī½
áĬ® áĪ«
ĠáĬłáĪĭ áĪħáĪĿ
áĭį áĮ£
Ġáī³ áĭ¨
Ġáĭ¨áĪĽ áĭįáīĢáĭį
Ġáīł áĮĮ
Ġáĭ¨áįĮ áĪµáī¡áĬŃ
Ġ200 7
Ġáĭ¨áī¡ áĭµáĬķ
ĠáĬłáĮĪ áĪ«áī½áĬķ
ĠáĬ¨ áĪŃ
ĠáĬ¥ áĮĦ
Ġáĭ¨áī° áĪĭ
ĠáĬ¥áĭļáĭ« áĪĿ
ĠáĪĭ áĬķáī°
ĠáĬ¤ áī½
áī¥ áĪĿ
ĠáĪĿáĪµ áĮ¢
áī¹ áĪħ
Ġáĭ«áĪµ áĭĪáĮį
ĠáĮīáī£ áĭĶ
áīĨ áĮłáĪ©
Ġáī° áĪĺáĮ£áĮ£áĬĿ
áĭ· áī¸áĭį
Ġáįķ áĪª
áĪĪáĮł áįį
Ġáĭ¨áĪ° áĭİáī½
Ġáĭ¨ áĪī
Ġáĭĺ áĪĪ
ĠáĪ± áīħ
ĠáĪ´ áī¶áī½áĬķ
Ġáĭ« áĪĭáīµ
ĠáĮĪ áĭ³áĭŃ
ĠáĪĪáĭŃ áī¶
ĠáīłáĪĺ áĮł
áĪĦáĭµ áĪĿ
ac ebook
áĮŃ áĬķ
ĠáĬ¥áĪµáĪ« áĬ¤áĪĭáĭįáĭ«áĬķ
áįĢ áĪĺ
áĭķ áĪĪáī±
ĠáĪĺáĭĿ áĪĻ
Ġáī°áįħ áĬ¥áĬĸ
Ġ :
Ġáĭ¨ áīĥ
Ġáĭ¨áī°áįĪ áĮłáĪ¨áĭį
ĠáĮĭáĭľ áĮłáĬŀáī½
ĠáĮłáįį áī·áĪį
ĠáĪĪáĪĺáĪĪ áĭ¨áīµ
Ġáĭ¨áĪĽ áĭķ
ĠáĮİ áīłáĭĿ
ĠáĪĪ áīłáĪŃáĬ«áī³
Ġáĭ¨áĪĿáĪµ áĬŃáĪŃ
ĠáĬ¨áĭļáĭ« áĬķ
áĭ ł
áĬĲáĮĭ áĮĪ
ĠáĬłáĬķ áīłáĪ³
ĠáĪ¥ áĪįáĮ£
áĪĿáįĴ áĬŃ
áĭ¶ áĪĿ
áĮłáĪ« áĮłáĪŃ
áĪĥ áĪĿ
ĠáĬ¨áįįáī°áĬĽ áĭį
ĠáĪĺ áīħáĪ¨áī¥
ĠáĪĽ áĪĿáĪ¨áīµ
áī¥áĭĽ áĪĿ
áĪĬáĭ« áĪĿ
ĠáĬł áĪĮ
áĮĪ áĪĺáīµ
áĭŃ áĪĦ
Ġáĭ¨áįį áĪĪáĮĭ
áī¤ áī¶áī½
Ġáĭ«áĪĪ áĪħ
ĠáĬ¨áĭĪ áĬķáĭµ
Ġáĭ¨áĭµ áĪ®
Ġáĭ¨áĪĺ áĪ°áĪĪ
ĠáĪ¨ áĭ³
ĠáĬķáĮī áĪµ
áĪĺ áĪħ
Ġáīł áįķáĪ®
áĪĿ áīµ
ĠáĬłáĭŃ áĪ°áĪĽ
ĠáĮĪáī¥ áī·áĪį
Ġáīµáĭį áĪµáī³
ĠáĪĽ áĪĽ
ĠáĭŃáī³áĭĪ áĪ³áĪį
ĠáĭŃ áĬ¨áī°
Ġáįį áĪį
áĮłáįĭ áĪĿ
ĠáĪĺáĪĺ áĮĪáī¥
ĠáĬł áĬĵáīµ
Ġáĭ¨áĬł áĮĪ
p t
ĠáĪĭ áĬ¨
áĭĪáĮ£ áĪī
Ġáī°áĮĭ áĪĭáĮŃ
Ġáīł áĭ±
áĭŃ áĬķáīµ
ĠáĪĺáĪĨáĬĳ áĬķáĪĿ
ĠáĭŃáīĢ áĪ«áĪį
ĠáĪ°áī¥ áĭĵáĭĬ
ĠáĭŃáĮĢáĪĿ áĪ©
Ġáĭ¨áĪĺ áĪĭ
áīł áĮ£áĪĿ
ĠáĬłáĪĭ áĪħáĬķ
ĠâĨ Ĵ
Ġáī± áĪªáĭĿáĪĿ
ĠáĬ¨ áĭĪáĮ£
ĠáĬłáĭŃ áįĪáĪįáĮīáĪĿ
ĠáĬ¨ áĪĲ
ĠáĬ¥áĬķáĭ° áĪĺáĮ£
ĠáĪĻáĪµáĪĬ áĪŀáī½
u c
áĪĮ áī¶áī½
Ġáĭ¨áīĨ áĭ³
Ġáĭ« áĪĺáĮ£
ĠáĬ¢ áĪħáĬłáĭ´áĮį
ĠáĬłáĬķ áĮĪ
ĠáīłáĮį áĬķ
ĠáĪĪáĪĽ áĮĪáĪįáĮĪáĪį
ĠáĪ« áĭķáĭŃ
Ġáī° áĮĢáĪĺáĪ¨
áĮł áĮ¡
ĠáĪ³ áĭ«áĪµ
Ġáĭ¨ áī«
ĠáĭŃ áĪĺáĪ«
Ġáĭ« áĪĭáī½áĪģ
Ġáĭ¨áī° áĭ«áĭ«áĭĻ
ĠáĬł áĪŃáīµ
ĠáĬ¨ áĪĪ
áĪį áįī
ĠáĪµáĪŃáĭĵ áī¶áī½
ĠáĬ¨áĬł áĪľáĪªáĬ«
ĠáĭĪ áįį
áĮĪ áĮĥ
Ġáįį áįģáĪĿ
1 00
Ġáĭ¨áĪĨáĬĳ áīµáĬķ
ĠA m
ĠáĭŃáĪ°áĪ« áĪī
Ġáīł áĬķáĮįáĭµ
áĭµ áĮī
ĠáĪĪ áĬĽ
áĬĲ áī´áĬķ
áĪĿ áī¥
áĬ¨áī£áī¢ áĭį
ĠáĬłáĪįáī°áĮĪáĬĺ áĪĿ
áĮ« áĭĬ
áĪĺáĪĪáĬ¨áī± áīµ
áĬŃáĪĮ áĪŃ
áĮ¸ áĭį
Ġáĭ¨áĪį áĭ°áīµ
ĠáĪĪáĪĺ áĮ¥
Ġáĭ¨áīł áĭĵ
Ġáĭ«áĪµ áī¡
3 7
Ġáĭ« áĭ°áĪŃáĮį
ĠáĬ¥áĪ« áĪ³áī¸áĭįáĬķ
Ġáīµ áĪµ
Ġáīł áĭļ
ĠáĬķáĮ¹ áĪħ
áīĥ áĪĪáī½
Ġáĭ¨áĬł áĪŃ
ĠáĭŃáĪĺáĪµ áĪĭáĪī
ĠáįĭáĭŃ áĭ³
áįĪ áīħ
Ġáĭ¨áĬ¥ áĪĿáĬĲáīµ
áĪµáīµ áĬķ
ĠáĬ¥áĬķáĭ² áī³
Ġáĭ¨áīµ áĮįáĪ«áĭŃ
ĠáĪĺáĮ£ áĮ¥
ĠáīłáīĢ áĮ£áĭ©
Ġáĭ¨áī° áĬĲ
Ġ9 9
Ġáĭ¨áī´ áĪĮáīªáĭ¥áĬķ
ĠáĪĺáĪĺ áĭĿáĮĪáī¥
ĠáĪĪáĪĽáĪµ áīĢáĪĺáĮ¥
ĠáĬłáĪ« áī°áĬĽ
áĬĲ áī³áī½áĬķáĬķ
ĠáĬ¥áĬķáĭ³áĭŃ áĪĨáĬķ
ĠáĪĨáĬĲ áī½
ew s
Ġáĭ¨áĪļ áĭĪáĭµ
áĭµ áĮĪáīµ
áĪ°áĪ« áĮ¨áīµ
ĠáĬłáĪĽ áĬŀáī½
áĪ° áīĥ
ĠáīµáĪĭ áĬķáīµ
n t
Ġáĭ¨áĪĿ áī½áĪĪáĭį
Ġáĭ¨áĭĪáĬķ áĮĢáĪį
ĠáĪĺ áī£
ĠáĪĽ áĭµ
áĮĪáĪĿ áĮĪáĪĿ
ĠáĬłáĬ³ áĭ«
ĠáĬł áĪ°áī¥áĬ©
áĮł áīħáĪĿ
Ġáĭ¨áĪĺ áĭµ
áĪĺáĪ¨ áĮ¥
ĠáĮĪáĪĪáĪį áī°áĬĽ
áĪģ áīłáīµ
Ġáĭ« áĭ«áĪī
Ġáĭ«áĪįáī°áĪĪáĪĺ áĭ°
ĠáĬ¨ áĬĽ
áĮł áįį
ĠáĮĵáĭ°áĬŀ áī¼
ĠáĬłáĭ«áĪµáįĪáĪįáĮį áĭİáīµáĪĿ
ĠáįįáĮ¡ áĪŃ
Ġáīł áĬŃáĪįáĪī
ĠáĪģ áĬĳ
ĠáįĪáĮĪáĮį áī³
áĭ³áĬķ áī±
ĠáĪĺáĬķáĮįáĪ¥ áī±
ĠáĬĲáī¢áĭ« áīµ
áĮłáī¥ áīĢáĭį
ĠáīµáĬ© áĪµ
Ġáĭ¨áīĢáĪ¨ áīłáĭį
ĠáĪĺ áĮłáīĢ
áĪ« áĪĪáĪħ
ĠáĮ£ áĭķáĪĿ
ĠáĪ°áĮ¥ áī°áĭĭáĪį
ĠáĬĲáĮĪ áĪ¨
ĠáĭŃ áĪĺáĪ°
áĭ°áĪ¨ áĪµ
ĠáĪķ áĪįáĪĿ
áīł áī³áĪĪáĪģ
áĪµáī°áĭĭ áĭĪáīħ
ĠáĪĺ áĪŀáīµ
áįĪáĪ« áĪĿ
áĬł áĪŃ
Ġáĭ¨áĪĺ áĮĪáĬĵáĬĽ
áī² áīª
ĠáĪŀ áī£áĭŃáĪį
áĬķ áī¶
áĪ¨ áīĥ
ĠáīłáīĢ áĬĿ
Ġáĭ©áĬĴáī¨áĪŃáĪ²áī² áĭİáī½
ĠáĮĪ áĭ³
ĠáĬ¨ áĭĽáĪ¬
ĠáĪŀ áĮĪáĪµ
ĠáĪįáĮĨ áī¼
ĠáĬłáĪĿ áĮ¥
ĠáĮ½áĪĳ áįİáī½
Ġáĭ¨áĬĲáīłáĪ© áīµáĬķ
ĠáĪĦ áĮĦ
ĠáĬ¨ áīģ
Ġáĭ¨áĪļáĬ¨áī° áĪĪáĭį
áīĢáĪĺ áĮł
ĠáĪĺ áĪĺáĪŃáĪĺáĪŃ
ĠáĪĪáĪĺáĬŃ áįĪáĪį
áĬł áĪµ
áĭĭ áĪ³
ĠáĪĪáĪĽ áĮĪáĭĿ
áĬ¨áī³áī° áĪī
ĠáĮ» áĭµáīħ
ĠáĭŃáĭŃ áĭĽáĪį
áī· áī¸áĭĭáĪį
áī° áĪĥáĪį
ĠáĭŃ áĭµ
Ġáī³ áĬŃáĪ²
ĠáĪĪ áĪĿáĪŃ
Ġáĭ«áĪ³ áĭį
áĭ° áįĪ
ĠáīħáĪŃ áįħ
ĠáīłáĪĢ áĮĪáĪªáī±
Ġáįįáīµ áĪĥáĭĬ
áĬķ áīģ
ĠáĭŃ áĪĪáĬĵáĪį
áĭĪ áīµ
ĠáĪ´ áĪ«
áĪªáī³ áĬķáĭ«
Ġ k
Ġáĭ¨ áįķáĪ¬
áĬķ áįĪ
ĠáĪĬ áĪ°áĮ¥
Ġáī¥áĭĻ áĪĥáĬķ
áĬ¥ áĪ±
ĠáĬłáĪ³ áĪµ
ĠáĬ¥ áĮĪáĪĿ
áĪŀáĬŃ áĪ©
Ġ4 3
ĠáĪĺ áĬĵáįį
áĭ² áĬķ
< /
áĮĭ áĪī
ĠáĪĺ áĭ°áĪĿ
áĬ¬ áī¶áī½
ĠáĪĪáĪĽáĭį áĪ¨áĭµ
áĬĲ áī·
ĠáĮ¥áĪ© áĭį
ĠáĬ¥áĬķáĭ°áĪļáĭ« áĪ³
ĠáĬ¥áĬķ áĪ°áĪ«
ĠáĪĽáĪ« áĬª
áĭĭáĪŃ áĭ«áĭį
áĭ«áĭĺ áĭį
áĮ¤ áĬķ
ĠáĬ¨áĪį áĮħ
ĠáĮł áĬķáīħ
ĠáĪĪáĪĮ áĪĭáĭį
ĠáīłáĪļ áĪĬáĭ®áĬķ
ĠáĪĽ áīłáĪ¨áī³
Ġáĭ¨áĪĺ áĬĸáĪŃ
ĠáĪħ áĬķáįĥ
ĠáĪĽáĮ¥ áĬĵáīµ
Ġáīł áĮĬáĭľáĭį
Ġáĭ¨áĪļáĪĨáĬĲ áĭįáĬķ
áĪĺáĪį áĬ«áĪĿ
ĠáĪµ áīĥáĭŃ
ĠáīłáĬł áīħ
áĪ³ áĪ³
áįĪáĮ¸ áĪĻ
ĠáĬłáĪįáĪĨáĬĲ áĪĿ
áĬĽ áĭİáī¹
ĠáĬ¥áĬķáĭ² áī½áĪī
ĠáįįáīħáĪŃ áĬķ
ĠáĪĺáīĥ áī¥áĪŃ
áįį áī¶
ĠáĮ¥ áĮį
ĠáĮĬáĭľ áĭ«áĭĬ
Ġáīłáĭį áĪĥ
ĠáĪĥ áĪĭáįĬ
ĠáĪ° áĪİ
ĠáĬĵ áĭŃ
ĠáīłáĪļ áĮĪáĬĺáĭį
ĠáįĬ áĭ°áĪį
áĭĪ áĭ±
áĬĵ áī´
Ġáī£ áĬķáĭµ
ĠáĬ¥ áĭĪáĭµ
áĬ¥áĪŃáĪ± áĪĿ
ĠáĪ° áīłáī¥
áĮ¨ áĪŃáĪµ
ĠáĬ« áĪħáĬĵ
Ġáĭ¨áĬ¥ áĬķáĮįáĪĬáĭĿ
áĬķáī° áĬĵ
ĠApp le
ĠáĪ³áĭŃ áīĨáĭŃ
Ġâ ľ
ĠáĬ¥áĭ« áĭ°áĪ¨áĮį
áĬĵáĮĪáĪ¨ áĭįáĬķ
Ġáīµ áĭĬáī°áĪŃ
áĪĭáĪĪ áįĪ
ĠáīłáĪĽ áīħáĪ¨áī¥
ĠáĬ¨ áĪ¥
áĪĭáĪĪ áįĬáĭ«
Ġáīł áĬĲáīłáĪ¨áĭį
áĮĪáĬĺ áĭįáĬķ
Ġáī° áĭĽáĪĽ
Ġáīµáĭķ áĮį
ĠáĪģáĬĶáī³ áĭįáĬķ
ĠáĪĺ áīł
áĪĽáĪŃ áĬĽ
ĠáĭŃáĪĺáĪĪáĬ¨ áī³áĪį
ĠáĬ¥áĪŃ áĬ«áī³
Ġáįİáī¶ áĭİáī½áĬķ
ĠáĭŃ áī¥
Ġáī° áĮį
ĠáĪĽ áĮ¨
Ġáī³ áĭ³áĪļ
ĠáĬ¨áĭĽ áĪĿ
Ġáĭ¨áĭ°áĬķ áīłáĬĽ
áĪ® áī¹áĬķ
áī· áī¸áĭį
áī´ áĪį
Ġ> >
Ġáĭķ áīħ
áĬķáĭ³ áīµ
áĮĭ áī¥
ĠáĪ© áĮ«
ĠáĪĪ áĭµ
ĠáĪĺáĬķáĮį áĪµáī±
áĬķáĭ² áīµ
Ġáīµ áī¶
h ar
ĠáįķáĪ®áįĮ áĪ°áĪŃ
ĠáĪĮ áī£
Ġáĭ¨áī°áĮ£ áĪ«
áĬĴ áĬķ
ĠáĬłáīĢ áįī
ĠáĪĺáĭį áĭ°áĭµ
áĬķ áĮ£
Ġáĭĵ áĪĿ
áĪ« áĪ¨
ĠáīłáĪħ áĮį
ĠáĪ² áĬĸáĪŃ
ĠáĪĬáīĢ áĪĺáĬķ
ĠáĬ¨áĪĽ áĬķáĪĿ
ĠáīłáĪĿ áĭµáĪ¨
ĠáĬ¨áĪĿ áīµ
áĬ¥ áĬķáĭ²
ĠáĪµáĪ« áĭİáī½áĬķ
ĠáĪįáĭ© áĬĲáī¶áī½
ĠáĬł áĮĪáī£
Ġáĭ« áīĨ
Ġáĭ¨áī° áĪ¨áĮĭáĮĪáĮł
áĭ« áĬķáĭ³áĬķáĭ³
áīħ áīħ
ĠáĪĨáĬĲ áĪħ
áĬł áĪĿáĪĭáĬŃ
Ġáī£áĪĪ áįĪ
ĠáĬ¢ áĪľáĭŃáĪį
ĠáĪģáĬĶáī³ áĭİáī½áĬķ
ĠáĪĬ áĭ°áĪ¨áĮį
ĠáĪĽáĪ³ áĭ°áĮį
ĠáĪĻ áĭļ
ĠáĭŃáĭ°áĪŃ áĪ³áĪį
áĭ¨ áĪį
Ġáĭ¨áĪĺ áĭį
ĠáĪĽ áĪŁáĪĭáīµ
Ġáĭ¨ áįĴ
ĠáĬłáĪĿáĪ« áī¾áī½
ĠáĮĪ áĬĲáīµ
ĠáĭŃáĮł áįĭáĪį
ĠáīħáĪŃ áĮ½
Ġ ~
Ġ @
Ġáĭ¨ áĮĢáĪĺáĪŃ
ĠáĪĨ áĭµ
ĠáĬłáĪį áĬ©áīµ
áīĭ áĪŃáĮ¥
áĭĵ áĭĽ
Ġáĭ¨áĮį áĪĪ
áĭŃ áĭĻ
ĠáīłáĪĿáĪŃ áĮ«
ĠáīłáĪĺáī¶ áĭİáī½
áĪį áĪ½
Ġáī° áĭĵ
Ġáĭ¨áĪļáĮĪáĬĻ áīµ
ĠáĭŃ áĭ¤
ĠáĪĿáĪģ áĪ«áĬķ
w w
ĠáĬłáĪµáī° áĪĿ
ĠáĪµáĪľ áī³áĭĬ
ĠáĪĺáĪ³ áī°áįį
ĠáīłáīµáĬķ áĪ½
áĪ° áĪĿ
ĠáĪĿáĪŃáĮ« áĭİáī½
ĠáĬ¥ áĭļáĪģ
áĮ¥ áĪ¨áĭį
áĭ¬ áĭį
ĠáĪĭ áĪī
ĠáĬŃ áĪª
ĠáĪµáī¥áĪ°áī£ áĭİáī½
áīłáĪ¨áī³ áī³
ĠáĬ¥áĬĲáĪŃáĪ± áĬķ
ĠáĪĿáĬĵ áī£áĭĬ
áĬ¨ áĬĵáĭįáĬķ
Ġáĭ¨ áīª
ĠáĬ¥ áĮ£
ĠáĪ« áĬ¥áĭŃ
ĠáĪµáĪį áĬ®áī½
áĪĪ áĪĻ
Ġáīł áĪ´
áīĨ áĪ®
Ġáĭŀ áĪŃ
ĠáĬ¨áĮįáī¥ áįħ
áĬŃáī° áĪ®áī½
áĭĺ áĪ®
4 5
Ġáĭ¨áĬĲ áīł
Ġáĭ¨áĪĿ áĬķáĭĪ
áī¥ áĪİ
Ġáĭ°áĪ¨ áīħ
ĠáĪĻáĪ´ áĪĿ
Ġáĭ¨áĪļ áĭ°áĪŃáĪµ
a st
ĠáĬ¥áĬķáĭ² áīĢ
ĠáĬłáĭį áĪŃáĭµ
i k
áīĢ áĭ°áĭį
ĠáīłáĬ¥ áĬķáĭ°áĭļáĪħ
ĠáĪĥ áī¥áīµ
ĠáĪĢáī¥ áī¶áī½
Ġáī°áĮ½ áĬ¥áĬĸ
Ġáĭ¨áĪµ áĪŃ
áįĨ áī½
20 12
ĠáĪĺáĭ° áī¥
áĪ°áī£ áī½áĬķ
Ġáĭ«áĪµáī³áĭį áĪ±
ĠáĬłáĪµ áĪ¨áĭµ
ĠáĬ¨áĬ¢ áīµáĭ®áĮµáĭ«
áĮł áī¡
Ġáĭ¨áī° áĪ¨áĮĭáĮĭ
ĠáĬ¢áĬķáī¨áĪµáīµ áĪĺáĬķáīµ
ĠáĬ¥ áīµáĪĿ
Ġáĭ¨áĪļ áīĢáĮ¥áĪĪáĭį
ĠáįĪ áĪ³áĪ½
Ġáī°áĪ¸ áĬŃ
áĪ° áĪħ
ĠáĮĭ áĭĿ
ĠáĬ¨ áīĨ
Ġáīł áĪł
ĠáĪĪ áįĪ
Ġáĭ¨áĪļ áĭĺ
ĠáĬĵáī¸áĭį áĬĵ
Ġ4 1
ĠáĪĺáĪµ áĪ«
ĠáĬŃáįį áĪī
Ġáĭ³áĭŃáĪ¬ áĬŃáī°áĪŃ
ĠáĪĪáĪĺ áĮł
áĪµ áī±áĪĿ
áĬĲ áī¡
Ġáĭ¨áĭŃ áĪĸáĭĭ
áĬł áĭ«
Ġáīłáĭĵ áĪĭáīµ
áĬ¥ áĭļáĪħ
áīł áī±
ĠP ro
Ġáī°áīĢ áĪĺáĮł
ĠáĬ¥áĮĪáĪĿ áī³áĪĪáĪģ
ĠáĪµáĪŃáĭĵ áī±
ĠáĬ¥áĬķáĭ³áĪĪ áī¥áĬĿ
ĠáīłáĪķáĭŃáĭĪ áī´
ĠáĬ¢ áĪ³
ĠáīłáĪĽ áĭ«
ĠáĭŃáĮĪ áĪĺ
Ġáĭ¨áī° áīĢáĭ°
Ġáĭ¨áĪļ áĬĵáĮĪáĪŃ
Ġáĭ¨áĪļáĭĪ áĭ±
ĠáĪ° áĮŃ
re ss
áĪĪ áįī
ĠáĪ°áĪĽ áĪģ
Ġáī³ áĮĭ
ĠáĬłáĭµáĪ« áĮĬ
áĬ¨ áĪªáĭ«
Ġáĭ« áĬ«
ĠáĬ¤ áĪĮáĬŃáīµáĪªáĬŃ
áĪĺáĪŃ áĮ¡
Ġáĭ´áĪŀáĬŃáĪ«áĪ² áĭ«áĭĬ
ĠáĪĪáĪĺ áīĨáĭ¨áīµ
ĠáĪĺáĪ° áĬĵ
áĬĵ áĬĵ
ĠáĮįáĭĽ áī¶áī½
ĠáĬ¨ áįĢ
ĠáĪĪáĪĺ áĮ«áĬķ
ĠáĬłáĪµ áĬ¨áįĬ
áĮłáīĥ áĪĪáĭ«
Ġáĭ¨áĪĽáĭŃ áī½áĪī
ĠáĪĿáĪħ áĪ¨áīµ
áĬĻ áĬķ
áĪµáī¥ áĪĿ
Ġáĭ¨áįĪ áĮłáĪ¨
ĠáĬłáĪ°áĪįáĮ£ áĬĿ
ĠáĬ¥áĬķáĭ² áĪ°áĪĽ
ĠáĮĢ áĮį
ĠáĬ¥áĪĿ áī¥áĭĽáĪĿ
Ġáĭ¨áĪļáĭ«áĪµ áįĪáĪįáĮĪáĭį
ĠáīłáīµáĬķ áĪ¹
áĬ«áĪĦ áĭ±
ĠáĬ¦ áĪ®áĪŀ
ĠáīµáĪį áĪįáīħ
3 8
Ġáĭ¨áĬ¥áĪŃáĪ± áĬķ
ĠáĪĽ áĬĵáī¸áĭįáĪĿ
áĬ¥ áĬ®
áĬł áĭ²áĪµ
Ġáĭ¨áĭĪ áĪ¨
áĪĺáĪ° áĮį
Ġáī° áĬł
ĠáĬłáĬķáīº áĬķ
áī¬ áĪµáīµ
ĠáīłáĪĺáĪį áĬ«áĪĿ
ĠáĪ°áĭĵ áī¶áī½
Ġáĭ¨áĭ°áĬķ áīł
ĠáĭĿ áĭįáĭį
ĠáĮ£ áĪį
ĠáĪĪáĪĽ áĮłáĬĵáīĢáīħ
ĠáĮįáĭµ áĭ«
Ġáĭ¨ áīµáĬķ
Ġáĭ¨áī£áĪĪ áĪĻáĭ«
ĠáĪĽ áĭµáĪ¨áĪµ
ĠáĪĪáĪĺ áĬ¨áī³áī°áĪį
Ġáįħ áĪģáįį
ĠáĭĿáĪŃáĭ« áĭİáī½
Ġáī° áĪĪ
Ġáįį áĪ«áĬķ
Ġáĭ¨áĪļ áīłáĪįáĮ¥
áī£ áĪīáīµ
ĠáĬ¥áĬķ áĪĤáĭµ
ĠáĬłáĭµáĪŃ áĮĭ
ĠáĪªáįĲ áī¥áĪĬáĬŃ
áīł áĭ«áĭį
ĠáĬłáĪį áĬĲáīłáĪŃ
Ġáĭ«áĪ¨áĮĭáĮį áĮ£áĪį
ĠáĬł áĪł
ĠáĬ¨áĬł áĪĿáĪµáīµ
ĠáĪĪáĪģáĪĪ áī°áĬĽ
ĠáĬ¨áįį áī³
ĠáĪĪáĪķ áĭĿáī¡
áĬ«áī° áī±
ĠáĮ¥ áĪ«
áĬŀ áī»áī¸áĭį
ĠáĭŃáī½ áĪī
Ġáī¦ áĪŃáĪ³
ĠáĬ¥ áĪ¨
Ġáīł áĬĲáĭļáĪħ
ĠáįĪáī°áĬĵ áĭİáī½
Ġ" "
Ġáī°áī½ áĪıáĪį
ĠáĬ¤ áĪŃ
áī° áĬĲ
ĠáĬ¨ áĬĲáĪ±
ĠáĬ¥áĬķ áĪĭáĪĪáĬķ
ĠáĪĪáĪĺ áĪĺ
ĠáĬłáĪįáī»áĪį áĬķáĪĿ
ĠáīłáĪ¨ áĬ¨
ĠáĪĺáĬ® áĬķáĬķ
áĬŃ áĪĭ
ĠáĭĪ áĪĪáĪį
ĠáĬ¥áĬķáĭ° áĬĲáĭļáĪħ
Ġáĭ¨áĪļáĭ«áĪµ áįĪáĪįáĮį
S A
ĠáĬŃ áįĭáīµ
Ġáĭķ áĪĪ
áĪ® áĪļáĭ«
ĠáĪĪáĪĺ áĪ³áī°áįį
ĠáĮ£ áĪĬáĭ«áĬķ
ĠáĪĪáĪĺáīĢ áĭ¨áĪŃ
ic le
ĠáĪ¸ áĪĪáīĨ
ĠáĪĺáĪĿ áĪªáĭ«
áįį áĪī
ĠáĬłáīħáĪ«áī¢ áĭİáī½
áīĥ áĮł
ĠáĬ¥ áĮĨ
Ġáĭ«áĪµ áĪ¨áĭ³
ĠáĪ°áĪĭ áĪĿáĬķ
áĪ¾ áī½áĬķ
ĠáīµáĪĭ áĪĪáī½
Ġáĭ¨áĪĪ áĪ½
ĠáīłáĭĿ áĮį
ĠáĬłáĮłáīĥ áīĢ
ĠáĪĪ áī£áĪĪ
ĠáĪį áī¦áĬĵ
Ġáĭ¨áī° áĪĽáĪª
ĠáĪį áĭ°áīµ
ĠáĬłáĬŃáī¥ áĪ®áīµ
ĠáĬ¨áī°áĪĽ áĭĭ
ĠáĮĪáĪįáįĢ áĭĭáĪį
ĠáĪĺ áĬķáĭ°
ĠáĭŃáĮĪáĪį áĮ»áĪį
ĠáĪĪáĭĵ áĪĺáī³áīµ
ĠáĬłáĪµ áī¤
ĠáīµáĪ« áįĬáĬŃ
áĭ° áĪĺ
ĠáĭŃ áĭ°áĭį
ĠáĬ¥áĬķáĭ°áĪĽ áĭ«
ĠáĬłáĪħ áĭ«
ĠáĬ¨ áĮĪáī£
ĠS t
ĠáĬ¨áĪĨáĬķ áĬŃ
áĬ© áĪ¨áīµ
Ġáīħ áĮ¥áĪŃ
ĠáĮ¥áīħ áĪ¶áī½
ĠáĭĪáĪ° áĭ°
ĠáĪĺáĮ½áĪĲ áįī
ĠáīģáĪ³áīģ áĪµ
ĠáĪŀáĭ´ áĪİáī½
ĠáĬłáĪ³ áĭį
áĮ£ áĪ«
ĠáĬłáĪį áīĨ
ĠáĬ«áĪĪ áįĪáĭį
ĠáīłáĮ¸ áĪİáīµ
Ġáĭ¨ áī¥áĪ¨áīµ
ĠáīłáĪĽ áĪħ
ĠáĬ¨ áĪ¦áĪµáīµ
r y
Ġáīµ áĮįáĪ¬
Ġáī¥áĭĻ áĭİáī»áī½áĬķ
Ġáĭ« áĪ¸
ĠáĮłáī¥ áīĨ
áĬķáĭµ áĪŃ
ĠáīłáĪĢ áĮĪáĪ«áī½áĬķ
ĠáĬł áĪ¨áī¥
ĠáĪĽ áĭ¶
Ġáĭ¨áĪĪáī¥ áĭİáīµáĪĿ
Ġáī³áĪª áĬ©
ĠáĭĪáĭµ áĮĦ
áĮİ áĭ±
áĪħ áī°áīµ
áĮĢ áĭį
ĠáĪ½áĪĽáĮįáĪĮ áĭİáī½
ĠáīłáĪĺ áĪĺáĪŃ
áĭ° áĭįáĬķ
ĠáĭŃáĬĸ áĪ«áī¸áĭĭáĪį
ĠáĭĪáĪ¨ áĭ°
Ġáĭ¨áĭ© áĬĵáĭŃáīµáĭµ
Ġáĭį áĪ¾áī½
Ġáĭ¨áĪģáĪĪ áī°áĬĽ
ĠáĪĪáĪĺ áĭ°áĮĪáįį
ĠáīłáĬ¥ áĮģ
ĠáĬ¥áĬĵ áī¶áī½
Ġáī¥ áĪī
áĬķáĮį áĪĬ
Ġáĭ¨áīµ áĬŀáī¹
Ġáī°áĮ« áĭį
Ġáīłáĭ¨ áĪ³áĪĿáĬķáī±
ĠáĬ¥áĬķáĭ³áĪį áī°
Ġáĭ¨áī¥ áĭµáĪŃ
ĠáĬ¥áĬķáĭ² áĭ«áĭį
Ġáĭµ áĬŃ
ĠáĪµ áįĭáīµ
Ġáĭ¨áĪĺ áĪĪ
áĭ¬ áĪĿ
áīĢ áĪĪ
ĠáĪĽ áī´
e c
ĠáĬ¥áĬķáĭ°áĪļ áįĪáĪįáĮī
ĠáĭŃ áĪĭ
áĬ« áĬĿ
ĠáĪģ áĪĭáī½áĪģáĪĿ
ĠáĪĺáĪĺ áĭĺáĬĽ
áĬĭ áī½áĪģ
áĭ«áĭĿ áĭ«
Ġáīł áĪ´áī¶áī½
áįĭ áĪĪáĬķ
ĠáĬŃ áĬķáĭµ
Ġáĭ¨áĪļáĭ«áĪµ áįĪáĪįáĮī
áīĢ áīģ
ĠáĬ¤áĪį áĭ«áĪµ
áĪĥ áĪĪáĬķ
áĭµáĪ¨ áĬŃ
áĪµáī² áĬŃáĪµ
Ġáī°áīĢáĪĿ áĮ¦
ĠáĬłáĪŃ áī¥
ĠáĪĪáĪĽáĭį áĮ£áīµ
áīµ áĪªáĬŃ
Ġáī° áĪĺáĬķ
áĬĭ áīµ
ĠáĪ°áĪĽ áĭ«áīµ
ĠáīĢáĭ³ áĭ³
ĠáĮīáĭ³ áī¶áī½
Ġ4 9
áīĢáĪĺ áĮłáĭį
ĠáĭŃ áĪłáĪ«
Ġáĭ¨áĬ« áĪŃ
ĠáĪĪáĪĽ áĮ¥
ĠáĬŃáĪĿ áī½áīµ
áĭĭ áĬĵ
Ġáī°áĭĭ áĬĵáĭŃ
ĠáĭŃ áĪĪáĭĭáĪį
Ġáĭ¨áĬł áĪį
ĠáĬ« áĪĭáī¸áĭį
Ġáĭ¨áĭĪ áĪŃáīħ
Ġáīł áĪ¸
ĠáĬłáĪģáĬĳ áĬĳ
ĠáĪµ áĭĬ
áĪĪáĭį áĮ¡
ĠáĭŃáĬ ½
ĠáĬĲ áī¢áĭ©
Ġáīłáī° áĮĪ
ĠáĬłáĭŃáĭ° áĪĪáĪħáĪĿ
áĪĪáī½ áĭį
ĠáĬłáĪ³áĭŃ áī·áĪį
ĠáĪĪáĪ« áĪ´
ĠáĭĪ áĮ¡
ĠáīłáĪĽ áĪµáī°
áĪ¯ áĬķ
ĠáĬķáįģ áĪħ
Ġáĭ¨áĬł áĪĽ
ĠáįĬ áĭ°
ĠáĪĻáĪī áĭįáĬķ
ĠáĪįáĮĨ áī¹áĬķ
ĠáĬªáĬķáĮį áĭ°áĪĿ
ĠáĪĺáįį áĪ«áīµ
áĪĪ áĬŀáī½
ĠáĬ¨ áĪĺáĮ£
ĠáĪĪ áĪ¨
áĭĪ áĬķ
ĠáĮ¥ áĪĿáĪ¨áīµ
áĭĪ áĭ±áīµ
ĠáįĪ áīµ
ĠáĪĤáĭ° áī±áĬķ
ĠáĪĽáĪ³ áĪĪáįį
ĠáĬłáĪľáĪªáĬ« áĭĬ
F i
áī° áĪ«
áī£ áī³áĪį
ĠáĬłáĪµáī° áĭį
áĪĢ áĬķ
áĮİáīł áĬĻ
ĠáĪĪáĪĺ áĪ¸áĮ¥
ĠáĪĻ áĪµáĬĵ
ĠáĭķáĭµáĪľ áĭ«áī¸áĭį
Ġáĭ« áĭ³áĪĿ
ĠáĭŃáīĢáīł áĪĭáĪį
áĪĻ áĪī
ĠáĬ¨ áĭĪáĭ°
ĠáĪĪáĪĺ áĮĵáĭĿ
ĠáĭŃáĮłáī¥ áīĥáĪį
áĬļ áĪħ
ĠáĬłáĪ³ áĪĽ
ĠáĪ ¼
ĠáĬ¨ áĬłáī¥
Ġáīł áī¶
ĠáĮī áĪįáĪħ
ĠáĬ¨ áĬĲáīłáĪ¨áĭį
ĠáĬłáĭŃ áĪĺ
ĠáĪĺáĬķ áīĢáĪ³áīĢáĪµ
ĠáĬĵ áįį
Ġ200 6
Ġáĭ¨ áĪ³áĭŃáĬķáĪµ
Ġáī°áĮĭ áī¥
ĠáĪħ áī¥áĪ¨áī°áĪ°áī¡
Ġáĭ¨áī°áīĢáĪĺ áĮł
áĪº áĪħ
áĬ °
áĪį áĬĵ
Ġáĭ¨áĪļ áĭ²áĭ«
ĠáĪµáĪĪ áĮĢáĪĺáĪ©
Ġáĭĺ áĪĺáĭµ
áĬķ áī»
Ġáīłáī° áĪ³áĬ«
Ġáīł áįĭ
Ġáĭ¨áī° áĮĪáĬĺáĭį
ĠáĬłáĪµ áĮĪ
ĠáĪĺáĪŃ áĬ¨áī¥
áĭĪ áĮ«
Ġáĭ¨ áĪĪáĭįáĮ¥
áīĢ áĬĲ
áĪ« áĪĺáĭµ
áĮłáĬĵáīĢ áīģ
ĠáĭŃáĬĸáĪŃáī¥ áĭİáī³áĪį
ĠáĬĲ áĮĪáĭµ
ĠáĪĺáĪįáĭķ áĬŃáī¶áī½
ĠáĬ¥áĪŃáĪĿáĮĥ áĭİáī½áĬķ
Ġáī¥ áįģ
Ġáĭ¨áĪĽ áĪħáīłáĪ«áĭĬ
Ġáī º
Ġáĭĺ áĮ¸
ĠáīłáĪ« áĪ´
áĬ¥áĪµ áĬ¨
áĭĿ áĮįáī¥
ĠáĬ¨ áįĪáĪĪáĮį
Ġáĭ« áĪ¨
áī½áĪį áīłáīµ
ĠáĪĥáĮĪ áĪ«áīµ
ĠáĪĺ áĪĢáĪį
ĠáĬłáĪĭ áĪĿáĬķáĪĿ
ĠáĮ½ áĬķáĪ°
ĠáĬ¥áĭ« áĪįáĬķ
ĠáĭŃ áĮĪáĭµ
Ġáĭ« áįĪ
áĪ» áĭįáĬķ
áī¶ áĪĬáĬŃ
ĠáĪĺ áĮ£áĪį
ĠáĬ¨ áĬ«
áĭ³ áī¸áĭįáĬķ
ĠáĪĽáĪµáī°áĬ«áĬ¨ áĭ«
áĪ½ áĬķáĮįáī°áĬķ
Ġáī°áĪ½áĬ¨áĪŃ áĬ«áĪªáĭİáī½
áĮ ¼
áĬĵ áīĥ
áī¾ áī½áĬķ
Ġáĭ¨áĪħ áĬķáĭµ
ĠáĬ¦ áįĬ
áĮĪ áĬĺáīµ
Ġ19 6
ĠáĭŃáĮĪáī£ áĬĵáĪį
Ġáĭ«áĪĪ áįĪáĭį
áĬ£ áĬķ
ĠáĪħáĭĿ áī£áĭĬ
Ġáī³áĭŃ áī·áĪį
ĠáĪĤáĭ° áī¶áī½
ĠáĬ¨áĬ¥ áĪµáĪ«áĬ¤áĪį
ĠáĬ¥áĬķáĭĪ áĭ³áĪĪáĬķ
áĬķáĭ ŀ
áĪĭáĪĪ áĪĽáĭĬ
ĠáĬł áĪ¨áĮĭ
ĠáĬ¥áĬķ áĪ°áĮ£
áĬĲáĮĭ áĮįáĪ©
ĠáĬ¨áĬ¥áĬĲáĪŃáĪ± áĪĿ
Ġáĭ«áĮĪáĪĪáĮį áĪĭáĪį
áĭ¨ áĪħ
ĠáĭµáĪŃáĮĬ áī¶áī½
ĠáĬłáĭŃ áĪģáĭµ
ĠáīĢáĮ£áĭŃ áĬĲáīµ
Ġáī°áĮ«áĪ« áī¾áī½
ĠáĬ£ áĭŃ
Ġáĭ¨áĭµáĪĿ áĮ½
ĠáīłáĪĺáĪĺáĪŃ áĬ®áĭĿ
áĪ® áĪµ
ĠF acebook
Ġáĭ¨áī´áĬŃ áĬĴáĬŃ
ĠáĬ¥ áĪħáĪį
Ġáī°áĭĪ áĪį
ĠáĪ° áĮłáĭį
ĠáīłáĪļ áĪĺáĪĪáĬ¨áīµ
ĠáĪĪáī° áĮ¨áĪĽáĪª
ĠáĮĪáī¥ áī°áĭį
Ġáĭ¨ áĬ¨áįįáī°áĬĽ
ĠáīµáĪĨáĬĵ áĪĪáĪħ
áīµ áĬĲáīµ
ĠáĬłáīĢ áĪ¨áīł
ĠáĭĪáĭ° áįĬáīµáĪĿ
Ġáīł áĬĲáīłáĪ¨áīłáīµ
Ġáĭ¨áĪ°áī¥ áĬłáĭĬ
ĠáĬł áīĢáĪŃ
ĠáĪĺ áĮĪáĭ°
ĠM P
Ġáĭ¨ áĭĿ
ĠáĭŃáĪĺ áĬ¨áĪ«áĪį
Ġáīłáĭ¨ áĭĪáĪ©
ĠáĭŃáĬĲáĮĪ áĪ«áĪį
o b
ĠáĬłáĪįáī° áī»áĪĪáĪĿ
ĠáĬłáĪŃ áĪĽ
áĭĮ áĪŃ
Ġáĭ« áĪĺáĬĳ
Ġáī°áĪ« áĪ®áī½
ĠáĬ¨ áĮĮáī³
ĠáĪĺ áĭ³áĬķ
áĮĭ áĬĿ
ĠáĪĪ áĪĥ
áĪĪ áĮ¡
ĠáĪĺ áī»
áī¥ áĪ½
Ġáī¢ áī£áĪį
Ġáĭ¨áĪį áĮħáĬĲáīµ
áĪĪ áĭī
Ġáĭ¨áĪĿ áĬķáĭĽáĪ¬
áĪĺ áĪĺ
ĠáĬķáĮį áĮį
ĠáĭŃáĮł áīģ
ĠáĪķáĭŃáĭĪ áīµáĬķ
Ġáīłáĭ°áĪ¨ áĮĥ
ĠáĬ®áĪŃ áįĸ
ĠáĬłáĪĪ áī½áĭį
ĠáįįáĪįáĪµ áįįáĬĵ
Ġáī° áĮĪáĬĺ
ĠáĪħáĪį áĭįáĬĵ
ĠáĬ¥áĬķáĭ² áĬĸáĪ«áī¸áĭį
Ġáĭ¨áĪļ áĪ°áĪ«áĭį
ĠáĬłáĪµáī³áĭį áīĢáĭĭáĪį
Ġáĭ¨ áĬĭáĪĭ
Ġáĭ¨áĬł áĬķ
Ġáĭ¨áĬłáĪĿáĪĭáĬŃ áĬķ
ĠáĬłáĪĭáĭ¨áĪģ áĪĿ
áĬŃ áĪĪáĭį
Ġáī£áĪĪ áĪĽ
áĮĵ áĭ°áĬĽ
ĠáīµáĬķ áī¢
áīĤ áĭ«áĭį
Ġáĭ¨áĪ°áī¥ áĭĵáĭĬ
Ġáĭ¨áĪļáĭ« áĪ°
áĬĲ áĬĿáĬĲáīµ
áĬŃ áĪ«áĪĪáĪģ
ĠáĪĽ áĮĭáĪ«áīµ
ĠáĪļ áĬ«áĬ¤áĪį
ĠáĬłáĪµáįĪáĪĭáĮĬ áĭį
Ġáĭ«áĭį áīħ
ĠáĪĺáĪĿ áĮ£
Ġáĭµ áĬ«áĪĿ
áĮĭ áī½
ĠáĬłáĪį áĬĲáīł
ĠáĬł áĭ¶
ĠáĬ¥áĬķáĭ² áĪ°
ĠáĪ² áĮĪáī£
ĠáĭµáĬķ áĮĪáī°áĬĽ
Ġ x
ĠáĬłáĬķáĭµ áĭ¬
ĠáīłáĭŃáĬĲ áĪĺáĪ¨áī¥
áĪ« áĪ³áī¸áĭį
áĪª áīĥ
áīł áĬŃ
áĭİáī½ áĭİ
ĠáĪĺáĪ¨áĮĥ áĭį
ĠáįĪáĪĪ áĮį
Ġáĭ« áĮĪáĪĪ
áĭįáĬķ áĬĵ
ĠáĮĥ áįĵáĬķ
áĬŃ áĪİ
ĠáĪĿ áĭµáĪ¨
áĮĮ áĮ¥
áĪ« áĮħ
Ġáĭ¨áī° áĮł
ĠáĬł áĮ¨
ĠáĬ¥áĬķáĭ² áĬĸáĪ¨áĭį
ĠáĬŃ áĪŃáĪµáī¶áĪµáĬķ
áĪŃ áĬĵ
ĠáĮĪ áĬķáĭ³
Ġáĭ¨áĮ¥ áĪ«áīµ
Ġáĭ¨ áįĪáĪĪáĮī
Ġáī¤ áī³áī¸áĭį
áĭĿáĬĵ áĬĽ
ĠáĪĬáĭ«áĪµ áĬ¨áīµáĪį
ĠáĪĺ áī¸
áīł áī£
Ġáĭ¨áĪĢ áĮĪáĪªáī±
ĠáĭŃ áĪ¨
ĠáīłáĪĺáīĢ áĮłáĪį
Ġáī° áĪĪáĭį
Ġáī° áĮĪáĪĪáĮ¸
Ġáĭ«áĪµ áī½áĪĭ
ĠáĭŃ áĪĽáĪ©
ĠáĬłáĪµ áĬ¨
ĠáīłáĪ½ áī³áĭİáī½
Ġáī° áĪ¨
áī¢ áĭ«áĬķ
Ġáĭĺ áĭ³áĮįáĪĿ
ĠáĬ¤ áįį
Ġáī¢ áĭ«áĪµ
áī³áĭį áīħ
ĠáĬŃ áĭĪáĬĵ
ĠáīłáĪµ áĪĿ
ĠáĬłáĭµáĬĵ áīĨáīµ
Ġáĭ¨áĬ¥ áĪµ
ĠáĮłáįį áī¶
áĪ² áī£áĭĬ
ĠáĪĽáĬħ áīłáĪŃ
ĠáīłáĬĴ áĭį
ĠáĬ¥áĬķ áīĨáīħáĪį
ĠáĬłáĪµáī¸ áĬ³áĭŃ
áīĢáĭĿ áīĢ
ĠáīłáĪĺ áĪĨ
áĭ² áĭµ
ĠáĬłáĭįáī¶ áī¡áĪµ
Ġáĭ¨áĬł áī¥
ĠáįĪ áįħ
ĠáĪĽ áĭ°
Ġáĭįáĭµ áīħ
ĠáĬł áĪ²
Ġáīł áĪ®áī½
Ġáī°áĪĺáĪ« áĪĽáĪªáĭİáī½
ĠáĪĺ áĮĵáĮĵáĭ£
Ġáī£ áĪµ
ĠáĪĬ áī³áĭŃ
ĠáĭŃ áĬĳáĪŃ
ĠáĪĪ áī½
Ġáĭ¨áĪļ áĪµáī¥
ĠáīĢ áĬķáĪĿ
áīł áīł
áĪ° áī°áĬĽ
áĬŃ áĪ«áĪį
ĠáĬ¥ áĮģ
Ġáīµ áĪĿ
ĠáĪķ áĪĺáĪĿ
ĠáĪĿáĪ³áĪĮ áĭİáī½
ĠáĪĺ áĮ¨áĬĲáīħ
áĪ°áī£ áĪ°áī¥
áĮ« áīµ
ĠáĬłáīħáĪŃ áīłáĭĭáĪį
ĠáįĪáĪį áĮİ
ĠT he
ĠáĬłáĬķáī¥ áī¥
ĠáĬłáĪµáįĪ áĮ»áĪļ
ĠáĪĽáĭµáĪ¨ áĮī
ĠáĪĽ áĪĺáĪįáĬ¨áīµ
Ġáĭ¨áĬł áĬ«áī£áī¢áĭį
ĠáĬ® áĬķáĮį
ĠáĮ¨ áĪŃáĪ¶
ĠáĮĪ áĪĭ
ĠáĬłáĬ« áĭ³áĪļ
ĠáĪ«áĪµ áĪħ
Ġáĭ¨ áĪ¬
ĠáĭĵáĪĺ áī±áĬķ
Ġáĭ¨ áĬŃáĪįáĪį
ĠáīłáĬ¥ áĬķáĭ²áĪħ
ĠáĭĪáĮ¥ áī°áĭį
ĠáĪĺ áĪĺáĪĪ
Ġáĭ¨ áĮłáīłáīĢ
áĬ¥ áĬķáĮįáĭ²áĪħ
ĠáĮįáī¥ áĮ½
Ġáī°áīĭ áĪĽ
Ġáĭ¨áĪļáĮł áĮī
áĪĺ áī¶áī½
ĠáĮį áĪĽ
áĮ ķ
ĠáĬ¥áĬķáĭ°áĭļáĪģ áĪĿ
áī° áĬĿ
ĠáĪĺ áĮĪáĬĺ
áĭĺ áĭĭ
ĠáĬłáĪĪáĪĺ áī³
ĠáĪĪáĪĺ áĪĭáĬŃ
áĪŃáī¶ áĭ¶
ĠáīłáĪĤ áĭ°áīµ
ĠáĬ¥áĬķáĭ° áĬĶ
ĠáĪĪáĪ« áĪ³áī¸áĭį
áĪ« áĬķáĪµ
ĠáĪĪ áĪ´áī¶áī½
ĠáīłáĬŃ áĪ¨áĪĿáīµ
ĠáĬ¥áĬķáĪ°áĪ« áĪĪáĬķ
Ġáĭ³áĭĬ áīµáĪĿ
ĠáĮį áī£
áįĪ áĪī
áĪ° áĪĭ
ĠáĬ¨áĬł áĪĭáĪħ
ĠáĪŃ áĪµáīµ
Ġáĭį áĪİáī½
áĬķáĮī áĪ¥
Ġáīłáĭ¨ áĭķáĪĪáī±
Ġáĭľ áĪĽ
Ġáĭ¨áĮįáĬķ áĬĻáĬĲáīµ
ĠáĪĪ áĪ¥áĪ«
ĠáĮ¥ áĪİ
áĬŃ áĪıáĪį
áĪĪáĪĿ áĪ³áĪĮ
ĠáĪ³ áīħ
Ġáį ©
u p
ĠáĪ° áĭİáī¹
Ġáī£ áĪĭáī¸áĭį
áĮĪáī¡ áĪĿ
ĠáĬł áī¤áīµ
ĠáĭĪ áī³áĭ°áĪŃ
áįĭ áī½áĪģ
áīĢ áĬĵáĪį
áįį áĪµ
ĠáĪĽ áĬ¨áĪį
ĠáĪ¥áĪ« áĬķ
ĠáĪĥ áī¥
Ġáī£áĭŃ áĪĨáĬķáĪĿ
áīĢáĭĿáīĢ áĭ£
ĠáĪįáĪĿ áĭ¶áī½
áĭ« áĭ¨
ĠáīłáĮ¥ áĪįáīĢáīµ
20 13
ĠáĮł áī¢
áįķáĪª áĪį
Ġáĭ¨ áĭĽáĪ¬áĭį
ĠáĬł áĭ°áĪŃ
áįĪáĮ½ áĪĿ
ĠáįķáĪ®áĮĢ áĬŃáī±
áīłáĪŃ áĮį
ĠáĪħ áĭ³áĪŃ
Ġáī°áĮĪáī¢ áĭįáĬķ
ĠáĪĪáĪĽ áīĨáĭ¨áīµ
Ġáĭ¨áĬ¥ áĬĲ
Ġáīłáĭ° áĪħáĬĵ
áĪ« áĮ®áī½
ĠáīłáĬł áĬ¥áĪĿáĪ®
ĠáĮī áĮįáĪį
Ġáĭ¨áĮ½ áĪĳáįį
áįĭ áĬĳ
áīĢ áĪ±
ĠáĬ¥áĬķáĭ° áĭį
áĪĪ áĪĽáīµ
áĪ² áĪµ
ĠáĮłáīģ áĪĺáĭĭáĪį
ĠáĪĲ áĭĭáĪŃáĭ«áĭį
ĠáĮħ áĪĽ
7 0
ĠáīłáĪĿ áĭµ
Ġáĭ¨áĬ¢ áīµáĭ®áĮµ
Ġáīª áĭµáĭ®
ĠáĬ¨áĮĵáĭ° áĬŀáī½
ĠáĮĮáī³ áĬķ
Ġáĭ¨áĪĤ áĪ³áī¥
Ġáĭ«áĪĪáĪĽ áīĭáĪ¨áĮ¥
Ġáīł áī±
áĪ¨ áī°áĭį
Ġáīłáī£ áĪħ
ĠáĬ¥áĮłáĭŃ áīĥáĪĪáĪģ
Ġáī¤ áī¶áī½áĬķ
áĮĪ áĪ«áī¸áĭį
ĠáĪ° áĬķáĪ°
ĠáĮ½ áĬĳ
Ġáīł áĬ¨áĬķáī±
Ġáĭ¨áįĸ áĪĬáĪµ
ĠáĪµáĪŃ áĬłáīµ
ĠáĬłáĪĽáĪ« áĮ®áī½áĬķ
áĪ³ áĭįáĭ«áĬķ
Ġáĭ¨áĪļ áĪĺáĪµáĪį
ĠáīłáĪĺ áįįáĮłáĪŃ
áĪĮ áĪĭ
ĠáĬ¥ áĪĺáĮ£
ĠáĪĭ áĪĭáī¸áĭį
Ġáįĭ áĪ½áĬķ
áĮĪáĪĪ áĮ¥
ĠáĭµáĪįáĭµ áĭŃ
áĮłáĪ¨ áĭ¥
áĭ® áĪĲ
Ġi s
ĠáĪĺáīģ áĪ¨áĮ¥
áĪĦáĭ³ áĪĪáĬķ
ĠáĪĦ áĭ°áĭį
ĠáĮī áĪįáīł
áĪĽ áĪĪáĪģ
ĠáīłáĪļ áĮĪáĬĻ
ĠáĬ¥áīĥ áĭİáī½
ĠáīĨ áĪĺáĭį
w it
Ġáĭ«áĪµáī° áĪĿ
Ġ200 0
E D
Ġáĭ¨áī° áĪ¨
ĠáīµáĬ© áĪ¨
ĠáĮ¥áĬĵ áī±
áĮĪáĪĪáĮį áĪī
Ġáī° áĪĽ
Ġáĭ¨áīµ áĬĽáĭįáĪĿ
Ġáī°áĬ« áĪĤ
ĠáĬ¨áĬł áī£
ĠáĭŃáĮį áĭĻ
ĠáĬ¢ áĪľáĪį
Ġáī£áĪĪáĪµ áĪįáĮ£áĬķ
áĪ½ áī³áĭį
áįĭ áĪĪáĪģ
áĬĲáĮĭ áĮĪáĪ«
ĠáĬłáĪľáĪªáĬ« áĭįáĭ«áĬķ
A pp
Ġáĭ¨áĪļ áĪĺáĪ¨
ĠáĬ¢áĭ« áĪ±
áĪĪ áīģ
ĠáĬłáĭµáĪŃáĮĪ áĬĵáĪį
ĠáĮĪáīł áĭ«áĭį
ĠáĬ¨ áĪ¶áĪµáīµ
áĮ£ áĮł
ĠáĬłáīħ áĪ«áī¢áĭ«
ĠáĬłáī¥ áĭ«áī°
áĭ« áĭ©
ĠáĪĽ áĮ½
Ġáĭ¨áī° áĭĺáĪ¨áĭĺ
ĠáĪĺáĮ¥ áīĢáĪµ
ĠáĪĺ áĬĿáī³
ĠáĪĽ áĭ³áĬķ
áĪİ áī¹áĬķ
ĠáĭŃáĪħ áī½áĬķ
ĠáīłáĬ¥ áĪµáĪŃ
áĮ¸ áĬĵ
ĠáĬłáĪį áįĪáĪĪ
ĠáĪĺáĭį áĮ«
ĠáĬłáĮįáĬĿ áī°áĬĵáĪį
áĭ³ áĮį
Ġáĭį áĮ¥áĪ¨áīµ
áĮŃ áīĨ
Ġáĭ¨áĪļáĭ«áĪµ áĭ°
áĬ¥ áĭįáĬĲáīµ
ĠáĬłáįįáīĥ áĪª
áĪĬ áĭµ
ĠáĪµáĮ¦ áī³áĭİáī½
áĮ¾ áī½áĬķ
ĠáĬłáĭŃ áĪ°áĮ¥áĪĿ
Ġáĭ¨áī° áĭĺ
ĠáĮł áĪŃáī¶
ĠáĭŃ áĪµáĪĽ
, "
ĠáĪĺ áĪĢ
Ġáĭ¨áĪĺ áīĢ
Ġáĭ¨áĪĽ áĭŃáĭĪ
Ġáĭ¨áĬ¦ áĪ®áĪŀ
Ġáī°áĪ³áī³ áįĬáĭİáī½
ĠáīłáĪ¶ áĪµáīµ
ĠáĬ¥áĬķ áĪĦáĭ³áĪĪáĬķ
Ġáĭ¨áĪĮ áĪĪáīłáīµ
ĠáĭŃ áĪ¨áĭ±
ĠáĬłáĬķ áĮĢ
ĠáĪ° áĮ£áī¸áĭį
ĠáĬłáĪĪ áįĪ
Ġáĭ¨áīł áĮĭ
ĠáĪĲ áĭĭáĪŃáĭ«áīµ
áīł áĭĻ
ĠáĭŃáįĪ áĮ¸
ĠáĮĪáĭ° áī¦áī½
áĬ¨ áĪĻ
ĠáĪĪáĪļ áįĪáĪįáĮī
áĭĪáĭµ áīħ
Ġáĭ«áĪµáī½áĪĭ áī¸áĭĭáĪį
ĠáĪĽ áīħáĪ¨
ĠáīłáĪģáĪĪ áī°áĬĽ
ĠáĬª áĪ«áĭŃ
áĬĴ áĬŃáĪµ
áĭĺáĮĪ áīłáĭį
Ġáī° áĬ©áĪį
áįį áĪ®
ĠáįķáĪ®áĮįáĪ« áĪĻ
ĠáĬ¨áĬ¥áĪŃáĪ± áĪĿ
4 8
áĭ° áī°áĬŀáī½
ĠáĬ¥áĬķáĭ³ áĬķ
ĠáĪĽáĪħ áīłáĪ©
Ġâ ĸ
ĠáĪ³áĭŃ áĬķáī²
Ġáīłáĭĵ áĭŃ
Ġáįĵáĭį áĬķáĭµ
áĭ° áīĢ
áĪĽ áĪĽáīµ
áīµáĬķ áĪ½
áĭ¦ áī½
ĠáĭµáĪ« áĪĽ
ĠáĬĲáĮ¥ áī¦áī½áĬķ
Ġáĭ¨áĪļ áī³áĭĪáīĢáĭį
ĠáĪį áĭĪáĮ£
Ġd r
ĠáĮŃ áī¥áĮ¥
ĠW hat
ĠáĪĪ áĬķáĭ°áĬķ
áīĢ áī¥
Ġáĭ¨áĭµáĪĿ áįħ
Ġáīł áĪĿáĬĵ
Ġáĭĳ áĭ°áīµ
ĠáĪĽ áĮĪáĪįáĮĪáĪį
Ġáī°áĬ³áĪĥ áĬĿ
Ġáĭ«áĪĪ áī½
ĠáĪ¸ áĬŃáĪĿ
ĠáĪĺ áĪĥ
ĠáĮīáĭµ áĮĵáĭµ
ĠáĬ¥ áĭĽáĭį
áĬĲ áĬĵáĪį
Ġáĭį áĪıáĪį
áĭĭ áī±
ĠáĮł áĭ¨áīħ
ĠáĮĪáīłáĭ« áĭİáī½
áī¸áĭī áĬķ
áĭŃ áįį
áĪ³ áĪĪáī½
áĭ°áĪ¨ áĪ±
Ġáĭ¨áĬ¢ áĪľáĪį
ĠáĬ¥áĬķ áĪĨáĬĵ
Ġáīł áĮĢ
ĠáĪĭ áĪĪáĪĽ
ĠáīłáĪ¨ áĭ¶
Ġáĭį áĮ«áĭĬ
ĠáĪĿáīµ áĬŃ
ĠáīµáĬķ áīłáĭ«
áīł áĪªáĭ«
áĭĭ áĪµ
Ġáĭ¨áī³ áĭĺáĭĺ
áĬ¥áĬĶ áĪĿ
ĠáĬłáĭµáĪŃáĮİ áī³áĪį
i v
ĠáĬ¢ áīµáĭ®
áīĢáĪŃ áī¡áīµ
áįİáĬ« áĬ«áĪª
áĪĪ áī¡
Ġáĭ¨áĮįáī¥ áįħ
áĬ¨áįį áĪī
áįĪáĪ« áĭį
co in
it y
ĠáĪĺáĪĪáĭ« áĭİáī½
ĠáĬłáĪįáīĢ áĪ¨áĪĿ
Ġáīł áī¥áĪŃ
áĬĲ áįī
Ġáĭ¨áĪļ áĮĢáĪĿáĪ¨áĭį
Ġáĭ¨áĪĽ áĪ³
ĠáĪ°áī¥ áĬłáĭĬ
áĭ¶ áī¹
ĠáĭĪáĭŃ áĭĺáĪ®
ĠáĪ¥ áĭķ
ĠáĮ¥ áĪĿ
Ġáĭ²áĭ« áī¥áĪİáĪµ
ĠáĪĪáĪĺ áĮ¨áĪĺáĪŃ
Ġáĭ¨áĪļáĭ« áĭ°áĪŃ
Ġáī° áĮĢáĪĿ
ĠáĬłáīĢ áī£áīłáĪį
Ġáī£ áī¡
ĠáįĪ áĪĭáĮĬ
Ġáī°áĪĪáĭŃ áī¶
ĠáĭŃ áĪŃ
áī» áī½áĬķáĪĿ
ĠáĬ¥áĭ¨ áĪĦáĭ°
Ġáīµ áĮĪáĬĽ
ĠáĪĺáĬķ áĮĭ
ĠRe ad
áĪĭáĪĪ áįī
áĪĭ áī¶áī½
Ġáīµ áĬĸ
Ġáĭ° áĬħ
ĠáĬķáĮį áĭ¶áī½
Ġáī°áīĨ áĮ¥
: )
ĠáĬłáĪĺ áĮĭáĮĪáī¥
ĠáīłáĮį áĭµ
ĠáĪĲ áĬª
ĠáĪĻ áĭ«áĭĬ
Ġáĭ¨áĪĿáīµ áī½áĪĪáĭį
ĠáīłáįĪ áīĥ
Ġáĭ¨áīł áĬ©
ĠáĪµáĪĽ áĪŃáīµ
ĠáĪįáĮ¥ áįİáī½
áī£ áĪħ
áĪį áīĨ
ĠáĪĻ áĪ´áĬķ
ĠáĬłáĪĿáī£ áĪ³
ĠáīµáĪµ áĪµáĪŃ
ĠáĬŃ áī¥áĪ¨
Ġáī°áīĢ áĭŃ
áĮī áĪį
es s
ĠáĪĺáĭĭ áīħ
ĠáĭĿáĪĽ áĬĶ
ĠáĬ¥áĬķáĭ° áīĢ
ĠáīłáĪĺ áĮĭ
Ġáĭ¨áĬ® áĪĿáįĴ
r c
Ġáĭ ¬
áĮĪáĬĿ áīłáīµ
Ġáĭ¨áĪĺ áĪ¨
áī¢ áĪµ
áĪĺ áĬĽáĪį
áĪ° áĪ°
ĠáĬ¨áĪ° áĭİáī½
ĠáĪĥáĪ³ áī¦áī½
Ġáīł áĭĲ
Ġáī³ áĪħáĪ³áĪµ
ĠáĬłáĪĿ áĪ³
ĠáĬ¥áĬķáĮį áĭ¶áī½
áĬ© áĪħ
ĠáĪ² áĭĪáĮ£
ĠáĪķ áĮī
ĠáĪŀ áĬĿáĬĲáīµ
ĠáĬĲáįį áĪ´
ĠáĮłáĪ¨ áĮ´áĭĽ
ĠáĬłáī¥ áĪ«
áįĢ áĬķ
ĠáĪĬáīĢáĪĺáĬķ áīłáĪŃ
áĭ¨ áĪĻ
áĮ« áĪį
ĠáĬ¨ áĪµáĪ«
áī« áĭŃáĪ¨áĪµ
Ġáĭ¨áĭ© áĬĴáī¨áĪŃáĪ²áī²
ĠáĪĪ áĭĽáĪ¬
Ġáĭ® áĪĲ
ĠáĪħ áī¥áĪ¨áī°áĪ°áī¥
Ġáĭľ áĮįáĬĲáīµ
ĠáĮŃ áįį
ĠáĪĺ áī°áĬĽáīµ
áīł áĮĢáīµ
áĮĮ áĪį
Ġáĭ¨áĭķ áĪĪáīµ
Ġáĭ¨ áįĪáĪĪáĮį
áĬ¨áī° áĪĪ
ĠáīłáĪµáī° áĮĢáĪŃáī£
Ġáĭ«áĮĭ áĮł
áĭ« áĭĭáĬķ
ĠáīłáĬł áįį
Ġáįĭ áĬķáī³
ĠáĬ¥áĬķáĭ°áĪĺ áĪĨáĬĳ
ĠáĭĪáĬª áĪį
áĭ³ áĪĪáī½
ĠáĮ¨ áĭĭ
ĠáĬłáĪµáĬªáĭ« áĮħ
ĠáīĢáĮ¥ áī³
ĠáĭŃ áĮ£
ĠáĬ¥áĬķáĭ°áĪĨáĬĲ áĪĿ
Ġáĭ¨áĪĺáĮ£ áĪģáīµ
ĠáĬ¨áĪĽ áĭµáĪ¨áĮį
Ġáĭ¨áīħ áĬķ
ĠáĪĺáĪĿ áĪ«áīµ
ĠáĬłáĭ«áĪµáįĪáĪįáĮĪ áĭįáĪĿ
áįĪ áĮłáĪ©
ĠáĬ¥áĬķáĪĨáĬĵ áĪĪáĬķ
áĪµ áī·áĪį
ĠáĬ¥ áĪĺáĪŃ
áĪ½ áĬĵ
Ġáĭ¨ áĬĸ
V ID
áĬĿ áĬĵ
áĪ² áĬ«
ĠáĪĺáīģ áĮłáĪªáĭ«
Ġáĭ¨ áĭĽ
ĠáīłáĪĺ áĬªáĬĵ
ĠáīłáĬł áĭ°áī£áī£áĭŃ
ĠáĪĽáĭķ áĬ¨
Ġáī° áĮŃ
Ġáĭ¨áĭį áĭµáĭµáĪŃ
Ġáĭ«áĭ°áĪ¨áĮĪ áĭįáĬķ
ĠáĬŃ áĪŃáĪµáīµáĬĵ
áĪµ áī±áĬķ
ĠáĬ¥áĬķ áī°
áĮ« áĪĪáĪģ
Ġáī°áĭĭ áĮĬ
ĠáĬłáĪĭ áĭĪ
Ġáĭ¨ áĭĪáĪ°
áī£ áīłáĪ©áīµ
áĪ¯ áīµ
Ġáĭ¨áī£ áĪħáĪį
Ġáĭ¨áī° áĮĪ
Ġáīłáĭĭ áĬĲáĬĿáĬĲáīµ
ĠáīłáĬĥ áĭŃáĪį
ĠáĬłáĭŃ áĪģáĭ³
ĠáĪĿ áĬĴáĪįáĬŃ
ĠáĬłáĪĺ áīº
ĠáĭŃáĪ°áĪĽ áĪį
Ġáĭ¨ áī¥áĪŃ
ĠáĬ¥áĭ¨áī° áī£áĪĪ
a il
Ġáĭ« áĮłáĬĵ
ĠáĬ¨ áĭ¨
ĠáīłáĬł áīµ
áĪĺáĪ« áĭį
Ġáįįáīµ áĪķ
Ġáĭ¨áīµáĪ« áįĬáĬŃ
ĠáĪ° áĬķáĭ°áīħ
ĠáĪĪáĪĽ áĪµáī³áĭĪáĪµ
ĠáĭŃáĪĺáĪĪ áĪ³áĪī
áįĭ áįĭ
ĠáĪį áĮĩ
áĪ®áĬķáī¶ áĪµ
Ġáī¢ áĬĸáĪ©áĪĿ
áįį áĪ«áīµ
áīłáĪį áĮ¡
ĠáĬ¨ áĬĭáĪĭ
ĠáĭŃáīĢáĬķ áĪ³áĪį
U M
ĠáĬłáĪµ áĭ°áĬķ
ĠáĬłáĪ° áĪį
ĠáĭŃ áĬ¨áĬĵáĭĪ
ĠáįĸáĪĪáī²áĬ¨ áĬŀáī½
ĠáĪĭ áĬŃ
áĮĵ áĪľ
Ġáĭ¨áĬ¢ áĬķáī°áĪŃáĬĶáīµ
ĠáĪĽáĬ¥ áĬ¨áĪį
áĪĽ áĪ¨áĭį
ĠáįĪáĪĪ áĮĪ
ĠáīłáĮ¥ áīĤáī±
un es
áīł áĭŃ
ĠáĮ¨áĭĭáī³ áĭįáĬķ
ĠáĪĻáĬ¨áĪ« áĭİáī½
áĬ¥ áĭį
áĭĭ áĪĪ
Ġáī£ áĪįáĬķ
ĠáĬłáĬķáĭ³ áĬķáĭ¶
ĠáĪĺáĮįáĪĪ áĮ½
ĠáĭŃ áĪģáĭ³
áĪĭ áī»
ĠáįĪ áĬķ
áĪ« áĪ¹
Ġáĭ¨áī° áĪŀ
ĠU S
ĠáĭĪáĭ° áī¥
ĠáĪķáĭĿ áīħ
Ġáīł áĮİáī½
áī± áĬĵ
Ġáĭ¨áĭķ áĭµáĪľ
u e
ĠáĬ¥áĪµ áĪĽáĪĽ
an t
Ġáĭ¨áĪļáĭ«áĭį áīĢáĭį
áĪ² áĬķ
ĠáĭįáĮ¤áī³áĪĽ áĬĲáīµ
ĠáĪµáĪĪáĪĺ áĪĨáĬĳ
Ġáī° áĪĺáĪµáĮĪáĬķ
ĠáĪĪáĪĺ áīĭáīĭáĪĿ
ĠáĪĺáĮįáĪĪáĮ« áĭİáī½
Ġáĭ¨ áĮĢ
ĠáĪĪ áĪµáĪ«
ĠáĭŃáĭį áĪ°áĭ±
ĠáĬħ áī¥áĪ¨áīµ
áĮĢ áĬŃáī±
ĠáĬłáĪĿáĪĭáĬŃ áĪħ
áĭ° áĬĿáĬĲáīµ
ĠáĭŃ áĬŃáįĪ
ĠáĬłáīµ áįįáĪ«
ĠáĮĢ áī¥
ĠáĬ¨áĪĮ áĪİáī¹
ĠáĭĪáĪ° áĬĲ
Ġáĭ¨áīµ áĬĽáĭįáĬķ
ĠáĬ¥áĬķáĭ°áĪĮ áĪĪáĭį
Ġ15 0
Ġáīµáĭķ áĭŃáĬķáīµ
Ġáĭ¨áĬ¥ áĪµáĪ«áĬ¤áĪįáĪĿ
ĠáīĢáĪ¨ áīł
áĪĺáĪĪáĬŃ áī°áĭį
ĠáīĢ áĬĸáī½
ĠáĬ¥áĪŃáĪµáĭİ áĪĿ
ĠáĪµ áĪĭáĪī
ĠáĪĺáĭį áĭ°
ĠáĪĺáĮ½áĪĲ áįįáīµ
áī¸ áĪŃ
ĠáĭĪáĭ° áīĢ
áĪĿáĪ¨ áī»
Ġáĭ¨ áĪģ
Ġáĭ¨ áĮĮ
Ġáī£áĪĪáĪ¥ áĪįáĮ£áĬĵáīµ
áīĢ áĪ¨áīµ
ĠáīłáĬ ¬
ĠáīłáĪĽ áĪĪ
o v
ĠáĬ¥áĬķáĭ³áĪĪ áī¥áĬķ
Ġfor um
áĮ¨ áĪŃ
Ġáĭ¨áĭ°áĬķ áīłáĬŀáī½
áĮ ²
Ġáī£ áĭ¨
Ġáī£ áĪĪáĬķ
ĠáĪĪáĪĺ áī¥áĪĭáīµ
áĪĻ áĪŃáīµ
ĠáĮĪ áĪĿ
áĬĴ áĪµáīµ
áįĵ áĪŃ
Ġáĭ¨áī° áĭ°áĪ¨áĮī
áĭµáĪ¨ áĪ±
Ġáīłáī£ áĪķáĪŃ
ĠáĬłáĬķáī¥ áī¤
ĠáīĢáĪĪ áĪŀáī½
Ġáĭ¨ áīħáĪŃ
áĭ° áī¡
áįĸáĪŃ áī±
ĠáĭµáĪĿ áįģ
Ġáĭ¨áĪµ áĬ³áĪŃ
ĠáĪĿáĬĵ áĪĿáĬķ
áĪį áĭİ
ĠáīĢáĪŃ áī§áĪį
ĠáĪĽáĬħ áīłáĪ«áĭĬ
ĠáĪĺáī³ áĪ°áī¢áĭ«
áĭĸ áīµ
áĭ«áĭ« áĭ¥
Ġáĭ¨ áĭĲ
f f
ĠáĬłáĪĪ áĬĵ
ĠáīłáĪ« áĪ³áī½áĬķ
áĪ½áĬ¨áĪŃ áĬ¨áĪŃ
Ġáĭ¨áĮ¸ áĪİáīµ
ĠáĪĽ áĭ°áĮį
Ġáĭ¨áī° áĭ°áĪ«
ĠáīłáįĬáīµ áĪħ
ĠáĬ¥áī¥ áĭµ
áīħ áī°áĬĽ
or t
áĬĸáĪ¨ áĬĿ
Ġáīłáīģ áĮ¥áĪŃ
Ġáĭ¨áī° áī£áĪī
Ġáīµ áĬķáī°áĬĵ
áĪŀ áīµáĪĿ
ĠáīĨ áĮłáĪ«
Ġáĭ¨áĪļáĭ«áĪ³ áĭ¨áĭį
Ġáīł áĭĪáĮ£
ĠáĮĪ áĮ¥
ĠáīłáĭĪ áĬķáĭµ
áĭĺáĮĭáĮĢ áĭį
ĠáīłáĬ« áĬĵáĭ³
Ġáī°áĭ°áĮĭ áĮĭáĪļ
áĪĽáĪŃ áĭ«áĪĿ
ĠáĬ¥áĬķáĭµáīµ áĪĨáĬķ
áĪª áī·
ĠáīłáĪ© áĪ²áĭ«
3 9
19 8
ĠáĭŃáĮĢáĪĿ áĪ«áĪī
Ġáĭ¨áįĮ áĭ°áĪ«áĪį
ĠáĬķ áĪµáĪĲ
Ġáīłáīµ áĭķ
Ġáī°áĪį áĬ¥áĬ®
ĠáĪĬ áĪ°
Ġáĭ¨áĬł áĪĺ
ĠáĪįáĮĥ áĮĪáĪ¨
ĠáīłáĬ¥ áĬķáĮįáĪĬáĭĿ
ĠáĪħ áįĥáĬķ
ĠáĬ¥áĪ« áĪ³áī½áĬķáĬķ
ĠáĬ¨áĬł áĪ«áīµ
ĠáĪĺáĮł áĭ¨
ĠáĪį áī¡
ĠáĪĪáĪĺ áĭĪáĪ°áĬķ
ĠáĮł áĪ«
Ġáĭ¨ áī²
ĠáĪĺáĪŃ áĪĨ
al l
áĭµ áĪİ
i z
áĮĪáī¡ áīµ
ĠáĭįáĪ³áĬĶ áĭİáī½
áĪ« áī½áĬķáĬķ
áĪŁ áī¸áĭį
áĮĤ áĬķ
ĠáĪįáĮħ áĪĿ
ĠáĮ¦ áĪĽáĪŃ
ĠáĪĽáĬħ áīłáĪ¨áĪ°áī¥
ĠáĪ°áĭŃ áįį
ĠáĬłáĪµáī³áĭį áĪ³áĪĪáĪģ
ÙĦ Ù
ĠáĬ¨áĪ« áĪ±
ĠáĬłáī¥ áĭĿ
Ġáīłáī£ áī¡áĪŃ
ĠáĪįáĮĨ áī»áī¸áĭį
áĬŃáī° áĪ©
Ġáĭ¨áĪĺáī° áĮįáīłáĪªáĭ«
ĠáĬ¥áĬķáĭ² áĪłáĪ«
ĠáīĨ áĪĿ
áĭ° áĮī
ĠáīłáĪħ áĭĿáī¥
ĠN ews
áī¶áī½ áĬĵ
áĭ«áĭį áīĢáĭį
Ġáī¤áī° áĪ°
Ġáĭµ áĪħáĬĲáīµ
Ġáĭ¨áīĢáĪ¨ áī¡
ĠáĬł áĪ³áī¥
Ġáī» áĭŃ
ĠáĪ°áī¥ áĪ³áī¢
Ġáīłáĭ¨áīµ áĬĽáĭį
Ġáĭ¨áĪļ áĮłáĭŃáīħ
Ġáī°áĪĽáĪª áĭİáī½áĬķ
ĠáĪĺáīħ áĪ¨
áī¥ áī¥
ĠáĬ¨ áĬ¨áī°áĪĽ
Ġáĭ¨áī° áīĢáīł
áī¼ áĪĿ
Ġáī£áĪķáĪŃ áĭŃ
ĠáĬł áĮ«
ĠáĮłáī¥ áīħ
ĠáĬ«áĪŃ áĭ¶áī½
Ġáīł áĭ°áĪĿ
áĬł áī½áĬķ
ĠáįķáĪ®áĮĢ áĬŃ
ĠáĪĺáĬŃ áįĪáīµ
ĠáĪĲáĪ³ áī¦áī½
Ġáīł áĬĽ
áī£ áī½áĬķáĬķ
ĠáĭŃáĮ«áĭĪ áī³áĪį
ĠáĪĪ áīĨ
ĠáĭŃáĪħ áĬķáĪĿ
áĮĭ áįį
Ġáĭ¨áĪļáĭ«áĪµ áĬ¨áīµ
ĠáĪĺáĬķáĮĪ áĭ¶áī½áĬķ
ĠáĬĲáĮĪ áĪ¥áīµ
Ġáīłáĭį áĬĥ
áī£ áĪĽ
st r
ĠáĬ¥áĭ¨áī° áĪ°áĪ«
ĠáĪĺáĮ¥ áįĭáīµ
Ġáĭ¨ áĮłáĭ¨
Ġáĭ¨áĬłáĪľáĪªáĬ« áĬķ
áĪĬ áįİáĪŃ
Ġ7 5
ĠáīłáĬłáĬķ áĮ»
an s
ĠáĪĬ áĭ°áĪŃáĪµ
áī¤ áī³áī½áĬķ
Ġáĭ¨ áīĥáĪį
ĠáĪĽ áīħ
Ġáĭĵ áĪ³
» áį
Ġáĭ« áĮłáīĥáĪį
Ġáįħ áĬķáĪ°
ĠáĪ°áĭŃ áĮ£
Ġa b
Ġáĭ¨áĪĺáĮį áī¢áĭ«
Ġáĭ¨ áĮĥáįĵáĬķ
an g
ĠáĪ° áīłáĪŃ
áĮ½ áĮįáĬĵ
ĠáīłáĭĪ áĬķ
ĠáĬłáĬķáīĢ áįħ
áĪ¬ áĪ½áĬĳ
Ġáīĥ áĪĭáīµáĬķ
Ġ5 5
ĠáĪĪáī° áĪĪáĭ«áĭ©
áĮĪáĪįáĮį áĪİ
Ġáĭ¨ áĮĥ
ĠáĬłáĮįáĬĿ áī»áĪĪáĪģ
ĠáĪ°áĪĿ áī»áĪĪáĪģ
áĪļ áĭİáī½
áĪĺáĬĵ áī½áĬķ
ĠáĭĴ áĪĭáĪĽ
áĮĪáĪĪáĮ¹ áīµ
áĬ¥ áĬĲáĪ±
ĠáĪĺáĪµ áĬ®
ĠáĬłáīµ áĬŃáĪį
áĪĺáĪ° áĪį
Ġáĭ¨áĪĿ áĬĵáĮĪ
ĠáīµáĪĨáĬĵ áĪĪáī½
Ġ {
áī³ áĭ²áĭ«
ĠáĬ¥áĬķáĪ°áĮ£ áĪĪáĬķ
ĠáĪĺáĪĪ áĭĭáĭĪ
Ġáī°áĮįáĭ³ áĪ®
ĠáĬł áĮ¥áĪŃ
áī³ áĮĪ
ĠáĪĪáĪĽ áīĨáĪĿ
Ġáĭ² áįķáĪİáĪĽ
ĠáīłáĪĺáĭį áĪ°áĭµ
Ġáĭ¨áīĢ áĪĪáĪĿ
áī¡ áĭķ
Ġáī°áĮ¨ áĭĭ
ĠáĪĺáĪ° áĪ¨áĭĿ
áĬĵáĮĪáĪŃ áĪĿ
áĮłáī£áīł áīĤáĭ«
áĪĭ áī½áĬķáĬķ
Ġ* *
ĠáĪįáĮĨ áī»áī¸áĭįáĬķ
ĠáĪ°áĪĿ áī°áĭį
Ġáĭµáī¥ áĪįáīħ
ĠáĬłáĬ« áī£áī¢áĭ«áĭĬ
ĠáīłáĪĽáĪµ áĮĪáī£áīµ
ĠáĪĺáĪµ áĬ®áī½
ĠáĬ¥ áĪ°áĮ¥
T unes
ĠáĪ² áĪīáĪĿ
áĮ® áĪħ
ĠáĭŃáīĨ áĮłáĪ«áĪį
ĠáĬłáĪĺáĪĪ áĬ«áĬ¨
ĠáĪ³ áī¢áĭ«
Ġáīł áĬķáĮį
ĠáĬ¥áĭįáĬĲ áī³áĭİáī½
ĠáĬłáĪįáĮĪáī£ áĬĿáĪĿ
ĠáĪ³ áĪī
Ġáī°áĭĽáĪĽ áĮħ
Ġáį ª
áĬĴ áĪµ
Ġáĭįáĭµáĭµ áĪ®áī½
Ġáīłáī° áĬĵ
Ġáĭ«áĪ³ áĪµ
Ġáĭ¨áĪķ áĭŃáĭĪ
ĠáĬłáĭµáĪŃáĮĪ áĪħ
áĬĲ áĪµáī°áĬĽ
of t
ĠáĮ¡ áĬķáī»
áīģ áĪ¨áĮ¥
Ġáīłáī¤áī° áĪ°áī¥
ĠáĬłáī¤áī± áī³
ĠáĬłáĮįáĬĿ áī¼
Ġáĭ¨áī°áĪĺáĪ¨ áĮ¡
áĬł áī£
áĭĪ áī½
áĭ© áī¥
ĠáĬłáĮĪ áĬĻ
áĬ¨ áĭļáĭ«áĪĿ
ĠáĪ² áĬĲáįĥáįĢáĪŃ
ĠáĪ° áĮ¡
ĠáīłáĪļ áĪĨáĬķáīłáīµ
Ġ4 6
ĠáĪĺáįħáĪĲ áįį
áĭ° áĬĵáĪį
ĠáĬ¥áĬķáĭ°áĪļ áĪĺáĮ£
ĠáĪħáĭĿáī¥ áĬķ
ĠáĮĨ áĪŃáĮħ
áĪĬ áī²
ĠáĬ¢ áĪľ
ĠáĬĲáĬĿ áĬĵ
Ġáĭ¨áĪĮ áĪİáī½
Ġáī° áī£áī£áĪª
ĠáĬłáĭŃ áĬĸáĪŃ
ĠáĮĪáĬķáĭĺ áī¡áĬķ
ĠáĭŃáĪ° áĮ¡
ĠáīłáĪĺ áĬķáĮįáĪ¥áīµ
Ġáī°áĮĪ áĬķáĭĿ
ĠáīłáĮį áĪĪ
Ġáī¥áī» áĭ¬áĬķ
áĮį áĪ®
áĮĨ áī½áĬķ
Ġ4 00
ĠáĬłáĪľáĪªáĬ« áĬķ
ĠáĪ³áĭŃ áĬĸáĪŃ
ĠáĮĢáĪĿ áĪ¯áĪį
Ġáīł áĮ¥áĪŃ
ĠáĪĺ áĪ°áī¥áĪ°áī¥
ĠáĬł áĪĬáĭ«áĪĿ
Ġáĭ« áĬ«áī°áī°
Ġáī³ áī¦áīµ
ĠáĬ¬ áĪļ
áĬ¬ áĭµ
ĠáĪļáĪĬ áĭ¨áĬķ
ĠáīłáĪļáĭ« áĪ³
Ġáĭ«áī°áĬ® áĪ¨
ĠáĬ¥áĪµáĪĽáĪĽ áĪĪáĪģ
ĠáĮ ķ
ĠáįĢ áĮĭ
Ġáĭ¨áĪ° áĪľáĬķ
Ġáī¤ áīµáĪĿ
ĠáĭµáĪĿ áįĥ
ĠáĪį áīłáĪį
Ġáĭ¨áīħ áĭ±áĪµ
ĠáīłáĪ°áĭį áĬĲáīµ
Ġáī° áĪĽáĪŃ
Ġáĭ¨áĪĺ áįįáīµ
ĠáīłáĪĮ áĪĭáĭį
Ġáĭĺ áĪĭáĪĪáĪĽáĭĬ
Ġáī³ áĮ£
áįĮ áĬķ
ĠáĬ¥áĬķ áĪĺáĬŃ
Ġáĭ¨áĪĿáĬķ áĪĪáĭį
Ġáĭ³ áĪ©
ĠáĪļáĪµáĮ¥ áĪŃ
ĠáĪĬ áĮĪáĬĿ
ĠáĬ¥áĭ¨áĪ°áĪ« áĬķ
ĠáĬłáĪµáī³áĭį áĪµ
e ar
áīħáĪŃ áī³
áĬĲáĪ± áīµ
Ġáī» áĪŃ
Ġáīł áĪ»
ĠP S
áĪ¨ áĪħ
áĪ«áĭĬ áĬĲáīµ
ĠáĭĪ áįİáī½
o x
ĠáĪĺáĮ½áĪĲ áįīáĬķ
ĠáīłáĮĪ áīłáĭ«
áĬŃáĪ² áĭ®áĬķ
áĬŃ áĪħ
ĠáĪĨáī´ áĪİáī½
áīĢáĮ¥ áĪī
Ġáĭ¨áĭĪáĭ° áįĬáī±
ĠáĮįáĬķ áī¥
ĠE x
ĠáĭķáĭµáĪľ áĭį
wit ter
Ġáī° áĪŁ
áĪ¨áĬķ áĪ£áĭŃ
ĠáīłáĬł áĪ«áīµ
ĠáĬ¥áĪŃáĪµ áĭĭáĪĿ
ĠáĭįáĪŃ áĪŃáĭµ
áĭľ áĪŃ
ĠáĬ¥áĬķ áĮ¨áīµ
Ġáĭ¨áĪĽ áĮ£
ĠáĪĪáĭĺ áĪĪ
ĠáĪĺ áĮİáī¥áĬĺáīµ
Ġáĭ¨áĪļ áĪĦáĭ±
áĭĿ áĬĲáĭį
Ġ and
Ġáīł áīģáĪĿ
ĠáĮł áīł
ĠáīµáĬķ áĪ¹
ĠáĭįáĮ¤ áī±áĬķ
ĠáĪĢáĮĪ áĪªáī±
ĠáĬ¨ áĭŃ
áĭ«áīµ áĪŃ
Ġáĭ ¥
it coin
áĬĸ áĪ«áĪĪáĪģ
Ġáĭ¨áĪļ áĪīáīµáĬķ
ĠáĪĬáĭ« áĮĪáĪĪáĮįáĪį
ĠáĪĺáĮ»áĪķ áįį
ĠáĪĽáī¥ áĪ°áĪį
áĮ¨ áĪ¨áĪµ
ĠáīłáĪĿ áĪµ
ĠáĭŃáĭ°áĭį áĪī
Ġáĭ¨ áĬŃáĪįáĪī
ĠáĪ² áīĢ
áĮ« áĬĲ
ĠáĬ¥áĬķ áĮłáĭŃ
Ġáĭ¨áī£ áĪ°
Ġáī½ áĪİáīµ
Ġáĭ¨áįĬ áĪįáĪĿ
áĪĽ áī½
Ġáī£ áĭ«
áĬĲ áĮįáĪ«
ĠáĪĺáĪĭ áĭįáĬķ
Ġáįİáī¶áĮįáĪ« áįį
ĠáĪļáĭĽ áĬĵáĭĬ
ĠWhat s
ĠC om
A D
ĠáīĢ áĭ¶
ĠáĪ¦ áĪµáī±
Ġáĭ¨áĪļáī½áĪĪáĭį áĬķ
Ġáĭ¨áī° áĪ³áĬ«
ĠáĪĺáĪį áĪ±áĬķ
Ġáīłáīµ áĭĬáī°áĪŃ
ĠáĪĺ áĮ«áĭĪáī»
ĠáĪĢáĮĪ áĪ«áĭĬ
Ġ art
ĠáĪ³ áĪĭ
ĠáĭŃ áĪ»áĪį
áĪĪ áĬŃ
Ġáī³ áĬĵáĪ½
áĬķáī£ áĪĮ
ĠáĪĿáĪµáĬŃáĪŃ áĬĲáīµ
Ġáī° áĭ«áĭ«áĭ¥
áĭ³ áĭĬáīµ
áĭ® áĪµ
ĠáĪĺáĪ¥ áĪªáĭ«
áĪĪ áįĬáĭ«
ĠáĭĵáĭŃ áĬĲ
Ġáĭ¨áī° áī»
Ġáĭ¨áĪļáī³ áĭ©
Ġáĭ¨áĬ¤ áĪĮáĬŃáīµáĪ®
Ġáį ´
áĮĪáĪ« áĪĪáĪģ
Ġáĭ¨áĪĿáĬĵáĭį áīĢáĭį
áĪŃ áĮĬ
ĠáĮ¥ áĪŃáĪµ
ĠáīłáĪĿ áĮįáī¥
áĭĭáīĤ áĭİáī½
ĠáĬ¥áĬķáĭ³ áĭ°áĪ¨áĮĪ
ĠáĬłáĭ« áĪĿ
ĠáĬłáĭ« áĭŃ
áĭįáĪį áīµ
ĠáĮĵáĭ° áĬĿáĬĲáīµ
P N
Ġáīł áī¤áī±
ĠáĪĽ áī°
ĠáĬ® áĬķáīµ
áĬ¥ áĬŃáīµ
ĠáĪļ áĭ«
Ġáī¥áĪİ áĪĿ
ĠáĬłáĮ¥ áĬķ
Ġáī¥áīµ áĪĨáĬķ
áĪ¨ áī£
ĠáĬł áĭ°áĪ¨áĮĪáĭį
ĠáĮĮ áī³áī¸áĭį
ĠáįįáĪ« áįįáĪ¬
áĬķáĭ® áĪ½
áĬ¨ áįįáīµ
ĠáīłáĬłáĪĽ áĬ«áĭŃ
ĠáĭŃ áī»áĪį
ĠA d
áĮ£ áī½áĬķ
áĭ© áī°áĪŃ
áĮ¨áĪ¨áĪ» áĭį
áĪĬáįİáĪŃ áĬĴáĭ«
ĠáĬ¥ áĪ´áī¶áī½
ĠáĮ¥áīĥ áīħáĬķ
ĠáīłáĪĺ áĬŃ
ĠáĮī áĮīáīµ
Ġáĭ¨ áĬĸáĪŃ
áĭĵ áī¥
ĠáĪħáĭĿáī¡ áĬķ
ĠáĬ¥ áĭ¬
Ġáī³ áĬ«áĪļ
Ġ200 4
ĠáīµáĭĿ áī³
Ġáĭ« áĮĪáī£
áĮłáĪ« áīĢ
ĠáĪĺ áĪ¨áĮĭáĮĭáīµ
ĠáĬłáĭį áĮª
ĠáīłáĪµ áĪľ
Ġáĭ¨áĮŃ áĬĲáīµ
ĠáĪĪáĪ¨ áĭ¥áĪĿ
ĠáĪĨáĬĵ áī½áĪģ
ĠáĭŃ áĬĳ
ĠáĬłáĪ¨ áī¢áĭ«
áĮŃáīłáĪŃ áīłáĪŃ
Ġáĭ¨áĪļ áĭĪáĮ£
áīł áĬĽáĭį
áĭ¨ áĪĽ
ĠáĬłáĭŃ áĮ¨áĬĲáīģ
áĪŃ áĮĭáī¸áĭį
áĬķáĭ« áĬķ
áĭĿáī¡ áĬķ
Ġáī°áįĪ áĮłáĪ¨
ĠáĪĺ áĮĪáĪįáĮĪ
ĠáĭĿ áĬĲáĬĽ
áĪ½áĬ¨áĪŃ áĬ«áĪª
ĠáĬ¥áĪĺáĮ£ áĪĪáĪģ
áĪĻ áīµáĬķ
ĠáĬ¨áĬł áĪĿáĪĭáĬŃ
Ġáĭ« áī¥
Ġáīħ áĬĵ
ĠáĬķ áīħáĬĵ
ĠáĪ²áĭ« áĭ°áĪŃáĮī
áĭĭ áĮĭ
ĠáĬ¢áĬķ áī¬áĪµáīµ
ĠS E
áĪĽ áīħ
ĠáĬłáĪµ áīĢ
áĮįáĪ« áįĬ
Ġáĭ¨áĪħ áĭĪáĪĵáīµ
ĠáīłáĮĪ áīłáĭ«áĭį
ĠáĬ¨ áĪ½
áĭ² áĭ«áĪµ
Ġ[ .
Ġáĭ¨áĬ¥áĪµáĪ«áĬ¤áĪį áĬķ
ĠáĪµ áĪª
Ġáĭ¨áĪĺ áĪĿ
ĠáĮİ áĪĽ
Ġáĭ¨áĪļáĭ« áĮį
Ġáĭ¨áĭį áĭŃáĭŃáīµ
Ġ( "
áĪ½ áĬ¨áĪ¨
Ġáĭ«áĪį áįĭáĪį
ĠáįĢ áĮī
Ġáīµáī½áĪĭ áĪĪáī½
a in
áĪį áĪĥáĪį
ĠáĬ¥áĪ°áĮ£ áĪĪáĪģ
Ġáĭŀ áĪ®
ĠáĬł áĭĺáĮĪ
ĠáĬ¥áĬķáĭ² áĪį
Ġáĭĺ áĪĭáĪĪáĪĿ
ĠáĭŃáĮįáī£ áĬĿ
ĠáĬłáĭįáīĢ áĭĭáĪĪáĪģ
áĭ³ áĭ²áĪµ
ĠáĬĲáīłáĪ© áīµ
ĠáĪĽáĪµáī° áĭ³áĭ°áĪŃ
ĠáĭŃáĪĪáĭ« áĭ«áĪį
Ġáĭ¨áĭļáĭ« áĬķ
áĪµáįĭ áįĭ
Ġáī°áĬ¨áī³ áĭŃ
áĭ´ áī³
Ġáĭ¨áĮ¥ áīłáī¥
ĠáįķáĪ¬ áĪµ
ĠáĬł áī»
ĠáĬ¥áĬķáĮį áĪĬ
Ġáĭ¨áī°áīĥ áĭįáĪŀ
Ġáĭ«áĪĪáĪģ áīµ
Ġáĭ¨áĪļ áįĪáĪįáĮĪáĭį
ĠáĭĪáĭ° áĭµ
ĠáĭĿ áĪĺáĬĵ
or s
Ġáīł áĮ¦áĪŃ
ĠáĬłáĪµáįĪáĪĭáĮĬ áĭįáĬķ
áĭ® áĬĵ
ĠáĮĪáĬķáĭĺáī¥ áĬķ
Ġáĭ¨áĭľ áĬĵ
ĠáĪķ áĮİáī½
Ġáĭ«áĪĪ áīłáīµáĬķ
Ġáĭ¨áĪĨáĬĲ áīłáīµ
ĠáīłáĮī áĭŀ
áĪĺáĪĪ áĬŃáī±
ĠáĬ¨ áĭµáĪŃ
ĠáĬłáī£ áī£
Ġáī³áĭŃ áī¶
Ġáī° áĭ³
Ġáĭ¨áĪļ áĭ°áĮį
ĠáĮĪ áĮł
A R
ĠáĬ¨ áĬ¦
ĠáĬ¥áĬķ áīĢáĮ¥
áĮłáīĢ áĪĺ
ĠáĪŀ áĬŃáĪŃ
Ġáĭ«áĪ³ áĭĿ
ĠáĭĿáĮįáĮħ áī¶áī½
Ġáīµ áī°áĭį
ĠáĪ½ áĮįáĮįáĪŃ
ĠáĪĽ áĮłáīĥáĪĪáĭ«
áĪĺáĪĪ áĬŃáīµ
ĠáĪ° áīł
Ġáī¦áī³ áĭİáī½áĬķ
ĠáĬ¥áĭµ áĪī
ĠáĬķáīħáĬĵ áīĦ
Ġáĭµ áĪĥ
ĠáĮ» áĭµ
Ġáīħ áĪŃáĪµ
Ġáī¦ áĭŃ
ĠáĬ¨áĪĺ áĪĨáĬķ
ĠáĬłáĭĭ áĮģ
áīł áĪĽ
áĬĽ áĪĪáī½
ĠáĪĤ áĭ±
ĠáĬ¨áī¤áī° áĪ°áī¥
Ġáĭ« áīĥ
Ġáī¥ áĪĦáĪŃ
ĠáĪĪáĪĽ áĬŃáīłáĪŃ
Ġáī½ áĪĪáĭĭáĪį
Ġm ore
ĠáĬ¥áĬķáĪĺáĬŃ áĪ«áĪĪáĬķ
áī¶ áī³áĪį
Ġáĭ¨áī° áĬķ
Ġáī°áīĢ áīł
ĠáĬłáĭµáĪ« áĮİáīµ
ĠáĬ¥ áĪ¨áĬĽ
ĠáĬĥ áĭ«áĪį
ĠáĪĺáĪĪ áĭĪáĮ«
ĠáĬ¥ áĪ°áĪ«
Ġáĭ« áĭĻ
ĠáĮ¥ áĪįáīĢáīµ
ĠáīłáĪĽ áĭį
ĠáīĢ áĪĭáĪī
Ġáĭ¨áĭ° áĪµáī³
ĠáĪĪáįį áĪŃáĭµ
ĠáĬł áĪĪáĪģ
áĪ± áīµáĬķ
áĪŀ áĬĵ
ĠáīłáįĬ áīµáĪĿ
Ġáĭ¨áĭ± áĪŃ
ĠáĪĺ áįĪáĮ¸áĪĿ
ĠáĪĪáĭļáĭ« áĪĿ
Ġáīµ áĮįáĪ«áĭŃ
áĭį áĭµ
ĠáĪµáĪĿ áĭİ
ĠáĪĪáī° áĮłáīĥáĪļ
ĠáĬłáĮĪáĪĭáĪĪ áĮ½
Ġáĭ¨áĪļáīĨ áĭŃ
áīĭáīĭ áĪĺáĭį
ĠáĪ» áĭŃ
Ġáĭ¨áī°áĭĪáĪĪ áĭ°
ĠáĪ°áĭįáĭ¬ áĭį
áī³ áĪª
ĠáĬ¦ áĪħ
Ġáĭ¨áĬłáĪµáī° áĭ³áĭ°áĪŃ
ĠáĭŃáįį áĮłáĪ©
ĠáĪĿ áĪ°
Ġáĭ¨áĪļáĭ«áĭį áīģ
áĪª áĬķáĮį
ĠáĬłáī£ áī±áĬķ
áĭ° áĬķáīµ
Ġáī° áĬŃáĪį
ĠáĬłáĪį áĪ°áĮł
Ġáĭ¨áĪĽ áĪµáī³áĭĪáīĤáĭ«
ĠáĪĿáĬĵ áĪĮ
áĮ»áĮ¸ áĪŃ
ĠáĬ¨ áĪ¨áĮħáĪĿ
ĠáĮį áī¡
ĠáīłáĬ¥ áĬ©áĪį
Ġáĭ¨áĪļáĭ« áĬķ
ĠáĪµ áĮ¥
ĠáĬ¥áĬķáĭ° áĪĽáīµ
ĠáĪĪáĪĽ áĭµáĪ¨áĪµ
ĠáĬ¢ áĬķáĭ±áĪµáīµ
ĠáĪĪáĪĺáĭĭ áĮĭáīµ
ĠáĭĪ áĭ®
áĮĬ áīµ
ĠáĬłáī¡ áĬĲ
áĪĭ áĭİáī½
ĠáĪ« áĪ³áī½áĬķ
ĠáįĪ áĪ¨
áī§ áī¸áĭį
Ġáī°áĬĵáĮį áĪ®
ĠÂ °
Ġáīł áīĭáĪļ
ĠáĬŃáįį áī°
ĠáĬłáĪį áįıáĪį
Ġáĭ¨áĪ«áĪµ áĭİáĬķ
ĠáĪ³áĬķáī² áĪĿ
áīĢáĮ¥ áīĢáĮ¥
áĪĿáĪ¨ áĬĵáĪį
ĠáĪĪáĪĺ áĪ°
ĠáīłáĪĭ áĭ©
ĠáĪĺáĬª áĬĵáĭį
Ġáīłáī° áĮ¨
áįĸ áĪĬáĪµ
Ġáī° áĮłáĪ«
ĠáĪĢ áĭ«
ĠáĭĪáĬķáĭµáĪŀ áī¼
Ġáīģ áĪµ
ĠáĮįáĪĪ áĪ°áī¡
ĠáĪī áīĥáĪµ
áī° áĪ»
ĠáĪĺ áĬ¾
Ġáĭ¨áĪļ áĬ¨áįĪáĪį
ĠáīĨáĭŃ áī¶
Ġáĭ¨áĪĽáĪħ áīłáĪ¨áĪ°áī¥
ĠáĪ± áĪµ
ĠáĬ¥áĬķáĭ°áĪĿáĬķ áī½áĪį
Ġi Tunes
áī³ áĭĪáīħ
áīħ áĭ¶
áĬ« áĬĶ
ĠáĪµáĪĪ áĬł
ĠáĬł áĮİ
ĠáĭŃ áĪ³
ĠáĭĪ áĪ²áī£áĭĬ
ĠáĬ« áĪĭáī½áĪģ
áĭĭ áĬķáĪĿ
áįĭ áĪªáĭİáī½
ĠáĪĬ áīł
ĠáĪŀ áīħ
Ġáĭ¨ áī»áĪĪ
áĬŃ áĬŃáĪŃ
áĬ¨ áĬł
ĠáĪĺ áĬĲáĪ³
Ġáĭ¨áĬ¥ áĭ«áĬķáĭ³áĬķáĭ±
ĠáĭŃáīĢáĪŃ áī£áĪį
ĠáīłáĪĽ áĭµáĪ¨
Ġáĭ¨áĭĪ áĮ£áĭį
ĠáĬ«áĪį áĪĨáĬĳ
Ġáĭ¨áĪļ áī£áĪī
Ġáĭ¨áī° áĭĪáĭ°
Ġáĭ¨áīł áĮİ
áįĵ áĬĴ
ĠáĬ¥áĬķáĭ² áĪ°áĮ¥
ĠáĪķ áĬķáĭµ
ĠáĪĽáĪ³ áĪ°áī¢áĭ«
ĠáĭŃáĪĺ áĪ«áĪį
ĠáĪĺáĮł áĬĳ
ĠáĭĽ áįİáī½
áĪļáĭ« áĭİáī½
Ġáīłáĭķ áĭµáĪľ
ĠáĭŃáĮł áĬĵáīĢ
ĠáĬłáĭįáĪ« áĮĥ
ĠáĪĽ áĭĪ
ĠáĪµáī¥ áĪµ
Ġáĭ¨áĪļáĪĺáĪµ áĪĪáĭį
ĠáĪĺáĪµ áĭĭáĭķáīµ
áĪĥáĭµ áĪ¶
i st
ĠáĪĪ áī¤áīµ
áĬĲ áĭµ
áĪµáī° áĪĭáĪį
ĠáīµáĬŃáĬŃáĪĪáĬĽ áĬĲáīµ
áĭĪ áĪĢáīµ
áĭ¨ áĪ°áĭį
ĠáĬ¥áĬķáĭ°áĪĽáĭŃ áī½áĪį
ĠáĬ¨áĭį áĪµáĮ¥
áĪ³ áĬ¤
ĠáĮĪáĬķ áī¢
Ġart icle
ĠáĬ¥áĬķ áĮĢáĪĿáĪŃ
ĠáĪįáĮħ áĭİ
Ĥ ¬
ĠáĬł áĪĭáĪį
áĪĺáĪ« áĪŃ
ĠáĬĥáĭŃáĪį áĬķ
ĠáĭĪáĬķáĭ¶áī½ áĬĵ
ĠáīłáĬ¢ áĬķáĭ±áĪµáīµáĪª
áĮĪáĬĿ áĬĲáīµ
ĠáĮłáī¥ áīģ
ĠáĬł áĭµáĬķ
ĠáĬ¥áĬķáĭ° áī³
áĪ½ áĬĸáī½
ĠáĭĪáĭ³ áĭµ
ĠáīµáĮĪáĬĽ áĪĪáī½
ĠáĭŃ áĪģ
Ġáīģ áĪ«áĮŃ
Ġáĭķ áĪ¨áįįáīµ
Ġáīł áĪ©áĬķ
áĪµáī° áĬ«áĬ¨
4 4
áįĭ áĪĪáī½
áĪµáĮ¥ áĬ¤
áĪ½ áī±
Ġáī£ áĪı
ĠáĭĻ áįĭáĬķ
ĠáīµáĪŃ áĭĴ
ĠáĬłáīł áīł
ĠáĪĭ áĪµ
ĠáĬłáĭµ áĪĿ
áĬ¨áįĪ áī±
Ġáīµ áĪħ
Ġáĭĵ áĪĪáĪĽ
áĭ¨ áĪ°
ĠáĭĿ áĬķáī£áĪĮ
Ġáĭ«áīĢáĪŃ áī£áĪī
áĭĺ áĪĺ
Ġáĭ«áĭµáĪŃáĮī áīµ
áįĬ áĭ«áĭį
Ġáīłáĭĵ áĪĺáī±
Ġáī£áĪĪáī¤áīµ áĬĲáīµ
Ġáīł áĮ¤áĬĵ
ĠáĭŃ áī³áĭŃ
ĠáĬł áī¤
ĠS h
ĠáīłáĪĺáĭ°áīłáĬĽ áĬĲáīµ
ĠáīłáĪĽ áĬħáīłáĪ«áĭĬ
ĠáīłáĪķ áĭĿáī¡
áĬŃáĪį áĬĵ
Ġáĭ¨áĮİ áĬķáĭ®áĪ½
Ġáĭ¨áĮįáī¥áĪŃ áĬĵ
ĠáĭŃáĬĲáĪ³ áĪį
Ġáī°áĮĢáĪĿ áĪ¯áĪį
Ġáĭ« áĬĲáĮĭáĮįáĪ©
áĪį áĪį
ĠáĮĪ áĪŃ
Ġáĭ¨áĬ¥ áĬĵ
ĠáĪµ áĬ³áĪŃ
ĠáĪµáīµ áĪĨáĬķ
ĠáĬłáĭŃ áī°áĬĵáĪį
ĠáĬ¨áĪĺ áĭį
Ġáĭ¨áī³ áĪ°áīł
áĪŃáĪµáīµ áĭ«áĬķ
ĠáīłáĬł áĪµ
áĬ¬ áĪ½áĬķ
Ġáĭ¨áī° áĭ°áĮĪ
Ġáĭ¨ áĪª
Ġáĭ¨ áĪĭáĭŃ
áĭĿ áī¤
áī£ áīµáĬķ
áĭµ áĪ¬
áĮĪáĪį áĮĭ
Ġáĭ«áĪµáī½ áĪĭáĪį
áĮĪáĪĪáįĢ áĭį
e re
áĪį áĪĽáīµ
ĠáĬ¥ áĭĪáĭ°
ĠáĬłáĭŃ áī³áĭŃáĪĿ
áĭµáĪŃ áĪ»
Ġáī°áįĪ áī³
ĠáĭĪáĭ³ áĮĨáī½
ĠáīģáĮ¥ áĪ«áī¸áĭį
áĪ«áīµ áĪĿ
Ġáīł áĪ®
Ġáī° áĪĭ
ĠáĬłáĭŃ áīł
Ġáī°áĮĪ áĪĪáĮł
ĠáĪĿ áĪ¥áĪ«áīħ
ĠáĪł áĪĭáĪĿ
ĠáĮ¥ áīĨáĪĽ
áĮĨ áī»áī½áĬķ
ĠáĮ¥áĭ«áīĦ áĭįáĬķ
ĠáĪĺáĪĭ áĬªáĭ«
Ġáīł áīłáĪ¨
Ġáĭ¨áĬ¥ áĬķáĪµáĪ³áīµ
Ġáĭ©áĬĴáī¨áĪŃáĪ²áī² áĭį
ĠáĬłáĪµáĭ°áĬķ áĮĭáĮŃ
ĠáĬłáĭŃ áĬĲ
A C
ĠáĭŃáĪĺ áĭĿ
ĠáīłáĬł áĪµáī¸áĬ³áĭŃ
ĠáĬłáĭĺ áĭĺ
ĠáĪĿáĪŃ áĬ®
Ġ200 5
Ġáĭ¨áĪļ áĮłáīħ
ĠáīłáĪĺ áĮªáĭį
ĠáĭŃáĪ¸ áįį
ĠáĬ¥ áī½áĪį
áįĵ áĪŃáīµ
áī´ áĬĵ
Ġáĭ¨áĪĿáĬĵ áĭ¨áĭį
Ġáĭ¨ áīĭáĬķáīĭ
áĪĺáĪ³ áĪ°áĪį
ĠáĪĺáĭ° áĮĪáįį
áĪĬ áĭ®áĬĸáī½
ĠáĮł áĭ«áīĤ
ĠáĪĢ áĮĪáĪ«áī½áĬķ
ĠáĪĺáĬª áĬĸáī½
ĠáĪ® áĪľ
ĠáĪļáĭ²áĭ« áĭİáī½
áįħ áĭĭáīµ
áĮłáīĥ áīĢáĪĿ
Ġáī°áĪĺ áĪ«áĮŃ
áĮį áī¡
... ?
ĠáĪĲ áĭĭáĪŃáĭ«
ĠáĬ¥ áĭŃ
ĠáĬŃ áīłáī¥
Ġáĭ¨áįĪ áĮłáĪ¨áĭį
áīħáĭ« áĬĸáĪµ
Ġáīħ áįħ
ĠáīµáĪŃ áĮĵáĪľ
ĠáīµáĪįáīģ áĬķ
áī½ áĪĭáī¸áĭį
ĠáĪĺ áĭĭáĪį
Ġáīµ áī½
ĠáĬ¥áĬķáĭ°áĪļ áī³áĭ¨áĭį
Ġáī°áįĪ áĮ»áĪļ
ĠáĬ¥áĪĺ áĬĽáĪĪáĪģ
Ġáįį áĬķ
Ġáĭ¨áī° áĪĪáĭ©
ĠáĪĺáĭ°áĪĿ áĭ°
ĠáĬłáĪµ áĪĽ
áĭ° áįį
áĮĥ áĪį
Ġáĭ«áĪĪ áĬĿáĬķ
ĠáĬłáī£ áĭŃ
áĪµáįĭ áįĭáīµ
ĠáĬłáĪ³ áĪ½
ĠáīłáĬŃ áī¥áĪŃ
Ġáī£áĪī áīłáīµ
ĠáĪĥáĭŃáĪĽáĬĸ áī³áĭĬ
ĠáĬ¨áĮį áĪĽáĪ½
Ġáĭ¨áĬ¥ áĭįáĬĲáīµ
Ġáĭ¨áĪĿ áĭĪáĭ°áĭį
ĠáĪĺáĮ£ áĪģ
Ġ6 5
ĠáīłáĪĮ áĪĪáīłáīµ
Ġáī°áĬĲ áĪ£
Ġáī³áĪµ áī¦
áĪĽ áĪĬáĭ«
áĭĿ áī¦áī½
Ġáīłáĭį áĪµáĮ¥
Ġáī£ áĪ³
ĠáĬłáīĢ áįĭáĭĬ
ĠáĬłáĮĭ áĭ¥
Ġáįİ áīħ
ĠáĪĪ áĬ¤
en d
ĠáĪĺáĭĽ áĪĻáĪŃáīµ
Ġáĭ¨áī°áīĢáĪĺ áĮ¡
ĠáĭŃ áįĪáĪŃ
ĠáĬłáī£ áī³áī½áĬķ
ĠáĮīáĭµ áĪĪáīµ
Ġáĭ¨áĪļ áĪłáĪ©
ĠáĬłáĬķ áīł
Ġáīłáī° áĪµáįĭ
Ġáī² áīª
áĮį áī£áīµ
Ġ4 7
ĠáĪµáįįáĪ« áĭİáī½
ĠáĭŃáĪĦ áĪĿ
áĭĬ áĭ«áĬķ
Ġáĭ¨áī± áĪªáĭĿáĪĿ
Ġáĭ¨ áĬĸáĪ¨
ĠáĭŃ áĭ°áĪ¨áĮį
áĮł áĪ«áī¸áĭį
ĠáĬłáĪįáĬĲáīłáĪ¨ áĬĿáĪĿ
ĠáĬłáĪµáī°áĭ³ áĭ°
Ġáī³áĭ« áĪĪáĪħ
Ġáī° áĪĺáĪĪáĬ¨áī°
Ġáī°áĪ° áĬĵ
Ġáīł áī«
áīħ áĪī
áĬ«áīµ áīµ
Ġáĭ¨ áĭĿáĮį
Ġáĭ« áĭįáĪĿ
áĪ°áī¥ áĬķ
Ġ am
ĠáĪĬáĭ« áĮĪáĬĻ
áī¨áĪµáīµ áĪĺáĬķáīµ
Ġáīł áīªáĭ²áĭ®
ĠáĬĲ áĬŃ
ĠáĪĺáĬķáĮį áĪµáī³áĭĬ
áĭį áīĢáīµ
áĪľ áĪ½áĬķ
Ġáĭ¨áĪĿáĬĵ áĭ°áĪŃáĮĪáĭį
Ġáī£áĪħáĪŃ áĭŃ
ĠáĬłáĪµáī°áĭĭáįħ áĬ¦
áĬĲ áĮ»
Ġáĭ¨áĪļ áĪĺáĪĪáĬ¨áīµ
ag o
Ġáīł áĪª
Ġáī° áī£áī¥
ĠáĪĺáĪ£áĪªáĭ« áĭİáī½áĬķ
ĠáĪĪáĪ½ áĭ«áĮŃ
áįĪáĪŃ áĭĸáĬķ
Ġáī¤áī° áĬŃáĪŃáĪµáī²áĭ«
Ġáī°áĭĪ áĪĭáĮħ
Ġáĭ¨áĭŃ áĭĺáīµ
Ġáĭ¨áī° áīĭáīĭáĪĺ
ĠáĪĪáĪĺ áĪ°áī¥áĪ°áī¥
áĬĲáįį áĪµ
áī£ áĪĪáī½
ĠáĪĽ áĭĺáĮĭáĮĥ
áĪłáĪ« áĪĿ
áĭ¥ áĭ«
ĠáīłáĬŃ áįī
ĠáĬłáĭ« áĭ°áĪŃáĮįáĪĿ
áĭµ áĬ«
áĪŃáĭ« áīµ
ĠáīłáĪĺáĪµ áĪ«áīµ
ĠáĪĺáĮł áĪªáĭ«
ĠáĪĺáĬŃ áįĪáī»
ĠáĬ¨áĪµ áĭµáĪµáīµ
áī¶ áįķ
áĬ© áīµáĪĿ
áĪĥ áĬĲáĪĿ
ĠáĬ¨áī° áįĪ
ĠáĪĿáĪµ áĪİáī½áĬķ
Ġáī£áĪĪáĪµ áĪįáĮ£
ĠWhats App
ĠáĬ¥áĬķáĭ°áĪļ áĪĪáĭį
Ġáī¢ áĪ«
ou r
ĠáĮ¾ áĪĿ
áī° áĭĭ
áĪ¨ áĮī
áĪ³ áĪ°áīł
áĭ® áĪ´áįį
Ġáĭ¨áĪĽ áĭ«áĭįáīģ
200 8
ĠáĪĪáĪģáĪĪ áī±áĪĿ
áīĢ áīĢ
ĠáĪħ áįĥ
ĠáĪ² áĬĵáĮĪáĪ©
Ġáĭ«áĬ«áīµ áī³áĪī
ĠáĬłáĪŃáī² áĪµáīµ
áĪŃ áĮ¦
Ġáĭ¨áĪļ áĪµáĪĽáĪĽ
Ġáī¥ áĪĪáĪ½
ĠáĬłáĪ° áīĥáīĤ
áĪ¹ áĪ«áĬķáĪµ
20 11
áĬ« áĬ«
Ġáĭĭ áĪ»
áĮłáīĢ áĪ±áīµ
ĠáĪĺáĪ« áĪĺáĭµ
áĬ® áī³áĭĬ
ĠáīĨ áĭ¨
Ġ st
ĠáĬ¨ áĭļáĪģ
ĠáĬ¥áĬĵ áĪ³
áĬ¨áī¥ áĪ©
ĠáĬłáĮĪáĬĵ áĬŀáī½
ĠáĪ° áĪŀáĬķ
âĢ¹ âĢ¹
ĠáĬ¥áĬķáīħ áįĭáīµ
ĠáĬ¨ áĪ¶
áĪİ áĪª
áĮ¦ áī³
ĠáĮ½ áĭĭ
ĠáĬł áĭĪáĭ³
áĭĬ áĬĲáīµ
ĠáīłáĬ¢ áĬ®áĬĸáĪļ
ĠáĪĨáĬķ áĪģ
ĠáĪĽáĪ½ áĬĸáī½
Ġáĭ¨ áĮĪáī£áĭį
ĠáįĪ áĪ¨áĪµ
ĠáĬłáĮĪ áĪ«áĭĬ
Ġáĭ« áĭ³
áĪ³ áĪ³áī°
Ġáĭ¨áī° áĬĵáĮĪáĪ©áīµ
ĠáĬłáĪĪáī½ áĬĿ
ĠáĬłáĪĺáĪµ áĮį
B C
Ġáĭ¨áĬ¥áĮįáĭļáĬłáī¥áĪĶáĪŃ áĪĿ
Ġáĭ¨áĬł áĪµáī¸áĬ³áĭŃ
áĭµáĪ¨ áĭį
Ġáįĵ áĪŃ
Ġáĭ¨áĭį áĬĥ
áĪµáī°áĬ« áĬ¨áĪĪ
Ġáĭ°áĪµáī³ áĬķ
áĪįáĬ® áĪį
áīĢ áĪħ
ĠáĪ³ áĮ¥
ĠCO VID
ĠáĭŃáīĢáīł áĪĭáĪī
Ġáĭķáĭµ áĪİáī½
Ġ ;
áī£ áĪ²
áī» áīµ
ĠáĪĬ áĪ°áĪĽ
ĠáĬ¥áĬķáīĢáĮ¥ áĪĭáĪĪáĬķ
ĠáĭĺáĮ¸ áĬłáīµ
Ġáīµ áĭĪáĭ³
ĠáīłáĪŃ áĪ³áī½áĪģ
ĠáĭŃ áĭĪáĮ£áĪī
Ġáĭ¨áī° áīĢáĪ¨
ĠáĮł áī£áī¥
ĠiP ad
ĠáĬ¥áĬķáĭ° áĭ°áĪ¨áĪ°
Ġ= "
har ic
ĠáĬł áĭ°áĬķ
Ġáĭ¨áĬŃ áĪ¨áĪĿáīµ
áĪ¾ áī¹
áīħáĪŃ áī¡
áĪ´ áĪĭáĭĬ
Ġáī°áĮĪáĬĿ áī°áĭĭáĪį
ĠáīłáĪĿ áĪ³áĪĮ
200 9
ĠáĬłáĪµ áīłáĭį
ĠáĪŀ áī±
ĠáĬ¦ áĬĲáĮį
ĠáīłáĪĺ áĭ«áĭĿ
ĠáĬ¥áĪµ áĪ¨áĬŀáī½
ĠáįĪ áĮłáĪ¨
ĠáīłáĪ° áī£
áĪ³ áĪªáĭ«
ĠáĪħ áĭĪáĪĥáīµ
ĠáĭŃáĪµáĮ¥ áĪįáĬĿ
Ġáĭ¨áī° áĭ«áĭĺ
áī´ áīµ
áįĢ áĪĻ
áĬª áĭį
Ġáī° áĮ¥
áĪŀ áĬĳ
ĠáĬ¥áĬķáĮłáĭŃ áīĥáĪĪáĬķ
ĠáĬ¥áĬķ áĮĪáĬĽáĪĪáĬķ
u st
ĠáĪĪáĪĺ áĮ»áįį
áĭ°áĪ« áĮĢáīµ
ĠáīħáĪŃáĬķáĮ« áįį
Ġab out
Ġáį Ĳ
ĠáĪįáĮĦ áĬķ
áįĪ áĪ»
áĮĭ áĪŃ
Ġáĭ¨áī° áĭ«áĭĻ
Ġáī³ áĮ¥
Ġáĭ«áĪį áĬ©áīµ
áĬł áīĢáįį
Ġáī° áĮī
ĠáĬ¦ áįķáĪ¬
áĬ« áĪ«
ĠáĪĪáĪĺ áĭ°áĪ°áīµ
Ġáĭ¨áīł áĭĽ
Ġáīłáī°áĮĪ áī¢áĭį
ĠáĬ¨áī° áĪĺ
ĠáīłáĪĽ áĭķ
áįĥ áĪľ
áĭį áĪİ
Ġáĭ° áĮħ
ĠáĮĭ áĪ»
Ġáīłáī° áĭĪáĪ°áĬĳ
; .
áĬķáĭİ áĬķ
áĪĪáīĢ áīģ
áīł áĪĭáĭį
Ġáĭ¨áĪļ áĬĸáĪ©áīµ
ĠáīłáĬł áĪŃ
áĪµáīµ áĪª
ĠáĬ¨áī° áī£áĪĪ
ĠáĪĪáĬł áī£
Ġáīłáīµ áĪŃ
áĭ³ áĮĥ
Ġáĭ° áįĭáĪŃ
Ġ. "
ĠáĪĽáĪħ áīłáĪ«áīµ
ĠáĪ°áĬ¨ áĬķáĭ¶áī½
áįİ áī¹
áĮĪ áĮĪáĪĿ
áĮ¤ áīµ
ĠáĪĨáĬĵ áĪĪáī½
Ġáī£ áĬķáī°
áĭ¬ áīµ
Ġáĭ¨áīµ áĮįáĪį
N UM
áĮ£ áĪĪáī½
Ġáī¢ áĪµ
ĠáĬ¥áĪµáĬ¨ áĭļáĭ«
ĠN o
Ġáĭ¨áĪļáīĨ áĮłáĪŃ
Ġáĭ¨ áīħáĭµáĪĺ
ĠáĬ¥áĬķáĭ° áĬł
áĬ¥áĬĲáĪŃáĪ± áĪĿ
áī¥áĪ¨ áī±
Ġáĭ°áĪŀ áĭĿ
ĠáĪªáįĸáĪŃ áī°áĪŃ
Ġáĭ¨áĪµ áĪĿ
ĠáĮ¸ áĮ¥
ĠáīłáĭĪ áĪ¨
ro s
Ġáĭ¨áī° áĮĪáĬĲáī£
ĠáĮĭáĪŃ áĪĿ
Ġáĭ¨áĪļ áĭ°áĪ¨áĮī
ĠáĬ¨ áĪįáĬŃ
áįį áīħáĪŃ
ĠáĪ°áĪĿ áī¶
ĠáĬŃáĪŃáĪµáī²áĭ« áĬĵáīµ
ĠáĬ¥áĭĪáĭ° áĭĭáĪĪáĪģ
áĪ® áĭŃáĭµ
áĪµáī° áĪĿáĪŃ
áĪĽ áī´
áĪģ áĬĿ
ĠáĬłáĪµ áĪŃáīµ
ĠáĭŃáī³ áĪĺáĬĵáĪį
ĠáĬłáĭŃ áĬĸáĪ¨áĭįáĪĿ
áĮ¥áĪŃ áĪĿ
áĬĥ áĬĴáīµ
ĠáĭŃáĪ°áĮ£ áī¸áĭĭáĪį
ĠáĪ² áī²
áĪľ áĬķáīµ
Ġáĭ¨áĪŀ áī±
i es
ĠáĪĪ áĮįáĪį
ĠáĮĪáī¥ áī°áĭĭáĪį
Ġáĭ¨áĪļ áĮĪ
áįĵ áĪµ
ĠáĬłáĭĪ áīĥ
ĠáĪĪáĭĪ áĬķáĭµ
ĠáīłáĬ¥ áĬķ
Ġáĭ« áĪĺáĬĲ
ĠáĮĬáĭľ áĬĵ
Ġáĭ¨áĪļáĭ« áĮĪáĪĪáĮįáĪį
ĠáĬ¥áĬķáĭ³ áĭŃáĭĪ
ĠáīłáīĢ áĪĪ
ĠáĮ« áĬ«
ĠáĪĪáĮĪ áīłáĭ«
áĭ« áĭ¨áīµ
ĠáĬ¨ áīµáĪĿáĪħáĪŃáīµ
áĬķáĭµ áĪµáĬĵ
Ġáī´áĬŃ áĬĴáĬ«áĭĬ
áĬĵáĭį áīħ
Ġáī° áĪµ
s rc
ĠáĬ¨áĪļ áĮĪáĬĻ
ĠáĭŃáīĨ áĮ¥
ĠáĪĪáĮ¥ áĭ«áīĦ
áīł áīģ
ĠáĬķ áĭµ
ĠáĮ¨ áĭį
áĪĬ áĪ²
ĠáĬ¥áĬĶ áĬķáĪĿ
ĠáīłáĬł áĬķáĭ°
ĠáĭįáĪħ áĭ°áīµ
Ġáī¥ áīĥ
áī² áīŃ
áĭĬ áĬķ
Ġáĭµ áĪ«áĭŃ
Ġáįį áĬķáĭ³
ĠáĬ¥ áĮĪáī£
áĭ° áĪħ
ĠáĪĪ áĮİáĬķ
áĬĽ áĪĪáĪħ
Ġáĭ¨áĪĺ áĮłáī£áīłáīĤáĭ«
ĠáĬłáĪµáī° áĪĭáĪį
Ġáĭ«áĪ³ áĭ¨
Ġáĭ¨áĭ³ áĭĬáīµ
áīł áĬĿ
ĠáĪĭ áĪĿ
ĠáĬĸ áĪŃ
ĠáĭŃáĪ¨áĭ³ áĬĵáĪį
ĠáĪļ áĭ«áĭĿáĭ«
Ġáī° áĮĪáĬķ
ĠáĪĪáĪĽ áĪĺáĬķ
ĠáĪļ áĬķ
ĠáĪŃáĭķ áĪ¶áī½
áĪĺáĮ¥ áĬķ
ĠáĮĦ áĬĶ
ĠáĪĺáĪµ áįįáĬķ
ĠáĬ¨áĭĭ áĬŃáī¥áīµ
ĠáīµáĪŃáĮī áĪĻ
ĠáĬł áĪ½
ĠáĬłáĪµáī°áĭĭ áĭŃ
ĠáįįáĮ¥áĪ¨ áī³áīµ
ĠáĪĺ áĬ¨
Ġ1 000
Ġáĭ«áĮłáīĥáĪį áĪĭáĪį
áĮĭ áĮĪáĪŃ
Ġáįĵ áĪªáĪµ
ĠáĪģáĬĶáī³ áĬķ
áĬłáĭ´ áĬķ
ĠáĬłáĪ» áĪ«
Ġáĭ¨áī°áĬ¨áĪĪ áĬ¨áĪĪ
Ġáĭµ áĪĿáĪŃ
Ġáī£áĪĪ áī¤áī±
ĠáīµáĪĭ áĪĪáĪħ
ĠáĬłáĪµ áĮ¨
Ġáĭĺ áĭĪáĪŃ
áĪĢ áĭŃ
ĠM ic
ĠáĭĪáĬķáĭµ áĪĻ
áĬĸáĪ© áīłáīµ
Ġáĭ¨áĪĿ áĬŃáĪŃ
ĠáĬł áīĨ
ĠáīłáĮ¥ áīħáĪĿáīµ
Ġáĭ¨áī°áī£áĪĪáĭį áĬķ
Ġáĭ¨ áįķáĪĭ
áĮ£ áĬĶ
ĠáĬłáĪį áĭĪáĭ°
ĠáīłáĪķ áĬķáĭµ
Ġáĭ¨áĪĽ áĭ«áĪµ
ĠáĬ¨áĪ« áĪµ
áĭİáī»áī½áĬķ áĬķ
áĪ³ áīħ
Ġáĭ¨áī° áĬ¨áĪ°áī°áĭį
ĠáĬ¥ áĭĪáĪµ
id e
Ġáĭ¨áĪ« áĪ´áĬķ
ĠáĬł áīĨáĮ£áĮłáĪŃ
áĪįáīĥ áĭŃáīµ
Ġáīħ áĮ£
ĠáĪ« áĪ³áī½áĪģáĬķ
Ġáĭ¨áĮĪ áĮł
Ġáĭ¨áī°áĪĺ áĭĺáĮĪáīł
ĠáĪĺáĪŃ áĪĲ
áĮĪ áĪ¨áĭµ
Ġáī° áįĭ
áįį áĪ¨áĪµ
áī¶áī¹ áĪĿ
Ġáĭ¨áĮĭ áĭľ
Ġáĭ¨áī° áĮĪáĬĵáĬĺ
ĠáĮ¥ áĮĪáĬĽ
Ġáĭ¨áĬĲ áīłáĪŃ
ĠáīģáĪŃ áĮłáĬĿáĬĲáīµ
Ġáī°áīĢáī¥ áĪİ
ĠáĮİ áĮĨ
ĠáĮīáĭŀ áĭİáī½
Ġáĭ°áĬķáīł áĬŀáī½áĬķ
ĠáĪ³ áĭŃáĭĪ
ĠáĪ¨ áī¡áĭķ
áĪĭáĭŃ áĬķ
áĭŃáĬķ áĬĽ
ĠáĬ¥áĪĺ áī¤áīµ
áįĪ áīħáĭµ
e e
Ġáĭ¨ áī¥áĪŃáĪĥáĬķ
ĠáĬłáĬ«áī£áī¢ áĭį
ĠáĬłáĪĺáĪįáĬŃ áī°áĭĭáĪį
Ġáĭ¨áĬĳ áĬŃáĪĮáĪŃ
ĠáĭŃáĪĺáĪŃ áĮ£áĪī
áĭ« áīµáĬĵ
ay s
áĪŃáĭ³ áĬĸáĪµ
áĪ° áĭİáī½
áįį áĪĪ
áĮĪáĪ« áī½áĬķáĬķ
áīĢáīł áĪįáĪĿ
áĮįáĭļ áī¢
ĠáīłáĪŃ áĬ«
ĠáĪµ áĮ¡
ĠáĪ² áĬ¦áĪį
áīĢ áĭµáĪĿ
ĠáīĢ áĪĺáĪŃ
áī¥áĪ« áĭįáĭ«áĬķ
5 00
ĠáĪ Ł
ĠáĬ¨ áī½
Ġáĭ«áĪĪ áī½áĭį
ĠáĬłáĪĺáĪµ áĮĭáĬĿ
Ġáī° áĭĪáĪĪáĭ°
ĠáĬ¥áĬķáĭ°áĪĽ áĬķáĬĽáĭįáĪĿ
ĠáĪķáĭĿ áī£áĭĬ
ag e
! !
ĠáĪĿáĭµ áī¦áī½
Ġáī¥áĬŃ áĪĪáīµ
ĠáĪ² áĮĢáĪĺáĪŃ
ĠáĬŃ áĪŃáĬŃ
Ġáĭ¨ áįİáī¶
Ġáĭ¨áĪļ áĬķ
Ġáĭ¨áīł áĮĢáīµ
áĬĲ áĭ³
Ġáī°áįĪ áĮ½
áĪĸ áĭĭáĬķ
Ġáĭ¨ áĬķáĮį
áīł áĪĿ
Ġáĭ¨áĪļ áĬĵáĮĪáĪ©
áīĥ áĭį
ĠáĪĪáĪĿ áīµ
áĪ¸áĬķ áįį
ĠáĪĺ áĪ»
Ġáī°áīĥáĭĭáĪļ áĭİáī½
Ġáĭ«áĪµ áī£áĪį
ĠáĮİ áĮĤ
i e
Ġáĭ¨ áĪİ
áĬĸ áĪĿ
ĠáĪĺáĮį áĭ°áĪį
ĠáĪĺáĪ¨ áī¦áī½
Ġáĭ¨áĬł áįį
Ġáī°áĭ°áĪŃ áĮĪáĭĭáĪį
ĠáĪĪáĪĽ áĪ°áī¥
Ġáī³ áĬŃáĪµ
Ġâ Ĥ¬
ĠO ne
ĠáĬ¥áĭ¨áī³ áĭ¨
ĠáĮ¡ áīµ
ĠáĭŃáīĢáĮ¥ áĪĭáĪī
ĠáĬ¥ áĪµáīµáĬķ
áĬŃ áĪ¨áĭį
Ġáī°áīĭ áĪĻ
ĠáĬ¥áĪŃáĪ· áĪĿ
ĠáĭŃ áĮ¨
áī£ áīłáĪµ
áīĨáĪĿ áĪĿ
áĬ¥ áĪº
ĠáĬłáĪµ áĭĪáĮį
ĠáīłáĬĲáįĥ áĬĲáīµ
ĠáĭŃáĪ°áĮł áĭĭáĪį
ĠáĭŃ áĪ«
áĭ² áĬĵ
áĪģáĪī áĬķáĪĿ
Ġáĭ¨ áĪĪáĪħáĪĿ
Ġáī¢ áĬĸáĪŃáĪĿ
Ġáī³áĪĽ áĬĿáĬĲáīµ
Ġáĭ« áĪŃ
ĠáĬłáĭŃ áĪģ
ĠáĪĪáĪļ áĪĪáĭį
ĠáĬ¢áĬķ áĮĤ
ĠáĪµáĭ° áī°áĬĽ
Ġáĭ¨ áĬŃáīµ
áĪĪ áĪī
áĪĺáĬķ áĮĥ
áĬļ áĭİáī½
Ġáĭ¨áĪļ áĭ°áĪŃáĪ±
ĠáĪ² áĭ°
ĠáįĸáĪĬ áĪ¶áī½
ĠáĭŃáĭĪáĭµ áīĥáĪī
ĠáĪ² áĪĦáĭ±
áĪİ áĪĿáįĴáĬŃ
ĠáĬ¥áĬķ áĮłáīĢáĪĽ
Ġáīł áĮ¦áĪŃáĬĲáīµ
ĠáĬ¨ áĭķ
ĠáĬ¨áĪļ áĪĪáĭį
ĠáĬłáī³áĭį áīģáĪĿ
Ġáĭµ áįįáĪ¨áīµ
Ġt o
ĠáĭŃáĮłáīħ áĪĽáĪį
ĠáīłáĬł áī¥
áĭĿáĬĵ áī¥
áĬĵáĭŃ áĮĦáĪªáĭ«
Ġáīł áĭ°áĪ¨áĪ°
áĪĺ áĬ«
áĭĬ áĭ«
ĠáīłáĪĺ áĬĲáĪ³áīµ
áĬ©áī£áĬķáĭ« áĭį
ĠáĪ° áĭ¶
áĮ© áĬķ
ĠáĬĲ áī£áĪŃ
áĮ¥ áī¥
ĠáĬłáĪįáĭĪ áĭµáĪĿ
ĠáĪ° áĪļ
ĠÂ £
ĠáīłáĪĺáī° áī£áīłáĪŃ
ĠáĬ¨ áĬķáī²
Ġáīµ áĬĵáĮĪ
ĠáĪį áĪĺáĬĵ
Ġáĭ¨áĬ¥ áĪ¨áįįáīµ
ĠáĪĺáĮ£ áĮ¥áįį
ĠáĬłáĪĪ áī£áī½áĪģ
áī½áĬĭ áĪĪáĬķ
áĮ¸ áī£áĪ¨
ĠáĪĺáĪĨ áĬĹáĬķ
áĬĵáĪ½ áĬĵáĪį
áī³áī½áĪģ áĪĿ
áĪ°áĪĽ áīµ
on g
áĬ¨áįĪ áĪĪáĭį
Ġáĭ¨áĬ¥ áĪ±áĬķ
ĠáĬ¥áĪµ áĬ«áĪį
Ġáĭ¨ áĮ¨áĪ¨
ĠáĬĲáĮį áĪ®
ĠáĪĽáĭŃ áĬŃáĪ®
ĠáĬłáĭŃ áĪįáĪĿ
ĠáīłáĬ¥ áĬĲáĭļáĭ«
áĮĥ áĪĪáĪģ
áĪĬáĭĿ áĪĿ
ĠáīłáĭĻ áĪªáĭ«áĭį
Ġáĭ° áĮĥ
ĠáĬ¥áĬĶ áĪµ
Ġáī°áĪ°áĪĽ áĬĿ
ĠáīłáĪĺ áĪĪ
ĠáĪĬ áĮĪáĭµ
Ġáī° áĪ¨áĭ³
ĠáĮŃ áĪ«áĪ½
áĮł áī½
Ġáĭ° áĬŃ
ĠáĭŃáįĭ áĭĬ
ĠáĪ³ áĪĪáĪģ
ĠáĬ¨áĬł áĭįáĪ®áįĵ
Ġáĭ¨áĪĪáĪĿ áĬĵ
ĠáĬłáĭµ áĪ®
Ġáĭ¨áĬł áī¶
ĠáĬ¥áĬĲ áĮįáĪŃ
ĠáĬłáĪ³ áĭµ
áīłáĪ© áĬķ
áĪĪáīĢ áīĢ
ĠáĪĪ áĪ¶
áĭ¨ áĬ¥áĮįáĭļáĬłáī¥áĪĶáĪŃ
Ġáĭ¨áĪĺ áĮ¡áīµ
ĠáĪµáĭķ áĪİáī½
ĠáĮį áĪĭáĭĬáĬĲáīµ
ĠáĪĲ áĪĻáĪµ
Ġáīłáīł áĮĭ
ĠáĪĪáĪĽáĪµ áĮĪáī£áīµ
Ġáĭ¨áĬĲáįĥ áĬĲáīµ
ĠáĭŃ áĮ®
ĠáĪĪ áĪ¦áĪµáīµ
áįī áīµáĬķ
ĠáĬ¨ áī»áĪį
áĪŀ áĬĽáĪį
ĠáĬ¥áĬķáĮłáīĢáĪĽ áĪĪáĬķ
Ġáīł áĭµáĪ¨
áĪŀ áī°
Ġáīģ áĪ³áĭĬ
Ġáĭ¨áĪļ áĬĲáĮį
ĠáĮ¨ áĪŃáīħ
ĠáĪµáĪľ áī¶áī½
ĠáįĴ áĪ²
ĠáĬłáĪ« áī±
Ġáĭ¨áī° áĮĪáĬĻ
T C
áĮł áĮĭ
Ġáĭ« áĪ°áī¥
ĠáĭĪáĭµáĮĦ áĭĭáĪĪáĪģ
ĠáīłáĪĺ áīħ
Ġáĭ¨áĪĽ áĬħ
A N
áĭĭ áĪ½
ĠáĪĺáĪįáĬŃ áī°áĬĽ
ĠáĪĪáĪĽ áĪĿáĪ¨áīµ
ĠáĬ¥áĬķáĭ°áĪļ áĮĪáĬĿ
ĠáĭĺáįĪ áĬĸáī½
ĠáĬł áĮ«áĭį
Ġáī£ áĬķáĭ²
Ġáĭ¨áĭĪ áĮ¡
Ġáī³áĪªáĬŃ áĬķ
ĠáĬ¥áĬķ áĪŀáĬŃ
ĠáĪĺáĪį áīłáĪµ
ĠáĪŀ áĪį
áīĤ áĭį
Ġáĭ¨áĬ® áĪ®áĬĵ
Ġáĭ¨ áĭ«áĭķáīĨáī¥
Ġáĭ¨áī³ áĪĺáĬĲ
ĠáĪĽáĪ³ áĭĪáīħ
áĪ¨ áĭ±áīµ
ĠáĭŃáĮĪ áĬĻ
Ġáĭ«áĮĭ áĪ©
Ġáĭ¨áĪĽ áĭ«áĭįáīħ
Ġáĭ¨áĪĿáĬķ áįĪáĪįáĮĪáĭį
ĠáĪµáĪĪ áĭļáĭ«
áĭ° áĪĪáĪĿ
ĠáĪĬ áĪłáĪ«
Ġáĭ¨áĪĽ áĬħáīłáĪ«áĭĬ
ĠáĬłáĪĭ áĪµáī¥áĪĿ
Ġáĭ³ áĬĴ
Ġáĭ¨áĭµáĬķ áĮĭáĭŃ
áĪ® áī»áī¸áĭį
áĪŃ áĪĿáĮĥ
ĠáīłáĪµ áī¥áĪ°áī£
Ġáĭ¨áĪļáĭ« áĪĿáĬķ
ĠáĭŃáĭĪáĪ° áĭ³áĪį
ĠáīłáĪļ áĬ¨áī°áĪīáīµ
I N
ï ¸
Ġáīł áĪĪáĭį
áĬ¨ áĪ¨áĭį
ĠáĬłáī£ áī¶áī»áī½áĬķ
Ġáī°áĮ½ áįİ
ĠáĪµ áĪĿáĪħ
ĠáĪħ áĪĺ
ĠáĪĺáĬªáĬĵ áĭİáī½
Ġáī´ áĪĮ
ĠáĭŃáĮį áī¡
ĠáĬ® áĬ¨
Ġáįĵ áĬĲ
áįįáĪ« áĪĿ
ĠáĪĺáĪ¨áĮĥ áĭįáĬķ
ĠáĬ¥áĪµ áĬŃáīµ
ĠáĬ¨ áĭ°áĬķ
áĮł áĬĵáĭį
Ġáī°áĬĲáĪ¥ áī¶
áįħ áĪŃ
Ġáĭ¨áĭĪ áĬķáĭ¶áī½
ĠáĮĪáĬķáĭĺ áī¡
Ġáĭ¨áĪļáĮĪáĪŃ áĪĿ
ĠáĬ¥áĬķáĭ² áĪī
ĠáĭĪáĬķáĭµ áĪĽáĪĽ
as s
Ġáī°áĬłáĪĿ áĪ«áīµ
Ġáĭ¨áĮĭ áī¥áī»
a z
áĬĲ áĭī
ĠáĬ¨áī°áĪĽ áĭį
Ġáĭ¨áĪĲ áĪ°áīµ
Ġáīµ áĪĺáĪµ
ĠáĪĪáĪĽ áĬ«áĪĦáĭµ
ĠáĮĢ áĪŃ
Ġáīħáĭµ áĪµáīµ
Ġáĭ¨áĪģáĪĪ áī±
ĠáīłáĪķáĭŃáĭĪ áī³áī½áĬķ
ĠáĬ¨ áīħ
Ġáĭ¨áīµ áĭįáĪįáĭµ
ĠáĮĪáĪĪ áĮ»
ĠáĬ¨ áĪŃáĪ±
Ġáĭ¨áī°áīĢ áĬĵ
Ġáīłáī° áĭ°áĪ¨áĮĪáĭį
áĪĺáĪį áĪ±
ĠáĭŃáīĨ áĭ©
Ġáĭ¨áĪ½ áī¥áĪŃ
ĠáĪįáĮĥ áĮĪáĪ¨áĭµ
áĪģ áĪħ
Ġáĭ¨áĬł áĬ«
ĠáĬ¨áĪĺ áĬķáĮįáĪµáīµ
ĠáĭŃáĮĪáī£ áī¸áĭĭáĪį
ĠáĬłáīħáĪŃ áī§áĪį
ĠáĪĺáĪĭáĬ¥ áĬŃ
áĮİ áĪįáīłáīµ
ĠáĬ¨áĬ¥ áĪµáĪŃ
ĠáĪĺáĮł áĬĸáī½
Ġáī£áĪį áĪĨáĬĲ
Ġáĭ«áĭį áĪŃáĭ±
áĪľ áīµáĪŃ
ĠáĬ¥ áĭ³
ĠáĬ¨áĬ¥ áĬķáīħ
áĭ²áĭ« áī¥áĪİáĪµ
ĠáĬ¦áįĬ áĪ´áĪĭáĭĬ
áĪŃ áī°áĭį
ĠáĭŃ áĬ¨
ĠáĬ¥áĭįáĬĲáīµ áĪĿ
áĬķáĭ¶ áĭįáĪµ
9 0
Ġáĭĺ áįĭ
ĠáĪĽ áĬĲáĮĭáĮĪáĪŃ
ĠáĪĪ áĬķ
ĠáĬł áĪľáĬķ
ĠB itcoin
Ġáī¤ áī³áī½áĬķ
Ġáĭ«áĮĭ áĮ¥
ĠáĬ¥áĬķáĭ°áĪĽ áĪµáīłáĭį
áīĢ áĮłáĪį
áĭĪáĭ³ áī¸áĭį
Ġáĭ¨áĭŃ áĪģáĭ³
ĠáĬ¨ áĮĢáĪĺáĪ¨
áĭ´ áįĵ
ĠáīĨ áĪĺ
Ġáĭ¨áĬ« áĬĵáĭ³
áĪĺáĭĺ áĮĪáī¡
ĠáĪĪáĪĺ áįĪáĮ¸áĪĿ
áĪ¬ áĬłáĪĪáĪģ
áĬª áĬķáĮį
áĬª áĪµáī³áĬķ
Ġáī¥áĪŃ áĮŃáīĨ
áĮ«áĭĪ áī°
Ġáĭ«áĪħ áĪī
áĬ¨ áĪ»
ĠáĭķáĪĪ áī³áĭĬ
áĮ£ áįĬ
ĠáĬ¨áĪĺ áĪĨáĬĳ
Ġáĭ°áĮĭáĮį áĪŀ
ĠáĪħ áĪĬáĬĵ
ĠáĭŃáĮĪáī£ áĬĽáĪį
ĠáĬ¨ áī¦
Ġáī¦áī³ áĭįáĬķ
ĠáĭŃáĮĪáĪĺ áī³áĪį
ĠáĬ¥áĬķáĭ²áĭ« áĭ°áĪŃáĮį
ĠáĪĺáĪŃáĬ¨ áī¦áī½
it e
Ġáĭ¨áĪĺáĪĭ áĬªáĭ«
áĪª áĪµáīµ
Ġáĭ¨áĮĪ áī¢áĭ«
Ġáĭ¨áĮ¥ áĬĵáīµ
Ġáĭ«áĭ³áĪĿ áĮ¡
ĠáĬ¢áĬķáĭ±áĪµáīµ áĪªáĭİáī½
4 3
Ġáĭ¨áĪļ áĮĪáĬĺáĭįáĬķ
ĠáīĢáĪŃ áīłáĭį
Ġáī¥ áĭµ
Ġáĭ° áĪ¨áĪµ
ĠáĬ¥áĬķáĭ² áĮĪáī¡
Ġáīłáī° áĪ°
ĠáīłáĪ³ áĪĿáĬķáī±
áĪĽ áĪĪáĬķ
Ġáĭĺ áĪĮ
ĠáĬłáĭį áĪİ
ĠáĪĺ áĪĻáĪĭáīµ
áĭį áĪĪáĭį
áĮĭ áī³
ĠáĬ¥áĬķáĭ° áĬĲáīłáĪ¨áĭį
Ġáĭ¨áī° áīł
ĠáĪ¸áĪĽ áī¾áī½
ĠáĬ« áĪħáĬķ
ĠáīłáĬ¥áĪŃáĪ± áĪĿ
Ġáĭ¨áĬ¢áīµáĭ®áĮµ áĭ«áĬķ
áī¸ áĭĭáĪĪáĪħ
ĠáĪµ áĭ°áīµ
áĮĪáī£ áĪĿ
ĠáĪ°áĪĭ áĪĿáĬĵ
ĠáĭŃáĪ°áĪĽ áī¸áĭĭáĪį
ĠáĭĿáĪĿ áī³
ĠáīłáĬ® áĪĿáįĴ
ĠáĭĲ áī¢áĭŃ
Ġáĭ¨ áĮĤ
áĪ¨ áĮħ
ĠáĮł áīĭáĪļ
áįįáĪ« áĭį
ĠáĬłáĪĺáĮ£ áĮ¥
áĪª áįķ
áī¡ áīłáīµ
áĬĵáĮĪ áĬĿ
áĪŃáī¶áĭ¶ áĬŃáĪµ
6 7
ĠáĬłáĪįáī° áĪ³
ĠáĬ¨áĬĲ áīłáĪ©áīµ
ĠáĪĺ áįĥáįį
ĠáĪįáĮħ áĬķ
áĪŃáī£ áĬķ
ĠáĬĲ áī£
ĠáĪ² áĪµáī°áĪĿ
ĠáĪĺáĮł áĪĪáĭ«
áĭ² áĪģ
ĠáĬŃáįī áĬĽ
ĠáĪĻ áī³áĬķ
ĠáĪĿáĪµ áĬªáĬķ
ĠáĬ¥áĪħ áī¶áī½
ĠáĪ³ áī³
ĠáĪĿáĪŃ áī±
áĪµ áī¦
ĠáĪĪ áĬ®
4 2
u d
ĠáĬ¨ áĪ°áĪĽ
áīĢ áĭĺ
Ġáĭ¨áĪĽ áī³
áĪķ áįĪáīµ
ĠáĬłáĮĭ áĪ®áī½
áĭ² áĭ¨áĪĿ
ĠáĭŃ áĭĺáĮĭ
ĠáĬ¨ áĪ²
Ġáī£ áĭ®
ĠáįĬ áĪŃáĪĽ
ĠáĬ¥áĭįáĬĲ áī°áĬĽáĭį
ĠáĬłáĪ« áī°áĬĽáĭį
A S
ĠáĬł áĪĬ
ĠáĪĪáĪĽ áĭŃ
Ġáĭ¨áĬ¥ áĪŃáĪ»
ĠáĬ¥áĭ¨ áĪ°
ĠáĬłáīµ áįįáĪ©
Ġáī°áĭĪ áĬ«áĭŃ
ĠáĬłáīĢáĪŃ áī£áĪĪáĪģ
áĮĬ áĭ«áĭį
Ġáī°áīĢ áīłáĪį
ĠáĬ¥áĬķ áĪ¨áĭ³
ĠáĬ¥áĬķáĭ°áĪĨáĬķ áĬŃ
ĠáĭŃ áĪĪáĭį
áĪĪáĭĭ áĭĪáĮ¥
' s
ĠáĭŃáĮ«áĭĪ áī³áĪī
ĠáĬłáĪµ áĪĺ
áīĢ áĭ°áĪĿ
Ġáī¥ áĭĿ
áī£áī¢ áĪİáĬķ
Ġáĭ«áĭ°áĪŃáĮī áī³áĪį
Ġáī¥áĪĭ áĪĪáī½
Ġáĭ¨áī° áĮ¨
Ġáīłáī° áīĢ
áĬ³ áĪį
ĠáĪĬ áĪ¨áĭ±
áįĬ áī±áĬķ
áĪ¥áĪ« áī½
ĠáĬĲáįį áĪ°
ĠáĪµáī´ áīµ
ĠáĮİáĪį áī¶
ĠáĭĿáĭįáĭį áĪŃ
ĠáĬł áīłáĪ¨áī³
Ġáĭ© áĬŃáĪ¬áĬķ
Ġáī° áĪł
áĪļ áĪŃ
áĬ¥ áĬķáĭ²áĪħ
áĪ» áĪĿ
áī¥áĪ« áĭļáĪį
ĠáįĵáĪµ áįĸáĪŃáīµ
áĪģ áĬĶáī³
áĪĲ áīµ
áĭ°áĪŃ áĪ°áĭį
áįĪ áĬĳ
ĠáĭŃáĮĪáī£ áĪī
ĠáĬ¨áĭ¨áīµ áĬĽáĭįáĪĿ
ĠáĪļáĪµ áī±áĬķ
Ġáĭ¨áĪĺáĪ³áĪ° áĪī
áĪĿ áī³
ĠáīłáĪĺ áĬ¨áĪ«
ĠáīĢáĬķ áĬĵ
Ġáĭ¨áī°áĭĪáĪ° áĭ°
ĠáĪĺáįįáīµáĪĦ áĭİáī½
áĪħ áįĪáīµ
ĠáĪĪ áĬĵáĬķáī°
Ġáīµ áī½áīµ
Ġáĭ« áĭĺáĮĭáĮģ
ĠáĪĽ áĮī
ĠáīłáĮ¨ áĭĭáī³áĭį
áī¢ áĬĶ
Ġáĭ¨ áĮħáĪĿáĪĭ
Ġáĭ¨áĪļ áīĢáĪŃáī¥
áī³áĭį áīģ
áĪī áĭŃ
ĠáĬŃáįį áĪİáī½áĬķ
áĪĪ áĪħáĬķ
Ġáĭ¨áĪĺ áĪ£áĪªáĭ«
ĠáĬ¥áĪĺ áĬŃáĪ«áĪĪáĪģ
Ġáĭ¨ áĬ¨
ĠáĪļ áĪµáī¶áī½
ĠáīłáĪĿáĭµáĪŃ áĪĿ
ĠðŁ ĺ
ĠáĭŃáĪŀ áī³áĪį
áĭŃ áĭŃ
ĠáĭĲ áĭĭáīĤ
áĮĪ áĪ°
Ġáįĭ áĭŃáĬĵáĬķáĪµ
ĠáĮĮáī³ áĪĿ
áĬ¨áī£ áīłáĪŃ
ĠáĮ¥áįĭ áī°áĬĽ
ĠáĬ¥ áĪ½
áĮį áĭ¨áīµ
ĠáĮį áĬĿáīµ
Ġáĭ¨áĪĺ áĪĽáĪŃ
ĠáĭĪáĭŃ áĬķáĪµ
áĪ¨áĪĿ áī±
ĠáĪĺáĪµ áī³áĭĪ
Ġáĭ¨áĪĿáĬķ áĬĸáĪ¨áĭį
Ġáīłáĭ¨ áī¦áī³áĭį
áī¾ áī¹
ĠáĬ¨ áĭ©
ĠáīłáĬł áĮĭáĮ£áĪļ
ĠáīĨ áĪ®áĬķáī¶áĪµ
ĠáįĪ áīĢáīħ
ĠáĪĪáĭį áĮ¡
ĠáĬ¥áĪµáĬŃ áĬķáĭµáĪŃ
ĠáĬłáĭį áĪµáīµáĪ«áĪĬáĭ«
ĠáĭĪ áĪ®áī½
áĬĽ áī¸áĭį
ĠáĪ¸ áĪ½
ĠáĪĪáĪį áĮħ
áĪĢ áĪ³áī¥
áĭĺ áįį
Ġáī¥áĪĶ áĪ¨
Ġáī°áĭ° áī¥
ĠáĪĿáĪį áĬ¨áī³
ĠáĬ¥ áĮ½
ĠáĬłáĭį áĪ¬
áĬŀ áī¼
ĠáĬ¤áĪį áĪ³
ĠáĮ£ áīµ
áĭĳ áĭ²
Ġáī°áĪĺáĪ« áĪĽáĪª
ĠáĭŃáĬ¨áī¥ áĭ³áĪį
áĬĲáĮĭáĮĪáĪ« áĪĪáĬķ
áī£ áī³
Ġáī£áĪħáĪªáĭ« áīµáĬķ
ĠáĭįáĭŃáĭŃ áī¶áī½
áĪŃ áĬĸ
ĠáĪĽ áĪķ
ĠáĪĽ áīĭáīĭáĪĿ
Ġáĭ«áĪį áī³
ĠáīµáĪĭ áĪĭáī½áĪģ
ĠáĭŃáĪ°áĮł áĬĵáĪį
áĬł áĪĪ
áĬŃ áĪ³
Ġáīģ áĮłáī£
ĠáĪĽáīłáĪ¨áī³ áī»
ĠáĬ¥áĪĺáĪŃ áĮ£áĪĪáĪģ
ĠáĪ² áĪĺáĮ¡
ĠáĪĪáĪĽ áĮĭáĪ«áīµ
ĠáĭŃáĬĲáĮį áĪ¨áĬĵáĪį
ĠáĬłáĪĪáĪĺáī³ áĭ°áĪį
ĠáĬ¥áĬĵ áĭį
áį «
áįĪ áĪŃáĪµ
áĬ« áī²áīµ
Ġáĭ¨áĬł áī£áīµ
ĠáĬłáĪĭ áĭ°áĪ¨áĮĪáĪĿ
ĠáĪĢáĪ³ áī¦áī½áĬķ
ĠáĮłáĭŃ áīħ
ĠáīłáĮ¥ áĭ«áīĦ
Ġáī°áĬł áĪĿáĪŃ
Ġ j
áĮł áĬĽáĭį
ĠáĬ¥áĬķ áĬĲáĮĭáĮĪáĪ«áĪĪáĬķ
áĬŃáĬķáĭ« áīµ
ĠáĬł áĮłáĪ«
ĠáĬłáĭŃ áĮ¥
ĠáĭŃáĮłáĬĵáīĢ áīĥáĪį
ĠáĪµ áĭµáī¥
ĠáĬ¥áĭ¨ áĪŀáĬ¨áĪŃ
áĮĪáĬĲáĭĺ áī¡
ĠáĪ³ áĪµáī¥
ĠáĭŃáĮłáīłáīħ áī£áī¸áĭĭáĪį
Ġáĭ¨áĪļáĮĪáĪį áĮ½
ĠáĪĿ áĮįáī£
Ġáĭ¨áĪļ áĭĪáĪµáĭµ
áĪĺáĪŃ áĮ¥
ĠáĬłáĭĭáīĤ áĭİáī½
ĠáĪįáĮĥáĮĪáĪ¨ áĭ¶áī½
Ġáīł áĭ¶
Ġáī°áĪĺ áĭĿáĮį
ĠáīłáĪĺáĪµ áĬ¨áĪ¨áĪĿ
ĠáĪĽ áĪĺáī»áī¸áīµ
áĭ© áĬĿ
áī¶ áīµ
ĠáĬ¥áĬĲ áĮįáĪ«
áĬĵáī¸áĭį áĬķáĪĿ
ĠáĭŃáĪĺáĪµáĪį áĪĥáĪį
ĠáĪĿáĪµ áĬŃáĪ®áī½
áĮłáĭŃ áīħáĪĿ
Ġáĭ¨áī°áĪĪáĪĺ áĭ°áĭį
ĠáįĪáįħ áĪŀ
ĠáĪ°áĬķáĪ° áĪĪáīµ
Ġáĭ¨ áĮ»áįį
Ġáĭ¨ áĭ«áĭĻ
áī¥ áĪ«áīµ
áīł áĭļáĭ«
áĭįáĭ«áĬķ áĬķ
ĠáĪ» áĪĿáįĴ
Ġáĭ¨áĪĿáĪŃ áĪĺáĪ«
áĭµ áĮĵáĭµ
áĪı áī¸áĭĭáĪį
áĪĺáĪ¨ áĮ¡
ĠáĪĪáĭĺ áĪĺáĬĵáīµ
ĠáĪ¾ áįĮ
ĠáĪĺáĭµáĪĥáĬĴ áī¶áī½
ĠáĪį áĭĳáĪį
ĠáĪľ áĬŃáĪ²áĬ®
Ġáį ĥ
ĠáĪĪáĪĺ áĭ°
ĠáĬ¨áĪķ áĭĿáī¡
ĠáĭŃáĪ°áĮ¥ áĭİáī³áĪį
áĪĺ áĮĥ
ĠáĪ²áĭ« áĭ°áĪŃáĮį
ĠáįĪáĪŃ áĭĸáĬķ
ĠáīłáĬ¨áī°áĪĽ áĭĭ
ĠáĪµáĪĿáĪĿ áĬĲáī¶áī½
ĠáĬ¥áĪ³ áī¤
ĠáĪĪáī¤áī° áĪ°áī¥
Ġáĭ¨áīłáĪ¨ áĭ¶
ĠáĬ¥ áįİ
ĠáįĪ áĮ£
Ġáīģ áĪŃáĪµ
ĠáĬłáĮįáī£áī¥ áĬĲáīµ
ĠáĬł áĪ¥
áįī áīłáīµ
áĭİ áī³áĪĪáĪģ
Ġáī° áįİáĬ«áĬ«áĪª
ĠáĪĽ áĬ«áĪĦáĭµ
Ġáīµ áĭ³
ĠáĪį áī¦
ĠáĬ¥áĬķáĭ² áī°
ĠáĭŃáĪĪáĭ« áĪį
ĠáĮĥ áĬŃ
Ġáĭ« áĪ»áĪ½
ĠáīµáĮį áĪī
ĠáĪĽ áĪŃáĭ«
ĠáĪ² áĪ°
ĠáĬ¬ áĬķáĭ«
ĠáīłáĪĺ áĭĿ
ĠáĭĵáĪĭáĪĽ áĭį
ĠáĬ¨ áįĪáĪĪ
Ġáīłáī° áĪ¨áįĪ
áĬ¨áī° áĪĽáĭŃ
Ġáĭ¨áĪļáĭ« áĪĿáĬĳ
Ġáī¦ áĪŃáĭ±
ï¸ ı
áĪ³ áĪĪáĬĿ
áĪª áĬĲáīµ
áīĨ áĬķ
Ġáī¥áĭĻ áĭİáī½áĬķ
ĠáĬ¥áĬķáĭ°áĪļ áī³áĭĪáīĢáĭį
ĠáĬłáĬķ áįĪáĪįáĮįáĪĿ
ĠáīłáĪį áī¤
ĠáĭĪáĬķ áīł
NUM X
ĠáĬ¥áĬķáĭ³ áī³
ĠáĪĮáĪĬ áī±áĬķ
ĠáĬ¨ áĪľ
áī£ áī½áĬĭáĪį
Ġáĭ¨áĪļ áĭ°
ĠáĬ¨áĬł áĮĪáĪŃ
ĠáīłáĮłáīħ áĪĭáĪĭáĭį
Ġáĭ¨áī° áĬķáīĢáĪ³áīĥáĪ½
áĪŀ áĬĿ
áĪĬ áĪĭ
Ġáīħ áĪµ
ĠáĬłáĪĪáĪĺ áĬĸáĪŃ
áĬĵ áįĬáĭİáī½
ĠáĪµáĪŃáĭĵ áī°
a h
ĠáĪħáĭŃáĭĪ áīµáĬķ
ĠáĮ¥ áĪ¨
ĠáĬ¥áĬķáĭ² áĭĪáĮ¡
Ġáĭµ áĪħáĪ¨
ĠáĬ¥áĪµ áĭ«
ĠáĬłáī¥ áĪ¬
ĠáĬł áĪıáīµ
ĠáĬ¥ áĪĪ
áĭ¨ áĬ¥áĬĶ
ĠáĪĽáĭį áĮ«
áĬĵáĮĪ áĮĥ
áĪĺáĪĪáĪµ áĪĿ
ĠáĬł áĭĻ
Ġáīł áĭľ
áĪĽ áĬĴ
Ġáĭ¨áĪļ áĬĵáĮĪáĪ¨áĭį
áĮĭ áĪĪáĮ¥
ĠáĮĢ áĪĿáĪŃ
áīĭáīĭ áĪĻ
Ġáīµ áĬ¬áīµ
ĠáĪĪáĬł áĪĿáĪĭáĬŃ
ĠáĬ¥áĬĵ áĮĪáĪ«áĪĪáĪģ
áĮħ áĬķ
Ġáī³ áīµ
ĠáīµáĬ¥áĭĽ áĭĽáīµ
i b
áĪĦ áĪ«áĭĬ
ĠáīµáĪĿáĪħáĪŃ áī±áĬķ
ĠáĬłáĪµáī° áĬ«
ĠáĬłáĭį áīĨ
ĠáĪĪáĪĽ áĪĿ
ĠáĮĪ áĮ¸
ĠáĬ« áĬķáī°
ĠáĬ¨áĪģáĪĪ áī±
Ġáī° áĪ»áĪ½
ĠáĬ¨áĭĪ áĭ²áĪģ
ĠáĮŃáĬķáīħ áĪĭáīµ
áĪ« áįį
Ġáīģ áĪĺáīµ
Ġáĭ¨ áįĪáĪĪ
ĠáīĨ áĮ£
Ġáĭ¨áĪ¶ áĪµáī°áĬĽ
áįĭ áĪĽ
ĠáĬłáĬķáĭ³ áī¸áĭįáĪĿ
ĠáĪĪáĬł áĪľáĪªáĬ«
ĠáĪĪáĪĺáĪį áīĢáīħ
Ġáĭ² áĪ²
ĠáĭŃáīĢ áĭŃ
áĬĲáīł áī¡
Ġáį «
ĠáĪ² áĮĭáĪ«
ĠáĪŀ áĪĭ
áĮĪáĬĻ áīłáīµ
Ġáĭ¨áī¡ áĬĵ
áĬĲ áī£
4 1
ĠáĬ¥ áĪ¸
ĠáīłáĪĺ áĪĺáĪµáĪ¨áīµ
Ġáĭ«áĭ¨ áĪģáīµ
Ġáĭ¨áĭį áĮª
ĠáīłáĪµ áĪŃ
ou d
áĪį áī¦áĬĵ
áĪĪ áĪĭ
ĠáĪĺ áĪ°áĮł
ĠáĬłáĭ³ áĬĿ
áīł áĪ±
áįĪ áįĢáĪĿ
ĠáĬ® áĪĮ
Ġáī´áĬŃáĬĸáĪİáĮĤ áĭİáī½
Ġáĭ¨ áĪ³áĭŃ
il l
áīħ áĪµ
ĠáĬ¥ áĪĺáĬĳ
Ġáĭ« áĬĲáīłáī¥
ĠáĮį áĭ¥
ĠáĮł áĬķ
Ġáĭ¨áĬĴ áĭį
Ġáĭ¨áĬ¥ áĮįáĭļáĬłáī¥áĪĦáĪŃ
ĠáĬ¨áĬł áĪµáĪŃ
áĮłáīĢáĪĻ áī£áī¸áĭį
ĠáĪĬáĭ« áĭ°áĪŃáĮī
ĠáĪĽáĮ£ áīĢáĪ»
áĪļ áĭĿ
ĠáĬª áĪµ
ĠáīłáīłáĬ© áĪĮ
áĮĭ áĪ©
ĠáĪµ áĪĽáī¸áĭį
áĪ® áī»áī½áĬķ
ĠáĬłáĪĪ áī£áīµ
ĠáĪĿáĭµ áĮĥ
ĠáĪĺáīħáĭ° áĪ±
ĠáĬłáĪ°áĪį áīº
ĠáĭŃ áīłáīĥ
ĠáĬ¥áĭ« áĪµáī°
Ġáī°áīĭ áīĭ
Ġáĭ¨áĪļ áĪĺáĬĲ
ĠáĬłáĬŃ áĪĬ
i ve
áĪ ¿
Ġáīł áįħ
ĠáīłáĭŃ áĪģáĭ³
ĠW ord
ĠáĪįáĮĨáī½ áĪĿ
ro te
ĠáĪĺáĬĸ áĪ«áī¸áĭįáĬķ
Ġáī°áĮłáĬķáīĢ áīģ
ĠA l
áĪ¨ áīĢ
áĬķáĭµ áĪ®
ĠT witter
Ġáĭ«áĭ°áĪŃáĮĭ áī¸áĭĭáĪį
ĠáįĪáĪ¨áĬķáĪ³áĭŃ áĬĽ
ĠáĭŃáĬ¨áįĪ áī³áĪį
Ġáĭ¨ áĪĦ
áĬ« áįį
ĠáĬ¨áĪĽ áĭŃ
ĠáĪ¥ áĭķáĪį
áĪį áĮĦ
ĠáĬłáĭ« áĪ³
áĪªáĪµ áī¶áī½
ĠáĮ¥áīĥ áī¶áī½
Ġáīħ áĬĶ
áĪ¸ áĮĪ
ĠáĮĮ áĮ£
Ġáī°áįĪ áĪĭáĮĬ
Ġ ago
áĪ« áĪĭáī½áĪģ
Ġáĭ« áĪ°áĪĽ
áĬł áĪĭ
ĠáĪĽ áīĨáĭ¨áīµ
Ġáįį áĪĭ
ĠáĪĪáĬł áĪĿ
ĠáĭĪáĪµ áĭ°áĭį
ĠáĮ» áįį
ĠáĪĪáĪ«áĪµ áĪħ
áĪĽ áĬķáĪĿ
áĬĵáĪį áĭµ
Ġáĭ¨áĬĲ áĮ»
Ġáĭ¨áĪµ áĪįáĮ£áĬķ
ĠáĪ² áĪĺ
ĠáĪķ áī¥áĪ¨áīµ
ĠáĪĽáĪµáī° áĬĵáĮĪáĭµ
ĠáĮ¦áĪŃ áĬĲáī±
áĮĪ áĪ¨áĪĿ
áĪĮ áĭį
áī´ áĬŃ
áĪ² áĪį
ĠáĪķáĭĿ áī¤
áįįáīµáĭĮ áĪŃ
áĬ Ł
áĬķ áī³áĭĬ
ĠáĬ¥áĬķáĭ ĺ
ĠáĭµáĮį áĮįáĪŀ
áĭ´ áĭµ
ĠáĪķáĭĿáī¥ áĬķ
ĠáĪµ áĮłáĬĿ
ĠáĪĺ áĭĪáĭ«áĭ¨áīµ
Ġáī°áįĪáĮ¥áĪ® áĬłáĭĬ
áĮĪáĬĲáĭĺ áī¥
Ġáīł áĮĪáī£
Ġáī°áįĪ áīµ
ĠáīłáĪ½ áī³áĭį
Ġáĭ¨áĪļ áĭįáĪį
áĪµ áī¼
áĮł áĬĵáĪį
áĭ® áĪŃáĮĬ
ĠáĬ¨áįįáī°áĬĽ áĭįáĬķ
ĠáĪŃ áĬ¥áĪµ
áĬĶ áĪį
ĠáĪĽáĪµáī° áĭĭáĭĪ
ĠáĪĪ áĪŀáīµ
ĠáīłáĪĺ áįĪáĪĪáĮį
áĪĥ áĭŃ
ĠáīłáĪ° áĭŃáįį
ĠáĪħáĭŃáĭĪ áī±
ĠáĪĪáĪĺáĪĿ áĪ«áīµ
áĪĪ áįĪáĭį
áī½ áĬĵ
áĭ² áĭİáī½
Ġáįį áĮ¥
Ġáīł áīĥáĪī
ĠáĪ² áĬĸ
Ġáī¥áĪį áĮŃ
ĠáĬ¥áĬķáĭ² áĪĺáĮ£
Ġáī°áĮįáī£ áĪ«áīµáĬķ
ĠáĬĸ áĪ¯áĪį
áī³ áī½áĬĭáĪį
ĠáĪĿ áĪ¨áĮ¥
Ġáĭ¨áĬ¥ áĭµáĮĪáīµ
áĪ« áįĬ
áĮĪáĪ© áĬĿ
ĠáĬł áĭĪáīħ
áĪĪ áĭĪáĮ¡
ĠáĬłáīµ áįį
ri ve
áĭĺ áĪ¨áĮĭ
ĠáĬ¥áĬķáĭ² áĪ°áĪ«
ĠáĬłáĬķáĭ³ áī¸áĭį
áīłáĪŃ áīµ
ĠáīłáĪĺáĮį áī£áīµ
ĠáĭŃáĪ¨áĭ³ áĭİáī³áĪį
Ġáī£áĪĪ áĪŀ
Ġáĭ«áĪįáī° áĬĲáīłáīł
áī² áĬķáĮį
ĠáĪº áĭİáī½
áĮ¡áĬķ áī»
Ġáī°áĭŃ áĭŀ
áī° áĬĵáĭį
Ġ5 2
áīł áĭĺ
Ġáĭ¨áī° áĪĽáĪŃ
Ġáĭ¨áĪĺ áĬķáĮįáĪ¥
áīµáĪĿáĪħ áĪŃ
ĠáĭŃáįĪ áīħ
Ġáīłáīł áĭĵ
Ġáī°áīĨáĮ£ áĮ£áĪª
ĠáĮ¨áĪĿ áĪ¯áĪį
ĠáĭĪáĭ° áī°
Ġáĭ«áĮĪáĪĪáĮį áĪĭáĪī
ĠáĬ¨áĪŀ áī°
ĠáĬ¨ áĪ´áīµ
ĠáĮį áĬĿ
ĠáĪģáĬĶáī³ áĪĿ
áĪĭáīĢ áīħ
Ġáĭ¨áĭ°áĪ¨ áĪ°áĭį
ĠáĬ¨áĬŃ áįī
áĪĭáĮİ áīµ
Ġáĭ¨áĪĭ áīµáĪĿ
Ġáĭ¨áĪļáĭ«áĪµ áī½áĪī
ĠáĭĪáĪŃ áĪĥáĭĬ
ĠáįĬ áī±áĬķ
ĠáĪĺ áĪ¨áĭ³
áĭ° áīµáĬķ
ĠáĬ¥áĬķáĭ² áĭĪáĮ£
áĪĺáĪµ áĪįáĪĿ
ĠáĬłáĭįáĮ¥ áī¶
Ġáĭ¨áī° áĭ°áīł
ĠáĪĿáĪį áĪįáĪµ
áĭĪáĪ° áĬĲáĭį
ĠáĪĺáĪįáĬ¥áĬŃ áī°áĬĽ
áĮĭ áī¡
áīĥ áī¥áĪŃ
ĠáīģáĮ¥ áĪ©
ĠáĭŃáĮłáī¥ áīħ
ĠáĪĪáĪĽáĪµáī° áĭ³áĭ°áĪŃ
ĠáĬĥáĮ¢áĬł áīµáĬķ
ĠáĭŃáĪĺáĭĿ áĮĪáī¡
ĠáĬł áī¢
Ġáĭ¨áĬł áĬĹáĬĹáĪŃ
Ġáĭ«áĪµ áĬ¨áįį
ĠáĪĪáĭį áĮ¦áī½áĬķ
Ġáīł áĬĲáīłáĪ¨
ĠáĬłáī¥ áĭ®
ĠáĬłáĪĭáĮĪáĬĺ áĪģáĪĿ
ĠáĬł áĪķ
ĠáĮŃ áĪĿ
áīł áĪ¬
ĠáĪµáĪĿ áĪħáĬķ
ĠáĪĪ áĪĲ
Ġáĭ¨áī° áĪĽáĪ¨
ĠáĮĪáī£ áĪģ
ĠáĬ¥ áīµ
ĠáĬ¥áĭ« áĪĪáī½
áĬ¤ áī½
áĪ¯ áī½áĬķ
ĠáīłáīĭáĪļ áĬĲáīµ
I S
áįĪ áįį
ĠáĬłáĪµ áĬ¨áīµ
ĠáīłáĪĺ áĮ«áĬķ
ĠáĪ¥áĪ« áī¸áĭįáĬķ
ĠáĬĲáīłáĪ¨ áī£áī¸áĭį
ĠáĬłáĭĿ áĬĵáĪĪáĪģ
áĪ¾ áĪĿ
ĠáĬ¥ áĪ´
ĠáĪĺáĪį áĪ¶áī½
Ġ9 5
Ġáĭį áĪĪáī³
ĠáĪĪáĬł áĬķ
ĠáĬ¨áĪĻ áī³áĬķ
ĠáĪĺ áįĥ
áĬĲ áī³áī½áĪģ
Ġáĭ°áĪŃ áĪ°áĭĭáĪį
ĠáĬ¥áĬ©áĪį áĬĲáīµ
ĠáĪĪ áĪģ
ĠáĬŃ áĪĭ
ĠáĬłáĪ° áīł
ĠáĮĢáĪĿ áĪ¨áĭĭáĪį
áĪį áĪĻ
áĭļ áĬĸ
ĠáĬłáĭŃ áĭŀ
ĠáĪĺáĮ¥ áī°áĭĭáĪį
ĠáĪĺáĪĨ áĬĶáĬķ
áī½ áĪıáī¸áĭį
Ġáī¥ áĪĪ
ĠáĮĪ áĭ°áĪį
áī°áĪŃ áĮİáĪĿ
áĬ¨áĪ« áĬ¨áĪŃ
ĠáĬ¥ áĪĺáĪĪ
ĠáĪ¸ áīĢ
Ġáī³áĪª áĬ©áĬķ
ĠáĬ¥áĬķáīģ áĪĭáĪį
Ġáī´áĬŃ áĬĴ
ĠáĬ¨ áįĵ
ĠáīłáĪģ áĭĭáĪĭ
áĪĺ áīĢ
ĠáĪĪ áĬ¦
ĠáĪħ áĮī
Ġáī°áĮĪ áĬĲáĭĺ
ĠáĪĪáĪĺáĮį áĭ°áĪį
ĠáĮ® áĬ¸
Ġáī°áĪŀ áĪį
Ã ·
áĪ« áĪ´
ĠáĬ¨ áĮŃ
ĠáĪĽáĪ³ áĬ«áīµ
ĠáĪĺáĭĿ áĮĪáīł
ĠáĬłáīµ áī½áĪīáĪĿ
áįĭ áĪ½
áĪķ áĭŃáĭĪáīµ
ĠáĬłáīµ áīłáĪį
áĬķáĭĽ áĪª
Ġáĭ¨áĪł áĪ«áĭĬáīµ
% )
A T
C l
ĠáĪ² áĪ°áĪ«
Ġáĭ¨ áįħ
ĠáĪ« áīħ
ĠáīłáĪ¥ áĮĭ
e st
ĠáĬłáĪµáĪ¨áĭµ áī°áĭĭáĪį
E R
áĪ° áĭįáĪĿ
Ġáĭ¨áī° áĪ°áĮ¡
Ġáĭ¨áī° áĮ»áįĪáĭį
ĠáĮł áī£áĭŃ
ĠáĬ® áĪĿ
Ġáĭ¨áĪĻ áĪī
ĠáīħáĬķ áī¥áĪ®áī½
áĪį áĮ¥
ĠáĭĪ áĮŃ
ĠáĪĪáĪĺ áĭĪáĭ«áĭ¨áīµ
áĪµáīµ áĪ®
Ġáī¥áĭĻ áĬĥ
Ġáįĵ áīµ
ĠáĭŃ áĪĨáĬĳ
ĠáīłáĬł áĬķáįĥ
áĬķáī° áĬĵáĭĬ
ĠáĪĽáĭķ áīĢáįį
ĠáĬ¨áĬŃ áĪŃáĪµáī¶áĪµ
ĠáĬłáĭįáĪ®áįķáĪĭ áĬĸáī½
ĠáīłáĭĺáĪŃ áįī
áĪĺ áĬĶ
Ġáī° áĬ¨áĪ°áī°
ĠáĬķ áįħ
áĮĭ áĪµ
ĠáīłáĬ¥ áĮ¥áįį
áįĶ áĭ²áĭ«
áĭ° áĮĥ
ĠáĪĽ áī°áĬ®áĪŃ
ĠáĮİ áĪ³
Ġáĭ° áĪ³áĪĪáĬĿ
ĠáĪŀ áĮĪ
Ġáīħ áĬĿ
áĪª áĬĵ
ĠáĪĪáĪĽáĪµáī° áĪĽáĪŃ
ĠáĪĺ áĮĢáĪĺáĪŃáĭ«
ĠáĪµ áĪĮáīµ
ĠáĪµáĪŃ áĮŃ
ĠáīłáĪħ áĮĪ
ĠáĪµáī¥áĪ°áī£ áĭį
Ġáīłáī´ áĪĮáīªáĭ¥áĬķ
áĬĲ áī±áĪĿ
Ġáĭ« áĭĭ
Ġáĭ¨áĪ° áĭİáī½áĬķ
áĪ° áĪĭáĪĿ
ĠáĪĽ áĭĺ
áī« áĪį
áīĥ áī¤
áįĪáĪį áĮĪáĬķ
Ġáĭ¨áĪ« áīĢ
ĠáĬ¨ áĮĭ
ĠáĬ¨áĬł áĬķáĭ±
ĠáĪ ĵ
Ġáī° áĬ©
áĭµ áĭµáĪ©
áĮł áĪħ
Ġáī° áĬĽ
ĠáīłáīĢ áĪĭáĪį
ĠáĪĬáīĥ áĭįáĬķáīµ
ĠáĪĪ áĬĥ
ĠáĮŃ áĬķáīĢ
in k
ĠáĬ¥áĬķáĪŀáĬŃ áĪ«áĪĪáĬķ
ĠáĪ°áĪİ áĪŀáĬķ
áĭ¨ áĭĭ
áĪ½ áĬĿ
ĠáĪĲ áĭŃáīħ
ĠáĪĪáĪĺ áĪĺáĪŃáĪĺáĪŃ
ĠáīłáĬ¨áī°áĪĽ áĭį
Ġáīłáī½ áĮįáĪŃ
ĠáĭŃ áĬĲáĪ£
áĭĺ áĮĪáī¡
ĠáīłáĪĺáĬķ áįĪáĪ³áĭĬ
ĠáĬ¨áĪĺáĪµ áĪĺáĪŃ
ĠáĭŃáįĪ áīµ
áĭŃ áĪŃ
áĪ³ áīµáĬķ
Ġáĭ¨áĪĺ áĭĿáĬĵáĬĽ
Ġáĭ¨áĬ¥ áĬĲáĪŃáĪ±
ĠáĬłáĪĭ áĪµáįĪáĪĭáĮĬ
ĠáĪ³áĭŃ áĪĨáĬĳ
ĠáĬłáĭ«áĪµ áįĪáĪįáĮĭ
ĠáīłáĮ½ áĪĳáįį
Ġáĭ¨áī° áĬ¨áīłáĪ¨
áĭ¶ áĪµ
ĠáĪĺáĭ°áĪĿáĭ° áĪļáĭ«
ĠáĪĽ áĪŃáī²
Ġáĭ¨áĪĿ áĭĿáĮĪáī£
Ġáī¢ áĪĬ
ĠáĪĢ áīłáĪ»
Ġáĭ¨áĪļáĭ«áĪ³ áĭĿáĬĲáĭį
ĠáĪħáĭŃáĭĪ áī³áī¸áĭįáĬķ
ĠáīĢ áĪįáĮ£
Ġáĭ¨áĪĺ áĭ«áĭĿ
ĠáīłáĪĽ áĮįáĬĺáīµ
áĮ¹ áĬķ
Ġáĭ°áĬķáīł áĬŀáī»áī½áĬķ
áĪ¬ áĭµ
ĠáĬłáī³ áĭµáĪŃ
ĠáĭŃáĭį áĪĭáĪī
Ġáĭ«áĪµ áĮĪáī£
ĠáĪįáĬķ áĮĪáĪŃ
ĠáĬ¥áĪŃáĮ¥ áīłáīµ
ĠáīłáĪļáĭ«áĪ³ áĭĿáĬķ
i an
Ġáĭ¨ áĬħ
ĠáĭŃ áĪĭáī¸áĭĭáĪį
ĠáĬłáĭĺáĮĪ áĮĥáĮĢáīµ
ĠáĬł áī¦
áĭĪáĪ¨ áĭ°
ĠáĪĺáī³ áĮĪáĪį
áĪŃ áĬ«
áĮĪáĭ° áĪī
áĬĲ áī·áĬķ
Ġáĭ¨áī° áĬ¨áĪ°áī°
ĠáĪĪáĪĺ áĪ³áī¥
ĠáĪĥ áĪŃáĭµ
ĠáĬ«áĪį áī»áĪī
ĠáīłáĪĽáĬķ áīłáī¥
áī³ áīµáĪĿ
áįĢ áĪį
ĠáĭŃáĮĪ áĬĲáĭĺ
ĠáīłáĬłáī¥áĭĽ áĬĽáĭİáī¹
áĭ³ áĭĬ
áī² áĬŃáĪµ
ĠáīĢ áĪļ
áī° áĪĻ
ĠáĬłáĬķáĭ³ áī½áĪĿ
ĠáĬ¤ áĪŃáīµáĪ«
ĠáĭŃ áĭµáĪ¨áĪµ
ĠáĪ® áĪĿ
áĬĲ áĪ½
Ġáĭ¨áĬ¥ áĬĵáīµ
Ġáĭĭ áĭľáĪĽ
Ġáī£ áĪĪáīµ
ĠáĪĽáĪµáī° áĬĵáĮĪáĮĥ
Ġáī³ áĭµ
áĪķ áĬłáĭ´áĮį
ĠáĪµáĪĪáĪĿ áīµ
ĠáĪĺ áĭĪ
ĠáĬ« áĭ°áĪ¨áĮī
ĠáĬłáĭįáī³áĪ¨ áĪĺáĪ¨áī¥
ĠáĪĺ áĮ«
ĠáīłáĮįáĬķ áī¦áīµ
Ġáī° áĬ«áĪĦáĭ°
ĠáĬłáĭ°áĮĭ áĭį
ĠAm haric
Ġáĭ¨áĪļ áĪ°áĮł
ĠáĪĺáĪ° áĪĭáī½áĪģ
ĠáĪĺáĭĭ áĭķáĪį
6 6
áĬł áī½áĪģ
ĠáĪĽ áī£
ĠáĪĽáĪ³ áĭĪáīĤáĭ«
ĠáĭµáĪ«áĭŃ áīŃ
Ġáĭ¨áĪļ áįĪáĪįáĮĪáĭįáĬķ
áīĭ áĪ¨
ĠáĬłáī¥ áĪŃáĪĥ
áī° áĪª
áĮĪ áĪĻ
ĠáĪģáĪĪ áĮĪáī¥
ĠáīłáĭĪ áĭ«áĬĶ
Ġáĭ¨áī°áĭĪáĪ°áĬĳ áīµáĬķ
Ġáĭµ áĪ¨áĮĪ
ĠáĪµáĪĪáĪļ áĭ«áĪµ
ĠáĪĪáīł áĮİ
ĠáĪĺáĪįáĭķáĬŃ áī¶áī½áĬķ
ĠáĪĿáĪ° áĪ¶
áĪ© áīłáīµ
áīłáĪ³ áĮŃ
ĠáīłáĪĺáĬ« áĬ¨áĪĪáĬĽáĭį
Ġáĭ¨áī°áĮĪáĬĲ áī£áĭį
Ġáĭ«áī¥áĪ« áĪ«áĪį
ĠáĬ¨áĪĽ áĪĪáīµ
áĪ¨áĮĭáĮĪ áĮ¡
ĠáīłáĮĭ áĭľ
ĠáĬł áįħ
ĠáĪ½ áĭ«
ĠáĪĺáĬķ áīĢáĮ¥áīĢáĮ¥
ĠáĪ© áī¥
Ġáįįáīħ áĪ¨áĬĽ
ĠáĭŃ áīĨáĮ£
ĠáĪĪ áīµáĪĿáĪħáĪŃáīµ
Ġáīłáĭļáĭ« áī½
Ġáī°áĪĺáĪį áĬ«áī½
ĠáĪĿáĪŃ áĮ¡áĬķ
ĠáĬłáĬķ áĮĭ
Ġáĭ¨áīĢ áĪ¨áĭį
ĠáĭŃ áĪĺáĮ£
áīĨ áĮłáī¥
áĪŃáĮį áĮ¥
ĠáĪĪáĪĺ áĬĲáĮĭáĮĪáĪŃ
ĠáĬ¥áĭ« áĪĪáĪģ
ĠáĬ¥áĭ« áĭ¨áĬķ
ĠáĬłáĪ³ áįĭáĪª
ĠáĪĽáĪµáī° áĭĭáĭĪáīħ
ĠáĬĥáĭŃ áĪĪ
Ġáī Ī
ĠáĬłáĪµ áĮĪáī¥
ĠáĪĬ áĬĲáĮį
ĠáĬĲáĭį áĪŃ
Ġáĭ¨áĪĺáĮ¨áĪ¨áĪ» áĭįáĬķ
ĠáĪĪ áĪ¥
ĠáĪ² áĬĲáĪ³
áĭµ áĭµ
ĠáĪĽ áĬ«áī°áīµ
Ġáĭ¨áĪ½ áĮįáĮįáĪŃ
ĠáĪ²áĬĲ áĮ»áĮ¸áĪŃ
| "
ĠáĪĺáįĪ áĮłáĪŃ
Ġáĭ¨áįĢ áĮīáĪŃ
ĠáĭĪ áĪ«
áĪ¸ áĮ¡
ĠáĬ¥áĪ«áĪµ áĭİ
Ġáīł áĮĥ
ĠáĭŃ áĬ¨áīł
áĮ¨ áīł
ĠáĭŃáĬ¨áĬĵáĭĪ áĬĵáĪį
ĠáīłáĪĺ áĪĺáĪįáĬ¨áīµ
ĠáĬłáīĢ áĪ¨áī¡
ĠáīłáĭįáĪµ áĮ£áī¸áĭį
ĠáĪªáįĸáĪŃ áī¶áī½
Ġáī£ áĭ©
Ġáī½ áĪĪáĬĵáĪį
Ġáĭ¨áįĪ áĮ¸
áĬķ áī¥
ĠáĪĪ áĮĮáī³
Ġáĭ¨áĪĺ áĭĭ
Ġáĭ¨áĪĽ áĭį
ĠáĬłáĭį áīĥ
áĭ« áĬĵ
Ġáī¥ áĪĨáĬķ
ĠáīłáĮ¥ áīħáĪī
Ġáī°áĬĲáĮį áĪ¯áĪį
áĪĽ áĪĮ
áĮ¦ áĪµ
Ġáĭ°áĬķáīł áĬĽáĭį
áīł áīĢ
Ġáĭ¨áī°áįĪ áĮ¸
Ġáī°áīĢáĪĿ áĮ§áĪį
ĠáĪĺáī°áĮįáīłáĪªáĭ« áĭİáī½áĬķ
ĠáĬ¨áīł áĭ°
áĪµ áĪĭáĪĿ
ĠáĬŃáįį áįįáĪį
ĠáĭŃáīĢ áĪĭáīĢáĪī
Ġáī ®
ĠáĪ³ áĬ¦áĪį
ĠáĭĲ áĭŃáĬķ
ĠáĬłáĭŃ áĪµ
ĠáĪĪáĪĽ áĪµáī°áĭĭáĭĪáīħ
ĠáĪ½ áī³
áĮ¾ áĪĿ
Ġáĭ«áĮĪáĬĺ áĪģáīµ
áĮ¥ áĪĭ
áĭĪ áĪįáĭµ
ĠáĬłáīµ áĬŃáĪįáīµ
el l
ĠáĪ°áĬķ áĮłáĪ¨áĭ¥
ĠáīłáĪ¨ áĪ«áĭİáī½
Ġáī¸ áĪį
Ġáī³áĮĪáĬĽ áĪĪáĪħ
Ġáĭ¨áĪļ áĪłáĪ«áĭį
áĬ® áĪµ
ĠáĬłáīħ áĪĻ
ĠáĬ¨áĮ¥ áĬķáīµ
ĠáĮłáĭŃ áīĢáĭĭáĪį
ĠáĪŀ áĬ¨áĪŃ
Ġáīłáĭķ áĪĪáīµ
Ġáĭ¨áįįáīµ áĪħ
ĠáĬ¢ áĪħ
ĠáĮ» áįĪ
ĠáĬ¥áĬķáĭ² áĬĸáĪ©
ĠáĪĬ áĪ°áĪ«
Ġáī³ áĬķ
ĠáĬłáĪĽ áĬĿ
Ġáĭ¨áĭµ áĮĭáįį
Ġáĭ³áĪŃáī» áĭİáī½
Ġáĭ¨áĪļáĭ«áĭ°áĪŃáĮī áīµáĬķ
ĠáĬłáĬķáī° áĬĵ
Ġáĭľ áĮİáī½áĬķ
Ġáĭį áĭĿáĮįáī¥
Ġáĭ¨áĪļáĭ« áĪĺáĮ£
áĮĪáĭ° áī¥
Ġáĭ¨áī¤áī° áĬŃáĪŃáĪµáī²áĭ«áĬķ
ĠáīĢ áĬķáĭµ
Ġáĭ¨áĬŃ áī¥áĪŃ
Ġáĭ¨áĭµáĪŃ áĮħáīµ
ĠáĬ« áĪĪáĪħ
ĠáĪµáĪĪáĪļ áī½áĪį
ĠáĪ°áĪŃ áī·áĪį
Ġáī³ áĭ°áĪ°
ĠáĭĵáĪĺ áī·
Ġáĭ«áĪµ áĮĪ
Ġáī°áīĢ áĪĺáĮ¡
ĠáĭĪáĪĭ áĮĨáī¹
4 7
Ġ5 1
ĠáĪĿáĬķáĭµ áĬĵáī¸áĭį
ĠáĪĽ áĭ°áĪªáĭ«
ĠáĭĪáĪŃ áīĥ
áĪį áĮħ
áī° áĭįáĪĿ
ĠáīłáĬ¥ áĭļáĪħ
Ġáĭ«áĪ³ áĭ«áĪī
ĠáĬłáĪ° áįĭ
Ġáīłáī¥ áīĥáīµ
áī¥ áĪĭ
Ġáĭ¨áĪļ áĮłáī¥áīħ
áīģ áĪĻ
áĭķ áĪŃ
ĠáĪµáĪľ áĬķ
Ġáīł áĮħ
ĠáĪ² áĮĢáĪĿáĪŃ
áĭĵ áĪĿ
ĠáĪļ áĪµáī°áĪŃ
4 6
ĠáĪĪáĪĺ áĬ¨áī°áĪį
áĮĪáĪ« áī½áĪģ
ĠáĪĺáī°áĮįáīłáĪªáĭ« áĭįáĬķ
ĠáĪĪáĪĽáĮ£ áĪ«áīµ
áĬŃ áī´
Ġáĭ¨áī° áįĥáįĪ
Ġáĭ¨áī°áīĢáĭ° áĪ°
áĪ½ áīłáīµ
Ġ r
ĠáĪĽ áĪªáĭ«
ĠáĪĬ áĬ¨áĬĵáĭĪáĬķ
ĠáīłáĬł áĪĽáĪ«
Ġáī¢ áĪī
áĬķáīħ áĪµáīĥáĪ´
Ġáī° áĭĽ
Ġáĭ¨áĪļ áĮłáĪ«
áĬķáĮį áĪµáī±
áĭ« áĪĪáĪ½
áīłáĪŃ áĬŃ
áĮĪ áĬĳ
ĠáĬł áįķ
Ġáĭ« áīłáīĥáĪį
áĪĿ áĪ¨áĭį
ĠáĪįáī¥ áĪ¶áī½
ĠáĭŃáīĢ áĪĺáĮ£áĪį
áĬĴ áī±
ĠáĪµáī¥ áĭķáĬĵ
ĠáĭŃáĭŃ áĭĽáĪī
Ġáĭ¨ áĮ»
ĠáĬ¨ áĪĿáĬĵ
ĠáīģáĪŃ áĮłáĬĽ
ĠáĪµáĪĪáĪĮ áĪĪ
ĠáīĢáĪįáĮ£ áįĭ
ĠáĬ¥áĭ¨áī° áĬ¨áĬĵáĭĪáĬĲ
ĠáĪĪáĪĽáĪ³ áĪĪáįį
Ġáĭ¨áĪļáĪ°áĮ¡ áīµ
ĠáĬ¨áĪĺ áĪ¬áīµ
áĪŃáĪ½ áĪŃ
ĠáĮĢáĮį áĬĸáī½
ĠáĪĺáĪį áīĢáīħ
Ġáĭ«áĪĪáįĪ áĭįáĬķ
áīµ áĪ¨
ĠáīłáĬ¢ áĬķ
áįĪ áĬĽ
Ġáīµ áīłáĪĭ
Ġáī£áĪĪ áĪĢáī¥
ĠM ore
áĭ® áĪ½
Ġáĭ¨áīĨ áĭ©
áī´ áĪŃ
ĠáĪŀ áī¶
ĠáīµáĪŃ áįĭáĪĽ
áĪĺáĪį áĬ«
Ġáĭ«áĪ³áĭĿ áĬĵáĪį
ĠáĬ¥ áĭ°
ĠáĬ© áĬª
Ġáĭ¨áī£ áĪķáĪŃ
ĠB l
ĠáĪ°áĪĪ áĪŀáĬķ
ĠáĭŃáĪī áī³áĪį
ĠáĬ¥áĬĵ áī±áĬķ
ĠáīłáĮ¥ áīłáī¥
Ġáīłáįĵ áĪªáĪµ
ĠáĬ¨áĪ© áīħ
ĠáīłáĬł áĪĿáĪµáīµ
ĠáĭŃáĪ° áīł
áĪĺáĪ° áĬŃáĪŃ
ĠáīłáĪį áī¥
Ġáīłáīħ áĬķ
Ġáīł áĮĥáįĵáĬķ
ĠáĪ» áĬķáĮ£
ĠáĬ¥áĪµáĬ¨ áĭļáĪħ
Ġáĭ«áĮįáĬĻ áĬķ
áĭ«áĪµ áįĸ
Ġáįĭ áĭį
ĠáĪĪáĪļ áĮĪáĬĻ
ĠáĪĪáĭ°áĬķ áīłáĬŀáī½
ĠáĮĬáĭľ áĭİáī½
ĠáĪŀ áī°áĭĭáĪį
Ġáĭ¨áĭĪ áĪŃ
ĠáīłáĪµ áįĶáĬķ
ĠáĪ¥áĪŃáĭĵ áī±
Ġáĭĺ áĪį
áĪ® áĮ³
ĠáĬłáĪµ áī¦
áĪĬ áī±
ĠáīłáĬłáĭį áĪµáīµáĪ«áĪĬáĭ«
áĬĲ áīģ
áĪ° áĬķáĮį
áĭį áĭ°
áĭĺ áĭĺáĭį
Ġ or
áĭĭ áĬ¥
ĠáĪįáĮĥ áī¸áĭį
ĠáĬłáĪĿ áĮ¡
ĠáĬłáĭįáī³áĪ¨ áĪĺáĪ¨
Ġáĭ¨áĪĺáĪŃ áĬ¨áī¥
ĠáĪĽ áĭ¨
áī² áĭ©áī¥
ĠáĭŃáĮł áĭ¨
ĠáĪ¨ áĪĥáī¥
áį ©
ĠáĪĺáĪĺáĪªáĭ« áĭİáī½áĬķ
Ġáīłáīħ áĭ±
áī¥áĪ« áĪ«
Ġáĭ¨áĭ«áĭĺ áĭį
áĭµ áĮĵ
Ġáĭ¨áĪĽ áĭ°áĪŃáĮĪáĭį
Ġáĭ¨áĪĽ áĬķáĬĲáīµ
ĠáĬłáĭį áĪŃ
áĪµáīµáĪ« áĬŃáĪ½áĬķ
Ġáĭ¨áī°áĭĪ áĪ³áĪ°áīł
ĠáĬ« áĭ°áĪ¨áĮį
Ġáĭ«áĪµáīĢáĪĿ áĮ¡
ĠáĪĪ áĭļáĪģ
ĠáĬłáĪµ áī½
ĠáĬ¥áĬķáĭ² áĪ°áĪ©
ĠáĬł áĮįáī¥
áī³ áĪªáĬŃ
ĠáĮł áĪį
Ġáĭ¨áĪĨáĬĲ áī½
ĠáĬłáĪŃ áĬłáĭ«
áĬ¨áįĪ áĪī
ĠáĪĽáĪµáī³áĭĪáīĤáĭ« áĭİáī½áĬķ
ĠáĪĪáĪĺ áĪĺáĭĿáĮĪáī¥
ĠáīłáĬł áĪķáĭĽáī¥
ĠáĭĪáĪĪ áĭ°áī½
ĠáĪĪ áīĢáĭį
ĠáĪĺáī° áĬķ
ĠáĮĵáĭ° áĬŀáī¹
ĠáĬł áīµáĬķ
áĮ« áĪī
Ġáī°áĬ¨ áĪ³
Ġáĭ¨ áĮĢáĪĺáĪ¨
ĠáĪĪáĬł áĭ²áĪµ
áĪĨáĬĵ áī½áĬķ
ĠáĬłáĪ¸ áĬĲáįĪ
áīµ áĪ¨áįį
Ġáĭ« áĭ«áĪį
ĠáĬķáĮį áĪ¥áīµ
ĠáĬł áĬĲáĮĭ
ĠáĬłáĭŃ áĪĺáĮ£áĪĿ
ĠáĪį áī¤áĬķ
Ġáĭ¨áĪµ áĭ°áī°áĬŀáī½
áī§ áĬķ
áĮĪáĭĽ áĭį
ĠáĪĪáĪĽáĪµáī° áĪĭáĪĪáįį
ĠáĬł áĬ¨áĪ«
ĠáĬ¥áĬķáĭ² áĪ°áĮ¡
ĠáĪĦ áĭµáĬ©
Ġáīłáīµ áĮįáĪ«áĭŃ
ĠáĬłáĬŃ áĪ²
ĠáĬķáīħ áĪ³áīµ
Ġáĭ¨áĪļ áĬ¨áĬĵáĭĪáĬĲáĭį
ĠáĬŃ áĪªáĪµ
ĠáĪĺáĬķ áĬ¨áī£áĬ¨áī¥
ic e
Ġáī°áĭĺáĮĭáĮħ áī·áĪį
ĠáĪĽáĪŀ áīĤáĭ«
áī¥ áĬķáĪĿ
Ġáĭ° áī¥áĪ¨
Ġáīĥ áĪĮáĬķ
ĠáĬłáĬķáĭ³ áĪŃáĮĭáī¸áĭį
áĬ¸ áĭįáĬķ
ĠáīłáĪĺ áĪĺ
ĠáĪĺáĪįáĬ« áĪĻáĬķ
ĠáĪĺ áĭ°áĪ¨áĮī
Ġáī° áĬ¨áįĪáī°
ĠáĬłáĪį áĪ¨áĪ³
áī³áī¸áĭį áĬķáĪĿ
ĠáĬĥáĭŃ áĪī
ĠáĬ¥áĭ«áĬķáĭ³áĬķáĭ³ áī½áĬķ
ĠáĭĪ áįįáĪ«áĪĿ
ĠáīłáĬł áĪ«
áĬĲ áīĢ
ĠáĪĿáĪ¥ áĬŃáĪ®áī½
e g
áįĪ áĬĵáĪį
Ġáī°áĭĪ áĭ«áĭŃ
ĠáĪµáĪį áī¶áī½
ĠáĬ© áĬªáĭİáī½
Ġf one
ĠáĪĺáĪŃáĪĥ áĮįáī¥áĪŃ
ĠáĪ² áī°
áī¤áīµ áĬĲáīµ
Ġáĭ¨áĪħ áī¥áĪ¨áī°áĪ°áī¥
ĠáĪĿáĪįáĬŃ áī¶áī½áĬķ
ĠáĪ³ áĬ¦
ĠáĪį áĬ¡
ĠáĮŃ áī¥
ĠáĮ£áī¢áĭ« áĭİ
ĠáĬłáĮįáĬĿ áī¶
Ġáĭ¨áĪļ áĬ¨áįį
ĠáĬ¥áĬķáĭ² áĮĪáī£
áį£ "
ĠáīłáĪĺ áĬ¨áī°áĪį
Ġáĭ¨áĬł áī¥áĪŃ
áīłáĪ¨ áĭį
ĠáĬłáĪĿ áĬĸ
áĬĵáĮĪ áĪ«áī¸áĭį
áĮ«áĭĭ áī½
Ġáĭ² áĪµáĬŃ
áĪ° áĬĽ
Ġáīł áĮħáĪĿáĪĭ
áĬĳ áĪ®
áī°áĬĽ áĭįáĪĿ
ĠáīłáĪĽ áĮ£
ĠáĬĲáĮĪ áĪĿ
ĠáĬķáī¥áĪ¨ áī¶áī½
áĪ¹ áĪĿ
Ġáĭ¨áĪĮ áĪİáī½áĬķ
ros oft
Ġáĭ° áĪ´
áĪįáĮį áĬĵ
áĪ°áī£ áĭĬ
Ġáĭ¨áī°áĭĪáĪ°áĬĳ áīµ
áįĪ áĪ©áīµ
ĠáĬ« áĭįáĬķ
ĠáĬ¥áĭļáĪħ áĪĿ
ĠáĬķ áĮ½
ĠáĪĺáĪµ áīĢ
ĠáĪĺáĭ° áĪ°áīµ
ĠáĬ¥áĬķ áĪĺáĪĪáĪµ
áĪ»áĪ» áĪī
ĠáĪĺáĪµáī° áĮĭ
áĮį áĪī
áĪĥ áī¸áĭį
ĠáĬłáĪ³ áī¢
Ġáī°áĮł áĪĿ
Ġáĭķáĭį áīħáĬĵ
ĠáįĪ áĬķáĭµ
Ġáĭ¨áĪļáĭ«áĪµ áįĪáĪįáĮĪáĭįáĬķ
ĠáĪĺ áĮĪáī£
ĠáĪĪ áĬĲáĪ±
áĪ°áīł áĪ°áīł
ĠI P
ĠáĬłáĭ« áĪĪáĪģ
a w
áĮĢ áĪŃ
ĠáĬ¨ áī»áĭŃáĬĵ
Ġáī ¨
áĮĪ áĭ³
áĬ¬ áĬķ
ĠáĬ¥áĮĪáī£ áĪĪáĪģ
áĬ¨ áĪĮ
ĠáĪĿ áĬķáĭ³
Ġáĭ¨áĪĽ áĭĪáīħ
ĠáĬ¥áĬķáĭ°áĪļ áĬĸáĪŃ
ĠáĬ¥áĬĽ áĭį
ĠáīłáīĢ áĭµáĪŀ
áĪĽáĪŃ áĬŃ
Ġáĭ¨áĪļáĭ«áĪ³ áĭ©
ĠáĮįáĮŃ áī¶áī½
áĪ ¤
ĠáĬłáī¥ áĬĲáīµ
Ġáī°áĪĺáĪįáĬŃ áī·áĪį
ĠáĬ¥áĮĪ áĭ³
áĭŃ áĪ¨
Ġáĭį áįįáĪ¨áīµ
áī¶ áĪª
áĪĲ áĪĺáĭµ
áĪ« áĭĺáĪĿ
áĪģ áīµáĪĿ
áīĨ áĬĵ
ĠáįĪ áĮ£áĪªáĭİáī½
Ġáĭ¨áĭį áĪ¸áīµ
Ġáĭ¨áī°áįĪ áĮłáĪ©
Ġáī°áĪ³ áįĭáĪªáĭİáī½
áĪµ áī»áĪĪáĪģ
áįĮ áĪ¶áĬķ
Ġáīłáī° áĬ«áĪĦáĭ°áĭį
ĠáĪĪ áĪĨáĬĲ
ĠáĬ¨ áįĮ
ĠáĬ¥áĬķ áĬ¨áĬķ
ĠáĬ¢áĬķ áī½
ĠáĬłáĪį áĪįáĪĿ
; ,
Ġáīł áĬĵ
ĠáĬłáĭŃ áĮł
Ġáĭ° áĬĲáĮĪ
ĠáĬĲáĮĪ áĪ¨áĬĿ
ĠáĬłáĬķáĭ³ áĬķáĭ±
áĮłáĭ¨ áīĢ
a x
Ġáī°áīĢ áĪĭáīħ
ĠáĭŃáī£ áĪŃáĬŃ
Ġ Ù
áīł áĭįáĬķ
ĠáĬ¨ áīĢáĭµáĪŀ
ĠáĭĪ áĬķáĭŀ
Ġáĭķ áĭŃáī³
áĪ°áĪĽ áĬĿ
Ġáĭ°áĪ¨áĮĥ áĬķ
ĠáĬ¦ áĪŃ
áĬķ áĪ³
áĬķáīĢ áĮłáīĢ
ĠáĪµáĪĭ áĪĭ
Ġáī¥áĪŃáĪĥ áĬĳ
Ġáī°áīĭáīĭ áĪĺ
4 9
Ġáī° áĭ°áĪĿ
ĠáĬłáĭŃ áĪŃáĪ±
ĠáĬłáĭĪáīĥ áīĢáĪŃ
ĠáĬ¥ áĬĸáĪ«áĪĪáĪģ
ĠáĪĪ áĪģáĪĭáī½áĬķáĪĿ
ĠáĬłáĪį áĪĺáĮ£áĪĿ
Ġáĭ¨áīµ áĪŃáįį
ĠáĬłáĮ¥ áĬķáīµ
Ġáĭ¨áī°áĮłáīĢ áĪ°áĭį
ĠáĬłáĭŃáīĢ áĪ¬
Ġáĭ¨ áĬķáĮīáĪ¡
áĪĺ áĮ¡áīµ
ĠáĬłáĭ°áĪ¨ áĮĥáĮĢáīµ
ĠáĪĪáĪĺáīħ áĪ¨áįį
Ġáī°áĪĺáĭĿ áĮĭáī¢
E S
ĠáĪµ áĪķ
Ġ5 6
Ġáĭĺ áĬķáĮį
áīĭ áĪĿ
áįĪáĪĪáĮī áīµ
Ġáĭ¨áī°áīĨ áĪ«
ĠáĪĪáĪĽ áĪĺáĪįáĬ¨áīµ
Ġáīłáī¡ áĭµáĬķ
ĠáĬĲ áĪħáĬĵ
Ġáī° áĪĭáĪį
áī£áĪį áĬķ
ĠáīłáĪ¨ áĪĥ
áĬłáĬķ áīº
Ġáĭ¨áĪļ áĮłáī¥
ĠáĬŃáĪĪ áī¡
ĠáĬłáĪµáī° áĪ³
áīĢáĪ¨ áī¡
ĠáĬĵáĭŃ áĮĦáĪªáĭ«
Ġáĭ« áīłáĪ¨áī³
ĠáĬłáĪµ áīĨ
ĠáĪĽ áĪĺáĪµáĮĪáĬķ
ĠáĬłáĪĭ áĭ¨
ĠáīłáĪ°áĪĽ áĭ«áīµ
ĠáĪ³áĭŃáĬķáī² áĪµáī¶áī½
áĪ© áĬĿ
ĠS p
ĠáĪĪ áĬĲáĮĪ
Ġáīłáīµ áĭ³áĪŃ
Ġáī°áĮĪ áĪ¨
ĠáĪĪáĪĽáĬķ áĪ³áīµ
Ġáĭ¨áĭ© áĬ¤áĪµ
ĠáĪĺ áĬķáĭ³áīµ
ĠáĪĪáĪĺ áĪĭáĭį
Ġáĭ¨áĪ° áĮ¡áīµ
Ġáĭ¨áįĵ áĪŃáĪĭáĪĽ
ĠáĬ¾ áĬĲáĭį
Ġáĭ¨áī½ áĮį
Ġáī°áĪ¨áĮĭáĮį áĮ§áĪį
ĠáĪĺáĪĨáĬķ áĬķ
áī¸ áĮĪáĪŃ
ĠáĬ¥áĬķ áĭŃ
ĠáĬłáĪµ áĪĺáĪµ
ĠáįĪáĪį áĮĪáĭį
áĭ°áĪŃáĮī áĪĿ
ĠáĬ¥áĪĿ áĪĭáĪĪáĪģ
áĭĪ áĭŃ
Ġáĭ«áĪĪ áī¥áĬĿ
áĮ» áĪī
áīł áī³áĪĪáĬķ
Ġáīµ áĪĦáĭ³
áĮĪ áī±
áĮł áĪįáĪĿ
ĠáĪĪ áĮİ
áĬł áĪľáĪªáĬ«
Ġáĭ¨áĪļ áĪ»
ĠáĪĪáĪĽ áĪĪáįį
áĬ® áĪĿ
ĠáĬłáĭµ áĮĵáĪį
ĠV PN
ĠáĬ¥áĭ«áĭ°áĪ¨áĮį áĬķ
áĭ« áĪĽ
áĬł áī¸áĭįáĬķ
ĠáīłáĬł áī£
áįĪáĪį áĮĪáĬĿ
áĮĭ áĮĪ
áī¶ áī¼áĬķ
Ġáĭ¨áĪ« áĪ³áī½áĬķ
Ġáĭ¨áĪ° áĮ¡
Ġáĭ«áĪµáįĪáĪįáĮĪ áĬĽáĪį
áĬķ áī±
Ġáīłáī¥ áĪĶáĪ«áĭĬ
áĭ« áīµáĬķ
ĠáĬłáĭŃ áīĨ
áĮłáīĢ áĪĺáĭį
ĠáĬłáīµ áĪµ
ĠáĬ¥áĬķáĭ°áĪĽ áĪĪáīµ
Ġáīłáĭĺ áĪĺáĬĵáĭĬ
áĬķáĮĭ áįĸáĪŃ
áĭĭ áĬķáĭ³
Ġáĭ¨áĪļáĭ« áĭĪ
ĠáĭĪáĭ³ áĮħáĬĲáīµ
ĠáĬłáīĥ áįĬ
ĠáĬłáĪįáĬĲáīł áĪ«áī¸áĭįáĪĿ
ĠáĮĢáĪĺáĪ¨ áī½
ĠáĬ¥áĪĺáĪĪ áĪ³áĪĪáĪģ
áĪ« áĭįáĬķ
áĪĢ áĪĪáĪģ
ĠáĭĿáĪŃáĭĿ áĪ®áī½áĬķ
Ġáĭį áĪ¨áĭµ
ĠáįĪ áĪ¨áĪ°
Ġáī£áĪĪ áī¥áĭĻ
ĠáįķáĪ® áī¶
ĠáĬ¥áĪŃáĮį áĭĿáĬĵ
ĠáĬ¥áĭ¨áīĢ áĬĲáĪ°
ĠáĪĪáĪĽ áīĭáīĭáĪĿ
áĮĪáī£ áĬķ
ĠáĪĲ áĪ¨áĮį
20 15
ĠáīłáĪĺáĪµ áīĢáĪį
Ġáī¸ áĪŃáĬĲáīµ
ĠáĮĪáĪĪ áĮ¸
áĮį áīµ
Ġáĭ¨áī± áĪŃáĬŃ
Ġáĭ« áīħáĪŃáī¡
ĠáĪįáĮĨ áī»áī½áĪģ
ĠáĬ¥áĮĥ áī¸áĭįáĬķ
áĪĺáĪµ áĪī
Ġáĭ¨áĪ«áĪµ áĪħáĬķ
ĠâĹ ı
ĠáĭŃ áī£áĪį
áĭ« áī½áĬķáĬķ
áĪ³ áĪĪáĪħ
Ġáĭ¨áĬ¥ áĪŃáĪµ
ĠáĪĺáĪ³áĪªáĭ« áĭİáī½áĬķ
ĠáĪĺáĪµ áĪħ
ĠáįķáĪ® áĮĦ
ĠáīłáĪķ áĮĪ
ĠáĪĪáĬłáī¥ áĭĽ
s h
áī¥ áĬĿáĪĿ
Ġ200 3
ĠáĬłáĪĺáĪ° áĮįáĬķ
áįķáĪ¬ áĭļ
ĠáĬ¥áĭ¨áĪŀ áĬ¨áĪ©
Ġáĭ¨áĬ¥áĬĲ áĪ±áĬķ
áĮ¥ áĪ¬
áįĸ áĪĬ
Ġáī°áĪŃ áįİ
áĮĭ áĬĴ
Ġáĭ¨áĪĺ áĮłáĮ¥
ĠáīłáĪĽ áĭ¨áīµ
áīĢáīł áĪīáīµ
ĠáĪ°áĮ¥ áī°áĭį
Ġáī°áĪ°áī¥ áĪµáīłáĭį
ĠáĬ¨ áī¡
ĠáĬĲáĮĪáĪŃ áĪĿ
ĠáĬłáĪµáīĢáĭµ áĪľ
Ġáĭ¨áĭĪ áĪĪ
Ġáī£áĪĪáĪ¥ áĪįáĮ£áĬķ
Ġáĭ¨áĪĺ áĪĺ
Ġáĭ¨áī¥ áĪĶáĪ«áĭĬ
áĭĺáĬķ áĮĭáīµ
ĠáĭĺáĮįáĭŃ áī¶
Ġáįį áĪŃáĪĥ
ĠáĬłáĭ° áĪ®áī½
s e
ĠáĪ³ áĪµáīłáĭį
áī³áĭį áīģáīµ
áĬ¨ áĬŃ
ĠáĪĽ áĬĵ
ĠáĭµáĪŃ áī¥
áĪ£ áīµ
ĠáĪĪáĪ«áĪµ áĭİ
ĠáĬ¥ áĮłáĪ«
áī³ áĭ©
áĭ°áĮĭ áĭį
ĠáĬ¨ áĪĨ
ĠáĪĪ áĪ´áīµ
ĠáīłáĪ«áĪµ áĭİ
Ġáī³ áĪ³
Ġáĭ¨áĬł áĮĪáĪ«áī½áĬķ
áī¤ áī³áī¸áĭį
ĠáĪĿáĬķ áĬĽ
áĬķáĭ° áĪŃáĪµ
ĠáĪĺáĭĭ áĮ®
ã ĥ
Ġáĭ« áĮ¥
áĪ¸ áĪ½
ĠáĪĺáĪĪ áĪ±
áĬĵ áĪĪáī½
áĪ© áī³áĪį
Ġáī³ áĪĿáĬĵ
Ġáĭ«áĭįáīģ áī³áĪį
ĠáĬ¥áĬķáīĨáīħáĪį áĪ½
ĠA r
áĪĪ áī¶áī½
áī¶ áĬĵáĪį
ĠáĪŀ áĪįáī¶
ĠáĪŃ áĬ¥
Ġáĭ± áĬ«
ĠáĬł áīģáĪĿ
ĠáĪĺ áĪ£
ĠáĪĿ áĬĳ
ĠáĮİáĪį áĪĽ
áīł áĭ°
áĬŃ áĪ«áĪī
ĠáĬ¥áĬķáĭ°áĪļ áĪį
áī£áīµ áĪª
ĠáĬ¨áĪļ áĮĪáĬĻáīµ
ĠP ay
ĠáĪĺáĬĸ áĪ«áī¸áĭį
ĠáĪĪ áĮł
ĠáĪ² áĬ¾áĬķ
áĮ½ áĪĿ
áīĭ áĪŃ
Ġáĭ« áĭĪáĮ£áĪį
ĠáĪĿ áĬķáĭĽáĪª
Ġáĭĵ áĪ¨áįįáī°
ĠáĬķ áĮ¥áĪį
ĠáĬłáĪĺ áĪĭáĬ«
Ġáī£áĪįáĭ°áĪ¨ áī£
ĠáĭŃáĬ¼ áĬķ
ĠáĪĿáĬŃ áĪ®áī½áĬķ
ĠáĮ¸áĪİ áī¶áī½
Ġáĭ¨áĬłáĪĺ áĮĭáĮĪáī¥
ĠáīĢ áĪĪáīłáīµ
Ġáī°áīĢ áī£
Ġáĭ¨áĮİ áĭ°áĪĪáĭį
ĠáĭįáĪµ áĮ¤
ĠáĪĪáĪĺ áĭĿ
Ġáĭ¨áĪĿ áĬĸáĪ¨áĭį
Ġáĭ¨áĪ« áĪ´
Ġáĭ¨áī³ áĭ¨
ĠáĬłáįį áĪŃ
ĠáĪĪáĭįáĮ¥ áĬķ
ĠáĬłáĬķáĭ° áīłáīµ
ĠáĬ¥áĬĲáĭļáĭ« áĪĿ
ĠáĭŃáĬ¸ áĭįáĪį
áĮ£ áĭ®áī¹
ĠáĮį áī¦áī½áĬķ
ĠáĬķ áĬŃ
ĠáĪĪáĬł áĮĪáĪŃ
ĠáĬ«áįĴ áī³áĪį
Ġáĭ¨áĭµáĪŃ áĮħáī±
ĠáĪµáĪª áī¶áī½
ĠáĪĪ áĪ±
áĬł áĪģáĬķáĪĿ
áĮĭ áĮį
Ġáīµ áĭŃ
Ġáĭ¨áĮ¥ áįĭáīµ
ĠáĭľáĬĵ áĭĬ
ĠáīĢáīł áĪĮ
ĠáĬ¥áĬķ áĭį
ĠáĮĪáī£ áĬĿ
áīģ áĪŁáĪį
ĠáĬĵ áī¸áĭī
áĮĢáĪĺáĪŃ áĭ«áĭį
Ġáĭ¨ áĮ«
ĠáĪĪ áĪŀ
ĠáīłáĬł áĪ¥áĪ«
ĠáīĢáĬķ áĪ·áĪį
Ġáĭ¨áĪĢ áĮĪ
áĪĪ áįĭ
Ġáĭ¨áī° áĪ°áĪ©
ĠáĪģáĪĪáī°áĬĽ áĭįáĬķ
Ġáī°áĬ¨áĪĭ áĬ«áĭŃ
ĠáĪĽ áī´áĭİáĪµ
ĠáĬłáĭŃ áĭĺ
Ġáī° áĪĪáĭ«áĭŃ
áĪĶ áĭµ
ĠáĪļ áĪį
ĠáĭŃáĮł áįĭáĪī
ĠáĬ¥áĬķáĭ³ áĭ¨
ĠáīłáĪį áī¡
ĠáīłáĪĽáĮį áĬĺ
ĠáĪĽáĮ¨ áĪµ
Ġáĭ¨ áĭ´áĪŀáĬŃáĪ«áĪ²
ĠáĭŃ áĮĵ
ĠáĮį áĪĭáĭĬ
ĠáĬłáĭ« áīµ
Ġ8 5
ĠáīłáĪĺ áĪ¨áĮĥ
áĪłáĪ« áīłáīµ
ĠáĪįáī¥ áĪħ
áĭĸ áĬķáĪĿ
Ġáĭ°áĮĭáĮį áĪľ
ĠáĪķáĮį áĬķ
áĭµ áĪ«
áįĪ áī°
Ġáī¤ áĬķ
ĠáĪĺáĮł áĮĬáĭ«
Ġáĭ¨áĪĿáīµ áĪĪáĭį
ĠáĪĪáĪĽáĪ³ áĭĪáīħ
ĠáīµáĭķáĭĽ áĭŀáī½
ĠáīĨáĮ£ áī¢
Ġáī° áĬ¨áįĭ
Ġáĭ«áĪī áīłáīµ
áĭŃ áĭĺáĭį
ĠáĬ¨áĪĺ áĪĨáĬĳáĪĿ
ĠáĬ¥áĬķáĭ°áĪĿ áī½áĪį
ĠáĪ°áĪĿ áī°áĬĵáĪį
ĠáĪ¹ áĪĺáīµ
áĮłáĪ«áīĢ áĪļáĭ«
áĪĭ áī³áĪį
áĭĬ áĪµ
Ġáĭ¨áī°áĮłáīĢ áĪ±áīµ
ĠáĪĽáĭĭ áīĢáĪŃ
áįķ áĪµ
ĠáįĪáīĥ áĭ°áĬŀáī½
Ġâ Ļ
ĠáĬłáīħáĮ£áĮ« áĭİáī½
ĠáĬł áĪ½áĬ¨áĪŃ
ĠáīĢ áĭ°
ĠáīĢ áĮŃáĬķ
ĠáĭµáĮį áĪµ
Ġáī° áĬ¨áī°
Ġáīħ áĬĿáīµ
áĪĤ áĪĿ
Ġáīłáīµ áĬ©áĪ¨áīµ
Ġáī¥áĪŃ áī³áīµ
Ġáīłáĭĵ áĪī
" )
ĠáĬł áĮ¸
áīł áĭµ
ĠáĬ¨áĬ¥ áĭį
Ġáĭ«áĪĿ áĬĵáĪį
áįĨ áī³
ĠáīĢáĮ¥ áĪį
ĠáĪī áĭĵ
áĬł áĭį
ĠáĬ« áĭļáĬĸ
ĠáĬ¨áĬ¥ áĮįáĭļáĬłáī¥áĪĦáĪŃ
áĭĿáĪĿ áī³
ĠáīłáĬł áĬ«áī£áī¢
áįĪáĮ½ áĪĻ
ĠáĪĺáĪĲ áĪĺáĭµ
Ġáĭ¨áīłáĭĵ áĪį
ĠáĭĪáĭ° áī³áī½
ĠáĭĪáīħ áī¶áī½
ĠáĭµáĪĿ áĮ»
ĠáīłáĪ¦ áĪµáī°áĬĽáĭį
ĠáĬ¥áĭµ áĪĪáĬĽ
ĠáĪ°áĪĿ áī¼
áĮ£ áĬĵ
áīĥ áĭµ
ĠáīłáĪĺ áĮłáīłáīħ
ĠáĮĪ áĭ³áĪĿ
Ġáĭµ áĪĺáīµ
ĠáĬ¢áĬķáī°áĪŃ áĬĵáĪ½áĬĵáĪį
ĠáĪĢ áīµáĪªáĬŃ
ĠáįĢ áĪİáīµ
Ġáĭ«áĪµáĮĪ áĬĽáĪį
Ġ o
áĮĢáĪĺ áĪ©áīµ
áĪĺáĮ£ áĮłáĬĲ
Ġáįĭáĭį áĬķáĭ´
Ġáĭ¨áĪļáĭ«áĪµ áī¥
áĮĪáĭ° áĪį
ĠáĪĺáĪµáĪİ áĬĿ
áĪį áī¥
ĠáīłáĪĿ áĭķáĪ«áī¥
ĠáĬłáī³áĭį áīģ
ĠáīħáĮ½ áīłáīµ
ĠáīłáĪŃáĮį áĮ¥áĪĿ
áĪ¬ áĪĿ
ĠáĬłáĪį áįĪáĭĭáĪį
ĠáĬ¥áĬķáĭ²áĭ« áĮĪáĬĿ
ĠáīłáĪį áĮĨáī½
u g
Ġáĭ¨ áĮ¦áĪŃáĬĲáīµ
áī¥ áĭŃ
Ġáĭ« áĬĲáĮĭáĮį
Ġáī°áĬ¨ áī³áīµ
ĠáĬłáĪµ áĮĪáĭµ
ĠáĬłáī¥ áīħ
ĠáĪŃ áīĨ
ĠáĪįáĮĨ áī»áī½áĬķ
ĠáĭŃáĪĺáĪĪ áĬ¨áī³
ĠáĪ³áĪĿ áĪ°áĬķáĮį
Ġáĭ¨áĪļáĭ« áīĢáĪŃáī¥
Ġáįħ áĪģ
ĠáĪĪáĪĢ áĮĪáĪŃ
áĪĺáĪį áĮ¥
áĪ°áī¡ áīµ
Ġáĭ¨ áĭ´
ĠáĬ¨ áī»áĪī
ĠáīłáĬ¢ áĪľáĪį
ĠáĬĸ áĬħ
ĠáĪĺáĪĨáĬĵ áī½áĬķáĬķ
Ġáī°áĪ°áĮ¥ áī·áĪį
Ġáĭ¨ áĮłáīħáĪĭáĭŃ
ĠáĭŃ áĭ°áĪŃáĪµ
ĠáĪķáĬķáįĥ áĭİáī½
ĠáįĨ áī³
P ress
Ġáĭ¨áĬł áĬŃáĪ²áĭ®áĬķ
áī±áĬķ áĬĵ
ĠáĪĤ áĪ³
ĠáĮĪ áī¥áĪŃ
ĠáĪ¸ áĭĭ
ĠáĮĪáī¥ áĬĲáīµ
Ġáī£áĬķ áĬ©
oc k
ĠáĬłáĪĿáī£áĪ³ áĭ°áĪŃ
ĠáĭŃáįĪáīħ áĭ³áĪį
áĪļ áĭ¨áĪŃ
Ġáĭ¨áĪļ áĪĺáĪĪáĬ¨áī±
Ġáĭ¨áįĢ áĪ¨
áĮ¸áĪį áĭ©
áĪĪ áī°
ĠáīłáĬ¥ áĪŃáĪ·
áĬĸáĪ«áī¸áĭį áĪĿ
áĬĲ áīłáĭį
áĬŃ áįįáĪį
áĬ¦ áīµ
ar y
ĠáĪĺ áĭĺáĪŃ
ĠáĬłáī¥ áĬķ
Ġáĭ¨áĬĲ áĮĪáĪŃ
ĠáĬ¨áĬ¢ áĭ¨áĪ±áĪµ
áĮħ áĬĵ
ĠáĬ« áĭ¨
Ġáī¥áĪį áĮ¥
ĠáĭŃáĪĽ áĪ«áĪī
áĭµ áĪ¶
ĠáĬŃ áįĭ
áĬ¨áĪĽ áī¹
Ġâľ Ķ
Ġáĭ¨ áįĪáĪĪáĮĪáĭįáĬķ
ĠáĪĬ áĮłáīĢáĪĻáīłáīµ
ĠáĭįáĪ³áĬĶ áĭį
ĠáįĬáĭ° áĪĭáīµ
Ġáĭ¨áī³ áĭĪáīģ
áĪ«áĪµ áĭİ
ĠMic rosoft
B et
ĠáĬł áĭ°áĪŃáĮĪ
ĠáĪĪáĪĺ áĪĺáĪµáĪ¨áīµ
ĠáĬłáĪµ áĮł
ĠáĪĪáĬł áĪĿáĪµáīµ
ĠáĬ¥ áįĪáĪ«
ĠáĪĺ áĭ°áĪŃ
ĠáĪµ áįĶ
Ġáĭį áĬŃ
ĠáĬłáī¥ áĪ«áĪŃ
áĪ¥áĪŃ áĭĵáīµ
ĠáĬ¥áĪµáĪ«áĬ¤áĪį áĬķ
áĬķáĭ ·
Ġáĭ« áĪ¸áĬķ
Ġáĭ¨áĪļ áĬĲ
áĬĲáĪ³ áĪĿ
ĠáĭĪáĬķáĭµáĪŀ áī¹
ĠáĬķ áĮ¥
Ġáīłáī°áĮ¨ áī£áĮŃ
ĠáĪĺ áĬ¨áīłáĪŃ
ĠáĪĪ áĭĪáĮ£
Ġáī°áĪĪáĭŃ áī°áĭį
ĠáĭŃ áĭ«áĭĻ
ĠáĮ¥áīĤ áī¶áī¹
Ġáīł áĮ«
ĠáĪĺ áĮĢáĪĺ
ĠáĭĪ áĪįáĭµ
ĠáĬłáĪµ áī¡
Ġáī°áĮĪ áĭ¢
áĭ°áĬĲ áīħ
Ġáĭĺáĭ´ áĭİáī½áĬķ
Ġáĭ¨áĪĺ áĮĢáĪĺáĪŃáĭ«
Ġáĭ¨áĮĪ áī¡
ĠáĭĿáĪĿ áĭµáĬĵ
ĠáĪķáĭŃáĭĪ áī±áĬķ
áĪİáĪĿ áī¢áĭ«
ĠáĬłáĭŃáĭ° áĪĭáī½áĪģáĪĿ
ĠáĬłáĬķ áĮĪáīµ
áīłáīĥ áĪĿ
Ġw rote
Ġáīł áĬĸ
ĠáĪĬ áĪį
Ġáī¢ áĮ«
Ġáĭ¨áĪļáĮĪáī£ áī¸áĭį
ĠáĬłáĪĺ áĮ¡
áĪŁ áĬķ
Ġáĭ¨áĮ¥ áĮĪáĬĵ
ĠáĬłáĬķáī£áī¢ áĭİáī½
áĮĥ áī¸áĭį
áĬ¨áĪį áĬ¨áĪį
Ġáĭ¨áĪļáĭ«áĭį áīģáīµ
ĠáįĸáĪĪáī²áĬ¨ áĬĽ
áĪĺ áįħ
ĠáĪĺáī° áĮįáīłáĪŃ
ĠáĪĺáĪł áĪ¨áī°
ĠáĬł áĭ°áĪŃáĮį
ĠáĪĪ áĮĢ
ĠáĪ°áĪŃ áĮ¥
ĠáĬ®áĪĿáįĴ áī°áĪŃ
ĠáĪĿáĮį áī¦áī½áĬķ
Ġáī°áĮİ áĭµ
Ġáĭ¨áįĪáĪĪáĮī áīµáĬķ
áī³ áĪĪáĪħ
ĠáĬ¥áĬķáĭ°áĪĨáĬĲ áī½
Ġh t
ĠáĪĪ áĭ¨
Ġáĭ¨áī°áī£ áĪ¨áĬ¨
áĭ®áĪŃáĮĬ áĪµ
Ġáī£áĪĪ áĭµáĪŃáĪ»
l ic
áīħáĭ± áĪµ
áīł áī¡
ĠáĪµáĪį áĬ©áĬķ
Ġáĭ¨áĪ¥ áĪįáĮ£áĬķ
ĠáĬĲáĮĪ áĪ¨áĭį
ĠáĭĪáĭ²áĪħ áĪĿ
ĠáīłáĬķ áīĥáīµ
ĠáĭŃ áĭ³
ĠáĭĪáĮ¥ áī·áĪį
Ġáĭ¨áīħáĬķ áĮ¦áīµ
Ġáĭ¨áĬłáĬķáĭµ áĬĲáīµ
ĠáĬ¬ áĬŃ
ĠáĬ¥áĮĦ áĬķ
ĠáĪĽ áĪµáī³
Ġáĭ¨áĪļ áīłáĪĭ
Ġáī¢ áĭĿáĬĲáĪµ
Ġáįĸ áĪµáīµ
áĬķáĭ° áĬĽ
áīĥ áī±
Ġ25 0
ĠáīłáĭĪ áĮ£áīµ
áīĢ áĪ¨áĭį
Ġáĭ¨áĬ¢ áĪľáĭŃáĪį
áį »áį
Ġáĭ« áĮĪáĬĺáĭį
Ġáĭ¨áĪļ áĮİ
ĠN et
Ġáĭ¨áĬłáĪģáĬĳ áĬķ
ĠáĮ¢ áĪŀ
ĠáĭŃ áĪ»áĪĪ
áĪ© áĬĵ
áĬ³ áī½áĪģ
ĠáįĵáĪŃáī² áĭį
Ġáī°áĮįáĭ³áĪ® áī¶áī½
) :
Ġáī° áĪĺáĪĪáĬ¨áīµ
ĠáĪģ áĬ¨áīµ
ĠáĪĽáĪħ áīłáĪ¨áĪ°áī¡
ĠáĭŃáĮłáĭŃ áīĥáĪī
Ġáĭ¨áĪļáĭĪáĪµ áĭ°áĭį
áĭĽ áī±
ĠáĭĪáīħ áīµáĪĿ
ĠáĪĽáĪĪ áīĤáĭ«
áĭļ áī½
áĬ® áĪľ
áĭĪáĪŃ áĭ±
áĭĿáĬĵ áĬĵáīµ
áĮł áįĪ
áĬĽ áĪĭáī½áĪģ
áĮ¾ áī³
ĠáįĬáĪį áĪŀáī½áĬķ
Ġáĭ¨ áĮĨ
Ġáĭ¨ áĬĭ
áĪļ áĪį
áĪ± áīłáīµ
áĬķáīĢ áĮ½
áįĭ áįĭáīµ
ĠáĬłáĪį áĭ«áĪĿ
ĠáĪĽáī¥ áīĤáĭ«
Ġáĭ¨ áī»áĪį
ĠáĬł áĭ©
áĮĪ áī¤
áī£ áĬĸáĪµ
ĠáĮ¥áĪ© áĭįáĬķ
20 10
áĪµáī° áĬĵáĮį
ĠáĮİ áĬķáĭ°áĪŃ
ĠáĪĺáĮįáĪĪáĮ« áĭį
áĭĽ áĪĺáĭµ
Ġáĭ¨áī³ áī°áĪĺ
ĠáĭµáĪĿ áĭ³áĪľ
ĠáīłáĬŃ áįįáĪį
ĠáĭįáĪŃ áĭ°áīµ
ĠáĭŃ áĬ¨áĪĭáĬ¨
ĠáįĪ áĮ¥áĪ®
ĠáĪĿáĪŃ áī³áĪĽ
ĠáĬłáĬķáī° áĪµ
ĠáĮ½ áįĮ
áĭĪáĪµ áĭ°áĭį
ĠáīµáĪŃ áĬ¢
ĠáĬ¥áĬķáĭ² áĭ«áĭįáīģ
ĠáĬłáĪĿ áĭµ
áĬ §áĪ¨
ĠM ar
ĠáĪĺáī¥ áī±
ĠáīłáĪĻ áĪ´
Ġáī³áĭ°áĪŃáĮĭ áĪĪáĪħ
ĠáĬĲáĮĪ áĪ«áī¸áĭį
ĠáīłáĪĿ áĭķáĪ«
áĪµ áĭµ
ĠáĬłáĭŃ áĮłáīĢáĪĻ
ĠáĪį áĭķáĪį
ĠáĬłáĭµáĪŃ áĮĵ
ĠáĬ¦ áĪĬ
ĠáĪķáĭŃáĭĪ áī´áĬķ
ĠáĭĪáĪ°áĬķ áĬ©
ĠáĪĺáĪµáī³áĭĪ áīµ
T S
Ġáīłáī° áĭ°áĪ¨áĮĪ
áĪĦáĭµ áīłáīµ
ĠáĪŃ áĪĿáĮĥ
ĠáĪĿáĭµáĪŃ áĪĿ
ĠáĭĺáĮį áī§áĪį
ĠáĬ¥áĭ¨ áĭ°áĪ¨áĪ°
ĠáĪŀ áī·áĪį
áĮłáįĭ áĭį
áīĢ áĬĿáĬĲáīµ
áĬĸ áĪ«áĪĪáĬķ
áĮ½ áĪŃ
ĠáĬ¥áĪŃáĮį áĪĽáĬķ
ĠáĬłáĪµáīĢáĪĿ áĮ¥
ĠáįĪ áĪįáĮį
Ġ5 3
áī£áĪ¨ áĪŃ
Ġáĭ« áĬ¨áĬĵáĭį
Ġáĭį áĪĢ
Ġáī°áīĢ áīłáĪī
ĠáĪĺáįįáīµáĪĦ áĭį
Ġáĭ¨áī°áĪ°áĮł áĭįáĬķ
ĠáĬ¥áĬķáĭµáĬķ áĪĨáĬķ
ĠáīłáĭĿ áīħáī°áĬĽ
ĠáīłáĪ«áĪµ áĪħ
Ġáĭ¨áĪļ áīĢáĪŃáī¡
áĮī áĭĿ
Ġáī¢ áĬĸáĪ©
ĠáĪĽáĭķ áīłáĪį
ĠáĬłáĬĵ áĪ³
ĠáĭĺáĪ¨ áĬĿáĬĲáīµ
Ġáī° áĪ½
ĠáīĨ áĪľ
ĠáĭŃáĪĦ áĬĶ
ĠáĪĺáĭ° áī¥áĪ®áī½
Ġáī³áĮĪáĬĽ áĪĭáī½áĪģ
ĠáĭŃ áĭĪáĭ°
áĪ° áī¦áī½áĬķ
áįĪ áī±
Ġáĭ¨áĪĽáĭŃ áīĢáĪŃ
ĠáĪ´ áĬķáīµ
ĠáĮ¸ áĪįáĭ©
ĠáĬ¥áĬķáĭ² áīĢáĮ¥áĪį
ĠáĪļ áĪľ
áĪ¾ áĪĺ
ĠáįįáĬķáĭ³ áī³
áĬŃ áĬķáĭ®
ĠáĭŃáīĨ áĪĽáĪį
ĠáīłáĪŀ áī£áĭŃáĪį
áĪµáī°áĭ³ áĭµáĪŃ
Ġáīł áĭ«
ĠáīłáĬ¥ áĪŃáĪ³áī¸áĭį
Ġáĭ¨áĪļáĭ« áĪ¨áĮĭáĮįáĮ¥
Ġ19 5
áĪ°áĪĻ áĪĿ
ĠáĬ¨áĪĢ áĮĪáĪŃ
20 20
Ġáĭ¨áĪļáĮĪáī£ áĭįáĬķ
Ġáĭ¨áĬł áĪµ
ĠáĪ³ áĭį
ĠáĪĬáĬĸáĪŃ áĭİáīµ
Ġáīłáīµáĭķ áĮį
áī° áī±
Ġ1 20
Ġáīłáī° áī£áīłáĪ©áīµ
9 9
ĠáĪģ áĪĭáī½áĪģ
Ġáĭ¨áĪĺ áĮłáīĢáĪĿ
ĠáĭŃáĮĪ áĭ°
Ġáĭ¨áĪĽáĭ« áīĭáĪŃáĮ¥
ĠáĪĬáįĪ áĮłáĪŃ
ĠáĭŃáĬ¨áīł áĪ«áĪį
áĭĺáĪŃáĪĭáĬķáĭµ áĪµ
ĠáĮ¥ áĪ°áīµ
ĠáĪĺáĪĪ áĬ®áī³áĭĬ
ĠáĬłáī³ áĭµáĪŃáĮį
ĠáĬłáĪ¸ áī£áĪª
ĠáĭŃáī£ áĪĭáĪī
Ġáĭ¨áĪĭáĭŃ áĬĽáĭį
Ġáĭ¨ áĮįáĪ«
Ġáĭ« áĪĽ
áĪ¸ áĪ¸
Ġáĭ¨áī° áĬ«áĪĦáĭ°áĭį
ĠáĬ¨áĬ¥ áĪŃáĪ·
ĠáĬ¥áĭ« áĭ°áĪ¨
ĠáĬ¨áī° áĮĪáĬĺ
ĠáĭŃáĬķ áĮĪ
ĠáĪĺáĪĲ áĬķáĭ²
ĠáĪĺáĮ£ áī½áĪģ
ĠáĪļáĬķ áĪµáīµ
ĠáĮ½ áĭµ
ĠáĪĺáįį áīĢáĭµ
ĠáīłáĪĺáĮįáĪĪ áĮ½
) )
áĪ¨ áĬĽáĪį
ĠáĪ° áĪ«áĪ½
ĠáĪ² áĭ°áĪ¨áĮį
ĠáĪĺáī° áĬ«áīµ
ĠáĬ¨áĪĽ áĪµ
ĠáĭµáĮįáĮįáĪŀ áĪ½
Ġáĭ¨ áĭ«
áĬķáĭ ¨
ĠáīłáĬł áĪģáĬķ
ĠáīłáĪķáĭŃáĭĪ áī±
ĠáĪĺáĮĪáī£ áĭ°áĮĥ
Ġáĭ¨áĪļ áįĪáĪį
ĠáĬ¥áĬķáĭ°áĪļáĭ« áĭ°áĪŃáĮį
ĠáĬ¨áĬ¥áĬĲáĭļáĪħ áĪĿ
Ġáĭ°áĮį áĪľ
ĠáĬ¤áĪĿ áī£áĪ²
áĪĪ áīĥ
áĪł áĪ¨áī±
áĮĪáĪĪ áįħ
Ġáī°áĬ¨ áĬĵáĭį
ĠáĮİáĪ¨ áī¤áīµ
ĠáĬ¥áĬķáĭ°áĪļ áĪ°áĮ¥
P A
ĠáĬĲ áīłáĪį
Ġáī°áīĢáĪĿ áĮłáĭį
ĠáĭŃáĭĪáĪ° áĬĵáĪį
Ġáĭ¨ áĬķáĮī
áĪħ áįįáīµ
ĠáĮĪ áĪĭáĮŃ
ĠáĬłáĪŃ áī³
áĮĪáĭ° áĭµ
Ġáī½ áĮįáĪ«
ĠáĭŃáĪĺáĪµ áĮĪáĬķ
ĠáīĢáĪŃ áī·áĪį
áĬķ áĬ©
ĠáĪĺ áīĥáĭĪáĪĿ
ĠáĬłáĮĪ áĪ¬
Ġáī°áĪĺáĪį áĪ·áĪį
ĠáĮįáĮ¥ áĪŀáī½
ĠáĪĺáĮ£áĮ¥ áįİáī½
ĠáĪį áīł
ĠáĪĺáĮįáĪĪ áįħ
Ġáĭ± áī£áĭŃ
Ġáīłáī¶ áĪİ
áĪ® áĪ®
áĬĸ áī»áī¸áĭį
áĮĢ áĬŃáīµ
ĠáĬ¥áĪħ áī´
ĠáĭĪ áĪ«áī¶áī½
áįį áĬķáīµ
áĪļáĬĴ áĪµáīµ
ĠáĬ¨áĬķáī² áī£
Ġáĭ¨áī° áĬĵáĮĪáĪŃ
ĠáĮĪ áī¥áĪ¨
áĬķáĮį áĭ³
ĠáĭĪáĮ¥ áĪĺáĭµ
ĠáīħáĪŃáĮ¸ áī¶áī½
Cl oud
ĠáīłáĬ¥ áĪµ
ĠáĮ¤ áĬĲáĬĽ
áĪĭ áĪļ
áĪª áĭİáī¹
Ġáī¥ áĪ¶
ĠáĪĪáĬł áĭ²áĪ±
Ġáī¥áĪĦ áĪ¨
ĠáĭŃ áĮĪáĬĵáĬĻ
áĮĪáĬĲ áī¡
ĠáĪĿ áĮ½
Ġáī³áĪª áĬ®áī½áĬķ
ĠáĪĽ áĮ«áĭĪáī»
ĠáĬ¥áĬķáĭ°áĪĨáĬķ áĬķ
ĠáĬ¥áĭ¨ áĪ±áĪµ
ĠáĪĺáĪµáī°áĮĭ áī¥áĪŃ
áĬĲ áī½
Ġáĭ¨áĬł áįĪ
ĠáĭĪáĪ¨ áĪ«
ĠáĪĪ áįĵ
ĠáĪŀ áīĥáīµ
re n
ĠáĪģáĪĪ áĬķáī°áĬĵáĭĬ
ĠáĭŃáĬĵáĮĪ áĪ©
áĭŃáĪħáĬķ áĬķ
ĠáīłáĪĺáĪĨ áĬĶ
ĠáĬ¥ áī¤áīµ
Ġáī° áĮłáĬĵáīĢáīĢ
Ġáī£ áĮŃáĪ©
ĠáĪĺáĮł áĬĵ
Ġáĭ¨ áĪ³áĬķ
ĠáĪµ áĪĿáĬķ
áĪ© áĬŃ
áĮįáīł áĭį
Ġáī°áĭĪ áĪĭáĮĨáī½
ĠáĮĢáĪĺáĪŃ áĬķ
áįįáĪ¬ áĪĿ
áĭİ áī»áī½áĪģ
ĠáĬłáĪį áĪĽ
Ġáĭ¨áĪļáĭ« áĭ«áĭĿ
áĪ¨áĭ³ áĬĿ
Ġáīłáīł áĮİ
ĠáĬłáĭŃáĮĪáī£ áĬĿáĪĿ
ĠáĭĺáĪĮ áĭĭáĭįáĭ«áĬķ
ĠáĬłáĭŃ áĪĨáĬĳáĪĿ
ĠáĬ¨áĬł áĭį
áĮįáĪ« áĪĻ
ĠáīħáĬĵ áĪ¾áī½
Ġáįį áįĥáĪľ
ĠáĬ¨áĪĺ áĪĿ
ĠáĪ» áĮŃ
áĮ³ áĭįáĪİáĪµ
Ġáĭ¨áĪĮáĪĭ áĭįáĬķ
ĠáĭµáĪĿáįģ áĬķ
áįĥ áįī
ĠáĬ¨ áĬĲáĮĪ
ĠáĭŃáĪħ áīº
ĠáĬłáĮĪ áĪ©
ĠáĪĪáĭ°áĬķ áīł
ĠáĬ« áĪĿáįķ
ĠáĬ¥áĬķáĭ³ áĪĪáĬķ
Ġáĭ¨áĭĪáĭ° áįĬáī±áĬķ
ĠáĮŃáĪĿ áī¥áĪį
áĮ¸ áĮ¸
áĪı áī¸áĭįáĬķ
Ġ6 6
ĠWord Press
áįĭ áī¸áĭįáĬķ
ĠáĬłáĪĿ áĪį
ĠáĬ¨áĪĺ áĬ«áĬ¨
ĠáĬĸ áĪ¨
ĠáĬłáĪ³áĪį áįĮ
Ġáĭ¨áīłáĪ¨ áĪ«
ĠáĪĺáĪ° áĪ¨áī°
Ġáĭ¨áī¥ áĪİáĮį
áĪļ áĭ«áĭį
ĠáīłáĪĺ áĪ¬áīµ
Ġáĭ³ áĬŀáī½
áĪįáĮ£ áĬĳ
ĠáĪµáĪĭáĪį áĪĨáĬĲ
áĮĪáĪŃ áĪĿáĪĿ
áĪĺ áĮ¨áĪ¨áĪ»
ĠáĪĺ áĮª
ĠáĪ² áĪ°áĮ¥
áĮĪáĬĵ áĬĺáĭį
Ġáĭ¨áĪĽáĭŃ áįĪáĪįáĮī
áĬ© áĪŃ
Ġáĭ¨áĪĺ áĮĵáĮĵáĭ£
áĪĺáĮ£ áĪĪáĬķ
ĠáĬ¥áĪŃáĪµ áĭĭ
ĠáįĮáĭ´ áĪ¬áĪ½áĬķ
ĠáĬ®áĪŃáįĸ áĪ¬áĪ½áĬķ
Ġáĭ¨áĪ¬ áĭ²áĭ®
ĠáĬłáĪģáĬķ áĪµ
Ġáĭ¨áĬĥ áĮ¢áĬłáīµ
áĬĲ áĮ£
Ġáī¶ áĪĽáĪµ
Ġáī³áĭĭáīĤ áĭį
ĠáĪ½áĪįáĪĽ áī¶áī½
ĠáĬ¥áĬķ áĮ¨
ĠáĬłáĮĪáĪįáĮįáĪİ áī±áĬķ
Ġáĭ¨ áĭ«áĭĿ
áįĪ áĮ¥áĪŃ
áĪªáĭ« áĬķ
ĠáĪĪáĪĺáīĢ áĪĭáīĢáĪį
ĠáĪĪáĪ« áĪ³áī½áĬķ
Ġáĭ¨áĪĿáĪµ áĮĭáĬĵ
ĠáĮįáĮ¥ áĪļáĭ«
Ġáī°áĪĺáĪįáĬŃ áī°áĬĵáĪį
Ġáĭį áīħáĭ«áĬĸáĪµ
ĠáīłáĪĺ áĬķáĮįáĪ¥
ĠáĭĵáĪĺ áī³áīµáĬķ
ĠáĬłáĪ»áĬķáĮī áĪĬáīµ
áĪĭ áĪĪáĪħ
Ġáī£ áĭĪáĮ£áĭį
Ġáīłáī° áĪ³áĪ³áī°
ĠáĬĵ áīµáĬĵ
Ġáī¤ áĭĽ
áĭŃ áī±áĬķ
ĠáĬ¥áĬķáĭ°áī° áĪĪáĪĺáĭ°áĭį
Ġáĭ¨áĪļáī½áĪī áīłáīµ
ĠáĪĺáĬ«áĬ¨ áĪįáĪĿ
áĮłáīħ áĪĭáĪĭáĭį
ĠáĬ¥ áĬħ
ĠáĬ¥áĭ¨ áĮłáīłáīģ
áĪķ áĭ¶
áĪª áĮħ
Ġáĭ¨áĪĺáĬĲ áĮ¨
áĬł áī¸áĭĭáĪį
ĠáĪ² áĭĺ
áĮĵ áĪļ
ĠáĭŃáĮĪáĪŃ áĪĺáĬĽáĪį
ĠáĪĽ áĪŁ
áĮĥ áĮĢ
ĠáĬ¨áī¤áī° áĪ°áī¦
B D
ĠáĬ¨áĪį áĮĨáī½
ĠáĪĽáī° áĪļáĭ«
ĠáĬ¥ áĪ°áĪĽ
Ġáī£ áĭ°áĪ¨áĮĪáĭį
áĮ¡ áīłáīµ
áĬ¥ áĪŃáĪµáĭİ
ĠáĬ¥áĬķ áĪ°áĮ¥
Ġáĭ« áĬ¨áī¥
Ġáĭį áĮ¡
ĠáĮ¥ áĭŃáīµ
ĠáĬ¥áĬķ áĬĸáĪ«áĪĪáĬķ
ĠáīłáĪµ áĪįáĮ£áĬķ
Ġáĭ¨áĬ¥ áĭµáĪľ
Ġáĭ¨áĪħ áĭŃáĭĪ
áĪ°áĮ¡ áĪĿ
ĠáĬł áīłáīĥ
áĭ°áĪ¨ áĮįáĪĿ
Ġáĭ¨áī½ áĮįáĪ©
ĠáĭŃáĮłáīłáīħ áīłáī³áĪį
ĠáĬ¥ áĭĪáīħ
áī£ áĪ«
áĬ« áĪī
ĠáĪ² áĮĪáī¡
Ġáī³ áĪµáī³áĭį
Ġáįİ áĪŃ
áĪ¨ áī¤áīµ
ĠáĬłáĪµ áīĨáĮ¥
Ġáĭ°áĪ¨áĪ° áĬĿ
áĪª áĪĿ
áĭŃ áĭŃáī±
Ġáĭ« áĬŃáĪī
ĠáįĪ áĭįáĪµ
ĠáĪĪáĬł áĬķáĭ³áĬķáĭµ
ĠáĪĬáĭ« áĪĺáĮ£
ĠáĪĪáĪĺáī° áĮįáīłáĪŃ
Ġáĭ¨áĪļ áīĢáĪŃ
ĠáĬłáĭŃ áīłáĪį
ĠáīłáĬ £
áĮĤ áĭİáī½
áĪ°áĮł áĭįáĪĿ
ĠáĬ¨áĪĨáĬĲ áĭį
ĠáĪĪáĬł áĪ«áīµ
Ġáīł áįİáī¶
ĠáĪĺáĬķáĮįáĪµáīµ áĪĿ
ĠáĬ¥áĭ¨ áĪ°áĮł
ĠáĬ¥áĬķáĭ³ áĪ³
ĠáĬĲáīłáĪ¨ áĬķ
ĠáĪĺ áĭĪáĮ£áīµ
áįĪ áĪªáĭ«
Ġáĭ«áĪµ áīĨ
ĠáĬ¤ áĪĮáĬŃáīµáĪ®
Ġáĭ¨áĪĺáĮĢáĪĺáĪªáĭ« áĭĭ
Ġáĭ¥ áĪ¨áīµ
Ġáĭ«áĪµ áī¸áĮį
ĠáĬłáĬ« áĪĤ
ĠáĭŃáĪŀ áī³áĪī
u re
Ġáĭ¨ áĮ¦
áĬķáĭ ļ
áĮ© áīµ
Ġáī°áĭ°áĪŃ áĮĪáĭį
ĠáĪµ áī±
áįĪ áĪŃáĭµ
ĠáĪĢ áīħ
ĠáĬłáī£ áĪĭáīµáĬķ
Ġáĭ¨áī°áįĪ áīĢáĭ°
ĠáĪĺáĪª áĬĲáīµ
Ġáĭ¨áĪ³ áĪĿáĬķáī±
ĠáīłáĪĺ áĭ°
Ġáĭ¨áĮ¥ áĬķáīµ
ĠáĪ± áīĨáī½
Ġáĭ¨áĬ¨áī°áĪĽ áĭĭ
áī£ áĪĪáĪħ
áī£ áĪªáĭİáī½
Ġáĭ¨áī° áĬ«
ĠáĬ¢ áĪµáī³áĬķáī¡áĪį
Ġáī½ áĭ«áĪĪáĪģ
áī³áĭį áīĢáĭį
Ġáĭ«áĭį áīĢáĭĭáĪį
Ġáĭ¨áī°áįĪ áĮ¸áĪĺ
áĪ°áĪ© áĪĿ
ĠáĪĺáĪĪáĭ« áĭ¨áīµ
ĠáĭŃ áĪ°áī¥
ĠáĪĬ áĪ°áĮłáĭį
Ġ7 7
áīµáĪĿáĪħ áĪŃáī±
E T
áĪ° áĪ©áīµ
Ġáīµ áī¼
ĠáĪ°áĪŃ áī¶
Ġ< <
ĠáīĢáĭµ áĪĺáĭį
Ġáīł áĮĨ
áĮĪ áīłáĪŃ
Ġáĭ¨áī° áĮĢáĪĺáĪ¨
Ġáĭ¨áī° áĭĺáĮĭáĮģ
Ġáī¥áĪŃ áīħ
Ġáī°áĮłáĬĵ áĬŃáĪ®
áĪ» áī¸áĭį
ĠáĭµáĪŃ áīħ
áĪĺáĪ° áĮįáĬķ
Ġáĭİ áī½
ĠáĭŃáĮĪáĪį áĮ»áĪī
a v
ĠáĬ¥ áĪįáįį
Ġ6 00
Ġáĭ¨áĪµ áī¥áĪ°áī£
ĠáĪł áĪĭáĪ³
áĬ¨áĪĭ áī½áĬķ
ĠáĬĳ áĪ©
Ġáĭ«áĭ°áĪŃáĮĪ áĬĵáĪį
s p
áī¥ áĪĪáĭĭáĪį
áī¸ áĭĭ
Ġáĭ¨áī° áĮĪáĬĵáĬĻ
ĠáĬ¥áĬķ áĮĪáĪį
áįį áĪŃáĪĿ
Ġáĭ¨áĬł áĪĺáĪ«áĪŃ
ĠáĮ¨ áĬ«áĬĿ
ĠáĭŃáĭĺ áī¶áī½
Ġáīµáĭķ áĭŃáĬķ
Ġáīł áĬ¨áī£áĭµ
ĠáĪĺ áĭĪáĪĪáĭµ
Ġáĭľ áĮİ
áĪłáĪ« áĪŃ
ĠáĬłáĪĺ áī±
Ġáī°áĮĪ áĭ°áĪī
Ġáĭ¨áī°áĭ°áĮĪ áįĪ
ĠáĭįáĬŃ áįĶáĭ²áĭ«
Ġáĭµ áĪħ
áįĪáĮ¸ áĪĺáĭį
o k
Ġáĭ¨ áĪĪáĭį
ĠáīłáĪĺ áĪ£áĪªáĭ«
áĭŃ áĪī
ĠáĮ¥ áĪ¨áī¶áī½
ĠáĬłáĪį áįĪáĭį
áī¢áĭ« áīµ
áĮĪ áĭĺ
Ġáĭ¨áĪĢ áĮĪáĪ«áī½áĬķ
ĠáĬłáĪŃ áĪĿ
áĪĭ áĪĬáīµ
áĪĽ áī²áĬŃ
ĠáĪ² áĮ¨
áĪĻ áĬĴ
áĮ½ áĪĳáįį
ĠáĪĺáįįáīµáĪĦ áĭİáī½áĬķ
200 7
áįĪ áĪħ
ĠáīłáĬ¥ áĭµáĪľ
ĠáĪķ áĪĬáĬĵ
ĠáĬ¨áĪĺ áĮį
Ġáĭ¨áĭ° áĪĺ
Ġáī° áĭī
ĠáĬ¥áĭ¨áī° áĮłáīĢáĪĻ
áĮłáĪ« áĪī
áīĥ áĪĪáĪį
áĪĭáĭŃ áī³
ĠáĮ½ áĪķáįĪáīµ
ĠáĬłáĮĭ áĪ«
Ġáīħáĭ³áĪľ áĬĵ
Ġáĭ¨áĪļáĪĺáĪ« áĭį
ĠáĬłáĭ°áĪŃáĮĪ áĭĭáĪĪáĪģ
Ġáĭ¨ áĮłáĪ«
ĠáĪµáī¥ áĬ¨áīµ
ĠáĭµáĪŃáĮĬ áī±
ĠáĭŃáĮĪáĪį áįĥ
Ġáĭ¨áĬł áĮŃáĪŃ
áĪħáĬķ áįĥ
ĠáīłáĮ¥ áĭŃáīµ
ĠáĪĺáĬķáĮįáĪµáīµ áĬķ
áī³ áĪİáī½
ĠáĬłáĪ° áĬĵ
áĪĺáĪĪáĬ¨ áīµáĪĿ
ĠáĮ¥áīł áīłáĬĽ
ĠáĪĺáĭµáĬĥáĬĴ áī¶áī½
ĠáĬ¨ áĮ£
Ġáĭ¨áĪļ áĮĭ
ĠáĮ¥ áĪĪáĭį
Ġáĭĺ áĪĿ
Ġáīł áīģáĪŃ
ĠáĬłáĭ¨ áĪģáīµ
ĠáĬ¥áĭ« áĭĪ
ĠáĪ¥áĪ« áī¸áĭį
áĪħ áĭ¶
ĠáĭĵáĪĺ áī´
ĠáĪ½ áī¦
Ġáī°áĮłáĭ«áīĤ áĬĲáīµ
Ġáĭ¨áĬ¥áĬķ áĮ¨áīµ
ĠáĬ¥ áĪ¨áĭ³
áĭ«áĬķ áĬķ
Ġáī¤áī° áĬŃ
ĠáīłáĬ ¾
ĠáĬ® áĪ¨áī¥
ĠáĪĽáĪ»áĪ» áĭ«áĭİáī½
ĠáĪĥáĭŃ áĪİáī½
Ġáĭ¨áĬ©áī£áĬķáĭ« áĭį
C O
ĠáĬ¥áĬķáĮį áĭ²áĭ«áĭį
ĠáĭĪáĭ³ áĮĥ
ĠáĬ¥áĮį áĪ®áī½
20 14
ĠáĭŃáī³áĭĪ áīĥáĪī
ĠáĪĽ áīĢáĭĿáīĢáĭ£
Ġáĭ¨áĪļáĮĪáĬĻ áīµáĬķ
ĠáĪĪ áĪ³
Ġáĭ« áī°áĬ©
áĬĸ áĬŃ
ĠáĬ¤ áĮįáĭļáī¢
áĪŃ áīŃ
áĮł áĬĳ
Ġáĭ° áĮĢ
ĠáĬ¥áĬķáĭ² áĮłáīĢáĪĻ
áĪ¨áĭ³ áī¸áĭį
Ġáĭ¨áĮį áĪªáĬŃ
Ġáĭ¨áĪļ áĬĲáĬ«
Ġáī£ áĪŃáĬĲáīµ
áĪĲ áĭĬ
ĠáĮįáī¥ áįĥ
ĠáĪ¥áĪŃáĭĵ áī¶áī½
ĠáĭŃáĪ¸áįį áĬĵáĪį
ĠáĪĪ áįĬ
áīĥ áĪĪáĪħ
ĠáĭĪáĪŃ áĭ¶
ĠðŁ Ļ
ĠáĮŃáĬķáīħ áĪĭ
áĮİ áĬĵ
ĠáĬ¥áĬķáĭ°áĪļ áįĪáĪįáĮį
Ġáĭ«áĪĪ áįīáīµ
áĪĺáĮ£ áīłáīµ
Ġáĭ¨áĪĽáĭŃáī³ áĭĪáīħ
áĪŀ áĪ«
ĠáīłáĪĺ áĮ«áĭĪáīµ
ĠáĬ¨áī° áĮĢáĪĺáĪ¨
Ġáī°áĬ¨ áĪµáī·áĪį
ĠáĬŃáĪħ áĪİ
áĮ ¶
ĠáĪ² áĭĪáĮ¡
áĪĶ áĪĿ
ĠáĬ¥áĭ¨ áĪĨáĬĳ
un g
áįĸ áī½
Ġáī¥áĪį áĮ½áĮįáĬĵ
ĠáĪĪáĭĪ áĬķáĭ¶áī½
ĠáĮĭáĭľáĮ£ áĭĬ
ĠáĪĽáĭķáĬ¨ áĪĭáīµ
áī¦ áī»áī¸áĭį
ĠáīłáĪļ áĪĬáĭ®áĬĸáī½
ĠáīłáĪŃáĬ« áī¶áī½
áĬĲ áĬĲ
áįį áĬĸ
Ġáī¥ áĭ«áĪĪáĪģ
ĠáĪķáĭĿáīħ áĬ¤áĪį
áįĵáĬĴ áĪ½
ĠáĭŃ áĬ¨áī³áī°áĪī
ĠáīłáĪĽ áĭŃáī³
áĪ°áī¥ áĪĿ
ĠáĪĽáĮį áī£áīµ
áįĪáĪ¨ áĬķáĪµ
ĠáīłáĪĽ áĬħ
áīłáĪĭ áĪ¹
áĭ¢ áĭį
Ġáĭ¨áĪļ áĭĪáĮ£áĭį
áĬ® áĪĭ
ĠáīłáĪħáĭŃáĭĪ áī´
ĠáīħáĪµ áīĢáĪ³
Ġ u
Ġáĭ¨áī° áĬ¨áįĪáĪĪ
áĪĪáĬķ áĬķ
Ġáĭ¨áĪļáĭ« áĪ°áĬĿ
áĪ°áī¥ áĬłáĭĬ
ĠáĭĪáīħ áī±
Ġáī± áī¦
Ġáĭ¨ áįĪáĪĪáĮĪ
áĬ« áĪªáĭį
ĠáīłáĬĲ áįį
Ġp ost
Ġáĭ¨áī°áĪ° áĬĺ
-- -
Ġáĭ«áĪµáī½ áĪĪáĭĭáĪį
áīł áĭ¨
Ġáī½áĮįáĪŃ áĬķ
áĭŁ áī¸áĭį
ĠáĪĿáĪ¥ áĮ¢áĪŃ
áĪī áīĥáĪµ
áī¸ áĬķ
áĭ³ áĭµ
áĭ°áĪŃ áĮįáĪį
áĮ¹ áĪħ
Ġáĭ¨áī°áĪ» áĪ»áĪĪ
Ġáĭ¨áĮİ áĪ³
Ġáī° áĪ°áī£
ĠáĪĪáĪĽ áĪŃ
ĠáĪħ áĬķáĮ»
ĠáĬ¥áĭ« áĮĪáĬĺ
áīĢáĪĿ áĮ¥
ĠáĪĪ áĮįáī¥
áīĢ áī±áĬķ
áīħ áĪ¶
ĠáĪªáįĸáĪŃ áī±
ĠáīłáīħáĪŃ áīłáīµ
ĠáĭŃáīł áĪĭáĪį
áĮ½áĬĵ áįĪ
ĠáĬłáĪµáĮĪ áĭ³áĮħ
ĠáĪĺ áĮªáĭį
ĠáĬłáĪį áĪŀ
Ġáĭ¨áĬ¥ áĪ·
ĠáĪĽáĪµ áĮĢáĪĺáĪŃ
ĠáĮłáĭ¨ áīĢáĭį
ĠáĪĨáĬķ áĬ©
ĠáĪħáĮ» áĬķ
ĠáĭŃáĮł áĪ«
ĠáĪĺáī³ áĮłáī¢áĭ«
áĬĲáĮĭáĮĪáĪŃ áĬķ
ĠáĪĺáīĨ áĮłáī¥
Ġáĭ¨áĬ¥áĭį áīĢáīµ
ĠáįĪ áĪĭ
áĪĭáįĬ áĭİáī½
áĮ£ áī¸áĭįáĬķ
Ġáĭ¨áĪĺ áĬ¨áĪĭáĬ¨áĪį
áĪļáĬĴ áĭ¨áĪĿ
Ġáĭ¨áĪļ áĬ«áĪĦáĭµ
ĠáĪ© áĪĮáīµ
ĠáĬ¥áĮį áĭľáĪŃ
Ġáī°áĮłáīħ áĪŀ
ĠáĮİáī¥áĬĿ áĭİáī½
ĠáĪĪáĪĽ áĮłáĬĵáĬ¨áĪŃ
áĮĵ áĮĵáĭĿ
ĠáĬłáįį áĬķáĮ«
ĠáĭŃáĪĪ áĭĪáĮ£áĪį
ĠáĭŃáĭĪáĪŃ áĭ³áĪį
ĠáĬ ¸
ĠáĬłáĪ³ áī³
ĠI S
Ġáī°áĬĿ áī¶
Ġáĭ¨áī° áĪłáĪ©
áĪ¥ áĪ¨áīµ
Ġáī³áĭį áīģ
ĠáĬ¥áĭ¨áī° áīĢ
ĠáĬłáĬ«áī£áī¢ áĭįáĬķ
ĠáĭŃáĮĪáĬĻ áīłáī³áĪį
áĮĭ áĪľ
Ġáĭķ áī¥
ĠáĭĺáĪŃ áįī
ĠáĬłáĪĿáī£áĮĪáĬĲ áĬķ
ĠáĬ¥áĭĪáĪµ áĭ³áĪĪáĪģ
ĠáĪĽ áĮłáĬĵáīĢáīħ
áĭĽ áĪĺáĭ±
ĠáĬłáĪį áĬ©áĬĿ
ĠáĪĲ áīĢáĬĽ
Ġáī°áĬķ áĬ®áĪį
Ġáĭ¨áĭ³ áĪ°áĪ³
ĠáĭµáĬķáĮĭ áĭ®áī½
ĠáĪĺáĪŃáĪĨ áĭİáī½
ĠáĪĪ áī¡
Ġáĭ¨áĪļ áĬ¨áĪ°áīµ
áĭ³ áĪªáĭį
áĪ´ áĪİ
ĠáĪĺáĪŃ áĮ¦
ĠáĪĺáĪ¥ áĭĭáĭķ
Ġáĭ¨áĬłáĭŃ áĪģáĭµ
ĠáīłáĪĺáĪ° áĪ¨áī±
áĪĺ áĬķáĮįáĪ¥áīµ
Ġáī£ áĬĲáĪ°
ĠáĬ® áĪ®áĬĵ
ĠáĪĽáĪµ áĮĪáī¢áĭ«
ĠáĪĺ áĪĺáĪŃ
Ġáį ¬
ĠáĪµ áĬ¥
Ġáī¢ áī³
ĠáĬ¥áĭ« áĭ¨áĪģ
ĠáĪĽáĪħ áĭ°áĪ¨
ĠáĬ¥ áĭī
áĭ« áĪļ
19 7
ĠáĪĽáĪĺáĬķ áĮ«
Ġáĭ¨áī° áĬĲáĮĪáĪ¨
ĠáĮ¥ áĮĪáĬĿáĬĲáīµ
ĠáĬ¥áĭµ áĪīáĬķ
ĠáĪº áĪķ
ĠáĪĪ áįĢ
ĠáĮ¡ áī£áĭĬ
ĠáįĢáĪĲ áįĬ
Ġáīł áĮįáĪĿ
Ġáī° áįĪáĪŃ
áĮĥ áĪĿ
ĠáīĢáĮł áĪī
Ġáĭ¨áī°áīĢáĪĺ áĮłáĭį
ĠáīłáĬłáīħ áĪ«áī¢áĭ«
ĠáĪµáī¥áĪµ áī¦áī½
Ġáĭ¨áĪļáĭ« áĪĺ
ĠáĭĪáĬķáĭµ áĪĻáĬķ
áĬ®áĪľ áĪŃáĪµ
ĠáĬł áĪ°áī¥
áĪħ áĬĵáīµ
áī» áĭį
áī¡ áī£áĭĬ
ĠáĭŃáįĪ áĮłáĪ«áĪį
Ġáīłáĭ© áĬĴáī¨áĪŃáĪ²áī²
ĠáĬłáĭįáī³áĪ¨áĪĺáĪ¨ áī¦áī½
ĠáĬ¥ áĭĿ
ĠáĪµ áįĸ
Ġ( â
áĬ ¼
áīª áĪµ
Ġáĭ«áĪįáī°áĪĪáĪĺ áĭ±
ĠáĪĿáĪŃ áĮ¡
ĠáĬłáĭ° áĪ©
ĠáĮįáī¥áĪ¨ áĪĺáĪįáĪµ
ĠáĪį áī£áī½áĬķ
ĠáĬ« áĬķ
ĠáĪĺáĮ£ áī½
p l
ĠáĬł áĮ¥áĬĲáīµ
ĠáĪĪ áĮĵáĭ°
Ġáĭķ áĪį
ĠáĬłáĬķ áĪ¥
ĠáĪģáĪĪ áī´
áĬ£ áī¥áĪĶáĪŃ
ĠáīłáīłáĬ© áĪĭáī¸áĭį
Ġáĭ¨ áī¶
áī° áĭī
Ġáĭ¨áī°áĪĺ áĭĺáĮĪáī¡
ĠáĬłáĪ² áĭµ
ĠáĪµ áĬŃ
Ġáĭ¨áĪļ áĬĲáĪ±
Ġáĭ¨áĪļ áĬĵáĮĪáĪ©áīµ
ĠáĪħ áĭĪ
ĠáĬ® áĪŃáĪµ
áĪİ áī»áī¸áĭį
ĠáĪµáĪĪ áĬĲáīłáĪ©
on d
ĠáĭĪáĪ¨ áīĢáī¶áī½
Ġáĭ¨áīĨ áĪĺ
ĠáĪĪáī¥áĭĻ áĭİáī½
ĠáĪµáĪĪáĪĨáĬķ áĬ©
ĠáĬłáĪĺáĪĭáĬ« áī½
áĪ« áĪļ
ĠáĪĪ áĮ¤áĬĵ
ĠáĬłáĪĪ áīĢ
ĠáĬ¥áĬķáīħáĪµáīĥáĪ´ áĭİáī½áĬķ
Ġáĭ¨áĪļáī½áĪī áīµáĬķ
Ġáĭ¨áĭµáĪŃ áĮħ
Ġáĭ¨ áĮĦ
Ġáĭ¨áĪļáĭ« áĪĺáĪĪáĬŃáī°áĭį
ĠáĬ¨áĬł áĪĿ
20 16
Ġáĭ¨áĪļáĭ« áīĢáĪŃáī¡
áĮłáīĢáĪĿ áī£áī¸áĭį
ĠáĬ¥áĬķáĭ°áĪĿáīµ áī½áĪį
ĠáĮ¡ áĪ¨áī³
ĠáĭŃáĭĪáĭµ áīĥáĪį
Ġáĭ¨áī°áīĢáĬĵ áĮĢ
Ġáī» áĪĪ
Ġáīłáī¥ áĪİáĮį
áĪĥáĪį áĬĵ
ĠáĭĺáĪĺ áĬĲ
ĠáĭĪáĪĭ áĮĨ
ĠáĬ¨áĪģáĪĪ áī±áĪĿ
Ġáĭ¨áĬ¢áĬķ áī¨áĪµáīµáĪĺáĬķáīµ
a f
ĠáĪĺ áĭĺáĬķáĮĭáīµ
Ġáĭķ áĪŃáĭ³áī³
Ġáīłáįį áĪŃáĪĥáīµ
Ġáĭ¨ áĮ¡áīµ
áĮĭ áī½áĬķ
áįķ áĪ¨áĪµ
Ġáĭ¨áī°áīĥ áĭĭáĪļ
ĠáĪµáĪĪáĬ¥ áĪ±
áĪµáī° áĬĵáĮĪ
ĠáĪĪáī¥áī» áĭį
áĭŃ áĬĳ
Ġáī° áĪĥáĭµáĪ¶
áĬł áī±
áī¶ áī¡áĪµ
áīĥ áī³áĪĽ
áĪªáĭ« áĪį
áĮī áĭ³áĭ©
ĠáīłáĬł áĪµáĪŃ
ĠáĪĺáĪŃ áįĮ
p s
Ġáĭ¨ áĭµáĪ¨
áī» áī½
ĠáīłáĬł áĪħ
áī°áĬĽ áĭįáĬķ
áĬ¤ áĬł
Ġáĭ« áīº
Ġáĭ¨áĪļ áĮłáĪ«áĭį
Ġáĭ¨áĪļáĭ« áĭ°áĪŃáĮĪáĭįáĬķ
ĠáĪ¥ áīĥáĭŃ
áĭ¶ áĪŃ
áī¥áĪ« áĪ«áīµ
ĠáĪĽáĬħ áīłáĪ¨
Ġáĭ¨áĪŃ áīĢáīµ
Ġáĭ¨áī° áĬ¨
ĠáīłáĬł áĭķáĪĿáĪ®
Ġáīłáĭį áĮ¤
áĪĭáĬ« áī½áĬķ
ĠáĮ«áĪĽ áĭİáī½
ĠáĭŃ áĪĭáĬ©
ĠáĬłáĪµ áĮĪáī£
ĠáĬ¨áī° áīĢ
Ġáī°áĪĺ áĭµ
ĠáĬłáĭ« áī´
ĠáĬłáĪįáī° áįĪ
ĠáĪĺáĮ½ áĪĥáįį
ĠáĬ¨ áĬĵáĬķáī°
Ġ" +
ĠáĪĺáĪ¨áĮĥ áĭİáĬķ
áĮ® áī¹
Ġáĭ°áĪ¨ áĪ±
ĠáĮįáĭ´ áī³áĭİáī½
ĠáĪĽáĪµáĪ¨áĮĥ áĭİáī½
áĭ ¯
ĠáĬłáĪįáīł áĪĿ
ĠáĬ¥ áī°
... !
ĠáĪĿáĪŃ áī±áĬķ
ĠáĬłáĭį áĭ°
Ġáī°áĪ³ áįĭáĪª
Ġáĭ¨áĬ¨áī°áĪĽ áĭį
ĠáĬ¥áĪ°áĪ« áĪĪáĪģ
áĪħ áĬĴ
Ġáīħ áĪį
ĠáĪĺáīĢ áĪĭáīĢáĪį
ĠáĭĪáĭµ áīĨ
ĠáĪĺ áĭĪáĪ°áĭµ
áĪ¨ áĬĵ
áĬĸ áĪ©áĬķ
ĠáĮįáĬķáī£ áī³áĭį
ĠáĪĪáĪĽáĭ³ áīłáĪŃ
áį ¬
áīĢ áĬĽáĪį
áĪĻ áĭ«áĭį
ĠáĪĺáĭ° áĪ«
ĠáĭŃáĭĪáĪµ áĭ³áĪī
ĠáĬ¨ áĬĲáīłáĪ¨
áīĨ áĪĺáĭį
ĠáīłáĪ¨ áĮħáĪĿ
ĠáĬ¥ áĪłáĪ«
ĠáĪĽáĪµ áĭ«áĭĿ
Ġáĭ¨áĪµ áĪľáīµ
Ġáī°áĮĭ áĭµáĪİ
ĠáĭŃáĭµ áĬĵáĪį
áĬŃ áīłáīµ
ĠáĪį áī£
áĪı áĬķ
ĠáĬ¥áĭµ áĪİáī½
Ġáĭ¨áĪļáī½áĪį áīłáīµ
áĬ¨áī³áī° áĭ«
áĭ« áĪĪ
ĠáĬ¥áĬķáĭ² áĭ°áĪ¨áĮį
ĠáĪĪáĪĽ áĬĲáĮĭáĮĪáĪŃ
Ġáĭ¨áĪĿ áĭµ
Ġáĭ¨áĪĺáĪį áĬ«áĪĿ
áīł áĪĮ
Ġáĭ¨áĬł áĪ¸
áĬ¨áĪĪ áĬŃ
ĠáĪĺ áĪĻáĭ«
ĠáĪ« áĪ·áĬķ
Ġáī°áĭĪ áĮį
ĠáĬ¥áĬķ áī¢
ĠáįĬáĪį áĪĻ
áĭĬ áĭµáĬķ
Ġáī¦áī³ áĬķ
ĠáįĬ áĪĬ
áĪĪáĮł áĬĲ
ĠáĭŃáĭĺ áĪħ
ĠáĬłáĪĿáĪĭáĬ« áī½áĪģ
áĭŃ áĪµáĮ¥
ĠáĬ¥áĭ¨ áĭĺ
áĮĪáĪį áĮ¹
ĠáĬłáĭį áīħ
ĠáīłáĭįáĪµ áĮ¤
ĠáĪĺáįħ áĪĢáįį
Ġáĭµáī¥ áĭ°áī£
Ġáĭ«áīĢ áįĪ
ĠáĬ¨áĮ¨ áĪĪáĪĽ
Ġáīł áĭĪáīħ
ĠáĪ° áĬķáīłáīµ
áīĨ áīĥ
áĮĥ áĬķ
ĠáīłáĬĲ áīłáĪŃ
Ġáĭ¨áī° áīĭ
áĮī áĭ³áīµ
Ġáĭ«áĪ³ áĪĪáįį
ĠðŁ ĳ
ĠáĪĺáĮ»áĪķáįį áīµáĬķ
áĪħ áīłáīµ
ĠáĪ² áĪ³áĭŃ
ĠáĪĽáĪµ áĭĪ
Ġw ww
áįİ áĪŃáĭµ
ĠáįĬ áī±
ĠáĪĿáĮįáī¥ áĬķ
áįį áĪ¨áĭį
ĠáĮĪ áĪĺ
ĠáĬłáĭįáī¶ áī¡
ĠáīłáĬ¥áĮĥ áī¸áĭį
Ġáįį áī°áĪ»
áĭµáĪ® áĪµ
Ġáī°áĮłáĬĵ áīħ
áĬł áĭµ
Ġáī£áĪĪ áĪĺáī»
ĠáĪĺáĪ£áĪªáĭ« áĭį
ĠáīłáĬĲ áīłáĪ©
ĠáĮĪáī¥ áī¼
Ġd e
ĠáīĢáĮ¥áĪİ áĪĿ
ĠáĬ¥áĬķáĭ°áĪļáĭ«áĪµ áįĪáĪįáĮį
áī Ĳ
áī£ áĭįáĭ«áĬķ
Ġáĭ¨áĪļáĭ« áĮĭáĮ¥
ĠáĮ£ áĮ£
ĠáĬ¥áĭŃáī³ áĭİáī½
áĭŃ áī±áĪĿ
ĠáĪĺáĪĨáĬĳ áĪĿ
áĮĪáĭ° áīł
ĠáĭŃ áīłáĪĭ
áīĢ áĭ¨áĪŃ
áĪŀ áīħ
ĠáĬłáī³ áĪµ
Ġáĭ¨áĪĿáĪµ áĪį
áĪ« áī±áĬķ
ĠáĪĪáĬ¥ áĪ·
ĠáĬ¨áĪĺ áĪ°
ĠáīłáĪ° áĪĻ
ĠáĮİáĭ³áĬĵ áĭİáī½
áĭĺáĮĭáĮĥ áĪį
Ġáī°áĪ°áĮ¥áī¶ áī³áĪį
ĠáĪĺáĪĪáĬªáĭ« áĭİáī½
áĬĵ áĪĿ
Ġáī° áĮ»áįĪ
Ġáĭ«áĪĪ áĭī
ĠáĪĺáĪµ áĭĭáĬ¥
áĬ¨áīłáĪ¨ áĭį
Ġáī°áĬĲáĪµ áī·áĪį
Ġáĭ¨áĪĺáįįáīµ áĪĦ
áĪ³áĭŃ áĭµ
áī° áĪ©
ĠáĪĿ áĭ°áī£
Ġáĭ°áĪ¨áĮĥ áĭįáĬķ
Ġáĭ¨áĭį áĪµ
ĠáĬ¦ áī£áĪĽ
Ġáī£áī¡ áĪ®áī½
ĠáĭŃáĪĺáĪĪáĬ¨áī³ áĪī
Ġáī° áĬ¨áĪį
M E
Ġ" áį¢
áĭĬ áĭ«áĭį
áįĭ áī½áĬķ
Ġáīħ áĬĲáĪ³
ĠáĬ¢ áĬķáĪµ
Ġáīł áĮĨáĪ®
áĮł áĪİ
ĠáĪĺáĬķ áĮĪáĪŃ
áĪľ áĬĵáĭĬ
Ġáĭ¨áĬŃ áĪŃáĪµáīµáĬĵ
ĠáĬ¥áĪŃ áīħ
ĠáĪĽáĪµ áĬ¨áīłáĪŃ
ĠáĪĺáĪŃ áĪ³áīµ
Ġáīªáĭ²áĭ® áĭįáĬķ
áĪĬ áĬķáĮį
áįįáīµ áĪħ
Ġáĭ¨áī³ áīĢáĭ°
áĮ¥ áĪĪáĭį
ĠáĭŃ áīº
áīĢáĪŃ áĪĿ
ĠáĮį áĪªáĬŃ
ĠáĮ¥ áĪªáĭİáī½
Ġáī³ áĭ²áĭ«áĪµ
áĭ³áĬķ áĬ¤áĪį
ĠáįĭáĭįáĬķáĭ´ áĪ½áĬķ
áĪĪ áĬł
Ġáī³ áĪ³áī¢
ĠáĪĺáī³ áĭĪáīħ
ĠáĮ¥áīħ áĪŀáī½áĬķ
ĠáĭŃáĭŀ áī³
Ġáĭ¨áīħ áĭ±
Ġáĭ¨áĪ¶ áįįáīµáĭĮáĪŃ
ĠáĪĬáĪ¨áĭ³ áĪħ
ĠáĪĪ áĭ²
ĠáĪĺáīĢ áĪĮ
áĪ³ áĭ©
Ġáĭ¨áī° áĮłáĪ«
ĠáĬłáĭŃ áĭĪáĪµ
ĠáĪĪáīħ áĪ¶
ĠáĬ¨áĬł áĭŃ
ĠáĭŃáĭĪ áĬŃáĪĭáĪį
ĠáĮĪáĪĪ áįĥ
ĠáĬ¥áīĥ áĭİáī½áĬķ
ĠáĭŃáĪĿ áĮ¡
Ġáīł áĮįáĪŃ
ĠáĪĺ áĪ®áĮ¥
ĠáĬ¨ áįĸáĪĪáī²áĬ«
áīª áĭ¬
ĠáĪĺ áĮłáīĢáĪĻ
áī£ áĪŃáīħ
áĪ» áĪ»áĪĪ
ĠáīłáĬł áĪĭ
Ġáĭ¨áĮ£ áĪĬáĭ«áĬķ
áĪŃ áĪŀ
Ġáĭ¨áĪļ áĮĪáĭµ
ĠáĬ¥áĭ« áĪ°áī¥áĬ©
ĠáĭĺáĪĺ áĭ¶
Ġáĭ¨áįĢ áĮ¥áī³
ĠáĬ®áĪĿáįĴ áĭį
ĠáĪĪáĪĽáĪµáī° áĬĵáĮĪáĭµ
áĪ° áī¤
áīª áĭ«
ðŁ ĺ
áįİáĪŃ áĪľáĪ½áĬķ
ĠáīłáĮ¨áĪ¨ áī³áĭį
Ġáĭĺ áĪŃáĮį
Ġáĭ¨áĬł áĬķáĭ±
ĠáĪĪáī° áįĪ
ĠáĮ« áĮ«
ĠáĪĽ áīłáĮĢáīµ
ĠáĬ¥áĭµáĪľ áĭ«áī¸áĭį
ĠáĬłáĪĺáĪį áĬ«áī¾áī½
áī¸ áĮįáĪŃ
ĠáĪĺ áĮĪáĬķ
ĠáĬ¥áĬķáĭ°áĪļ áĪĺáĪµáĪį
Ġáĭ«áĪµáī° áĪĭáĪį
ĠáĪ³áĪĿáĬķ áī³áĭĬ
Ġáįĭáī¥áĪªáĬ« áĭİáī½
ĠáĪĿáĪģ áĪŃ
ĠáĪĪ áĪ¶áĪµáīµ
áĭµáĪ¨ áĬ©
ĠáĬ¥áĪµ áĪ«áīµ
ĠáĭĪáĮĪáĬĸ áī¼
áĪ¨ áĮİáī½
áīµáĬĵ áĬķáīµ
Ġáĭ¨áīłáĪĪ áįĢ
Ġáĭ«áĪµáĭĪáĮį áĭ±
Ġáīł áĬĲáĮĭ
áī° áĬĳ
ĠáĬĲ áĮįáĪ¬
ĠáĪĽ áī°áĪĿ
ĠáĭŃáĪłáĪ« áĪī
Ġáī° áīĪ
am s
ĠáīłáĪĺáĬķ áĮĪáĭ±
ĠáĭĪáĭ«áĬĶ áĬķ
ĠáĭŃáĪµ áĪĲ
ĠáīłáĬ¥áĮħ áĪħ
Ġ5 4
Ġáĭ°áī¥áĭ³áī¤ áĭİáī½
Ġáĭ¨áī° áĭ°áĪ¨
ĠáĬłáĮĪ áĬĽáĪĪáĪģ
áĪ· áī¸áĭį
ĠáĪķáĭŃáĭĪ áī´
ĠáĪµáĪĭáĪį áī°
Ġáĭ¨ áĪĦáĭµ
Ġáĭ« áĭ¨áĪģ
ĠáĬ¥áĬķ áĪģáĬķ
ĠáĪĢ áĪĭáįĬáĬĲáīµ
Ġáī± áĪªáĪµáī¶áī½
S E
áī°áĭį áī³áĪį
áĮłáĭ¨ áīĢáĭį
ment s
ĠáĬ¨ áĮ¨áĪ¨
ĠáīłáĪĽ áĮ¥
ĠáīĢáĪª áĭįáĬķ
áĪĺ áĬķáĪĿ
Ġáīłáī° áĮłáīĢáĪ°áĭį
Ġáĭ¨áĪĽ áĪĭáĭį
ĠáĪĺáī³ áĮłáī¥
ĠáĪĪáĬ¥áĬĶ áĪĿ
Ġáĭ¨áĪĺáĬĲ áĪ»
áĪŃ áī»
Ġáī°áĮłáĬĵ áīĭáĪį
áĮĪáī£ áĪĪáĬķ
áĪ¸ áĪĽ
Ġáĭķáĭµ áĪī
ĠáĪĺáĪ¨ áĮł
ĠáĪħ áĭ«áĭį
áĪ®áī½ áĪĿ
ĠáĪĺáĮłáĬķ áīĢáīħ
ĠáĭŃáĭĪ áĭ±
Ġáī°áĪ¸ áĬ«áĪļ
Ġáĭ¨áĮ£ áī¢áĭ«
Ġáĭ¨áĪĽáĭķ áĭµáĬķ
ĠáĬ¨áįĢ áĪĲáĭŃ
Ġáĭ¨áĪļ áĪĺáĪĪáĬ¨áī°áĭį
ĠáĬłáĪµ áįĪáĪĪáĮĪ
ĠáĬ« áĪ¬
áĪĪáĭŃ áĪĿ
ĠáĮĪáīł áī³
ĠáĪħ áĮĪáĪĺ
áĬ³ áĬ³
ĠáĪĺáĪµ áĮ«
Ġáĭ¨áĭĪ áĮ£áīµ
ĠáīĢáĪŃ áīłáĭĭáĪį
ĠáīłáĮłáīħ áĪĭáĪĭ
Ġáī³áĭ³áĪļ áĭİáī½
ĠáĪį áĬ®
ĠáĪ² áĭ°áĪŃáĪ±
ĠáĬ¥áĬķáĭ³áĪĪ áī¥áĭİ
Ġáĭķáīħ áĭ¶áī½
ĠUS B
Ġáĭ«áĬĲáĮĭáĮį áĪ©áĬķ
áĬķáĭµ áĪ®áĭį
áĮ¨ áĭĭáī³
ĠáĪĪáĪĽáĭ³ áĪĺáĮ¥
ĠáĬ¨ áĪĭ
áĪ© áĪħ
ĠáĮį áĬĵ
ĠáĭĪáĭ° áĪĭáĭŃ
ĠáĬ¥áĬķáĭ² áĪĦáĭµ
áĬķáīħ áĪĪ
ĠáĬłáī£áĪį áĬĲáīµ
áī£ áĮĪáĬĲ
Ġáīµ áĪª
ĠáĬ¥áĬķ áīĢáīłáĪĭ
áī¦ áĪŃ
ĠáĬ¨áī° áĮłáĬĵáīĢáīĢ
ĠáĪĲ áĭ²áĭµ
Ġi Cloud
Ġáīłáīħ áĭ±áĪµ
ĠáĬłáĪµáī°áĭ³ áĭ°áĪ©
ĠáĬ¨áįĪ áī°
ĠáĭŃáĬ¨áįį áī³áĪį
ĠáĬłáĪ³áĪĽ áĬĿ
ĠáĪĬ áĮī
ĠáĬł áĭī
áĭĭ áĪī
áĪľáīµ áĪ®
Ġáĭ³áĭĬ áīµáĬķ
áĪĭ áĪģ
ĠáĬ¥áĬĽ áĪµ
áīĦ áĭ«áĪĪáĪģ
áĪ°áĪĽ áī¸áĭį
áĪĺáĮ£ áīµ
ĠáĭŃáĮ¨áĪĿ áĪ©
Ġáīµ áĬķáĬķ
Ġáĭ¨áĬ¥ áĭŃáī³
áīĢáĬĵ áīłáĪŃ
ĠáĬ¨ áĭĿ
áīĥ áī½áĬķ
ĠáīłáĬł áĪ³
áĪĥ áĪĥ
ĠáĬ¥áĬķáĭ°áĪļ áĮĪáĬĻ
ĠáĬ¥áĪŃáĪ± áĬķáĪĿ
ĠáĬ¨áĪĮ áĪĪáĭį
Ġáī°áī¥áĪİ áĪĿ
ĠáĪĿáĭµ áĪ«áĭĬ
ĠáĬ¥áĬķ áĮĥ
ĠS D
áĭİ áī¼áĬķ
ĠáĪĬ áĭĪ
áĪĽáĪª áĭį
ĠáĪĺáĭį áĮ£
áī³áĭ° áĪ«áĭĬ
áĪį áĭİáī³áĪį
ĠáīłáĬ¥ áĪĿ
ĠáĪĺáĪł áĭĬáĭ«
Ġáĭ«áĪµáī° áĬ«
ĠáĬŃáĪ¬ áĭ²áīµ
ĠáĪĪ áĭķ
áĪ° áī£áī¸áĭį
áĪ³ áĪ³áīµ
ĠáĪĺáĪµ áĪĽáĪĽáīµ
áĪ¶ áįįáīµ
Ġáĭ¨áĪĿáīµ áįĪáĪįáĮĪáĭįáĬķ
ĠáĬ¢áĬķ áĪ¹áĪ«áĬķáĪµ
Ġáīł áĪ´áīµ
Ġáĭµ áįį
ĠáīłáĬł áī£áī±
ĠáĬłáĪħ áĮī
áĬĲáĮįáĪŃ áĪħ
ĠáĪĺ áĪ²
áĪ° áĪįáĮ£
áĪª áĭµ
ĠáīłáĪ° áĭĵáīµ
áĭį áĭ«áĬĳ
ĠáĬłáĪĿ áĪµáī°áĬĽ
ĠáĮ¥áīłáī¥ áĬķ
ĠáĬ¨áĪħ áĭĿáī¥
áĬķáĭĭ áĪª
ĠáĬłáĭ«áĪµáįĪáĪįáĮĭ áī¸áĭįáĪĿ
áĪªáĭ« áī¸áĭį
áĬ¨áī° áĪŀáī½
Ġ8 00
ĠáĬłáĪĭáĭį áīĢáĭįáĪĿ
R e
áī¸ áĮĪáĪ©
áĪĺáĪµ áĪĪáĭį
áĮĪ áĮł
ĠáĪĪ áĭ©
Ġáĭ¨áĬł áĭķáĪĿáĪ®
Ġáīģ áĪįáīģ
áĪĺáĮ¡ áĪĿ
áĮį áĪµ
ĠáĮĪ áĮ£áĪļ
ĠáīłáĪļ áĬ¨áī°áĪĪáĭį
Ġáĭ¨áīĢ áĭ°
áĪĦáĭ± áĪĿ
Ġáī°áĮłáĪŃ áĮ£áĪª
Ġáĭ¨ áĮĢáĪŃáī£
Ġáĭ¨áī° áĪĪ
ĠáĪĦáĭ° áĪħ
Ġáĭ¨áĪĺ áĪ¨áĮ¥
ĠáĬłáĮĪ áĪ«áī¸áĭį
/ /
áĪĭ áĮĨáī¹
áĮħ áī¶
Ġ6 4
áī°áĬ© áĪŃ
ĠáīłáīłáĬ© áĪī
Ġáĭ¨ áĮ¡áĬķáī»
áĪ® áĪľ
ĠáīłáĪħ áĬķáĭµ
áĭĺáĭĭ áĭĭáĪª
Ġáīłáī°áĬĵ áĮłáĪį
ĠáīµáĬĵáĮĪ áĪ«áĪĪáī½
ĠáĪĿ áĪ¨áīĥ
áĪĮáīª áĭ¥
ĠáĪ°áĮª áĭİáī½
Ġáī°áĭ°áĪ«áĪ½ áĬĲáīµ
Ġáī° áĮĪáĪŃ
ĠáĭĪ áī°
Ġáĭ¨áī° áĬĵáĮĪáĪ¨áĭįáĬķ
ĠáĬłáĪµáī° áĪĿáĪħ
áįĵ áĭµ
áĭįáīĥ áī¸áĭį
ĠáĬłáĪĭáĮĪáĬĺ áĪĿ
áĮł áĪ®
Ġáĭ¨áĪļ áĬ«áĪĦáĭ°áĭį
ĠáĬ« áĭµáĪ¬
ĠáĬĥ áĭ«
Ġáīłáĭµ áįįáĪ¨áīµ
ĠáĭĪáĮĪáĬĸ áī»áī½áĬķ
Ġáĭ¨áĪĺ áĮįáĪĪ
ĠáīłáĬł áĪĺ
Ġáĭ¨áĪļáĭ« áīłáīĥ
ĠáĬ¨áĬł áī£áī±
Ġ5 9
ĠáĬĶ áīµ
Ġáī°áįĪáī³ áī³áĬĿ
áī¥ áĪĥáĪį
áĭ³ áįĬ
áĭĺ áĬĳ
ĠáĮīáĭŀ áĭį
ig ht
i al
ĠáĪĽ áĭŃáĪį
áĮ¸ áĬķ
Ġ7 8
ĠáĪĪáī° áĭĪáĪ°áĬĳ
ĠáĬłáĮĪáĪįáĮįáĪİ áī±
ĠáĪĽáĪŃáī² áĬķ
ĠáĭŃ áĬĵáĮĪáĪŃ
ĠáĪĽáĪĪ áī³áī¸áĭį
áĪ°áīł áĪµ
as e
áĪ£ áĪ¥
áī§ áĪ«
ĠáĮŃáįį áĮ¨
Ġáĭ Ķ
áĮ¥ áĪµ
Ġáĭ¨áĪļáĭ«áĪµ áī¡
Ġáĭ¨áĬ« áĬķáĪ°áĪŃ
áī¦ áī¹áĬķ
áĭ°áĮį áĪŀ
ĠáĭĪáĬķáĮĢ áĪİáī½
P l
Ġáĭ¨ áĮĨáĪ®
ĠáĪķ áĬķáĮ»
Ġáīłáįĸ áĪĬáĪµ
ĠáĪĬ áĬķ
ĠáĪ¥ áĪĿ
áĭĭáĭĪ áīģ
ĠáĬ¥áĬ© áĪĪ
Ġáĭ¨ áĭ°áĪŃáĮį
áĬĲ áī°áĬĽáĭį
áĬł áī£áīµ
Ġáīłáĭį áĬĳ
Ġáĭ¨áī¥ áĪªáī³áĬķáĭ«
ĠáĬłáĭĽ áĭįáĬķ
Ġáīłáĭļ áī½
g ht
ĠáĬłáī£áīµ áĪħ
ĠáĪħáĭŃáĭĪ áī³áī¸áĭį
Ġáĭ«áĮłáįĭ áĪį
áĪį áĬķáĪĿ
áĪĺ áĪł
Ġáĭ¨áī° áīĭáīĭáĪĺáĭį
ĠáĪĺáĭį áĭ°áīħ
ĠáĪĽáĪŃ áī½
Ġáī£áĬķáĭ² áĪ«
áĮ¥ áĬĵ
ĠáĪį áĬ¬
ĠáĪħáĭŃáĭĪ áī´
ĠáīłáĭµáĬķ áĮĭáĭŃ
ĠáĬĲáĮį áĪ¨áĭį
ĠáĭĪáĭ° áĬĲáīłáĪ¨áīłáīµ
Ġáī£ áī¢
Ġáĭ¨áī³ áī½
ĠáīłáĮį áī¥áĪŃ
ĠáīłáįĬ áī´
ĠáĬ¥ áĬĴ
ĠáĪĺ áĪĪáĮłáįį
ĠáĪĺ áĭĵáĭĽ
ĠáĬ¨ áĭ°áĪ¨áĪ°
ĠáĪĪ áī¢
Ġáĭįáĭµ áĭµáĪ©
ĠáĬ¥áĬķ áĪį
ĠáĬłáĪįáī» áĪĪáī½áĪĿ
ĠáīµáĪ« áĬķáĪµ
áĪĪáīħ áĪµ
áĬĲ áĭ±
Ġáĭ¨áĬł áĪįáĬ®áĪį
Ġáī¤áī° áĪĺáīħ
ĠáĮįáĬķáĬĻáĬĲáīµ áĬķ
ĠáĬłáĪµáī°áĭ«áĭ¨ áī¶áī½áĬķ
Ġáī°áįĪáĮ¥ áĪ¯áĪį
ĠáįįáĬķ áĮŃ
Ø §
áī³áĪį áĬĵ
Ġáį ĳ
ĠáĪĪáĪĽ áĬ¨áĪĿ
ĠáĪĺáĮĢáĪĺáĪªáĭ« áĭį
áĮ½áĬĵ áĬĵ
Ġáīµ áī³
Ġáĭ¨áĪĽ áĭ¨áīµ
Ġáī°áĪ° áĬª
Ġáĭ¨áī°áĪĺáĪ° áĪ¨áī°áĭį
áĪĪ áīĢáīħ
Ġáĭ¨áī° áĪ¨áĭ³
áĮ½ áįī
Ġc h
ĠáĪĪ áĭľ
Ġáĭ¨áī° áīłáĪĭáĪ¸
ĠáĬĲáĮĪ áĬķ
ĠáĬłáĪĪáĪĺ áī»
áīĢáīł áĪĪ
Ġáĭ¨áĭĵ áĪĪáĪĽáī½áĬķ
im e
áĪ° áĪ±
ĠáĪĽ áĭĭáĪį
ĠáĪĬ áĭĪáĪ°áĭµ
20 17
ĠáĪĺáĬķáĮįáĪ¥ áī³áĭĬ
as h
ĠáīłáĪ° áĬĶ
ĠáĪµáĬķ áī±áĬķ
Ġáĭ¨áĭ² áĮĤáī³áĪį
áĬķáĮįáĪĬ áĭĺáĬĽ
áīł áĪĪáĮł
Ġáī¤áīµ áĭİ
ĠáĬłáĭµáĪŃ áĮĭáī½áĪģ
ĠáīłáĪµ áĭµáĪµáīµ
ĠáīłáĮį áĬķáī£
ĠáĪĺáĬķáĮįáĪ¥ áīµáĪĿ
ĠáįĪáĮ¥ áĪ¯áĪį
ĠáĪĪáĬłáī¥ áĬĲáīµ
Ġáīł áĪģáĪī
áī¥ áĪĬ
Ġáīµ áĪĺáĮ£
ĠáĬ¨áĪĺ áĮįáī£
ĠáĪĿáĬķáĭµ áĪŃ
ĠáĪļáĪµáĮ¥ áĪ«áĭĬ
ĠáĬ¥ áĮłáīĢáĪĽ
áĬ© áĬĵ
áĪ¬ áĭ³
ĠáĬłáĪ¸ áĬĵáįĬáĭİáī½
ĠáĪĽáĪħáīłáĪ¨ áĪ°áī¦áī½
áĬĸ áīµ
ĠáīłáĬ ĭ
ĠáīłáĪĽ áĭ°áĮį
Ġáĭ¨áĪµ áįĶáĬķ
Ġáĭ« áĪĺáĪį
ĠáĭŃáĮĪ áĭĽáĪį
Ġáĭ¨áĪĿáĬķ áįĪáĪįáĮĪáĭįáĬķ
ĠáĭŃáĪĺáĪį áĪ³áĪį
ĠáĭŃáĪ°áĪĽ áĬĵáĪį
áīĥáĭĪ áĪĻ
Ġáīį áĮ£
ĠáĭĪáĬª áĪİáī½
áĭĪ áīĢáĭį
ĠáĬłáĭŃ áįİáĬķ
áīĨ áī½áĬķ
ĠáįĸáĪĬáĪ² áĭİáī½
áĭĭ áī¸áĭĭáĪį
ĠáĪĪáĬł áĪĪáĪĿ
ĠáĬ¨áĪļ áĮĪáĬĺáĭį
Ġáĭ¨áĭĭ áĪĪáĭį
ĠáĭįáĪµ áĮ¡
Ġáīł áī»
áīĢ áĪĭ
Ġáī£ áĮĪáĬĺ
Ġáīħ áĮł
ĠáĬłáĬķáīº áĪĿ
ĠáĪĽáĪµáī³áĭĪáĪ» áĭİáī½
ĠáĪĺáĮ½áĪĲ áįĪ
áĭĲ áīµ
ĠáĭĪáĬķáĮĮ áĪįáĬķ
ĠáĪĺáĪµáįĪáĪŃ áī¶áī½áĬķ
ĠáĪĺáĭĺ áĮįáĭ¨áīµ
ĠáīłáĪĺáĮĭ áī¢áīµ
Ġáĭ¨ áī»áĪĪáĭį
ĠáīłáĪĽ áĬķáĪĿ
ĠáĬ¨áĪĺ áĮĢáĪĺáĪ©
ĠáĬ¥áĭį áīĤáĭ«áĭİáī½
ĠáĪĢ áĭĺáĬķ
áįħ áĭ³áīµ
ĠáĬ¥áĮħ áĪħáĬķ
áĮĪáĪĪ áįģ
ĠáĪĺ áĪĺáĪµáĪ¨áīµ
Ġáī°áĪĺáĪį áĪ¼
Ġáī°áĮĪáĬĿ áī¶
áĬ¢áĭ¨áĪ±áĪµ áĪĿ
ĠáīłáĪĽáĪĪ áĭ³
ĠáĪĺáĬ¾ áĬĳáĬķ
áĪĿ áĬĵáĪį
áĬ¥ áī£áĬŃ
Ġáĭķ áįħ
ĠáĪģáĪĪ áī³áī½áĬķáĪĿ
ĠáĮ½ áĮĮ
áĬķáĭ¶ áĬĶ
ĠáĮłáĬķ áĬ¨áĪŃ
S t
Ġáĭĺ áĪ®áī½
ĠáīłáĬ¥ áĪ·
ĠáĬ¥áĭ¨ áĪĦáĭµ
ĠáĬ¥áĬķáĭ³ áĮĪáĬĺ
Ġáĭ¨áī°áĭĪáĪĪ áĭ±
ĠáĬ¥ áĮłáĪĭ
ĠáĬ¥áĬķáĭ° áĭĪáĭ°
áĪ¸ áįį
Ġ20 22
ĠáĪĺáįħ áĪĥáįį
ĠáĪĬ áĮĪáĬĻ
áĪħáĬķ áĬĵ
Ġáĭ°áĪ¨áĮĥ áĭİáī½áĬķ
ĠáĭŃáĪ°áĪĽ áĪī
Ġáĭ¨áĪļáĪĺáĪµ áĪī
Ġáĭ¨áĪĺáĭµ áĬĥáĬĴáīµ
ĠáĪĬ áĮĪáī£
áī² áĪĿ
Ġáĭ¨áĪĽ áĪŃ
ĠáĪĺáĭĿ áĮĪ
ĠáĪĽáĬħ áīłáĪ©
ĠáĬłáĪį áĭ°áĪ¨áĪ°
áĬķáĭ« áĪĿ
ĠáīłáĪį áĮģ
áĪį áĪħáĪĿ
ĠáĮ¥ áĬķáĭ¶áī½
Ġáĭ¨áĪĺ áĬŃáįĪ
ĠáįĪ áĪ©
ĠáĬ¤ áįķáĪªáĪį
ĠáīłáĪĺáĮĢáĪĺáĪªáĭ« áĭİáī¹
ĠáĬĲáįį áĪ´áĬķ
ĠáĬłáĭŃáĮĪáī£ áĭįáĪĿ
ĠáįķáĪ¬áĭļ áĭ³áĬķ
ĠáĪĺáĪ« áĪ«
ĠáĬłáĮ¥áī¥ áīĨ
áĪĺáĪĭáĪĪ áĪµ
Ġáĭ¨áĬĲáīł áĪ«áī¸áĭį
ĠáĪĺáĪ°áĮł áīµ
Ġáĭ¨ áī£áīµáĪª
áī· áĪĿ
Ġáĭ¨áĪĺáĪµ áĮłáīµ
Ġáī°áīĢáĭŃ áĪ¯áĪį
ĠáĬł áĬŃáĪµ
ĠáĪĽáĪŃ áīĨáĪµ
ĠáĬł áĭĺáĭį
Ġáīł áįĴ
ĠáĪĺ áĭĺáĮĭáĮĢáīµ
Ġáį Ń
áĪ° áī±
áī¢ áĬķ
áĪĭáĪĪ áĪµ
Ġáĭ¨áĮįáī¥ áĪ¨
áĬĵáīĢ áĪī
áīµáĪ¨ áįĪáĪ¨
Ġáĭ° áĬķáĮį
Ġáĭµ áĪĢ
ĠáĭĵáĪĺ áīµáĪĿ
Ġáĭ¨áĪĮ áĪĬáīµ
at ch
áĪª áĬ©
áĮ¤ áĬķáĬĲáīµ
áĭŃ áĪħáĪĿ
ĠáĪĪáĬłáĬķ áī£áī¢
áĪģ áĬĵ
áī¥áĪ« áĭŃáĪµáĮ¥
ĠáĪĽáĭµáĪ¨ áĮīáĬķ
ĠáĬŃáĪª áĪµáī¶
ĠáĬłáĭ«áĪĿ áĬĳáĪĿ
áĪį áĬĿáĪĿ
áĮ¥ áĪī
ĠáīłáĪĺ áĭµ
Ġáĭ¨ áĬ¾áĬĲ
áĪµ áĪµ
ĠáĬ¨ áĪŀáĪĭ
ĠáĬ¨áĬ¥ áĭ«áĬķáĭ³áĬķáĭ±
ĠáĬŃáĪħ áĪİáīµ
áĪĺ áĭ³áĪį
áĪĭ áī¹
Ġáī° áĪ°áīłáĪ°áī¡
ĠáĬ¥áĬķáĭ² áĪĺáĪĪáĪ±
ĠáĬłáĪĪáĪĺ áĮįáī£áī£áīµ
Ġáĭ«áĪµáįĪáĪįáĮĭ áĪī
ĠáĪĪáĪĽáĮ¥ áĬĵáīµ
áĪ° áī¶áī½
áīłáĪ¨ áīłáīµ
ĠáĪĺáĭį áĪĪáĭµ
ĠáĪĽ áīĭáĪ¨áĮ¥
ĠáĪĪáĪĽ áĬ¨áĪį
ĠáĪµáĪľ áīµáĬķ
Ġáĭ¨áĪĺáĬķ áĮĥ
Ġáĭ¨áĬłáī¥áĪŃ áĪĥáĪĿ
ĠáĬłáīµ áĪĮáī¶áī½
Ġáĭ¨áīĢ áĪ©áīµ
ĠáĭŃáĭĺ áīµáĬķ
ĠáĭŃ áĪĺáĪĪáĪ±
Ġáĭĺ áĬķ
áĭŀ áī½áĬķ
Ġ5 7
ĠáĪµáĬķ áĬ³
ĠáĮłáī¢ áī¥
Ġáī° áĮĪáĪĪáįĢ
ĠáĪ´áīµ áĭ®
ĠáĮ£áī¢áĭ« áĭİáī½áĬķ
áĭĪáĪŃ áīħ
Ġáĭ¨áĭ°áĪ¨ áĮĥ
p er
áĭŃ áĪ«
áĮł áĭįáĬķ
áĮĭ áĮ¥áĪĿ
ĠáĪ° áĬĲáįį
Ġáĭ¨áĪĽ áĪµáīłáĭį
ĠáĬ¨áĬ¥ áĬĵáī±
ĠáīłáĬ¥áĪŃáĮį áĭĿáĬĵ
ĠáīłáĮ£ áī¢áĭ«áĭį
ĠáĬłáĭµáĬĵáīĤ áĭİáī½
áī¥ áī¶
ĠáĪĪáĪĺ áĪĿáĮ£áīµ
Ġ6 7
ĠáīłáĭŃ áĪĸáĭĭ
Ġáī°áĪĪáĭĭ áĮŃ
Ġáī¥áĪ« áĭļáĪį
ĠáĬłáĪįáįĪáĪĪ áĮĪáĪĿ
ĠáĭŃ áĪ³áī°
ĠáīłáĪļ áĮĪáĬĿ
Ġáĭ¨áĮįáī¥ áĮ½
áĬ¥ áĮħ
áĭ® áī¹áĬķ
ĠáĬ¥áĭ¨ áĪ°áĪĽ
ĠáĭĪáĮ£ áī¶áī½áĬķ
áĬ¥áĬĶ áĬķ
ĠáĭŃáĪŀáĬŃ áĪ«áĪī
ĠáĭŃáĪįáīģ áĬķáĪµ
ĠáīłáĬĲáĮ» áĬĲáīµ
Ġáī¥áĭĻáĬĥ áĬķ
Ġáĭ¨áī°áĪĺáĪ° áĪ¨áī±
áĪį áĪĥáĪĪáĪģ
ĠáĪį áī£áī¸áĭį
ĠáĬłáĭį áĭµ
Ġáī°áĭĺ áĪŃáĭĿ
I C
ĠáĪĽ áĮłáĪ«áīĢáĪļáĭ«
ĠáĪ« áĬ¥
Ġáī°áĪĺáĪ³áĪ³áĭŃ áĬĲáīµ
ĠL ED
áī£áī½áĪģ áĪĿ
Ġáĭ¨ áĪģáĪĭáī½áĬķáĪĿ
Ġáĭ¨áĪĿ áĪµáĪ«
ĠáĮī áĬķ
áī°áĪŃ áįį
ĠáĪł áĪ«áĭĬ
ĠáĪĺáĪĿ áĮ£áī±
Ġáĭ¨áĪ°áĪĽ áĪģáīµ
áĪĽ áī½áĬķáĬķ
ĠáĪĪáĪĺ áĭĪáĮ£áīµ
áĪ¯ áī¸áĭĭáĪį
ĠáĪĺáĬ® áĬķ
Ġáīħ áĮłáĪį
ĠáĬłáĪ¸ áĭĭ
áĮįáĬķ áī¦áīµ
Ġáī° áĪ°áĪ«
Ġáī¥ áĪµáĬŃ
Ġáĭ¨áī³ áĭ¨áĭį
ĠáĪ¶ áĪµáī±
ĠáĭŃáĬŃáįĪ áī±
ĠáĬł áĭĺáĮĭ
áī¥ áĭ³áī¤
Ġáīłáĭĺ áĪĺáĬĳ
Ġáĭ¨áĮ½ áĭµáīħ
ĠáīłáĮįáĪĪ áĪ°áī¥
ĠáĬ¥áĬķáīĢáīłáĪĭ áĪĪáĬķ
ĠáĬ¥áĬķáĭ² áĭ°áĪŃáĪµ
ĠáĪ¨ áĬŃ
áĪĪ áĬ«
ĠáĪĽ áĮ«áĭĪáīµ
Ġáīµ áĪ°áĮ£
Ġáī¤ áīµáĬķ
áīµáĬĵ áĪĿ
ĠáĬ¢áĬķáĭ±áĪµáīµáĪª áĭį
x Bet
ĠáĬ¥áĬķ áĮĢáĪĿ
ĠáĬ¨áĪĿ áĪ½áī±
ĠáĬłáĭĽ áĭįáĬķáīµ
Ġáī¥ áĪŃáĭµ
ĠáīłáĬ ħ
ĠáĮī áĪ«
ĠáĪķ áĮ»áĬĵáīµ
ĠáīłáĭįáĪµ áĮ§
ĠáĬ¥ áĮĢ
Ġáīł áĮ¨áĪ¨áī³
áĪ® áĭİáī½
ĠáĪµáĪĪ áĪ±
ĠáĬŃ áĭĭ
ĠáĬ¥áĭ« áĭ©
ĠáĬłáĪĺ áĬŃáĬķáĭ®
áĮłáī¥ áīħáĪĿ
ĠáĪĢáĮĪ áĪ¬
ĠáĬłáĪµáī³áĭį áĪ±
áĬŃáī¥ áĪ®áīµ
ĠáĪĽáĮ½ áĭ³áīµ
áĬĵ áī½áĬķáĬķ
ĠáĬ¨áī° áī»áĪĪ
ĠáĮįáĭµ áī¡
ĠáĪįáĪĿ áĪĿ
ĠáĪĿ áĮ£áĬĶ
áĬķáĭµ áĬķ
ĠáĬ¥áĬķáĭ² áīĨáĭ©
áĪµáī° áĭįáĪį
Ġáī¥áī¸ áĬĿáĬĲáīµ
Ġáĭ¨áĪļ áĪ°áĪĽáĭį
áĭĿ áī£áĭĬ
áįĢ áī£áĪŃ
ĠáĮİáĪ¨ áī¤
Ġáīł áĭĪáĭ°
ĠáĪ« áĪ³áī½áĪģ
ĠáĬ®áĬķ áįĪáĪ¨áĬķáĪµ
Ġáĭ«áīĢ áĪ¨áī¥
ĠáĪģáĪĭáī½áĬķ áĬķáĪĿ
ĠáĪ° áĪĭáĪĽ
ĠáĬ«áĪĪ áīłáīµ
ĠáĬĥáĪĭáįĬ áĭİáī½
áĪµáī³áĭį áĪ°áĭį
ĠáĭŃáĬ¨áī° áĪĭáĪį
ĠáĬ¥ áĮ¦áīµ
áĬł áī£áī´
Ġáī£áĪĪ áĬł
ĠáĬłáĪĿ áĪµáī±
ĠSE O
áĭ ¡
áīħ áĪĭ
ĠáĬłáĪĭ áĪ³
ĠáĪĺáįĪ áĬŃáĪŃ
ĠáĪĺáĮ½ áĬĵ
ore x
áĮ ´áĮ¥áĪ®
ĠáĬ¨ áĪ´áī¶áī½
ĠáĬ¤ áĪĬ
áĪŁ áĪŁ
Ġáĭ¨áĪ« áĪ³áī½áĬķáĬķ
ĠáĬłáĬŃ áĪĪáĭĭáĪį
ĠáĮĭáĭľ áĮ¦áī½
ĠáĬłáĭĪáĭ³ áĭµáĪ®
ĠáĪħáĮĪ áĭĪáĮ¥
ĠáĪĿáĬŃáĬķáĭ« áīµáĪĿ
áĮ¦ áĪ½
ĠáĬ¥áĪŃáĮį áĮłáĬŀáī½
Ġâ Ŀ
ĠáīĢ áĪªáĭį
ĠáĪ² áĪĺáĪĪáĬ¨áī±
Ġáī¢ áīµ
áĪĪáĮł áĭį
Ġáī½áĪİ áī³áĭİáī½
ĠáĪµáĪįáĬŃ áĭİ
ĠáĬ¥ áĮ¸áĪį
Ġáĭ¨áĪĺ áĭ³
ĠáĬ¥áĬķáĭ°áĪļ áĪĨáĬĳ
ĠáĬłáīĢ áĬĵ
ĠáĭĭáĮĭ áĭįáĬķ
ĠáĪĢáī¥ áī³
Ġáĭ¨áī° áĪĽáĪ©
áĭķ áĬŃáīµ
áĪĺáĪ¨ áĪĿ
Ġáī°áĪµáįĭ áĭİáī½
Ġáĭ¨áĬłáĬķáĭµ áĬķ
áīłáĬ¥ áĪŃáĮįáĮ¥
Ġáĭ®áĬĵ áĪµ
áīĨ áī¹
ĠáĪĬáĭ« áĭ°áĪŃáĮĪáĭį
Ġáĭ¨áĪŀ áī°áĪŃ
ĠáĬłáĭ«áĭį áīģ
áĬĵ áīĢáĪį
ĠáĮ¥ áīģ
ĠáĪĪáĪĽ áī¥
áīĢáĪĺ áĮ¡áīµ
áĪµáĬŃ áī¶áįķ
ĠáīµáĪĨáĬĵ áĪĭáī½áĪģ
Ġáĭ¨áĬ¥áĬĲáĭļáĪħ áĬķ
ĠáĬ¥áĪ°áĮ¥ áĪĥáĪĪáĪģ
Ġáĭ¨áĪļ áĮłáĭŃáīģ
Ġáĭ¨áĬł áĪĿáĪµáīµ
ĠáĬ¥áĭ« áĪ°áī¡
áĭ°áĪŃáĮĪ áĭįáĪĿ
ĠáįĪáĪ« áĮħ
l d
áĬķ áīĨ
áĪŀáĬŃ áĪ«
áīĥ áī¸áĭįáĬķ
Ġáĭ° áĭĪáĪį
áĪ¬ áĪµ
ĠáīłáĪĽ áĬĵáī¸áĭįáĪĿ
ĠáĪ® áĭĿ
áĪ¦ áĪµáī°áĬĽ
ĠáĮĢáī¥ áĭ±
Ä ±
Ġáĭ¨ áįįáĪ«
áĭ« áĪĪáĭį
ĠáĬ¥áĬķáĭ° áĮĪáī£
ĠáĬłáĭŃ áĮłáįĭáĪĿ
ĠáĮĭ áī¥
ĠáĮĪáĭ¢ áĭİáī½
áĪ¸áĪ« áī°áīµ
áĪ» áĬķáĮī
ĠáĬ¥áĪµ áĪ¨áĬĽ
ĠáĭĪáĬķáĭµ áĬĵ
Ġáĭ« áĬĲáĪ±
ĠáĬłáĭŃ áĪģáĬķ
áī¦ áĪ«
áĮ» áĬķ
k y
ĠáĪĺ áĭĪáĪ°
ĠáĬłáĭŃ áĮłáīłáīħ
áĪĭáīĢ áĪĪ
Ġáī« áĭŃáĪ¨áĪ±
Ġáĭ¨áī°áĮłáīĢ áĪ±áīµáĬķ
áĬķáĭ¶ áī½áĬķ
ĠáĪĺáĮ¥ áĪ«áīµ
:: "
ĠáĮįáī¥áĪŃ áĬĵ
ĠáīłáĪĺáīĢ áĮłáĪįáĪĿ
Ġáĭ¨áĬ¥áĭį áīĤáĭ«
Ġáī°áĬĲ áĪµáī°áĭį
áĬŃáĪį áĬĿ
áĬ¨áĪ« áĬ¨áĪ©
ĠA b
Ġáī°áĮĵ áĭ³áĬĿ
Ġáĭ° áĪĽáīħ
Ġáĭ¨áĪĺ áīĭáīĭáĪĿ
ĠáĬłáĭŃáĭ°áĪĪáĪĿ áĬĵ
ĠáĪĪáĪĿáĬķ áĪµ
ĠáĪĪáĪĽáĪµ áīĨáĪĿ
ĠáīłáĪķáĭŃáĭĪáīµ áĪħ
Ġáīł áīĭáĬķáīĭ
áĪ« áĬŃ
ĠáīłáĬ¥ áĪŃáĪ»
ĠáĬ¨áī° áĪĪáĪĺáĭ°áĭį
Ġáĭ¨áĪĽáĭŃ áĮĪáī£
ĠáĪµ áįĶáĬķ
Ġáĭ¨áĪĺ áĬ¨áĪ«
Ġáīłáīł áīĤ
ĠáĬ¥áĭ¨áĪŀ áĬ¨áĪ¨
ĠáĬł áĬĹáĬĹáĪŃ
ĠáĬłáĭŃ áī£áĪįáĪĿ
ĠáīłáĪĺ áĮłáĭ¨áīħ
ĠáīłáĬ¥ áĮĦ
ĠáĪĺáĮĪáĪįáĮĪ áĭ«
áĪĺáĬķ áĬķ
áĮ¸ áĪĪáĭŃ
Ġ5 8
áĪĺáĪ° áĪ¨áī°
ĠáĪĺáĪĪáĭĭáĭĪ áĮ«
Ġáĭ¨áī° áī°
ĠáĬ¥áĬķáĭ² áįĪáĮłáĪŃ
Ġáĭ¨áĬł áĪłáĪ«áĪŃ
ĠáĪĪáĭĺáĪĪ áĭĵáĪĪáĪĿ
Ġáīł áĬķáĮīáĪ¡
áĭ° áīģ
áĭĭ áĪ³áīµ
áĮ¡ áĪ¨áī³
Ġáīłáīħ áĮ¡
ĠáĬłáĪµáīĢ áĭ«áĪļ
ĠáįĪ áīħ
Ġáĭ¨áĪħ áĭ³áĪ´
ĠáĪĽ áĪĿáĪ¨áī»
ĠáĬ¥áĬķáĭ° áĪĽáĪį
Ġáī£ áĭ°áĪ¨áĮīáīµ
Ġáĭ¨áīµ áī¥áī¥áĪŃ
ĠáīłáĪĿ áī³
áĪĪáĪĽ áĪĺáĭµ
áīħ áĪ±
áĬĸ áī¹áĬķ
ĠáĪµáĪ« áĬķ
ĠáĬłáĮĭ áĬķ
Ġáĭ¨áĬł áĭ°áĮĭ
ĠáĬ¨áĬ¥ áĪŃáĪµ
ĠL G
ĠáĪĽáįį áĪ«áīµ
áĭ«áĬķáĭ³áĬķáĭ³ áī½áĬķ
áĬķáĭµ áĬĲáĭį
áĪ°áĪĽ áĪ«áīµ
ĠáĪĺáī¥ áĪ«áī¶áī½
ĠáĭŃáįĪ áĮ½
ĠáĬłáĭĽ áĭ¥
ĠáĪ½áĪįáĪĽ áī¶áī½áĬķ
áĪĺ áĮ½áĪĲ
áĬĸ áī»áī½áĬķ
ĠáĮ¥ áĬķáĭµ
Ġ6 8
áĪĭ áĬķáīµ
áĬł áī¸áĭįáĪĿ
ĠáĪĬ áĬĸáĪ¨áĬķ
ĠáĬ¢ áĪ³áīµ
Ġáĭķ áĪŃáĪĿáĮĥ
ĠáĪĺáĭµáĪ¨ áĬ©
Ġáĭ¨áĪ¶ áĪµáīµ
ĠáĪĪáĪĺáįĪ áįĢáĪĿ
ĠáĬ¥áĭį áīĢ
ĠáīłáīĢ áĪį
Ġ7 2
ĠáĪĪáĪĽáĪµ áĪ¨áĭ³áīµ
Ġáĭ¨áįĭ áĭŃáĪį
áĬ« áĭµ
ĠáĬ¥áĬķáĭ² áīĨáĭŃ
ĠáĬ¨áĬł áĭ²áĪµ
ĠáīłáĮį áĪĽáĪ½
Ġáīłáī´ áĬŃáĬĸáĪİáĮĤ
áĭ³ áĪ½
ĠáĬĲáĮĪáĪŃ áĮįáĬķ
Ġáĭ¨áĬł áĪĭ
ĠáĪľ áīµáĪ®
ĠáĬłáīĭ áĪŃ
ĠáĬłáĪ¨áĮĭáĮį áĮłáĭĭáĪį
ĠáĪ¶ áĪµáī°áĬĽáĭį
ĠáĪĪáĪĽáĪµ áīĢáĪ¨áīµ
ĠáĬłáĬŃ áĪĪáĭįáĪĿ
áĪłáĪ© áīµáĬķ
ĠáĭŃáĬķ áĬ¨áī£áĬ¨
Ġáĭ°áĮĭáĮį áĪĺáĭį
ĠáĬłáĪĺáĪįáĬŃ áī·áĪį
ĠáĪįáĬ¡ áĬŃ
ĠáĬ¥áĬķáĮĢáĪĿ áĪ«áĪĪáĬķ
ĠáĭŃáīĢ áĭ¨
ĠáĬ¥áĭ¨áĪŀáĬ¨áĪŃ áĬ©
áīł áīĤáĭ«
áīª áĬķ
áīĢáĪŃáī¥ áĪĿ
ĠáĬ¥áĮłáīĢáĪĽ áĪĪáĪģ
ĠáĬłáīµ áĮ¨áĬĲáīħ
ĠáĪĽáĪµ áįĪáĪ«
áīĢáĪ¨ áīłáĭį
ĠáĪĿáĪŃáĪĺáĪ« áĭİáī½
áĪ® áĮĮ
Ġáĭ¨áĪļáĭ«áĪµ áįĪáĪ«
Ġáĭ¨áĪĪáī¥ áĬĿáĪĿ
ĠáĬ®áĬ¨ áī¦áī½
ĠA n
áĪĪáĪĺ áĭ°
ĠáĬ¥áī£áĬŃ áĪħáĬķ
ĠáĪĺáĬĵáįį áĪµáīµ
ĠáĪĬáĭ« áĮĭáĮ¥
ĠáĭĪáĭ²áĭ« áĭįáĪĿ
Ġáĭĵ áĪŃáī¥
áĮŃ áĪĿ
Ġáī¡ áĬŃ
ĠáĪ°áĭĵ áī±
ĠáĪĽáĭ³ áīłáĪŃ
áī¥ áĭ«
ĠáĪĪáĪĺ áĪĻáĪĭáīµ
ĠáīłáĬ¥ áĪµáĭ«
áĪµáīµ áĪªáĭ«
ĠáĭµáĬķ áĬ³
Ġáī°áĭ° áĪµáī»áĪĪáĪģ
ĠáĪĺáĪĨ áĬĹ
ĠáĬł áĭĺáĮĭáĮĢ
áĭ¶ áĬķ
Ġáĭ¨áĭĵ áĭŃáĬķ
áĪ¨ áī±áĬķ
áįĪáĪĪ áĮĮ
ĠáĮİ áĬĸáī½
ĠáĭŃáĮĪ áĬĿ
Ġáĭ¨áĪ¥ áĮĭ
ĠáįķáĪĭ áĬĶáīµ
ĠáĭŃáĮĪáĪŃ áĪĽáĪį
ĠáĬ¥áĪµáĬ¨áĪĺ áĮ¨áĪ¨áĪ»áĭį
I T
Ġáī° áĮłáīĥ
Ġáĭ¨ áĭŀ
áĬĵáĭį áīĢáĭį
ĠáīłáĪĺáĪĿ áĪ¨áĮ¥
Ġ(â Ĩ
Ġáīł áĪ°áĮłáĭį
áĮ¥ áįİ
áĬŃ áĪĻ
Ġáīłáī° áĭĺáĭĭáĭĭáĪª
ĠáĮŃ áĪĽ
ĠáĬłáĮ« áĮŃáĪŃ
Ġáĭį áĬŃáĪįáĬĵ
ĠáĬ¥áĬķ áĮĪáĬĵáĬĿ
ĠáĬ¥áĬķáĭ°áī° áĮłáīĢáĪ°áĭį
ĠáįĪáīĥ áĭ±
ĠáĬ¾ áĬĸ
Ġáĭ¨ áĭĪáīħáī±
áĬ¨áįĭ áįĪ
ĠáĬ¨áĭĵ áĪĺáī³áīµ
Ġáĭ¨áĭĿáĮį áĮħáīµ
Ġáĭ¨áĪļáĭ« áĪĺáĪĪáĬŃáīµ
ĠáĪĮáĪİáī½ áĬķáĪĿ
Ġáī°áįĪ áĮ¸áĪĺ
Ġáĭ¨áī± áĪªáĪµáīµ
ĠáĬ¥áĬķáĭ°áīĢ áĮłáĪĪ
ĠáĪĿáĬķ áĬĲáīµ
Ġáī¥áī» áī¸áĭįáĬķ
ĠáĪĺáĪŃ áĭĽáĪĽ
Ġáī°áīĥ áĭį
Ġáĭ¨áī°áĭ°áĪ« áĮĢ
áĭ° áĪ®áī½
ĠáĬ¥áĬķ áĪĺáĪŃ
ĠáĪ² áĪ°áĪĽ
ĠáīłáĮ¥ áĪŀáĬĵ
Ġáī°áĮłáīħ áĪĺáĭį
ĠáīłáįĪáīĥ áĭ°áĬĿáĬĲáīµ
Ġáī³áĬ«áĪļ áĭİáī½
Ġáīłáī° áĪĪáĪĺáĭ°áĭį
Ġáĭ¨áĪĻ áĪµáĪĬ
Ġáĭ¨áįĭ áī¥áĪªáĬ«
i o
ĠáĬ ĭ
Ġáĭĺ áĮĭáī¢
Ġáĭ°áĮįáĪŀ áĪµ
áĪĿ áĬĳáīµ
Ġáĭį áĭ´
ĠáĬłáĭŃ áĪ°
Ġáĭ¨áĭĺ áĪĺáĬĳ
ĠáĪĺáīģ áĮłáĪŃ
ĠáĭŃáĬ¨áįį áĪĭáĪį
áĪħ áĪ«
áī¸ áĭĭáĪĪáī½
ĠáĪŃ áĮį
ĠI I
ĠáĬłáĭŃáĭĪ áĭµáĪĿ
ĠáĭŃ áĪµáī°áĭĭ
Ġáī°áĪĺ áĪłáĪ¨áī°
ĠáĬĲáįį áĪ±áĬķ
Ġáī³ áĬŃ
Ġáī³ áĭĪáīĢ
áįĥ áįĪáĭį
áĪµáĮ¥áĬ¤ áĪĽáĭįáĭ«áĬķ
áį ²áį
áĬŃ áĪ¬
Ġáĭ«áĪĺáĪĪáĬŃ áī³áĪī
ĠáĪ¥áĭķ áĪİáī½
ĠáĬł áĪ«áĭĬáīµ
ĠáĪĺ áĭ«
áīĥ áĭĬ
ĠáĬ¥áĬķ áĪĽ
áĪ¬ áī±
áĪķ áĭĿáī¥
áĮĪáĪį áĮĭáĭŃ
Ġáī´ áĭİ
ĠáīģáĪĿ áįĬáĭİáī½
áĭľ áĬķ
áī« áĬķ
áįĴ áĬķáĪµ
m m
ĠáĪĽ áĮŃáīłáĪŃáīłáĪŃ
áĬķáĭĺ áī¡
Ġáī£áĭŃ áĬĸáĪŃ
ĠáĬ¥áįİ áĭŃáī³
ĠáĬ¥áĪµ áĪįáĪĿáĬĵ
áĮ«áĭĪ áī°áĭį
ab le
Ġáĭ«áīĢáĪ¨ áīłáĭį
áĭŃ áĪĸáĭĭ
ĠáĬ«áĪĪ áįĪ
ĠáĬłáĭ°áĪ¨áĮĪ áī½
Ġáī°áĪĿ áĪ³áĪĮ
áĭ« áįĬ
ĠáĪĺáī³ áĭĺáĭĿ
ĠáĭĪáĮª áĭİáī½áĬķ
áĮĢáĪį áī£
Ġáī°áĭĺáĮĭáĮħ áī¶
Ġáī¥áįģ áĭĵáĬķ
Ġáĭ¨áĪļ áĭĭ
Ġáĭ¨áĪĺ áĪ³áĪªáĭ«
Ġáĭ¨áĬ¥ áĪŃáĭ³áī³
ĠáĬłáĮĭ áĪŃáĬĲáīµ
ĠáĭŃáįĪ áĪ«áĪī
ĠáĬłáĭ°áĪ¨áĮį áĬķ
ĠáĬł áįĵáĪŃ
Ġáĭ¨áī° áĮłáĬĵ
ĠáĪ² áįĪáĪįáĮī
Ġáīłáī³ áĪħáĪ³áĪµ
Ġáĭ¨áĬĲáīłáĪ¨ áīłáīµ
ĠáĭŃáīł áĪĭáĪī
áīµáĪŃ áįį
ĠáĪĪáī¤áī° áĪ°áī¦
ĠáīłáĪĺáĮ¥ áīĢáĪµ
ĠáĪĽ áĬĵáī¸áĭįáĬķáĪĿ
áĮĪáī£ áĬĽáĪį
ĠáīłáĪĽ áĪĺáĬķ
Ġáĭĭ áĭį
ĠáĬłáĪµáī° áĪĽáĪªáĭİáī½
Ġáĭ¨áī£ áĪħ
ĠáĪķáĭŃáĭĪ áī³áī¸áĭįáĬķ
Ġáī°áĮłáīħ áĪ·áĪį
áĪ³ áī¡
ĠáĪĽ áĪª
áĪį áįİ
ĠáĪĬ áĪĺáĪµáĪį
áĬĹ áī¸áĭį
ĠáĬķáĮį áĪµáīµ
ĠáĪľ áĬ«
an k
ĠáĮĪáĬķ áī¢áĭİáī½
ĠáĬ¢áĬķáī¨áĪµáīµ áĪĺáĬķ
ĠáĬłáĭŃ áĭį
at ed
ĠáįįáĪ« áĬķáĬŃ
ĠáĬłáĪĪ áī£áīłáĪµ
ĠáīłáĪĿáĪŃ áĮ«áĭį
áĪŃ áĪŀáĬķ
Ġáīł áĬ¨
ĠáĪĺ áĭĺáĭĿ
ĠáĪĺáĪµ áįĭáįĭáīµ
ĠáĬłáįį áĪªáīĥ
Ġáī°áĮ«áĭĭ áī¾áī½áĬķ
ĠáĬ¥áĬķáĭ°áĪĺ áĪĨ
Ġáĭ«áĭµ áĮĭáĪį
ĠáĪĺáĭĿáĬĵ áĬĵáīµ
ĠáĪĪáĪĺáįĪ áī°áĪ½
ĠáĮ¥áĪĿ áīĢáīµ
áĬĴ áĭį
áĮĮáī³ áĭ¬
Ġáĭ¨áĪļáĭ«áĪµáĭ° áĪµáīµ
Ġáĭ« áĬķáī°áĬķ
áī¦ áĪį
Ġáīłáīµ áĪ«
it h
ĠáĪķáĭŃáĭĪ áī³áī½áĬķ
áĮĪáĬĵáĬĺ áĬķ
Ġáĭ²áĪŀáĬŃáĪ«áĪ² áĭ«áĭĬ
ĠáĬ¥áĮ¸áĪį áĭ«áĪĪáĪģ
ĠáĪµ áĪĺáĪĪáĬ¨áīµ
Ġáĭ¨áĪĺ áĬĵáĮĪáĪŃ
ĠáĬ¥áĬķáĭ°áĪļ áĪĦáĭµ
Ġáīµ áĭĿáī¥
ĠáĬłáĭ«áĪµáįĪáĪįáĮĪ áĬķáĪĿ
ĠáĬłáĪįáī°áĪ³ áĬ«áĪĿ
5 5
ĠáĪµ áĬķáĭ´
ĠáīĢ áĪ¨áĮ¥
Ġáĭ°áĬķ áī¦áī½áĬķ
ĠáĪĺáĪįáĬ¥ áĬŃáī¶áī½
ĠáĬ¥áĬķáĭ³ áĬķáī°
ĠáĬ¨áī° áĭ°áĪ¨áĮĪ
áĮįáīł áĭĭáĪį
ĠáĪµáĪĽ áī¸áĭįáĬķ
ĠáĬ¥áĬķáĭ² áĬĸáĪ¨áĬķ
Ġáī¡áĭµ áĬĵáī½áĬķ
ĠáĮĪáĮł áĪĺáĬĿ
ĠáĪ° áįĪáĪ©
ĠáĬ¥áĬķáĭ´áīµ áĪµ
ĠáĬłáĪ³ áĭ¨áĬĿ
ĠáīłáĮ¥ áĪ«áīµ
ĠáĬłáĮĪáĪŃ áĬķ
áĭ« áĭ¨áĪŃ
ĠáĪĿáĪŃáĮ« áĭįáĬķ
Ġáī¡áĭµ áĬĳáĬķ
ĠáĬ¥áĪį áīĤáīµ
ĠáĪĽáĪ° áĪªáĭ«
ĠáĬł áĮī
Ġáĭ¨áįķáĪ¬ áĪµ
Ġáī¢ áĪĺáĮ£
áĬķáĬķ áĬĵ
ĠáĭŃáĭĺ áī±
ĠáĭįáĪ³áĬĶ áĭİáī½áĬķ
ĠáĮłáĭ¨ áīģ
ĠáĪĽáīħáĪ¨ áī¢áĭ«
Ġáĭ¨áĪļ áĮĪáĭĽ
áĪ® áī³
Ġáĭ¨áĬ¢ áĪħáĬłáĭ´áĮį
ĠáĬ¥áī½áĪĭáĪĪáĪģ áĬķ
ĠáĭŃáĭĪáĪµ áĬĵáĪį
Ġáĭ¨áĭµáĬķ áīłáĪŃ
áĪŃáī» áĪ®
áĭĺ áĬĲ
áĭĪáĭ³ áīµ
ĠáĪĪ áĬĲáĪŃáĪ±
Ġáĭ¨áĪļ áĭĪáĪ°áĬķ
ĠáįĪ áĭį
ĠáĮ£ áĪªáĭ«
I n
ĠáĪĺ áĭĪáĮĪáĭµ
áīł áĮł
ĠáĪ² áĮĪáĬĿ
ĠáĬ¥áĪŃ áĮīáĭĿ
Ġáĭ¨áĭĺ áĪ¨
ĠáīłáĪĿáīµ áĬ©
ĠáĬ®áĪļáī´ áĭį
ĠáįĪáĪª áĪ³áĭįáĭ«áĬķ
l ol
ĠáĮ §
Ġáī¥ áĮ¤
ĠáĪį áĬ¬áīµ
ĠáĬłáĪĿ áĬĵ
ĠáĪĺáĮł áĬĲáĬĽ
Ġáīłáĭ± áī£áĭŃ
Ġáĭ¨áĪļáĪ°áĮł áĭįáĬķ
áĮ¥ áĪİ
Ġáī£ áĮłáīĥáĪĭáĭŃ
áĬĲáĪ³ áĪ³áīµ
ĠáīłáĪµ áĪĻ
áĪĦáĭ± áīłáīµ
ĠáĪĺáĪ¸ áĬ¨áĪĿ
Ġáĭ¨áīµ áĭĬáī°áĪŃ
ĠáĬ¥áĬķáĭ² áī³áĭŃ
áĪº áĭ«
ĠáĭĺáĪĺ áĭ¶áī½
Ġáĭ¨áĭĵáĪĪáĪĿ áĬķ
ĠáīłáĭµáĪŃ áĮħáī±
Ġáīłáī° áī»
Ġáĭ¨áĪĿ áĬĵáĮĪáĪ¨áĭį
ĠáĭŃáīĨ áĭ«áĪī
ĠáĮ³áĮ³ áĪ³áīµ
ĠáĬŃ áįĪáīµ
Ġáĭķáĭµ áĪİáī½áĬķ
ĠáĪħáĭŃáĭĪ áī±áĬķ
ĠáĮ£ áī¶áī½
ĠáĪĪ áĬ¨áįįáī°áĬĽ
Ġáīµ áī°
Ġáĭĺ áĮĪáī£áĭį
ĠáīłáĪ° áĪĭáĪĽáĭĬ
Ġáĭ¨áĮ¥ áĪŃáĪµ
Ġáĭ¨áī¤áī° áĪ°áī¡
Ġáĭ«áĬ« áĪĤ
ĠáĪĽ áĬĲ
ĠáĪ² áĪįáĪĿ
Ġáĭµ áĪĨáī½
Ġáī¦ áĪŃ
ĠáĬ¨áĪĺ áĮłáīĢáĪĿ
ĠáĬłáĪ¨ áįĭ
ĠáĮ½áĪģ áįİáī½
Ġáĭ«áĪµáĬ¨áįį áĪĭáĪį
Ġáĭ¨ áĭĬ
áĭĽ áĪĪáĬķ
áĭķ áĪ°
ĠáĬ¥áĭ¨ áĪĺáĪ«
Ġáīłáĭį áĪį
ĠáĮĵáĭ° áĬĽáĭį
ĠáĮłáīħ áĪ°áĭĭáĪį
ĠáĬ¨áĭĪ áĭ«áĬĶ
ĠáīłáĬ¥áĬĶ áĬĵ
áĪ³áĪ° áĪī
k e
Ġáĭ¨áĭį áĪ³áĬĶ
Ġáĭ¨áī¡ áĭµáĬĳ
Ġáĭ¨áĭĪáĪ¨ áīĢáīµ
ĠáĪŀ áīĥáī³áĪĽ
ĠáĪ°áĮ¥ áī¼
Ġáī¥áĪį áĪ¹
ĠáĭŃ áĭ°áĪ°
ĠáĬ¨ áĪł
ĠáĪĬáĭ« áĮĪáĬĿ
ĠáīłáĮ¨ áĭĭáī³
ĠáĬ¥áīħ áĭ¶áī½
áĪĽ áĪĪáī½
áĬ¨ áĪĪáĭį
áĮĨ áī»áī½áĪģ
ĠáĭŃ áĪĽáĪŃ
ĠáĪĪáĪĺ áĮĪáĪĿáĮĪáĪĿ
áĬĵáĪį áĬĵ
ĠáĪĪáĬł áįįáĪªáĬ«
ĠáĪĽáĭķ áĭµ
Ġáĭ± áĪĭ
ĠáĪ¥áĪŃáĭĵ áī°
ĠáĪĥáĭŃáĪĽáĬĸ áī¶áī½
ĠáĭĪ áĭ¶
áĪĮ áĪĿ
ĠáĪĽáĭķ áĪ¨áĮį
ĠáĭŃáĪŀáĬŃ áĪ©áīµ
Ġáīłáĭ³ áĭĬáīµ
áĭ¨áĪĺ áĮĢáĪĺáĪªáĭ«
P R
_ _
Ġáīł áĪİ
Ġáĭ¨áĪĺ áĭ°
áĪĭáĭŃ áīµ
ĠáĬłáĪĿ áĬĲáĭį
ĠáĪĺáĮł áĭŃ
áĪĭáĬŃ áĪ²
ĠáĪµáĪĿ áĭĸáĬķ
áĪ³áī¸áĭį áĪĿ
ĠáĮĪáįħ áī³
ĠáīłáĪļáĭ«áĪµ áĭ°áĬķáīħ
ĠáīłáĬłáĬ« áī£áī¢áĭ«
ĠáĭŃ áĮĢáĪĺ
áĪĨáĬķ áĬ©
Ġ200 2
ĠáĬłáĪ¨ áįĪ
ĠáĬłáĭĿáĪĽáĪļáĭ« áĭİáī½
ĠáĪĺáĪĿáĮ£ áī±áĬķ
ĠáĪĺáī¸ áĪĿ
Ġáĭ¨ áĬ¨áīłáĪ¨
áĬĵ áĪŃ
or y
Ġáī°áĪ°áĮ¥ áĬ¦
Ġáī°áĪŃ áĪļ
Ġáī¤áī°áĪ°áī¦ áī¼
f li
Ġáī» áĭŃáĬķáĬĽ
Ġáĭ¨áĬłáī£ áī±áĬķ
áĮį áĭĿ
ĠáĭĪ áĪİ
Ġáī³ áĮĪ
áĮįáĬķ áĬĲáīµ
áĭ° áī±áĬķ
áįį áĮ¥
Ġáĭ¨áĪļ áĮłáīłáīĢáĭį
ĠáĬ¥áĬķáĭ° áĭ¨
ĠáĬłáĪĪ áī¥áĭİ
ĠáĬłáĭ« áĮĪáĬĻáĪĿ
áīº áĭį
ĠáĬłáĮĪáĬĺ áĪģáīµ
Ġáĭ¨áī°áĮĭ áĪĪáĮ¡
ĠáĭŃáįĪáĮ¸ áĪĽáĪį
ĠáĬłáĪ³ áĭ¨
ĠáĭµáĮĭ áĪļ
ĠáĬ¥áĪµáĪ« áĬ¤áĪįáĪĿ
áĪ¨ áĪĺ
áīĢ áĪ¨áī¥
áįĭ áĮłáĬķ
áĮİ áĪĽ
áĭĭ áĮħ
ĠáĬ« áī¢áĬĶ
ĠáīłáĪŃ áīĢáīµ
ĠáīłáĬĲ áīłáĪ©áīµ
ĠáīħáĪ¬ áī³áĭİáī½
Ġáĭ¨áĬ¢áĭ¨áĪ±áĪµ áĬķ
ĠáĮİáī¥ áĬļáĭİáī½
Ġ(âĨ Ĳ
ĠáĮł áĮĭ
áĪĮ áĭŃ
ĠáĬłáĬŃ áĪ«áĪª
Ġáĭ¨áĬ¤ áī½
ĠáĬ¥áĬķáĭ°áĪĮ áĪĭáī¸áĭį
ĠáĮ¦áĪŃ áĬĲáī¶áī½
áĮĪáĭĻ áīµ
Ġáĭ«áĭ°áĪ¨áĮį áĬĲáĭį
ĠáīłáĪĽáĮį áĪµáī±
] áį¢
ĠáĪĥ áĪĿáĪ³
ĠáĪĪáĪ¶ áĪµáī°áĬĽ
ĠáĪµ áĭįáĪŃ
áĪŃáĪµáīµ áĭ«
ĠáĬłáĪŃáī² áĪµáī¶áī½
Ġáĭ¨ áĬ¤áĪį
Ġáĭ¨áĪļ áī£áĪīáīµ
Ġáī³ áĭŃáĪĿ
ĠáĬ« áĭ°áĪ¨
Ġáī°áĮ«áĭĭ áī¹
Ġáī£áĪįáĬķ áĮĢáĪ«
áĭĪáĪµ áĬķ
ĠáĬłáĭŃáįĪ áīĢáĭµ
ĠáĪµáī± áĭ²áĭ®
a le
áĬł áĪĪáĪĿ
áĭ³ áĭ°áĪªáĭ«
ĠáīłáĪĿ áĪµáĪ«áīħ
ĠáĬ¥áįĪáĪ« áĪĪáĪģ
Ġáĭĺ áĪĺáĬĵ
ĠáĬłáĬķáĭ³ áī½áĬķ
áĪµáĪ« áĬ¤áĪĭáĭįáĭ«áĬķ
ĠáĪįáĭ© áĬĲáī±
ĠáĭŃáīł áīĥáĪį
Ġáĭ¨áĬķ áī¥áĪ¨áīµ
ĠáĭŃ áī°áĬĽ
áĬ© áĪ½
áĪįáįį áĪĿ
ĠáĪĪáĪĺáĬķ áĬ¨áī£áĬ¨áī¥
Ġáĭ¨áī°áĪŀ áĪī
ĠáĬłáĪĺáĪ°áĮįáĬķ áĪĥáĪĪáĪģ
áĭĿ áīħ
Ġáī°áĮłáīĥáĪļ áĭİáī½áĬķ
ĠáĭŃáī³ áĪ°
ĠáĪĽáĪį áīĢáĪµ
Ġáīł áĮĦ
áĪĺáĪ¨ áĪĿáĪŃ
Ġáī£áĪĪáĪĻáĭ« áĭİáī½áĬķ
áĬĵ áĪĽ
ĠáĬłáĪµ áĬ¨áī£
ĠáĬłáĪĪ áĪŃáĮĤ
ĠáīłáĬ¥ áĪŃ
ĠáĪĪáĬł áĪģáĬĳ
Ġáĭ¨áĪħ áĭĪáĪĥáīµ
ĠáĪ¸ áĪ¹
Ġáĭ¨áĪģáĪĪ áī±áĪĿ
Ġáĭ«áĪµáī¸áĮį áĪ«áĪį
áĪ°áĮ£ áī½áĪģ
Ġáĭ«áĪµáĪ¨áĭ³ áĪį
áĬķ áĮħ
Ġáĭ¨áī° áĬĲáĮĪáĪ¨áĭį
áĮ½ áīłáīµ
ĠáĬłáĮĪáĪįáĮį áĪıáĪį
ĠáĬ¥áĪĿ áīħ
Ġáī£áĪĪáĪĺ áĪĨáĬĳ
Ġáĭ°áĪ«áĪ² áĭį
áĬ« áįĪ
áĬĽáĪį áĬĵ
Ġáĭ¨áĪĨ áĭµ
Ġáī° áĪµáī°áĬ«
ĠáĬłáĪį áī³áĭĪ
Ġáĭ¨áįĪ áī°áĬĵ
áīłáĪ¨áī³ áī³áīµ
ĠáĪĺáĪĪáĪ° áĪĪáīµ
áĪĽ áĬĿáĬĲáīµ
ĠáĪ° áĮłáĬĿ
Ġáĭ¨áĬł áįķáĪį
ĠáĪĺáĪį áĪ¼
áĪł áĪį
Ġáĭĭ áĪį
áī³áĭŃ áĬķ
ĠáĮ£áī¢áĭ« áĭİáĬķ
Ġáĭ¨áĮī áĮįáĪį
ĠX NUMX
ĠáĮ¾ áī³
ĠáīłáĪµáī¥áĪ°áī£ áĭį
áī½áĪĪáĭį áĬķ
ĠáīłáĬ¢áĬķáĭ±áĪµáīµáĪª áĭį
áĬķ áįį
áĬŃ áĪİáī½
ĠáĮ¥ áĪĿáĪŃ
Ġáĭ¨áĪĽ áĭ¨áĭį
ĠáĪħ áīµáĪĺáīµ
Ġáīħáĭµ áĪĿ
ĠáĭĪáĪµ áĭ·áĪį
G oogle
Ġáĭ¨áĬł áĮłáīĥáīĢáĪĿ
ĠáĪŀ áĬ¨áĪ¨
ĠáĬłáĪ³áĪį áįĪáĭį
ĠáīłáĪĺáĮł áĬĳ
ĠáĭŃáĮłáīģ áĪĽáĪį
áī¥ áĬ©
áĭİ áī¿
áĪĺáĪ° áĪ¨áīµ
áĬķáĭĽ áĭ¥
Ġáī¥áĬķ áĪĨáĬķ
Ġáĭ¨áĮ¸ áĮ¥áī³
ĠáĭĪáĪŃáīĥ áĪĽ
áĪ¯ áī¸áĭįáĬķ
Ġáī°áĭ° áĪ«
Ġáĭ«áĮį áĭĽáĪį
ĠáĪĬ áĪĪáĭĪáĮ¥
Ġáī°áīĢ áīłáĪĪ
ĠáĬŃáĬķ áįį
Ġáĭ°áĬħ áĬķáĬĲáīµ
áĪį áĮĭ
Ġáīł áĭ°áĪŃáĮį
ĠáĪĺ áĬ¨áįĭáįĪáĪį
ĠáĮĬáĭľ áĭ«áī¸áĭįáĬķ
ĠáĪĬ áĪ°áĮ¡
ĠáĮĪ áĪĥáĬĲáĪĿ
ĠáĬłáĪį áĪĺ
áĪĬ áĪµáīµ
ĠáĭµáĬķáĮĭáĮĮ áĭİáī½
áĬŃ áĪ«
áĬŃ áįĪáĪį
áĪ³ áĪŃ
áĭĪáĭ° áĭįáĬķ
Ġáĭ¨áĮįáĭµ áĮįáĭ³
ĠáĪµáĪĿáĪĿ áĬĲáī±
áĬķ áĪĭáĭŃáĬķ
Ġáĭ¨áĭĺ áĮĪ
áĭ¨ áī´
áĭķ áĭĿ
ĠáĬłáĪĭ áĪĪáĪĿ
áĭ°áĪ¨áĮĪ áĭįáĬķ
ĠáĪĺ áĭ«áĭĻ
Ġáĭ¨áĪļ áĮĵáĭĻ
áĬ« áĬ¨áĪĪáĬĽáĭį
ĠáĬ¥áĬķ áĬĲáĮĭáĮĪáĪŃ
Ġáĭ¨áĪĽ áĪ°áī¥
ĠáįĪ áī³
áĬª áĬĵáĭį
ĠáĬ¨áĬł áĬķ
ĠáīµáĪĿáĪħáĪŃ áī±
ĠáĬ¥áĬķ áĪ°áĪĽ
áĬ® áĪĮáīµ
ĠáĪĽáĬķ áĬĽ
ĠáĪĪáĬł áĪĭáĪħ
ĠC ont
ĠáĪĲ áĪ°áī°áĬĽ
ĠáĪķáĭĿáī¥ áĪĿ
ĠáĬ¥áĬķáĭ°áĪĽáĭŃ áī½áĪī
Ġáĭ¨áĬłáĭį áĪ®áįķáĪĭáĬķ
áĬŃáĬŃ áĪĪáĬĽ
áĪ¸ áĭį
ĠáĮīáī£áĬ¤ áĭį
ĠáĬ¥áĪ³áī¸áĭį áĪĿ
ĠáĭĮ áī¥
ĠáĬ¥áĬķáĭ°áĪļ áī£áĪĪáĭį
áįķ áĪ«áĭŃ
Ġáīłáīµ áĮĭáīµ
ĠáĪĦ áĭ°áĬķ
ĠáĮįáī¥ áĭŃ
ĠáĭŃáīĢ áĪĺáĮ£áĪī
ĠáĭĿáĪĽ áĪ¬
áĮ£ áįĭ
ĠáīłáĬł áĪ¸
ĠáĬ¨áįį áī¶
ĠáĭĪáĮ¥ áī°áĭĭáĪį
ĠáĪĪáĪħ áĭĿáī¡
ĠáįĪáĮ¥ áĬĸ
ĠáĬ¥áĭ¨ áĮłáīłáīħ
Ġáĭĭ áĪ½áĬķáĮįáī°áĬķ
ĠáĮįáĪ« áĪĿ
áĬĲáĪŃ áĮĤ
ĠáĬ¥áĬĵáĪµ áī£áĪĪáĬķ
ĠáĬłáĪ»áĬķáĮī áĪĬ
áĬ¥ áĭĽ
ĠáĬ¥áĬķáĭ² áĪ³áī°áįī
ĠáīłáĪĺ áĪĭáĬŃ
ĠáĬ¨áĪ° áĪľáĬķ
ĠáĬ¨áĭĵ áĪĺáīµ
ar i
áĪµáįĴ áī³áĪį
ĠáĭĪáĬķáĮĢ áĪĪáĬĽ
ry pt
Ġáīł áĮĪáĬĵ
ĠáĪĺ áĭĺáĮĭ
áįĭ áĪİáīµ
áĪĺáĬķ áįĪáĪµ
ĠáĮŃáįįáĮ¨ áįĭ
ĠáĬłáĪĭ áĭĪáīħ
ĠáĬ¥áĪµáĬ¨ áĬłáĪģáĬķ
Ġáĭ¨áĪļáĭ«áĪµ áįĪáĪįáĮĭ
Ġáĭ² áĪµ
áĭĪáĭ« áĭ©
ĠáīłáĮł áĭĭáīµ
áĪ¨ áĪ½
áĭ¨ áĪļáĭ«
áĭ² áĭ«áĬķ
ĠáĬ® áįĴ
Ġáĭ«áĪį áī³áĭĪáīĢ
áĬ¸ áĬķ
Ġáīłáĭĭ áĮĭ
ĠáĬ¥áĬķáĭĪ áĪµ
ĠáĪĺáĪµáĪ« áī½
Ġáĭ³ áĬĽáĭį
ĠáĪĥ áīħ
ĠáĮŃ áĪ«
Ġáĭ¨áĪ« áĪµáĬķ
Ġáīłáīł áĪ½áī³áĭį
áĪĪáī¥ áĪ±
Ġáī¥áĪįáĪħ áĬĲáīµ
ĠáĭµáĪŃáĮ£áī¢áĭ« áĭİáī½
Ġáīĥ áĪİáī½
áĪĭáĪĪ áįĪáĭį
Ġáĭ°áĪŃ áĪ°áĬĵáĪį
ĠáĮĵáĭ°áĬĽ áĭİ
ĠáīģáĪŃ áĬłáĬķ
ĠáĬ¥áĬķáĭ°áĭļáĭ« áĭį
Ġáĭ¨áĪ² áīªáĪį
ĠáĪ ĩ
Ġáĭ¨ áĪŁ
Ġáī¥ áĭĽ
Ġáī£ áĪĪáĪģ
Ġáīłáī° áĮłáīĥáĪļ
áĪ³áĭį áīħ
ĠáĭĺáĮĪáī£ áĭİáī½
Ġáįī áĬŃáĬŃáĪŃ
Ġáīł áĭĽáĭį
ĠáĪĪáĬł áĬķáĭ±
ĠáĭµáĬķ áī½
ĠáĪĺáĪĿ áī³áīµ
ĠáĬŃáĪį áĪĭáĭĬ
ĠáĬ¨áĭĪ áĬķáĭ¶áī½
áĪĺáĪĪáĪ± áĪĿ
ĠáĪĺáįĪ áī°áĪ½
áīĢáĪ¨ áī¡áīµ
ĠáĪĺáĪĺáĪĪ áĪ»
Ġáĭ¨áĪĿáĬĵáĮĪ áĬĺáĭį
Ġáĭ¨áĬł áĬ¨áī£áī¢
ĠáĪĲ áĭŃ
ĠáĬĸ áĪ¨áĭĭáĪį
Ġáĭ¨áĬª áĬĲ
Ġáĭ¨ áĪħáĪį
Ġáĭ¨ áĭ®áĪĲáĬķáĪµ
Ġáĭ¨áĪļ áīĥ
ĠáĬ« áĪĪáĬķ
ĠáĮįáĬķáĬĻ áĬĲáī¶áī½áĬķ
ĠáĪĽáĭķ áīĢáī¥
ĠáįķáĪ®áĮįáĪ« áĪŀáī½áĬķ
ĠáĬ¥áĮįáĪŃ áĬ³áĪµ
áĮ´ áĭĽáĭį
ĠáĪĪ áĬķáĮīáĪ¡
ĠáĪĽ áĬĲáĪµ
ĠáĬłáī£ áī´áĬķ
áĮĭáī¥ áĭĿ
ĠáĮ«áĮ« áī³
áĪ¨ áĬ¨áī¥
ĠáīĢ áĭį
Ġáī» áīµ
ĠáīłáįĪ áĪ¨áĬķáĪ£áĭŃ
ĠáĪķáĭŃáĭĪ áī±
ĠáĪ°áĬĲ áĭ¶áī½áĬķ
áĮįáĪŃ áĬĽ
Ġáī°áĭĵ áĪĿáĪŃ
áĪŃ áī·áĪį
áĭ³ áĪĺáĮ¥
ĠáĮīáĭ³ áī±
in t
Ġáĭ¨áĬ« áī¶áĪĬáĬŃ
T A
áĪ¨ áĬĽáĭį
ĠáĬķ áĪµ
ĠáĬ¥áĮħ áĮīáĬķ
ĠáĭĪáĭ³ áĪĪáĭį
fli x
áĭĭ áĭĪáĮ¥
áĮ½ áįĪáĭį
áĭ°áĪ¨áĮī áĪĿ
Ġáī°áĭ° áĪ«áĮħ
áĪİáĪª áĭ³
S S
Ġáīł áĬĲáĪ±
ĠáīłáĪĺ áĮłáī£áīłáīħ
Ġáĭ¨áĮ¥ áĪĭáī»
ĠáĪµáĪħáī° áī¶áī½áĬķ
ĠáĬ¨ áīĢáĬĳ
ĠáĪĽ áĬĶ
ĠáĮł áĪŃáĭĿ
Ġáī°áĬ¨áī³ áĭ®áī½áĬķ
ĠáĮħ áī¥
ĠáĬ¨áĪķ áĮį
áĪª áī²
Ġáĭ«áĪµ áįĪáĪįáĮī
ĠáīĨ áĪ«
ĠáĪįáīµ áĪĨáĬķ
ĠáĪī áīĥ
Ġáĭ¨áĪļáĪ° áĪ©áīµ
ĠáīħáĪŃáĬķáĮ« áįİáī½
áĪĿ áĬŃáĬķáĭ«
áĪª áĬĿ
Ġáī³ áĭĪ
ĠáĬ¥áĬķáĭ°áĪļ áĬĸáĪ©
ĠáĪ¥ áĪĭáĪ´
ĠáĬłáĬķáĭ± áĪĿ
ĠáĬ¨ áĭ³
ĠáĪ¨ áĮĭ
áĪŃáĭĿ áĪ©
ĠáīłáĬ¥áĭį áīĢáīµ
áī³ áī±
ĠáĬ¨ áĪĺáĪį
ĠáĪĪ áīģ
or k
ĠáĪĿáĬ¥ áĪĺáĬĵáĬķ
ĠáĪµáĪķ áī°áīµ
Ġáĭ« áĮĪáĬĻáīµ
ĠáīłáĪĺáī¶ áĭį
Ġáĭ¨áĭĵ áĪĺáī±
áĪ¨ áīģ
áĮĢ áĬķáī²
Ġáī°áĪĺ áĬĺ
ĠáĪĪáĮĪ áĬķáĭĺáī¥
Ġáĭ« áĮ¡
ĠáĪĪáĪĺ áī°áĭį
ĠáīłáĪĿ áĪĭ
ĠáĭĭáĮĭ áĬķ
ĠáĬ¥áī£ áī¥
ĠðŁĻ Ĥ
l l
áĭĽ áī½áĪģ
ĠáĬ¨áī° áĬ¨áĪ°áī°
ĠáĪĺáĬķáĮĪáĭµ áĬķ
ĠáĭĪáĭ³ áĮĨáī¼
ĠáĭŃáĪ°áĪĽ áĭĭáĪį
Ġáĭ¨áī¢ áĪ®
Ġáī°áĮĪáĭµ áĪĪáĭĭáĪį
áīµáĪ¨áįĪáĪ¨ áįĪ
áĭ° áĬĵ
áĬĻ áīµ
áĪ°áī¥ áĭĵáĭĬ
Ġ9 7
ĠáĬłáĮ¥ áī°áĭĭáĪį
en s
Ġáĭ¨áĭĭ áĪµáīµáĬĵ
ĠáĬłáĬķáĭ³áĬķáĭ´ áĪĿ
áĪ° áĪī
Ġáīµ áĪ°áĪĽ
áĪĻ áĬĿ
Ġáīłáī° áī£áĪĪáĭį
ĠáĬ¥áĭ¨ áĮłáīłáīĢ
Ġáĭ¨áĪį áī¥áĪµ
ĠáĬŃáī¥áĪŃ áĬĵ
ĠáĭĲáĭŃ áĬĲáīµ
áĪŃ áįĸ
áĭ° áĭįáĪĿ
áĮł áĪĪáĮł
Ġáĭ¨áī° áĬ«áĪĦáĭ°
Ġáĭ¨áĪĺ áĭĿ
Ġáī³ áĮĭáĭŃ
áĭĪáĭ³ áĮħ
ĠT h
Ġáĭ¨áĪŀ áī°áĭį
ĠáĭŃáĬ¨áįį áĪĭáĪī
Ġáĭ¨áĬ«áĪŃ áī¦áĬķ
ĠáĬłáĮĭáĬķ áĬķáīµ
200 6
Ġáĭ¨áī°áĬĲ áĭ°áįĪ
ĠáĬ¥áĪµáīµáĬķ áįĭáĪµ
ĠáĬĲáīłáĪį áī£áĪį
ĠáĬ®áĪļ áĪ½
áī¥ áī·áĪį
Ġáĭķ áĬķáīģ
ĠáīĨ áĪµ
Ġáī¥áįģ áĭķ
ĠáĪĺ áĪĦ
Ġáĭ¨ áĮħ
Ġáĭ¨áĪļ áĪ¹
ĠáĪĬ áĭĪáĮ£
ĠáĬłáĮĪ áĪªáī±áĬķ
ĠáĪĪáĭį áĮ¡áĬķ
ĠáĪĿáĭķ áī°
ĠáĬ¥ áĬ¤áĬł
ĠáĬł áĭĪáīĢ
Ġáīħáĭ± áĪ³áīµ
ĠáĬĥáĮ¢áĬł áī°áĬĽ
ĠáīłáĮ½ áĭµáīħ
ĠáĪĻáĭļ áĭ¨áĪĿ
ĠáĬłáĭįáī¶ áĪĽáī²áĬŃ
ĠáĬ«áĪħáĬĵ áī±
ĠáīµáĭķáĮį áĪµáīµ
D D
ĠáĪ² áīĢáĪŃ
ĠáĬ¥áĬĽ áĬķáĪĿ
ĠáĪĪáĪļ áīĢáĮ¥áĪĪáĭį
ĠáĬłáĭ«áĪµ áĭ°áĬķ
Ġáīµ áĪŀ
ĠáīłáĪĺ áĪŀáĬ¨áĪŃ
áī£áī¸áĭį áĬĵ
ĠáĬ¥áĬķáĭµáĬķ áī½áĪį
Ġáī°áĪµáĪĽáĪĿ áī°áĭĭáĪį
i le
Ġáĭ¨áĪļ áĪĺáĪ©
Ġáĭ¨áĪµ áī¥
ĠáĬ¥áĬķáĭ°áĪĿ áĬķáĪĿ
ĠáīłáĮŃ áĬķáīħ
áĬĲáīł áĪ«áī¸áĭį
ĠáĬ¨ áĪ¸
áĮĭ áī½áĪģáīµ
ĠáĬłáĬ« áĭįáĬķáīµ
Ġáĭ¨áīĨ áĭ¨áĭį
áĪ½ áĬĵáĪį
ĠáĬ¥áĬķáĭ² áĪĺáĪĪáĪµ
ĠáĬķ áĮ£áįį
Ġáĭ¨áĪļáĭ«áĪµ áĮ¨
ĠáĬĲáįį áĪ³áīµ
ĠáĬłáĬĲ áīłáī¥
áĭ· áī¸áĭįáĬķ
ĠáĪµáĪįáĮ£ áĬĶ
áĪĭ áī½
Ġáī¥ áĪ¬
ĠáĬ¨áĪķ áĭĿáī¥
Ġ" '
ĠáĭĽáĪ¬ áĬķ
ĠáĪĪáĪĿ áĮįáī¥
Ġáĭ¨áĪµ áĬ¬áīµ
Ġáĭ¨áĭŃ áĮĪáī£áĬĽáĪį
Ġáī°áīĨ áĪŃ
ĠáĪĽ áĪ°áĪµ
Ġáĭ¨áĪļ áī³áĭĪáīģ
ĠáĪĪáĪĺ áĮ¨áĪ¨áĪµ
áī¡ áī²
áĮ¢ áĭ«áīµ
Ġáĭ² áīª
áī¥ áĭ°áīµ
ĠáĪµ áĭį
áĭ³ áĪ«áĭĬ
ĠáĬ¥áĭ¨ áįĪ
Ġáĭ«áĪµ áĪ±
ĠáĬłáī£ áī·
Ġáĭķáĭµ áĮĪ
áīµ áĪ«
ĠáīĨ áĮ£áĪª
ĠáĪįáī¥ áĪ±áĬķ
ĠáĭĪáĪ° áĭ±
ĠáĭŃáĪµáĪĽ áĪĽáĪī
ĠáĪĺ áįĭ
áĭĺ áĬĵ
Ġáī³ áīħ
ĠáīłáĪŃ áĬ¨áīµ
ĠáĪĺáĬķáĮĪ áĭ°áĬŀáī½
Ġáīłáīħ áĬķáĬĲáīµ
ĠáĮĪáī¥áĪŃ áĬ¤áĪį
T M
Ġáĭ¨ áī£áĪį
ĠáĪĽ áĪ°áĪ«áĮ¨áīµ
Ġáĭĭ áĪĪ
áįĢ áĭį
áĪĪáĪĺ áĪĨáĬĳ
ĠáĬłáĮ¥ áīĤ
ĠáīłáĪĽáĪ³ áĭ¨áīµ
ĠáĪ² áĪĿ
áī¥áĬĿ áīµ
ĠáĬłáĪĿáĪĭáĬŃ áĪĿ
ĠáĬ¥áĬķáĭ°áĪļáĭ« áĮĪáĬĻ
Ġáĭ¨áī°áĬĲáĪ³ áĭį
ĠáīµáĪŃáĭĴ áīµ
áĮī áĭ³áĭŃ
ĠáĭįáĪĥ áĭį
Ġáĭ¨áĬ® áĬķ
ĠáĬłáĪħ áĮīáĪŃ
Ġáī°áĮ£ áī¥
ĠáĬ¨áĮł áĭĭáī±
áĭł áīµ
áĪĽ áī´áĭİáĪµ
ĠáĮĭ áĪ½
ĠáĬ¥áĪŃáĪ· áĬķ
Ġáĭ¨áī¦ áĪŃáĭµ
ĠáĬ¥ áĪ³áī±
áĪĭ áī¸áĭĭáĪĪáĪģ
áĪ¨ áįī
Ġáĭ¨áĪļáĭ«áĪµ áįĪáĪįáĮĭáī¸áĭį
Ġáī´áĬŃáĬĸáĪİáĮĤ áĬķ
ĠáĪĺ áĮĪáĪĿáĮĪáĪĿ
ĠáĬ¨ áĪ°áĮł
áĬĸ áĬķ
ĠáĪĪáĬł áĮŃáĪŃ
ĠáĪĪáĬł áĭ°áĮĭ
Ġáĭ¨áĪį áĭ©
ĠáĬłáĮ¥ áįį
ĠáĪ¬ áĪ³
áĬ¨áī°áĪĽáĭŃ áī±
áĭ° áĮĪáĪĿ
áĭĪ áĪ«áĭį
Ġáĭ¨áĪļ áĭ³
ĠáĪĪáĪĺ áĬķáĮįáĪµáīµ
ĠáįĪ áĮłáĪŃ
ĠáĬķáĮī áĪ±
ĠáĭŃáĪ¨áĭ³ áĪĥáĪį
ĠáĪĺáĮ½ áĪĢáįį
ĠáĪŀáĬŃ áĪ¨áĭĭáĪį
ĠáĪĻáĪ½ áĪ«
Ġáīł áĪ³áĭŃ
ĠáĬ¨áī° áĭĪáĪ°áĬĲ
ĠáĬ¨áī°áĪĽ áĭĭáĬķ
ĠáĪĺáĬķáĮįáĪ¥ áī°
Ġáĭ¨áĪļáĮł áīħáĪĿ
Ġáĭ¨áī°áĭĺáĪ¨áĭĺ áĪ©áīµáĬķ
áĬł áįĵ
áįĥ áįĢáĪĿ
ĠáĭŃáĭĺ áĭĭáĪį
áĮĪáĬĽ áī¸áĭį
áīªáĭ¬ áĪ½áĬķ
ĠáĬł áĪĢ
áĬ¨ áī£áĪĪ
ĠáĭŃáĪŀáĬŃ áĪ«áĪį
áĪ Ĺ
Ġáīłáĭ° áĪĺáĬĵ
ĠáĮĤ áĬ¦
Ġáī¤áī°áĪ°áī¡ áĬķ
ĠáĪ°áĬ¨ áĬķáĭµ
áĭ° áĪ±
ĠáīłáĬł áĬ¨áī£áī¢áĭį
ĠáĬ® áĪİ
áī°áĭį áīµ
ĠáīµáĬķ áĪ³áĬ¤
3 00
áī³áĭĬ áĬĲáīµ
ĠáĭŃáĮĪ áĮ¥
áĪĳ áĭµ
Ġáī¢ áīĢáĪŃ
ĠáīłáĪķ áĮĭáĭĬ
áĮłáĪ¨ áĮ´áĭĽ
Ġáī°áīĢáī¥ áĪĪáĭį
Ġáī¥áĪŃáī± áĬ«áĬķ
ĠáĬ¥áĮ© áĭİáī½
Ġáĭ¨áĪĺáĪĿ áĪ¨áĮ¥
ĠáĪ³ áĬĵ
ĠáĬłáĬķ áĮİáĪį
ĠáĭĪáĮĪ áĬĶ
Ġáĭĭ áĭŃ
áĪĺáĪµ áĪĪáĬĿ
ĠáĬ¨áĪļ áĪį
áįĪ áĪ±
áĬĿ áĪħ
áĬĸ áĪ«áī½áĪģ
ĠáīłáĬł áĪĽáĪŃáĬĽ
ĠáīłáĪĻ áĭļáīĥ
ĠáĪł áĪŃáĮį
ĠáĬ¥áĮį áĪ©
L uc
Ġáī¢ áīłáĭĽ
ĠáĪĨáĬĲ áĬĵáĪį
ĠáĭĪáĪĪ áĭ°
ĠáĭĪáĪį áĭ°
Ġáĭ«áĭ° áĮĪáĭį
Ġáīµ áĬ¨áĪ»
áĪŀ áī³áĪį
áĪŃáĮį áĭĿáĬĵ
áĭ£ áĪĪáĪģ
ĠáĬ¨áĪĺáĪµ áĮłáīµ
ĠáĬ®áĪŃ áĪ¶áī½
áĬł áĬķáĭ³
áĬ« áĪĤ
áīµáĬĵ áĮĪáĪŃ
ĠáīłáĪ³ áīħ
áĮ¨áĪĿ áĪ©
¬ ÙĦ
ĠáĬ¨ áĮĮ
Ġáĭ« áĮ£áĪī
ĠáĬłáīµ áĪģáĬķ
ĠáĮİ áĭ°áĪį
ĠáĪĺ áĮİ
áĪĭ áĬ¨
áī¥ áĪŃáīµ
ĠáĬ¨ áĪĬ
ĠáĪĺáī° áĪĭáĪĪáįĬáĭ«
ĠáĪĪáĪµ áĭµáĪµáīµ
ow n
áĭĪ áĮ¡áīµ
áĬ¨áįį áĪĪáĭį
Ġáī£áĪĪáĪĢáī¥ áī¶áī½
Ġáĭ¨áī° áĬ¨áĪ°
áĭĽ áĭŃáĬķ
ĠáĬ« áĬĵ
ĠáĬ¨áī£ áĪħáĪŃ
ĠáĬłáĪµáī°áĭ³ áĭ³áĪªáĭİáī½
ĠáīłáĬ¥áĮĥ áī½áĬķ
Ġáī°áĮłáĬķáīĢ áīħ
o y
áĪ³ áĭµ
Ġáĭ¨áī° áĪĺáĮ£áĮłáĬĲ
ĠáĪ³ áĪħ
áī£áīł áĪªáĭ«
ĠáĭŃáĪĺáĪŃ áĮ£áĪį
áī£ áīłáĪ©
Ġáĭ¨áī° áĪµáī°áĬ«áĬ¨áĪĪ
Ġáĭ¨áĭĪ áĮª
ĠáĪ°áĬĲ áĭ±
áĪŀ áī¹áĬķ
ĠáĪĽáĭµáĪ¨áĮį áĬķ
ĠáĮ¥áĪĭ áĪģáĬķ
ĠáĬłáĪŀ áĪĮ
ĠáĪĽ áĮłáī¢áĭ«
Ġáĭ¨áĪļ áīłáĪįáĮ¡
áĭĵ áĪĺáīµ
ĠáĮł áĮ¥
áī»áĪį áĬķ
áĪµáī³áĭĪ áĪ»
ĠáĬłáĪ¨áĮĭáĮį áĮ§áĪį
Ġáī° áĮłáī¥
áĬĴ áĬ«áĪį
Ġáīģ áĪµáĪį
ĠáīłáīĢ áĪ¨
Ġáĭ°áĪ¨áĮĥ áĪĿ
áĬħ áĪ£áĪ¥
áĪĪáĪĽ áĭĬ
ĠáĬłáĭŃáįĪ áīĢáĭµáĪĿ
Ġáīłáįĵ áĪŃáī²
ĠáĪĽáĪ¸ áĮĬáĭ«
â ĺ
Ġáĭ« áīłáīĥ
Ġáĭ¨áī° áĪ°áĪ«áĭį
ĠáĬłáĮĪáĪįáĮį áĪĪáĭĭáĪį
áĮłáīħ áĪĭáĪĭ
áĭĿáīĥ áĭľ
Ġáī°áĬ«áĪĤ áĭ·áĪį
ĠáĬ¥ áĭĪáīģ
áĬĲ áĪ»
áĭ¨ áĬĲ
ĠáĬ¥áĭ¨ áĮİ
on s
ro p
ĠáĮł áĬķáīĥ
ĠáĬ¨áĪĽ áĪħ
ĠáĬ¥áĪµáĬª áĪĺáĮ£
áĮĭ áĪªáĭİáī½
ĠáĬ¦ áĪŃáī¶áĭ¶áĬŃáĪµ
áĮĪáĮį áī³
Ġáĭ¨áĪļáĭĪáĭ± áīµáĬķ
áĮł áĮ£áīµ
áĬł áĪµáī³áĭįáĪµ
ĠáĬ¥áĭ« áĪį
5 2
áĪĭ áĬ¬
Ġáĭ¨áī¦ áī³
áĪĽ áĪĺáĬĳ
ĠáĪĲ áĭįáĪįáīµ
ĠáĪĺáī° áī£áīłáĪŃ
ĠáĬłáīħáĪŃáī¦ áī¶áī½
ĠáĭĪáĬķáĭŀ áī½
F C
Ġáĭ¨ áĪ¦áĪµáīµ
áĬ¨ áĬ¥
áĬª áĭ®
Ġáĭ¨áĪĿáīµ áįĪáĪįáĮĪáĭį
ĠáīłáĪ° áĬķáīłáīµ
ĠáīħáĬķ áĮ£áīµ
Ġáĭ¨áĬķ áī£áī¥
ĠáīĢáĮ£áĭ© áĬķ
Ġáĭ¨áī°áįĪáĮłáĪ¨ áĭįáĬķ
áĬĲáĮįáĪ« áī½áĪģ
Ġáįĵáīµ áĪŃáĭ«
áĪĿ áī¤
áĪĺ áĭ³áĬķ
ĠáĪĢ áĬªáĪĿ
Ġáĭ¨áĪĺáī³ áĮłáī¢áĭ«
ĠáįĲ áĪŃ
: .
Ġáīł áįķáĪĭ
ĠáĭŃ áĭĿ
áī£ áī½
ĠáĪĮ áīµ
ĠáĬ¨áĪĨáĬĲ áĪĿ
ĠáĬłáīµ áīłáĪī
Ġáī´ áĭ²
ĠáĪĪáĪį áĮĨáī¹
Ġáīłáī± áĪŃáĬŃ
ĠáĪŀáĬ¨áĪŃ áĬ©
áĭŃ áĭµáĪ®
Ġáĭ¨áī° áĪ°áĮ£áī¸áĭį
ĠáĬ¥áĭ¨ áĪĺáĮ¡
ĠáĬ¥áĪŃ áĭ³áĬĿ
ĠáĪµáĪį áĬ©
áĮ® áĬ½
ĠáĬ¥ áĬļáĪħ
áĪĺ áĬķáĮįáĪ¥
ĠáĮł áĬķáīĭ
ĠáīłáĪĻ áĭ«
ĠáĬłáĭ°áĪ¨ áĪ³áī½áĪģ
ĠáīłáįĢ áĪĲáĭŃ
ĠáĬ¥ áīĢáĮ¥
Ġáī° áĬĲáĮĭáĮį
áĬĳ áĬ¤áĪį
áī¤ áī·
ĠáĬ¨áī° áĪ°
áĪµáī¥ áĪ°áī£
áĪµáī³áĭĪ áīµ
ĠáĬł áĪ®áĬķ
Ġáĭ¨áĪļ áĮ£áĪį
ĠáīłáĪļ áĪĨáĬĳ
ĠáĬ¨áĬł áī£áīµ
Ġáĭ¨áĮĪ áĮłáĪŃ
ĠáĬłáĭ°áĮĭ áĬķ
ĠðŁĳ ī
X X
áī¶ áĪĿ
ĠáĮįáī¥ áĭĵáīµ
Ġáĭ¨áĭĺ áĪĺáĬķ
ĠáĬŃáĪŃáĪµáī²áĭ«áĬķ áĬķ
ĠáĬłáĬŃáĪĬ áĪį
ĠS ams
Ġáī£áĪķ áĪŃáĭ«áīµ
ĠáĭĪáĪ¨áĪŃáĪ½ áĬĻ
ĠáĬ¥ áĪĽáĪĽ
áĮł áĪ¨áĪĿ
áĪī áĬĵ
ĠáĪ² áĪ°áĪ©
âĢ ²
áĬĥ áĪį
áĬĲáĮį áĪ¨áĬĿ
ĠU n
ĠáĪĲáĬª áĪŀáī½
ĠáĬŃáįįáī° áī¶áī½
6 5
Ġáĭ¨áĪļ áĪŀ
ĠáĪĢ áĪĭáįĬ
ĠáĮ¥áĭ«áīĦ áĬķ
ĠáĭŃáĪĺáĪµ áĪĭáī½áĬĭáĪį
ĠA PS
ĠáĭľáĬĵ áĭİáī½áĬķ
Ġáĭ«áĪĭ áīµáĬķ
ĠáĭµáĬŃ áĪĺáīµ
ĠáĭĪ áĪ³
Ġáĭ¨áĪļ áĭĪáĮ¡
ĠáĪ° áĬł
ĠáĬ¥áĬķ áĬ©
áĪ¸ áĮī
áĪ°áīł áĪ°áī¥
Ġáĭ¨áĬłáĮĪ áĪªáī±áĬķ
áĮĭáĬĴ áĪµáī³áĬķ
ĠáĬ¥áĬĵ áī·
áĭ³ áĪ®áī½
Ġáī¤áīµ áĪħ
Ġáī¥ áĬłáĭ´áĬķ
Ġáĭ¨áī° áĮįáī£áĪŃ
áĮįáī¥ áĪ©
Ġáĭ¨áĪĿáīµ áĪį
ĠáĬ¨áĪļ áĬ¨áī°áĪīáīµ
ĠáĭµáĬķ áīł
ĠáĭŃáĮĪáĪĪ áĮ»áĪį
ĠáĭĪ áĬķáĭĻ
ĠáĮİ áĪŃáįį
ĠáĪĽáĪµáī° áĪŃ
ĠáīµáĪĿáĪħáĪŃ áī³áī¸áĭįáĬķ
áĪ³ áīµáĪĿ
áĭ¨ áĪĽáĭŃ
ĠáĪĬ áīĨáĭŃ
ĠáīłáĪŃ áī±
ĠáĪŃ áĬ©áĪµ
áĬķáĭ° áĪ©
áĭįáīĥ áĪĪáĪģ
Ġáĭ¨ áĪĦáĭ°
Ġáī° áĬ¨áī¥
ĠáīłáĪĺ áįį
ĠáĬłáĪĪ áīĢáĪ°
ĠáĬłáĪį áĬ®áĪį
ĠáĬ¥áĬķáĭ³ áĭ°áĪ¨áĮį
Ġáī°áĭĪáĭ³áĮħ áĬĲáīµ
ĠáīłáĪĥ áĭŃáĪĽáĬĸáīµ
áĮłáįī áĪĿ
ĠáĮłáĬķáĬŃ áĪ®
ĠáĬ¥áĬķáĪ°áĮ¥ áĭİáī³áĪĪáĬķ
Ġáīł áĭĿáĪĿáī³
[...]
