{
  "version": "1.0",
  "truncation": null,
  "padding": null,
  "added_tokens": [
    {
      "id": 0,
      "content": "<unk>",
      "single_word": false,
      "lstrip": false,
      "rstrip": false,
      "normalized": false,
      "special": true
    },
    {
      "id": 1,
      "content": "<s>",
      "single_word": false,
      "lstrip": false,
      "rstrip": false,
      "normalized": false,
      "special": true
    },
    {
      "id": 2,
      "content": "</s>",
      "single_word": false,
      "lstrip": false,
      "rstrip": false,
      "normalized": false,
      "special": true
    },
    {
      "id": 3,
      "content": "<pad>",
      "single_word": false,
      "lstrip": false,
      "rstrip": false,
      "normalized": false,
      "special": true
    },
    {
      "id": 4,
      "content": "<mask>",
      "single_word": false,
      "lstrip": false,
      "rstrip": false,
      "normalized": false,
      "special": true
    }
  ],
  "normalizer": {
    "type": "NFC"
  },
  "pre_tokenizer": {
    "type": "ByteLevel",
    "add_prefix_space": true,
    "trim_offsets": true,
    "use_regex": true
  },
  "post_processor": null,
  "decoder": {
    "type": "ByteLevel",
    "add_prefix_space": true,
    "trim_offsets": true,
    "use_regex": true
  },
  "model": {
    "type": "BPE",
    "dropout": null,
    "unk_token": "<unk>",
    "continuing_subword_prefix": null,
    "end_of_word_suffix": null,
    "fuse_unk": false,
    "byte_fallback": false,
    "ignore_merges": false,
    "vocab": {
      "<unk>": 0,
      "<s>": 1,
      "</s>": 2,
      "<pad>": 3,
      "<mask>": 4,
      "!": 5,
      "\"": 6,
      "#": 7,
      "$": 8,
      "%": 9,
      "&": 10,
      "'": 11,
      "(": 12,
      ")": 13,
      "*": 14,
      "+": 15,
      ",": 16,
      "-": 17,
      ".": 18,
      "/": 19,
      "0": 20,
      "1": 21,
      "2": 22,
      "3": 23,
      "4": 24,
      "5": 25,
      "6": 26,
      "7": 27,
      "8": 28,
      "9": 29,
      ":": 30,
      ";": 31,
      "<": 32,
      "=": 33,
      ">": 34,
      "?": 35,
      "@": 36,
      "A": 37,
      "B": 38,
      "C": 39,
      "D": 40,
      "E": 41,
      "F": 42,
      "G": 43,
      "H": 44,
      "I": 45,
      "J": 46,
      "K": 47,
      "L": 48,
      "M": 49,
      "N": 50,
      "O": 51,
      "P": 52,
      "Q": 53,
      "R": 54,
      "S": 55,
      "T": 56,
      "U": 57,
      "V": 58,
      "W": 59,
      "X": 60,
      "Y": 61,
      "Z": 62,
      "[": 63,
      "\\": 64,
      "]": 65,
      "^": 66,
      "_": 67,
      "`": 68,
      "a": 69,
      "b": 70,
      "c": 71,
      "d": 72,
      "e": 73,
      "f": 74,
      "g": 75,
      "h": 76,
      "i": 77,
      "j": 78,
      "k": 79,
      "l": 80,
      "m": 81,
      "n": 82,
      "o": 83,
      "p": 84,
      "q": 85,
      "r": 86,
      "s": 87,
      "t": 88,
      "u": 89,
      "v": 90,
      "w": 91,
      "x": 92,
      "y": 93,
      "z": 94,
      "{": 95,
      "|": 96,
      "}": 97,
      "~": 98,
      "¡": 99,
      "¢": 100,
      "£": 101,
      "¤": 102,
      "¥": 103,
      "¦": 104,
      "§": 105,
      "¨": 106,
      "©": 107,
      "ª": 108,
      "«": 109,
      "¬": 110,
      "®": 111,
      "¯": 112,
      "°": 113,
      "±": 114,
      "²": 115,
      "³": 116,
      "´": 117,
      "µ": 118,
      "¶": 119,
      "·": 120,
      "¸": 121,
      "¹": 122,
      "º": 123,
      "»": 124,
      "¼": 125,
      "½": 126,
      "¾": 127,
      "¿": 128,
      "Â": 129,
      "Ã": 130,
      "Ä": 131,
      "Å": 132,
      "Æ": 133,
      "Ç": 134,
      "È": 135,
      "É": 136,
      "Ê": 137,
      "Ë": 138,
      "Ì": 139,
      "Í": 140,
      "Î": 141,
      "Ï": 142,
      "Ð": 143,
      "Ñ": 144,
      "Ò": 145,
      "Ó": 146,
      "Ô": 147,
      "Õ": 148,
      "Ö": 149,
      "×": 150,
      "Ø": 151,
      "Ù": 152,
      "Ú": 153,
      "Û": 154,
      "Ü": 155,
      "Þ": 156,
      "ß": 157,
      "à": 158,
      "á": 159,
      "â": 160,
      "ã": 161,
      "ä": 162,
      "å": 163,
      "æ": 164,
      "ç": 165,
      "è": 166,
      "é": 167,
      "ê": 168,
      "ë": 169,
      "ì": 170,
      "í": 171,
      "ï": 172,
      "ð": 173,
      "Ġ": 174,
      "Ģ": 175,
      "ģ": 176,
      "Ĥ": 177,
      "ĥ": 178,
      "Ħ": 179,
      "ħ": 180,
      "Ĩ": 181,
      "ĩ": 182,
      "Ī": 183,
      "ī": 184,
      "Ĭ": 185,
      "ĭ": 186,
      "Į": 187,
      "į": 188,
      "İ": 189,
      "ı": 190,
      "Ĳ": 191,
      "ĳ": 192,
      "Ĵ": 193,
      "ĵ": 194,
      "Ķ": 195,
      "ķ": 196,
      "ĸ": 197,
      "Ĺ": 198,
      "ĺ": 199,
      "Ļ": 200,
      "ļ": 201,
      "Ľ": 202,
      "ľ": 203,
      "Ŀ": 204,
      "ŀ": 205,
      "Ł": 206,
      "ł": 207,
      "Ń": 208,
      "áĪ": 209,
      "áĬ": 210,
      "áĭ": 211,
      "áī": 212,
      "áĮ": 213,
      "ĠáĬ": 214,
      "Ġáĭ": 215,
      "ĠáĪ": 216,
      "áĬķ": 217,
      "áį": 218,
      "Ġáī": 219,
      "áīµ": 220,
      "áĭį": 221,
      "áĪĿ": 222,
      "áĪŃ": 223,
      "áĪį": 224,
      "Ġáĭ¨": 225,
      "ĠáĬ¥": 226,
      "ĠáĬł": 227,
      "áĪĪ": 228,
      "Ġáīł": 229,
      "áĪµ": 230,
      "áį¢": 231,
      "áī½": 232,
      "ĠáĮ": 233,
      "áĪĺ": 234,
      "áĭŃ": 235,
      "áĬĵ": 236,
      "áī°": 237,
      "áĬķáĭ": 238,
      "áĭ«": 239,
      "áĮĪ": 240,
      "ĠáĪĺ": 241,
      "áĪĭ": 242,
      "áĬĲ": 243,
      "ĠáĬĲ": 244,
      "áĮį": 245,
      "áĪħ": 246,
      "áĪ¨": 247,
      "ĠáĭŃ": 248,
      "áī¥": 249,
      "áīł": 250,
      "áĭ°": 251,
      "áĪ«": 252,
      "áī³": 253,
      "áĪĽ": 254,
      "áĭµ": 255,
      "ĠáĬ¨": 256,
      "ĠáĪĪ": 257,
      "áĪļ": 258,
      "áĮ¥": 259,
      "áĪī": 260,
      "Ġáį": 261,
      "áĪ°": 262,
      "áĭİ": 263,
      "áī£": 264,
      "ĠáĬ¥áĬķáĭ": 265,
      "áĬŃ": 266,
      "ĠáĬĲáĭį": 267,
      "áĮł": 268,
      "áīĢ": 269,
      "áĪģ": 270,
      "Ġáī°": 271,
      "Ġáĭ«": 272,
      "áīħ": 273,
      "áĬł": 274,
      "ĠáĭĪ": 275,
      "áī¸": 276,
      "áĪ³": 277,
      "áĪĨ": 278,
      "áĬ¨": 279,
      "áĭĪ": 280,
      "áĭļ": 281,
      "áįį": 282,
      "áĬĽ": 283,
      "ĠáĪĽ": 284,
      "áĪª": 285,
      "áĬ¥": 286,
      "áī¸áĭį": 287,
      "ĠáĪµ": 288,
      "áĮ£": 289,
      "áįĪ": 290,
      "ĠáĪĿ": 291,
      "Ġáĭ¨áĪļ": 292,
      "ĠáĬ¥áĬĵ": 293,
      "áĭİáī½": 294,
      "áĮĭ": 295,
      "áĭ¨": 296,
      "áĬ«": 297,
      "áĭĭ": 298,
      "áĭ³": 299,
      "Ġáī¥": 300,
      "Ġáĭį": 301,
      "Ġáį¢": 302,
      "áī±": 303,
      "áī¶": 304,
      "ĠáĪĭ": 305,
      "ĠáĪ°": 306,
      "ĠáĬ¥áĬķáĭ°": 307,
      "áĪ±": 308,
      "áĪ©": 309,
      "áĬĿ": 310,
      "áĪ®": 311,
      "ĠáĮį": 312,
      "ĠáĪĭáĭŃ": 313,
      "áīĥ": 314,
      "áĬķáĭµ": 315,
      "ĠáĪģ": 316,
      "áĭļáĪħ": 317,
      "áĬĲáīµ": 318,
      "áĬĶ": 319,
      "Ġáĭ¨áī°": 320,
      "áī»": 321,
      "áĪµáĮ¥": 322,
      "áĬĸ": 323,
      "ĠáĬłáĭŃ": 324,
      "áĪİ": 325,
      "áĭĿ": 326,
      "áĬĳ": 327,
      "áĬķáĪĿ": 328,
      "Ġáīµ": 329,
      "Ġáĭ°": 330,
      "Ġ\"": 331,
      "ĠáĭįáĪµáĮ¥": 332,
      "ĠáĭŃáĪħ": 333,
      "áĮĪáĪŃ": 334,
      "áĭľ": 335,
      "áĪŀ": 336,
      "áĪĪáĭį": 337,
      "áī½áĬķ": 338,
      "ĠáĮ¥": 339,
      "ĠáĪį": 340,
      "Ĭáĭľ": 341,
      "áĪ½": 342,
      "áĪĪáĪĿ": 343,
      "áĭĬ": 344,
      "ĠáīĢ": 345,
      "áīłáĪŃ": 346,
      "áį¤": 347,
      "ĠáĭĪáĭ°": 348,
      "ĠáĮĬáĭľ": 349,
      "áīłáīµ": 350,
      "ĠáĬ¥áĬķ": 351,
      "áĭĺ": 352,
      "ĠáĮįáĬķ": 353,
      "ĠáĬ¥áĬķáĭ²": 354,
      "Ġáī£": 355,
      "ĠáĪĪáĪĺ": 356,
      "áĮħ": 357,
      "áĪĨáĬķ": 358,
      "ĠáĪµáĪĪ": 359,
      "ĠáĬłáĪµ": 360,
      "áį£": 361,
      "ĠáīłáĪĺ": 362,
      "áĪ»": 363,
      "Ġáį£": 364,
      "áĪªáĭ«": 365,
      "áĬ©": 366,
      "áĮĢ": 367,
      "áĭįáĬķ": 368,
      "áįĭ": 369,
      "áī¶áī½": 370,
      "ĠáĮĭ": 371,
      "áĪĪáĪģ": 372,
      "áĭĽ": 373,
      "Ġáĭĵ": 374,
      "ĠáĪ²": 375,
      "áĪĭáĪį": 376,
      "..": 377,
      "ĠáĬłáĪĪ": 378,
      "áĭ²": 379,
      "áī¡": 380,
      "ĠáĪĬ": 381,
      "ĠáĪģáĪī": 382,
      "áĮī": 383,
      "ĠáĪĪáĪĽ": 384,
      "ĠáĬŃ": 385,
      "ĠáĬĲáĮĪáĪŃ": 386,
      "áĪĮ": 387,
      "Ġ1": 388,
      "áĪĻ": 389,
      "áĪĨáĬĲ": 390,
      "áĪ¬": 391,
      "Ġáĭµ": 392,
      "Ġáĭ¨áĪĺ": 393,
      "áĪĪáīµ": 394,
      "áī¢": 395,
      "ĠáīłáĬł": 396,
      "ĠáĬĲáīłáĪŃ": 397,
      "ĠáĮĪ": 398,
      "áĮ¨": 399,
      "ĠáĮĭáĪŃ": 400,
      "áĭĻ": 401,
      "áĭĭáĪį": 402,
      "áĪŃáĪµ": 403,
      "áįĬ": 404,
      "Ġáĭĺ": 405,
      "Ġáī³": 406,
      "ĠáĬłáĬķáĭµ": 407,
      "áīģ": 408,
      "áīĨ": 409,
      "Ġáį¡": 410,
      "ĠáĪĨ": 411,
      "ĠáīłáĬ¥": 412,
      "Ġáīłáī°": 413,
      "Ġ2": 414,
      "áĮ½": 415,
      "ĠáĬłáĪį": 416,
      "Ġ(": 417,
      "áĮĥ": 418,
      "áī½áĪģ": 419,
      "áĭ®": 420,
      "áī¹": 421,
      "áī°áĬĽ": 422,
      "áĭĵ": 423,
      "ĠáĪĺáĬķ": 424,
      "Ġáĭ¨áĬł": 425,
      "âĢ": 426,
      "áĭ©": 427,
      "áĮ«": 428,
      "Ġáĭ¨áĬ¥": 429,
      "áĮŃ": 430,
      "áĬķáī°": 431,
      "áĪľ": 432,
      "áĪµáīµ": 433,
      "áįĪáĪį": 434,
      "áĪĥ": 435,
      "áī²": 436,
      "áĭ±": 437,
      "ĠáĬĵ": 438,
      "áĬĵáĪį": 439,
      "Ġáĭ¨áĪĿ": 440,
      "ĠáĭĪáĭŃ": 441,
      "Ġáī¤": 442,
      "ĠáĭŃáī½": 443,
      "áīĤ": 444,
      "ĠáĬ¥áĬĶ": 445,
      "áĪĨáĬĳ": 446,
      "áīµáĬķ": 447,
      "áĭķ": 448,
      "áĪĬ": 449,
      "áĪĦ": 450,
      "áĭ°áĪŃ": 451,
      "áĮ£áĪĿ": 452,
      "áī¤": 453,
      "áĪĶ": 454,
      "ĠáĬ¥áĬĲ": 455,
      "Ġáįį": 456,
      "áĮ¡": 457,
      "áĪĪáĬķ": 458,
      "ĠáĬ«": 459,
      "áĮİ": 460,
      "Ġáī¢": 461,
      "áĭµáĪŃ": 462,
      "ĠáĪ³": 463,
      "ĠáīłáĮ£áĪĿ": 464,
      "áĪģáĬķ": 465,
      "ĠáĮł": 466,
      "ĠáĪ°áĭį": 467,
      "ĠáīłáĬ": 468,
      "áĭ°áĪ¨": 469,
      "áĪ¥": 470,
      "áī¦": 471,
      "Ġáĭ¨áĪļáĭ«": 472,
      "áī´": 473,
      "áĬłáī¥": 474,
      "áĬĺ": 475,
      "áĭµáĪ¨": 476,
      "ĠáĬłáĭŃáĭ°": 477,
      "Ġ-": 478,
      "Ġáĭ¨áĪĽ": 479,
      "ĠáĮī": 480,
      "áĮįáĭļ": 481,
      "ĠáĪĿáĬķ": 482,
      "ĠáĬ¥áĭ¨": 483,
      "áĬ®": 484,
      "áĭļáĭ«": 485,
      "Ġáī¥áĭĻ": 486,
      "áīłáĪ¨": 487,
      "ĠáįĪ": 488,
      "áĪŃáĪ±": 489,
      "Ġáīħ": 490,
      "áĮįáĭļáĬłáī¥": 491,
      "ĠáĬ¢": 492,
      "ĠáĬłáĬķáĭ": 493,
      "áĪĶáĪŃ": 494,
      "ĠáĭĪáĭŃáĪĿ": 495,
      "áĪ«áīµ": 496,
      "áĪµáī°": 497,
      "Ġáī¥áī»": 498,
      "ĠáĬ¥áĪµ": 499,
      "áĮįáĭļáĬłáī¥áĪĶáĪŃ": 500,
      "ĠáĪķ": 501,
      "áĬķáĭ«": 502,
      "áĪĿáĬķ": 503,
      "áī¸áĭįáĬķ": 504,
      "áĮĪáī£": 505,
      "áĪĭáĭŃ": 506,
      "ĠáĬĵáī¸áĭį": 507,
      "ĠáĪħ": 508,
      "áĪ®áī½": 509,
      "ĠáĭŃáĪħáĬķ": 510,
      "áĮĢáĪĺ": 511,
      "áīĭ": 512,
      "ĠáĬ¥áĬķáĭ³": 513,
      "ĠáĪĮ": 514,
      "áĭįáĪĿ": 515,
      "´áīµ": 516,
      "ĠáīłáĭļáĪħ": 517,
      "áĪĭáĪī": 518,
      "áĬŀ": 519,
      "áĪķ": 520,
      "ĠáĬ¥áĬķáĭ°áĪļ": 521,
      "ĠáīłáĪĽ": 522,
      "ĠáĪĺáĪį": 523,
      "ĠáĪ°áĭİáī½": 524,
      "áĪ¨áīµ": 525,
      "ĠáĬķ": 526,
      "Ġáĭ°áĮį": 527,
      "áĬĴ": 528,
      "ĠáĪ¥": 529,
      "áĪ¨áĮĥ": 530,
      "áĪ¸": 531,
      "áĮĨ": 532,
      "áį¥": 533,
      "áī³áĪį": 534,
      "áĪĺáĪĪ": 535,
      "ĠáĭĵáĪĺ": 536,
      "ĠáĪĿáĬŃ": 537,
      "Ġáĭ°áĮįáĪŀ": 538,
      "áĪİáī½": 539,
      "áĪł": 540,
      "áĪŃáīµ": 541,
      "áĮĪáĭµ": 542,
      "áĪ²": 543,
      "áĭ¬": 544,
      "áīµáĪĿ": 545,
      "ĠáĬ¨áĬ¥": 546,
      "áĪĽáĪª": 547,
      "ĠáĬ¥áĭ«": 548,
      "ĭáĪĭ": 549,
      "ĠáĬłáĭŃáĭ°áĪĪáĪĿ": 550,
      "áĭ¶": 551,
      "áįī": 552,
      "Ġáĭ«áĪĪ": 553,
      "...": 554,
      "áĪĲ": 555,
      "áĪĭáī¸áĭį": 556,
      "âĢ¹": 557,
      "áīħáĪŃ": 558,
      "áĬĻ": 559,
      "áĬķáĮį": 560,
      "áĬ¤": 561,
      "ĠáĬ¨áī°": 562,
      "ĠáĬłáĮĪ": 563,
      "áĭ«áĬķ": 564,
      "áī±áĬķ": 565,
      "áĭµáĪ¨áĮį": 566,
      "áĪ´": 567,
      "áĪ°áī¥": 568,
      "áĪįáĪĿ": 569,
      "Ġáĭĭ": 570,
      "ĠáīłáĪļ": 571,
      "áĬ³": 572,
      "áĪŃáĪµáĭİ": 573,
      "áĮĤ": 574,
      "Ġáĭ«áĪĪáĭį": 575,
      "ĠáĬłáĪģáĬķ": 576,
      "ĠáĪĻ": 577,
      "ĠáĪļ": 578,
      "ĠáĬ¥áĬĽ": 579,
      "ĠáĪĢ": 580,
      "ĠáĪĺáĪµ": 581,
      "áĮ»": 582,
      "áĬª": 583,
      "Ġáīģ": 584,
      "ĠáĭŃáī½áĪĭáĪį": 585,
      "áĭ¨áīµ": 586,
      "áĪ¶": 587,
      "ĠáīłáĬĭáĪĭ": 588,
      "Ġáī½": 589,
      "áĪĺáĪµ": 590,
      "áįĥ": 591,
      "ĠáīĢáĬķ": 592,
      "áĭŃáĭĪ": 593,
      "áĪĺáĪį": 594,
      "áĬ¨áĪį": 595,
      "áī£áīµ": 596,
      "ĠáĪĿáĬŃáĬķáĭ«": 597,
      "áĮłáīĢ": 598,
      "ĠáĮīáĭ³": 599,
      "áĭİáī½áĬķ": 600,
      "áĬĲáĭį": 601,
      "áī³áīµ": 602,
      "ĠáĭĿ": 603,
      "áĪĺáĬķ": 604,
      "áī·": 605,
      "Ġáī£áĪĪ": 606,
      "ĠáĬłáĪĿ": 607,
      "Ġ3": 608,
      "Ġ.": 609,
      "Ġáĭ«áĪµ": 610,
      "áĬ¨áī°": 611,
      "áĬĶáī³": 612,
      "00": 613,
      "ĠáĪĽáĬķ": 614,
      "ĠáĪĪáĬ¥": 615,
      "Ġáĭķ": 616,
      "âĢº": 617,
      "Ġáī¦": 618,
      "ĠáĬŃáįį": 619,
      "áĮĬ": 620,
      "áĮĢáĪĺáĪªáĭ«": 621,
      "áĮ¸": 622,
      "áĬĸáĪŃ": 623,
      "ĠáĬĲáĮĪ": 624,
      "áīħáĪĿ": 625,
      "ĠáĪģáĬĶáī³": 626,
      "ĠáĪĿáĪŃ": 627,
      "áĬĽáĪį": 628,
      "áįİ": 629,
      "ĠáĬłáĬķ": 630,
      "áĮįáĪŃ": 631,
      "ĠáĪĽáĪĪáīµ": 632,
      "Ġáī¤áīµ": 633,
      "áĪīáĪĿ": 634,
      "áįĬáīµ": 635,
      "ĠáĬłáĪĭ": 636,
      "áĪ¨áĭį": 637,
      "ĠáĬ¥áĬķáĭ´áīµ": 638,
      "áīĦ": 639,
      "ĠáĭŃáī½áĪĭáĪī": 640,
      "áĭ²áĪµ": 641,
      "áįħ": 642,
      "ĠáĬ¥áĪŃ": 643,
      "ĠáĪĿáĬķáĪĿ": 644,
      "áĬĵáīµ": 645,
      "áĭ«áĭį": 646,
      "áĪīáīµ": 647,
      "ĠáĮĢ": 648,
      "áī¼": 649,
      "ĠáĬłáī¥": 650,
      "ĠáĬ¨áĬł": 651,
      "áĪ«áĪį": 652,
      "ĠáĬłáĪµáī°": 653,
      "áĭ´": 654,
      "áĮĪáĬĵ": 655,
      "áĪĭáīµ": 656,
      "Ġáīĥ": 657,
      "áĬĽáĭį": 658,
      "áĪ°áĪĽ": 659,
      "áĬĺáīµ": 660,
      "ĠáĬ¥áĬķáĭ²áĪħ": 661,
      "ĠáĮ¨": 662,
      "ĠáĬ¥áĮįáĭļáĬłáī¥áĪĶáĪŃ": 663,
      "áĪªáĬ«": 664,
      "ĠáīłáĪĭáĭŃ": 665,
      "áĬķáĭ³": 666,
      "ĠáĬłáĬ«": 667,
      "áĪµáī³": 668,
      "áĪĺáĮ£": 669,
      "áĪĺáĪŃ": 670,
      "áĪ³áĭŃ": 671,
      "áĬŀáī½": 672,
      "áĮĵ": 673,
      "áĪħáĬķ": 674,
      "áīĢáĪŃ": 675,
      "áī±áĪĿ": 676,
      "áĪ«áĭĬ": 677,
      "ĠáĪµáĪĪáĭļáĪħ": 678,
      "áĪĪáĭ«": 679,
      "áĪ¨áĪµ": 680,
      "áįĸ": 681,
      "ĠáĪĺáĬķáĮĪáĭµ": 682,
      "áĬ¢": 683,
      "ĠáĪĺáĮł": 684,
      "ĠáĬ¨áįį": 685,
      "ĠáĪ«": 686,
      "ĠáĬ¨áĪĺ": 687,
      "áĪ°áĭį": 688,
      "ĠáĮ¥áĪ©": 689,
      "áī£áī¸áĭį": 690,
      "ĠáĪŀ": 691,
      "ĠáĭŃáĪĨ": 692,
      "Ġáī¦áī³": 693,
      "áį¡": 694,
      "ĠáĬ¥áĭį": 695,
      "áĪĢ": 696,
      "ĠáĪ¥áĪ«": 697,
      "áĪĪáī½": 698,
      "áĮ¨áĪĽáĪª": 699,
      "áī¢áĭ«": 700,
      "áĮ¤": 701,
      "ĠáĪĨáĬĸ": 702,
      "áīłáĪ©": 703,
      "áĮįáī£": 704,
      "ĠáĬ¥áĪ±": 705,
      "Ġ20": 706,
      "ĠáĪģáĪīáĪĿ": 707,
      "áĭī": 708,
      "áĪįáīħ": 709,
      "ĠáĭĽ": 710,
      "ĠáĪĮáĪĭ": 711,
      "ĠáĬ¥áĪµáĬ¨": 712,
      "ĠáĬłáĬķáī°": 713,
      "ĠáĬłáĭį": 714,
      "ĠáĬ¥áĬĲáĭļáĪħ": 715,
      "ĠáĬłáĪī": 716,
      "ĠáĪ³áĭŃ": 717,
      "ĠáĭĵáĪĺáīµ": 718,
      "áī¥áĪŃ": 719,
      "áĭĿáī¥": 720,
      "áįĪáĪįáĮĭ": 721,
      "ĠáĬłáĪĺ": 722,
      "áĭĪáīħ": 723,
      "áĬĲáīłáĪ¨": 724,
      "áĭ«áĪµ": 725,
      "áĮĨáī½": 726,
      "ĠáĬłáĬķáĭ³": 727,
      "áī£áĪį": 728,
      "áĮłáīĥ": 729,
      "áĪħáĪį": 730,
      "áįķ": 731,
      "ĠáĪĺáĬ«": 732,
      "ĠáīĨ": 733,
      "Ġáĭ¨áīł": 734,
      "áĪ°áĪ«": 735,
      "áĬ¨áīµ": 736,
      "Ġáįķ": 737,
      "áĪĪáĪħ": 738,
      "ĠáĬ¨áĭļáĪħ": 739,
      "áĪĿáĪ®": 740,
      "áĮ¨áĪ¨": 741,
      "ĠáĭŃáĪĨáĬĵáĪį": 742,
      "ĠáĪĺáĬķáĮį": 743,
      "áĭĪáĪ°": 744,
      "áĪĭáī½áĪģ": 745,
      "ĠáĬ®": 746,
      "Ġáĭ³": 747,
      "ĠáĪĥ": 748,
      "áī¦áī½": 749,
      "ĠáĭµáĪŃ": 750,
      "áĭİáī¹": 751,
      "ĠáĬĥ": 752,
      "ĠâĢ¹": 753,
      "áĭŃáĭĪáīµ": 754,
      "Ġáĭ¨áĪĨáĬĲ": 755,
      "áĮ¥áĪŃ": 756,
      "áĮ£áīµ": 757,
      "áĬŃáīµ": 758,
      "ĠáĬ¥áĬķáĬ³": 759,
      "ĠáīłáīĢ": 760,
      "áī³áĭį": 761,
      "ĠáĬłáĭµáĪŃ": 762,
      "ĠáĬ¥áĬķáĭ²áĪģ": 763,
      "ĠáĬ¨áĪĨáĬĲ": 764,
      "Ġ4": 765,
      "ĠáĭĽáĪ¬": 766,
      "ĠáĪĪáĬł": 767,
      "ĠáĪĽáĭµáĪ¨áĮį": 768,
      "áĬķáĭĺ": 769,
      "áĮįáĬĺáīµ": 770,
      "áĭŃáĪį": 771,
      "áĭŀ": 772,
      "Ġáī¥áĪİ": 773,
      "áĪĿáĪħ": 774,
      "áīłáĪį": 775,
      "áĬķáĭ±": 776,
      "áĭ«áīĦ": 777,
      "áĮĮ": 778,
      "áĮ¦": 779,
      "ĠáīłáįĬáīµ": 780,
      "ĠáĭĵáĭŃ": 781,
      "Ġáĭ°áĪ¨áĮĥ": 782,
      "áĭİáĬķ": 783,
      "áī°áĭį": 784,
      "áĪ£": 785,
      "Ġ5": 786,
      "áī·áĪį": 787,
      "ĠáĪįáĮħ": 788,
      "áĪĿáĪŃ": 789,
      "áĪĭáĬŃ": 790,
      "ĠáĬ¥áĭ¨áī°": 791,
      "ĠáĬłáīµ": 792,
      "áĭĵáīµ": 793,
      "Ġáĭ¨áĪĪáĪĿ": 794,
      "ĠáĪĺáĬ«áĬ¨áĪį": 795,
      "ĠáĬ¨áĭļáĭ«": 796,
      "áįĢ": 797,
      "ĠáĬłáĪĽ": 798,
      "áĮĪáĭį": 799,
      "áĪ·": 800,
      "áįįáīµ": 801,
      "ĠáĪĨáĬĲ": 802,
      "ĠáįĬ": 803,
      "ĠáĬ¥áĪŃáĪ±": 804,
      "ĠáĪĺáĪĨáĬĳ": 805,
      "áĮįáī¥": 806,
      "áĬķáĪµ": 807,
      "ĠáĭµáĪ¨áĪµ": 808,
      "Ġáĭ«áĪį": 809,
      "áįĵ": 810,
      "áĮ¨áĪ¨áĪ»": 811,
      "áī½áĪį": 812,
      "áĪ¨áĮĭ": 813,
      "áįĪáĪĪ": 814,
      "Ġáĭ¨áĭĪ": 815,
      "ĠáĮ¥áĭ«áīĦ": 816,
      "áĪļáĭ«": 817,
      "áĬĵáĮĪ": 818,
      "áīµáĭ®": 819,
      "áĬŃáĪį": 820,
      "áĪ¨áĭ³": 821,
      "áĮłáĪŃ": 822,
      "áĪįáĮį": 823,
      "ĠáĬłáĭ²áĪµ": 824,
      "áĬķáīµ": 825,
      "áĪĦáĭµ": 826,
      "áĮµ": 827,
      "áī³áĭĬ": 828,
      "áĪĪáĮł": 829,
      "ĠáĭŃáĪħáĬķáĬķ": 830,
      "ĠáĬłáī£": 831,
      "áī£áī¢": 832,
      "áĪı": 833,
      "Ġáĭ¨áīµ": 834,
      "ĠáĪĺáĪ¨áĮĥ": 835,
      "áĪŃáĮį": 836,
      "Ġáī°áĪĺ": 837,
      "áĬĸáī½": 838,
      "áĪ³áīµ": 839,
      "ĠáĭĺáĬķáĭµ": 840,
      "ĠáĪµáĪĿ": 841,
      "áĪŃáĭµ": 842,
      "áĬĽáĭįáĪĿ": 843,
      "ĠáĪĺáĪĨáĬķ": 844,
      "áĮįáĪį": 845,
      "ĠáĮ£": 846,
      "áĮģ": 847,
      "ĠáĬ¥áĮħ": 848,
      "áĬķáĬķ": 849,
      "áīµáĭ®áĮµ": 850,
      "ĠáĮīáĭ³áĭŃ": 851,
      "áĪ±áĪµ": 852,
      "ĠáĬ¤": 853,
      "áĬķáĭĺáī¥": 854,
      "ĠáĪģáĪĪáīµ": 855,
      "Ġáĭ«áĪħáĪį": 856,
      "Ġáī¤áī°": 857,
      "ĠáĮİ": 858,
      "áĭµáĬķ": 859,
      "ĠáĬłáĪµáįĪ": 860,
      "ĠáĬ¥áĬķáĮĤ": 861,
      "ĠáĬ¥áĭļáĪħ": 862,
      "áĪİáīµ": 863,
      "áĪµáįĭ": 864,
      "ĠáĬłáĬķáĭ±": 865,
      "re": 866,
      "áĪĿáĬĵ": 867,
      "áĮįáĪ«": 868,
      "ĠáĭŃáĪĦ": 869,
      "áĭ¨áĪ±áĪµ": 870,
      "áī³áī¸áĭį": 871,
      "áī¶áī½áĬķ": 872,
      "áĪĽáīµ": 873,
      "ĠáĪģáĪĪ": 874,
      "áĮĪáĬĺ": 875,
      "áĪªáĬŃ": 876,
      "ĠáĭŃáĮĪ": 877,
      "áĪ°áĮł": 878,
      "ĠáĭŃáĮł": 879,
      "áĬĲáī±": 880,
      "ĠáīĥáĪį": 881,
      "áĪµáĪ«": 882,
      "áĭİáīµ": 883,
      "ĠáĪĿáĬŃáĬķáĭ«áīµ": 884,
      "Ġáĭ¨áĪĽáĭŃ": 885,
      "áĪĭáĮĬ": 886,
      "áĭĵáĪĪáĪĿ": 887,
      "ĠáīłáĪŃ": 888,
      "ĠáĬ¥áĬķáĭ°áĪĨáĬĲ": 889,
      "áīĢáīµ": 890,
      "ĠáĮ½": 891,
      "áĪľáĪªáĬ«": 892,
      "áĪ±áĬķ": 893,
      "áĭĪáĮ£": 894,
      "ĠáĬłáĪĪáĭį": 895,
      "Ġáīłáĭ¨": 896,
      "ĠáĬ¨áįįáī°áĬĽ": 897,
      "ĠáĭĵáĪĪáĪĿ": 898,
      "áĮĬáĭľ": 899,
      "ĠáīµáĬķ": 900,
      "áī¤áīµ": 901,
      "áīĥáĪį": 902,
      "ĠC": 903,
      "ĠáĪŃ": 904,
      "áĬ¬": 905,
      "áī¸áĭĭáĪį": 906,
      "áĪ¨áī¥": 907,
      "áĮłáīĢáĪĿ": 908,
      "Ġáī°áīĢ": 909,
      "áī³áī½áĬķ": 910,
      "áĬ©áĪį": 911,
      "áĪ³áī¥": 912,
      "ĠáĭĪáīħ": 913,
      "áĮĪáĬĻ": 914,
      "ĠáĬĲáĬĿ": 915,
      "áĪ³áĪĮ": 916,
      "ĠáīłáĪĿ": 917,
      "ĠM": 918,
      "ĠâĢ¹âĢ¹": 919,
      "ĠáĪĽáĪµ": 920,
      "áĬĲáĪ³": 921,
      "áĮĪáĬĿ": 922,
      "áĮĪáĪĪ": 923,
      "ĠáĪ¨": 924,
      "áīĢáĭį": 925,
      "áĪŀáī½": 926,
      "ĠáĪĲ": 927,
      "ĠáĪĪáĪĿáĬķ": 928,
      "áĭĺáĮĭ": 929,
      "ĠáĬłáĭ«": 930,
      "ĠáĬłáĮĪáĪįáĮį": 931,
      "áīµáĭ®áĮµáĭ«": 932,
      "ĠáĬ¥áĬķáĭµ": 933,
      "ĠáĪµáĪ«": 934,
      "Ġáī¡": 935,
      "áĭŃáīµ": 936,
      "Ġáĭ¨áĬ¢": 937,
      "ĠáĮĮ": 938,
      "áĭ°áĭį": 939,
      "áĪĪáĭ«áĭ©": 940,
      "Ġ'": 941,
      "ĠáĭŃáĪĺáĪµ": 942,
      "áĬĵáĭį": 943,
      "ĠáĬłáĪµáįĪáĪĭáĮĬ": 944,
      "Ġáįĵ": 945,
      "áĪ¯": 946,
      "áĪĽáĪŃ": 947,
      "ĠáĬĲáĮĪáĪ®áī½": 948,
      "ĠáĪįáĮĨáī½": 949,
      "ĠáīµáĪĿáĪħ": 950,
      "Ġáī½áĮįáĪŃ": 951,
      "ĠáįķáĪ®": 952,
      "ĠáĭįáĮ¤": 953,
      "ĠáĬ¥áĬĵáĪĿ": 954,
      "áĬĿáĬĲáīµ": 955,
      "ĠáĬ¥áĬķáĬ³áĬķ": 956,
      "áī°áĪŃ": 957,
      "áĭĪáĪµ": 958,
      "ĠáĪĻáĪī": 959,
      "áĮ£áĬķ": 960,
      "ĠáĬłáĪ³": 961,
      "áĮ½áĪĲ": 962,
      "ĠáĬ¥áĪŃáĪµáĭİ": 963,
      "or": 964,
      "áī½áĪĭ": 965,
      "áīĢáĮ¥": 966,
      "ĠáĭŃáĪħáĪĿ": 967,
      "áĭĪáĭ³": 968,
      "ĠáĪ½": 969,
      "áĪ³áĪ³áĭŃ": 970,
      "Ġáĭ¨áĪĺáĮĢáĪĺáĪªáĭ«": 971,
      "áĪ¨áĬķ": 972,
      "ĠáĬ¥áĬĵáĬķáī°": 973,
      "ĠáĪµáĪį": 974,
      "áĭĭáī³": 975,
      "áĪµáī°áĬĽ": 976,
      "áĭ°áĬķ": 977,
      "ĠáĪĺáī°": 978,
      "ĠáĬ¥áĬķáĭ²áĪģáĪĿ": 979,
      "áĭ²áĭ«": 980,
      "áĭ¨áĪŃ": 981,
      "áĬ¤áĪį": 982,
      "Ġáį¤": 983,
      "Ġáĭ¨áī³": 984,
      "áĮª": 985,
      "ĠáĪĬáĭ«": 986,
      "áĮłáĬĵ": 987,
      "ĠáĬłáĬķáĭ³áĬķáĭµ": 988,
      "Ġáĭľ": 989,
      "ĠáĬłáīĢ": 990,
      "áĪģáĪīáĪĿ": 991,
      "áįĮ": 992,
      "ĠáĪĺáĪĨáĬĳáĬķ": 993,
      "áĬķáĭ¶": 994,
      "ĠáĪĺáĮį": 995,
      "áĭ°áĪŃáĮĭ": 996,
      "ĠáĪĮáĪİáī½": 997,
      "ĠáĬłáĪĪáīłáīµ": 998,
      "áĬ«áĪĿ": 999,
      "áĬ¨áĪŃ": 1000,
      "áĮįáĪĿ": 1001,
      "ĠáĪĬáĪĨáĬķ": 1002,
      "ĠáĬ©": 1003,
      "ĠáĪĤ": 1004,
      "ĠáĬŃáįįáĪį": 1005,
      "ĠáĭĵáĪĺáī³áīµ": 1006,
      "áĭ°áīµ": 1007,
      "Ġáĭ¨áĪĿáīµ": 1008,
      "ĠáĪĺáī¥": 1009,
      "áĪĤ": 1010,
      "Ġáįĸ": 1011,
      "áĬĭ": 1012,
      "áĭ°áĪĿ": 1013,
      "Ġáĭ¨áĪļáĭ«áĪµ": 1014,
      "Ġáĭ¨áĪĪ": 1015,
      "ĠáĮŃ": 1016,
      "áīĤáĭ«": 1017,
      "ĠáĬłáĪģ": 1018,
      "áĮĪáĬķ": 1019,
      "áįĴ": 1020,
      "Ġ6": 1021,
      "áĪŃáĪµáī²": 1022,
      "ĠáīłáĪĻ": 1023,
      "Ġ201": 1024,
      "áĭ¶áī½": 1025,
      "áĪŁ": 1026,
      "áĬĿáĪĿ": 1027,
      "ĠáĪ´": 1028,
      "ĠáīłáĮ¥": 1029,
      "áĪłáĪ«": 1030,
      "áĪĺáĪ¨": 1031,
      "ĠáĪ²áĪĨáĬķ": 1032,
      "áĪŀáĬŃ": 1033,
      "áĪĪáĭŃ": 1034,
      "áĮłáīł": 1035,
      "ĠáĪįáĭ©": 1036,
      "ĠáĭĭáĮĭ": 1037,
      "Ġáĭ¨áĭį": 1038,
      "ĠáĬ¨áĪļ": 1039,
      "ĠáĪĺáĪ°": 1040,
      "Ġáĭ¨áĬĲ": 1041,
      "áĪ«áī¸áĭį": 1042,
      "Ġáĭ«áĪī": 1043,
      "ĠáīłáĬłáĬķáĭµ": 1044,
      "ĠáīłáĬ¥áĪŃáĮį": 1045,
      "áī»áī½áĬķ": 1046,
      "ĠáĬłáĭ°": 1047,
      "áĮĪáĪį": 1048,
      "ĠáĬ¥áĬķáĭ²áĭ«": 1049,
      "ĠáĪµáĪŃ": 1050,
      "âĢºâĢº": 1051,
      "áīłáī¥": 1052,
      "ĠáĭĪáīħáīµ": 1053,
      "áī½áĪįáĪĿ": 1054,
      "Ġáīłáīµ": 1055,
      "áĬķáĭ°": 1056,
      "áĪĭáĭį": 1057,
      "Ġáīħáĭ±": 1058,
      "áīª": 1059,
      "Ġáĭ¨áīĢ": 1060,
      "áĬĥ": 1061,
      "áĮ¢": 1062,
      "áĪªáĭİáī½": 1063,
      "ĠáĭŃáĪ°": 1064,
      "áī»áĪį": 1065,
      "áĪ©áīµ": 1066,
      "áĪĭáĪĿ": 1067,
      "ĠáĪĪáĪĿ": 1068,
      "Ġáĭ¨áīłáĪĪáĮł": 1069,
      "áĪ©áĬķ": 1070,
      "ĠáĬłáĪģáĬķáĪĿ": 1071,
      "ĠáĬ¢áĭ¨áĪ±áĪµ": 1072,
      "áĮįáīł": 1073,
      "¾áī½": 1074,
      "Ġáī°áĪµáįĭ": 1075,
      "áĬ¦": 1076,
      "Ġáĭ²": 1077,
      "Ġáīłáĭļáĭ«": 1078,
      "ĠáĭĪáĪŃ": 1079,
      "áĬ¨áĪ«": 1080,
      "áĬĲáĭļáĪħ": 1081,
      "Ġ7": 1082,
      "áĮłáĪ«": 1083,
      "ĠáĮ¨áĭĭáī³": 1084,
      "áĮ¹": 1085,
      "áįĪáĭį": 1086,
      "áī°áĭĭáĪį": 1087,
      "ĠáĭŃáĪģáĬķ": 1088,
      "áĪ¥áĪ«": 1089,
      "áĭ®áī½": 1090,
      "Ġ8": 1091,
      "áĬ¨áī³": 1092,
      "ĠáĪĿáĪµ": 1093,
      "áĭ°áĪ¨áĮĪ": 1094,
      "ĠáĬ¨áī°áĪĽ": 1095,
      "ĠáĬ¥áĬĲáĪ±": 1096,
      "áįĪáĪįáĮī": 1097,
      "Ġáįĭ": 1098,
      "Ġáī¥áĪŃ": 1099,
      "ĠáĬ¥áĭµ": 1100,
      "Ġáĭ¨áĪĿáĬķ": 1101,
      "ĠáĮĢáĪĿáĪ®": 1102,
      "ĠA": 1103,
      "áī¥áĬķ": 1104,
      "ĠáĭŃáĮĪáī£": 1105,
      "áīµáĬĵ": 1106,
      "Ġáĭķáĭµ": 1107,
      "Ġáĭ¨áĪħ": 1108,
      "ĠáĭĵáĭŃáĬĲáīµ": 1109,
      "áĮ£áĪį": 1110,
      "áĪĿáĬĲáīµ": 1111,
      "Ġáīłáįį": 1112,
      "on": 1113,
      "ĠáīĢáĪĭáĪį": 1114,
      "ĠáĪĪáĭļáĪħ": 1115,
      "ĠáĮĪáĬķáĭĺáī¥": 1116,
      "ĠáĪĺáĮ¥": 1117,
      "Ġ10": 1118,
      "áĪĺáĭį": 1119,
      "áĬķáĭ³áĬķáĭ±": 1120,
      "áĪĭáīħ": 1121,
      "in": 1122,
      "Ġáĭ¨áĪµ": 1123,
      "ĠáīµáĪĿáĪħáĪŃáīµ": 1124,
      "áĪģáĬĳ": 1125,
      "ĠáĬłáĪįáī°": 1126,
      "Ġáī°áĮ¨áĪĽáĪª": 1127,
      "Ġáĭ¨áĪ°": 1128,
      "áĬ«áī³": 1129,
      "áĬ¸": 1130,
      "Ġáī¥áĭ¬": 1131,
      "áī³áĭĪ": 1132,
      "áĪ½áĬķ": 1133,
      "áīĢáĪĺ": 1134,
      "áī¥áĬĿ": 1135,
      "Ġáĭ¨áĬ¥áĪŃáĪµáĭİ": 1136,
      "ĠáĮĮáī³": 1137,
      "áĬĵáĬķáī°": 1138,
      "áīłáĭį": 1139,
      "áĪĪáī²": 1140,
      "Ġáīłáī³": 1141,
      "áĭĽáīµ": 1142,
      "ĠáīłáĬ¢": 1143,
      "áĪĭáĪĽ": 1144,
      "Ġáīłáī°áĮ¨áĪĽáĪª": 1145,
      "áĪĨáĬķáĪĿ": 1146,
      "ĠáĬłáĪĿáĪĭáĬŃ": 1147,
      "áĭ¥": 1148,
      "ĠáīłáĪĮ": 1149,
      "ĠáĪĺáĪŃ": 1150,
      "ĠáĪł": 1151,
      "áīĤáīµ": 1152,
      "Ġáĭ¨áĪ«": 1153,
      "ĠáĬ¥áĮħáĮį": 1154,
      "áĬĵáĮĪáĪŃ": 1155,
      "ĠáĬ¦": 1156,
      "ĠáĬĲáīłáĪ¨": 1157,
      "áĪ»áĪĪ": 1158,
      "Ġáĭ¶": 1159,
      "ĠáĭĪáĬķáĭµ": 1160,
      "áĭ²áĪħ": 1161,
      "áĪ¥áīµ": 1162,
      "áĪĪáĬĽ": 1163,
      "ĠáĭĺáĪĺáĬķ": 1164,
      "Ġáī°áĮįáī£": 1165,
      "er": 1166,
      "ĠáĪ¶": 1167,
      "áī»áī¸áĭį": 1168,
      "ĠáĪĺáĮłáĬķ": 1169,
      "áĬĲáĮĪ": 1170,
      "ĠáĬłáĭµ": 1171,
      "Ġáĭ¨áĪļáĪį": 1172,
      "áīº": 1173,
      "áĬĲáĮĭ": 1174,
      "ĠáīµáĪįáīħ": 1175,
      "áĬĲáĪ±": 1176,
      "ĠáīłáĪĻáĪī": 1177,
      "áĬĹ": 1178,
      "ĠáīµáĬŃ": 1179,
      "áĪıáĪį": 1180,
      "áĭ²áĭ®": 1181,
      "áĪĪáĭĭáĪį": 1182,
      "ĠáĪĺáĪĪ": 1183,
      "Ġáĭ«áĭį": 1184,
      "áĪ³áī¸áĭį": 1185,
      "ĠáĪĿáĬŃáĬķáĭ«áī±áĪĿ": 1186,
      "áĪĭáĪĪ": 1187,
      "áį¡-": 1188,
      "áĮĦ": 1189,
      "ĠáĪĽáĪħ": 1190,
      "20": 1191,
      "ĠáĪįáī¥": 1192,
      "Ġáĭ¨áĮĪ": 1193,
      "áĬ¨áįį": 1194,
      "áĮįáĬĵ": 1195,
      "ĠáĪĪáĭį": 1196,
      "ĠáīłáĪ°": 1197,
      "ĠáĪĺáĮ½áĪĲ": 1198,
      "áī¨": 1199,
      "áĬ©áīµ": 1200,
      "áī¤áī°": 1201,
      "Ġ/": 1202,
      "áĭ®áĬķ": 1203,
      "ĠáĬ«áĪį": 1204,
      "áĭ³áĬķ": 1205,
      "Ġ19": 1206,
      "áĪĺáĪ°": 1207,
      "Ġáĭ¨áĬ¥áĮįáĭļáĬłáī¥áĪĶáĪŃ": 1208,
      "ĠáĮĵ": 1209,
      "áĮ«áĭĪ": 1210,
      "áĮłáīµ": 1211,
      "ĠáīłáĪµ": 1212,
      "Ġáīħáĭ±áĪµ": 1213,
      "ĠáĬ¥áĬķáĮį": 1214,
      "áī£áĬķáĭ«": 1215,
      "Ġáīłáĭį": 1216,
      "áĪŃáĭĿ": 1217,
      "ĠáĪģáĪīáĬķáĪĿ": 1218,
      "áĮ®": 1219,
      "áĪįáĬķ": 1220,
      "áī¥áĪ¨": 1221,
      "ĠáĪĪáĪļ": 1222,
      "ĠáĬłáĮĭ": 1223,
      "Ġáĭ¨áĮį": 1224,
      "Ġáĭ¨áī£": 1225,
      "Ġáĭ¨áĪķ": 1226,
      "ĠáīłáĬ¥áĪŃáĮįáĮ¥": 1227,
      "::": 1228,
      "ĠáīłáĬ©áĪį": 1229,
      "ĠáīµáĬķáĪ½": 1230,
      "ĠáĮ¸": 1231,
      "ĠáĬ¨áĪĽ": 1232,
      "Ġáī°áī¥": 1233,
      "áįĪáĪŃ": 1234,
      "ĠáĬłáĮĪáĪŃ": 1235,
      "ĠP": 1236,
      "áĪįáįį": 1237,
      "ĠáĬłáĭ³": 1238,
      "áĮįáīłáĪªáĭ«": 1239,
      "ĠáĬª": 1240,
      "Ġ9": 1241,
      "áĬ¨áĪĭ": 1242,
      "ĠáĪĪáĪĽáĭµáĪ¨áĮį": 1243,
      "ĠáĬ¥áĭįáĬĲ": 1244,
      "áĭĪáĭ°": 1245,
      "áĬķáīĢ": 1246,
      "áĭ¨áĭį": 1247,
      "ĠáĪĦ": 1248,
      "Ġáī½áĮį": 1249,
      "áĪĺáĪ«": 1250,
      "áĪĪáī²áĬ«": 1251,
      "áĬĵáī¸áĭį": 1252,
      "Ġáī³áĪªáĬŃ": 1253,
      "ĠáīģáĮ¥áĪŃ": 1254,
      "ĠáĬ¨áī£": 1255,
      "ĠáĭµáĬķ": 1256,
      "Ġáĭ©": 1257,
      "ĠáĪĪáī°": 1258,
      "áĪĭáĮİ": 1259,
      "Ġáĭ«áĪĪáĭįáĬķ": 1260,
      "ĠáĪĺáĪł": 1261,
      "ĠáĬłáĪŃ": 1262,
      "áĪ°áĮ¥": 1263,
      "ĠáīłáĪķ": 1264,
      "ĠáĭĭáĬĵ": 1265,
      "ĠáĪĪáĪĽáĮįáĬĺáīµ": 1266,
      "ĠáīłáĪ«": 1267,
      "áī¥áĭĻ": 1268,
      "ĠáĪģáĪį": 1269,
      "áĪĥáĪį": 1270,
      "ĠáĬ¥áĬķáĭ°áĮĪáĬĵ": 1271,
      "áĬŃáĪŃ": 1272,
      "ĠáĬłáĪĽáĪ«": 1273,
      "áĭĿáī¡": 1274,
      "áī½áĬķáĬķ": 1275,
      "Ġáī°áĪĺáĪ³áĪ³áĭŃ": 1276,
      "ĠáĪĺáĪįáĬ«áĪĿ": 1277,
      "áĪ¨áĮ¥": 1278,
      "áī½áĬĭ": 1279,
      "áįĭáīµ": 1280,
      "ĠáĪĽáĮįáĬĺáīµ": 1281,
      "áĭ°áĪ¨áĮį": 1282,
      "ĠáĬłáĭŃáĬĲáīµ": 1283,
      "áĪ®áī½áĬķ": 1284,
      "áĪŃáĭ«": 1285,
      "áĮ¥áĬĲáīµ": 1286,
      "ĠáĪµáĪĪáĪĨáĬĲ": 1287,
      "áį¦": 1288,
      "ĠáĭŃáĭĺ": 1289,
      "ĠáĭµáĪĿ": 1290,
      "ĠáĬķáĮį": 1291,
      "ĠáĪĿáĬķáĭµ": 1292,
      "áī³áĭŃ": 1293,
      "áĭ³áĪį": 1294,
      "Ġáĭ¨áĪļáĪĪáĭį": 1295,
      "ĠáĭĻ": 1296,
      "áī½áĪī": 1297,
      "ĠáĬłáĬ«áī£áī¢": 1298,
      "áĬ¨áī±": 1299,
      "ĠáĪĨáĭŃ": 1300,
      "ĠáĭµáĪŃáĮħ": 1301,
      "áĭįáĪį": 1302,
      "áĪĪáĪĺ": 1303,
      "ĠáĬ¥áĬĲáĪŃáĪ±": 1304,
      "áĬħ": 1305,
      "áĪ°áī£": 1306,
      "ĠáīłáĬ¥áĭį": 1307,
      "Ġáī£áĪħ": 1308,
      "ĠáĪ²áĭ«": 1309,
      "ĠáĪµáīµ": 1310,
      "ĠáĬ¥áĬĶáĪĿ": 1311,
      "áĮĪáĪ«": 1312,
      "Ġáī¢áĪĨáĬķ": 1313,
      "áĪĺáĪĪáĪµ": 1314,
      "ĠáĬ¥áĬķáĭ³áĪĪ": 1315,
      "Ġáī°áįĪ": 1316,
      "Ġáīª": 1317,
      "Ġáĭ¨áī°áĪĪáĭ«áĭ©": 1318,
      "áĪ¨áĪĿ": 1319,
      "ĠáĪµáĪľ": 1320,
      "ĠáĮįáĬķáĬĻ": 1321,
      "ĠáĪ´áīµ": 1322,
      "áĮłáī¥": 1323,
      "áĬ¨áĪ°": 1324,
      "ĠáīµáĪŃ": 1325,
      "ĠáĪ°áĭĵáīµ": 1326,
      "ĠáĬłáĮĪáĪįáĮįáĪİáīµ": 1327,
      "Ġáīĭ": 1328,
      "áĮĪáī¥": 1329,
      "Ġáĭ«áĪ³": 1330,
      "áįĪáĪµ": 1331,
      "ĠáĭŃáĪĭáĪį": 1332,
      "ĠáĪĺáī°áĮįáīłáĪªáĭ«": 1333,
      "áĬŃáĪµ": 1334,
      "ĠáĬĲáįĥ": 1335,
      "ĠáįįáĪĭáĮİ": 1336,
      "áĪĿáĬķáīµ": 1337,
      "áĭĭáĪĪáĪģ": 1338,
      "áĭ°áĪŃáĮį": 1339,
      "áĮłáīĥáĪļ": 1340,
      "ĠáĪĿáĪŃáĮ«": 1341,
      "ĠáĪ³áĭŃáĪĨáĬķ": 1342,
      "áĪĺáĬĵ": 1343,
      "ct": 1344,
      "ĠáĪĨáĬĸáĪĿ": 1345,
      "ĠáĬ¥áĭįáĬĲáīµ": 1346,
      "ĠáįįáīħáĪŃ": 1347,
      "Ġáĭ¨áĬĲáīłáĪ¨": 1348,
      "áĮĪáĬĽ": 1349,
      "Ġáī¥áĪĪáĭį": 1350,
      "áĬĸáĪ©": 1351,
      "ĠáĮ¥áīħáĪĿ": 1352,
      "áĪ°áĮ¡": 1353,
      "ĠáįĬáīµ": 1354,
      "áĭµáĪŀ": 1355,
      "áīħáĭµ": 1356,
      "áĪ¹": 1357,
      "Ġáī°áĪĺáĪį": 1358,
      "áĪĳ": 1359,
      "ĠáĬĲáīłáĪ©": 1360,
      "áĪĽáĭŃ": 1361,
      "áįįáĪ«": 1362,
      "ĠáĬ¥áĬķáīħ": 1363,
      "áī¹áĬķ": 1364,
      "áĪµáĪĽ": 1365,
      "ĠáĪĺáīĢ": 1366,
      "ĠS": 1367,
      "áįĪáĪįáĮį": 1368,
      "ĠáĮĵáĭ°": 1369,
      "áĬķáīĭ": 1370,
      "ĠáĪĺáĪĺ": 1371,
      "ĠáĪķáĭŃáĭĪáīµ": 1372,
      "ĠáĬ©áī£áĬķáĭ«": 1373,
      "Ġáīłáī°áĪĪáĭŃ": 1374,
      "Ġáī°áĮĪ": 1375,
      "ĠáīĢáĬĵáīµ": 1376,
      "ĠáĬ¥áĬķáĭ°áī°": 1377,
      "áīĥáīµ": 1378,
      "áī°áĬŀáī½": 1379,
      "áī½áĬķáĪĿ": 1380,
      "áĪ¨áĮĭáĮĪ": 1381,
      "áĪįáĬŃ": 1382,
      "áĪŃáī²": 1383,
      "ĠáĬłáīħ": 1384,
      "áĪµáī¥": 1385,
      "ĠáĮįáī¥": 1386,
      "áĭ°áĪ¨áĮī": 1387,
      "áĪ«áĪī": 1388,
      "Ġáīłáĭ°": 1389,
      "Ġáĭ°áĬķ": 1390,
      "ĠáīłáĪŃáĬ«áī³": 1391,
      "áĬķáĬĽáĭįáĪĿ": 1392,
      "ĠáĬłáĪĭáī¸áĭį": 1393,
      "ĠáĪĺáĭį": 1394,
      "áĪ°áī¡": 1395,
      "ĠáĬłáī¥áĭĽ": 1396,
      "ĠáīłáĪį": 1397,
      "Ġ...": 1398,
      "áĪµáĬķ": 1399,
      "Ġáī´": 1400,
      "áĮĪáī¡": 1401,
      "áįĸáĪŃáīµ": 1402,
      "áī°áīµ": 1403,
      "áĮłáĪ©": 1404,
      "áĪĺáīµ": 1405,
      "ĠáĪµáī¥": 1406,
      "ĠáĮįáĪĿ": 1407,
      "ĠáĪĺáĬķáĮįáĪµáīµ": 1408,
      "áĪ£áĪªáĭ«": 1409,
      "áĪĪáĭįáĪĿ": 1410,
      "áĭ«áĪį": 1411,
      "ĠáĪĽáĪ³": 1412,
      "áī¥áĪ¨áīµ": 1413,
      "áĭ°áĪŃáĮī": 1414,
      "ĠMe": 1415,
      "ĠáĬ¥áĪŃáĮį": 1416,
      "áĪ»áĪ»": 1417,
      "ĠáĪĺáĭ°": 1418,
      "ĠáĬĲáĬķ": 1419,
      "ĠáīłáĭĵáĪĪáĪĿ": 1420,
      "áī°áĬĽáĭį": 1421,
      "áĬĵáĭĪ": 1422,
      "ĠáĪĺáĬķáĮĪ": 1423,
      "ĠáĭŃáī»": 1424,
      "ĠáĮłáīħ": 1425,
      "áĪĪáĪĽ": 1426,
      "ĠáĪĿáĭµáĪŃ": 1427,
      "áĮłáĭŃ": 1428,
      "ĠáĬĸ": 1429,
      "ĠáĭĿáĮį": 1430,
      "ĠáĬ¥áĬķáĭ³áĭŃ": 1431,
      "ĠáĮ¦": 1432,
      "Ġáĭįáĭµ": 1433,
      "ĠáĪĺáĮ½áĪĲáįį": 1434,
      "Ġáīłáī°áĮ¨áĪĽáĪªáĪĿ": 1435,
      "Ġáĭ¨áĪį": 1436,
      "áĭŃáĬķ": 1437,
      "Ġ?": 1438,
      "ĠáįĪáīĥ": 1439,
      "Ġáĭ°áĪµ": 1440,
      "áĮ¥áĪ®": 1441,
      "áĪĺáĭµ": 1442,
      "ĠáĪĽáĬķáĪĿ": 1443,
      "áĭŃáĬĵ": 1444,
      "Ġáīłáĭĵ": 1445,
      "áĪģáĪĪ": 1446,
      "ĠáĪ¸": 1447,
      "áĭ°áĮį": 1448,
      "ĠáĮ£áī¢áĭ«": 1449,
      "ĠáĬ¨áĭļáĭ«áĪĿ": 1450,
      "ĠáĬ¨áĪĮ": 1451,
      "áĪĺáĪĪáĬ¨áī°": 1452,
      "ĠáĪª": 1453,
      "ĠáĬĵáīµ": 1454,
      "ĠáĭŃáĪįáīħ": 1455,
      "ĠáĪľ": 1456,
      "ĠáĬĥáĭŃáĪį": 1457,
      "áĪĬáĭ®áĬķ": 1458,
      "ĠáĭŃáī»áĪĭáĪį": 1459,
      "Ġáī°áīĭ": 1460,
      "ĠáĪĽáĪµáī°": 1461,
      "áĮĢáīµ": 1462,
      "Ġáī°áĪĽáĪª": 1463,
      "ĠCor": 1464,
      "áĬķáĭ¶áī½": 1465,
      "áĬłáīµ": 1466,
      "áĪħáĪĿ": 1467,
      "áī£áĭŃ": 1468,
      "áĮłáīĥáĪĭáĭŃ": 1469,
      "ĠáĬłáįį": 1470,
      "áĪĿáĮĥ": 1471,
      "áĮħáĪĿ": 1472,
      "ĠáĮĪáĬĵ": 1473,
      "ĠáĭŃáĮĪáī£áĪį": 1474,
      "áĪº": 1475,
      "áīłáīĥ": 1476,
      "áĭ«áĭĿ": 1477,
      "ĠáĪĿáĬĵáĪį": 1478,
      "áĪŃáĬĲáīµ": 1479,
      "st": 1480,
      "áĪĭáįĬ": 1481,
      "áĮłáįĭ": 1482,
      "áīłáīµáĬķ": 1483,
      "áĬķáĬ«": 1484,
      "Ġáī°áĮł": 1485,
      "áĪ¨áĭµ": 1486,
      "Ġáī³áĪĭáīħ": 1487,
      "Ġáĭ¨áĬ¥áĬĶ": 1488,
      "ĠáĪ²áĪį": 1489,
      "áĪŃáĪµáī¶": 1490,
      "rect": 1491,
      "Ġáĭ¨áī°áĪ»áĪĪ": 1492,
      "ĠáĭŃáįĪáĪįáĮĭ": 1493,
      "Ġáįİ": 1494,
      "Ġáī£áĪį": 1495,
      "áī°áĬķ": 1496,
      "ĠáĬ¥áī£": 1497,
      "áĪ¶áī½": 1498,
      "áĪŃáĪµáī²áĭ«áĬķ": 1499,
      "ĠáįĢ": 1500,
      "áīĢáĪĿ": 1501,
      "ĠáĪĿáĪŃáĮ¥": 1502,
      "áĬ¨áī¥": 1503,
      "ĠáīħáĪŃ": 1504,
      "áĪ¨áĭĭáĪį": 1505,
      "ĠáĪķáĭĿáī¥": 1506,
      "áĮĢáĪĺáĪŃ": 1507,
      "ĠáĪħáĭĿáī¥": 1508,
      "ĠáĬķáĮī": 1509,
      "ĠCorrect": 1510,
      "áĭĮ": 1511,
      "Ġáĭ¨áįĪ": 1512,
      "ĠáĪµáĬķ": 1513,
      "áĭĽáĪ¬": 1514,
      "áĪ³áĪį": 1515,
      "áī³áī¸áĭįáĬķ": 1516,
      "ĠáĭŃáīĢ": 1517,
      "Ġáĭ¨áĪĮ": 1518,
      "Ġáīħáĭµ": 1519,
      "ĠáĬłáĬ«áĪį": 1520,
      "ĠáĪĺáĭĿ": 1521,
      "áĪģáīµ": 1522,
      "áĪģáĪĪáīµ": 1523,
      "ĠáĬłáĪįáĬĲáīłáĪ¨": 1524,
      "le": 1525,
      "ĠáĬ¥áĪ«": 1526,
      "ĠáĮĪáĮ½": 1527,
      "ĠáĪĺáĪ£áĪªáĭ«": 1528,
      "ĠáĪĺáĪįáĪµ": 1529,
      "áĭįáĭ«áĬķ": 1530,
      "áĮłáĪ¨": 1531,
      "Ġ[": 1532,
      "ĠáĭĿáĪŃáĭĿ": 1533,
      "ĠáĮįáĬķáĬĻáĬĲáīµ": 1534,
      "an": 1535,
      "ĠáĬłáīł": 1536,
      "áĭįáīĥ": 1537,
      "ĠáĬłáīĢáįį": 1538,
      "ĠáĬłáĪĪáĪĺ": 1539,
      "áĪĭáĭĬ": 1540,
      "áĬķáĮįáĭµ": 1541,
      "áīłáĭ«": 1542,
      "áĬĳáĬķ": 1543,
      "ĠáĪ¦": 1544,
      "áĪħáĬĵ": 1545,
      "áĪĻáĭ«": 1546,
      "áĪµáīĥ": 1547,
      "áĪµáī³áĭĪ": 1548,
      "ĠáĪ¥áĪŃ": 1549,
      "ĠáīĭáĬķáīĭ": 1550,
      "ĠáīłáĬĲ": 1551,
      "ĠáĪĺáī¼": 1552,
      "áĭ«áĬķáĪµ": 1553,
      "áĪīáĬķ": 1554,
      "ĠáīłáĪĺáĪĨáĬĳ": 1555,
      "áĪ«áĪ½": 1556,
      "ĠáĪįáĬŃ": 1557,
      "ĠáĪĺáĪ³": 1558,
      "Ġáī°áĮłáīĥáĪļ": 1559,
      "ĠáĬłáĪĪáĬĿ": 1560,
      "áĮłáĭį": 1561,
      "áĮĪáīµ": 1562,
      "Ġáĭ¨áī°áĭĪáĪ°": 1563,
      "áĮłáĬĽ": 1564,
      "áĮĭáīµ": 1565,
      "ĠáĮįáĪį": 1566,
      "áĬ«áīµ": 1567,
      "ĠáīłáĭĪ": 1568,
      "áī½áĭį": 1569,
      "ĠáĪĽáĭ¨áīµ": 1570,
      "ĠáĬ¨áī£áĭµ": 1571,
      "áĭŃáī³": 1572,
      "ĠáĭįáĮŃ": 1573,
      "áĪĪáĭ¨": 1574,
      "áīłáĪ«áĭĬ": 1575,
      "ĠáĪĪáĪĽáĪµ": 1576,
      "ĠáĭµáĮĭ": 1577,
      "áĪ¯áĪį": 1578,
      "áĮłáīĢáĪĻ": 1579,
      "áĭĭáĬķ": 1580,
      "ĠáĪĺáĪĿ": 1581,
      "ĠáĪĺáĬķáĮįáĪ¥áīµ": 1582,
      "áī§": 1583,
      "ĠáĪĺáĮ£": 1584,
      "áĬ¨áĬĵáĭĪ": 1585,
      "ĠáĪĺáĭµáĪ¨": 1586,
      "Ġ!": 1587,
      "áĪ®áįĵ": 1588,
      "áĬĲáĪµ": 1589,
      "ĠáĪĺáī³": 1590,
      "áįīáīµ": 1591,
      "ĠáĬ¥áĪŃáĪĿáĮĥ": 1592,
      "áĮİáī½": 1593,
      "Ġ15": 1594,
      "áĪĨáĬĵ": 1595,
      "ĠáĭĪáĬķ": 1596,
      "áī³áĪĽ": 1597,
      "Ġáĭ¨áĪ°áĭį": 1598,
      "áĬĲáĪŃáĪ±": 1599,
      "ĠáīµáĬ©": 1600,
      "ĠáĬ¥áĬĲáĭļáĪħáĬķ": 1601,
      "ĠáĬ¥áĭ«áĬķáĭ³áĬķáĭ±": 1602,
      "áĪ¬áīµ": 1603,
      "19": 1604,
      "Ġáĭ«áĪįáī°": 1605,
      "áĪįáīģ": 1606,
      "ĠáīµáĬŃáĬŃ": 1607,
      "áĪįáĬĿ": 1608,
      "ar": 1609,
      "áĪĭáĪ½": 1610,
      "ĠáĬłáĪľáĪªáĬ«": 1611,
      "ĠáĪ´áī¶áī½": 1612,
      "ĠáĪĽáĭĪáīħ": 1613,
      "ĠáĬłáĪµáĭ°": 1614,
      "áīµáĪĿáĪħ": 1615,
      "áĭµáĪĿ": 1616,
      "Ġáĭ¨áĭĺ": 1617,
      "Ġáĭ¨áĬ¥áĬĽ": 1618,
      "Ġáĭ¨áĮ¥": 1619,
      "ĠáĬłáĭŃáī½áĪįáĪĿ": 1620,
      "áīĨáĪĿ": 1621,
      "ĠáĮ¥áīĤáīµ": 1622,
      "áĪĽáĪį": 1623,
      "ĠáĭĪáĮ£": 1624,
      "áĭ«áĭĺ": 1625,
      "áīłáĬĽ": 1626,
      "ĠáĭĻáĪªáĭ«": 1627,
      "áīłáīħ": 1628,
      "áīĨáĮ£": 1629,
      "Ġ12": 1630,
      "Ġáī¢áĭ«áĬķáĪµ": 1631,
      "ĠáīłáĮį": 1632,
      "Ġáī°áĬĵ": 1633,
      "áĬªáĬĵ": 1634,
      "áĬĲáĮį": 1635,
      "áī£áĪĪ": 1636,
      "ĠáĬ¥áĬķáĭ°áĪĿ": 1637,
      "áĪŃáĪµáī¶áĪµ": 1638,
      "ĠáĭŃáĪĨáĬķ": 1639,
      "áī¨áĪŃ": 1640,
      "Ġi": 1641,
      "áĭİáī³áĪį": 1642,
      "ĠáīĢáĮ¥": 1643,
      "ĠáĬłáĮį": 1644,
      "áĪµáīĥáĪ´": 1645,
      "Ġáĭ®": 1646,
      "ĠáĪĺáĪłáĪ¨áīµ": 1647,
      "áĪ°áĭµ": 1648,
      "ĠáĬ¥áĬ®": 1649,
      "áĮĢáĪĿ": 1650,
      "áĬ«áĪį": 1651,
      "áĬ¥áĬĶ": 1652,
      "Ġáī°áĮ«": 1653,
      "ĠáīłáĪħ": 1654,
      "áĬķáĬŃ": 1655,
      "áĪ³áĬĶ": 1656,
      "áī½áĪģáĬķ": 1657,
      "ĠáĬŃáĪį": 1658,
      "áĭĪáĪĪ": 1659,
      "áī¥áĪ«": 1660,
      "áĮĪáĬĲ": 1661,
      "áįİáī½": 1662,
      "Ġáĭ¨áĭļáĪħ": 1663,
      "ĠáīłáīħáĪŃ": 1664,
      "ĠáĭŃáįĪ": 1665,
      "áĪªáī±": 1666,
      "at": 1667,
      "ĠáĬĲáĮ»": 1668,
      "ĠáĬ¥áĪ·": 1669,
      "áĪŀáīµ": 1670,
      "ĠáĬłáĪµáī°áĭ«": 1671,
      "Ġáī°áī¥áĪİ": 1672,
      "áĪĪáĬĽáĪį": 1673,
      "ĠáĭŃáī³": 1674,
      "Ġáĭ«áĪĭáī¸áĭį": 1675,
      "ĠT": 1676,
      "ĠáīłáĬłáĪģáĬĳ": 1677,
      "ĠáĬ¥áĪŃáĪ±áĪĿ": 1678,
      "áĭ³áīµ": 1679,
      "áĪŃáĬŃ": 1680,
      "ĠáĪĿáĮįáī¥": 1681,
      "ĠáĬłáĪ°": 1682,
      "ĠáĪĽáĭķ": 1683,
      "ĠáīłáĪĽáĪĪáīµ": 1684,
      "ĠáĪº": 1685,
      "ĠáĭľáĬĵ": 1686,
      "áĮ¡áīµ": 1687,
      "Ġ200": 1688,
      "Ġáīłáī³áī½": 1689,
      "áī´áĬķ": 1690,
      "áĪĬáĭĿ": 1691,
      "ĠáĭŃáīłáĪį": 1692,
      "áĪ°áĪŃ": 1693,
      "Ġáĭ«áĬķ": 1694,
      "Ġáĭ¨áįį": 1695,
      "Ġáĭ¨áĪĨáĬĳ": 1696,
      "áī¾áī½": 1697,
      "áĮłáĪį": 1698,
      "ĠáĬ¥áĪµáĬª": 1699,
      "ĠáĪĢáĮĪáĪŃ": 1700,
      "áīĥáĪī": 1701,
      "áĬŀáī¹": 1702,
      "Ġâ": 1703,
      "ĠáĭĲ": 1704,
      "ĠáĮ¤": 1705,
      "ĠáĪĺáįįáīµ": 1706,
      "áīħáĪ¨áī¥": 1707,
      "ĠáĪĺáĮįáĪĪ": 1708,
      "áĬŃáĪĿáĬĵ": 1709,
      "Ġáĭ¨áī°áįĪ": 1710,
      "áĬ®áĬĸ": 1711,
      "ĠáĪĽáĬķáĬĽáĭįáĪĿ": 1712,
      "ĠáĪļáĬĴ": 1713,
      "Ġáĭ¨áĪĪáĭįáĪĿ": 1714,
      "ĠáĬ«áĪĪ": 1715,
      "ĠN": 1716,
      "Ġ11": 1717,
      "Ġáī£áĭŃ": 1718,
      "áĭĭáīĤ": 1719,
      "ĠáĭŃáĬĸ": 1720,
      "ĠáĬ¥áĬķáīħáĪµáīĥáĪ´": 1721,
      "áĪĥáĬķ": 1722,
      "ĠáįķáĪ®áĮįáĪ«": 1723,
      "ĠáĪµáĪĪáĪļ": 1724,
      "áĮĮáī³": 1725,
      "ĠáĪĪáĭįáĮ¥": 1726,
      "áĮĭáĪ«": 1727,
      "ĠáĬĲáĮ¥": 1728,
      "ĠáĬłáĮ¥": 1729,
      "ĠáĪģáĪįáĮĬáĭľ": 1730,
      "ĠáĪįáĮĨ": 1731,
      "ĠáĭŃáĪĺáĪµáĪĭáĪį": 1732,
      "Ġáī¡áĭµáĬķ": 1733,
      "áįĪáĪ«": 1734,
      "ĠáįĵáĪŃáī²": 1735,
      "ĠáĭĺáĪŃ": 1736,
      "ĠáĬ¥áĭļáĭ«": 1737,
      "ĠáįįáĪĭáĮİáīµ": 1738,
      "Ġ18": 1739,
      "ĠáĬłáĭ°áĮĭ": 1740,
      "ou": 1741,
      "áīĤáīĥ": 1742,
      "ĠáĭĪáĭ³": 1743,
      "ĠáīłáĪĺáĮ¨áĪ¨áĪ»": 1744,
      "ĠáĪĪáĪĺáĪµ": 1745,
      "áīĥáĪĪáĪģ": 1746,
      "áīµáĪĿáĪħáĪŃáīµ": 1747,
      "Ġáĭ¨áĭ°": 1748,
      "áĪİáī½áĬķ": 1749,
      "áĮĪáĪĽ": 1750,
      "áĬķáĬĵ": 1751,
      "ĠáĭµáĮĭáįį": 1752,
      "ĠáĮ«": 1753,
      "ĠáĭŃáĮĪáĬĽáĪį": 1754,
      "Ġáĭ¨áįĸ": 1755,
      "áĪİáĮĤ": 1756,
      "ĠáĬłáĪĺáīµ": 1757,
      "ĠáĪĿáĬĵáĪįáī£áīµ": 1758,
      "áĪįáĮ£": 1759,
      "ĠáĪĺáĮ¨áĪ¨áĪ»": 1760,
      "ĠáĭįáĮ¤áīµ": 1761,
      "áīłáĪĭ": 1762,
      "áī½áĪĪáĭį": 1763,
      "ĠáīłáĭŃ": 1764,
      "Ġáĭ«áĪĭ": 1765,
      "Ġáīªáĭ²áĭ®": 1766,
      "áĬĲáī¶áī½": 1767,
      "áīłáī³áĪį": 1768,
      "ĠáĬ¢áīµáĭ®áĮµáĭ«": 1769,
      "ĠáĮīáĭŀ": 1770,
      "áĭŃáĪĽ": 1771,
      "áĭĪáĮ¥": 1772,
      "áĪĺáĪįáĬ¨áīµ": 1773,
      "áĪ°áĮłáĭį": 1774,
      "ĠáĪĽáĪĪ": 1775,
      "ĠáĪŃáĭķ": 1776,
      "Ġáī¢áĪĨáĬķáĪĿ": 1777,
      "ĠáĬłáĭ«áĪµ": 1778,
      "áĪ³áī°": 1779,
      "ĠáīµáĬŃáĬŃáĪĪáĬĽ": 1780,
      "áĪ°áīł": 1781,
      "áĭ«áīµ": 1782,
      "ĠI": 1783,
      "Ġáĭ¨áĬŃ": 1784,
      "ĠáĪĤáĭ°áīµ": 1785,
      "ĠáĪĺáĮĢáĪĺáĪªáĭ«": 1786,
      "ĠW": 1787,
      "ĠáĪĺáī¥áīµ": 1788,
      "ĠáĮ½áĪĳ": 1789,
      "ĠáĪµáĪľáīµ": 1790,
      "áĪ°áĬķ": 1791,
      "Ġáī¥áīµ": 1792,
      "áīłáīµáĪĿ": 1793,
      "áĮłáĭ¨": 1794,
      "ĠáĭįáĪ³áĬĶ": 1795,
      "áĪ²áī²": 1796,
      "ĠáĭŃáĪĺáĪį": 1797,
      "ĠáĭŃáīħáĪŃ": 1798,
      "ĠáĬ¥áĪĿáĬĲáīµ": 1799,
      "ĠáīłáĪ¨": 1800,
      "ĠáĪĪáĪĿáĪ³áĪĮ": 1801,
      "Ġáī°áĭ°": 1802,
      "áĮĪáĭ°": 1803,
      "ĠE": 1804,
      "ĠáĬ³": 1805,
      "áĪµáĪ«áĬ¤áĪį": 1806,
      "áĭŃáĪĽáĬĸ": 1807,
      "ĠáĬ¥áī£áĬŃ": 1808,
      "áĮĭáĪª": 1809,
      "ĠáĭŃáĬĸáĪŃ": 1810,
      "áĬ¨áĪĪ": 1811,
      "ĠáĮ¥áīħ": 1812,
      "en": 1813,
      "ĠáīłáĪĮáĪĭ": 1814,
      "ĠáĬ¥áĬķáĭ³áĪį": 1815,
      "ĠáīłáīµáĬŃ": 1816,
      "áĪĭáīĢ": 1817,
      "áī£áĪī": 1818,
      "áĬĹáĪį": 1819,
      "áīĭáīĭ": 1820,
      "Ġáĭ«áĪµáįĪáĪįáĮĭ": 1821,
      "áĬĴáī¨áĪŃ": 1822,
      "áĬłáĪį": 1823,
      "ĠáĪĪáĬ¥áĬĶ": 1824,
      "Ġáĭ«áĭ°áĪŃáĮĭ": 1825,
      "Ġáĭ°áīĤáīĥ": 1826,
      "áī³áĭİáī½": 1827,
      "ĠáĬ¨áĪĿ": 1828,
      "áĮĪáĬĺáĭį": 1829,
      "áįĪáĪįáĮĪ": 1830,
      "....": 1831,
      "ĠáĬ¥áĬķáĭ°áĭļáĪħ": 1832,
      "ĠG": 1833,
      "áįĪáĪĪáĮį": 1834,
      "ĠáĮłáīĥ": 1835,
      "Ġáī»": 1836,
      "ĠáĮįáĪĿáĮĪáĪĽ": 1837,
      "áĮ«áĭĪáīµ": 1838,
      "ĠáīłáīĤ": 1839,
      "Ġ14": 1840,
      "ĠáĬĲáĪħ": 1841,
      "áĬĴáī¨áĪŃáĪ²áī²": 1842,
      "ĠáĭŃáĭĪ": 1843,
      "ĠáĬłáĪĪáī£áī¸áĭį": 1844,
      "ĠáĪ°áĪĭáĪĿ": 1845,
      "ĠáĭĺáĪĺ": 1846,
      "áĪĪáĬĿ": 1847,
      "áĮĪáĭĽ": 1848,
      "ĠáĮĪáī¥": 1849,
      "áĪ°áĪ©": 1850,
      "ĠáĪĺáįį": 1851,
      "ĠáīłáĪĺáĮĢáĪĺáĪªáĭ«": 1852,
      "ĠáĮłáīĥáĪļ": 1853,
      "Ġáĭ¨áĬķáĮįáĭµ": 1854,
      "Ġáīłáīł": 1855,
      "om": 1856,
      "ĠáĬ¥áĪµáĬ«": 1857,
      "ĠáīĢáĪŃ": 1858,
      "ĠáĭĵáĪĭáĪĽ": 1859,
      "ĠáĪĺáĮłáīĢáĪĿ": 1860,
      "áĭ³áĪŃ": 1861,
      "ĠáĪļáĪĬáĭ®áĬķ": 1862,
      "áīģáĪĿ": 1863,
      "áī¶áī¹": 1864,
      "ĠáĭĿáĪŃáĭĿáĪŃ": 1865,
      "ĠáĪ³áĪĿáĬķáīµ": 1866,
      "ĠáīłáĪ½": 1867,
      "áĪ«áĬķ": 1868,
      "áĭļáĪģ": 1869,
      "ĠáīłáĪĺáī¶": 1870,
      "ĠáĮįáĭµ": 1871,
      "ĠáįĸáĪĬ": 1872,
      "ĠáīłáīĢáĪĭáĪī": 1873,
      "ĠáīłáĪĺáĪµ": 1874,
      "ĠáīĢáĭ°áĪĿ": 1875,
      "ĠáĬ¥áįĪáĪįáĮĭ": 1876,
      "áĬ®áī½": 1877,
      "ĠáĪĽáĪµáī³áĭĪ": 1878,
      "Ġáįİáī¶": 1879,
      "Ġáī°áĭĪ": 1880,
      "ĠáĭĪáĪ¨": 1881,
      "ĠáĪĺáĬĲ": 1882,
      "áĬĲáīµáĬķ": 1883,
      "áĬķáīħ": 1884,
      "ĠáĬ¥áĬķáĭ°áĪļáĭ«": 1885,
      "ĠáĪĺáĭµ": 1886,
      "áī¸áĭįáĪĿ": 1887,
      "ĠáĪĺáĬķáįĪáĪµ": 1888,
      "áĪ«áĪ²": 1889,
      "áĪ¨áĮĭáĮį": 1890,
      "Ġáĭ¨áĪļáĬ¨áī°": 1891,
      "ĠáīłáĬŃ": 1892,
      "áĭ³áĭ°áĪŃ": 1893,
      "áĭ°áĪ¨áĮĪáĭį": 1894,
      "áĬ¨áįĪ": 1895,
      "ĠáĪĿáĬŃáĪŃ": 1896,
      "áī»áĪĪáĪģ": 1897,
      "áĪĻáĬķ": 1898,
      "áĬ«áĪĦ": 1899,
      "ĠáĬłáĭĿ": 1900,
      "ĠáĬłáĮįáĬĿ": 1901,
      "áĪ³áĭĬ": 1902,
      "áīĢáĪ¨": 1903,
      "áĪ°áīµ": 1904,
      "áĬĸáĪ¨áĭį": 1905,
      "áī¡áĪŃ": 1906,
      "áĮĪáĪĿ": 1907,
      "áĭ«áĭĬ": 1908,
      "áįģ": 1909,
      "ĠáĪĿáĪį": 1910,
      "áĪ¾": 1911,
      "ĠáĮīáĭ³áĭ®áī½": 1912,
      "áĪĭáĪŃ": 1913,
      "áī¥áīµ": 1914,
      "ĠáĬłáī³": 1915,
      "áĭ«áĬĶ": 1916,
      "áĮłáīłáīħ": 1917,
      "it": 1918,
      "Ġáī¥áĪĪáĭĭáĪį": 1919,
      "Ġ13": 1920,
      "ĠáĬłáĪįáĬĲáīłáĪ¨áĪĿ": 1921,
      "ĠáĪĢáĮĪ": 1922,
      "áī½áĪĭáĪĪáĬķ": 1923,
      "áī¦áīµ": 1924,
      "áĮīáĪĿ": 1925,
      "áĬŃáĬĸ": 1926,
      "áīĢáĬĳ": 1927,
      "Ġáī°áīĥ": 1928,
      "ĠáĭŃáĪĺ": 1929,
      "Ġáĭ¨áĪĺáĮ¨áĪ¨áĪ»": 1930,
      "áīĢáīħ": 1931,
      "ĠáĪµáĪĭ": 1932,
      "ĠáĪĿáĪ³áĪĮ": 1933,
      "ĠáĬ¥áĬĲáĪĨ": 1934,
      "áĮ¥áī³": 1935,
      "ĠáĬ¥áĬķáī½áĪĭáĪĪáĬķ": 1936,
      "ĠáĪĺáĬĸáĪŃ": 1937,
      "000": 1938,
      "ĠáĬ¥áįĪáĪįáĮĭáĪĪáĪģ": 1939,
      "ĠB": 1940,
      "ĠáĪ©": 1941,
      "ĠáĪµáĪħ": 1942,
      "Ġáĭ¨áĪĻ": 1943,
      "ĠáĪĺáĮįáĪĪáĮ«": 1944,
      "ĠáĬłáĬŃ": 1945,
      "áĪĽáĬķ": 1946,
      "áĪĭáī½áĬķáĪĿ": 1947,
      "áĮ£áĪļ": 1948,
      "áĮ¹áĪĿ": 1949,
      "áĮ®áī½": 1950,
      "ĠáīłáĪĨáĬĲ": 1951,
      "Ġáĭ¨áĪļáī½áĪį": 1952,
      "ĠáĬłáĪĺáĪ°": 1953,
      "ĠáĬĲáįį": 1954,
      "ĠáĬłáĮĪáĪįáĮįáĪİ": 1955,
      "Ġáĭ¨áī¥": 1956,
      "áĬķáĭĽ": 1957,
      "ĠáĪĺáĪĺáĪªáĭ«": 1958,
      "Ġ30": 1959,
      "áĭ±áīµ": 1960,
      "áīĢáĪĺáĮ¥": 1961,
      "áįĬáĭ«": 1962,
      "ro": 1963,
      "áĪµáī±": 1964,
      "ĠáĪ±": 1965,
      "Ġáĭ¨áĪŀ": 1966,
      "ĠáĪįáĪĿ": 1967,
      "Ġáī³áĭ²áĭ«": 1968,
      "ĠáĬłáĪ¸": 1969,
      "áĭĽáĭĿ": 1970,
      "áīĢáĪµ": 1971,
      "áĮ©": 1972,
      "ic": 1973,
      "\">": 1974,
      "áĬĲáįį": 1975,
      "Ġáī¥áĪĪáĬķ": 1976,
      "ĠáīģáĮ¥": 1977,
      "ĠáįķáĪ®áĮĢ": 1978,
      "áĭ°áĪŃáĪµ": 1979,
      "Ġáĭ¨áĬ«": 1980,
      "ĠáĬ¥áĪŃáĪµ": 1981,
      "áīĢáīł": 1982,
      "áĬķáĭ²": 1983,
      "ĠáĪĪáĪĽáĪ³": 1984,
      "áī«": 1985,
      "áĭĺáĬķ": 1986,
      "ĠáĬ¨áĭĪ": 1987,
      "áĬķáĭ±áĪµáīµ": 1988,
      "Ġáī°áĮ«áĭĭ": 1989,
      "Ġáĭĺáĭ´": 1990,
      "áĭ°áĪį": 1991,
      "áĪ¨áī°": 1992,
      "ĠáīµáĬ©áĪ¨áīµ": 1993,
      "Ġáĭ¨áĭĵáĪĪáĪĿ": 1994,
      "áĭ«áĪĪáĪģ": 1995,
      "Ġáī°áĪ«": 1996,
      "ĠáįĪáīĥáĭµ": 1997,
      "áĭ¬áĬķ": 1998,
      "ĠáĬłáįĪ": 1999,
      "ĠáĬłáĭİ": 2000,
      "áĭļáīĥ": 2001,
      "Ġáī°áĬĵáĮį": 2002,
      "Ġáĭ¨áĪļáīĨ": 2003,
      "áĪĪáĪį": 2004,
      "áĪĿáĪĭáĬŃ": 2005,
      "áĬ¨áįĭ": 2006,
      "Ġáī°áĭ°áĪŃ": 2007,
      "ĠáĬĳ": 2008,
      "ĠáĪķáĮį": 2009,
      "áĬ®áĬĸáĪļ": 2010,
      "ĠR": 2011,
      "áįĪáĪĪáĮī": 2012,
      "ĠáįķáĪ¬": 2013,
      "ĠáĪĺáĪµáĮłáīµ": 2014,
      "ĠáĭįáĪĥ": 2015,
      "áĪ´áīµ": 2016,
      "ĠáĪ«áĪµ": 2017,
      "ĠF": 2018,
      "áĮ§": 2019,
      "áī£áĪĪáĭį": 2020,
      "ĠáĬłáĭµáĪŃáĮİ": 2021,
      "ĠáĬłáĭŃáĭ°áĪīáĪĿ": 2022,
      "áĭįáĪ®áįĵ": 2023,
      "áįĪáĮ¸": 2024,
      "Ġáĭ¨áĮįáĪį": 2025,
      "Ġáĭ¨áĪĺáĮĢáĪĺáĪªáĭ«áĭį": 2026,
      "ĠáĬ¥áĪĿ": 2027,
      "Ġáĭ«áĬķáĬķ": 2028,
      "ĠáĬłáĪĭáĭį": 2029,
      "áĪ©áĪĿ": 2030,
      "áī°áĬĵ": 2031,
      "ĠáĮĪáĪį": 2032,
      "Ġáĭ°áĪŃ": 2033,
      "áĬ¾": 2034,
      "áĬĲáīłáĪŃ": 2035,
      "áĭ£": 2036,
      "áī¤áī±": 2037,
      "áĬŃáĬĸáĪİáĮĤ": 2038,
      "ĠáĭµáĪŃáĮħáīµ": 2039,
      "Ġáĭ«áĭµáĪŃ": 2040,
      "áĪįáĮ£áĬķ": 2041,
      "Ġáĭ«áĪīáīµ": 2042,
      "Ġáī½áĪİ": 2043,
      "oo": 2044,
      "ĠáĪµáįįáĪ«": 2045,
      "ĠáīłáĬ¥áĮįáĭļáĬłáī¥áĪĶáĪŃ": 2046,
      "áīģáīµ": 2047,
      "áĭĬáīµ": 2048,
      "ĠáĪĺáĪ¥": 2049,
      "áĪĺáĮ£áĪį": 2050,
      "áī¥áĭİáīµ": 2051,
      "áĭĭáīµ": 2052,
      "áĮłáĬķ": 2053,
      "áĬķáĬ«áĪ«": 2054,
      "Ġáĭ¨áī°áĪĺ": 2055,
      "ĠáĪĺáĪª": 2056,
      "áĮĵáĪį": 2057,
      "áī½áĬĭáĪį": 2058,
      "áĭĺáĪŃ": 2059,
      "ĠáĭŃáĪĺáĪįáĬ¨áī±": 2060,
      "ĠáĪĺáĪ³áĪªáĭ«": 2061,
      "ĠáĬłáĬĲ": 2062,
      "Ġ+": 2063,
      "áĬķáīĢáĪ³": 2064,
      "ĠáĬłáī¶": 2065,
      "ĠáĪĽáĭį": 2066,
      "áĪ°áī¦áī½": 2067,
      "ĠáĪ®": 2068,
      "ĠáĪĺáĪįáĬ©": 2069,
      "ĠáĬłáĭ³áĭ²áĪµ": 2070,
      "Ġáī£áĪĪáĭį": 2071,
      "ĠáĮ¤áĬĵ": 2072,
      "áī°áĬĵáĪį": 2073,
      "áĪĭáĬķ": 2074,
      "ĠáĪĪáĪĺáīĢ": 2075,
      "Ġ_": 2076,
      "ĠáĬŃáįįáĭ«": 2077,
      "Ġáī°áĪĽáĪªáĭİáī½": 2078,
      "ĠáĬłáī£áīµ": 2079,
      "al": 2080,
      "áĮłáīħ": 2081,
      "ĠáĬłáĪĽáĬ«": 2082,
      "ĠáĭŃáĪĺáĪµáĪĪáĬĽáĪį": 2083,
      "ĠáĪĿáĪĭáĪ½": 2084,
      "áī»áī¸áĭįáĬķ": 2085,
      "ĠáĭĪáĮ¥": 2086,
      "áĬķáĮįáĪµáīµ": 2087,
      "áĪįáĪħ": 2088,
      "ĠáīłáĮįáĪį": 2089,
      "ĠáĪĪáĪĺáĮį": 2090,
      "ĠáĬ£": 2091,
      "ĠáĭŃáīłáĪįáĮ¥": 2092,
      "ĠáĮ¥áĪ«áīµ": 2093,
      "Ġáĭ¨áĪļáĪ°áĮ¡": 2094,
      "áĪ°áĮ£": 2095,
      "ĠáĬłáĭ«áĭį": 2096,
      "áĪĬáīµ": 2097,
      "ĠáĮĨ": 2098,
      "áī³áī½áĪģ": 2099,
      "Ġáĭ°áĪħáĬķ": 2100,
      "ĠáīłáįįáĮ¥áĬĲáīµ": 2101,
      "áĭķáĪ«": 2102,
      "áĭ³áī³": 2103,
      "áĮ£áĪª": 2104,
      "áĬ©áĪĿ": 2105,
      "ĠáĪĿáĬķáĭµáĬķ": 2106,
      "ĠáĭķáĭµáĪľ": 2107,
      "ĠáīłáĮŃ": 2108,
      "ĠáįįáĪŃáĭµ": 2109,
      "áĪĪáįį": 2110,
      "áįĪáĪįáĮįáĪĿ": 2111,
      "Ġáĭ¶áĪĭáĪŃ": 2112,
      "áĪĽáĪĽ": 2113,
      "áĪ¨áĭ³áīµ": 2114,
      "ĠáĬ³áĪµ": 2115,
      "Ġ*": 2116,
      "Ġ16": 2117,
      "áĭ²áĭ«áĭį": 2118,
      "ĠáĮįáĪĪ": 2119,
      "ĠáĬ¥áĭįáĬĲáī°áĬĽ": 2120,
      "áĮŃáĪŃ": 2121,
      "ĠáĭĪáĭŃáĪµ": 2122,
      "ĠáīłáĪµáī°": 2123,
      "ĠáĪĪáĬ¥áĪŃáĪµáĭİ": 2124,
      "Ġc": 2125,
      "ĠáīłáĭļáĪħáĪĿ": 2126,
      "Ġáī£áĪĪáĪĻáĭ«": 2127,
      "Ġáī¤áī±": 2128,
      "ĠáĬ¥áĬĽáĪĿ": 2129,
      "Ġáĭ¨áĪĺáĪµ": 2130,
      "ĠáĪĪáĭĺ": 2131,
      "ĠáĬ¨áĬłáĬķáĭµ": 2132,
      "ĠáīłáīµáĬŃáĬŃáĪį": 2133,
      "Ġáīłáī¥": 2134,
      "Ġáīłáī°áĪĺáĪĪáĬ¨áī°": 2135,
      "áīłáĪ©áīµ": 2136,
      "áĪľáĬķ": 2137,
      "áĭ«áĬķáĭ³áĬķáĭ±": 2138,
      "Ġáīłáī°áĪĺ": 2139,
      "áĪ¨áĮĭáĮĪáĮ¥": 2140,
      "ĠáĬ¥áĪŃáĮįáĮłáĬĽ": 2141,
      "ĠáĮĪáĭ°": 2142,
      "Ġáĭ¨áĬłáĪľáĪªáĬ«": 2143,
      "ĠáĬłáĪ«áīµ": 2144,
      "Ġáĭ¨áī°áĪĪáĭ¨": 2145,
      "ĠáĬ¥áĪ±áĬķ": 2146,
      "ĠáĪģáĪĪáī±áĪĿ": 2147,
      "Ġáīµáĭķ": 2148,
      "áĮĭáĭŃ": 2149,
      "áĪŃáĪĿ": 2150,
      "ĠáĬĲáĮĪáĪ®áī½áĬķ": 2151,
      "ĠD": 2152,
      "ĠáĭŃáĪ°áĪĽ": 2153,
      "ĠáīĨáĭŃ": 2154,
      "áĬ¨áī°áĪĽ": 2155,
      "áĭ³áĪļ": 2156,
      "ĠáĬłáĪĽáĪ«áĮŃ": 2157,
      "áĪĿáįĴ": 2158,
      "ĠáĪµáĪĪáĪĨáĬĲáĪĿ": 2159,
      "áĮ¥áĪĿ": 2160,
      "ĠáīłáĪĽáĬķáĬĽáĭįáĪĿ": 2161,
      "áĭ·": 2162,
      "ĠáĭŃáįĪáĪįáĮĭáĪī": 2163,
      "Ġáīłáĭ¨áīĢáĬĳ": 2164,
      "ĠáĬ¨áĪ°": 2165,
      "ĠáĪ¦áĪµáīµ": 2166,
      "Ġáī½áĮįáĪ®áī½": 2167,
      "ĠáĮĵáĭ°áĬĽ": 2168,
      "áĭ¨áĪĿ": 2169,
      "ĠáĬĲáĭįáĬĵ": 2170,
      "Ġ17": 2171,
      "Ġáĭ¨áĪĺáĮ£": 2172,
      "áĪŃáī£": 2173,
      "áĮįáĬĵáĪĪáĪģ": 2174,
      "ĠáĪĨáĬĲáĭį": 2175,
      "áĪ¡": 2176,
      "Ġáĭ¨áĪĨáĬĲáĭį": 2177,
      "ĠáĬ¥áĬķáĭµáīµ": 2178,
      "ĠáīħáĭµáĪļáĭ«": 2179,
      "ĠáĬ¥áĬĶáĬķ": 2180,
      "Ġáĭ©áĬĴáī¨áĪŃáĪ²áī²": 2181,
      "áĭ¨áĪģ": 2182,
      "ĠáĬ¢áĬķ": 2183,
      "áīĢáĭµ": 2184,
      "ĠáĬ¥áĬķáĮįáĭ²áĪħ": 2185,
      "áĪĺáĪĿ": 2186,
      "ĠáĬĥáĮ¢": 2187,
      "ĠáĬłáĪĪáī¥áĬķ": 2188,
      "ĠáīłáĮĪ": 2189,
      "th": 2190,
      "ĠáĭĪáĮª": 2191,
      "áī£áĭĬ": 2192,
      "ĠáĬłáīħáĪŃ": 2193,
      "ĠáĬłáĪµáī¸": 2194,
      "áĪŃáĪµáī²áĭ«": 2195,
      "Ġáīłáī£": 2196,
      "áĬķáĭ±áĪµáīµáĪª": 2197,
      "ĠáĪĺáĬªáĬĵ": 2198,
      "ĠáĬłáĪĭáĭįáīħáĪĿ": 2199,
      "áīłáĬŀáī½": 2200,
      "ĠáĭįáĭŃ": 2201,
      "Ġáī°áĭĪáĭ³": 2202,
      "ĠáĮłáĬķáĬ«áĪ«": 2203,
      "áī»áĪĪ": 2204,
      "áįĪáīµ": 2205,
      "áīĭáĪį": 2206,
      "áĬĲáĮĭáĮĪáĪŃ": 2207,
      "áĬ¨áĭį": 2208,
      "ĠáĬłáĬķáĭ°": 2209,
      "áĭ²áĪ±": 2210,
      "ĠH": 2211,
      "ĠáĪĺáĪĭ": 2212,
      "áĪĺáĮ¡": 2213,
      "ĠáĪĪáĪĮ": 2214,
      "áĮ£áĪī": 2215,
      "Ġáĭ¨áĪļáįĪáĪįáĮī": 2216,
      "áĪĭáĪĪáĪĿ": 2217,
      "áī¡áī¥": 2218,
      "Ġáī¤áī¶áī½": 2219,
      "Ġáĭ¨áĪ¥áĪ«": 2220,
      "Ġáĭ¨áįĸáĪĪáī²áĬ«": 2221,
      "Ġáĭ¨áīĨ": 2222,
      "ĠáĬłáĪĪáĬķ": 2223,
      "áĭ°áĪŃáĮĪ": 2224,
      "áĪĭáĪħ": 2225,
      "áĪ¦": 2226,
      "Ġ24": 2227,
      "Ġáī°áĪ°": 2228,
      "ĠáĬŃáĪŃáĪµáī²áĭ«áĬķ": 2229,
      "áĮĪáĪ¨": 2230,
      "ĠáĬ¥áĬķáĭ´": 2231,
      "Ġáīłáĭµ": 2232,
      "áĭįáĪµ": 2233,
      "ĠáĪįáĬķ": 2234,
      "ĠáĬłáĪµáī°áĭ«áĭ¨áīµ": 2235,
      "áĪ³áī¸áĭįáĬķ": 2236,
      "ĠáĬ¥áĪµáĬ«áĪģáĬķ": 2237,
      "Ġáĭ«áĪµáįĪáĪįáĮĭáĪį": 2238,
      "10": 2239,
      "ĠáīłáĪģáĪīáĪĿ": 2240,
      "áĪĺáĮ¥": 2241,
      "áĪ¨áĭ±": 2242,
      "Ġáī°áĮįáī£áĪŃ": 2243,
      "ĠáĬłáĪīáīµ": 2244,
      "ĠáĮ¥áĭ«áīĦáĭİáī½": 2245,
      "Ġáĭ¨áĮİ": 2246,
      "ĠáĮĭáĭľ": 2247,
      "ĠáĪĺáĪįáĬ¥": 2248,
      "áĬ¬áīµ": 2249,
      "áįĭáĪį": 2250,
      "áĭĪáĭµ": 2251,
      "ĠáĬĲáĭī": 2252,
      "áĮħáīµ": 2253,
      "Ġáīłáĭ°áĬķ": 2254,
      "Ġáī¡áĭµ": 2255,
      "áĬ«áĬ¨": 2256,
      "ĠáĭŃáĪ°áĮ£áĪį": 2257,
      "ĠáĪµáĪŃáĭĵáīµ": 2258,
      "ĠáĪµáī¥áĪ°áī£": 2259,
      "áĪİáĪµ": 2260,
      "ĠáĬĸáĪ®": 2261,
      "Ġáī°áĮ½": 2262,
      "ĠáĪĮáĪĭáĭį": 2263,
      "ĠáĭĿáĪĿ": 2264,
      "ĠáĮįáĪ«": 2265,
      "es": 2266,
      "ĠáīłáĬ¥áĭįáĬĲáī±": 2267,
      "áī£áī¥": 2268,
      "ĠáĬłáĪĺáĪ°áĮįáĬĵáĪĪáĪģ": 2269,
      "Ġáĭ¨áĪļáĮĪáī£": 2270,
      "áĪĺáī±": 2271,
      "áĪµáĪŃ": 2272,
      "ĠáĪ°áĭİáī½áĬķ": 2273,
      "áī¦áī½áĬķ": 2274,
      "ĠáĪĿáĪŃáīµ": 2275,
      "áĮĪáĪªáī±": 2276,
      "Ġáĭ«áĮį": 2277,
      "ĠáĬŃáĪįáĪį": 2278,
      "ĠáĪ°áĪŃ": 2279,
      "Ġáī°áĬ¨áī³": 2280,
      "ĠáĮ½áĪĳáįį": 2281,
      "áĪ«áĭį": 2282,
      "áīħáĬĵ": 2283,
      "Ġáī°áĪµáĪĽ": 2284,
      "áĭ°áĮĪ": 2285,
      "Ġ25": 2286,
      "áĮ¥áĪ¨áīµ": 2287,
      "áĮĭáĪį": 2288,
      "ĠáĪĺáīħ": 2289,
      "áĭįáĪįáĭµ": 2290,
      "áĪ´áī¶áī½": 2291,
      "ĠáĪºáĪħ": 2292,
      "Ġáīµáī½áĪĭ": 2293,
      "áĬĵáīĤ": 2294,
      "Ġáĭ¨áĬĲáīłáĪ¨áĭį": 2295,
      "ĠáīµáĪįáīģ": 2296,
      "Ġáĭ¨áĪĿáī³": 2297,
      "áī¥áĭĽ": 2298,
      "ĠáĭŃáī£": 2299,
      "ĠáĭĪáĪĭ": 2300,
      "áĭ«áĭĻ": 2301,
      "áĮĭáĬĵ": 2302,
      "áĬ¨áįįáī°áĬĽ": 2303,
      "áĮ£áĭŃ": 2304,
      "áī½áĪīáĪĿ": 2305,
      "áīģáĪŃ": 2306,
      "Ġáĭ«áĪµáī°": 2307,
      "ĠáĭŃáīĨ": 2308,
      "ĠáĪĺáĪĦáĭµ": 2309,
      "Ġáī¶": 2310,
      "áĪĵ": 2311,
      "Ġáĭ«áĭµáĪŃáĮī": 2312,
      "ĠáįĪáĮ£áĬķ": 2313,
      "Ġáĭ¨áĪļáī³": 2314,
      "ĠáĪĺáĪµáĪĺáĪŃ": 2315,
      "ĠáĬłáī£áĪĭáīµ": 2316,
      "ĠL": 2317,
      "Ġáī¥áī¸": 2318,
      "ĠáĭŃáĬĵáĮĪ": 2319,
      "áĮ¥áįį": 2320,
      "áĬĲáī±áĬķ": 2321,
      "áĬķáĭ´": 2322,
      "Ġáīłáī°áĪĺáĪ³áĪ³áĭŃ": 2323,
      "ĠáĬ¥áĬĲáĪ±áĬķ": 2324,
      "ĠáĪĪáĪģáĪīáĪĿ": 2325,
      "ĠáīłáĪĿáĭµáĪŃ": 2326,
      "ĠáĬłáīħáĪĿ": 2327,
      "Ġáĭ¨áĪĿáĬĵ": 2328,
      "ĠáĮ¦áĪŃáĬĲáīµ": 2329,
      "ĠáĪįáīµ": 2330,
      "ĠáĪĪáĪ«": 2331,
      "ĠáĭĪáĮĪ": 2332,
      "ĠáĪ»": 2333,
      "áĪĸ": 2334,
      "áĪµáī¡": 2335,
      "áĭ°áĪ¨áĪ°": 2336,
      "áĪĭáī¸áĭįáĪĿ": 2337,
      "ĠáĪĺáĬķáĮĪáĭ¶áī½": 2338,
      "ĠáĪ°áĮ¥": 2339,
      "áĬ«áī£áī¢": 2340,
      "ĠáĬŃáĪŃáĪµáī¶áĪµ": 2341,
      "ĠáĪģáĪĭáī½áĬķáĪĿ": 2342,
      "áĪ´áĬķ": 2343,
      "ĠáĪĺáĪ°áĪ¨áīµ": 2344,
      "áīħáĪŃáī¥": 2345,
      "áĮĭáĪļ": 2346,
      "ĠáĬłáĪĿáĪµáīµ": 2347,
      "ĠáĬłáĭŃáĪĺáĪµ": 2348,
      "ĠáĪļáĬĴáĪµáīµ": 2349,
      "ĠáĪĺáĪĪáĭ«": 2350,
      "Ġáĭ°áĪµáī³": 2351,
      "ĠáĮ¨áĪĿáĪ®": 2352,
      "áĪµáĬĵ": 2353,
      "áĭ°áĮĭ": 2354,
      "áĬ¨áī³áī°": 2355,
      "Ġáī¤áī°áĪ°áī¥": 2356,
      "Ġáĭ¨áĬ®": 2357,
      "ĠáĬķáĮįáĭµ": 2358,
      "áĪŃáĪĥ": 2359,
      "ĠáĬ¨áĪį": 2360,
      "ĠáĭĿáīħ": 2361,
      "ĠáĪħáĭŃáĭĪáīµ": 2362,
      "ĠáĪµáĪįáĬŃ": 2363,
      "ĠáĬŃáī¥áĪŃ": 2364,
      "ĠáĭŃáĪĭáĪī": 2365,
      "ĠáĪ°áĭĵ": 2366,
      "ĠáĪĢáĪ³áī¥": 2367,
      "áĪ³áī½": 2368,
      "áĬĽáĪī": 2369,
      "ĠáĮįáĪįáĮ½": 2370,
      "ĠáĬłáīłáī£": 2371,
      "áī³áĬķ": 2372,
      "áĪĥáĪĪáĪģ": 2373,
      "ĠáĪĺáī¶": 2374,
      "ĠáĪ°áī¥": 2375,
      "ĠáĬłáī¥áĭĽáĬĽ": 2376,
      "ĠáĬŃáįī": 2377,
      "áĪ«áĪŃ": 2378,
      "áĮłáĪĭ": 2379,
      "ĠáīłáĪĽáĭµáĪ¨áĮį": 2380,
      "áĭ°áĪŃáĮĪáĭį": 2381,
      "áĪ»áĪ»áĪį": 2382,
      "áĪĭáĬķáĭµ": 2383,
      "áĭĪáĪŃ": 2384,
      "áĭĸ": 2385,
      "am": 2386,
      "ĠáĬ¥áĬĲáĪŃáĪ±áĪĿ": 2387,
      "ĠáĪ²áĪī": 2388,
      "ĠáĮĪáīłáĭ«": 2389,
      "ĠáĬ¨áĪĭáĭŃ": 2390,
      "áĭĿáĬĵ": 2391,
      "ĠáĬłáĭįáīĥáĪĪáĪģ": 2392,
      "áįĸáĪŃ": 2393,
      "Ġáĭ¨áī¤áī°": 2394,
      "áĮ¤áĬĵ": 2395,
      "ĠáĪĺáĬŃ": 2396,
      "áĪĿáĪ¨": 2397,
      "ĠáīłáĮī": 2398,
      "ĠáĬ¥áī½áĪĭ": 2399,
      "ĠáĪĺáĭĭ": 2400,
      "ĠáĪłáĪ«": 2401,
      "ĠáĬ¥áĬķáĭ°áĪĽ": 2402,
      "áĬªáĭ«": 2403,
      "ĠáīłáĪĺáĪĨáĬĳáĪĿ": 2404,
      "ĠáĪĺáĪįáĬŃ": 2405,
      "áī¡áīµ": 2406,
      "Ġáī°áĪ³": 2407,
      "ĠáĬłáī£áĪį": 2408,
      "ĠáĮ¥áĪ¨áīµ": 2409,
      "ĠáĪĺáĮ¥áįİ": 2410,
      "áĬķáīĥ": 2411,
      "Ġáĭ¨áĬ¤": 2412,
      "áįĪáĬķ": 2413,
      "áįĪáĪįáĮĪáĭį": 2414,
      "áīĢáĪį": 2415,
      "ĠáĬĥáĪĭáįĬ": 2416,
      "ĠáĬłáĮĭáĮ£áĪļ": 2417,
      "ĠáĭĿáĮįáĮģ": 2418,
      "áĬ¨áī£": 2419,
      "áī¡áĬķ": 2420,
      "ĠáĪĺáĮ»": 2421,
      "ĠáĬ¥áĮįáĭļáĬłáī¥áĪĶáĪŃáĬķ": 2422,
      "ĠáĪĪáĪĽáĭĪáīħ": 2423,
      "áĬķáĮī": 2424,
      "ĠáĮįáĬķáī£": 2425,
      "ĠáīłáĪĺáĬķ": 2426,
      "ĠáĪĺáĪįáĭķ": 2427,
      "ĠáĬĥáĭŃ": 2428,
      "áīĢáĭ°": 2429,
      "ĠáĪĺáĮĪ": 2430,
      "Ġáĭ¨áĬ¥áĪŃáĪµáĭİáĬķ": 2431,
      "áīłáĪ¨áĪ°áī¥": 2432,
      "áĮįáĬķ": 2433,
      "Ġáīłáīħ": 2434,
      "áĪªáīµ": 2435,
      "áĬ¸áĭį": 2436,
      "ĠáĬŃáĪµáī°": 2437,
      "áĬ¨áī°áĪį": 2438,
      "Ġáĭ¨áĬ¢áīµáĭ®áĮµáĭ«": 2439,
      "áĪĦáĪŃ": 2440,
      "ĠáīłáīħáĪŃáī¡": 2441,
      "ĠáĪķáĭĿ": 2442,
      "ĠáĪĿáĪŃáī¶áī½": 2443,
      "áĬĲáīł": 2444,
      "ĠáĬ¨áĮ¥": 2445,
      "ĠáĬ¥áĭ«áĪĪ": 2446,
      "ĠáīłáĬ¥áĭįáĬĲáīµ": 2447,
      "Ġáīłáī°áĪĪáĭŃáĪĿ": 2448,
      "áīĢáĪŃáī¥": 2449,
      "ĠáĪ°áĪĽ": 2450,
      "ĠáĬ¥áī½áĪĭáĪĪáĪģ": 2451,
      "ĠáĪĪáĪĽáĭ¨áīµ": 2452,
      "ĠáĭŃáīł": 2453,
      "ĠáĭĪáĭ²áĭ«áĭį": 2454,
      "ĠáĬŃáįįáĪİáī½": 2455,
      "ĠáĪĪáĪĺáĪĨáĬķ": 2456,
      "áĪĬáĭ«": 2457,
      "áĬķáī°áĪŃ": 2458,
      "ĠáĪĨáĬĹáĪį": 2459,
      "áĮ¦áī½": 2460,
      "ĠáĪ¶áĪµáīµ": 2461,
      "ĠáĪ«áĪ±": 2462,
      "ĠáĪķáĭĿáī¡": 2463,
      "ac": 2464,
      "Ġáĭ¨áĪĢ": 2465,
      "ĠáĪĿáĬķáĭµáĬĲáĭį": 2466,
      "áĪĪáĮĭ": 2467,
      "áīĢáĮ¥áĪĪáĭį": 2468,
      "áĪĺáĬĳ": 2469,
      "ĠáĭĪáĪµ": 2470,
      "áĬĵáĪī": 2471,
      "ĠáĬ¥áĬĵáīµ": 2472,
      "áĮ¥áĪ¨": 2473,
      "ĠáįĮ": 2474,
      "áįĶ": 2475,
      "áĬ¨áĪĭáĬ¨": 2476,
      "ag": 2477,
      "ĠáīµáĪŃáĮīáĪĿ": 2478,
      "Ġáĭ¨áīĢáĪ¨": 2479,
      "Ġáī¥áĭĻáĭįáĬķ": 2480,
      "Ġáī±": 2481,
      "áī½áĬĭáĪĪáĪģ": 2482,
      "Ġáī°áĭĭ": 2483,
      "áĪĻáīµ": 2484,
      "Ġáĭ¨áĬłáĭ¨áĪŃ": 2485,
      "Ġ<": 2486,
      "Ġáī°áĬĲ": 2487,
      "Ġáĭ´": 2488,
      "áĪĨáĬĲáĭį": 2489,
      "áĬ¥áĪĿáĪ®": 2490,
      "ex": 2491,
      "Ġáĭ³áĪŃ": 2492,
      "áĪ·áĪį": 2493,
      "áĭ«áī¸áĭį": 2494,
      "ĠáįķáĪ®áĮįáĪ«áĪĿ": 2495,
      "Ġáĭ°áĪµáī°áĬĽ": 2496,
      "ĠáīłáĪĢ": 2497,
      "ĠáĬłáĪµáĭ°áĪ³áī½": 2498,
      "ĠáĮįáĪĿáĮĪáĪĽáĭİáī½": 2499,
      "ĠáīµáĬŃáĬŃáĪį": 2500,
      "ĠáĬłáĭ°áĪŃáĮĭ": 2501,
      "ĠáĬłáīĭ": 2502,
      "one": 2503,
      "áĪ³áĬķ": 2504,
      "ĠáĬłáĪµáī¸áĮĭáĪª": 2505,
      "ĠáīłáĬ¥áĪŃáĪ±": 2506,
      "ĠáĬłáĭ¨áĪŃ": 2507,
      "áĮłáīłáīĢ": 2508,
      "áĭĪáĮ¡": 2509,
      "áĭķáĬĸ": 2510,
      "ĠáĪļáĭ²áĭ«": 2511,
      "áĪĽáĪ½": 2512,
      "áĪĦáĭ±": 2513,
      "Ġáīłáĭ°áĬķáī¥": 2514,
      "ĠáĪĺáįįáīµáĪĦ": 2515,
      "áīµáĪŃ": 2516,
      "ĠáĭĪáĪ«áīµ": 2517,
      "áĪĶáĪ«áĭĬ": 2518,
      "áĭµáĪµáīµ": 2519,
      "Ġáĭ¨áĪļáĪĪáĭįáĬķ": 2520,
      "áĪ«áĪĪáĪģ": 2521,
      "ĠáĪģáĬĶáī³áĭİáī½": 2522,
      "12": 2523,
      "ĠáĭķáĭµáĪį": 2524,
      "Ġáĭ¨áīµáĪĿáĪħáĪŃáīµ": 2525,
      "ĠáīłáĬ¥áĬĶ": 2526,
      "ĠáĬķáĮīáĪ¥": 2527,
      "Ġáĭ«áĭ°áĪŃáĮĭáĪį": 2528,
      "ĠáĬ¨áĬ¥áĪŃáĪ±": 2529,
      "ĠáĪĺáĬĸ": 2530,
      "áĭµáĪ¨áĪµ": 2531,
      "áĪįáĭµ": 2532,
      "ĠáīłáĬłáĮłáīĥáĪĭáĭŃ": 2533,
      "ĠáĪ°áĪ«": 2534,
      "15": 2535,
      "ĠáĮīáĭ³áīµ": 2536,
      "ĠáīĢáĭµáĪŀ": 2537,
      "ĠáĪŀáīµ": 2538,
      "ĠáįĸáĪĪáī²áĬ«": 2539,
      "áĪ¨áįį": 2540,
      "Ġ0": 2541,
      "áĪ»áĪį": 2542,
      "ĠáīłáĮİ": 2543,
      "ĠáĬ¥áĬķáĭ°áĪĽáĭŃ": 2544,
      "ĠáĪĿáĪįáĬŃáīµ": 2545,
      "ĠáįįáĮ¥áĬĲáīµ": 2546,
      "áĭ³áĪĿ": 2547,
      "áĭ¢": 2548,
      "áĬĶáīµ": 2549,
      "ĠáįĪáĮ½": 2550,
      "ĠáĬĲáĭĭ": 2551,
      "áĮĪáĪ«áī½áĬķ": 2552,
      "Ġáī°áĮĪáī¢": 2553,
      "et": 2554,
      "áįı": 2555,
      "áĪīáīµáĬķ": 2556,
      "áī³áĪĿ": 2557,
      "áĪ°áĪĽáĭŃ": 2558,
      "ĠáĪµáĪħáī°áīµ": 2559,
      "ĠáįįáĮ¹áĪĿ": 2560,
      "ĠáĭĪáĮ£áīµ": 2561,
      "ĠáĬłáĪįáī»": 2562,
      "ĠáīµáĪ«": 2563,
      "áĮ¨áĬĲ": 2564,
      "áĪ¬áĬķ": 2565,
      "ĠáĭµáĪĿáįħ": 2566,
      "Ġáīłáī°áĪĪáĭ«áĭ©": 2567,
      "ĠáĭŃáĭĪáĪµ": 2568,
      "Ġáī¥áĪŃáĪĥáĬķ": 2569,
      "ĠáĭįáĮ¤áī³áĪĽ": 2570,
      "ĠáįĭáĭŃ": 2571,
      "áĪŀáĬ¨áĪŃ": 2572,
      "Ġáĭ¨áĪļáįĪ": 2573,
      "ĠáĭŃáĭŀ": 2574,
      "áĪĺáĪĪáĬ¨áīµ": 2575,
      "ĠáįĪáī°áĬĵ": 2576,
      "áĪĤáī¥": 2577,
      "Ġáī³áĭįáīĥ": 2578,
      "ĠáĬ¨áĬ¥áĬĶ": 2579,
      "áĭĭáī¸áĭįáĬķ": 2580,
      "ĠáĪĪáĪĺáįį": 2581,
      "áĪ¨áĮħáĪĿ": 2582,
      "ĠáĪĽáĪħáīłáĪ«áĭĬ": 2583,
      "áĪĪáĭįáĬķ": 2584,
      "Ġáĭ°áĮĭ": 2585,
      "ĠáĪģáĪĪáī°áĬĽ": 2586,
      "Ġ100": 2587,
      "ĠáĮĥ": 2588,
      "Ġáĭ¨áĬłáĬķáĭµ": 2589,
      "áĭĭáĪĪáĬķ": 2590,
      "áĪĮáĬŃáīµ": 2591,
      "áīŃ": 2592,
      "áī³áĭ°": 2593,
      "Ġáĭ¨áĭŃ": 2594,
      "Ġáīłáīĥ": 2595,
      "ĠáĬłáĪµáī³áĭį": 2596,
      "Ġáī°áĮĭ": 2597,
      "ĠáĪģáĪĪáī±": 2598,
      "ĠáĬłáĭŃáī½áĪīáĪĿ": 2599,
      "áĪ«áī½áĬķ": 2600,
      "ĠáīłáįĪ": 2601,
      "áįĬáī±": 2602,
      "ĠáīłáĭįáĪµ": 2603,
      "ĠáĭµáĪŃáĮĬ": 2604,
      "áĭ«áĭŃ": 2605,
      "ĠáĮ¥áĬĵáīµ": 2606,
      "Ġáĭ¨áĪļáĮĪáĬĻ": 2607,
      "áįįáĪªáĬ«": 2608,
      "ĠáĬłáĮłáīĥáĪĭáĭŃ": 2609,
      "áĪ¨áī±": 2610,
      "Ġáĭ¨áĭĭ": 2611,
      "ĠáĮłáī¥": 2612,
      "áī¥áĪ¨áī°": 2613,
      "áĮĢáĪį": 2614,
      "ĠáĬ¨áī³": 2615,
      "áĭ¨áĪ©": 2616,
      "áĪªáĭį": 2617,
      "áĬŀáī½áĬķ": 2618,
      "áĭ¨áĬķ": 2619,
      "áĪĽáī¸áĭį": 2620,
      "áĪŀáĬŃáĪ«áĪ²": 2621,
      "ĠáĭĪáĮĪáĬķ": 2622,
      "áĪĸáĭĭ": 2623,
      "Ġáīłáĭĺ": 2624,
      "áĪ°áĪį": 2625,
      "ĠáĬłáĭ°áĪŃáĮĭáĪĪáĪģ": 2626,
      "áĮ£áĮ«": 2627,
      "Ġáĭ°áī¥": 2628,
      "ĠáĪįáĭ©áĬĲáīµ": 2629,
      "Ġáĭ¨áī°áĬĲáĪ³": 2630,
      "ĠáĪĺáĬķáĮįáĪ¥": 2631,
      "Ġáī½áĪİáī³": 2632,
      "Ġáī¦áī³áĭİáī½": 2633,
      "Ġáĭ¨áĮī": 2634,
      "áĮłáĬĿáĬĲáīµ": 2635,
      "Ġáī´áĬŃáĬĸáĪİáĮĤ": 2636,
      "ĠáĬłáĪĪáī¥áĭİáīµ": 2637,
      "ĠáĪ°áĪĿ": 2638,
      "áĪ«áĪĪáĬķ": 2639,
      "áĭŃáĪħ": 2640,
      "ĠáīłáĪģáĪĪ": 2641,
      "áĪ¨áī³áĭĬ": 2642,
      "áĮĪáĪ©": 2643,
      "ĠáīłáĮŃáĪ«áĪ½": 2644,
      "áĪµáĪĿ": 2645,
      "ĠáĮ¥áĪŃ": 2646,
      "ĠáĬ¥áĪ±áĪĿ": 2647,
      "ĠáĪĿáĬŃáĬķáĭ«áī¶áī½": 2648,
      "Ġ21": 2649,
      "Ġáĭ±": 2650,
      "áĭĪáĪ°áĬĲ": 2651,
      "áĪĺáĬĲ": 2652,
      "ĠáĭĪáĬķáĭ¶áī½": 2653,
      "áĮĬáĭľáĭį": 2654,
      "áĪ®áįķ": 2655,
      "ĠáĭĪáĭ²áĪħ": 2656,
      "Ġáī£áĪĪáįĪáĭį": 2657,
      "áīłáĪ¨áī³": 2658,
      "ĠáĬ¥áĪµáĪ«": 2659,
      "áĭ³áĬķáīµ": 2660,
      "áĬ¨áĪ¨": 2661,
      "ĠÂ": 2662,
      "ĠáĬ¥áĭµáĪį": 2663,
      "áĬĵáĭŃáīµ": 2664,
      "áĮĵáĭĿ": 2665,
      "Ġáĭ¨áĭįáĮŃ": 2666,
      "ĠáĬ¥áĮįáĪŃ": 2667,
      "áī³áĪĪáĪģ": 2668,
      "ĠáĮĪáī¢": 2669,
      "áĭŃáĪĽáĬĸáīµ": 2670,
      "ĠáĬ¥áĬķáĭ²áĪĨáĬķ": 2671,
      "Ġáĭ¨áĪļáĪĨáĬĳ": 2672,
      "ĠáįįáĪ¬": 2673,
      "Ġáĭ°áĪħáĬĵ": 2674,
      "áĬĵáĬķ": 2675,
      "Ġáī£áĪķ": 2676,
      "áĭĺáĮĭáĮħ": 2677,
      "Ġáī°áĮłáīĥáĪļáĭİáī½": 2678,
      "id": 2679,
      "ĠáĬłáĪįáįİ": 2680,
      "áī¥áī»": 2681,
      "áī¶áī»áī½áĬķ": 2682,
      "ĠáĪĪáĪį": 2683,
      "Ġáĭ¨áĪļáĪ°áĮ¡áĭĭáī¸áĭįáĬķ": 2684,
      "áĮĭáĭĬ": 2685,
      "áĬĽáĭįáĬķáĪĿ": 2686,
      "Ġ22": 2687,
      "ĠáĪ°áĬĲ": 2688,
      "Ġáĭ¨áĪĿáĪŃ": 2689,
      "ĠáīłáĪ«áĪ±": 2690,
      "ĠáĬłáĭŃáĭ°áĪį": 2691,
      "Ġáĭ¨áĪļáī½áĪī": 2692,
      "ĠáĬ«áĪŃ": 2693,
      "ĠáĬ¬": 2694,
      "ĠáĪĪáĪĺáĮĢáĪĺáĪªáĭ«": 2695,
      "Ġáĭ¨áĪļáĪĨáĬķ": 2696,
      "ĠáĬłáĭĭ": 2697,
      "ĠáĬ¥áĪŃáĭ³áī³": 2698,
      "ĠáĮ³": 2699,
      "ĠáĬ¨áĪĨáĬĳ": 2700,
      "áĪµáĬŃ": 2701,
      "Ġáīłáī¥áĭĻ": 2702,
      "Ġáĭ«áĮįáĬĻ": 2703,
      "ĠáĭŃáĮłáĭŃ": 2704,
      "ĠáīĥáĪĭáīµ": 2705,
      "ĠáīłáīĢáĮ¥áī³": 2706,
      "áī£áĪĪáĪģ": 2707,
      "ĠáĬłáĭµáĪ«": 2708,
      "áĪĭáĪĪáĪģ": 2709,
      "áĬķáĮįáĪĬáĭĿ": 2710,
      "áĪ³áī½áĬķ": 2711,
      "ĠáĬłáĪµáī°áĭĭ": 2712,
      "ĠáĭŃáĪ¨áĭ³": 2713,
      "Ġáī³áĪĭ": 2714,
      "ĠáĪķáĭŃáĭĪ": 2715,
      "ĠáĬĲáĮ¥áī¥": 2716,
      "ĠáĪĺáĪ¬áīµ": 2717,
      "ĠáĭŃáĮĢáĪĿ": 2718,
      "ĠáĪģáĪĮ": 2719,
      "ĠáĪįáĪĽáīµ": 2720,
      "ĠáīłáĬ¥áĬĽ": 2721,
      "Ġáī¥áĪį": 2722,
      "áĭĲ": 2723,
      "áįĬáĭİáī½": 2724,
      "áī¸áĭī": 2725,
      "ĠáĪĺáĮĭ": 2726,
      "ĠáĬłáĭŃáī»": 2727,
      "áĭĿáĪĿ": 2728,
      "áĭĪáĮĪáĭµ": 2729,
      "áĭ¨áīħ": 2730,
      "Ġáĭ¨áĪµáĪ«": 2731,
      "áĮŃáīµ": 2732,
      "ĠáĮīáĭ³áĭ©": 2733,
      "ĠáĬ¨áĪĮáĪİáī½": 2734,
      "11": 2735,
      "ĠâĢºâĢº": 2736,
      "áĪĺáĬĵáĭĬ": 2737,
      "Ġáĭ¨áĪĥ": 2738,
      "Ġáĭ¨áĭµáĪŃ": 2739,
      "ĠáĪĿáĭµ": 2740,
      "ĠáĪĥáĪ³áī¥": 2741,
      "áĪĭáĬ«": 2742,
      "áĭĪáīħáī±": 2743,
      "ĠáĭŃáīĢáĮ¥": 2744,
      "ĠáīłáĪļáĭ«": 2745,
      "áĪ¨áĬķáĪ³áĭŃ": 2746,
      "ĠáĭŃáī³áĭĪ": 2747,
      "ĠáĬķáī¥áĪ¨áīµ": 2748,
      "ĠáĬłáĬķáīĢ": 2749,
      "áĭĺáĮĭáĮĢ": 2750,
      "Ġáī³áĭĭáīĤ": 2751,
      "ĠáĬ®áĪļ": 2752,
      "áĪ½áĬ¨áĪŃ": 2753,
      "áĭ±áĬķ": 2754,
      "Ġáĭ°áĪ¨": 2755,
      "Ġ23": 2756,
      "ĠáĬ¨áĬ¥áĬĲáĭļáĪħ": 2757,
      "áĬ¨áĪĭáĬ¨áĪį": 2758,
      "áī¢áīµ": 2759,
      "áĪµáī¶": 2760,
      "Ġáĭ¨áī°áīĢ": 2761,
      "áīłáĪµ": 2762,
      "áĪŃáĪĺáĬķ": 2763,
      "ĠáĭŃáĭĺáīµ": 2764,
      "áĪİáī¹": 2765,
      "Ġáĭ¨áī¤áīµ": 2766,
      "ĠáĮĪáī£": 2767,
      "áĪ½áīµ": 2768,
      "ĠáĪĺáīĨ": 2769,
      "Ġáīłáĭĭ": 2770,
      "áī³áī½áĬķáĬķ": 2771,
      "áĭĺáĭį": 2772,
      "áĪ¾áī½": 2773,
      "áīĢáĬķ": 2774,
      "ay": 2775,
      "áĬķáĮįáĭ²áĪħ": 2776,
      "ad": 2777,
      "ĠáĬłáĪĺáĪĪ": 2778,
      "ĠáĪĻáĭļáīĥ": 2779,
      "áĪĲáĬķáĪµ": 2780,
      "áĪĮáīµ": 2781,
      "ĠáīĨáĬķ": 2782,
      "áī³áĪī": 2783,
      "Ġáĭ¨áĬ¦": 2784,
      "ĠáĪĽáĬħ": 2785,
      "ĠáĬłáĪĭáĪħ": 2786,
      "ĠáĭŃáĪĦáĬķ": 2787,
      "Ġáĭ¨áĪ½": 2788,
      "áĪ«áī½áĪģ": 2789,
      "ĠáĮ¨áĭĭáī³áĭİáī½": 2790,
      "áĬ¨áĬĵáĭĪáĬķ": 2791,
      "Ġáĭ¨áī°áĭĪáĪ°áĬĲ": 2792,
      "Ġáĭ¨áĪļáĭ«áĪ³": 2793,
      "ĠáīµáĭįáĪįáĭµ": 2794,
      "Ġáĭ¨áīħ": 2795,
      "ĠáĬłáĭŃáĪĨáĬķáĪĿ": 2796,
      "áįįáĬķ": 2797,
      "áĪĺáĪĪáĪ±": 2798,
      "ĠáīłáĪĿáĬķ": 2799,
      "áīĭáīĭáĪĿ": 2800,
      "áĬĵáĮĪáĪ©": 2801,
      "ĠáĪ¥áĪŃáĭĵáīµ": 2802,
      "Ġáĭ¨áĬĥ": 2803,
      "ĠáĬ¨áĬ¥áĬĵáĬķáī°": 2804,
      "ĠáĬłáīħáĮ£áĮ«": 2805,
      "ĠáĬ¥áĪħ": 2806,
      "ĠáĪĪáĪĿáĬķáĭµ": 2807,
      "ĠáĮħ": 2808,
      "áĭŃáĪĿ": 2809,
      "as": 2810,
      "áĪµáī´": 2811,
      "áĬķáĭĿ": 2812,
      "áĪĺáĪ©": 2813,
      "Ġ>": 2814,
      "ĠáĭŃáĪĺáĮ£áĪį": 2815,
      "áĮįáī£áĪŃ": 2816,
      "ĠáĭŃáįĪáĪįáĮĭáĪį": 2817,
      "ext": 2818,
      "Ġáĭ¨áĭĪáĭ°": 2819,
      "ĠáīłáĪĺáĮłáīĢáĪĿ": 2820,
      "Ġáĭ¨áī°áĪĪáĪĺ": 2821,
      "ĠáĬłáĮĪáĬĺ": 2822,
      "21": 2823,
      "áĮĬáĭ«": 2824,
      "áĪĻáĪŃ": 2825,
      "ĠáĪĪáĬ¥áĬĽ": 2826,
      "Ġáī°áĬ¨": 2827,
      "áĬĵáĭŃáīµáĭµ": 2828,
      "ĠáĪ«áĪ±áĬķ": 2829,
      "Ġáĭ«áĪĪáīłáīµ": 2830,
      "ĠáĪĪáĪµ": 2831,
      "ĠáīłáĬłáĪľáĪªáĬ«": 2832,
      "áĪŁáĪį": 2833,
      "áĪŀáĪĭ": 2834,
      "ĠáĪµáĮ¦": 2835,
      "Ġáī°áĪ¸": 2836,
      "ĠáĪĽáĪµáī³áĭĪáīĤáĭ«": 2837,
      "áĪıáī¸áĭį": 2838,
      "áĭ³áĪī": 2839,
      "áĮĲ": 2840,
      "áĭĪáīĢ": 2841,
      "áĬĸáĪ¨": 2842,
      "ĠáĪĪáĪħ": 2843,
      "ĠáĬłáĪĪáĪĿ": 2844,
      "ĠáĭĪáĭ°áįĬáīµ": 2845,
      "ĠáīµáĪĿáĪħáĪŃ": 2846,
      "áĮ¨áīµ": 2847,
      "ĠáĬ¨áĬĲ": 2848,
      "áĭµáīħ": 2849,
      "áĬĴáīµ": 2850,
      "ĠáĪĻáĬ¨áĪ«": 2851,
      "áĭ«áĮŃ": 2852,
      "ĠáīłáĪļáĪį": 2853,
      "áĭİáī¹áĬķ": 2854,
      "áĪłáĪ©": 2855,
      "ĠáĬłáĮĪáĪ®áī½": 2856,
      "ĠáĪĺáĭįáĪ°áĭµ": 2857,
      "áįįáīµáĭĮ": 2858,
      "Ġ50": 2859,
      "ĠáīµáĬ¥": 2860,
      "ĠáĪµáĪĿáĪĿáĬĲáīµ": 2861,
      "ĠáīłáĬ¢áīµáĭ®áĮµáĭ«": 2862,
      "Ġáĭ¨áĮĪáĬķáĭĺáī¥": 2863,
      "ĠáĪļáĪµáīµ": 2864,
      "ĠáĭŃáīħáĪŃáī³": 2865,
      "ĠáĪĺáĬ¨áĪ«": 2866,
      "Ġp": 2867,
      "áĮłáī£": 2868,
      "Ġáī°áĮįáī£áĪ«áĭĬ": 2869,
      "ĠáĬŃáī¥": 2870,
      "áī½áĪĿ": 2871,
      "ĠáĪĿáĭķáĪ«": 2872,
      "áĬĲáĪ°": 2873,
      "áĬŃáī°áĪŃ": 2874,
      "áĪĿáĪĿ": 2875,
      "ĠáĬłáĬķáĭ²": 2876,
      "áĭ°áĪ«": 2877,
      "ĠáĭŃáĮĪáĬĽáĪī": 2878,
      "Ġáįħ": 2879,
      "18": 2880,
      "ĠáĬ¥áĬķáĭµáĬķ": 2881,
      "áĪµáī°áĬ«": 2882,
      "ĠáĬŃáĪŃáĪµáī²áĭ«": 2883,
      "áĭįáĬĵ": 2884,
      "Ġáĭ¨áī°áĪ»": 2885,
      "ĠáĪĿáĬķáĮŃ": 2886,
      "áĬŃáĪ²": 2887,
      "ĠáĭĽáĪ¬áĪĿ": 2888,
      "ĠáĬłáī¥áĪ®": 2889,
      "Ġáĭ«áĪĭáī¸áĭįáĬķ": 2890,
      "Ġáĭ¨áĬ¥áĮįáĭļáĬłáī¥áĪĶáĪŃáĬķ": 2891,
      "áĪµáī²": 2892,
      "áī¥áĪħ": 2893,
      "ĠáĭįáĮª": 2894,
      "Ġáĭ¨áĪļáīĨáĮłáĪ©": 2895,
      "ĠáĪµáī´": 2896,
      "ĠáĪĺáįĪ": 2897,
      "ĠáĪħáĭŃáĭĪ": 2898,
      "ĠáīłáĪµáī°áīĢáĪŃ": 2899,
      "ĠáĭįáĭŃáĭŃáīµ": 2900,
      "ĠáĪĽáĮį": 2901,
      "ed": 2902,
      "áĬłáĭŃ": 2903,
      "áĬ¨áĬķ": 2904,
      "ĠáĬłáĬķáīº": 2905,
      "Ġáī¥áĪıáĪį": 2906,
      "ĠáĪĺáī¼áĪĿ": 2907,
      "ĠáĬłáĭŃáī»áĪįáĪĿ": 2908,
      "ĠáīģáĪŃ": 2909,
      "ĠáīĨáĬķáĮĨ": 2910,
      "Ġáĭ¨áī´": 2911,
      "Ġáī¥áĪĭ": 2912,
      "ĠáīłáĬ¥áĬĲáĭļáĪħ": 2913,
      "áĬ©áĬĿ": 2914,
      "ĠáĬłáĭµáĪŃáĮĪ": 2915,
      "ĠáĬ¥áĬĽáĬķ": 2916,
      "áĪĪáĮ¥": 2917,
      "ĠáīłáĪ°áĭį": 2918,
      "ĠáĪĽáĬķáĬĽáĭįáĬķáĪĿ": 2919,
      "Ġáī¢áĭ«": 2920,
      "ĠáĬłáĪµáī°áĭ³áĭ°áĪŃ": 2921,
      "áī¾": 2922,
      "áĪĪáĪ½": 2923,
      "ĠáįĴ": 2924,
      "ĠáĬ¥áĬ©áĪį": 2925,
      "ĠĠ": 2926,
      "ĠáĬłáįįáĪªáĬ«": 2927,
      "áĮłáĬĿ": 2928,
      "Ġáĭ¨áī°áĭĪáĪ°áĬĳ": 2929,
      "ĠáĬłáĭŃáĮĪáī£": 2930,
      "ĠáĬ¨áĪģáĪīáĪĿ": 2931,
      "ĠáĬ¥áĬĲáĭļáĭ«": 2932,
      "ĠáĪĿáĪįáĬŃ": 2933,
      "áĭ³áī¤": 2934,
      "áĬ¨áĪĭáĬ¨áĭ«": 2935,
      "ĠáĬ¥áĬķáĪµ": 2936,
      "Ġ)": 2937,
      "áĪĭáĪĭ": 2938,
      "áĪĲáĭŃ": 2939,
      "áĪĪáĬĿáĪĿ": 2940,
      "áĬķáĬĲáīµ": 2941,
      "Ġáī£áĪĪáī¤áīµ": 2942,
      "áī»áĭŃáĬĵ": 2943,
      "ĠáĮīáī£": 2944,
      "ĠáĪĺáĮłáīłáīħ": 2945,
      "áĪģáįį": 2946,
      "áįīáĬķ": 2947,
      "áĬŃáĪŃáĪµáī²áĭ«áĬķ": 2948,
      "ĠáĬ¨áĭį": 2949,
      "ĠáĬ¨áĪµ": 2950,
      "Ġáī¥áĭĽáīµ": 2951,
      "ĠáĪĪáĭĪ": 2952,
      "ĠáĬ¨áĬ¥áĬĽ": 2953,
      "ĠáĪĪáĬłáĬķáĭµ": 2954,
      "ĠáĪįáĮģ": 2955,
      "Ġáĭ«áĭįáīĥáĪį": 2956,
      "Ġáī°áĬķ": 2957,
      "ĠáĮ¥áĪª": 2958,
      "Ġáī°áĪŀáĬŃ": 2959,
      "áĭ©áīµ": 2960,
      "Ġáĭ¨áĭµ": 2961,
      "ĠáĬłáĬĲáĪµáī°áĬĽ": 2962,
      "áĪ³áĪ°áī¥": 2963,
      "áįĪáĪĪáĮĪ": 2964,
      "ĠiP": 2965,
      "Ġáĭ³áĭĬáīµ": 2966,
      "ĠáĪĺáĪ¸": 2967,
      "ĠáīłáĭĿ": 2968,
      "ĠáĪ½áĪį": 2969,
      "Ġáī°áĭĪáĭ³áĮħ": 2970,
      "Ġáĭ«áĭįáīĥáĪī": 2971,
      "ĠáĪī": 2972,
      "Ġáĭ¨áĭķ": 2973,
      "ĠáĬ¥áĬķáĭ°áĪĮ": 2974,
      "áī£áī¸áĭĭáĪį": 2975,
      "ĠáĪĢáī¥": 2976,
      "Ġáĭŀ": 2977,
      "áĪģáĪī": 2978,
      "Ġs": 2979,
      "Ġáī°áĪµáĪĽáĪļ": 2980,
      "áĭĺáĮĪ": 2981,
      "Ġáī³áĪª": 2982,
      "Ġáī«": 2983,
      "Ġáĭ¨áĬĲáīłáĪ©": 2984,
      "áīĢáĭĭáĪį": 2985,
      "ĠáĭľáĮİáī½": 2986,
      "áĪĭáī½áĬķ": 2987,
      "ĠáĪĿáĪŃáĪĺáĪ«": 2988,
      "áĪħáĪŃ": 2989,
      "áĬ£": 2990,
      "áĬķáī£": 2991,
      "áĪĪáĭĭ": 2992,
      "ĠáĮ¥áīłáī¥": 2993,
      "ĠáĬłáĬĵ": 2994,
      "ĠáĬ¥áĪµáī²": 2995,
      "áĭ³áĮħ": 2996,
      "ĠáĪĺáĭµáĪ¨áĬŃ": 2997,
      "áĬĲáĬĽ": 2998,
      "ĠáĭŃáĮłáī¥": 2999,
      "ĠáĪµáī³": 3000,
      "áĬĵáĮĪáĪ¨": 3001,
      "ĠáĪĪáĭļáĪħáĪĿ": 3002,
      "Ġm": 3003,
      "ĠáīłáĭĵáĪį": 3004,
      "ĠáĪĪáĪĽáĬķ": 3005,
      "ing": 3006,
      "ĠáĪĦáĭ°": 3007,
      "áĬ¨áĪĽ": 3008,
      "áĪįáĪµ": 3009,
      "áĬŃáī¶": 3010,
      "áī§áĪį": 3011,
      "áĭ«áĪī": 3012,
      "áĬĲáĪ£": 3013,
      "áĬķáĮ«": 3014,
      "áĪµáī¡áĬŃ": 3015,
      "áĭ³áĬĵ": 3016,
      "ĠáįĪáĪį": 3017,
      "áĭ°áĪ°": 3018,
      "áĪ³áĬ«": 3019,
      "ĠáĬłáĪ«": 3020,
      "ĠáĪ°áįĬ": 3021,
      "ĠáĪĪáĪĺáĪµáĮłáīµ": 3022,
      "ĠáīłáĬ¥áĪŃáĪµáĭİ": 3023,
      "ĠáįĪáĮ½áĪŀ": 3024,
      "ĠáĬ¨áīł": 3025,
      "áįķáĪ®": 3026,
      "áī£áī½áĪģ": 3027,
      "áĮ¾": 3028,
      "ĠO": 3029,
      "áĪŃáī¶": 3030,
      "ĠáĬ©áī£áĬķáĭ«áĭİáī½": 3031,
      "áĭİáī»áī½áĬķ": 3032,
      "ĠáĭĪáĪ°": 3033,
      "ĠáĪ³áĪĿáĬķ": 3034,
      "ĠáĬ¥áĬķáĭ°áĪļáī½áĪį": 3035,
      "ĠáĪĺáĪĨ": 3036,
      "Ġáĭ°áĪħáĬķáĬĲáīµ": 3037,
      "áīµáĪµ": 3038,
      "áī³áĪ¨": 3039,
      "áĭ°áĬĽ": 3040,
      "14": 3041,
      "ĠáĭĪáĭ²áĭ«áĭįáĬĳ": 3042,
      "ĠáĪĽáĮ¥": 3043,
      "áĪ²áĭ«": 3044,
      "13": 3045,
      "Ġáĭ¨áĬĶ": 3046,
      "ĠáĪĺáĬĵáĮĪáĪŃ": 3047,
      "áĪĪáīħ": 3048,
      "Ġáĭ¨áįĢ": 3049,
      "ĠáĬłáĮĪáĪį": 3050,
      "ĠáīłáĪ½áī³": 3051,
      "áĬ«áĪª": 3052,
      "ĠáĬ¥áĬķáĭ°áĪĿáīµ": 3053,
      "áī³áĪĪáĬķ": 3054,
      "áĭĳ": 3055,
      "ĠáĪĺáĪĨáĬĵ": 3056,
      "áī·áĬķ": 3057,
      "Ġáĭ¨áī°áī£": 3058,
      "áĪĪáĪģáĪĿ": 3059,
      "áīĨáĮ£áĮłáĪŃ": 3060,
      "áĪģáĭµ": 3061,
      "ĠáīĢáĮł": 3062,
      "Ġáī°áĪŀáĬŃáĪ®": 3063,
      "áĪ¨áĬĽ": 3064,
      "ĠáĪĺáĮ½": 3065,
      "áĭ¨áĪ©áĪ³áĪĮ": 3066,
      "áĪ³áĬĿ": 3067,
      "áĪ³áĪī": 3068,
      "ĠáĪ°áī£áīµ": 3069,
      "Ġáĭķáĭį": 3070,
      "ĠáĪĽáĪŃ": 3071,
      "ĠáĮįáī¥áĪŃ": 3072,
      "ĠáĮīáĭµ": 3073,
      "Ġáĭ¨áĪĽáĭ«": 3074,
      "ĠáĬ¢áĬķáĭ±áĪµáīµáĪª": 3075,
      "áįĢáĪĿ": 3076,
      "ĠáĭŃáįĭ": 3077,
      "áĪ³áī½áĪģ": 3078,
      "áī»áī½áĪģ": 3079,
      "áĮłáĪ¨áĭį": 3080,
      "áĬĵáĭĬ": 3081,
      "áīĢáĭµáĪŀ": 3082,
      "ĠáĬ¨áĬ¥áĬĲáĪŃáĪ±": 3083,
      "ĠáĪĺáĪµáĪ«áīµ": 3084,
      "ĠáīģáĪįáįį": 3085,
      "Ġf": 3086,
      "ĠáĭŃáĪĨáĬĵáĪī": 3087,
      "Ġáĭ¨áĮ¤áĬĵ": 3088,
      "ĠáĬ¥áĭĪáĭ³": 3089,
      "ĠáĬłáĭ°áĪ¨áĮĪ": 3090,
      "ĠáĪĽáīħáĪ¨áī¥": 3091,
      "áĬŃáī¥": 3092,
      "ĠáĮįáĭ´": 3093,
      "áĭ«áīĤ": 3094,
      "ĠáĪ°áĭŃ": 3095,
      "ĠáīłáĬ¨áįįáī°áĬĽ": 3096,
      "Ġ#": 3097,
      "ĠáĪĪáĭĺáĪĭáĪĪáĪĿ": 3098,
      "áĪ®áĬķ": 3099,
      "ĠáĭĭáĬĵáĭį": 3100,
      "Ġáī°áīĢáī£áĭŃ": 3101,
      "Ġáĭ¨áĪĺáĪµáĪĺáĪŃ": 3102,
      "Ġáĭķáīĥ": 3103,
      "200": 3104,
      "Ġáįįáīµ": 3105,
      "Ġáī²": 3106,
      "áĪĺáĪĪáĬ¨áī±": 3107,
      "ĠáĭĪáĭ«áĬĶ": 3108,
      "áĮīáīµ": 3109,
      "áĮĪáĬĵáĬĺáīµ": 3110,
      "áĪ¸áīµ": 3111,
      "áĪĿáĮ£áīµ": 3112,
      "ĠáĬłáĪ¨": 3113,
      "ĠáĬ¥áĭŃáī³": 3114,
      "áī¿": 3115,
      "is": 3116,
      "áĬĳáĪĿ": 3117,
      "áĬķáĭ¶áī¹": 3118,
      "áĪĪáīłáīµ": 3119,
      "áĬķáīĥáīĦ": 3120,
      "el": 3121,
      "Ġáĭ¨áĬ¥áĪµáĪ«áĬ¤áĪį": 3122,
      "ĠáīłáĭĪáīħáī±": 3123,
      "áĭįáīĥáĪĪáĬķ": 3124,
      "ĠáĭŃáĬ": 3125,
      "áĮ¾áī½": 3126,
      "Ġ26": 3127,
      "Ġáī°áĮ½áĭķáĬĸ": 3128,
      "áĬĲáĮĪáĪŃ": 3129,
      "áī¸áĭĭáĪĪáĪģ": 3130,
      "áĪµáīµáĬĵ": 3131,
      "áĪ¸áĬĲáįį": 3132,
      "ĠáĪµáĬķáīµ": 3133,
      "ĠáĪĺáĬĲáĪ»": 3134,
      "ĠáĭŃáī°": 3135,
      "áĪĪáī¥": 3136,
      "áĬĭáĪĭ": 3137,
      "áĪĪáīĢ": 3138,
      "áĬłáĬķáĭµ": 3139,
      "Ġáĭ¨áĪĪáīłáīµáĪĿ": 3140,
      "ĠáĬłáĪµáĭ°áĬĵáīĤ": 3141,
      "áĬ«áĪĦáĭµ": 3142,
      "Ġáī°áīĭáĪĽáīµ": 3143,
      "ĠáĪĺáĪįáĬ¥áĬŃáīµ": 3144,
      "ĠáīłáĪķáĭŃáĭĪáīµ": 3145,
      "ĠáįķáĪ®áĮĢáĬŃáīµ": 3146,
      "ĠáĪĽáĪ°áī¥": 3147,
      "Ġáĭ¨áīħáĪŃáī¥": 3148,
      "Ġáĭ¨áīģ": 3149,
      "Ġáĭ°áĪĿ": 3150,
      "áĪ«áĭĬáīµ": 3151,
      "Ġáĭ°áīĤáīĥáĭİáī½": 3152,
      "ĠáĪĽáĪ¨": 3153,
      "ĠáĪĺáĬķáįĪ": 3154,
      "áĬķáī²": 3155,
      "áĮįáĭ³": 3156,
      "Ġáĭ¨áĪĨáĬĲáĭįáĬķ": 3157,
      "ĠáĪĽáī³": 3158,
      "áĪ¨áįįáīµ": 3159,
      "áĪĭáĪĪáįį": 3160,
      "ĠáĬ«áĪįáĪĨáĬĲ": 3161,
      "ĠáĪĪáĮ¥": 3162,
      "áĬĵáĪĪáĪģ": 3163,
      "áĭ°áĪµ": 3164,
      "áĬķáĮįáĪ¥áīµ": 3165,
      "áĪŀáĬķ": 3166,
      "ĠáĬłáĬķáī°áĪĿ": 3167,
      "áĪĺáĬĿ": 3168,
      "ĠáĪĬáĭ«áĪµ": 3169,
      "ĠáĬ¥áĬķáĭ°áĪļáī»áĪį": 3170,
      "ĠáĪĺáįįáīµáĪĶ": 3171,
      "áĮĢáĪĺáĪ¨": 3172,
      "áĮ§áĪį": 3173,
      "áĭŁ": 3174,
      "Ġáī¥áĭĻáĪĿ": 3175,
      "áĪĪáĪĿáĬķ": 3176,
      "ĠáĭŃáĭį": 3177,
      "Ġáĭ«áĪĿ": 3178,
      "áĭ«áĭ«áĭĺ": 3179,
      "áĬĲáīłáĪ©": 3180,
      "Ġáĭ¨áī°áĪ°": 3181,
      "ĠáĪĢáĪ³": 3182,
      "áĪµáī°áĭĭ": 3183,
      "ĠáĪļáĬĵ": 3184,
      "áĪ¥áĪŃ": 3185,
      "ĠáĪĪáĪĽáĪĪáīµ": 3186,
      "ĠáĮłáĭ¨": 3187,
      "ĠáĭµáĪŃáĮħáī¶áī½": 3188,
      "ĠáīłáĪ³": 3189,
      "ĠáīłáĪĥ": 3190,
      "Ġáĭ¨áĭ©": 3191,
      "Ġáĭ«áĭ°áĪŃáĮĪ": 3192,
      "ĠáĬłáĭŃáĭ°áĪĪáĪģáĪĿ": 3193,
      "ĠáĬ¥áĬķáĭ²áĭ«áĭįáĪĿ": 3194,
      "ĠáĬŃáįįáĪĪ": 3195,
      "áī£áī¸áĭįáĬķ": 3196,
      "Ġáĭ¨áĪĺáĬķ": 3197,
      "áĪĽáĪī": 3198,
      "áĭĺáĮĭáĮĢáīµ": 3199,
      "ĠáĬłáĭŃáīĢáĪŃ": 3200,
      "Ġáĭī": 3201,
      "áĬĵáĮĪáĪ¨áĭį": 3202,
      "áīĥáĭĪ": 3203,
      "ĠáĭĿáīħáī°áĬĽ": 3204,
      "áĮįáĭļáĬłáī¥áĪĦáĪŃ": 3205,
      "ĠáĬłáĮłáīĥ": 3206,
      "ĠáĮłáĭŃ": 3207,
      "ĠáīłáĪĮáĪİáī½": 3208,
      "Ġáĭ«áīĢáĪŃ": 3209,
      "ĠáĪħáĮį": 3210,
      "áĬķáĪ°": 3211,
      "Ġáĭ¨áĪļáĭ«áĭį": 3212,
      "áĬķáĭ°áĪŃ": 3213,
      "ĠáīłáĪĺáĮ¨áĪ¨áĪ»áĪĿ": 3214,
      "ĠáĬłáĬ«áĪĭáīµ": 3215,
      "ĠáĬ¥áĮį": 3216,
      "ĠáĬłáĮł": 3217,
      "áĮ«áĬķ": 3218,
      "ĠáĪªáįĸáĪŃáīµ": 3219,
      "ĠáĮ¥áīłáīĥ": 3220,
      "áĬŃáī±": 3221,
      "áĪµáįĴ": 3222,
      "Ġáĭ¨áĮįáī¥": 3223,
      "áĭ°áĭµ": 3224,
      "Ġáī£áĪĪáįīáīµ": 3225,
      "Ġáī¥áĪĶáĪ«áĭĬ": 3226,
      "ĠáĭŃáĪµ": 3227,
      "16": 3228,
      "ĠU": 3229,
      "áĬĴáĭ«": 3230,
      "ĠáĪ¨áĮĪáĭµ": 3231,
      "hone": 3232,
      "ĠáĭŃáī£áĪĭáĪį": 3233,
      "ĠáĪģáĪīáĬķ": 3234,
      "Ġáīłáīģ": 3235,
      "ĠáĭįáĪµ": 3236,
      "ĠáĬłáĮĪáĪįáĮįáĪİáī¶áī½": 3237,
      "ĠáĪĺáĪĿáĪ¨áĮ¥": 3238,
      "áĪ³áĪµ": 3239,
      "ĠáĬłáĭİáĬķ": 3240,
      "áĪ±áīµ": 3241,
      "áĪ«áĬĴ": 3242,
      "áĪŃáīħ": 3243,
      "ĠáĬłáĪħ": 3244,
      "Ġ40": 3245,
      "ĠáĬ¨áĭļáĪħáĪĿ": 3246,
      "ĠáĪĺáĪįáĪ¶": 3247,
      "áĮİáī¥": 3248,
      "áįıáĪį": 3249,
      "ĠáĬ«áĪī": 3250,
      "Ġáī°áĬĵáĮįáĪ¨áĭĭáĪį": 3251,
      "ĠáĪĪáĪķ": 3252,
      "ĠáĭµáĪĿáĮ½": 3253,
      "ĠáīħáĬķ": 3254,
      "Ġáĭ°áī¥áĭ³áī¤": 3255,
      "áĭįáĪİáĪµ": 3256,
      "ĠáįĬáĪįáĪĿ": 3257,
      "ĠáĪĿáĪµáĮĭáĬĵ": 3258,
      "áĬłáĭ´": 3259,
      "Ġáī£áĪĪáī¤": 3260,
      ").": 3261,
      "ĠáīłáĮ¥áĪ©": 3262,
      "ĠáĪ¶áįįáīµáĭĮ": 3263,
      "ĠáĬ¨áĬ¥áĬķáĮįáĭ²áĪħ": 3264,
      "ĠáĬĭáĪĭ": 3265,
      "ĠáĬłáĬķáĭ´": 3266,
      "áĬĸáĪŃáĪĿ": 3267,
      "áĮ¦áĪŃ": 3268,
      "áĪ°áī¦": 3269,
      "ĠáĬĽ": 3270,
      "Ġáī³áĭį": 3271,
      "17": 3272,
      "ĠV": 3273,
      "áĬ¥áĬĽ": 3274,
      "ĠáīłáĪ«áĪµ": 3275,
      "Ġáĭ«áĮĪáĬĽ": 3276,
      "ĠáĬ¥áĭµáĪľ": 3277,
      "30": 3278,
      "Ġáĭ¨áĪħáĭĿáī¥": 3279,
      "ĠáĬłáĭĪ": 3280,
      "Ġd": 3281,
      "Ġáī£áĪħáĪª": 3282,
      "ĠáĬĴ": 3283,
      "ĠáīłáĬ¥áĮħ": 3284,
      "ĠáĮĢáĪĺáĪŃ": 3285,
      "áĭĪáĪĵ": 3286,
      "ĠáĪŃáĭķáĪµ": 3287,
      "ĠáĬ¨áĭĽ": 3288,
      "ĠáĬłáĭ²áĪ±": 3289,
      "áĮłáĭŃáīħ": 3290,
      "áĮ«áĭį": 3291,
      "áĮĪáī£áīµ": 3292,
      "áī£áīµáĪĿ": 3293,
      "Ġáĭ¨áįĮ": 3294,
      "ĠáĬłáĭµáĪŃáĮĪáĭį": 3295,
      "áĪµáīłáĭį": 3296,
      "áĮĪáĬķáī£áīµ": 3297,
      "ĠáĬ¥áĬĵáĭįáīĥáĪĪáĬķ": 3298,
      "ĠáĬłáĭ°áĪ¨": 3299,
      "ĠáĬĲáĮĭ": 3300,
      "áĪłáĪ¨áī°": 3301,
      "áĭĺáĭĿ": 3302,
      "ĠáĮĢáĪĺáĪ¨": 3303,
      "áĭĽáĪ¬áĭį": 3304,
      "áĮ£áĭ©": 3305,
      "áĮĪáī£áĭį": 3306,
      "Ġáī¥áĭĻáĭİáī½": 3307,
      "ĠáīłáĪĽáĪµ": 3308,
      "Ġáĭ«áĪµáįĪáĪįáĮĪ": 3309,
      "ĠáĪ°áĪĽáĭŃ": 3310,
      "ĠáĪĺáĭ°áīłáĬĽ": 3311,
      "ĠáĪģáĪĪáī°áĬĽáĭį": 3312,
      "ĠáĮĬáĭľáĭį": 3313,
      "áĮłáĬĵáīĢ": 3314,
      "ĠáĪĺáĪ¥áĪ«áīµ": 3315,
      "áĪĬáĬŃ": 3316,
      "Ġáĭ¨áĮįáĭµ": 3317,
      "Ġáī¥áĪĪáĪħ": 3318,
      "áįĥáĬĵáīµ": 3319,
      "áĪįáīłáīµ": 3320,
      "Ġáī°áĮ¨": 3321,
      "ĠáĬłáĬķáĭµáĪĿ": 3322,
      "ĠáĮ¥áīĥáīµ": 3323,
      "áĭĪáĪ°áĬķ": 3324,
      "ĠáĬłáĭ«áĭįáīħáĪĿ": 3325,
      "ĠáĪ¬": 3326,
      "ĠáĪĤáĭ°": 3327,
      "ĠáĭŃáĬĸáĪ«áĪį": 3328,
      "ĠáĪİ": 3329,
      "áĮĢáĪĿáĪŃ": 3330,
      "áĮ£áī¸áĭį": 3331,
      "áĭ°áī¥": 3332,
      "ĠáĭĪáĪ³áĬĿ": 3333,
      "ĠáĬŃáīµ": 3334,
      "áĬ«áĬ¨áīµ": 3335,
      "áĪ³áĭį": 3336,
      "ĠáĪĺáĭ³": 3337,
      "áī£áī£": 3338,
      "ĠáĪµáĪŃáĭĵ": 3339,
      "Ġáĭ«áĪīáīµáĬķ": 3340,
      "áįĪáĪ¨": 3341,
      "áīĨáī½": 3342,
      "ĠáĬ¨áī°áĪŀáī½": 3343,
      "áĭķáĪį": 3344,
      "ĠáīłáĮįáĪįáĮ½": 3345,
      "ĠáĪģáĪĮáĪĿ": 3346,
      "ĠáĭĪáĮ£áī¶áī½": 3347,
      "Ġáĭ¨áĪĪáĬĿáĪĿ": 3348,
      "Ġáīµáī½áĪĭáĪĪáĪħ": 3349,
      "áĬĸáĪ«áī¸áĭį": 3350,
      "áĭĽáĪį": 3351,
      "ĠáĬªáĭ³áĬķ": 3352,
      "ĠáĮłáĪĭ": 3353,
      "áĪģáĭ³": 3354,
      "áĬĵáįĬ": 3355,
      "áĭįáĭį": 3356,
      "áĪµáĪĬ": 3357,
      "áĬłáĬķáī°": 3358,
      "ĠáĪħáĭĿáī¡": 3359,
      "nd": 3360,
      "ĠáĪ¨áĮħáĪĿ": 3361,
      "ĠáīłáīĢáĬķ": 3362,
      "áĪ±áĪĿ": 3363,
      "ĠáĬ¥áĬĲáĪ±áĪĿ": 3364,
      "Ġáīłáī¤áīµ": 3365,
      "ĠáĬ¥áĬķáĭ°áĪĨáĬĳ": 3366,
      "ĠáĬłáĪĪáī¥áĬĿ": 3367,
      "áĬķáī°áĪŃáĬĶáīµ": 3368,
      "áĮīáĪŃ": 3369,
      "áĪĺáĮ£áĭį": 3370,
      "Ġ28": 3371,
      "ĠáĮ¡": 3372,
      "ĠáĭįáĪĤáī¥": 3373,
      "ĠáĬłáĪ³áĪį": 3374,
      "Ġáīłáĭ©": 3375,
      "áĬļ": 3376,
      "áĬĲáī³áī¸áĭį": 3377,
      "Ġáĭ¨áĪļáĮł": 3378,
      "áī¼áĬķ": 3379,
      "ĠáĪĽáĪµáĪ¨áĮĥ": 3380,
      "áĪªáĪµ": 3381,
      "ĠáĮ¨áĪ¨": 3382,
      "ĠáĪĬáīĢ": 3383,
      "ĠáĬŃáįįáīµ": 3384,
      "ĠáīłáĪļáīĢáĮ¥áĪĪáĭį": 3385,
      "ĠáĬłáĪįáī½áĪįáĪĿ": 3386,
      "áĬŃáī¶áī½": 3387,
      "áĬĵáĭ³": 3388,
      "ĠáīĢáĪ¨": 3389,
      "ĠáĪĬáĪĨáĬĳ": 3390,
      "ĠáĪĪáĪĺáĮłáīĢáĪĿ": 3391,
      "ĠáĪħáĭĿ": 3392,
      "áĪ«áī¢": 3393,
      "ĠáĬłáĬķáĭ²áīµ": 3394,
      "áĭ¥áĬķ": 3395,
      "Ġáīłáī¤áī°": 3396,
      "áĮ¡áĬķ": 3397,
      "áĭ³áĪª": 3398,
      "áĭĺáĪĿ": 3399,
      "áĭ·áĪį": 3400,
      "ĠáīłáĪģáĪĪáīµ": 3401,
      "ĠáĬłáĭ¨": 3402,
      "Ġáĭ«áĪĪáĬķ": 3403,
      "áĬķáĭ³áĬķáĭµ": 3404,
      "áĮłáĭ¨áīħ": 3405,
      "ĠáĪįáĪĿáĭµ": 3406,
      "áĮĪáĪįáĮį": 3407,
      "ĠáĪĺáĪĿáĪħ": 3408,
      "áĬłáĭĬ": 3409,
      "ðŁ": 3410,
      "Ġáĭ¨áĬ¥áĪŃáĪ±": 3411,
      "ĠáĪĽáĪħáīłáĪ¨áĪ°áī¥": 3412,
      "ĠáĭĺáĪĺáĬĵáĭĬ": 3413,
      "ĠáįķáĪ¬áĭļ": 3414,
      "ĠáĬ¥áĪĺ": 3415,
      "ĠáĬ¥áĭ«áĪī": 3416,
      "áįĪáĮ¸áĪĿ": 3417,
      "ĠáĬłáĪĪáī½": 3418,
      "ĠáīĢáĪĪáĪĿ": 3419,
      "Ġáĭ¨áĭ³": 3420,
      "Ġáī°áĬ¨áīµ": 3421,
      "áĬķáįĥ": 3422,
      "áĮ£áĭį": 3423,
      "ĠáĮĬáĭľáĪĿ": 3424,
      "áĪĦáĭ³": 3425,
      "áĮĪáĪ«áĪļ": 3426,
      "ĠáĪ°áĭĵáī³áīµ": 3427,
      "op": 3428,
      "Ġáī¸": 3429,
      "ĠáĮ»": 3430,
      "ĠáĪĪáĪĺáĭį": 3431,
      "ĠáĬłáī¥áĪ¨áĭį": 3432,
      "ĠáĮ¥áĬĵ": 3433,
      "áĬ¨áĪĿ": 3434,
      "ĠáĭŃáĪĺáĪĪ": 3435,
      "Ġáĭ°áĮįáĪŀáĪĿ": 3436,
      "gle": 3437,
      "áĪĪáĬĽáĭį": 3438,
      "áĮ½áĪĲáįį": 3439,
      "Ġáĭ¨áĪļáĪĨáĬĲáĭį": 3440,
      "áĪ«áĭŃ": 3441,
      "ĠáĪĺáĮłáĭ¨áīħ": 3442,
      "Ġ$": 3443,
      "ĠáĬ¥áĬĵáĭ°áĪŃáĮĭ": 3444,
      "áĮĪáĬĵáĬĿ": 3445,
      "áĪŃáĪ»": 3446,
      "ĠáīģáĮ¥áĮ¥áĪŃ": 3447,
      "Ġáĭ¨áĪļáī£áĪį": 3448,
      "áĬ¨áĪ°áīµ": 3449,
      "áĪ¨áĮĪ": 3450,
      "Ġáĭ¨áĮĭáĪ«": 3451,
      "Ġáĭ¨áĪĿáĮįáī¥": 3452,
      "ĠáĭŃáĪŀáĬŃ": 3453,
      "Ġáĭ¨áįĵ": 3454,
      "áĪĪáĬĵáĪį": 3455,
      "ĠáįįáĪĪáĮĭ": 3456,
      "áī¥áĪį": 3457,
      "áĪĮáīª": 3458,
      "ĠáĬ¥áĭįáīĢáīµ": 3459,
      "ĠáīłáĬ«": 3460,
      "ĠáįĸáĪĬáĪ²": 3461,
      "áĪŃáĪ½": 3462,
      "áĭĭáĭķ": 3463,
      "ĠáĮłáīħáĪĭáĭŃ": 3464,
      "áĪĽáĪ«": 3465,
      "ĠáĬ«áĪįáī°": 3466,
      "Ġáĭ¨áĪļáĪĺ": 3467,
      "áĮĪáĬĵáĬĽ": 3468,
      "áĮ¨áĪĺáĪŃ": 3469,
      "áĬľ": 3470,
      "áĪĺáĪįáĬ¨": 3471,
      "áĭİáīµáĪĿ": 3472,
      "ĠáĪĿáĬĵ": 3473,
      "ĠáĭĪáī³áĭ°": 3474,
      "áĮĪáĪĪáĮį": 3475,
      "ĠáĪĪáĬ¥áĬĵáĬķáī°": 3476,
      "áĪĮáĬŃáīµáĪªáĬŃ": 3477,
      "ĠáĭŃáĭ°áĪ¨": 3478,
      "áĭĽáī¥": 3479,
      "ĠáĬ¨áĬ¢": 3480,
      "ĠáĬ¥áĭµáĮĪáīµ": 3481,
      "áĬķáĭĽáī¤": 3482,
      "Ġáĭ«áĮĪáĬĽáĪī": 3483,
      "áįĭáĬķ": 3484,
      "ĠáĬłáĮŃáĪŃ": 3485,
      "áĮįáĪ©": 3486,
      "áĮĨáī¹": 3487,
      "Ġáĭ¨áĪļáĭĪ": 3488,
      "Ġáĭ¨áĪļáī½áĪĪáĭį": 3489,
      "ol": 3490,
      "áĪ¨áĮį": 3491,
      "áĭĪáĪµáĭµ": 3492,
      "áĭĽáĭį": 3493,
      "Ġáĭ¨áĮ¨": 3494,
      "áī°áĪħ": 3495,
      "Ġt": 3496,
      "ĠáĬłáĭįáĪ®áįķ": 3497,
      "ĠáĬłáĪµáĮĪáĪ«áĪļ": 3498,
      "ĠáĭŃáī³áĭ«áĪį": 3499,
      "áĭķáīĨ": 3500,
      "il": 3501,
      "ĠáįĬáĪį": 3502,
      "ĠáĬ¨áĬ¥áĮįáĭļáĬłáī¥áĪĶáĪŃ": 3503,
      "ĠáĪµáĮ¦áī³": 3504,
      "ĠáĭĪáĮĪáĬĸáī½": 3505,
      "ĠáīłáĬĥ": 3506,
      "ĠáĪµáĬ¬": 3507,
      "áĭĭáĭĪ": 3508,
      "áĬķáī³": 3509,
      "ĠáĬ¥áī£áĬŃáĭİáĬķ": 3510,
      "oogle": 3511,
      "ĠáĪĿáĪ½áīµ": 3512,
      "ĠáĬ¥áĪ³áīµ": 3513,
      "ĠáĬ¥áĬķáĭ°áĬĲáīłáĪŃ": 3514,
      "ĠáĭŃáĭĪáĭ³": 3515,
      "ĠáĪĪáī¥áĭĻ": 3516,
      "áĪĺáĪ°áĮįáĬĵ": 3517,
      "ĠáĬłáĭŃáĪĺáĪµáĪĪáĬĿáĪĿ": 3518,
      "áĭµáĪľ": 3519,
      "ĠáĬ¥áĪŃáĮįáĮ¥": 3520,
      "Ġáī£áĪªáĭ«": 3521,
      "ĠáīłáĪĭ": 3522,
      "ĠáĬĲáī½": 3523,
      "ĠáĬłáĪ³áĭŃ": 3524,
      "Ġáī°áīĢáī£áĭŃáĬĲáīµ": 3525,
      "ĠáĪµáĪĪáĭļáĪħáĪĿ": 3526,
      "áī¬": 3527,
      "Ġáīłáī°áī»áĪĪ": 3528,
      "Ġáī¢áĪ®": 3529,
      "ĠáĭµáĪį": 3530,
      "ĠáĬ¨áĬłáĬķáī°": 3531,
      "áĬĵáĬĿ": 3532,
      "ĠáĭĿáĮįáĮħáīµ": 3533,
      "áĭ¨áĪ©áĪ³áĪĮáĪĿ": 3534,
      "ĠáĪ²áī£áĪį": 3535,
      "áĭİáī½áĪĿ": 3536,
      "Ġáī³áĪĽ": 3537,
      "ĠáĬ¥áĭĪáĭ³áĪĪáĪģ": 3538,
      "ĠáĪĲáĪ³áī¥": 3539,
      "áĪ°áĪµ": 3540,
      "ĠáĪµáĭµáĪµáīµ": 3541,
      "Ġ27": 3542,
      "áī¥áĪªáĬ«": 3543,
      "Ġáĭ°áĪ¨áĮĥáĭİáī½": 3544,
      "ĠáĪŀáĭ´": 3545,
      "Ġáĭ¨áĪ¶": 3546,
      "ion": 3547,
      "ĠáīłáĬ®": 3548,
      "áĬ¨áīłáĪŃ": 3549,
      "Ġ2020": 3550,
      "ĠáĭŃáĬĸáĪŃáī¥": 3551,
      "ĠáĬ¢áĬ®áĬĸáĪļ": 3552,
      "áĪĪáĭ«áĭ¨": 3553,
      "ĠáĪĺáĪĽáĪŃ": 3554,
      "áĪĭáī¸áĭĭáĪį": 3555,
      "Ġáīłáĭķ": 3556,
      "áĪŀáī½áĬķ": 3557,
      "ĠáīłáĭŃáįĭ": 3558,
      "Ġáĭ«áĪ³áĭ«áĪį": 3559,
      "ĠáĪįáĮĦ": 3560,
      "áĬłáī¸áĭį": 3561,
      "áĮ¥áĬķ": 3562,
      "Ġáĭ¨áĬłáĭįáĪ®áįĵ": 3563,
      "ĠáĭįáĬĥ": 3564,
      "áĪģáĪĿ": 3565,
      "ĠáĬłáī¥áĭĽáĬŀáī¹": 3566,
      "ĠáĬ¥áĬĵáĭ°áĪŃáĮĭáĪĪáĬķ": 3567,
      "ĠáĬ¨áįĪáĪĪáĮī": 3568,
      "ch": 3569,
      "áīĢáĬĿ": 3570,
      "ĠáĪĺáĮĪáĪĪ": 3571,
      "ĠáĪĪáĪ°": 3572,
      "áĬ¥áĮįáĭļáĬłáī¥áĪĶáĪŃ": 3573,
      "áĮ¨áĪĿ": 3574,
      "áĪĽáĪ©": 3575,
      "ĠáĬłáĭŃáīĢáĪŃáĪĿ": 3576,
      "ĠáĪĺáĭĽ": 3577,
      "ĠáĪ¥áĮĭ": 3578,
      "ĠáĪĽáĪĺáĬķ": 3579,
      "Ġáĭ¨áĪ«áĪµ": 3580,
      "ĠáĭŃáĪ»": 3581,
      "ĠáįĪáĪŃ": 3582,
      "Ġáī°áĮĪáĬĿ": 3583,
      "Ġáĭ°áĬķáīłáĬŀáī½": 3584,
      "ĠáĭĪáĭµ": 3585,
      "Ġáĭ³áĪŃáī»": 3586,
      "áĪĺáĭĭáĪį": 3587,
      "ĠáĪµáĪĭáĪį": 3588,
      "ĠáĪĺáĪ£áĪªáĭ«áĭİáī½": 3589,
      "ĠáĬ¥áĬķáĭ°áĪĿáĬķ": 3590,
      "ĠáĬ¥áĭ¨áĪ°áĪ«": 3591,
      "ĠáĬłáĪµáī°áĪ³áĪ°áī¥": 3592,
      "ĠáĪļáĬĴáĪµáīµáĪŃ": 3593,
      "áĬ«áī£áī¢áĭį": 3594,
      "áĬŃáĪ®": 3595,
      "Ġáĭ¨áĬłáĪĿáĪĭáĬŃ": 3596,
      "áĭ¨áĬł": 3597,
      "ĠáīłáĬ¥áĪŃáĮįáĮłáĬĿáĬĲáīµ": 3598,
      "Ġáĭ¨áĭįáĪĥ": 3599,
      "ĠáĪĽáĬķáīłáī¥": 3600,
      "áĬ¨áĪ¨áĪĿ": 3601,
      "ĠáĪĨáī´": 3602,
      "áĬĲáīłáĪ¨áĭį": 3603,
      "ĠáĬłáĪµáī£áĪĪáĪģ": 3604,
      "ĠáīłáĬłáī¥áĭĽ": 3605,
      "Ġáīłáĭļáĭ«áĬķ": 3606,
      "ĠáĬ¥áĬķáĮįáĪĬáĭĿ": 3607,
      "ĠáĬ¥áĮįáĭļáĬłáī¥áĪĶáĪŃáĪĿ": 3608,
      "áĬĵáĪ½": 3609,
      "ĠiPhone": 3610,
      "ĠáĮĪáīł": 3611,
      "Ġáĭ¨áĭĵ": 3612,
      "áĪµáĪĪ": 3613,
      "Ġáī¥áĬķ": 3614,
      "ĠáĬłáĪĺáĪĪáĬ«áĬ¨áīµ": 3615,
      "ĠáĬłáĬķáĭ±áĬķ": 3616,
      "ĠáīµáĪĭ": 3617,
      "áīĨáĭŃ": 3618,
      "áīłáĪĪ": 3619,
      "Ġáī°áĮ«áĭĭáī¾áī½": 3620,
      "áĬĴáĬŃ": 3621,
      "áīłáīĥáĪį": 3622,
      "Ġáĭİ": 3623,
      "ow": 3624,
      "ĠáĪĺáĮ«áĭĪáīµ": 3625,
      "ĠáĮŃáĪĿáĪŃ": 3626,
      "ĠáĪĪáĬ¥áĮįáĭļáĬłáī¥áĪĶáĪŃ": 3627,
      "Ġáĭ¨áĪĭáī¸áĭįáĪĿ": 3628,
      "áĪĽáĪ¨": 3629,
      "áĪµáī°áĪŃ": 3630,
      "áĪĽáĭĬ": 3631,
      "ĠáĬłáĪĺáī³áīµ": 3632,
      "ĠáĪĪáĪĺáĪĨáĬĳ": 3633,
      "ĠáĬĥáĮ¢áĬłáīµ": 3634,
      "áĭ¶áī½áĬķ": 3635,
      "ĠáĮ¦áĪŃ": 3636,
      "ĠáĪµáĪĪáī°": 3637,
      "ĠáĮįáĬķáī£áī³": 3638,
      "ĠáĪĻáĪ´": 3639,
      "áĮĪáĬĵáĬĻ": 3640,
      "áĮįáĪĿáīµ": 3641,
      "ĠáĪĺáįįáĮłáĪŃ": 3642,
      "ĠáĬ¥áĬķáĭ°áĪļáī½áĪī": 3643,
      "ĠáĮ³áĭįáĪİáĪµ": 3644,
      "áĪ³áĪ°": 3645,
      "ĠáĪµáĪĻ": 3646,
      "ĠáĬĵáī½áĪģ": 3647,
      "ĠáĪ¥áĬĲ": 3648,
      "áĬ¥áĬķáĭ°": 3649,
      "áīĥáĪ½": 3650,
      "ĠáĪĺáĪĺáĪĪáĪµ": 3651,
      "ĠáĪĪáĬ¢": 3652,
      "áįįáĪį": 3653,
      "áĭµáįį": 3654,
      "ĠáĪµáĪĪáĪĺ": 3655,
      "ĠáīłáįĬ": 3656,
      "ĠáĪĿáīµ": 3657,
      "áĪ¦áĪµáīµ": 3658,
      "ĠáīłáĬ¤": 3659,
      "áī£áĪ¨": 3660,
      "Ġáĭ¨áĪļáĮĪáĬĿ": 3661,
      "Ġáĭ³áĮįáĪĿ": 3662,
      "ĠáĭĪáĪĪ": 3663,
      "ĠáĬ¥áĬķáĭ°áĪĨáĬķ": 3664,
      "ĠáĬĳáĪ®": 3665,
      "Ġáĭ¨áĬ¥áĬĽáĬķ": 3666,
      "áĮĪáĪĪáĮ¸": 3667,
      "áīłáĪī": 3668,
      "Ġáī°áīĭáĪĿ": 3669,
      "áĪĿáĪ¨áīµ": 3670,
      "áĭ¨áī°": 3671,
      "ĠáĪµáĭ°": 3672,
      "ĠáĬłáĪµáī°áĭ³": 3673,
      "áĪµáī°áĬĽáĭį": 3674,
      "Ġáĭ¨áĪļáĭ«áĪµáī½áĪį": 3675,
      "Ġáī°áĪ°áĮ¥": 3676,
      "ĠáĮ¸áĪİáīµ": 3677,
      "ĠáĭĿáĬĵ": 3678,
      "ĠáĭĭáĪµáīµáĬĵ": 3679,
      "ĠáĪ°áĪĭ": 3680,
      "Ġáĭ¨áĭ°áĬķ": 3681,
      "ĠáĮįáĭľ": 3682,
      "ĠáĭŃáĪł": 3683,
      "ĠáĭŃáĪ¸": 3684,
      "áīªáĭ²áĭ®": 3685,
      "ĠáĪĭáĪĪ": 3686,
      "ĠáĮĪáĪĪ": 3687,
      "áĪ¼": 3688,
      "áĬĳáīµ": 3689,
      "ĠáĮĦ": 3690,
      "ĠáĬłáĭµáĪŃáĮĵáĪį": 3691,
      "Ġáĭ¨áįĭ": 3692,
      "ĠáĮ¥áīģáĪŃ": 3693,
      "ĠáĬłáĪ»": 3694,
      "áĭĿáĮĪáī£": 3695,
      "áĭĪáĪ¨": 3696,
      "ĠáīĢáĮ£áĭŃ": 3697,
      "áĭįáĪŀ": 3698,
      "ĠáĪĬáĬĸáĪŃ": 3699,
      "ĠáĪĺáĭµáĪĥ": 3700,
      "áī°áĬ®": 3701,
      "áĮĢáĪ«": 3702,
      "Ġáĭ¨áīĢáĭµáĪŀ": 3703,
      "ĠáīłáīħáĪŃáī¥": 3704,
      "Ġáĭ¨áĪ«áĪ±": 3705,
      "áĪĽáĪªáĭİáī½": 3706,
      "áīĥáī¸áĭį": 3707,
      "Ġáĭ¨áī°áĭĪáĪĪ": 3708,
      "áĬ¥áĬĵ": 3709,
      "Ġb": 3710,
      "ĠáĭĪáĬķáĮĮ": 3711,
      "ĠáĪĿáī¹": 3712,
      "ĠáĪĽáĬŃ": 3713,
      "áįĲ": 3714,
      "ĠáĬłáĮĪáĪ«áīµ": 3715,
      "áĭĭáĪļ": 3716,
      "ĠáĭĺáĪŃáįį": 3717,
      "áīµáĪį": 3718,
      "ĠáĮİáĬķ": 3719,
      "ĠáĬķáĮīáĪ¡": 3720,
      "Ġáī³áĪµ": 3721,
      "ĠáĬ«áĪĪáĭį": 3722,
      "áĬ¤áĪµ": 3723,
      "áĪ°áĪ«áĭį": 3724,
      "Ġáī°áīĢáĪĿ": 3725,
      "Ġw": 3726,
      "áīłáĪ³": 3727,
      "ĠáĪĪáĪĽáĬķáĬĽáĭįáĪĿ": 3728,
      "Ġáīłáĭ³": 3729,
      "áĪĺáī»": 3730,
      "Ġáĭ«áĪ¨áĮĭáĮį": 3731,
      "áĬĵáĭŃ": 3732,
      "ĠáĬłáī¥áĭĽáĬĽáĭİáī¹": 3733,
      "Ġáĭ«áĪįáĪĨáĬĲ": 3734,
      "Ġáīłáĭ¨áīµ": 3735,
      "ĠáĬłáĪµáī°áĭ«áĭ¨": 3736,
      "áĮłáĬĲ": 3737,
      "ĠáĪŀáī°": 3738,
      "áĪĪáĭĪáĮ¥": 3739,
      "áĮįáĪ¬": 3740,
      "ĠáĬ¥áĪµáĪ«áĬ¤áĪį": 3741,
      "ia": 3742,
      "ĠáĪĺáĪ¨": 3743,
      "áī£áĪŃ": 3744,
      "ĠáĮīáī£áĬ¤": 3745,
      "áĭķáīĨáī¥": 3746,
      "Ġáī½áĮįáĪ©": 3747,
      "ĠáĪĺáĮ»áĪķ": 3748,
      "Ġáĭ«áĭ°áĪŃáĮĪáĭĭáĪį": 3749,
      "ĠáĮ¥áĪĭ": 3750,
      "ĠáīµáĮįáĪį": 3751,
      "ĠáĪįáī¥áĪµ": 3752,
      "áĪĺáĪµáĪį": 3753,
      "Ġáĭ¨áĪĪáī¥": 3754,
      "ĠáĬĲáĭİáīµ": 3755,
      "ĠáĬķáĮįáĮįáĪŃ": 3756,
      "ĠáĬłáĬķáĭ³áĬķáĭ¶áī¹": 3757,
      "áĪµáīµáĪ«": 3758,
      "Ġáĭ«áĬĶ": 3759,
      "ĠáĬłáĪįáī»áĪį": 3760,
      "ĠáĬ¥áīħáĭµ": 3761,
      "áĪ³áī¢": 3762,
      "Ġáī»áĭŃáĬĵ": 3763,
      "Ġáī°áĪ³áīµ": 3764,
      "áĭĪáĪĵáīµ": 3765,
      "Ġáĭ¨áĬĥáĭŃáĪį": 3766,
      "Ġáī£áĪħáĪį": 3767,
      "ĠáįĪáĮ£áĪª": 3768,
      "ĠáĭįáĭµáĭµáĪŃ": 3769,
      "ĠáĪĽáĮ£": 3770,
      "ĠáĭŃáī³áĭĪáīĥáĪį": 3771,
      "ĠY": 3772,
      "áĬĿáĬķ": 3773,
      "Ġáĭ¨áĪĿáĪŃáīµ": 3774,
      "áĬ¨áĪ©": 3775,
      "áĪĺáĪ¨áī¥": 3776,
      "ĠáĮłáįį": 3777,
      "áĪ°áĭĭáĪį": 3778,
      "ĠáĭŃáĮĢáĪĿáĪ«áĪį": 3779,
      "ĠáĭŃáĪģáĬķáĬĵ": 3780,
      "ĠáĪµáī´áīµáĪµ": 3781,
      "ĠáĬ¤áĪį": 3782,
      "Ġáī¥áīĥáīµ": 3783,
      "Ġáĭ¨áĪļáĭ«áĭ°áĪŃáĮī": 3784,
      "ĠáĭŃáĭĪáĪµáĭ³áĪį": 3785,
      "áĪĺáĭĿ": 3786,
      "áĭĽáĬķ": 3787,
      "áĪķáĭĽáī¥": 3788,
      "ĠáĪĮáĪĬáīµ": 3789,
      "ĠáīłáīĢáĪŃ": 3790,
      "ĠáīłáĭµáĬķ": 3791,
      "áĪĺáĪ°áĮįáĬĵáĪĪáĬķ": 3792,
      "áĬķáĭ³áĬķáĭ³": 3793,
      "ĠáĬ¨áĪģáĪĪáīµ": 3794,
      "ĠÂ·": 3795,
      "áī¤áĬķ": 3796,
      "áĪĭáĪµ": 3797,
      "ĠáĭķáĪĪáīµ": 3798,
      "áī£áĭŃáĪį": 3799,
      "ĠáīłáĬ¢áĭ¨áĪ±áĪµ": 3800,
      "áĬ¨áī³áī°áĪį": 3801,
      "un": 3802,
      "áĪĿáįķ": 3803,
      "ĠáĬłáĭįáī³áĪ¨": 3804,
      "áī¥áīħ": 3805,
      "ĠáĬ¨áĭ¨áīµ": 3806,
      "Ġáĭ¨áĪ°áĪĽ": 3807,
      "Ġáĭ«áĮĪáĬĺ": 3808,
      "ĠáĮįáĪįáįħ": 3809,
      "áĪ°áĪĪ": 3810,
      "ĠáĪĨáĬĵ": 3811,
      "ĠáĪĺáĪįáĭķáĬŃáīµ": 3812,
      "...]": 3813,
      "áĭ°áĪ¨áĮīáīµ": 3814,
      "áĭŃáĬĲ": 3815,
      "ĠáĬłáĬ«áī£áī¢áĭİáī½": 3816,
      "Ġáī£áĬķáĬŃ": 3817,
      "ĠáĪµáĪįáĮ£áĬķ": 3818,
      "ĠáĪĽáĪµáī³áĭĪáĪ»": 3819,
      "áĪįáīĥ": 3820,
      "ĠáĪ¶áįįáīµáĭĮáĪŃ": 3821,
      "Ġáī°áĪį": 3822,
      "áĪ³áīģ": 3823,
      "ĠáĬ«áĪŃáĭµ": 3824,
      "ĠáĬĥáĪĭáįĬáĬĲáīµ": 3825,
      "áĬĲáĭļáĭ«": 3826,
      "áĬĲáĮĪáĪ©": 3827,
      "ĠáĪĪáĪ¨áĮħáĪĿ": 3828,
      "ĠáĪħáī¥áĪ¨áīµ": 3829,
      "áĪĭáĪĽáĭĬ": 3830,
      "áĪĽáĮį": 3831,
      "Ġáī£áĪī": 3832,
      "áĬ¨áī£áī¢": 3833,
      "50": 3834,
      "áĪŁáĪĭ": 3835,
      "áĬĵáĬķáīµ": 3836,
      "áĪĨáĬĳáĪĿ": 3837,
      "ĠáĪĿáĪŃáĪĿáĪŃ": 3838,
      "ĠáĬ¥áĬķáĭ³áĪĪáĭį": 3839,
      "ĠáĪĽáĭķáĬ¨áĪį": 3840,
      "Ġ[...]": 3841,
      "áĮĪáĬĻáīµ": 3842,
      "ĠáĬ¥áĬĵáĪĺáĪ°áĮįáĬĵáĪĪáĬķ": 3843,
      "áĭ³áī¸áĭį": 3844,
      "ĠáĭŃáĬ¸": 3845,
      "vi": 3846,
      "Ġáī£áĪħáĪªáĭ«": 3847,
      "ĠáĬłáĭµáĪ«áĪ»": 3848,
      "áĭµáĪ©": 3849,
      "Ġáĭ¨áĮĮáī³": 3850,
      "áĭ³áĭį": 3851,
      "áĪĥáīµ": 3852,
      "áĮĪáĪĺ": 3853,
      "ĠáĪĪáĪĿáĬķáĭµáĬķ": 3854,
      "áīĢáĪŃáī¡": 3855,
      "ĠáĪĿáĬŀ": 3856,
      "Ġáĭ¨áī°áĪ³": 3857,
      "áī£áĪĪáĬķ": 3858,
      "ĠáĪįáĮĥ": 3859,
      "ĠáīłáĬ¥áĭ«áĬķáĭ³áĬķáĭ±": 3860,
      "áĪŃáĪĽ": 3861,
      "ĠáĬłáĬķáī¥": 3862,
      "ĠáĮłáĭĭáīµ": 3863,
      "Ġáī³áĭŃ": 3864,
      "Ġáĭ¨áĪĺáĬķáĮįáĪµáīµ": 3865,
      "áīĢáīłáĪį": 3866,
      "Ġáĭ¨áĭ°áĪ¨": 3867,
      "áī°áĪĿ": 3868,
      "áįķáĪ¬": 3869,
      "áĪ°áĪĻ": 3870,
      "áĬ«áĭŃ": 3871,
      "Ġ29": 3872,
      "áĬĺáĭį": 3873,
      "áīłáĭĭáĪį": 3874,
      "áĬ«áī°": 3875,
      "ĠáĭŃáĬĵáĮĪáĪ«áĪį": 3876,
      "áĪ¨áĪ³": 3877,
      "áĪĺáĪįáĬ¨áī»": 3878,
      "áĮ³": 3879,
      "áĪĮáīªáĭ¥áĬķ": 3880,
      "ĠáĪ°áĪĪ": 3881,
      "áĪĺáĪĪáĬŃ": 3882,
      "ĠáĪĺáĪĨáĬĵáī¸áĭįáĬķ": 3883,
      "Ġ....": 3884,
      "Ġáĭ¨áĪķáĭŃáĭĪáīµ": 3885,
      "ĠáĬłáīĭáĪĿ": 3886,
      "Ġáĭ¨áįįáīħáĪŃ": 3887,
      "li": 3888,
      "áĪµáī³áĬķ": 3889,
      "ĠáīĢáĭŃ": 3890,
      "ĠáĪĺáĪ¨áĮĥáĭİáī½": 3891,
      "áĪ«áĮŃ": 3892,
      ":-": 3893,
      "ĠáĪįáī³": 3894,
      "áĪĭáī½áĪģáĪĿ": 3895,
      "Ġáī°áĭĺ": 3896,
      "ĠáĪµáĪĪáĪĽ": 3897,
      "22": 3898,
      "ĠáĪ°áĮł": 3899,
      "áĬķáīłáīµ": 3900,
      "ĠáĬłáĪ°áĪ«": 3901,
      "ĠáĮįáĬķáĭĽáī¤": 3902,
      "áĪĽáĪĽáĬĿ": 3903,
      "áĪ¯áī¸áĭį": 3904,
      "áĪľáĪį": 3905,
      "ĠáĪ¥áĪ«áĭİáī½": 3906,
      "Ġh": 3907,
      "áī³áĪĪáī½": 3908,
      "ĠáĭĪáĭŃáĬķáĪĿ": 3909,
      "ĠáĬĲáīłáĪ¨áī½": 3910,
      "ĠáĪ¹": 3911,
      "áĬ¨áī°áĪĪáĭį": 3912,
      "Ġáĭ®áĪĲáĬķáĪµ": 3913,
      "ĠáĪĪáĪĺáĮĢáĪĺáĪŃ": 3914,
      "ĠáĪĽáĬĲáĭį": 3915,
      "ĠáĬłáĭĺ": 3916,
      "áī»áĪĪáĭį": 3917,
      "ĠáĪĺáįħ": 3918,
      "áĪ¨áĮĭáĮĪáĮ«": 3919,
      "ĠáīłáĭļáĪģ": 3920,
      "ĠáĬ¥áĬķáĭ³áīµ": 3921,
      "Ġáĭ«áĪµáįĪáĪįáĮį": 3922,
      "ĠáĭµáĬķáīħ": 3923,
      "ĠáĬłáĪ¸áĬĵáįĬ": 3924,
      "ĠáīłáĮ¨": 3925,
      "áįįáĬĵ": 3926,
      "áīłáī°": 3927,
      "ĠáĬłáĪµáīĢáĭµáĪŀ": 3928,
      "áīģáĬķ": 3929,
      "Ġáĭ¨áī±": 3930,
      "ĠáĮĢáĪĿ": 3931,
      "ĠáĬłáĪįáī»áĪĪáĪĿ": 3932,
      "áĪĪáī±": 3933,
      "áī£áī¸áĭįáĪĿ": 3934,
      "áĭĺáĮĭáĮģ": 3935,
      "Ġáĭ¨áī¡": 3936,
      "ĠáĬ¥áĬķáĭĪ": 3937,
      "Ġáĭķáīħáĭµ": 3938,
      "ĠáĪĺáĪªáĭİáī½": 3939,
      "ĠáĭĪáĬķáĮĢáĪį": 3940,
      "ĠáĭŃáĪĸáĭĭ": 3941,
      "áĪĭáī¸áĭįáĬķ": 3942,
      "áĪ¨áĪĿáīµ": 3943,
      "ĠáĬłáĭįáĪ®áįĵ": 3944,
      "ĠáĬłáī³áĭį": 3945,
      "áĬķáīĢáĪ³áīĥáĪ½": 3946,
      "ĠáīĢáĭµáĪŀáĭį": 3947,
      "Ġáī°áĮłáīħ": 3948,
      "ĠáĬłáĪĽáĬ«áĬĿáĬĲáīµ": 3949,
      "áĪĭáĪĪáĬķ": 3950,
      "ĠáĬłáĪĽáĪ«áĮ®áī½": 3951,
      "ĠáĭµáĪŃáĪ»": 3952,
      "ĠáĭįáĮ¤áī¶áī½": 3953,
      "áįĬáĭį": 3954,
      "ĠáĬ¥áīĥ": 3955,
      "Ġáĭ¨áĪ¥": 3956,
      "áĮįáĪĪ": 3957,
      "Ġáī°áįĪáĮ¥áĪ®": 3958,
      "ĠáĬŃáĪµáī°áīµ": 3959,
      "ĠK": 3960,
      "áĪµáī¶áī½": 3961,
      "áįĵáĬķ": 3962,
      "áĭĪáĮį": 3963,
      "Ġáīłáĭļáĭ«áĪĿ": 3964,
      "ĠáĬ¢áĭ®": 3965,
      "áĭµáĬĵ": 3966,
      "áĮīáĬķ": 3967,
      "Ġáĭ«áĮĭ": 3968,
      "áĪĬáĬķ": 3969,
      "áī£áī½áĬķ": 3970,
      "ĠáĪĪáĪĮáĪİáī½": 3971,
      "ĠáĭĪáĪ¬": 3972,
      "Ġáī°áĪ«áĪ«": 3973,
      "ĠáĭŃáĬ¼": 3974,
      "ĠáĮĬáĭľáĭ«áīµ": 3975,
      "áĪĿáĪµáīµ": 3976,
      "ĠáĪĨáĪµáįĴ": 3977,
      "áĭ«áĪĿ": 3978,
      "áĭ³áĪľ": 3979,
      "ost": 3980,
      "ĠáĪµáĪªáīµ": 3981,
      "áĬ¨áīł": 3982,
      "áĬ©áīłáīµ": 3983,
      "ĠáĪ¥áĪįáĮ£áĬķ": 3984,
      "ĠáīłáĬ¥áĬĵáĬķáī°": 3985,
      "áĮłáĪªáĭ«": 3986,
      "ĠáĪ³áĪĿáĬķáī³áīµ": 3987,
      "Ġáĭ¨áĪļáĬ¨áī°áĪīáīµáĬķ": 3988,
      "Ġáī¥áī¸áĬĽáĭį": 3989,
      "Ġáĭ¨áĬłáī£": 3990,
      "ĠáĪŃáĭķáĪ°": 3991,
      "ĠGoogle": 3992,
      "ĠáĪĺáĬķáĮįáĪµ": 3993,
      "áįĬáĬŃ": 3994,
      "áĪŃáĬķ": 3995,
      "ĠáĬĲáĮĪáĪ©": 3996,
      "ĠáĪĺáĪµáįĪáĪŃ": 3997,
      "Ġáī°áīĨ": 3998,
      "Ġáĭ¨áĪĺáĮ¨áĪ¨áĪ»áĭį": 3999,
      "áĭĪáĮ£áĪį": 4000,
      "áĬ«áĪĦáĭ°": 4001,
      "áĬŃáī°": 4002,
      "Ġáī°áĭ°áĪŃáĮİ": 4003,
      "ĠáīµáĭĿ": 4004,
      "áĪŃáĭ«áĪĿ": 4005,
      "áĪ®áī¹": 4006,
      "áīłáĪŃáĬ«áī³": 4007,
      "áĭĪáīģ": 4008,
      "ĠáīģáĪĿ": 4009,
      "ĠáĪĺáĮįáī£áīµ": 4010,
      "ĠáĪĽáĭµáĪ¨": 4011,
      "ĠáĪĽáĪ¨áĮĭáĮĪáĮ¥": 4012,
      "ĠáĪĿáĪįáĬŃáī¶áī½": 4013,
      "áĬķáĭĪ": 4014,
      "Ġ199": 4015,
      "Ġáĭ¨áī°áĪĺáĪłáĪ¨áī°": 4016,
      "áĪ¸áĬķ": 4017,
      "Ġcom": 4018,
      "ĠáĪĿáĪµáĬŃáĪŃ": 4019,
      "ĠáĬ¨áĪ«": 4020,
      "Ġáī°áīĢáī¥": 4021,
      "áĮĢáĪŃáĪĺáĬķ": 4022,
      "ĠáĬĥáĮ¢áĬł": 4023,
      "ĠáĬ®áĪĿáįĴ": 4024,
      "Ġáĭ¨áĮ¸": 4025,
      "áĬĸáī½áĬķ": 4026,
      "ĠáīħáĭµáĪĺ": 4027,
      "Ġáīłáī°áįĪ": 4028,
      "ĠáĬ«áĪĭ": 4029,
      "áīĨáĭ¨áīµ": 4030,
      "áĮ»áįį": 4031,
      "ĠáīłáĭįáĪµáĮ¡": 4032,
      "ĠáĪĺáĮįáĭĽáīµ": 4033,
      "áĮĪáĬĲáĭĺ": 4034,
      "Ġáĭ¨áĪļáī°": 4035,
      "ĠáĬ¥áĬķáĭ°áĪĺ": 4036,
      "ĠáįĸáĪĬáĪµ": 4037,
      "áĪ°áĮ£áī¸áĭį": 4038,
      "áĪĿáĪ¨áĮ¡": 4039,
      "áĮħáĬĲáīµ": 4040,
      "ĠáĪįáĪĽ": 4041,
      "Ġáī³áĭįáīĥáĪĪáĪħ": 4042,
      "ĠáīłáĭĻ": 4043,
      "Ġáĭ¨áĮł": 4044,
      "Ġáī°áĮ«áĭĭáī½": 4045,
      "áĭĪáĪ«": 4046,
      "Ġáĭ¨áĪĭ": 4047,
      "ĠáĪĬáįĪ": 4048,
      "Ġáĭ«áĭ°áĪ¨áĮĪ": 4049,
      "ĠáĬłáĭŃáįĪ": 4050,
      "ĠáĪĢáī¥áīµ": 4051,
      "ĠáĭĪáĪĭáĮĨáī½": 4052,
      "Ġáī°áĮłáĭ«áīĤ": 4053,
      "áĮĭáĭį": 4054,
      "áĮłáĬĵáīĢáīħ": 4055,
      "áĪŃáĭ±": 4056,
      "áĮĪáĮį": 4057,
      "ĠáĪĪáĪĽáĪ¨áĮĭáĮĪáĮ¥": 4058,
      "áĪħáīłáĪ«áĭĬ": 4059,
      "pp": 4060,
      "ĠáĬ¥áĭ¨áĮ¨": 4061,
      "ĠáĬ¥áĭįáĬĲáī³": 4062,
      "áĬĵáįį": 4063,
      "ĠáĮįáĭ´áī³": 4064,
      "áĪ«áī¸áĭįáĬķ": 4065,
      "ĠáīłáĮĭáĪ«": 4066,
      "ĠáĪ³áĪĪ": 4067,
      "Ġáī¥áī¸áĬĽ": 4068,
      "áĪĻáĬĵ": 4069,
      "ĠáĬłáĬ¥áĪĿáĪ®": 4070,
      "ĠáĪĪáĪĺáĪŃ": 4071,
      "áĭ«áĭįáīģ": 4072,
      "ĠáīłáĮ½": 4073,
      "Ġáī°áĭ°áĪŃáĮĵáĪį": 4074,
      "ĠáĬłáī¤áī±": 4075,
      "ĠáĪĺáĮĢáĪĺáĪŃ": 4076,
      "áĭ´áīµ": 4077,
      "um": 4078,
      "áĭĭáĪĿ": 4079,
      "Ġáĭ¨áīµáĬĽáĭį": 4080,
      "áĮįáĪ«áĭŃ": 4081,
      "ĠáĬ¨áĬ¥áĬĲáĪ±": 4082,
      "ĠáĮĤ": 4083,
      "Ġáī°áĬ¨áī³áī³áĭŃ": 4084,
      "áĬ©áĬķ": 4085,
      "áī£áĭį": 4086,
      "Ġáĭ¨áĪĲ": 4087,
      "ĠáĬłáĭµáĪŃáĮĮ": 4088,
      "ĠáĬĲáįįáĪµ": 4089,
      "áĭĪáĮ£áĭį": 4090,
      "áĭĭáī³áĭį": 4091,
      "ĠáĬ¨áīĢ": 4092,
      "ĠáĬ¨áĪħ": 4093,
      "áĪµáī³áĭĪáĪµ": 4094,
      "ĠáīłáĭµáĪŃ": 4095,
      "ĠáĬłáĮłáīĥáīĢáĪĿ": 4096,
      "áĪĢáĪį": 4097,
      "ĠáĬłáĮ£": 4098,
      "ĠáĬłáĬķáī°áĬķ": 4099,
      "us": 4100,
      "ĠáįĭáĭŃáĪį": 4101,
      "ve": 4102,
      "Ġáĭ«áīĢáĪŃáī£áĪį": 4103,
      "ĠáĬ¨áįĪ": 4104,
      "áĮįáī£áī¥": 4105,
      "áīĢáĪ³": 4106,
      "áĬłáĬķ": 4107,
      "áĪ³áī½áĬķáĬķ": 4108,
      "áįĨ": 4109,
      "ub": 4110,
      "ĠáĪĪáĭŃ": 4111,
      "ĠáĮįáī¥áĭŃáīµ": 4112,
      "áĪĺáĬķáīµ": 4113,
      "Ġáĭ¨áĬ¨áī°áĪĽ": 4114,
      "áĮĵáĮĵ": 4115,
      "áĪ»áĭį": 4116,
      "ĠáĭŃáĪĿáĪ¨áĮ¡": 4117,
      "ĠáīłáĪķáĭŃáĭĪ": 4118,
      "áĬķáĪµáįĸáĪŃáīµ": 4119,
      "ĠáĪħáĪĺáĪĿ": 4120,
      "Ġáī£áĬķ": 4121,
      "áīĢáįį": 4122,
      "ĠáīłáĪĺáĪĭáĭį": 4123,
      "ĠáĬłáĪįáįĪáĪįáĮįáĪĿ": 4124,
      "ĠáĪĽáĪĪáīµáĪĿ": 4125,
      "ĠáĪĽáĬķáĬĲáīµ": 4126,
      "ĠáĪĺáĪ«": 4127,
      "ĠáĪĺáĪµáĬŃ": 4128,
      "ĠáĪľáĭ³": 4129,
      "ĠáīłáĬłáĭįáĪ®áįĵ": 4130,
      "áĭµáĪ®": 4131,
      "ĠáĬ¨áĪķ": 4132,
      "ĠáīĢáĮ¥áĪİ": 4133,
      "ĠáĭŃáĮłáīĢ": 4134,
      "ĠáĪĽáĭ³": 4135,
      "áĮ«áĬĳ": 4136,
      "áĬķáĪ°áĪŃ": 4137,
      "ĠáĬĲáįĥáĬĲáīµ": 4138,
      "ĠáĬ¢áīµáĭ®áĮµ": 4139,
      "áĬĲáĬķ": 4140,
      "áįĪáĭĭáĪį": 4141,
      "Ġáī¥áĪİáĮį": 4142,
      "áīħáĬķ": 4143,
      "áĮĢáĪĺáĪ©": 4144,
      "áĬ¹": 4145,
      "áī½áĪģáĪĿ": 4146,
      "áĭ°áĮĭáĮĭáĪļ": 4147,
      "áĬ½": 4148,
      "ĠáĭŃáĪłáĪ«áĪį": 4149,
      "ĠáĬ¨áĬ¥áĪŃáĪµáĭİ": 4150,
      "ĠáĬ¥áĬķáĭ°áĪļáĪĨáĬķ": 4151,
      "áĬķáĮįáĪĬáĭĿáĬĽ": 4152,
      "áĪĽáĪĺáĬķ": 4153,
      "áī»áĪī": 4154,
      "áĮłáĭĭáĪį": 4155,
      "ĠáĭŃáĬ¸áĭį": 4156,
      "ĠáĬłáĭŃáĮĪáī£áĪĿ": 4157,
      "áĪĺáĬĽ": 4158,
      "áĭ«áĭįáĭ«áĬķ": 4159,
      "áĪįáĬ®": 4160,
      "áĮ¿": 4161,
      "áĭĪáĭ«": 4162,
      "áĬ³áĭŃ": 4163,
      "ĠáĪĿáĮį": 4164,
      "Ġáīłáī°áĪ»áĪĪ": 4165,
      "áĪ¨áĪ±": 4166,
      "ous": 4167,
      "ĠáĪĺáĮ¡": 4168,
      "ĠáĪĪáĪĻ": 4169,
      "áĮłáī¥áīħ": 4170,
      "ĠáĪ³áĭ«": 4171,
      "áĭ°áĪŃáĪ±": 4172,
      "áĬĲáī³áī½áĬķ": 4173,
      "ĠáĪĨáĬķ": 4174,
      "áĭĭáĪŃáĭ«": 4175,
      "áĮĪáĭ±": 4176,
      "áĪĦáĭ°": 4177,
      "Ġa": 4178,
      "áĭ«áĭİáī½": 4179,
      "ĠáĭµáĪŃáĮĬáīµ": 4180,
      "Ġ,": 4181,
      "Ġáī°áĮĪáĪį": 4182,
      "ĠáĬłáĪĿáĬĵáĪĪáĪģ": 4183,
      "ĠáīµáĬ¥áĭĽáĭĿ": 4184,
      "´áĮ¥áĪ®": 4185,
      "ĠáīłáĪĺáĪĨáĬķ": 4186,
      "áĪĬáĪµ": 4187,
      "ĠáĪĺáĪ³áĪªáĭ«áĭİáī½": 4188,
      "ĠáīħáĪ¬": 4189,
      "Ġáĭ¨áī°áĪĺáĪ°": 4190,
      "ĠáĪĪáĪĺáįįáĮłáĪŃ": 4191,
      "Ġáī¢áĬĸáĪŃ": 4192,
      "ĠáĬłáĮĢ": 4193,
      "ĠáĪĪáĪĺáĪ¨áĭ³áīµ": 4194,
      "áĪµáī°áĬ«áĬ¨áĪį": 4195,
      "áī±áīµ": 4196,
      "ĠáĬ¥áĪŃáĪ·": 4197,
      "áĮĵáĭ°": 4198,
      "áįĭáĪī": 4199,
      "ĠáĪĪáĪĺáĪµáĪ«áīµ": 4200,
      "Ġáī¡áĭµáĬĸáī½": 4201,
      "ĠáĭŃáĮĪáĪį": 4202,
      "áĮ¥áĪ©": 4203,
      "Ġáī¤áī°áĬŃáĪŃáĪµáī²áĭ«áĬķ": 4204,
      "Ġáī£áĪĪáĪĻáĭ«áĭİáī½": 4205,
      "ĠáĬłáĪĭáīµ": 4206,
      "ĠáīłáĪļáĮĪáī£": 4207,
      "áĪŃáįį": 4208,
      "ĠáĬłáĬķáī½áĪįáĪĿ": 4209,
      "ĠIn": 4210,
      "áĪĭáĪ³": 4211,
      "ĠáīłáīµáĬķ": 4212,
      "Ġáĭ¨áĪĽáĬķ": 4213,
      "áĪ¨áįĪ": 4214,
      "áī¢áĭ«áĭį": 4215,
      "áīĭáĪ¨áĮ¥": 4216,
      "áĪĽáĭį": 4217,
      "ĠáĬłáī£áī´": 4218,
      "áĮ¸áĪį": 4219,
      "ĠáĪµáĪ«áĭİáī½": 4220,
      "Ġáĭ¨áī°áĪĪáĪĺáĭ°": 4221,
      "Ġáī£áĪĪáĪµ": 4222,
      "ĠáĬ¥áĬķáĭ³áĪī": 4223,
      "áĪ³áĪĪáĪģ": 4224,
      "áĪĪáī³áĪį": 4225,
      "Ġáī°áĬ¨áīµáĪİ": 4226,
      "ĠáĭĵáĪĺáī±": 4227,
      "ĠáĪļáĬĴáĪµáī´": 4228,
      "ĠáĮįáĪĿáīµ": 4229,
      "Ġáĭ¨áĭĪáĮ£": 4230,
      "ĠáīłáĪŀ": 4231,
      "ĠáĮĪáĪįáĮ¸": 4232,
      "ĠáĬłáĬķáĮ»": 4233,
      "áĮ¥áĪį": 4234,
      "áĪ¨áĪ»": 4235,
      "áī¨áĪµáīµ": 4236,
      "áĮĪáĬĿáĪĿ": 4237,
      "Ġáīłáī°áĭ°áĮĭáĮĭáĪļ": 4238,
      "Ġáĭ¨áĮ½": 4239,
      "ĠáĪĥáĪ³": 4240,
      "ĠáĪĺáĬ¨áĪĭáĬ¨áĭ«": 4241,
      "áĪ´áįį": 4242,
      "ĠáĬ¨áīµ": 4243,
      "Ġáĭ¨áī°áī£áĪĪáĭį": 4244,
      "ĠáĬłáī¥áĪ¨áĬķ": 4245,
      "ĠáįĪáĪĪ": 4246,
      "Ġáĭ«áĬķáī¥": 4247,
      "Ġáĭ«áĬ«áīµ": 4248,
      "áĭ®áī½áĬķ": 4249,
      "ĠáĭĺáĮĪáī£": 4250,
      "ri": 4251,
      "áĬłáĪĪáĪģ": 4252,
      "áĪĿáĬķáĪĿ": 4253,
      "áĮĪáĪįáĮįáĪİáīµ": 4254,
      "ĠáĮ¤áĬĵáĪĽ": 4255,
      "ĠáīģáĪ³áīģ": 4256,
      "ĠáĪłáĪ«áī°áĬŀáī½": 4257,
      "ĠáĪ½áĪįáĪĽáīµ": 4258,
      "áĪ³áĪ½": 4259,
      "áĭįáĬĲáīµ": 4260,
      "Ġáī£áĪķáĪŃ": 4261,
      "ĠX": 4262,
      "áī¢áĭŃ": 4263,
      "áĪĭáī½áĬĭáĪĪáĪģ": 4264,
      "áī½áĪīáīµ": 4265,
      "24": 4266,
      "áĪĺáĪĪáĪ°": 4267,
      "ĠáĬ¥áĬķáįĪáĪįáĮĭ": 4268,
      "ĠáĪĽáĪ¨áįĬáĭ«": 4269,
      "ĠáĮĵáĭ°áĬŀáī½": 4270,
      "áĪĭáīĤ": 4271,
      "ĠáĪĪáĪĺáĪĿ": 4272,
      "ĠáĪĽáĪ«": 4273,
      "ĠáĬłáĪµáī°áĪĽáĪĽáĬĿ": 4274,
      "ĠNext": 4275,
      "ĠáĪĪáĪĽáĪµáī°": 4276,
      "ĠáĪµáĪĽ": 4277,
      "ĠáĪµáĬ¬áīµ": 4278,
      "áīĥáĭŃ": 4279,
      "áĮ¨áĪĿáĪŃ": 4280,
      "ĠáĬŃáĪĪ": 4281,
      "ĠáĪĺáĪµáĪĽáīµ": 4282,
      "ĠáĬ¨áī¤áī°": 4283,
      "ĠáĬ¥áĬķáĭ³áĪĪáīłáīµ": 4284,
      "ĠáĪĪáĪĺáĮłáīłáīħ": 4285,
      "ĠáĪĺáĬĸáĪªáĭ«": 4286,
      "áīłáĬł": 4287,
      "áĬĲáĭĭáĪį": 4288,
      "25": 4289,
      "áĪİáĬķ": 4290,
      "Ġáī¡áĬĵ": 4291,
      "Ġáĭ¨áĪļáĪī": 4292,
      "Ġáĭ¨áĬ¢áĬ®áĬĸáĪļ": 4293,
      "áĭ¥áĪĿ": 4294,
      "ĠáĬħ": 4295,
      "ĠáĪĺáĬķáįĪáĪ³áĭĬ": 4296,
      "áįĭáĪµ": 4297,
      "áĬ®áīµ": 4298,
      "áīĥáĪĪáĬķ": 4299,
      "ĠáĬĲáĮ¥áī¦áī½": 4300,
      "áĪħáĬĲáīµ": 4301,
      "áĮĪáĭĻ": 4302,
      "ĠáīµáĬĵáĬķáīµ": 4303,
      "ĠáĭŃáĮłáīłáīĥáĪį": 4304,
      "áĬŃáĪĿ": 4305,
      "²áį": 4306,
      "ent": 4307,
      "Ġáī°áĬĲáĪ³": 4308,
      "ĠáĮ¥áĬķáĬ«": 4309,
      "áĪŁáĪĭáīµ": 4310,
      "Ġáīłáī°áĭ«áĭ«áĭĺ": 4311,
      "áĬłáĪģáĬķ": 4312,
      "áĭŃáī±": 4313,
      "áĮĭáī¸áĭį": 4314,
      "ĠáĪĿáĬĵáĪįáī£áīµáĪĿ": 4315,
      "ĠáĮ¥áīħáĪŀáī½": 4316,
      "áįĪáĪ©": 4317,
      "áĬĲáĭįáĬķ": 4318,
      "Ġáĭįáī¥": 4319,
      "ĠáīłáĮĢáīµ": 4320,
      "áĭ°áī£": 4321,
      "ĠáĭĺáĪĺáī»": 4322,
      "ĠáĭŃáĮłáīĢáĪĻ": 4323,
      "Ġáĭ¨áī¤áī°áĪ°áī¥": 4324,
      "ĠáĮįáĭĽáīµ": 4325,
      "áĭĭáĭķáīµ": 4326,
      "ĠáĬłáĪĺáĪį": 4327,
      "ĠáĮįáĪĪáĪ°áī¥": 4328,
      "Ġáįĭáī¥áĪªáĬ«": 4329,
      "Ġáĭ¨áĪģáĪĪ": 4330,
      "ĠáĬ¥áĬķáįĪáĪįáĮĭáĪĪáĬķ": 4331,
      "ĠáĪĺáĪ¨áĭ³áīµ": 4332,
      "Ġáī³áĪªáĬ«": 4333,
      "Ġáī£áīµ": 4334,
      "áĭ°áĭĭáĪį": 4335,
      "Ġáī°áĪŃ": 4336,
      "Ġáī°áįħ": 4337,
      "ĠáĬ¥áĪ«áĪµ": 4338,
      "áĪŃáĪĥáīµ": 4339,
      "Ġáīłáįĸ": 4340,
      "áĪ«áĪĿ": 4341,
      "ĠáīłáĪ¶": 4342,
      "ĠáīĢáĬĵ": 4343,
      "áĬ¥áĬĵáĬķáī°": 4344,
      "áĭĭáī¸áĭį": 4345,
      "Ġáīłáī°áīĥ": 4346,
      "ĠáĭŃáīĢáĮ¥áĪĭáĪį": 4347,
      "áĮģáĬķ": 4348,
      "ĠáīłáįįáīħáĪŃ": 4349,
      "ĠáĬ¥áĬķáĪĺáĪįáĬ¨áīµ": 4350,
      "ĠáīłáĬłáĭ²áĪµ": 4351,
      "áĪ¸áĮ¥": 4352,
      "ĠáĬ¥áĬķáĮħ": 4353,
      "áĭīáĬķ": 4354,
      "ĠáĬĲáīłáĪ¨áĭį": 4355,
      "ĠáĬķáĭµáįį": 4356,
      "ĠáīħáĮ½": 4357,
      "ĠáĪĻáĪµáĪĬ": 4358,
      "ĠáīłáĪħáĭŃáĭĪáīµ": 4359,
      "Ġáĭ¨áĪļáĪĨáĬĳáīµ": 4360,
      "ĠáĪĽáĪ¨áĮĭáĮĪáĮ«": 4361,
      "áĭ°áĪ©": 4362,
      "ĠáĪĪáĪĺáĭµáĪ¨áĪµ": 4363,
      "ĠáĪĺáīĢáīłáĪį": 4364,
      "Ġáĭ¨áĪļáįĪáĪįáĮīáīµáĬķ": 4365,
      "Ġáĭ¨áĭĽáĪ¬": 4366,
      "ĠáĬĲáĭĭáĪªáĭİáī½": 4367,
      "ĠáįķáĪ¬áĭĿ": 4368,
      "ĠáĭŃáĬķ": 4369,
      "ĠáĪĿáĪħ": 4370,
      "ĠáĭµáĬķáĮĭ": 4371,
      "áĬĲáĬ«": 4372,
      "ĠáĬłáĪĪáīĥ": 4373,
      "Ġáĭ¨áĪ°áĮł": 4374,
      "Ġáĭ¨áĬłáįįáĪªáĬ«": 4375,
      "ĠáĭŃáĪ»áĪĭáĪį": 4376,
      "Ġáī£áī¡áĪŃ": 4377,
      "áįĥáĬķ": 4378,
      "ĠáĪŀáĬŃ": 4379,
      "ĠáįĵáĪŃáī²áĭİáī½": 4380,
      "ĠáĬ¨áĮ¥áīĤáīµ": 4381,
      "ĠáĭĺáĮį": 4382,
      "áī²áĬŃ": 4383,
      "ĠáīłáĬłáī¥áĭĽáĬĽáĭį": 4384,
      "áĬ¨áįĬ": 4385,
      "áī¶áī»áī¸áĭį": 4386,
      "áĬĶáĬķ": 4387,
      "ĠáĪħáĪį": 4388,
      "ĠáĬ¥áĬķáĮįáĭ³": 4389,
      "Ġáĭ¨áī°áĪ°áĮł": 4390,
      "áĭĶ": 4391,
      "áĮ»áįĪ": 4392,
      "ĠáīĨáĭŃáī·áĪį": 4393,
      "ĠáĬłáĪĿáĪĭáĬ«": 4394,
      "áīħáĭ±": 4395,
      "ĠáĪ°áĪ«áī°áĬŀáī½": 4396,
      "áĬĸáĪµ": 4397,
      "ĠáĪ°áī£": 4398,
      "Ġáįįáīħ": 4399,
      "áĪĽáĮįáĪĮ": 4400,
      "Ġáĭ«áĭ¨": 4401,
      "áĪĭáįĬáĬĲáīµ": 4402,
      "ĠáĬĲáĮĭáĭ´": 4403,
      "ĠáĭŃáĮłáĭŃáīĥáĪį": 4404,
      "Ġáĭ¨áĬ¥áĮįáĪŃ": 4405,
      "áĮĢáĪĺáĪ¨áĭį": 4406,
      "ĠáĪµáĬ¬áī³áĪĽ": 4407,
      "áĪ²áī¥": 4408,
      "áĮ»áĮ¸": 4409,
      "Ġáĭ°áĪĺ": 4410,
      "áī¥áĪ¨áī°áĪ°áī¡": 4411,
      "áĭ°áīł": 4412,
      "áĮłáĪĿ": 4413,
      "áĭĿáĬķ": 4414,
      "áī½áĪģáīµ": 4415,
      "áĪ®áīµ": 4416,
      "ĠáĬłáīħáĪ«áī¢": 4417,
      "ĠáīħáĮ£áīµ": 4418,
      "ĠáĭŃáĪģáĬĳ": 4419,
      "áĬ¥áĪŃáĪ±": 4420,
      "ĠáĬ¥áĬķáĭ³áĭ«": 4421,
      "ĠáĪĺáĬķáĮįáĪµáī³áīµ": 4422,
      "áĬĲáīłáī¥": 4423,
      "áĭ³áĭ©": 4424,
      "Ġáĭ¨áĪķáĭĿáī¥": 4425,
      "ĠáīłáĬ¥áĪ±": 4426,
      "ĠáĮłáī£": 4427,
      "áīĢáĬĵ": 4428,
      "áĪŃáĪ·": 4429,
      "ot": 4430,
      "áĬ¨áīłáĪ¨": 4431,
      "ĠáĬ¥áĬķáĭ°áĪļáĭ«áĪµ": 4432,
      "áįĪáĪįáĮĪáĭįáĬķ": 4433,
      "ĠáĭĺáĭŃáīµ": 4434,
      "ĠáĬłáĬķáīĢáĮ½": 4435,
      "ĠáĪĪáīµ": 4436,
      "Ġáĭ¨áĭ«áĭĺ": 4437,
      "áĪ«áī´": 4438,
      "ĠáĪĪáĪĺáĪĦáĭµ": 4439,
      "ĠáĬłáĪĿáĪ«": 4440,
      "ĠáĮĪáĬķáĭĺ": 4441,
      "ĠáĬłáĪĺáĪ«": 4442,
      "ĠáīłáĪī": 4443,
      "ĠPre": 4444,
      "ĠáīłáĪ¥áĪ«": 4445,
      "ĠáīłáĪĿáĪŃ": 4446,
      "ĠAnd": 4447,
      "áĬłáĭ´áĮį": 4448,
      "Ġáĭ¨áĮĪáī£": 4449,
      "ĠáĬ¨áĬŃ": 4450,
      "ĠáĮ¥áīĤ": 4451,
      "ĠáĬłáĪĪáĪĽ": 4452,
      "Ġáĭ¨áī£áĪħáĪŃ": 4453,
      "ĠáĪĪáī¤áī°": 4454,
      "ĠáĮłáĪĭáīµ": 4455,
      "Ġáĭ¨áĪĭáīĢ": 4456,
      "ĠáĪĽáĭ«": 4457,
      "ĠáĪĽáī¥": 4458,
      "ĠáĭŃáĪį": 4459,
      "áĪ°áĪĽáĭį": 4460,
      "ĠáĮİáĭ³áĬĵ": 4461,
      "ĠáĪĺáĮįáī¢áĭ«": 4462,
      "áĮ¿áĪį": 4463,
      "ĠáīłáĪŃáĮį": 4464,
      "ĠáĬ¥áĪº": 4465,
      "Ġáĭ°áĬķáīł": 4466,
      "Ġáį¥": 4467,
      "ĠáīµáĭķáĭĽáĭĿ": 4468,
      "áĪµáĪ«áīħ": 4469,
      "ĠáĪ¥áĪŃáĭĵ": 4470,
      "ĠáĭŃáĭ°áĪ¨áĮĭáĪį": 4471,
      "ĠáĪĺáīģ": 4472,
      "Ġ2018": 4473,
      "ĠáĭŃáĬĵáĮĪáĪ«áĪī": 4474,
      "ĠáĪµáĪĪáĪĿ": 4475,
      "Ġáĭ¨áįĬ": 4476,
      "Ġáĭ«áĬķáī¥áī¡": 4477,
      "ĠáĭĽáįį": 4478,
      "ĠáĬłáĭįáī¶": 4479,
      "ĠáĬłáĪĺáĮ£": 4480,
      "áĭĿáīĥ": 4481,
      "Ġáĭ¨áĪĮáĪĪáĭį": 4482,
      "áĬĲáī´": 4483,
      "áĪĭáīµáĬķ": 4484,
      "Ġáĭ¨áī£áī¡áĪŃ": 4485,
      "ĠáĪĺáĭįáĮ£áīµ": 4486,
      "ĠáĬ¥áĬķáīħáĪįáįį": 4487,
      "ĠáīłáĪĿáīµ": 4488,
      "áĬĲáī¥": 4489,
      "ĠáĪĽáĪ³áĭ«": 4490,
      "ĠáĬķáĮ¹": 4491,
      "áĪĺáĪĪáĬ¨áī°áĭį": 4492,
      "ĠáĬĲáĮŃ": 4493,
      "Ġáĭ¨áĮĭ": 4494,
      "roid": 4495,
      "Ġáī¤áī°áĪ°áī¦áī½": 4496,
      "áĪµáī°áĭį": 4497,
      "ĠáĬłáĭµáĪŃáĮį": 4498,
      "ĠáīĨáĭŃáī³": 4499,
      "áĬªáĪĿ": 4500,
      "áĪµáī³áĭį": 4501,
      "áĭ³áĭŃ": 4502,
      "áĪĺáĪĪáĬ¨": 4503,
      "ĠáīłáĬĲáįĥ": 4504,
      "áĮĭáī¢": 4505,
      "ĠáīłáĪĲ": 4506,
      "áĬ¨áī°áĪī": 4507,
      "Ġ2017": 4508,
      "Ġáĭ¨áīłáĪĭáĭŃ": 4509,
      "ĠáĮİáĪį": 4510,
      "áĪ¨áĬĿ": 4511,
      "áĪªáĭ«áĭį": 4512,
      "áĬ³áĬķ": 4513,
      "áĭĪáĪį": 4514,
      "ĠáĪĭáĭŃáĪĿ": 4515,
      "ore": 4516,
      "ĠáīłáĬ¨áī°áĪĽ": 4517,
      "ĠáĭŃáĭĺáĭį": 4518,
      "Ġáĭ«áĪµáī³áĭį": 4519,
      "ĠáĮįáĬķáī¦áīµ": 4520,
      "áĭ«áĭįáīħ": 4521,
      "ĠáĬ¥áĬķáĭ°áĭļáĭ«": 4522,
      "ĠáĮīáī¥áĬĿ": 4523,
      "áīĢáĮ¥áĪį": 4524,
      "áĪĿáĬķáī±": 4525,
      "ĠáĪĺáĮĪáĪĪáĮ«": 4526,
      "áĪ°áī¢áĭ«": 4527,
      "áĪĮáĬķ": 4528,
      "áĬķáīĢáīµ": 4529,
      "áĪĪáĪµ": 4530,
      "áĪ¨áĭĿ": 4531,
      "Ġáĭ¶áĬŃáī°áĪŃ": 4532,
      "Ġáĭ¨áĪĿáĪµ": 4533,
      "áĮįáī£áī£áīµ": 4534,
      "áĬ³áī¸áĭį": 4535,
      "ĠRe": 4536,
      "áĭŃáĪ¨áĪµ": 4537,
      "ĠáĪĺáĪĪáĪµ": 4538,
      "ĠáīłáĪĺáīĢ": 4539,
      "ĠJ": 4540,
      "Ġáīłáī¦": 4541,
      "ĠáĪĺáįĪáĪĪáĮį": 4542,
      "ĠáĮ£áī¢áĭ«áĭİáī½": 4543,
      "ĠáīłáĭĽ": 4544,
      "Ġáĭ¨áĮ¦áĪŃ": 4545,
      "Ġáĭ«áĭ°áĪ¨": 4546,
      "áĬ¤áĪĿ": 4547,
      "ĠáīłáĪĺáĪµáĪĺáĪŃ": 4548,
      "ĠáĭµáĪ¨": 4549,
      "ĠáĪĪáĪĺáĪŃáĭ³áīµ": 4550,
      "ĠðŁ": 4551,
      "Ġáĭ¨áĪĽáĪµ": 4552,
      "Ġáĭ¨áī°áĮłáīĢ": 4553,
      "ĠáĮįáĪĪáĪ°áī¦áī½": 4554,
      "ĠáĭĪáĬķáĭµáĪŀ": 4555,
      "áĬ©áī£áĬķáĭ«": 4556,
      "ĠáĬ¨áĪļáĭ«": 4557,
      "áī¶áī¹áĬķ": 4558,
      "áĭİáī»áī¸áĭį": 4559,
      "áīłáĭĽ": 4560,
      "áī²áīµ": 4561,
      "ĠáĪ³áĭŃáĬķáĪµ": 4562,
      "ĠáĭĺáĭŃ": 4563,
      "áĬ«áĭĬ": 4564,
      "ĠáĬłáī¥áĭĽáĬĽáĭįáĬķ": 4565,
      "ĠáīħáĪŃáī¥": 4566,
      "áĮįáĪª": 4567,
      "áĪĺáĮ£áĪī": 4568,
      "--": 4569,
      "Ġáī°áĭ«áĭŃ": 4570,
      "áįİáī½áĬķ": 4571,
      "áĪ¥áĪ«áīµ": 4572,
      "áĪµáĪĽáĪĽ": 4573,
      "ĠáĬłáĭĽ": 4574,
      "ĠáĬłáĪĿáī£": 4575,
      "ĠáĬłáī¥áĭĽáĬĽáĭį": 4576,
      "ĠáĪĽáĪĺáĪįáĬ¨áī»": 4577,
      "áĬĲáįĥ": 4578,
      "Ġáĭ¨áĭ²": 4579,
      "áĪĨáĬĵáī¸áĭį": 4580,
      "Ġáĭ¨áĬłáĪģáĬĳ": 4581,
      "áĪ»áĮĪáĪŃ": 4582,
      "ĠáĬ¥áĭ¨áĮ¨áĪĺáĪ¨": 4583,
      "áĮ¢áĪŃ": 4584,
      "ĠáĬ¥áĬķáĭ³áĪįáĪĨáĬĲ": 4585,
      "áįģáĪĿ": 4586,
      "Ġáĭ¨áī°áĮłáīłáīĢ": 4587,
      "ĠáĬ¥áĪŃáĪ±áĬķ": 4588,
      "Ġáĭ¨áĪļáĭ«áĭ°áĪŃáĮį": 4589,
      "Ġáĭ¨áĪ³": 4590,
      "ĠáĬ¥áĪį": 4591,
      "ĠáĪĺáĮ»áĪķáįįáīµ": 4592,
      "Ġáī£áĪĪáĪĺ": 4593,
      "ĠáĪĿáĭķáĪ«áįį": 4594,
      "áĭĵáĭĬ": 4595,
      "Ġ2019": 4596,
      "áĭ©áĪĿ": 4597,
      "áĮĪáĬĵáĬĺ": 4598,
      "Ġáĭ«áĪµáįĪáĪįáĮįáĭİáī³áĪį": 4599,
      "Ġáĭ¨áĬķ": 4600,
      "áįįáĪ¨áīµ": 4601,
      "ĠáĪĺáī°áĮįáīłáĪªáĭ«áĭİáī½": 4602,
      "ĠáĪĪáĭĪáĭ°": 4603,
      "áĬĲáīĥ": 4604,
      "Ġáĭ«áĪ°": 4605,
      "ĠáīłáĬ¦": 4606,
      "Ġáĭ¨áĪ©": 4607,
      "ĠáĪĪáĪ°áĭį": 4608,
      "áĬ¨áĪ°áī°": 4609,
      "ĠáĪĺáĭµáĬĥ": 4610,
      "ĠáĮ¥áīĥ": 4611,
      "áĬ¥áĪµ": 4612,
      "Ġáī°áĬ«": 4613,
      "ĠáĬłáĬķáĭ³áĬķáĭ´": 4614,
      "ĠáĪµáĮĭáīµ": 4615,
      "ĠáĪµáĪįáĮłáĬĵ": 4616,
      "áĪ®áĭį": 4617,
      "Ġ31": 4618,
      "ĠáĪĺáĪįáĬł": 4619,
      "ĠáįķáĪ¬áĭļáĭ³áĬķáīµ": 4620,
      "ĠáĬłáĪįáī£": 4621,
      "Ġáĭ«áĪĪáįĪ": 4622,
      "Ġáī°áĮįáī£áĪ«áīµ": 4623,
      "áĮįáī£áī¡": 4624,
      "ĠáĬłáīĥ": 4625,
      "áĬĸáī¹": 4626,
      "áĮªáĭį": 4627,
      "áĪ½áĪĿ": 4628,
      "ĠáĭĵáĭŃáĬĲáī±": 4629,
      "áĭ¨áĪļ": 4630,
      "áĮłáĪĺ": 4631,
      "ĠáĬ¥áī£áĬŃáĭİ": 4632,
      "áĪ«áĪĪáī½": 4633,
      "ĠáĪĿáĭĿáĮĪáī£": 4634,
      "áĬĵáĮĭ": 4635,
      "Ġ2016": 4636,
      "áĪ®áĪŀ": 4637,
      "Ġáī°áĪ³áīµáįİ": 4638,
      "Ġáĭ¨áī°áīĢáĪĺ": 4639,
      "áĪ¶áī½áĬķ": 4640,
      "ĠáĭĪáĪ¨áīĢáīµ": 4641,
      "Ġáĭ°áĪŀ": 4642,
      "áĬ«áī¤": 4643,
      "ĠáīłáĮįáī¥": 4644,
      "ĠáĬ¥áĪĭáĪĪáĪģ": 4645,
      "Ġáĭ¨áī°áĪĺáĪ¨": 4646,
      "Ġáĭ¨áĬ¥áĬĶáĬķ": 4647,
      "ĠáĪĪáĪĽáīħáĪ¨áī¥": 4648,
      "áĮĪáĭĿ": 4649,
      "ĠáīĥáĪĪ": 4650,
      "ĠáīłáĪº": 4651,
      "ĠáīłáĪĽáĬķ": 4652,
      "áĮ£áĬĿ": 4653,
      "ĠáĬłáįĪáįĥ": 4654,
      "ĠáĪĪáĬĶ": 4655,
      "áī£áĮŃ": 4656,
      "Ġ</": 4657,
      "Ġáĭ¨áĬłáĬ«áĪį": 4658,
      "áĮİáĭ³": 4659,
      "áĬĲáī°áĬĽ": 4660,
      "ĠáĬ¨áĬķ": 4661,
      "áĭ¨áĪĺ": 4662,
      "ĠáĪĺáĪĪáĭĪáĮ¥": 4663,
      "áĬŀáī»áī½áĬķ": 4664,
      "Ġáĭ°áĪ¨áĪ°": 4665,
      "ĠáĪµáĪħáī°": 4666,
      "ĠáĪĺáĭ«áĭĿ": 4667,
      "áĪĪáī½áĪĿ": 4668,
      "áī¸áīµ": 4669,
      "áĭĭáĪŃ": 4670,
      "ĠáīĢáĭµáĪŀáĭįáĬĳ": 4671,
      "áĭĿáĮį": 4672,
      "ĠáĮįáĪĽáĪ½": 4673,
      "ĠáĪĬáĬĸáĪ¨áĭį": 4674,
      "ĠáĭŃáĪĦáĬķáĬķ": 4675,
      "ĠáĪĪáĪĺáĬĵáĮĪáĪŃ": 4676,
      "áįįáĪ¬": 4677,
      "Ġáĭ¨áĮĬáĭľ": 4678,
      "ĠáĬłáĪĽáĬ«áĭŃ": 4679,
      "áĭĬáī°áĪŃ": 4680,
      "ĠáĬ¥áĬķáĬŃáī¥": 4681,
      "Ġáĭ¨áĪļáĮĪáĪŃ": 4682,
      "áĭĪáĪ°áĭµ": 4683,
      "Ġáĭ³áĮį": 4684,
      "áĪĿáĪ©": 4685,
      "áĬĵáī±": 4686,
      "ĠáĬłáĭ°áĮĪáĬĽ": 4687,
      "ĠAndroid": 4688,
      "ĠáĪĢáĮĪáĪ«áīµ": 4689,
      "ĠáĬłáĬķáī£áī¢": 4690,
      "áĮİáī¥áĬĺáīµ": 4691,
      "ĠáĭĪáĭĺ": 4692,
      "áī¥áī¥áĪŃ": 4693,
      "Ġáĭ¨áĪļáī£áĪĪáĭį": 4694,
      "áĪĳáįį": 4695,
      "ĠáĪĨáĬĳ": 4696,
      "ĠáĪĺáĭĺ": 4697,
      "Ġáī£áĪħáĪŃ": 4698,
      "áĪĬáĭ«áĬķ": 4699,
      "ĠáīłáĬłáĬķáī°": 4700,
      "Ġáī¥áĪ©": 4701,
      "ĠáĭŃáĪĪáĬĽáĪį": 4702,
      "Ġáĭ¨áīµáĪĿ": 4703,
      "ĠáĭŃáĪįáīģ": 4704,
      "ur": 4705,
      "áĬ¡": 4706,
      "áĮ»áĬĵáīµ": 4707,
      "Ġáĭ¨áī¦": 4708,
      "áĮĪáĪµ": 4709,
      "ĠáĪĪáĪĺáĬ¨áĪĭáĬ¨áĪį": 4710,
      "Ġáĭ¨áĪĺáĪ¨áĮĥ": 4711,
      "ĠáĭŃáĪī": 4712,
      "ĠáĪħáĮĪ": 4713,
      "ĠáĬłáĪĪáĭİáīµ": 4714,
      "áĪĤáĭµ": 4715,
      "ĠáĮĪáĮ¾áī½": 4716,
      "ĠáĬ¨áĪ°áĭį": 4717,
      "ĠáĬĲáīłáĪŃáĬ©": 4718,
      "ĠáĭŃáĪĺáĪµáĪį": 4719,
      "ĠáĪķáĮĪ": 4720,
      "ĠáĮ¥áĬķáĬ«áĪ¬": 4721,
      "ĠáĪ³áĪį": 4722,
      "ĠáĪĺáĭ³áĪ¨áĪ»": 4723,
      "áĪĻáĪĿ": 4724,
      "ĠáĪĺáĪĭáĬ¥": 4725,
      "ĠáĪĿáĪµáĪį": 4726,
      "ĠáīłáĬĲáĮĪ": 4727,
      "áĮĤáī³áĪį": 4728,
      "áĪĺáĪįáĪµ": 4729,
      "ĠáĪĿáĪ¥": 4730,
      "Ġ32": 4731,
      "áĬ«áĬķ": 4732,
      "Ġáĭ¨áĪĿáĭµáĪŃ": 4733,
      "ĠáĮ½áĪģáįį": 4734,
      "áĮ¢áĬłáīµ": 4735,
      "áī¥áĪ¨áī°áĪ°áī¥": 4736,
      "Ġáī°áĭį": 4737,
      "ĠáĬ¥áĬĵáĬķáī°áĪĿ": 4738,
      "áĪŃáĪ³": 4739,
      "áĮŃáĪ©": 4740,
      "ĠáĪªáįĸáĪŃ": 4741,
      "ĠáĪļáĬĴáĪµáī´áĪŃ": 4742,
      "ĠáĬłáĭįáĮ¥": 4743,
      "ers": 4744,
      "ĠáīĢáĪŃáī¶": 4745,
      "vious": 4746,
      "ĠáīĭáĬķáīĭáĭİáī½": 4747,
      "ĠáĪħáĬŃáĪĿáĬĵ": 4748,
      "áī°áĬ©": 4749,
      "áĭİáī³áĪĪáĬķ": 4750,
      "ĠáĬ¥áĭ¨áĪĨáĬĲ": 4751,
      "Ġáĭ¨áĮ£": 4752,
      "ĠáĭĪáĬķáĮĮáĪį": 4753,
      "Ġ60": 4754,
      "ĠáĭĵáĭŃáĬĲáī¶áī½": 4755,
      "áĪµáī¸": 4756,
      "ĠáĬłáĬķáĮ»áĪŃ": 4757,
      "áĪĭáĭĬáĬĲáīµ": 4758,
      "ĠáĪĺáĪłáĪ¨áī³áĭĬ": 4759,
      "ĠPrevious": 4760,
      "ĠáĬ¥áĪµáĪŃ": 4761,
      "ĠáĪĪáĮĪ": 4762,
      "eb": 4763,
      "ĠáĪĪáĭļáĭ«": 4764,
      "áĮĪáĪįáĮĪáĪį": 4765,
      "ĠáĪĺáĪ°áĪ¨áī³áĭĬ": 4766,
      "ĠáīłáĪ©": 4767,
      "Ġáĭ°áīĢ": 4768,
      "ĠáĪĪáī¥": 4769,
      "Ġáĭ¨áĬ¥áĪ±": 4770,
      "ĠáĮ«áĪĽ": 4771,
      "ĠáīĢáĪĪ": 4772,
      "ĠáĮĨáĪ®": 4773,
      "ĠâĨ": 4774,
      "áīłáĪ«": 4775,
      "áī£áīłáĪŃ": 4776,
      "áĭĵáĪĺáī±": 4777,
      "áĮĢáĪŃáī£": 4778,
      "ĠáĬ®áĪļáī´": 4779,
      "áĪłáĪ«áĭį": 4780,
      "áĮłáĪĪ": 4781,
      "ĠáĭĪáĬķáĭµáĪĿ": 4782,
      "Ġáĭ¨áĪļáĬ¨áī°áĪīáīµ": 4783,
      "ĠáĬ¨áĮĬáĭľ": 4784,
      "áĭ°áĬĲ": 4785,
      "Ġáĭ°áī¡áī¥": 4786,
      "Ġáĭ«áĮĪ": 4787,
      "áĮ¥áįĭáīµ": 4788,
      "áĪ»áĪĪáĪģ": 4789,
      "áĭİáĪµ": 4790,
      "ĠáĮĪáī¥áī¶": 4791,
      "ĠáīłáĭĽáĪ¬áĭį": 4792,
      "ĠáĮĪáĪįáĮ¸áĭĭáĪį": 4793,
      "ĠáĪĪáĬ«": 4794,
      "Ġáĭ¨áĬĲáīłáĪ¨áĭįáĬķ": 4795,
      "ĠáĮĬ": 4796,
      "áĭįáī°áĪŃ": 4797,
      "ĠáĬłáĮĪáĪįáĮĭ": 4798,
      "ĠáĬłáĭ«áĭįáīģáĪĿ": 4799,
      "áĪ³áī°áįį": 4800,
      "OS": 4801,
      "ĠáĬłáĪĿáĪĭ": 4802,
      "ĠáĬ¨áī¶": 4803,
      "áĪµáįĭáīµ": 4804,
      "ĠáĬłáĮĢáĬķáĭ³": 4805,
      "Ġáī°áĪ½áĬ¨áĪŃ": 4806,
      "ĠáīłáįĮ": 4807,
      "áĪµáī°áĭ³": 4808,
      "ĠáĬ¨áĭĭ": 4809,
      "ĠáĪĪáĪĽáĭį": 4810,
      "Ġáĭ²áĭĽ": 4811,
      "ĠáĮ´áĮ¥áĪ®": 4812,
      "áĬ¤áĪįáĪĿ": 4813,
      "Ġáī¥áĪĦ": 4814,
      "ĠáĮĭáĭľáĮ£": 4815,
      "áĪĤáĭ±": 4816,
      "ĠáĪµáīµáĪ«áī´": 4817,
      "ĠáĪĪáįį": 4818,
      "áĪ¨áĬĵáĪį": 4819,
      "ĠáīłáĭµáĮĭáĪļ": 4820,
      "áĭŁáĪį": 4821,
      "ĠáīłáĪ¥": 4822,
      "ĠáĬłáĪµáīĢáĭµ": 4823,
      "ĠáĪ«áĪ³áī¸áĭįáĬķ": 4824,
      "Ġáīłáįĵ": 4825,
      "ĠáįĪáĮ¥": 4826,
      "ĠáĬłáĭŃáĬĸáĪŃáĪĿ": 4827,
      "áīĨáīµ": 4828,
      "ĠáĬ¨áī¥": 4829,
      "Ġáī¦áĪŃáĭµ": 4830,
      "ĠáĬ¥áĬĵáī´": 4831,
      "ĠáīłáĬĲáĮ»": 4832,
      "ĠáīłáĪĺáĪµáĮłáīµ": 4833,
      "ĠáĬłáĭ²": 4834,
      "ĠáĬ¨áī¤áīµ": 4835,
      "Ġáĭ³áĭŃ": 4836,
      "ĠáĮ¥áĬķ": 4837,
      "ĠáĬŃáĪŃ": 4838,
      "ĠáĭŃáĮ¨áĪĿ": 4839,
      "áĭĺáĪ¨": 4840,
      "ĠáĬłáĪĺáĪ«áĪŃ": 4841,
      "ĠáĪĺáĭµáĪ¨áĪµ": 4842,
      "ĠáĬ¨áĮİ": 4843,
      "Ġáĭ¨áĪļáĮĪáĬĺáĭį": 4844,
      "ĠáĪ£": 4845,
      "Ġáĭ°áĪŃáĪ¶": 4846,
      "áĬĽáĪĪáĪģ": 4847,
      "ĠáĮĪáĭ°áĪĽ": 4848,
      "áĪĽáĪµ": 4849,
      "ĠáĬŃáĪµáī°áī¶áī½": 4850,
      "áĬķáĪ²": 4851,
      "ĠáĪĽáĪ»áĪ»": 4852,
      "ĠáĬ¥áĬķáĭµáī³": 4853,
      "23": 4854,
      "áĭķáĪĿáĪ®": 4855,
      "áĬĵáīĢ": 4856,
      "ĠáīłáĪĽáĭŃ": 4857,
      "áĬĲáĪŃ": 4858,
      "áĪ½áĬĳ": 4859,
      "Ġáĭ¨áĪļáĬĸáĪ©": 4860,
      "ĠáĬłáĪĭáĪĽ": 4861,
      "ĠáĪĪáĪĺáĬŃ": 4862,
      "áĪħáĬķáĬĲáīµ": 4863,
      "ĠáĬķáĮ¥áĪ¨": 4864,
      "áī³áī½": 4865,
      "ĠáĬłáĭįáĪ®áįķáĪĭáĬķ": 4866,
      "áĮłáĬķáīĢ": 4867,
      "Ġáĭ¨áī£áĪĪ": 4868,
      "Ġáĭ°áĮĭáĮį": 4869,
      "ĠáĬłáĭĭáĮħ": 4870,
      "ĠáĪĽáĪŃáĭ«áĪĿ": 4871,
      "Ġáįįáīĥ": 4872,
      "ĠáĬŃáī¥áĭ°áīµ": 4873,
      "ĠáĮ¥áįĭáīµ": 4874,
      "ĠáįĪáīĥáĭ°áĬĽ": 4875,
      "ĠáĬłáĬķáĭµáĬĲáīµ": 4876,
      "áī£áī¢áĭ«": 4877,
      "ĠáĪĽáĪ°": 4878,
      "áĪŃáĪĭáĪĽ": 4879,
      "áĬĲáĪĿ": 4880,
      "Ġáĭ¨áīµáĪ«": 4881,
      "ĠáĭŃáĬĲ": 4882,
      "ĠáĮ¥áĪįáīħ": 4883,
      "Ġáĭ¨áĪ«áĪ±áĬķ": 4884,
      "ĠáĪµáĬĵ": 4885,
      "áĭĪáĪ°áĬĳ": 4886,
      "Ġáī°áĪ°áĪĽ": 4887,
      "ĠáĭŃáĪĦáĭ³áĪį": 4888,
      "áī²áĬķ": 4889,
      "ĠáĬ¨áī¥áĭĻ": 4890,
      "áĪµáī°áĭĭáĪį": 4891,
      "áī¥áĪµ": 4892,
      "ĠáĪĺáīĥ": 4893,
      "ĠáĬ¨áĪĺáĪµ": 4894,
      "áĪªáĭĿáĪĿ": 4895,
      "áĪ¨áīł": 4896,
      "ĠáĪĺáī¥áī¶áī½": 4897,
      "ĠáĭĪáĭĺáī°": 4898,
      "Ġáī¥áī³": 4899,
      "ĠáĪµáīµáĪ«áī´áĮĤ": 4900,
      "ĠáīłáĪµáĪ«": 4901,
      "áīłáĭĿ": 4902,
      "áĬĵáī¸áĭįáĪĿ": 4903,
      "Ġáī°áĬĲáĪµ": 4904,
      "áīħáĪį": 4905,
      "Ġáī¶áĪİ": 4906,
      "ĠáĪŃáīĢáīµ": 4907,
      "Ġáĭ¨áĬłáĭį": 4908,
      "ĠáĭĪáĭ°áĭļáĪħ": 4909,
      "ĠáĪĪáĪĺáĬĸáĪŃ": 4910,
      "áĭµáĪŃáĮį": 4911,
      "áĬĽáĭįáĬķ": 4912,
      "ĠáĪįáĬĵ": 4913,
      "ĠáĬ¨áĪģáĪī": 4914,
      "ĠáĪĪáīĢ": 4915,
      "ĠáįĪáĮĪáĮį": 4916,
      "áĪľáīµ": 4917,
      "Ġáī¤áī°áĪ°áī¦": 4918,
      "áĪ¨áĮĭáĮĭ": 4919,
      "áĪĬáĬĵ": 4920,
      "ĠáĭľáĮĭ": 4921,
      "Ġáī°áĮĵ": 4922,
      "Ġáīłáī°áĮįáī£áĪŃ": 4923,
      "ĠáĪĺáĪ¨áī¥": 4924,
      "ĠáĭĪáīħáī³áĭĬ": 4925,
      "ĠáĬ®áĬķ": 4926,
      "ĠáĭŃáĪŀáĬŃáĪ©": 4927,
      "ĠáĬ¨áĬ¥áĪ±": 4928,
      "ĠáĭŃáĮį": 4929,
      "ĠáĪķáĭĿáī¦áī½": 4930,
      "Ġáĭ¨áīĢáĪ¨áīł": 4931,
      "ĠáĬłáĬķáįĥ": 4932,
      "ĠáīĢáĮ£áĭ©": 4933,
      "ĠáĪĪáĪĽáĪ»áĪ»áĪį": 4934,
      "áĪľáĭŃáĪį": 4935,
      "ĠáĪĺáĪĺáĪįáĬ¨áīµ": 4936,
      "Ġáĭ¨áĬ¨áįĭ": 4937,
      "Ġáĭ¨áĮīáĭŀ": 4938,
      "Ġáī³áĪĽáĬĿ": 4939,
      "Ġáĭ¨áĬĳ": 4940,
      "ĠáĪĪáĬłáĬķáī°": 4941,
      "áĬŃáĪįáĪī": 4942,
      "ĠáĪĥáĭŃáĪĽáĬĸ": 4943,
      "ĠáĭŃáĬĸáĪ«áĪī": 4944,
      "áĪĮáĮħ": 4945,
      "ĠáĪ°áĬĲáĭµ": 4946,
      "Ġáĭ´áĪŀáĬŃáĪ«áĪ²": 4947,
      "ĠáĬłáĬķáĭ°áĬĽáĭį": 4948,
      "ĠáĬĲáīł": 4949,
      "áĭ©áĬķ": 4950,
      "ĠáĮĪáĮ½áī³": 4951,
      "ĠáĪĪáĪĺáįįáī³áīµ": 4952,
      "ĠáĪĨáĪµáįĴáī³áĪį": 4953,
      "Ġáī¥áī»áĭįáĬķ": 4954,
      "ĠáĬłáĭ¨áĪģ": 4955,
      "áĮĪáĪĪáĮįáĪį": 4956,
      "áĬ«áĪĦáĭ°áĭį": 4957,
      "áī£áīł": 4958,
      "áįįáĪŃ": 4959,
      "ĠáĪķáĬŃáĪĿáĬĵ": 4960,
      "áĭ³áĪ´": 4961,
      "Ġáĭ¨áĪĿáĪŃáĮ«": 4962,
      "ĠáīłáĪĺáī°": 4963,
      "Ġáĭįáīłáīµ": 4964,
      "ĠáĪĺáĮ¥áī¶": 4965,
      "ĠáĭŃáĪħáĬķáĬķáĪĿ": 4966,
      "ĠáĪĥáĭŃáĪĽáĬĸáīµ": 4967,
      "ĠáĪ°áĭįáĬķ": 4968,
      "he": 4969,
      "os": 4970,
      "Ġáĭ¨áĪķáĮį": 4971,
      "ĠáĬ¡": 4972,
      "ĠáĬ¥áĪŃáĪĿáĮĥáĭİáī½": 4973,
      "áĭ±áĪĿ": 4974,
      "ĠáĬłáĮłáĮĪáī¥": 4975,
      "áĪĽáĮŃ": 4976,
      "áĮ½áĬĵ": 4977,
      "áī³áĭĪáīĢ": 4978,
      "áĭĭáĪĪáĪħ": 4979,
      "Ġáĭ¨áĭľ": 4980,
      "ĠáīµáĪĨáĬĵ": 4981,
      "ĠáĬłáĪĪáĪĺáĪĨáĬĳ": 4982,
      "Ġáĭ¨áĪ²": 4983,
      "Ġáĭ¨áĬĽ": 4984,
      "ĠáĪĺáĪŀáĬ¨áĪŃ": 4985,
      "ĠáĪĪáĪĽáĬķáīłáī¥": 4986,
      "áĪªáī±áĬķ": 4987,
      "áĭ°áī½": 4988,
      "ĠáĬłáĪłáĪ«": 4989,
      "ĠáĭŃáĪŀ": 4990,
      "ĠáĬłáī£áī£áĪį": 4991,
      "áī³áĬĿ": 4992,
      "ĠáĪ«áĪµáĪħáĬķ": 4993,
      "ĠáĮ¥áĮĪáĬĵ": 4994,
      "áĬłáĪĿ": 4995,
      "áĬŃáĪįáīµ": 4996,
      "áĪ¨áĮł": 4997,
      "áīĪ": 4998,
      "Ġáī£áĭ¶": 4999,
      "ĠáĬłáĬķáĭ³áĬķáĭ¶áī½": 5000,
      "áĪĿáĪĮ": 5001,
      "áĬķáĮįáĪ¥": 5002,
      "áĭ®áī¹": 5003,
      "Ġáĭ¨áĪļáĪ°áĮ¥": 5004,
      "ĠáīĢáĬĿ": 5005,
      "ĠáĬĶ": 5006,
      "áįĪáĮłáĪŃ": 5007,
      "ĠáĬ¾": 5008,
      "áĪľáĪ«": 5009,
      "áįķáĪį": 5010,
      "áĬĵáĮĪáĪ©áīµ": 5011,
      "ĠáĪĪáīł": 5012,
      "ĠáĪĪáĪĺáĮįáĭĽáīµ": 5013,
      "ĠáĬ¨áĮį": 5014,
      "ĠáĬ¥áĭ«áĬķáĭ³áĬķáĭ³": 5015,
      "áĬ©áīµáĬķ": 5016,
      "Ġáī°áĪĺáĪ«": 5017,
      "ĠáīłáĪ°áĪĭáĪĿ": 5018,
      "ĠáĬ¥áĬķáĭ°áĭļáĪģ": 5019,
      "Ġáĭ³áĬķ": 5020,
      "áī£áĪª": 5021,
      "Ġ2013": 5022,
      "áįĪáĮ½": 5023,
      "áĪĪáĬķáĪĿ": 5024,
      "áĪĭáĮŃ": 5025,
      "áįĭáī¸áĭį": 5026,
      "ĠáĬłáĬķáĭµáĬķ": 5027,
      "Ġáī³áī½": 5028,
      "áĭ³áĮĬ": 5029,
      "áĪ³áī°áįī": 5030,
      "Ġáĭ«áĭ°áĪ¨áĮĪáĭį": 5031,
      "ĠáĪµáĮĭ": 5032,
      "áĪ»áĪ½": 5033,
      "ĠáĭŃáĪ°áĪ«áĪį": 5034,
      "Ġ80": 5035,
      "ĠáįĪáĪ¨áĬķáĪ³áĭŃ": 5036,
      "Ġáĭ¨áĪł": 5037,
      "ĠáĪĪáĪĺáĪĺáĪĪáĪµ": 5038,
      "áĮ£áī±": 5039,
      "Ġáĭ¨áĪīáĪĿ": 5040,
      "ĠáĮ¨áĪĪáĪĽ": 5041,
      "áīłáĬ¥": 5042,
      "Ġáĭ¨áĬĲáīłáĪ©áīµ": 5043,
      "áĬĲáī³": 5044,
      "Ġáĭ¨áĪļáīĢ": 5045,
      "Ġáĭ°áĬ«": 5046,
      "ĠáĪ¾": 5047,
      "ĠáīłáĮĭ": 5048,
      "of": 5049,
      "áĬ¦áĪį": 5050,
      "ĠáĪ½áĪĽáĮįáĪĮ": 5051,
      "ĠáĬ©áī£áĬķáĭ«áĭį": 5052,
      "ĠáĪĥáĭŃ": 5053,
      "Ġáī°áĪĺáĪįáĪ¶": 5054,
      "ĠáĬłáĪ®": 5055,
      "áĭ«áĪĪáĬķ": 5056,
      "ĠáĬ¤áĪĿ": 5057,
      "áĬ¨áĬĿ": 5058,
      "ĠáĬĲáĮį": 5059,
      "Ġáīłáĭ°áĪµáī³": 5060,
      "ĠáĪ²áĪĺáĮ£": 5061,
      "Ġáĭ¨áīªáĭ²áĭ®": 5062,
      "ĠáīłáĭįáĮŃ": 5063,
      "Ġáį²áį": 5064,
      "ĠáĪĪáĭįáĮ¦áī½": 5065,
      "ĠáīµáĪŃáįį": 5066,
      "áī£áī±": 5067,
      "Ġáī°áīĥáĭįáĪŀ": 5068,
      "áī¥áĪ©": 5069,
      "ĠáĪĿáĬŃáĪ®áī½": 5070,
      "ĠáįĪáĮłáĪ«": 5071,
      "áĭĺáĮĭáĮĥ": 5072,
      "ĠáĬ¥áĬķáĮįáĪĬáĭĿáĬĽ": 5073,
      "áĭ´áĪ«áĪį": 5074,
      "áĮłáīĢáĪĻáīłáīµ": 5075,
      "áĪĺáī³áīµ": 5076,
      "ĠáīłáĬłáĮįáī£áī¡": 5077,
      "áĮ¨áĬĲáīħ": 5078,
      "áĪªáĬķ": 5079,
      "ĠáĪĬáī³": 5080,
      "ĠáĪĺáĪµáĬ¨áĪ¨áĪĿ": 5081,
      "ĠáĪĺáĪµáĪİ": 5082,
      "Ġth": 5083,
      "áīłáĪįáĮ¥": 5084,
      "ĠáĬ¥áĭįáĬķ": 5085,
      "ĠáĬłáĭĺáĮĭáĮħ": 5086,
      "ome": 5087,
      "áĮħáī±": 5088,
      "ĠáĪĪáĪĺáĮįáī£áīµ": 5089,
      "Ġáĭ¨áĪ°áī¥": 5090,
      "áĪ®áĬĵ": 5091,
      "ĠáĭµáĬķáĮĭáĭŃ": 5092,
      "Ġáĭ¨áī°áĮ£": 5093,
      "ĠáĬ¥áĮįáĭļáĬłáī¥áĪĦáĪŃ": 5094,
      "ĠáĪĪáĪĺáīĢáĬĲáĪµ": 5095,
      "Ġáĭ¨áĮŃ": 5096,
      "ĠáĪ³áīµ": 5097,
      "Ġáī°áĪ³áī³": 5098,
      "ĠáĪĿáĪģ": 5099,
      "ĠáĬ®áĪŃ": 5100,
      "Ġáĭ¨áī°áī£áīłáĪ©áīµ": 5101,
      "áī¤áĪį": 5102,
      "áĭĪáĪ©": 5103,
      "ĠáĬ¨áĪĺáĮĢáĪĺáĪªáĭ«": 5104,
      "Ġáĭ¨áĪļáĭ°áĪ¨áĮį": 5105,
      "Ġáīłáĭ¨áĭĵáĪĺáī±": 5106,
      "ĠáĪĺáĬŃáįĪáĪį": 5107,
      "áĬ«áĪļ": 5108,
      "ĠáĬ¥áĪµáĬŃ": 5109,
      "áĪįáĮ£áĬĵáīµ": 5110,
      "ĠáīłáĬłáĬķáĭ³áĬķáĭµ": 5111,
      "ĠáīµáĬŃáĬŃáĪĪáĬĽáĭįáĬķ": 5112,
      "ĠáĬŃáĪµ": 5113,
      "ĠáĪĨáĬľ": 5114,
      "Ġáĭ¨áĪ¸": 5115,
      "Ġáĭ¨áī°áĭĭ": 5116,
      "áī°áĬĿáĬĲáīµ": 5117,
      "ĠáĪĪáĬ¥áĭ«áĬķáĭ³áĬķáĭ±": 5118,
      "ĠáĭŃáĪ°áĮ£áĪī": 5119,
      "áĬ¾áĬķ": 5120,
      "ĠáĬłáĭµáĪŃáĮĪáĭĭáĪį": 5121,
      "Ġáĭ¨áī°áĭ°áĪ¨áĮĪ": 5122,
      "áĪ¨áĮ¡": 5123,
      "ĠáīłáĬĭáĪĭáĪĿ": 5124,
      "áĮłáĬŀáī½": 5125,
      "áĮ´": 5126,
      "Ġ33": 5127,
      "áĮ£áĮ¥": 5128,
      "ram": 5129,
      "áĭ°áĪ°áīµ": 5130,
      "Ġáĭĺáĭ´áĭİáī½": 5131,
      "áī¡áĪĿ": 5132,
      "áīħáĪ¨": 5133,
      "ĠáĭĪáĭ°áĪļ": 5134,
      "ĠáĬłáĪµáīĢáĪĿ": 5135,
      "Ġáĭ«áĭµ": 5136,
      "ĠáĭįáĪŃ": 5137,
      "áĬķáĭİ": 5138,
      "Ġáĭ¨áĪļáĮĪáī£áĭį": 5139,
      "Ġáĭ°áĪ«áĪ²": 5140,
      "áĪ³áĭŃáĭ«áĪµ": 5141,
      "ĠáĪĨáī´áĪį": 5142,
      "ind": 5143,
      "ĠáĮ©": 5144,
      "áĭŀáī½": 5145,
      "ĠáīłáĪ°áĪĽáĭŃ": 5146,
      "Ġáĭ«áĬĲáĪ°": 5147,
      "ĠáĭŃáĪ°áĪĽáĬĽáĪį": 5148,
      "ĠáīłáĬķ": 5149,
      "Ġáĭ¨áĪĺáĬªáĬĵ": 5150,
      "Ġáīłáĭ°áī¡áī¥": 5151,
      "Ġáīłáĭ°áĪ¨": 5152,
      "áĮĪáīł": 5153,
      "áĬĵáĮį": 5154,
      "ĠáĪĽáĭŃ": 5155,
      "áĬ¨áįĪáĪį": 5156,
      "Ġáī³áĪĭáĪĭáīħ": 5157,
      "ĠáĪĽáī¥áĪ«": 5158,
      "ĠáĭįáĪį": 5159,
      "Ġáī°áīĥáĭĭáĪļ": 5160,
      "ĠáĬłáī¥áĭŃ": 5161,
      "Ġ36": 5162,
      "ĠáĪįáĮ¥áįį": 5163,
      "Ġáĭ¨áĪĺáĮ¡": 5164,
      "ĠáīłáīĢáĮ£áĭŃ": 5165,
      "áĪ®áĪĿ": 5166,
      "áĮĭáī½áĪģ": 5167,
      "áĬ®áĬĸáĪļáĭ«": 5168,
      "ĠáĬ¥áĬķáĮĢáĪ«": 5169,
      "ĠáĭĪáĬķáĭµáĪŀáī½": 5170,
      "ĠáĪĻáīĢáīµ": 5171,
      "Ġáĭ¨áĪļáĭĪáĪµ": 5172,
      "ĠáĬ¥áĬķáĬŃáī¥áĬ«áī¤": 5173,
      "ĠáĪµáĪĿáĬķáīµ": 5174,
      "ĠáĪĪáĪļáĭ«": 5175,
      "ĠáĬłáĬ«áĪĦáĭµ": 5176,
      "áĮłáĮ£": 5177,
      "Ġáī°áĪĪáĭĭ": 5178,
      "Ġáī¥áĭµáĪŃ": 5179,
      "áĪĺáĮ£áĪĿ": 5180,
      "ĠáīĢáĪµ": 5181,
      "ĠáĪĺáĪµáįĪáĪŃáī¶áī½": 5182,
      "ĠáīłáĪĺáĬ«áĬ¨": 5183,
      "ĠáīłáĬ¥áĪµáĪ«áĬ¤áĪį": 5184,
      "Ġáīłáĭ¨áīµáĬĽáĭįáĪĿ": 5185,
      "áĪĭáĪĪáī½": 5186,
      "ĠáĬłáĮįáī£áī¥": 5187,
      "áįĭáĮŃ": 5188,
      "ĠáĮ¥áĪŃáĮ¥áĪŃ": 5189,
      "áĬ³áĪŃ": 5190,
      "thi": 5191,
      "áĪĿáĭµ": 5192,
      "ĠáĭĪáĭ´áīµ": 5193,
      "ĠáĪĽáĪħáīłáĪŃ": 5194,
      "áĪ³áī±": 5195,
      "ĠáĪħáĮĭáĭĬ": 5196,
      "Ġáī°áĪĪáĭŃ": 5197,
      "Ġáĭ²áĭ«": 5198,
      "ĠáĬ¨áĭĵ": 5199,
      "ĠáĬ¨áįĬ": 5200,
      "áĪĪáīµáĪĿ": 5201,
      "ĠáĪµáįĸáĪŃáīµ": 5202,
      "ĠáīĢáĭ³áĪļ": 5203,
      "ĠáīłáĬ¥áĬĲáĪŃáĪ±": 5204,
      "ĠáĪĪáĪĺáīĢáīłáĪį": 5205,
      "Ġáĭ¨áī°áįĪáĮ¥áĪ®": 5206,
      "ĠáīłáĮ¸": 5207,
      "áĪįáĬ©": 5208,
      "Ġáī°áī¥áĪıáĪį": 5209,
      "Ġáī³áĭįáīĥáĪĭáī½áĪģ": 5210,
      "Ġáĭ¨áįķáĪ®": 5211,
      "ĠáĪĿáĪķ": 5212,
      "ĠáĬłáĪįáī»áĪįáĬ©áĪĿ": 5213,
      "áĬķáĭĽáĪ¬": 5214,
      "Ġáĭ¨áĪļáĪīáīµ": 5215,
      "ĠáĬ¥áī£áĬŃáĪħ": 5216,
      "ĠáĭŃáĬĸáĪŃáīłáī³áĪį": 5217,
      "Ġáĭ¨áĪ°áĪ«": 5218,
      "ĠáĪĻáĭ«": 5219,
      "Ġáī°áī£áĪĪ": 5220,
      "Ġáĭ¨áĪļáĪĺáĪµ": 5221,
      "Ġ^": 5222,
      "ĠáĬ¨áĭĺ": 5223,
      "Ġáĭ¨áī°áĮĭ": 5224,
      "Ġáīłáī´": 5225,
      "áĭĪáĭĿ": 5226,
      "Ġáĭ«áĪįáĪĨáĬĳ": 5227,
      "Ġáī°áĭŃ": 5228,
      "Ġáĭ¨áĪĺáĮĢáĪĺáĪªáĭ«áĭįáĬķ": 5229,
      "Ġáĭ¨áĪķáĬŃáĪĿáĬĵ": 5230,
      "áĬ¥áĬĸ": 5231,
      "Ġáĭ¨áīģáĪĽáĪŃ": 5232,
      "40": 5233,
      "ĠáĪĺáīĢáĮłáĪį": 5234,
      "Ġáĭ«áĭ°áĪŃáĮĭáĪī": 5235,
      "ĠáĭĺáĪĭáīĤ": 5236,
      "áįĶáĬķ": 5237,
      "Ġ=": 5238,
      "ĠáĪµáĪĪáĬĲáīłáĪŃ": 5239,
      "Ġáĭ¨áĪļáĪĺáĮ£": 5240,
      "em": 5241,
      "ĠáĮįáī¥áĪ¨": 5242,
      "ĠáĪħáĪįáĪĿ": 5243,
      "Ġáĭµáī¥": 5244,
      "ĠáĪĪáĪģáĪĪ": 5245,
      "ĠáĬłáĭŃáī³": 5246,
      "ĠáĭŃáĭŃ": 5247,
      "ĠáĮįáĭĻ": 5248,
      "áĪŃáĪ¶": 5249,
      "áĪĪáĭµ": 5250,
      "ĠáĮ¥áĬķáīĥáīĦ": 5251,
      "Ġáī°áĭĺáĮĭáĮħ": 5252,
      "áĪĥáĭĬ": 5253,
      "Ġáĭ¨áī½": 5254,
      "Ġáĭ¨áįĪáĮłáĪ«": 5255,
      "ĠáĮĪáĬķ": 5256,
      "áįįáĭ«": 5257,
      "ĠáĪĽáĪµáīĢáĪĺáĮ¥": 5258,
      "ĠáīłáīµáĪĿáĪħáĪŃáīµ": 5259,
      "ĠáĪĺáĬ«áĬ¨": 5260,
      "áĭĪáĪĪáĭµ": 5261,
      "...\"": 5262,
      "ĠáĪĤáĪ³áī¥": 5263,
      "and": 5264,
      "áĪ«áĪ¨áī¥": 5265,
      "Ġáī°áĮłáĬĵ": 5266,
      "áī½áīµ": 5267,
      "Ġ35": 5268,
      "ĠáĬ¨áĬłáĪģáĬķ": 5269,
      "ĠáĬ¥áĭ¨áī³": 5270,
      "ĠáīłáįįáĮ¹áĪĿ": 5271,
      "Ġ2021": 5272,
      "áī³áĭĪáīĢáĭį": 5273,
      "ĠáīħáĪŃáĮ¸": 5274,
      "áĪĪáĭįáĮ¥": 5275,
      "ĠáĪ«áĪµáĬķ": 5276,
      "áĮłáīłáīģ": 5277,
      "Ġáī£áĪħáĪªáĭ«áīµ": 5278,
      "ĠáīłáĬłáĪĪáĪĿ": 5279,
      "áĪĺáĪµáĮĪáĬķ": 5280,
      "áĭĸáĬķ": 5281,
      "áĪ¬áĭį": 5282,
      "ĠáĭŃáĪ¨áĭ³áĪį": 5283,
      "Ġáĭ°áĬķáī¥": 5284,
      "ĠáįĭáĭŃáĪİáī½": 5285,
      "áĪĺáĭĺ": 5286,
      "áĬķáīĢáĪ³áīĢ": 5287,
      "ew": 5288,
      "áīĥáĬķ": 5289,
      "ĠáĭŃáĮłáīłáīħ": 5290,
      "ĠáĪļáĪĬ": 5291,
      "Ġáįİáī¶áĭİáī½": 5292,
      "ĠáĪĪáĬŃ": 5293,
      "Ġáīłáī°áīĥáĪ«áĬĴ": 5294,
      "ĠáĬ¢áĭ¨áĪ±áĪµáĪĿ": 5295,
      "ĠáĪĪáĬ¥áĪŃáĪ±": 5296,
      "áĪĺáī½": 5297,
      "áįĥáįį": 5298,
      "áĮĵáĭĻ": 5299,
      "ĠáĪĺáĪĪáĪ°": 5300,
      "ĠáĪµáī¥áĪµáī¥": 5301,
      "ĠáĪĺáĪĲ": 5302,
      "ĠáĮłáīħáĪĭáĪĭ": 5303,
      "ut": 5304,
      "Ġáī°áįĪáĮ¥": 5305,
      "ĠáĬĢ": 5306,
      "Ġáĭİáī¹": 5307,
      "Ġáī¥áīħ": 5308,
      "Ġáĭ¨áĪĺáĮ£áĭį": 5309,
      "áĬĸáĪªáĭ«": 5310,
      "áīĤáĬĿ": 5311,
      "ĠáĬ¥áĬķáĪµáĪ³áīµ": 5312,
      "ĠáĬ¤áĪµ": 5313,
      "ook": 5314,
      "ĠáĪŀáĭ´áĪį": 5315,
      "ĠáĪĽáĪ½áĬķ": 5316,
      "áĪ«áīµáĬķ": 5317,
      "áĪµáī°áĪĿ": 5318,
      "áĬ¨áĪĭáĭĬ": 5319,
      "áĪ«áĪµ": 5320,
      "ĠáĬłáĭĭáīĤ": 5321,
      "ĠáĬ¨áĭ°": 5322,
      "áį¤+": 5323,
      "ĠáĪĺáī¥áĪĭáīµ": 5324,
      "áĪ¨áī³": 5325,
      "ĠáīħáĪ¬áī³": 5326,
      "áĭ°áĪŃáĮīáīµ": 5327,
      "Ġáĭ¨áĪģáĪīáĪĿ": 5328,
      "áĭ°áĪªáĭ«": 5329,
      "ĠáĮ®": 5330,
      "ĠáĮĢáĪŃáĪĺáĬķ": 5331,
      "ĠáĭĪáĬķáĭĿ": 5332,
      "ĠáįįáĪ«": 5333,
      "áĮĵáĭ´": 5334,
      "áĪµáī¥áĪµáī¥": 5335,
      "Ġáī¢áĪĬáĭ®áĬķ": 5336,
      "áĪĺáĪŃáĪĺáĪŃ": 5337,
      "áī£áĬķ": 5338,
      "áĭįáīĢáĭį": 5339,
      "ĠáĮ¸áĪĲ": 5340,
      "Ġáĭ«áĪĪáĪĿ": 5341,
      "Ġáĭ¨áĬ¤áĪĮáĬŃáīµáĪªáĬŃ": 5342,
      "áĭ«áī½áĬķ": 5343,
      "ĠáĮįáĮ¥": 5344,
      "áĪĥáĭµ": 5345,
      "Ġáīħáĭ³áĪľ": 5346,
      "ĠáĬłáĪīáĬĿ": 5347,
      "Ġáĭ¨áĬłáĪĪáĪĿ": 5348,
      "ĠáĬ¥áĪģáĭµ": 5349,
      "ĠáĭĪáĪŃáīħ": 5350,
      "ĠáĪ°áĪįáįį": 5351,
      "ĠáĬ¨áĮĪ": 5352,
      "ĠáĪĪáĪģáĪĪáīµ": 5353,
      "ĠáĪĺáĪįáĬ«": 5354,
      "ĠáĪĺáī»áĪį": 5355,
      "ĠáĭŃáĪĪáĭ«": 5356,
      "Ġáĭ¨áī»áĭŃáĬĵ": 5357,
      "áĭŃáĭĿ": 5358,
      "áĪ°áī¥áĪ°áī¥": 5359,
      "ĠáīłáĬłáĭį": 5360,
      "áĪįáĮłáĬĵ": 5361,
      "ĠáĬ¥áĭįáīħáĬĵ": 5362,
      "áĭµáĪį": 5363,
      "Ġáĭķáīĥáĭİáī½": 5364,
      "ĠáĪĺáĪĭáĭį": 5365,
      "Ġáĭ°áĪŃáĪ·áĪį": 5366,
      "áĬ¨áĪī": 5367,
      "ĠáĬ«áĪħ": 5368,
      "ĠáĭĬ": 5369,
      "áĪ¨áĬķáĮĵáĭ´": 5370,
      "Ġáī¥áĪŃáī±": 5371,
      "ĠáĬ¨áĪĺáĮłáĬķ": 5372,
      "áĭµáī¥": 5373,
      "Ġáīłáĭ¨áĬł": 5374,
      "áĬĲáĪħ": 5375,
      "ĠáĪĺáīĢáĬĲáĪµ": 5376,
      "ĠáĬ¥áĬķáĭ²áĪħáĪĿ": 5377,
      "ĠáĮįáĮŃáīµ": 5378,
      "áĮ»áĪļ": 5379,
      "ĠáĭĿáĬĵáī¥": 5380,
      "Ġáĭ¨áĪļáĬĸáĪŃ": 5381,
      "ĠáĪĺáĪĿáĮ£áīµ": 5382,
      "ĠáĬłáĭĿáĪĽ": 5383,
      "áĮĭáĪ«áīµ": 5384,
      "ĠáĭĭáĬķáĮ«": 5385,
      "áĪħáĬłáĭ´áĮį": 5386,
      "ĠáĬ¥áĬķáĭ²áĪĨáĬĳ": 5387,
      "Ġáī¥áĪ«": 5388,
      "áīĢáĭĿ": 5389,
      "áĪ£áĬ¤": 5390,
      "Ġáĭ¨áĪĺáī°": 5391,
      "ĠáĬłáĬķáįĥáĪŃ": 5392,
      "ĠáĪĽáĭįáĪ¨áĭµ": 5393,
      "áĪĪáī²áĬ¨": 5394,
      "ĠáīłáĬłáĬķ": 5395,
      "Ġ2015": 5396,
      "ĠáĮīáĭ³áĭ©áĬķ": 5397,
      "ĠáīłáĮ£": 5398,
      "ĠáĪĢáĮĪáĪ®áī½": 5399,
      "áĭŃáĬĵáĬķáĪµ": 5400,
      "ĠáīģáĮŃ": 5401,
      "áĬĵáī½áĬķ": 5402,
      "ĠáĬŃáĪŃáĪµáī²áĭ«áĬĸáī½": 5403,
      "ĠáĮ¥áįĭ": 5404,
      "Ġáĭ¨áĪĪáĬķáĪĿ": 5405,
      "áĮĭáĮ¥": 5406,
      "áī´áĭİáĪµ": 5407,
      "ĠáīµáįĪáĪįáĮĭ": 5408,
      "áĬ«áī½áĪģ": 5409,
      "Ġáī°áĪĿ": 5410,
      "Ġáĭ¨áī°áĪ°áĪ«": 5411,
      "text": 5412,
      "áĪŀáī±": 5413,
      "Ġáĭ«áĭĺ": 5414,
      "ĠáĭŃáĬĲáĮį": 5415,
      "ĠáĬłáīħáĪŃáī¦áīµ": 5416,
      "ĠáĭŃáĪħáĬķáĬĳ": 5417,
      "ĠáĬłáĭ³áĪĿ": 5418,
      "Ġáĭ¨áī°áīĥ": 5419,
      "áĬ®áĬĸáĪļáĭ«áĭĬ": 5420,
      "ĠáĬłáįĪáįĥáįĢáĪĿ": 5421,
      "Ġáī°áĪĺáĪįáĬŃ": 5422,
      "áĮĪáĬĽáĪĪáĬķ": 5423,
      "Ġáĭ¨áĪħáĭŃáĭĪáīµ": 5424,
      "Ġáī´áĬŃ": 5425,
      "ĠáĬ¥áĬķáĭ°áĬĲáīłáĪ¨": 5426,
      "ĠáĬłáĮĪáĪįáĮĭáĭŃ": 5427,
      "áĪĪáĭĪ": 5428,
      "ĠáīłáĪ«áĪ³áī¸áĭį": 5429,
      "ĠáĮĭáī¥áī»": 5430,
      "ĠáĬĲáīłáĪŃáĬĵ": 5431,
      "áĪįáĬŃáīµ": 5432,
      "ĠáĬłáĪ°áĪ«áĪŃ": 5433,
      "ĠáĮĪáĭ°áī¥": 5434,
      "ĠáĬĲáĮłáĪĭ": 5435,
      "ĠáīĢáĭįáĪµ": 5436,
      "ĠáĪĺáĭĿáĪĻáĪŃ": 5437,
      "áĮłáįī": 5438,
      "áĪ°áĪ«áĪĿ": 5439,
      "ĠáĬłáĬķáĭ°áĬĽ": 5440,
      "ĠáĭŃáĭ°áĮį": 5441,
      "ĠáĬ¥áī¥": 5442,
      "ĠáĪĪáĪĽáĪ³áĭ¨áīµ": 5443,
      "ĠáĪĽáĬ¥": 5444,
      "Ġáīį": 5445,
      "áĭµáĭ«": 5446,
      "áĪĿáĬĳ": 5447,
      "ĠáĬ¥áĮ¥áĪ¨áīµ": 5448,
      "áĪ¨áĮĭáĮĪáĮł": 5449,
      "ĠáĬ¥áĮĪáĭĽ": 5450,
      "ĠáĭįáĪµáī¥áĪµáī¥": 5451,
      "Ġáĭ¨áī³áĭĪáīĢ": 5452,
      "ĠáĬ¥áĬķáīħáĪµáīĥáĪ´áĭİáī½": 5453,
      "Ġáĭ°áĪħáĬķáĬĲáī±": 5454,
      "ĠáĬ¢áĬķáī¨áĪµáīµ": 5455,
      "ĠáĬ¨áī³áī½": 5456,
      "áīĢáīłáĪī": 5457,
      "ĠáĬłáĪĭáĮĪáĬĺ": 5458,
      "áĮ¥áĮ¥áĪŃ": 5459,
      "ĠáīĢáĮłáĪ®": 5460,
      "Ġáĭ¨áĬłáĭŃ": 5461,
      "ĠáīłáĪĤ": 5462,
      "Ġáĭ¨áĪĨ": 5463,
      "ĠáĬłáĮĪáĬĵáĬĿ": 5464,
      "Ġáĭ¨áī¢": 5465,
      "ĠáĬ¥áĪ·áĬķ": 5466,
      "ĠáĪ°áĪį": 5467,
      "ĠáĭĪáĬķáĮĢ": 5468,
      "áīĢáĭįáĬķ": 5469,
      "áįĪáĪĪáĮĪáĭį": 5470,
      "ĠáĪĺáĭĽáĪĻáĪŃ": 5471,
      "Ġáī¥áĪĭáī½áĪģ": 5472,
      "ĠáīłáĪ¨áĬ¨áīµ": 5473,
      "Ġáī½áĮįáĪ©áĬķ": 5474,
      "art": 5475,
      "ĠáĪĿáĬĲáĭį": 5476,
      "ĠáīµáĬĵáĬķ": 5477,
      "Ġáīłáīħáĭµ": 5478,
      "áĮ»áĪľ": 5479,
      "Ġáĭ¨áĪĺáĬķáĮįáĪ¥áīµ": 5480,
      "áĬĭáī¸áĭį": 5481,
      "áĮ¦áĪŃáĬĲáīµ": 5482,
      "Ġáĭ«áĪµáįĪáĪįáĮĪáĬĵáĪį": 5483,
      "áĪĺáĭ±": 5484,
      "ĠáĬłáĪīáĬķ": 5485,
      "ĠáĬłáĪįáĮĪáī£": 5486,
      "ĠáĪļáĪµ": 5487,
      "ĠáĪµáĪĪáĬ¥": 5488,
      "ĠáĪĥáĮĪáĪŃ": 5489,
      "26": 5490,
      "áĭ°áīłáĬĽ": 5491,
      "ĠáĬłáĪįáī»áĪīáĪĿ": 5492,
      "áī±áĬķáĪĿ": 5493,
      "Ġ2012": 5494,
      "áĪĭáĪįáīħ": 5495,
      "ĠáīłáĬĶ": 5496,
      "Ġáī°áĬĵáĮįáĪ¯áĪį": 5497,
      "áĭ°áĮĪáįį": 5498,
      "áĬķáĮīáĪ¡": 5499,
      "ĠáīłáĬ¥áĪŃáĪµ": 5500,
      "ĠáīłáĪĺáĬķáįĪáĪµ": 5501,
      "ĠáĭĪáĪ°áĬķ": 5502,
      "áĪ°áī¥áĬ©": 5503,
      "Ġáī¥áĭĻáĭİáī¹": 5504,
      "Ġáīħáĭ±áĪ³áĬķ": 5505,
      "ĠáĪĤáĭµ": 5506,
      "áĬĲáī³áī¸áĭįáĬķ": 5507,
      "Ġ90": 5508,
      "Ġáĭ¨áĪĻáĭļáīĥ": 5509,
      "ĠáĬłáĭ°áĪ¨áĮį": 5510,
      "Ġáĭ¨áĬ¥áĬķ": 5511,
      "ĠáĭŃáĬĸáĪŃáī¥áĬĵáĪį": 5512,
      "ĠáĬ¨áĬĲáĭļáĪħ": 5513,
      "ĠáĪ°áĭŃáĮ£áĬķ": 5514,
      "áĮĪáĬĲáī£": 5515,
      "áĬŃáĪī": 5516,
      "ĠáĭĪáĮ¥áī¶": 5517,
      "ĠáĪĮáĪİáī½áĬķ": 5518,
      "áĬ¸áĬĿ": 5519,
      "ĠáĬķáī¥áĪ¨": 5520,
      "ĠáĮ£áįĭáĮŃ": 5521,
      "ĠáĬłáĭ«áĪµáįĪáĪįáĮįáĪĿ": 5522,
      "áĮįáĬĲáīµ": 5523,
      "Ġáī£áĪĪáĪ¥": 5524,
      "ĠáĬĲáĪ½": 5525,
      "áĬ®áĪį": 5526,
      "áĪŃáĭĿáĪŃ": 5527,
      "ĠáĭŃáįĪáĪįáĮī": 5528,
      "ĠáĪ²áĪĨáĬĳ": 5529,
      "áįĥáĪļ": 5530,
      "ĠáĪĪáĬ¥áĬĲáĪ±": 5531,
      "Ġáĭ«áĬ«áīµáī³áĪį": 5532,
      "áīµáĬķáĬĵ": 5533,
      "Ġáĭ¨áĭµáĪĿ": 5534,
      "ĠáĪĪáĮĬáĭľáĭį": 5535,
      "ĠáĪ¥áĪ«áĭį": 5536,
      "ĠáīłáĮ¥áĬķáīĥáīĦ": 5537,
      "áĮĪáĮ¥": 5538,
      "ĠáĭĵáĪĪáĪĿáĬķ": 5539,
      "ĠáīłáīĨ": 5540,
      "ĠáĬłáĭ°áĪ¨áĮī": 5541,
      "28": 5542,
      "áĬĲáĮįáĪŃ": 5543,
      "ĠáīłáĪ°áĪĽ": 5544,
      "ĠáĪ³áĬķ": 5545,
      "ĠáĭŃáĭĪáĭµ": 5546,
      "ĠáĪĽáĪ½": 5547,
      "ĠáĭŃáĭ°": 5548,
      "Ġáīłáĭ²": 5549,
      "Ġáĭ¨áĪļáĪ°áĪ«": 5550,
      "áĪĺáĪĪáĬ¨áī³": 5551,
      "ĠáĪĽáīĨáĪĿ": 5552,
      "áīĢáĮ¥áĪīáīµ": 5553,
      "ĠáĬĥáĭŃáĪĪáĬĽ": 5554,
      "áĭĪáĭ°áĭį": 5555,
      "áĭ³áĪĪáĬķ": 5556,
      "ĠáĭŃáīĢáīł": 5557,
      "ĠáĭĵáĭŃáĬķ": 5558,
      "Ġáĭ¨áĪ´áī¶áī½": 5559,
      "ĠáĬłáĪµáī°áĭĭáĮ½": 5560,
      "ĠáĪĺáĬ¨áī°áĪį": 5561,
      "áĬĲáįĪ": 5562,
      "ĠáĭįáĪµáĮ¥áĪĿ": 5563,
      "Ġáĭ«áĪ¨áĮĭáĮįáĮ¡": 5564,
      "ab": 5565,
      "Ġáĭ¨áĪļáĪ°": 5566,
      "ĠáĪĪáįĬáīµ": 5567,
      "ĠáĭŃáīłáĪī": 5568,
      "ĠáīłáĪĺáĪį": 5569,
      "Ġ&": 5570,
      "áįĪáĪŃáīµ": 5571,
      "áĬĵáĭįáĭ«áĬķ": 5572,
      "áĪµáĬ®": 5573,
      "Ġáĭ¨áĬłáĮĪáĪŃ": 5574,
      "ĠáĪĺáĭµáĪĥáĬĴáīµ": 5575,
      "ĠáĮįáĭĽ": 5576,
      "áĭ²áīµ": 5577,
      "Ġáĭ¨áĪĽáĭŃáī³": 5578,
      "ĠáĬ¥áĪµáĬ¨áĪļ": 5579,
      "ĠáĪļáĬĴáĪµáīµáĪ©": 5580,
      "ĠáĬ¥áĪ·áĪĿ": 5581,
      "áĬ¨áĪ°áī±": 5582,
      "áĮĩ": 5583,
      "ĠáīłáįĢ": 5584,
      "áĭĪáīµáĪŃ": 5585,
      "áįª": 5586,
      "áĬ¨áī°áĪīáīµ": 5587,
      "áĬ«áĬ¨áĪį": 5588,
      "ĠáĬłáĮįáĬĿáī·áĪį": 5589,
      "ĠáĪĪáĪĢ": 5590,
      "Ġáĭ¨áĭ°áĪĿ": 5591,
      "Ġáī¥áĪ¨áīµ": 5592,
      "áĪ¨áĬŀáī½": 5593,
      "ĠáĪĪáĪĮáĪĭ": 5594,
      "Ġn": 5595,
      "áĭĺáĬĽ": 5596,
      "áī°áĬŀáī½áĬķ": 5597,
      "ĠáĮłáī£áīĤ": 5598,
      "ĠáĭŃáĮ«áĬĳ": 5599,
      "ĠáĬ¥áĬķáĭ²áĬĸáĪŃ": 5600,
      "ĠáīłáĪºáĭİáī½": 5601,
      "ĠáĪĪáĪĽáĪµáĭĪáĮĪáĭµ": 5602,
      "áī¢áĭį": 5603,
      "ĠáĪĺáĮĵáĭĿ": 5604,
      "áĪ«áĭİáī½": 5605,
      "ĠáĮ£áĪįáīĥ": 5606,
      "ĠáĬ¥áĭįáĬĲáī±áĬķ": 5607,
      "ĠáĬ¥áĮ¥áįį": 5608,
      "Ġin": 5609,
      "áĬ«áĪªáĭİáī½": 5610,
      "ĠáĪµáĪĪáĪĮ": 5611,
      "ĠáĪµáĪĭáĪĪ": 5612,
      "ĠáĪ³áĪĻ": 5613,
      "ĠáĪĢáĪ³áī¦áī½": 5614,
      "ĠáĬ¥áĬķáĭ°áĪļáĮĪáī£": 5615,
      "ir": 5616,
      "Ġáīłáī°áĪĪáĭ¨": 5617,
      "áĮ¨áĪ¨áī³": 5618,
      "Ġáī°áĪĺáĪįáĬ¨áīµ": 5619,
      "ĠáīłáĮĮáī³": 5620,
      "Ġáĭ«áĮĪáĪĪáĮį": 5621,
      "ĠáĬłáĭµáĪŃáĮĪáĬķ": 5622,
      "ĠáīłáĭĭáĬĵ": 5623,
      "ĠáĬłáĭİáĬķáī³áĭĬ": 5624,
      "áĬĸáĪ©áīµ": 5625,
      "ĠáĪĺáĪ¨áĮĥáĭİáī½áĬķ": 5626,
      "ĠáĬ¨áĮįáĪĿáīµ": 5627,
      "áĭ°áĭ°": 5628,
      "ĠáĮłáĪŃ": 5629,
      "áĬķáĮįáĪį": 5630,
      "ĠáĪĽáĭįáĮ£áīµ": 5631,
      "Ġáī¥áĪŃáĪĥ": 5632,
      "áĭŃáīħ": 5633,
      "áĬ¨áĬĵáĭį": 5634,
      "ĠáĭĪáĪ¨áĪŃáĪ½": 5635,
      "áī¥áĭİ": 5636,
      "áī°áĪ½": 5637,
      "áī°áĮ¨áĪĽáĪª": 5638,
      "ĠáĬ¨áĪĺáī¼": 5639,
      "Ġáĭ¨áĬ¢áĭ¨áĪ±áĪµ": 5640,
      "áīĢáĪĺáĮ«": 5641,
      "áĮİáīł": 5642,
      "ĠáīłáĬłáĬķáĭµáĬĲáīµ": 5643,
      "áĮ¢áĬł": 5644,
      "áįİáĪŃ": 5645,
      "ĠáĪłáĪŃ": 5646,
      "áīłáĪĪáĭļáĭ«": 5647,
      "ĠáĮ¸áĪİ": 5648,
      "Ġáĭ©áĬĵáĭŃáīµáĭµ": 5649,
      "ĠáĬłáĬ«áĪĭáĭĬ": 5650,
      "áīĢáĪ¨áīł": 5651,
      "§áĪ¨": 5652,
      "áĬķáī°áĬķ": 5653,
      "áīĥáĭĪáĪĿ": 5654,
      "stag": 5655,
      "Ġáĭ¨áĭ°áĪ¨áĪ°": 5656,
      "áĪħáĬķáĪĿ": 5657,
      "áĮĢáĪĺáĪŃáĭ«": 5658,
      "ĠáĬĽáĭį": 5659,
      "áĭ«áĭ£": 5660,
      "ĠáĭŃáĮ«áĭĪ": 5661,
      "ĠáīĢáĮ¥áī°áĬĽ": 5662,
      "ĠáĬłáĬĵáĭį": 5663,
      "áĪĭáīĢáĪį": 5664,
      "áĭķáĪĪáīµ": 5665,
      "áĭ°áĪ°áī±": 5666,
      "ĠáĪĮáĪĭáĭįáĬķ": 5667,
      "Ġáĭ«áīĢ": 5668,
      "áĪµáīµáĪ«áĪĬáĭ«": 5669,
      "ĠáĬłáĪµáī°áĪĽáĪª": 5670,
      "ĠáįķáĪ¬áĭĿáĭ³áĬķáīµ": 5671,
      "ĠáĮ¾": 5672,
      "ation": 5673,
      "áĬķáĭ²áĪħ": 5674,
      "Ġáī°áĪ°áī¥": 5675,
      "ĠáĭĪáĪį": 5676,
      "ĠáĪĽáīĨ": 5677,
      "Ġáĭ¨áĪļáĮĪáĪį": 5678,
      "áĭĪáĪĥáīµ": 5679,
      "ĠáĪ°áĭįáĭ¬": 5680,
      "áĭŃáĪħáĬķ": 5681,
      "ĠáĬłáĭ°áĪ«": 5682,
      "áĬķáīĢáĪ³áīĢáĪµ": 5683,
      "áĬĲáīłáĪ¨áīłáīµ": 5684,
      "Ġáĭ¨áĪļáĭ«áĭ°áĪŃáĮĪáĭį": 5685,
      "áĪĪáĪŃ": 5686,
      "ĠáĮĪáįħ": 5687,
      "ĠáĬ¥áĪĭáī½áĬĭáĪĪáĪģ": 5688,
      "ĠáīłáĪ²": 5689,
      "ĠáĬ¨áĪ°áĪĽáĭŃ": 5690,
      "stagram": 5691,
      "áĪ«áĪª": 5692,
      "áĭ°áĭ±": 5693,
      "áĪ·áĬķ": 5694,
      "ĠáĪĺáĬ®": 5695,
      "ĠáĪ°áĭįáĬĲáīµ": 5696,
      "ĠáĭĪáĭ²áĭ«": 5697,
      "áĪµáįĪ": 5698,
      "ĠáĬ¨áĮįáī¥": 5699,
      "ĠáĬ®áĭµ": 5700,
      "ĠYou": 5701,
      "áĪĥáī¥": 5702,
      "ĠáĪĪáī³": 5703,
      "áĭĽáĪī": 5704,
      "ĠáĪĮáĪİáī¹": 5705,
      "áĮĵáĮĵáĭ£": 5706,
      "ĠáĪĺáĪµáĪĺ": 5707,
      "ĠáīłáĮł": 5708,
      "Ġáĭ¨áĭĪáĬķ": 5709,
      "ĠáīłáĮ¥áīĤáīµ": 5710,
      "áī³áĭĪáīģ": 5711,
      "áĬĲáĮĪáĪ¨": 5712,
      "áįķáĪª": 5713,
      "ĠáīłáĬłáĬ«áī£áī¢áĭį": 5714,
      "ĠáĪĨáĬĲáĬķ": 5715,
      "áĬŃáĬķ": 5716,
      "ĠáĭĪáĭ°áĬĭáĪĭ": 5717,
      "ĠáĮĪáĭ¢": 5718,
      "Ġáĭ³áĭŃáĪ¬": 5719,
      "áĪĭáī½áĬĭáĪį": 5720,
      "áīłáĪĺ": 5721,
      "Ġáĭ¨áī°áĪ°áĮłáĭį": 5722,
      "áīªáĭµ": 5723,
      "ÙĦ": 5724,
      "áīĤáĭ«áĭİáī½": 5725,
      "áĭ®áĪĲáĬķáĪµ": 5726,
      "Ġáĭ«áĪĺáĪĪáĬŃ": 5727,
      "ĠáįķáĪ®áĮĢáĬŃáī¶áī½": 5728,
      "ĠáįįáĪŃáĪĥáīµ": 5729,
      "ĠáĪĪáĭĵ": 5730,
      "ĠáīłáīłáĬ©": 5731,
      "Ġáĭ¨áĬ¥áĭį": 5732,
      "Ġáĭ¨áĮĪáĬĵ": 5733,
      "áī¶áĬķ": 5734,
      "áĪŃáĮħ": 5735,
      "ĠáīµáĮį": 5736,
      "áĭİáī½áĬĵ": 5737,
      "ĠáĮĢáĪŃáī£": 5738,
      "Ġáī³áĪªáĬ«áĭĬ": 5739,
      "ĠáįķáĪ®áĮįáĪ«áĪŀáī½": 5740,
      "ĠáĬłáĪµáĪŃ": 5741,
      "ĠáīĭáĪļ": 5742,
      "áĬŃáĬŃ": 5743,
      "ĠáĭŃáĬ¨áįį": 5744,
      "ĠáīµáĪŃáĮī": 5745,
      "áīĭáĪļ": 5746,
      "Ġáī°áĬķáīĢáĪ³áīĥáĪ½": 5747,
      "ĠáīłáĪĺáĭį": 5748,
      "ĠáįįáĪĭáĮİáī¶áī½": 5749,
      "Ġáī°áĮ£": 5750,
      "ĠáĪĽáĭĺáĮĭáĮĢáīµ": 5751,
      "áĪĪáĪħáĪĿ": 5752,
      "áį¤\"": 5753,
      "áĭ°áīħ": 5754,
      "Ġáĭ«áĬĲáĪ³": 5755,
      "ĠáĮ«áĬĵ": 5756,
      "ĠáĭŃáĪ°áĮł": 5757,
      "ĠáĭŃáĪħáī½": 5758,
      "ĠáĬłáĭĪáĮ£": 5759,
      "áĬĿáīµ": 5760,
      "ĠáīµáĪį": 5761,
      "ĠáĪĺáĬķáĪµ": 5762,
      "ĠáĭĿáĪŃáĭ«": 5763,
      "ĠáĭĪáĭ³áĮħ": 5764,
      "áĪŃáĮ¥": 5765,
      "áĭ´áĬķ": 5766,
      "ĠáĪĪáī°áĭĪáĪ°áĬĲ": 5767,
      "ĠáĭĪáĭ³áĮĦ": 5768,
      "áī¦áĬĵ": 5769,
      "áĮĨáī¼": 5770,
      "27": 5771,
      "ĠáĬłáĪĺáĪµ": 5772,
      "áī¸áĭĭáĪĪáĬķ": 5773,
      "Ġáĭ¨áī°áĪŀáĪĭ": 5774,
      "ĠáĭĻáĪŃ": 5775,
      "áĪ¨áĬ¨": 5776,
      "ĠáĪĽáĪĪáī´": 5777,
      "ĠáĪĬáĪ¨áĭ³": 5778,
      "ĠáĮ¥áĬĵáī¶áī½": 5779,
      "ĠáīĢáĬĳáĬķ": 5780,
      "áī½áīłáīµ": 5781,
      "Ġáī°áĬĵáĮĪáĪ¨": 5782,
      "Ġáĭ²áĮįáĪª": 5783,
      "Ġáĭ¨áī£áĬķáĬŃ": 5784,
      "Ġáĭ°áĬ«áĪĽ": 5785,
      "áĭ°áĪĪ": 5786,
      "Ġáĭ«áĪµáī½": 5787,
      "Ġáĭ¨áī¥áĭĻ": 5788,
      "ĠáįĮáĪµáī¡áĬŃ": 5789,
      "Ġáīłáĭ¨áĮĬáĭľáĭį": 5790,
      "ĠáīłáĮĬáĭľ": 5791,
      "Ġáī°áĭĪáĪµ": 5792,
      "ĠáĬłáĪ¨áĮĭáĮį": 5793,
      "Ġáī³áĪĭáīģ": 5794,
      "áī¤áī´": 5795,
      "áĪķáĪŃ": 5796,
      "ĠáĪĽáĮ£áīµ": 5797,
      "áĪĭáī±": 5798,
      "ĠáĪįáĮ¥": 5799,
      "ĠáĬ¥áĬķáĭ²áĭ«áĮĪáĬĻ": 5800,
      "áĮłáĪ«áĪį": 5801,
      "thiop": 5802,
      "ĠáĬ«áĪ³": 5803,
      "ĠáĬłáĭįáĪ«": 5804,
      "ĠáĪĺáĬĵ": 5805,
      "áĭµáĬĳ": 5806,
      "áī¥áĮ¥": 5807,
      "Ġáĭ¨áĪłáĪ«": 5808,
      "áĭŃáĭµ": 5809,
      "Ġáĭ¨áĬłáĭ²áĪµ": 5810,
      "ĠáĬĲáĭįáĬķ": 5811,
      "ĠáĪµáĬĲ": 5812,
      "ul": 5813,
      "ĠáĪµáĪŀáī½": 5814,
      "ĠáĭŃáĪĿ": 5815,
      "ĠáĪµáĪĿáĪĿ": 5816,
      "ĠáĪĽáĭįáĪ«áīµ": 5817,
      "ĠáĬłáĪĪáĪħ": 5818,
      "ĠáīłáĬ¥áĮħáĮī": 5819,
      "ĠáĪĥáĮĪ": 5820,
      "ĠáĪĽáĪµáĮĪáī£áīµ": 5821,
      "ĠáĬ¢áĪ³áĭŃáĭ«áĪµ": 5822,
      "ĠáĬŃáĪįáĪİáī½": 5823,
      "ĠáĪģáĬķ": 5824,
      "ĠáĬ¨áįĭ": 5825,
      "Ġáĭ²áĭĽáĭŃáĬķ": 5826,
      "ĠáĪĺáĬª": 5827,
      "ĠáĪĪáĪĽáĪ³áĬ«áīµ": 5828,
      "ter": 5829,
      "ĠáĭŃáĭ°áĪŃ": 5830,
      "áĭķáĪĿ": 5831,
      "áĬĵáī¸áĭįáĬķ": 5832,
      "ĠáĬłáĪıáī¸áĭį": 5833,
      "ĠáĪļáĪµáĮ¥": 5834,
      "ĠáĪĲáĪ³": 5835,
      "áĪ¨áĭ°": 5836,
      "oc": 5837,
      "Ġáīłáī°áĭĪáĪ°áĬĲ": 5838,
      "ĠáĪĽáī¥áĪ«áĪªáĭ«": 5839,
      "ĠáĬłáĬķáĪµáī¶": 5840,
      "áĪµáī¸áĬ³áĭŃ": 5841,
      "ĠáĬłáĪįáĮĭ": 5842,
      "ĠáĪĪáĪĺáĮĪáĬķáī£áīµ": 5843,
      "Ġáĭ¨áĪĺáĪį": 5844,
      "áĬķáĭĭ": 5845,
      "áīłáĬķ": 5846,
      "ĠáĪĪáĪ«áĪµ": 5847,
      "áī¹áĪĿ": 5848,
      "Ġáĭ¨áĬ¥áĬĲáĭļáĪħ": 5849,
      "Ġâĺ": 5850,
      "áĭ®áīµ": 5851,
      "áĭĿáīĥáĭĽ": 5852,
      "ĠâĢº": 5853,
      "áĬĲáī¶áī½áĬķ": 5854,
      "ĠáĬ¢áīµáĭ®áĮµáĭ«áĭĬ": 5855,
      "ĠáĬłáĭŃáĪĺáĪµáĪįáĪĿ": 5856,
      "ĠáĬĴáĭį": 5857,
      "ĠáīłáĪĿáĬķáĪĿ": 5858,
      "ĠáĪĺáīĢáĭ¨áĪŃ": 5859,
      "ĠáīłáĬ¥áĪ³áīµ": 5860,
      "ĠáĬłáĪ°áĪįáĮ£": 5861,
      "áĪ«áĪ«": 5862,
      "ĠáĭŃáĪĪ": 5863,
      "ĠáĪ°áĬķ": 5864,
      "ĠáĪ°áĪĭáĪĽáĭĬ": 5865,
      "áĪµáĬŃáĪĮáīµ": 5866,
      "Ġáĭ¨áī°áĮĪáĬĺ": 5867,
      "ĠáĪ°áĮª": 5868,
      "Ġáīµáĭį": 5869,
      "áĬĿáī³": 5870,
      "áĭĪáĮ£áīµ": 5871,
      "ĠáĪįáĭįáĭį": 5872,
      "ĠáĬ¨áĪĨáĬķ": 5873,
      "ĠáĪ¦áĪµáī°áĬĽ": 5874,
      "áĪ°áĮ¥áĪĿ": 5875,
      "Ġáĭ¨áĬłáĪĿ": 5876,
      "áĪŃáĪĥáĪĿ": 5877,
      "ĠáĮįáĪ©áĪĿ": 5878,
      "áĬ«áĪ½": 5879,
      "áīłáĪ»": 5880,
      "áī¡áĪį": 5881,
      "ĠáīłáĪŃáĪµ": 5882,
      "Ġáĭ¨áĪĺáĪ°": 5883,
      "ĠáīłáĬ¥áĮįáĪŃ": 5884,
      "Ġáĭ¨áĪħáĬŃáĪĿáĬĵ": 5885,
      "ĠáĪĺáĮ¨áĪĺáĪŃ": 5886,
      "ĠáĪµáĪĪáĪĽáĭŃ": 5887,
      "ĠáĪĺáĮ¸": 5888,
      "áĬĲáĭĺ": 5889,
      "Ġáĭ«áĪĿáĬĵ": 5890,
      "ĠáĬłáī£áī±": 5891,
      "áĪĭáĭįáĭ«áĬķ": 5892,
      "áĪİáĪĿ": 5893,
      "ĠáĪ½áĭ«áĮŃ": 5894,
      "Ġáĭ¨áī°áĪŁáĪĭ": 5895,
      "ĠáĪĪáĬĲáĮĪáĪ©": 5896,
      "ĠáĪĪáĪĺáī°": 5897,
      "ĠáĪĪáĬłáī¥": 5898,
      "áĭµáĮį": 5899,
      "áįĪáĬĲ": 5900,
      "áĪĺáĪµáĪ¨áīµ": 5901,
      "ĠáĪĨáĬĲáĭĭáĪį": 5902,
      "ĠáĬłáĪµáī°áĭ«áĭ¨áī¶áī½": 5903,
      "Ġáĭ¨áĪĿáĬķáī½áĪĪáĭį": 5904,
      "ĠáĬ¥áĬķáĪµáĪ³": 5905,
      "ĠáĬ«áĪľáĪ«": 5906,
      "áįİáī¶": 5907,
      "ĠáĪ°áĬłáīµ": 5908,
      "Ġáĭ¨áĭĪáĭ°áįĬáīµ": 5909,
      "ĠáĪĪáĪĽáĪ³áĭ°áĮį": 5910,
      "ĠáīłáĪĺáĮį": 5911,
      "Ġáĭ¨áĬłáīµ": 5912,
      "Ġáīłáī°áįĪáĮ¥áĪ®": 5913,
      "áĪĪáĪĽáī½áĬķ": 5914,
      "Ġáĭ¨áĪĻáīĢáīµ": 5915,
      "áĮĪáįį": 5916,
      "Ġ70": 5917,
      "áĬĳáĪŃ": 5918,
      "ube": 5919,
      "ĠáĬ¨áĪĻ": 5920,
      "ĠáĬķáĮĪ": 5921,
      "ĠáĮĢáĮįáĬĵ": 5922,
      "ĠáĪŃáĭĿ": 5923,
      "ĠáįķáĪĭ": 5924,
      "ĠPost": 5925,
      "ĠáĬŃáĪŃáĬŃáĪŃ": 5926,
      "ĠáīłáĪĺáĬķáĮĪáĭµ": 5927,
      "ĠáĮįáĭĻáįį": 5928,
      "áĭĴ": 5929,
      "Ġáĭ¨áĭĪáĭ«áĬĶ": 5930,
      "Ġáī°áĬŃ": 5931,
      "ĠáīĨáĪ»áĪ»": 5932,
      "ĠáīłáĪģáĪĪáī±áĪĿ": 5933,
      "ĠáĬłáĪīáī³áĭĬ": 5934,
      "Ġáĭ¨áĮįáī¥áĪŃ": 5935,
      "Ġáĭ¨áĭļáĪħáĬķ": 5936,
      "ĠáĪĪáī£": 5937,
      "Ġ2014": 5938,
      "ĠáĪĪáĭĪáĭ°áįĬáī±": 5939,
      "áĪİáĮį": 5940,
      "áĮłáĭŃáīģ": 5941,
      "Ġáīłáĭ°áĪį": 5942,
      "ĠáĪĽáĪµáĭĪáĮĪáĭµ": 5943,
      "ĠáĪĺáĪŃáĪĥ": 5944,
      "ĠáĮĵáĭ°áĬŀ": 5945,
      "ĠáĪĺáĪĭáĬŃ": 5946,
      "ĠáĮīáĪŃáĪ»": 5947,
      "áĪĪáĪĺáĭ°áĭį": 5948,
      "Ġáĭ¨áĪļáĪ°áĪĽ": 5949,
      "ĠáĬłáĬŃáī¥": 5950,
      "Ġáĭ¨áĪĨáĬĳáīµ": 5951,
      "Ġáĭ¨áīłáĪ¨": 5952,
      "áĮ£áĪ¬": 5953,
      "áĮłáĬĵáīĢáīĢ": 5954,
      "Ġáĭ¨áĬłáĪµáī°": 5955,
      "Ġáīªáĭ²áĭ®áĭİáī½": 5956,
      "ĠáĭŃáĮįáī£": 5957,
      "Ġáĭ¨áī°áĪ»áĪĪáĭį": 5958,
      "áĪµáĪį": 5959,
      "ĠáĪĪáĭ°": 5960,
      "ĠáĬłáĪµáī°áĬĵáĮĭ": 5961,
      "ĠáĮŃáĬķáīħ": 5962,
      "ĠáīłáĪĺáĪł": 5963,
      "ĠPl": 5964,
      "ĠáĪĺáĮ»áįį": 5965,
      "Ġáĭ¨áĭ°áĪħáĬķáĬĲáīµ": 5966,
      "ĠáĮįáįĬáīµ": 5967,
      "áĪŃáĮĭ": 5968,
      "ĠáĪĿáĭµáĪŃáĬķ": 5969,
      "ĠáĬĲáĭĭáĪª": 5970,
      "áĪ°áĬĿ": 5971,
      "ĠáĬ¥áĬĶáĬĵ": 5972,
      "áĮĪáĪ¨áĬĿ": 5973,
      "áĬŃáĪŃáĪµáī²áĭ«": 5974,
      "áĭĭáĪŃáĭ«áīµ": 5975,
      "ĠáĪµáĭ°áī°áĬŀáī½": 5976,
      "áĪ«áī±": 5977,
      "Ġáĭ¨áĪĤ": 5978,
      "Ġáĭ¨áĪµáįĸáĪŃáīµ": 5979,
      "áĮ«áĭĪáī»": 5980,
      "ĠáĬłáĪįáĬĲáīłáĪ©": 5981,
      "áĬķáĭ°áĬķ": 5982,
      "ĠáĪ°áĮ¥áī¶": 5983,
      "ĠáĬ¥áĭ¨áīĢ": 5984,
      "ĠáĬ¢áĬ®áĬĸáĪļáĭ«áĭĬ": 5985,
      "áĪĭáĮħ": 5986,
      "Ġáĭ¨áĪĽáīµ": 5987,
      "ĠáĮ¸áĮĭ": 5988,
      "ĠáīłáĪļáĭ«áĪµ": 5989,
      "áĭ°áī±": 5990,
      "ĠáĭįáĪ»": 5991,
      "Ġáĭ¨áĪļáĪ°áĮłáĭį": 5992,
      "ĠáĪĥáĭŃáĪį": 5993,
      "áĭ°áĪī": 5994,
      "Ġáĭ¨áĪļáī½áĪīáīµ": 5995,
      "ĠáīłáĮīáĮīáīµ": 5996,
      "ĠáĮłáĮħ": 5997,
      "ĠáĭĺáĮłáĬĿ": 5998,
      "áĪ¯áĭĬ": 5999,
      "áĪĮáĬŃáīµáĪ®": 6000,
      "ĠáĬłáĭĿáĪĽáĪļáĭ«": 6001,
      "ĠáĪĪáĪĽáĪĿáĮ£áīµ": 6002,
      "ĠáĬłáĬķáĭ³áī½": 6003,
      "ĠáīłáĬłáĮŃáĪ©": 6004,
      "Ġáīµáī½áĪĭáĪĭáī½áĪģ": 6005,
      "ĠáĮīáī¥áĬĿáīµ": 6006,
      "ĠáīłáĪŃáĮįáĮ¥": 6007,
      "áįĪáī³": 6008,
      "Ġáĭĺáĭį": 6009,
      "ĠáĪĺáĭĿáĬĵ": 6010,
      "ĠáĪĽáĪĪáįį": 6011,
      "áĬ¨áĪĺ": 6012,
      "áī¥áĪĬáĬŃ": 6013,
      "áĭĭáĮŃ": 6014,
      "Ġáĭ¨áĬłáĮĪáĪįáĮįáĪİáīµ": 6015,
      "ĠáĭĺáĭŃáī¤": 6016,
      "ĠáĪĺáĪĨáĬĵáī¸áĭį": 6017,
      "áĮłáĮ¥": 6018,
      "ĠáīłáĭĵáĪĺáīµ": 6019,
      "ĠáĭŃáĬĸáĪ¨áĭĭáĪį": 6020,
      "ĠáĬłáĭŃáī°": 6021,
      "áĪĪáĪĿáĭ¶": 6022,
      "áĭįáĬķáīµ": 6023,
      "áĭĪáĪ°áĭ°": 6024,
      "áĬµ": 6025,
      "ĠáĬ¨áĭįáĮŃ": 6026,
      "Ġáĭ¨áĭµáĬķ": 6027,
      "Ġáī°áĮłáĪŃ": 6028,
      "Ġáĭ«áĪĿáĬĵáĪī": 6029,
      "ĠáĪŀáī°áĪŃ": 6030,
      "Ġáĭ¨áĭļáĭ«": 6031,
      "ĠáīłáĪĨáĬĳ": 6032,
      "áĭ¨áĬ¥": 6033,
      "Ġáĭ¨áĭĪáĭŃáĬķ": 6034,
      "ĠáĬłáĭµáĪŃáĮī": 6035,
      "Ġg": 6036,
      "Ġáī¥áīģ": 6037,
      "áĮĪáĬĻáĪĿ": 6038,
      "áĪ¶áĪµáīµ": 6039,
      "áĪįáīĢáīµ": 6040,
      "Ġáĭ¨áĪļáĪĺáĮ£áĭį": 6041,
      "ĠáĬ¥áĪ«áĪ±áĬķ": 6042,
      "Ġáĭ¨áĪĺáĪ¬áīµ": 6043,
      "Ġ198": 6044,
      "áīĢáĭįáĪĿ": 6045,
      "ss": 6046,
      "áĬ«áĭ®áī½": 6047,
      "áĭĽáĪĽ": 6048,
      "áĮłáīģ": 6049,
      "Ġáĭ¨áĪļáĪ¸": 6050,
      "ĠáĪĭáĪĪáĪĺ": 6051,
      "áĪŃáĪµáīµáĬĵ": 6052,
      "áĮłáĪī": 6053,
      "áĪĲáĪ´": 6054,
      "ĠáĬłáĭŃáĭĪ": 6055,
      "áīłáĪ¨áĪ°áī¡": 6056,
      "áĬĲáīµáĬĵ": 6057,
      "Ġáĭ¨áĪĽáĪħ": 6058,
      "Ġáī£áĪĪáīłáīµ": 6059,
      "ĠáīłáĪµáįĭáīµ": 6060,
      "im": 6061,
      "ĠáĬ¥áĬķáĭµáĬĵ": 6062,
      "áįĭáĪª": 6063,
      "ĠáĪ½áĪįáĪĽ": 6064,
      "Ġáī°áīĨáĮ£": 6065,
      "áĮłáĪ«áĭį": 6066,
      "áĪ¬áĪ½áĬķ": 6067,
      "Ġáĭ¨áĪļáĭ«áĪ³áĭŃ": 6068,
      "ĠáĬłáĪķáĭĽáī¥": 6069,
      "ĠáĪ¥áĪ«áĭįáĬķ": 6070,
      "áĬ©áĪµ": 6071,
      "ĠáīłáĬłáĮĪáĪªáī±": 6072,
      "Ġáī¤áī±áĬķ": 6073,
      "ĠáĪ²áĭ«áĪµ": 6074,
      "ĠáĬ¥áĬķáĭ°áĪĮáĪĪ": 6075,
      "Ġáĭ¨áĪħáĮį": 6076,
      "áĮłáĪ©áīµ": 6077,
      "ĠáĬ¨áĪĺáī¼áĭįáĪĿ": 6078,
      "Ġáĭ¨áī°áĭĺáĮĭáĮĢ": 6079,
      "Ġáĭ¨áī°áĪĪáĭ«áĭ¨": 6080,
      "áĮ»áĪį": 6081,
      "\"áį¢": 6082,
      "ĠáīłáīĥáĪį": 6083,
      "ĠáīłáĪĨ": 6084,
      "ĠáĮĢáĪĺáĪ©": 6085,
      "áĪ¨áĬ«": 6086,
      "áĭĪáĪ°áĭ±": 6087,
      "Ġáĭ¨áĬłáĬ«áī£áī¢": 6088,
      "Ġáĭ¨áī°áĪ¸": 6089,
      "áĭĪáĭ³áĭ°áĪŃ": 6090,
      "ĠáĭĪáĭ°áĭļáĭ«": 6091,
      "áīĨáĪĽ": 6092,
      "ĠáĬłáĪµáĪĺáĪį": 6093,
      "áĮłáĭ¨áīģ": 6094,
      "ĠáĪĽáĪµáĮłáĬķáīĢ": 6095,
      "áĮĥáįĵáĬķ": 6096,
      "ĠáĬ¥áĪŃáĪµáĭİáĬķ": 6097,
      "ĠáĬŃáĪħ": 6098,
      "áĬŃáĪ©": 6099,
      "ĠáĪĺáī°áĮįáīłáĪªáĭ«áĭį": 6100,
      "ĠáĮĭáĭľáĮłáĬĽ": 6101,
      "áĮ®áī½áĬķ": 6102,
      "ĠáĭĿáĮįáĮħ": 6103,
      "ĠáīłáīµáĬŃáĬŃ": 6104,
      "ĠáĪĪáĬ¥áĬĲáĪŃáĪ±": 6105,
      "ĠáīłáĬĲáĮĪáĪ«áī½áĬķ": 6106,
      "ĠáĪķáĬķáįĥ": 6107,
      "ĠáįįáĪŃ": 6108,
      "Ġáī°áĬ³": 6109,
      "áĪ°áĬĵ": 6110,
      "áīĢáī½": 6111,
      "ĠáĬ¢áĭ«": 6112,
      "áĮĪáī£áī¸áĭį": 6113,
      "ĠáĮįáĮ¥áĪĿ": 6114,
      "áĮ½áįį": 6115,
      "ĠáĪģáĪĪáī±áĬķáĪĿ": 6116,
      "áĪĿáīłáĪŃ": 6117,
      "áįįáĮłáĪŃ": 6118,
      "Ġáĭ®áĪ´áįį": 6119,
      "áĪ¸áĪ«": 6120,
      "ĠáĬłáĮ¥áī¥": 6121,
      "áĪŃáĭ³áī³": 6122,
      "áĪıáīµ": 6123,
      "ĠáĭĭáĬĲáĬĽ": 6124,
      "ĠáĭŃáĪĺáĮ£áĪī": 6125,
      "ĠáĪģáĬĶáī³áĭį": 6126,
      "ĠáĬłáĪĪáĪĺáĪĨáĬĳáĬķ": 6127,
      "ĠáĪĿáĪŃáī¶áī½áĬķ": 6128,
      "áįķáĪİ": 6129,
      "ĠáĪĺáĪ¥áĭĭáĭķáīµ": 6130,
      "áĮĪáĪĭ": 6131,
      "ĠáĬķáīģ": 6132,
      "Ġáĭ¨áĪ±": 6133,
      "Ġáĭ¨áĪ°áĪĭáĪĿ": 6134,
      "ĠáĭŃáĮ¥": 6135,
      "Ġáĭ³áĬķáĬ¤áĪį": 6136,
      "Ġáį³": 6137,
      "áĪļáĬĴ": 6138,
      "áĬĢ": 6139,
      "ĠáĮ©áĬ¸": 6140,
      "ĠáĮĲ": 6141,
      "ĠáįĶ": 6142,
      "ĠáīłáĬłáĪĽ": 6143,
      "ĠáĬłáĪµáī°áĭĭáĮ½áĬ¦": 6144,
      "ĠáĬ¥áĪŃáĪ»": 6145,
      "ĠáĬ¥áĪ³áī¸áĭį": 6146,
      "Ġáĭ¨áĪĻáĭ«": 6147,
      "Ġáĭ¨áĪ´áīµ": 6148,
      "áĮ£áĭĬ": 6149,
      "ows": 6150,
      "Ġáĭ°áĬķáīłáĬĽ": 6151,
      "áĪ¨áĬŃ": 6152,
      "ĠáĬ¥áĬķáĭ°áĪļáĪ°áĪ«": 6153,
      "ak": 6154,
      "ĠáĭŃáĭĪáĭ³áĪį": 6155,
      "ĠáĪĺáīĨáĭ¨áīµ": 6156,
      "ĠáĪĪáĪĿáĬķáĭµáĬĲáĭį": 6157,
      "ĠáĭŃáĭĪáīģ": 6158,
      "ĠáīłáĬłáĮŃáĪŃ": 6159,
      "ĠáĪĺáĮ½áĪĶ": 6160,
      "Ġáĭ«áĭ°áĪ¨áĮį": 6161,
      "Ġáĭ«áĭķáīĨáī¥": 6162,
      "ĠáĬ¨áĪŀ": 6163,
      "ĠáĭĪáĬª": 6164,
      "áĮİáīµ": 6165,
      "Ġ34": 6166,
      "ĠáįĢáĪĲáĭŃ": 6167,
      "áĭŃáĭŃáīµ": 6168,
      "áĭ¨áĬĿ": 6169,
      "ĠáĪĦáĭ¶": 6170,
      "áĬĵáī½áĪģ": 6171,
      "áĬķáĭ®": 6172,
      "ĠáĭįáĪ¸áīµ": 6173,
      "ĠáīłáĬŃáĪŃáĪµáī¶áĪµ": 6174,
      "ĠáĭĮ": 6175,
      "ĠáĬ¨áĪģáĪĪ": 6176,
      "áĪĽáĭįáĭ«áĬķ": 6177,
      "áĮĭáĮĪáī¥": 6178,
      "ĠáĪĪáĭ¨áīµ": 6179,
      "ĠáĪĪáĪĺáĭįáĪ°áĭµ": 6180,
      "ĠáĬĲáī¢áĭ«": 6181,
      "Ġáĭ¨áĬłáĪĭáĪħ": 6182,
      "áĪĽáī½áĬķ": 6183,
      "ĠáĬłáĮłáĬĵ": 6184,
      "Ġáĭ¨áī°áĭĪ": 6185,
      "ĠáĮ¥áīł": 6186,
      "ĠáĭµáĪŃáĭµáĪŃ": 6187,
      "Ġ37": 6188,
      "ĠáĪĺáĪįáĬłáĬŃ": 6189,
      "áĪ³áĪ«": 6190,
      "ĠáĪķáĭ«áĭį": 6191,
      "áĪ«áī¶áī½": 6192,
      "áĭ«áĭķáīĨáī¥": 6193,
      "ĠáĪĪáĪĺáĬķ": 6194,
      "ĠáīłáĬłáĭ¨áĪŃ": 6195,
      "áĪ¨áī¡": 6196,
      "áī¨áĪŃáĪµáī²": 6197,
      "ĠáįĸáĪĪáī²áĬ¨": 6198,
      "Ġáī¥áĪĶáĪŃ": 6199,
      "áĬĲáīħ": 6200,
      "áĭĺáĪŃáĪĭáĬķáĭµ": 6201,
      "áĭŃáĬĲáĪĺáĪ¨áī¥": 6202,
      "áįĭáĭį": 6203,
      "áī»áī½áĬķáĬķ": 6204,
      "áįĭáĪŃ": 6205,
      "ĠáįĪáĪ«": 6206,
      "áĪĭáĬ©": 6207,
      "ĠáĭŃáĭĪáĮ£áĪį": 6208,
      "Ġáī°áĭ°áĪ«áĪ½": 6209,
      "áĮĵáĭµ": 6210,
      "Ġáī£áĪħáĪĭáĭĬ": 6211,
      "Ġáīłáĭļáĭ«áĭį": 6212,
      "áįįáĪ©": 6213,
      "Ġáīµáī¥áī¥áĪŃ": 6214,
      "ĠáĪĽáĮįáĬĽ": 6215,
      "áĬķáīº": 6216,
      "ĠáĪĺáĮłáĮ¥": 6217,
      "ĠáĬ¥áĭĽ": 6218,
      "ĠáįķáĪ®áįĮ": 6219,
      "ĠáĮłáīĢ": 6220,
      "áĭ³áī½áĪģ": 6221,
      "áī¥áĪŃáĪĥáĬķ": 6222,
      "áĬŃáĪįáĪį": 6223,
      "ĠáīĢáĮ¥áĪıáĪį": 6224,
      "ĠáĪĽáĪ³áĭ¨áīµ": 6225,
      "ĠáĬ¨áĪĢ": 6226,
      "Ġáĭ¨áĬ¥áĬĲáĪ±": 6227,
      "ĠáĪįáī¤": 6228,
      "áĮłáī¥áīģ": 6229,
      "ĠáĪĺáĮ¨": 6230,
      "áīĢáĪĺáĮ¡": 6231,
      "Ġáī°áī¥áĪĪáĭį": 6232,
      "áĭ°áĪŃáĮįáĪĿ": 6233,
      "ĠáĪĺáīħáĭ°áĪµ": 6234,
      "áĭįáĪī": 6235,
      "áĬ¥áĭŃ": 6236,
      "ĠáĪĪáĪĻáĪī": 6237,
      "ĠáĬ¥áĪ¨áįįáīµ": 6238,
      "ĠáĪĽáĪ¸áĬĲáįį": 6239,
      "áĪįáīł": 6240,
      "ĠáĪĪáĪĺáĪĪ": 6241,
      "Ġáĭ©áĬĴ": 6242,
      "áĬłáĪįáĬĵ": 6243,
      "áĭĺáĭĺ": 6244,
      "ĠáĭĪáĬķáĭµáĪľ": 6245,
      "ĠáĪ°áĬĶ": 6246,
      "ĠáĬ¥áīħ": 6247,
      "ĠáįįáĮ»áĪľ": 6248,
      "ĠiOS": 6249,
      "ĠáĪĺáĬķáĮĪáĭ±": 6250,
      "ĠáĭĪáī³áĭ°áĪ«áĭĬ": 6251,
      "áĮĪáĪĪáįĢ": 6252,
      "ĠáĬłáĭŃáĭ°áĪĪáĬķáĪĿ": 6253,
      "áĪ«áī¸áĭįáĪĿ": 6254,
      "Ġáī£áĪ»áĮĪáĪŃ": 6255,
      "ĠáĬłáĪ³áĪįáįİ": 6256,
      "Ġáīłáī»áĭŃáĬĵ": 6257,
      "áĬ¨áī³áī³áĭŃ": 6258,
      "áī°áĬ®áĪŃ": 6259,
      "ĠáĪ©áīħ": 6260,
      "ĠáīłáĪľ": 6261,
      "áī¾áīµ": 6262,
      "ĠáīłáĪĺáĪŃ": 6263,
      "ĠáīłáĪĺáī£áĪį": 6264,
      ":,": 6265,
      "60": 6266,
      "Ġáĭ¨áĪįáī¥": 6267,
      "áĬķáĭ°áĭļáĪħ": 6268,
      "áĮİáī½áĬķ": 6269,
      "áĬĲáĮĭáĮį": 6270,
      "ĠáĭŃáĪįáīģáĬķáĪĿ": 6271,
      "áĭĺáĮĪáīł": 6272,
      "áī¥áĪ®áī½": 6273,
      "ĠáīĨáĪŃ": 6274,
      "ĠáĪĺáĪĥáĪį": 6275,
      "áĭ°áĪ«áĪį": 6276,
      "ĠáĬ¥áĬķáĭ°áĪļáĬ¨áī°áĪĪáĭį": 6277,
      "Ġáĭ¨áī°áĪ³áĪ³áī°": 6278,
      "ĠáĬ¥áĭ«áĬķáĭ³áĬķáĭ±áĬķ": 6279,
      "Ġáī°áī°": 6280,
      "áĭ¨áĭįáĬķ": 6281,
      "ĠáīłáĬ©": 6282,
      "Ġáĭ«áĪĪáī¥áĬķ": 6283,
      "Ġáĭ¨áĪįáĪĽáīµ": 6284,
      "áĪ¨áĭ³áĭį": 6285,
      "ĠáĬ®áĪĮáĮħ": 6286,
      "ĠáīłáĬłáįįáĪªáĬ«": 6287,
      "Ġáĭ«áĪĪáī£áī¸áĭį": 6288,
      "Ġáĭ¨áĪĺáĮ½áĪĲáįį": 6289,
      "ĠáĪĿáĬķáĮ®áī½": 6290,
      "ĠáĭŃáĮłáīħ": 6291,
      "ig": 6292,
      "áĪļáĬķ": 6293,
      "ĠáĪĿáĪµáĪ«áīħ": 6294,
      "Ġáĭ¨áĪĺáĪŃ": 6295,
      "ĠáĪĮáĪĭáĬĽáĭį": 6296,
      "ĠáĪĺáĮĪáĬĵáĬĺáīµ": 6297,
      "Ġáĭ«áĪĪáĪĿáĬķáĪĿ": 6298,
      "ĠInstagram": 6299,
      "áĪĪáĭ©": 6300,
      "áīĥáī½áĪģ": 6301,
      "Ġáīłáĭ©áĬĵáĭŃáīµáĭµ": 6302,
      "áĪĺáĮł": 6303,
      "Ġáĭ¨áĭĭáĮĭ": 6304,
      "ĠáĪĿáĮįáī¦áī½": 6305,
      "Ġáīłáī½": 6306,
      "Ġáĭ«áĭ°": 6307,
      "ĠáĪĪáĪĺáĮįáĪĪ": 6308,
      "áī³áĭįáĬķ": 6309,
      "ĠáĪĭáĪĪáįīáīµ": 6310,
      "ĠáĬłáĪįáīł": 6311,
      "ĠáĬ¢áĭ¨áĪ±áĪµáĬķ": 6312,
      "ĠáĪ«áĪ´áĬķ": 6313,
      "ĠáĪĽáĪį": 6314,
      "ĠáĬ¥áĬĵáĪµ": 6315,
      "áĪĢáīµ": 6316,
      "áĬĵáĭįáĬķ": 6317,
      "Ġáī°áĪĺáĪįáĬ¨áī±": 6318,
      "indows": 6319,
      "áī³áĭ¨áĭį": 6320,
      "áī¶áī¼": 6321,
      "ĠáĬĲáĮ»áĬĲáīµ": 6322,
      "ĠáĪ°áĪŀ": 6323,
      "ĠáĭŃáįĪáĮ¥": 6324,
      "ĠáīłáĬłáĪĿ": 6325,
      "Ġáĭ¨áĪ½áĭ«áĮŃ": 6326,
      "áĬŃáįĪ": 6327,
      "Ġáĭ¨áī°áī£áĪĪ": 6328,
      "Ġáĭ¨áĪµáĪįáĬŃ": 6329,
      "ĠáĮ´áĮ¥áĪ®áĪµ": 6330,
      "ĠáĭŃáĬ¨áįĪ": 6331,
      "ĠáĬ¨áĪĽáĬķáĬĽáĭįáĪĿ": 6332,
      "ĠáĪħáĭĿáī¦áī½": 6333,
      "áĪ¨áĮĭáĮĭáīµ": 6334,
      "ĠáīłáĬłáĬķáĭ±": 6335,
      "Ġáīłáī°áĪĪáĪĿáĭ¶": 6336,
      "ĠáĪĮáĪİáī½áĪĿ": 6337,
      "áīĨáĮ£áĮłáĪªáĭ«": 6338,
      "ĠáĭķáĭįáīĢáīµ": 6339,
      "ĠáĬ¨áĪĥ": 6340,
      "áĭİáīµáĬķ": 6341,
      "áįįáī³": 6342,
      "ĠáĪĪáĪĺáĪĽáĪŃ": 6343,
      "ĠáĬ¥áĭ«áĭ°áĪ¨áĮĪ": 6344,
      "ĠáĭīáĪµáĮ¥": 6345,
      "ĠáĬĲáīłáĪŃáĬķ": 6346,
      "Ġáĭ¨áĪ«áĪ³áī¸áĭįáĬķ": 6347,
      "ĠáĭĿáĪŃáĭĿáĪ®áī½": 6348,
      "áĮįáĮįáĪŃ": 6349,
      "Ġáĭ¨áĭįáĪĤáī¥": 6350,
      "áīĨáĪĻ": 6351,
      "áĪ³áĭŃáĬķáĪµ": 6352,
      "áĭįáĬķáĪĿ": 6353,
      "ĠáīłáĭµáĬķáĮĪáīµ": 6354,
      "áīĢáīµáĬķ": 6355,
      "Ġáĭ¨áĪĿáĪĪáĭį": 6356,
      "ĠáĭŃáĭĽ": 6357,
      "Ġáī°áĪĺáĪŃ": 6358,
      "áįĪáĪįáĮīáīµ": 6359,
      "ĠáīµáĬ¥áĭĽ": 6360,
      "áīĨáĭ©": 6361,
      "áĬħáīłáĪ«áĭĬ": 6362,
      "ĠáĪĺáĪ¬": 6363,
      "áĬ¨áĬĵáĭĪáĬĳ": 6364,
      "ĠáīģáĮ¥áĪ®áī½": 6365,
      "Ġáĭ«áĭ°áĪŃáĮī": 6366,
      "ĠáĪĺáĬķáĭ°áĪŃ": 6367,
      "ĠáĪĿáĬ¥": 6368,
      "áī¢áĭİáī½": 6369,
      "ap": 6370,
      "áĪĪáīĨ": 6371,
      "Ġáī°áīł": 6372,
      "ĠáĪ°áĪľáĬķ": 6373,
      "ĠáĪ½áįĭáĬķ": 6374,
      "ĠáĪĺáĭ°áī¥áĪŃ": 6375,
      "ĠáĪĺáĬķáĪµáĬ¤": 6376,
      "áĪįáī£": 6377,
      "áĮĨáī»áī¸áĭį": 6378,
      "Ġáĭ¨áĮ¨áĭĭáī³": 6379,
      "ĠáĪĪáĪĺáĪĺáĪįáĬ¨áīµ": 6380,
      "ĠáĬĲáīłáĪ¨áīłáīµ": 6381,
      "Ġáĭ¨áĪļáī»áĪį": 6382,
      "Ġáĭ¨áĪĺáĮį": 6383,
      "áīĨáĪĺ": 6384,
      "áĭĭáĪĪáī½": 6385,
      "Ġáĭ«áĪĪáĬĲáĭį": 6386,
      "ĠáĪĽáĮ¥áįĭáīµ": 6387,
      "áĮ¨áĬĲáīģ": 6388,
      "áĬ¨áī¥áĪŃ": 6389,
      "Ġáīµáĭ³áĪŃ": 6390,
      "ĠáĬłáĮĭáĪŃ": 6391,
      "Ġáĭ³áĮįáĪĺáĬĽ": 6392,
      "áĭĪáĭŃáĪĿ": 6393,
      "199": 6394,
      "Ġ500": 6395,
      "ĠáĪĪáĪĨáĬĳ": 6396,
      "ĠáĬłáīħáĪŃáī¦": 6397,
      "ĠáīłáĪ³áĪĿáĬķáīµ": 6398,
      "ĠáĭŃáĭĪáĪ°": 6399,
      "Ġáĭ³áĭĬ": 6400,
      "Ġáĭ¨áĮĪáīłáĭ«": 6401,
      "ĠáįĸáĪĪáī²áĬ«áĭĬ": 6402,
      "Ġáĭ¨áī°áįĪáĮłáĪ¨": 6403,
      "áĮĪáĪī": 6404,
      "ĠáĪĺáĪįáĪ±": 6405,
      "ĠáĬ¨áĮĵáĭ°": 6406,
      "ĠáīµáĮįáīł": 6407,
      "ĠáĪĺáĬķáĮįáĪ¥áī³áīµ": 6408,
      "Ġáī£áĪįáī°": 6409,
      "áĮ£áĪĪáĪģ": 6410,
      "Ġáī«áĭŃáĪ¨áĪµ": 6411,
      "áĭ®áĬĸáī½": 6412,
      "áĬĴáĬ«áĭĬ": 6413,
      "áī³áĪŃ": 6414,
      "ĠáĪĪáīħ": 6415,
      "ĠáĪĿáĪĭ": 6416,
      "áĬķáĪ³áĭĬ": 6417,
      "ĠáĬ¨áĪĿáĬķ": 6418,
      "áī£áī´": 6419,
      "áĬĵáĮĪáĭµ": 6420,
      "Ġáĭ¨áĪļáĪ°áĪ©": 6421,
      "ĠáīµáĬĵáĬķáĪ½": 6422,
      "ĠáĪĪáĪµáĪĭáĪ³": 6423,
      "áĮłáī¢áĭ«": 6424,
      "ĠEthiop": 6425,
      "ĠáĪķáĮĭáĭĬ": 6426,
      "Ġáĭ¨áĪļáī³áĭŃ": 6427,
      "ĠáĪĬáĮį": 6428,
      "áĭĭáĭŃ": 6429,
      "ĠáīĢáĪª": 6430,
      "Ġáĭĺáįį": 6431,
      "Ġáĭĳ": 6432,
      "ĠáĪĺáĪįáĬ¥áĬŃ": 6433,
      "áĬ¤áĪĭáĭįáĭ«áĬķ": 6434,
      "ĠáĬ¥áĪ«áĪ±": 6435,
      "áįĪáĮłáĪ¨": 6436,
      "ĠáĬ¥áĭļáĭ«áĭį": 6437,
      "ĠáĬłáĮĭáĪĽáĪ½": 6438,
      "ĠâĢ": 6439,
      "áĮŃáīłáĪŃ": 6440,
      "ĠáĬ¨áĪĨáĬĳáīµ": 6441,
      "áĪįáīµ": 6442,
      "ĠáĬłáī£áī¶áī½": 6443,
      "áĪĻáĪµ": 6444,
      "Ġáī°áĬ¨áī°áĪį": 6445,
      "áįĪáĮ¥": 6446,
      "áī¥áĪİáĪµ": 6447,
      "ĠáĬłáĪįáĬĲáīłáĪ©áĪĿ": 6448,
      "ĠáĪĪáĬ¥áĪ±": 6449,
      "od": 6450,
      "ĠáĬ¥áĪ´áīµ": 6451,
      "te": 6452,
      "áīĢáĪ°": 6453,
      "ĠáĬ¥áĪĽ": 6454,
      "ĠáĬĲáĮĪáĪ¥": 6455,
      "áĪĽáī½áĪģ": 6456,
      "áĬĹáĬĹ": 6457,
      "Ġáī£áĪīáīµ": 6458,
      "Ġáĭ¨áĮłáįĭ": 6459,
      "ĠáĭŃáĮ¨áĪĿáĪ«áĪį": 6460,
      "ĠáĮŃáĬķáīĢáīµ": 6461,
      "Ġáĭ¨áī°áĪ°áĪĽ": 6462,
      "Ġáī°áĬĲáĪ¥": 6463,
      "ĠáĪĪáĪĺáĭ«áĭĿ": 6464,
      "áĭĪáĪĪáĭ°": 6465,
      "Ġáī¡áĭµáĬĳ": 6466,
      "áĬĸáĪ¨áĬķ": 6467,
      "Ġáĭ±áīĦ": 6468,
      "ĠáĪįáĮģáĬķ": 6469,
      "Ġáĭ¨áĭĺáĪŃ": 6470,
      "áĪ°áĬĵáĪį": 6471,
      "áī¢áĭ©": 6472,
      "Ġáĭ«áĪµáī£áĪī": 6473,
      "áĮĢáĬķáĪ²": 6474,
      "áĬ«áĪŃ": 6475,
      "ĠáīµáĭķáĭĽ": 6476,
      "áĭª": 6477,
      "Ġáĭ¨áĬª": 6478,
      "ĠáĬ¥áĮĪ": 6479,
      "Ġáĭ«áĪĺáĮ£áĪį": 6480,
      "ĠáĭĪáĬķáīłáĪŃ": 6481,
      "Ġáī³áĭįáīĭáĪį": 6482,
      "ĠáĪĪáĭĵáĪĪáĪĿ": 6483,
      "Ġáĭ«áĪįáī°áĪĪáĪĺ": 6484,
      "Ġ38": 6485,
      "áįķáĪĭ": 6486,
      "Ġáĭ¨áĭ¶": 6487,
      "Ġáī¥áĪĦáĪ«áĭĬ": 6488,
      "ĠáĬ¢áĭ®áī¥": 6489,
      "áĬķáĭ´áīµ": 6490,
      "áĪµáĭ«": 6491,
      "áĬĵáīµáĬķ": 6492,
      "ĠáĪµáīµáĪį": 6493,
      "áĪ°áĮ¡áīµ": 6494,
      "ĠáĬłáĪłáĪ«áĪŃ": 6495,
      "ĠáĬ®áĪªáĭ«": 6496,
      "ĠáĮģ": 6497,
      "Ġáĭ¨áī°áĬĲáĪ£": 6498,
      "ĠáīĤ": 6499,
      "áĮįáĪ«áĪĿ": 6500,
      "áī³áĬĶ": 6501,
      "ĠáĭŃáīłáĪįáĮ£áĪį": 6502,
      "ĠáĪĪáĪĺáī³": 6503,
      "ĠáĪĺáĪµáįĪáĪŃáīµ": 6504,
      "ĠáĭŃáĬ¨áĪ°": 6505,
      "Ġáīłáī³áĪĭáīħ": 6506,
      "ĠáĪĽáĬ¨áĪĽ": 6507,
      "ĠáĪĽáĪ»áĪ»áĭ«": 6508,
      "ĠáĬ¥áĭįáĬĲáīµáĬķ": 6509,
      "áĭĺáĭĭáĪį": 6510,
      "Ġáĭ¨áĭĪáĬķáĭµ": 6511,
      "ĠáĬĵáĪĻáĬĵ": 6512,
      "ĠCO": 6513,
      "ĠáĬłáĮĪáĪįáĮįáĪİáī¶áī½áĬķ": 6514,
      "áīĭáĬķáīĭ": 6515,
      "ĠáĪĺáĮĪáĬķáī£áīµ": 6516,
      "ĠáĬ¨áīħáĪŃáī¥": 6517,
      "ĠáīłáĪļáĪĪáĭį": 6518,
      "ĠáĬ¥áĭ«áĭ°áĮĪ": 6519,
      "ĠáĬłáĮĪáĪªáī±": 6520,
      "áĪŃáīµáĪ«": 6521,
      "ĠáĪĺáĮĪáĪĺáīµ": 6522,
      "ĠáĪĬáī°": 6523,
      "ĠáĬłáĬĵáĭįáīħáĪĿ": 6524,
      "Ġáī°áĮİ": 6525,
      "ĠáĪ°áĭįáĭ¨áĭį": 6526,
      "ĠáĭŃáįį": 6527,
      "ĠáĪ°áĬŀ": 6528,
      "ĠáĬ¥áĪµáĬªáĭ«": 6529,
      "ĠáĬłáĮĪáĬĵ": 6530,
      "ĠáīģáĪį": 6531,
      "áĬĲáĬĿ": 6532,
      "Ġáĭ«áĭĪáĮ£": 6533,
      "ĠáĬ¥áĮĥ": 6534,
      "áīłáĮ¥": 6535,
      "ĠáĬ¥áĪ³": 6536,
      "ĠáĪ³áĪĿ": 6537,
      "ĠáĮĪáĭĿ": 6538,
      "áįīáĪĿ": 6539,
      "ĠáīłáĬłáĮĪáĪŃ": 6540,
      "áĪ½áĬĲáīµ": 6541,
      "áīĥáĪµ": 6542,
      "ĠáĬłáĪµáīĤáĬĿ": 6543,
      "ĠáĮĪáĭ¥": 6544,
      "ĠáĬ«áĬĵáĭ³": 6545,
      "ĠáīłáīĢáĭ³áĪļ": 6546,
      "áĪ°áĪ¨": 6547,
      "áī»áī½áĪģáĬķ": 6548,
      "áīłáĭļáĪħ": 6549,
      "ĠáĭķáĮ£": 6550,
      "áĪŃáĪµáīµ": 6551,
      "ĠáĪ°áĭİáī½áĪĿ": 6552,
      "ĠáĭŃáĪĤáĭ±": 6553,
      "Ġáĭ«áĭĪ": 6554,
      "áĭ«áĪľ": 6555,
      "ĠáĪĮáĪĬ": 6556,
      "ĠáĬłáĭ²áĪ±áĬķ": 6557,
      "áĬķáī§": 6558,
      "ĠáĭŃáĪ°áĪ«": 6559,
      "ĠáĬ®áĬ¨áī¥": 6560,
      "áīºáĬķ": 6561,
      "áīĭáīĭáĪĺ": 6562,
      "Ġáī³áĪªáĬ®áī½": 6563,
      "ĠáĭĺáĭĪáīµáĪŃ": 6564,
      "áĪĺáĮ£áĮ£áĬĿ": 6565,
      "Ġáĭ¨áĪļáĮĪáī¡": 6566,
      "ĠáĪĭáĪį": 6567,
      "áĭĺáĪĺáĬķ": 6568,
      "ĠáĪįáĮĨáī½áĬķ": 6569,
      "ĠWindows": 6570,
      "ĠáĬłáĪĿáĪĭáĬ¬": 6571,
      "Ġáĭ¨áĮįáī¥áĭŃáīµ": 6572,
      "ĠáĪĪáĪĺáįĪ": 6573,
      "ĠáĪĺáĪįáĭķáĬŃ": 6574,
      "Ġáĭ¨áĭ¨": 6575,
      "Ġáī°áīĥáĪ«áĬĴ": 6576,
      "áī½áĭįáĬķ": 6577,
      "áĪ¨áĪŃ": 6578,
      "áĬķáĮįáī°áĬķ": 6579,
      "ack": 6580,
      "29": 6581,
      "ĠáĪĢáī¥áī³áĪĿ": 6582,
      "ĠáĭŃáĮĪáĬĵ": 6583,
      "áĪĺáĬĵáĪį": 6584,
      "áĪ«áī¢áĭ«": 6585,
      "ĠáĪ³áĭŃáīĢáĪŃ": 6586,
      "ĠáĮ¥áĭ«áīĦáĭİáī½áĬķ": 6587,
      "Ġáįİáī¶áĮįáĪ«": 6588,
      "Ġáī°áĪ°áĮ¥áī¶": 6589,
      "Ġáīłáī°áĪĪáĭ«áĭ¨": 6590,
      "áĮłáīĢáĪ°áĭį": 6591,
      "Ġáĭ¨áĭ°áī¡áī¥": 6592,
      "áĮ¥áīħ": 6593,
      "ĠáĪĽáįį": 6594,
      "áĬ¨áĬĵáĭĪáĬĲ": 6595,
      "áĭķáĭŃ": 6596,
      "ne": 6597,
      "áĬķáĮİ": 6598,
      "áī°áĭĪ": 6599,
      "Ġáī°áĪ¨áĭµ": 6600,
      "áĬ¨áĪ°áī°áĭį": 6601,
      "áĪ¨áĪ°": 6602,
      "Ġáī°áĮ¨áī£áĮŃ": 6603,
      "ĠáīģáĪĽáĪŃ": 6604,
      "ĠáĭįáĭŃáĭŃ": 6605,
      "ĠáĬŃáĬķ": 6606,
      "ĠáīłáĬłáĭŃ": 6607,
      "áĪĿáĬĵáĪĪáĬķ": 6608,
      "ĠáĪ³áĪĻáĬ¤áĪį": 6609,
      "áĪªáįį": 6610,
      "ĠáīłáĬ¥áĪŃáĮįáĮ¥áĪĿ": 6611,
      "áĭĪáĭ«áĭ¨áīµ": 6612,
      "ĠáĪµáĪĪáĪļáĭ«": 6613,
      "Ġáīłáī¥áĭĽáīµ": 6614,
      "ĠáĬ¨áĪŀáīµ": 6615,
      "Ġáįī": 6616,
      "áī¡áĪµ": 6617,
      "ĠáĮ¨áĭĭáī³áĭį": 6618,
      "ĠáįįáĮ¡": 6619,
      "ĠáĬłáĪįáĬ©": 6620,
      "ĠáĬłáįĪáĮ»áĮ¸": 6621,
      "Ġáĭ¨áĬĵ": 6622,
      "ĠáĪĺáĬ«áĬ¨áĪĪáĬĽ": 6623,
      "Ġáĭ°áĮĭáįĬ": 6624,
      "ĠáĬłáĪŃáī²": 6625,
      "áĮłáīĢáĪĿáīłáīµ": 6626,
      "áĬ¥áĬĲ": 6627,
      "ĠáĭįáĪµáĬķ": 6628,
      "áĪĿáĪµ": 6629,
      "ver": 6630,
      "ĠáĬ¥áĪ°áĮ£": 6631,
      "),": 6632,
      "áĮ»áįĪáĭį": 6633,
      "áĭµáĪµ": 6634,
      "áĪµáī³áĭįáĪµ": 6635,
      "Ġ2008": 6636,
      "ĠáĪĪáĪĺáĪį": 6637,
      "ĠáĬ¢áĭ¨áĪ©áĪ³áĪĮáĪĿ": 6638,
      "ĠáĪĪáĭ°áĬķ": 6639,
      "áĪģáĪĭáī½áĬķáĪĿ": 6640,
      "áĪµáī°áĬŀáī½": 6641,
      "ĠáĭĵáĪĺáī³áĭĬ": 6642,
      "ĠáĭŃáĪĦáĭ³áĪī": 6643,
      "áĮ£áī¢áĭ«": 6644,
      "áĬķáī£áī³": 6645,
      "ĠáĪ°áĪĭáĪĿáī³": 6646,
      "ĠáĪĿáĬŀáīµ": 6647,
      "ĠáĪĺáĪĭáĬ¥áĬŃáīµ": 6648,
      "áĪĽáĪĺáĮ¥": 6649,
      "áĪĽáĪĿ": 6650,
      "Ġáī³áĪĿ": 6651,
      "ĠáĪĬáĭĪáĪµáĭµ": 6652,
      "Ġ45": 6653,
      "ĠáĬ¨áĪĺáĮĢáĪĺáĪªáĭ«áĭį": 6654,
      "ĠáĬłáĪ¥áĪŃ": 6655,
      "áĬŃáĪ®áī½": 6656,
      "ĠáĮİáĪ¨": 6657,
      "ĠáĬłáĪµáĪĺáĪįáĬŃáī¶": 6658,
      "ĠáĪĺáĭ°áĪ¨áĮį": 6659,
      "Ġáĭ¨áĬ¢áĬķ": 6660,
      "Ġáĭ¨áī°áĮłáīĥáĪļ": 6661,
      "Ġáĭ«áĪµáĬ¨áīµ": 6662,
      "ĠáĭµáĬķáīłáĪŃ": 6663,
      "Ġáī£áĪįáĭ°áĪ¨": 6664,
      "Ġáĭ¨áĪ°áĭįáĬĲáīµ": 6665,
      "ĠáĬłáĬķáĭ·": 6666,
      "ĠáīłáĪĺáĮĢáĪĺáĪªáĭ«áĭį": 6667,
      "ĠáĭŃáĪĺáĪŃ": 6668,
      "áĮ£áĪªáĭİáī½": 6669,
      "ĠáĪĽáĪµáī°áĭĭáĪį": 6670,
      "áĭĽáĬĿ": 6671,
      "áĬªáĬķ": 6672,
      "áĪ¥áĪ«áīħ": 6673,
      "ĠáĬ¥áĬĵáĪĿáĬĵáĪĪáĬķ": 6674,
      "ĠáĬ¥áĪĦáĭ³": 6675,
      "ĠáĭįáĪİ": 6676,
      "áĭ±áĪµ": 6677,
      "ĠáīĨáĪŀ": 6678,
      "ĠáĭįáĪħ": 6679,
      "ĠáīĥáĪī": 6680,
      "áĭĽáī¸áĭį": 6681,
      "ĠáĬ®áĪĿáįĴáĭįáī°áĪŃ": 6682,
      "ĠáĪĺáĮ¥áī°áĭį": 6683,
      "Ġáĭ¨áĪļáĪĺáĪ«": 6684,
      "ĠáīħáĬĵáĪ½": 6685,
      "ĠáĪĽáĪ»áĪ»áĪį": 6686,
      "Ġáĭ«áĮĪáĬĽáĪį": 6687,
      "áĮ£áįį": 6688,
      "32": 6689,
      "ĠáĬ«áĬķáĪ°áĪŃ": 6690,
      "Ġáĭ¨áĪĪáī¥áĬķáĪĿ": 6691,
      "ĠáĬłáĭŃáīĢ": 6692,
      "ĠáĬ¥áĬķáĭ°áĪĿáĬĵ": 6693,
      "áĬ³áīµ": 6694,
      "áīĢáĮ¥áī³": 6695,
      "ĠáĬ¨áĭĵáĪĪáĪĿ": 6696,
      "áĪªáī³": 6697,
      "áĪ«áī¸áĭĭáĪį": 6698,
      "ĠáĪĽáĪµáī°áĪĭáĪĪáįį": 6699,
      "ĠáīĨáĭ³": 6700,
      "Ġáĭ¨áĪļáįĪáĪįáĮīáīµ": 6701,
      "áĪŃáĭ³": 6702,
      "ĠáĬ¨áĪĮáĪĭáĭį": 6703,
      "áĪħáĪ³áĪµ": 6704,
      "ĠáĪķáĭĿáī¡áĬķ": 6705,
      "áĪĺáĬŃ": 6706,
      "ĠáĮłáīłáīĥ": 6707,
      "ĠáĪļáĭĽáĬķ": 6708,
      "ĠáĪĪáĪĽáĬķáĪĿ": 6709,
      "ĠáĭŃáĬ«áĪĦ": 6710,
      "ĠáĬ«áĪīáīµ": 6711,
      "ĠáĬ¨áĪĿáĭµáĪŃ": 6712,
      "ĠáĪµáĪĭáĪĪáĭį": 6713,
      "áĬ»": 6714,
      "ĠáĮłáĪ¨": 6715,
      "ĠáĬłáĪ¨áĬķáĮĵáĭ´": 6716,
      "ĠáĮłáīģ": 6717,
      "áĪµáī°áĬķ": 6718,
      "áĬĸáĪ©áĪĿ": 6719,
      "ĠáĬłáĭŃáī¶": 6720,
      "áī°áĪĺ": 6721,
      "áĬŃáīłáĪŃ": 6722,
      "Ġáĭ¨áĪļáĬ¨áī°áĪĪáĭįáĬķ": 6723,
      "áĬ¨áįĪáī°": 6724,
      "ĠáĭķáĭµáĮĪáīµ": 6725,
      "Ġáīłáī¡": 6726,
      "áĮįáīłáĪŃ": 6727,
      "ĠáĪłáĪ«áĭĬáīµ": 6728,
      "ĠHome": 6729,
      "ĠáĮłáīĢáĪľ": 6730,
      "Ġáĭ¨áĪĺáĬĲ": 6731,
      "ĠáĪĺáĪĪáĬªáĭ«": 6732,
      "áī¶áī½áĪĿ": 6733,
      "ĠáĪĺáī³áĭĪ": 6734,
      "áĬŃáĪ¬áĬķ": 6735,
      "áĬĲáĬĽáĭį": 6736,
      "ĠáĪĺáĮ«áĬķ": 6737,
      "ĠáĬ¥áĭ«áĪ³": 6738,
      "Ġáĭ¨áĬ¢áĬķáĭ±áĪµáīµáĪª": 6739,
      "áį¤âĢºâĢº": 6740,
      "ĠáĭµáĮį": 6741,
      "ĠáĪ«áĪ´": 6742,
      "áĮĦáĪªáĭ«": 6743,
      "ĠáīłáĮłáīħ": 6744,
      "Ġáĭ¨áĬłáĬ¥áĪĿáĪ®": 6745,
      "ĠáīłáīłáĪĪáĮł": 6746,
      "ĠáĬ¥áĭ¨áī°áĭ°áĪ¨áĮĪ": 6747,
      "Ġáī¥áĪįáĪħ": 6748,
      "ĠáĪĺáĭĿáĮĪáī¥": 6749,
      "áĭĺáĪ¨áĭĺ": 6750,
      "ĠáĪĺáĪ¨áĮĥáĬķ": 6751,
      "Ġáĭ¨áĪĢáĮĪáĪŃ": 6752,
      "áī³áīµáĬķ": 6753,
      "ĠáįĬáĪįáĪŀáī½": 6754,
      "ĠáĬ¥áĪĪáīµ": 6755,
      "áĮ£áī½áĪģ": 6756,
      "Ġáī±áĪŃáĬŃ": 6757,
      "ĠáĪĺáĮĪáĬķáĭĺáī¥": 6758,
      "áĮįáī¥áĪŃ": 6759,
      "áīĥáīĤ": 6760,
      "áĪ²áĬĸ": 6761,
      "áī³áĭĪáīħáĪĿ": 6762,
      "ĠáĪµáĭķ": 6763,
      "ĠáĬ¨áĪĮáĪĪ": 6764,
      "ĠáĬłáīµáī½áĪįáĪĿ": 6765,
      "ĠáīłáĪ°áĪľáĬķ": 6766,
      "ĠáīłáĭĿáĪŃáĭĿáĪŃ": 6767,
      "ĠáĬ¥áĪĦáĭ³áĪĪáĪģ": 6768,
      "Ġy": 6769,
      "ĠáĭŃáĮĭ": 6770,
      "áĬ«áī½": 6771,
      "ĠáĪĺáĪ°áĪį": 6772,
      "ĠáĮ¥áĭ«áīĦáĭį": 6773,
      "áĬ«áĭį": 6774,
      "Ġáį¦": 6775,
      "Ġáĭ¨áĪĽáĭŃáī»áĪį": 6776,
      "ĠáīłáĬłáĬ«áĪį": 6777,
      "Ġáįįáīĥáĭµ": 6778,
      "ĠáīĢáĭµ": 6779,
      "ĠáĭĺáįĪáĬķ": 6780,
      "ĠáĬ¢áīµáĭ®áĮµáĭ«áĭįáĭ«áĬķ": 6781,
      "ĠáĭŃáĪĦáĭį": 6782,
      "ĠáĪĺáĪĿáĪħáĪŃ": 6783,
      "ĠáīħáĮ¥": 6784,
      "áĭ¤": 6785,
      "Ġáĭ¨áĮįáĬķ": 6786,
      "ĠáīłáĭŃáĬĲ": 6787,
      "ĠáĭŃáĭĪáĭ³áĪī": 6788,
      "áĭİáī¹áĪĿ": 6789,
      "Ġáī¢áĪĨáĬĳ": 6790,
      "áīį": 6791,
      "ĠáīłáĪ°áĭİáī½": 6792,
      "áĪįáĬĵáĪį": 6793,
      "ĠáīµáĬķáī¢áīµ": 6794,
      "áĬ¥áĬĲáĭļáĪħ": 6795,
      "ĠáĪĦáĭ±": 6796,
      "ĠáīłáĪĺáĬķáĮįáĪµáīµ": 6797,
      "áīĤáīħ": 6798,
      "áĪµáī²áĬŃ": 6799,
      "ĠáĬłáī¡": 6800,
      "Ġáī°áīĢáĪĽáĮŃ": 6801,
      "br": 6802,
      "ĠáĬłáĮĪáĬĺáĪģ": 6803,
      "áĪ¨áīµáĬķ": 6804,
      "ĠáĭŃáĮĪáī£áĭĭáĪį": 6805,
      "Ġáĭ«áĪĪáĪĺ": 6806,
      "ĠáĪµáĪĪáĪĿáĬķ": 6807,
      "áĭķáĬ®": 6808,
      "Ġáĭ¨áĪĽáĭµáĪ¨áĮį": 6809,
      "áĮ¡áĪĿ": 6810,
      "Ġáĭ¨áīĢáĭµáĪŀáĭį": 6811,
      "áĬ¨áī£áĬ¨áī¥": 6812,
      "Ġáī£áĪĭ": 6813,
      "Ġáĭ¨áĭ±": 6814,
      "ĠáĬłáĬ³": 6815,
      "Ġáĭļ": 6816,
      "ĠáīµáĪĿáĪħáĪŃáī¶áī½": 6817,
      "ĠáĬłáĪĺáĪ«áĪ®áī½": 6818,
      "ĠáĪ±áĭ³áĬķ": 6819,
      "ĠáĪįáĮĨáī¹": 6820,
      "ĠáįĢáĮīáĪŃ": 6821,
      "áī¥áĬĽáĪį": 6822,
      "ĠáĪĺáīĨáĮ£áĮłáĪŃ": 6823,
      "áĮĨáī³": 6824,
      "ĠáĭŃáĪµáĮ¥": 6825,
      "áĮłáīĢáĪĽ": 6826,
      "ĠáĪĺáī°áĪĽáĪĺáĬķ": 6827,
      "ĠáīĢáĪį": 6828,
      "áĮİáĬķ": 6829,
      "áĬ¾áĬĳ": 6830,
      "áĪ«áīħ": 6831,
      "ĠáĪħáĮİáī½": 6832,
      "áīĢáĪ³áīĢáĪµ": 6833,
      "ĠáĪĺáĭµáĪĥáĬĴ": 6834,
      "áĪŀáī¹": 6835,
      "ĠáĪģáĪĪáī±áĬķ": 6836,
      "ĠáĮ«áįį": 6837,
      "áĮ«áĭĪáī±": 6838,
      "Ġáĭ¨áĪŀáī£áĭŃáĪį": 6839,
      "ĠáįįáĮ¥áĪ¨áīµ": 6840,
      "Ġáĭ«áĪµáīĢáĪĿ": 6841,
      "ĠáĬ¨áĪ³": 6842,
      "ĠáĭµáĬķáĮĪáīµ": 6843,
      "ĠáĪĪáĪĽáĬ¨áĬĵáĭĪáĬķ": 6844,
      "ĠáĭµáĪįáĭµ": 6845,
      "Ġáī°áĭ«áĭŃáĭŀ": 6846,
      "Ġáĭ¨áĭįáĪµáĮ¥": 6847,
      "áĬķáĮĭ": 6848,
      "ĠáĪĭáĪĪáĭį": 6849,
      "Ġáīħáĭ±áĪµáĬķ": 6850,
      "ĠáĬªáĪİ": 6851,
      "ĠáĪĺáĪŃáĬ¨": 6852,
      "áĮłáīĢáĪµ": 6853,
      "áĪ¨áīħ": 6854,
      "áīĢáī±": 6855,
      "áĪ¶áĬķ": 6856,
      "ĠáĪĺáī¥áĪ«áīµ": 6857,
      "Ġáĭ¨áī»": 6858,
      "ĠáĭĪáĪµáĭ¶": 6859,
      "Ġáĭ¨áī°áĪ»áĪī": 6860,
      "ĠáĭĺáĬķáĭµáĪ®": 6861,
      "ĠáĬłáĪ¸áĬķ": 6862,
      "ĠáĪĺáĪµáĮł": 6863,
      "ĠáĮĵáĭ°áĬĽáĭ¬": 6864,
      "ĠáĬłáĪįáīĢ": 6865,
      "Ġáĭ¨áĬ¥áĮħ": 6866,
      "áĪ°áĭ±": 6867,
      "ĠáĪµáĪįáĮ£": 6868,
      "ĠáĬłáĪįáįĪ": 6869,
      "ĠáĬ¹": 6870,
      "ĠáĪĿáĪµáĪİáī½": 6871,
      "ĠáīłáĪĭáī¸áĭį": 6872,
      "áĮ¬": 6873,
      "ĠáĪĪáĪĺáĮĪáĬĵáĬĺáīµ": 6874,
      "ĠáĪĥáĭ«": 6875,
      "ĠáĮ¥áīħáĪĿáīµ": 6876,
      "áĬĸáĪŃáīłáīµ": 6877,
      "ĠáĮĢáĪĺáĪŃáĬ©": 6878,
      "ĠáĭŃáīĢáĪŃ": 6879,
      "ĠáĪľáīµáĪŃ": 6880,
      "ĠáĬ«áĪĪáĭİáīµ": 6881,
      "ce": 6882,
      "ĠáĪĽáĪĿ": 6883,
      "ĠáīłáĪķáĮį": 6884,
      "ĠáĪĺáĭĭáīħáĪŃ": 6885,
      "áĭ«áī¸áĭįáĬķ": 6886,
      "áĬ¨áĪĪáĬĽáĭį": 6887,
      "Ġáĭ¨áĪ®": 6888,
      "ĠáĪĺáĪŃáĭ³áīµ": 6889,
      "Ġáĭ¨áĪĿáįĪáĪįáĮĪáĭį": 6890,
      "ĠáĪĽáĪµáĮłáĬķáīĢáīĤáĭ«": 6891,
      "Ġáī°áĭĪáĭ³áĭ³áĪª": 6892,
      "áĭ¨áī±": 6893,
      "ĠáĮŃáĪĽáĪª": 6894,
      "áįĪáĪįáĮīáĪĿ": 6895,
      "Ġáĭ¨áĪĺáĪ³áĪ°": 6896,
      "áīĢáĪŃáīłáĭį": 6897,
      "Ġáĭįáĭµáĭµ": 6898,
      "Ġáī°áĪĺáĪĪáĪ°": 6899,
      "áĪĭáĪĭáĭį": 6900,
      "Ġáī°áĭķáĪĪáīµ": 6901,
      "áĮ¦áīµ": 6902,
      "áĪµáĪ«áĬ¤áĪįáĪĿ": 6903,
      "Ġáĭ®áĪŃáĬŃ": 6904,
      "ĠáĪ°áĪŀáĬĳáĬķ": 6905,
      "Ġáĭ¨áĪļáįĪáĪįáĮį": 6906,
      "áĪŀáĬŃáĪŃ": 6907,
      "áī³áī¸áĭįáĪĿ": 6908,
      "ĠáĬłáĪŀ": 6909,
      "Ġáīªáĭ²áĭ®áĭİáī½áĬķ": 6910,
      "ĠáīµáĪ«áĬķáĪµáįĸáĪŃáīµ": 6911,
      "ĠáĬłáĪĪáīłáĪĪáĭļáĭ«": 6912,
      "áĪµáĪĲ": 6913,
      "Ġáĭ«áĮłáįĭ": 6914,
      "áĭŀáĬķ": 6915,
      "ĠáĬ¨áĪįáī¥": 6916,
      "ĠáįĪáĬķáī³": 6917,
      "áĬ¨áįĪáĪĪ": 6918,
      "Ġv": 6919,
      "ĠáĭĪáī³áĭ°áĪ®áī½": 6920,
      "Ġáī°áįħáĭķáĬĸ": 6921,
      "ĠáĬłáĪµáī¥": 6922,
      "Ġre": 6923,
      "áīĨáĮłáĪŃ": 6924,
      "ĠáĬłáīĢáĪ«áĪ¨áī¥": 6925,
      "áĮ¦áī½áĬķ": 6926,
      "ĠáĪĬáĭ«áĭ°áĪŃáĮį": 6927,
      "ĠáĬŃáįįáĭ«áĭİáī½": 6928,
      "ĠáĪĺáĪĪáĭ¨áīµ": 6929,
      "ĠáĪĺáĭĪáĪ°áĬķ": 6930,
      "áĭ«áĭ«áĭĻ": 6931,
      "ĠáīłáĬ¥áĬĲáĪ±": 6932,
      "áĪ¹áĬķ": 6933,
      "ĠáĬłáĭŃáĭ°áĪĪáī½áĪĿ": 6934,
      "ĠáĬ¨áī£áĪĪ": 6935,
      "ĠáĮįáī¥áįħ": 6936,
      "ĠáĪĺáĪĺáĪªáĭ«áĭİáī½": 6937,
      "ĠáĮ¥áĬķáī³áĭĬ": 6938,
      "ĠáĪĿáī¾áīµ": 6939,
      "áĭĭáĪª": 6940,
      "ĠáĪ°áĪĮ": 6941,
      "ĠáĪ²áī³áĭŃ": 6942,
      "áĬĻáĬĲáīµ": 6943,
      "áĮįáĪ«áī¸áĭį": 6944,
      "áĮĢáĪĿáĪ©": 6945,
      "Ġáī¥áĬŃ": 6946,
      "áĪģáīµáĬķ": 6947,
      "Ġáī¥áĪİáĬĽáĪį": 6948,
      "ĠáĬ¥áĬķáĭ³áĪĪáī£áī¸áĭį": 6949,
      "áĬ«áįĪáĪį": 6950,
      "Ġáī¥áĪĶ": 6951,
      "ĠáĪĺáĮĪáĬĵáĬĽ": 6952,
      "ĠáĬłáĪįáĪĨáĬĲ": 6953,
      "ĠáīłáĪģáĪĪáī±": 6954,
      "áĭĻáīµ": 6955,
      "35": 6956,
      "ĠáĪĺáĪ°áĪĪáĬĿ": 6957,
      "ĠáĬłáĮĪáĪįáĮĭáĭ®áī½": 6958,
      "Ġáīłáī°áīĥáĪ«áĬĴáĭį": 6959,
      "Ġáĭ¨áįįáĪŃáĭµ": 6960,
      "ĠáĭŃáĬĸáĪ©": 6961,
      "ĠáĮīáĭ³áĭ®áī½áĬķ": 6962,
      "ĠáĪµáĪĪáĪĨáĬĳ": 6963,
      "ĠáĪĪáĬ¥áĬĲáĭļáĪħ": 6964,
      "ĠáĬ¨áĬķáī±": 6965,
      "áĬ¨áĭļáĪħ": 6966,
      "ĠáĪĺáīĨáĮ£áĮłáĪªáĭ«": 6967,
      "áīĢáĪŃáī£áĪĪáĬķ": 6968,
      "áĪĢáī¥": 6969,
      "áĪĽáĪªáĭ«": 6970,
      "ĠáĮįáĪŃ": 6971,
      "ĠáĬłáĪĽáĪįáĬŃáīµ": 6972,
      "áĪĭáĮĨáī½": 6973,
      "áĬŃáĪ²áĬ®": 6974,
      "ĠáĭįáĮ¤áī±": 6975,
      "áī°áįį": 6976,
      "Ġáĭ¨áĪģáĪĪáīµ": 6977,
      "ĠáĪĺáīĭáīĭáĪĿ": 6978,
      "áĬ®áī½áĬķ": 6979,
      "ĠáĬłáįĭ": 6980,
      "ĠáīłáĬ¢áĬķáī°áĪŃáĬĶáīµ": 6981,
      "ĠáĭĲáĭŃ": 6982,
      "ĠáĮİáī¥áĬĿ": 6983,
      "Ġáī°áĪĪáĭĭáĭĭáĮŃ": 6984,
      "ĠáĪĪáĪĺáĪ¥áĪ«áīµ": 6985,
      "ĠáīµáĬķáī³áĬĶ": 6986,
      "Ġáĭ¨áī´áĬŃáĬĸáĪİáĮĤ": 6987,
      "ĠáĬŃáĪĪáī¥": 6988,
      "áĭİáī»áī¸áĭįáĬķ": 6989,
      "ĠáĭµáĪŃáĮħáī±": 6990,
      "33": 6991,
      "áĪĻáĪĭáīµ": 6992,
      "áĭĵáĬķ": 6993,
      "ĠáĪĪáĪ«áĪ±": 6994,
      "ĠáīłáĬłáĭ²áĪ±": 6995,
      "ĠáĬłáĮĪáĭĽáĭĿ": 6996,
      "ĠáĬłáĭ«áĪµáįĪáĪįáĮĪ": 6997,
      "ĠáĬ¥áĭ«áĭ°áĪ¨áĮī": 6998,
      "Ġáī³áĮĪáĬĽ": 6999,
      "ĠáĪĪáĮī": 7000,
      "áī¶áī»áī¸áĭįáĬķ": 7001,
      "áĪ°áīłáĪ°áī¡": 7002,
      "ĠáĪĺáĬ¨áĪĭáĬ¨áĪį": 7003,
      "áĪ¬áĭ«áĪĪáĪģ": 7004,
      "Ġáĭ¨áĪ©áĪ²áĭ«": 7005,
      "Ġáĭ¨áī°áīĨ": 7006,
      "Ġáĭ¨áī°áĭ°áĪ¨áĮĪáĭį": 7007,
      "Ġáĭ¨áĪļáĭ«áĭįáīħ": 7008,
      "áĭµáĭ®": 7009,
      "ĠáĮ¥áĪŃáĮ£áĪ¬": 7010,
      "áĭĺáīµ": 7011,
      "Ġáī¥áĮģ": 7012,
      "ĠáīģáĮ£": 7013,
      "ate": 7014,
      "ĠáīłáĪģ": 7015,
      "ĠáĪ«áĪ³áī¸áĭį": 7016,
      "áĮ«áĭİáī½": 7017,
      "ĠáīĢáĭ³": 7018,
      "ĠáīłáĭĭáĬĵáĬĲáīµ": 7019,
      "áĬ¨áīłáĪ©": 7020,
      "ĠáĭŃáĮłáī¥áīģ": 7021,
      "ĠáīłáĭĪáĪŃ": 7022,
      "ĠáīłáĮįáĪįáįħ": 7023,
      "ĠáĬ¥áĪ°": 7024,
      "áĪŃáĪĿáĭ«áĪµ": 7025,
      "Ġáĭ²áĮĤáī³áĪį": 7026,
      "ĠáĬªáĬķáĮį": 7027,
      "ĠáĬłáĪĪáī¥áĪħ": 7028,
      "ĠáĪĭáĪīáīµ": 7029,
      "ĠáĮįáĮŃ": 7030,
      "ĠáĭĿáĪĽ": 7031,
      "Ġ2011": 7032,
      "áĪįáī³": 7033,
      "áĭ³áĬĿ": 7034,
      "áĪĭáī½áĪģáĬķ": 7035,
      "ĠáīłáĬ¥áĪĿáĬĲáīµ": 7036,
      "ĠáĭŃáī½áĪį": 7037,
      "Ġáī£áĪĪáī¤áī´": 7038,
      "ĠáĪĺáĮ¥áī·áĪį": 7039,
      "PS": 7040,
      "ĠáĮīáĪįáīłáīµ": 7041,
      "ĠáīĢáĭĿáīĥáĭĽ": 7042,
      "áīµáĪĺáīµ": 7043,
      "Ġáĭ¨áī°áĪĪáĪĺáĭ±": 7044,
      "Ġáĭ«áĪµáįĪáĪįáĮĪáĭĭáĪį": 7045,
      "ĠáĪĺáĪµáī°": 7046,
      "áĭµáĬ©": 7047,
      "Ġáį¡-": 7048,
      "ĠáīłáĪļáīĢáĮ¥áĪīáīµ": 7049,
      "ĠáĪ¨áĭµ": 7050,
      "Ġáĭ«áĪĪáĬĿ": 7051,
      "áįķáĪİáĪĽ": 7052,
      "ĠáĪĴ": 7053,
      "ĠáĬ®áĪļáĪ½áĬķ": 7054,
      "ĠáĮįáĬķáī£áĪŃ": 7055,
      "ĠáĪĪáĪĽáĭ³áĬķ": 7056,
      "áĬķáĪµáĪ³áīµ": 7057,
      "ĠáīłáīµáĬŃáĬŃáĪĪáĬĽáĭį": 7058,
      "Ġáĭ¨áĪ´": 7059,
      "ĠáĪĿáĬŃáĬķáĭ«áī±": 7060,
      "áĪĪáįĪ": 7061,
      "Ġáĭ«áīĢáĪ¨": 7062,
      "áĮĪáĪĪáĮ¹": 7063,
      "ĠáįĢáĪĲ": 7064,
      "ĠáĪĺáĮĪáĬĺáīµ": 7065,
      "Ġáĭ¨áįĬáīµ": 7066,
      "áī°áĬĽáīµ": 7067,
      "ĠáĬ¥áĪħáīµ": 7068,
      "Ġáĭ«áĪĺáĪĪáĬŃáī³áĪį": 7069,
      "áĮħáĪĿáĪĭ": 7070,
      "áĬĲáĪ³áīµ": 7071,
      "áīĨáĮ¥": 7072,
      "ĠáīĥáĪīáĬķ": 7073,
      "ĠáĮįáĭµáī¥": 7074,
      "ĠáĪįáĭįáĭįáĮ¥": 7075,
      "ĠáĬłáī°": 7076,
      "áįįáĪĿ": 7077,
      "Ġáī°áĪĺáĪįáĪ°áĭį": 7078,
      "ĠáĬŃáīµáī£áīµ": 7079,
      "Ġáīłáī¢": 7080,
      "Ġáī°áĬ¨áī³áĭ®áī½": 7081,
      "ĠáĬłáĪĿáĪ«áī½": 7082,
      "Ġáĭ«áĮ£": 7083,
      "ĠáĭĭáĮĭáĭİáī½": 7084,
      "ĠáĬ¥áĬķáīģ": 7085,
      "ĠáĬªáĭ³": 7086,
      "ĠáĬłáĭµáĬĵáīĤ": 7087,
      "ĠáĬ¨áĪĮáĪĭ": 7088,
      "áī¶áĬĽáĪį": 7089,
      "ĠáĬ¨áĪĺáĬķ": 7090,
      "Ġáĭ¨áĪļáĭ«áĪµáī°": 7091,
      "ĠáīµáĬŃáĬŃáĪĪáĬĽáĭį": 7092,
      "áĪ°áīłáĭį": 7093,
      "ĠáĭĪáĮĪáĬĸ": 7094,
      "ĠáĪ°áįĪáĪŃ": 7095,
      "ĠáĬ¥áĬķáĭ³áĪĭáī¸áĭį": 7096,
      "Ġáĭ¨áĪļáĪĪ": 7097,
      "Ġáĭ¨áī°áĪĺáĪ°áĪ¨áī°": 7098,
      "Ġáĭ¨áī°áĮĪáĭ°": 7099,
      "ĠáĬłáĭŃáī»áĪĪáĪģ": 7100,
      "ĠáĬŃáī¡áĪŃ": 7101,
      "ĠáīłáĭĻáĪªáĭ«": 7102,
      "áīłáīµáĬĵ": 7103,
      "áĪĺáĭ°": 7104,
      "ĠáĬ¥áĬĵáĭ«áĪĪáĬķ": 7105,
      "ĠáĪŃáĬ«áĪ½": 7106,
      "ĠáīħáĪŃáĬķáĮ«": 7107,
      "ĠáĭŃáīĢáĮ¥áĪī": 7108,
      "áĭĪáĬĵ": 7109,
      "áĪ¨áī¶áī½": 7110,
      "ĠáĬ¥áī£áĬ«áī½áĪģ": 7111,
      "co": 7112,
      "ĠáĬ¥áĬ©": 7113,
      "ĠáĪĪáĪĽáĪ¸áĬĲáįį": 7114,
      "Ġáĭ¨áĪµáĬĲ": 7115,
      "áĭ«áĬĳ": 7116,
      "áīĢáĭ±": 7117,
      "ĠáĮ½áĭµáīħ": 7118,
      "ĠáĪµáĪŃáĮŃáīµ": 7119,
      "áĬŃáĬķáĭ«": 7120,
      "Ġáĭ¨áĪĺáĬĸáĪªáĭ«": 7121,
      "ĠáĬ¥áĭ«áĪµ": 7122,
      "ĠáĪĬáīĥ": 7123,
      "áĭĭáĭį": 7124,
      "ĠáĬłáĪĺáĪįáĬŃ": 7125,
      "ĠáĪĪáĪĺáīħ": 7126,
      "Ġáĭ¨áĪĪáī£áī¸áĭįáĪĿ": 7127,
      "ĠáĭŃáĭĺáĬķ": 7128,
      "ĠáĬłáĪµáįĪáĪĭáĮĬáĬĲáīµ": 7129,
      "ĠáĪĪáĮ¥áīĤáīµ": 7130,
      "Ġáī°áĬ¨áįį": 7131,
      "ĠáĮ¥áĪĭáī»": 7132,
      "ĠáĬ¥áĪµáĬ¨áĭĽáĪ¬": 7133,
      "ĠáĪµáĭķáĪį": 7134,
      "Ġfor": 7135,
      "áĪŃáī¥": 7136,
      "ĠáĬķáĮĪáĪ¨áĬĿ": 7137,
      "ĠEthiopia": 7138,
      "Ġáĭ«áĭįáīģ": 7139,
      "Ġáĭ¨áīĨáĭ¨": 7140,
      "áĪĪáĭ«áĭŃ": 7141,
      "áįĦ": 7142,
      "ĠáĪĽáĪµáī°áĪĽáĪŃ": 7143,
      "ĠáĮįáĭµáĮįáĭ³": 7144,
      "ĠáĭįáĮ¤áī¶áī½áĬķ": 7145,
      "Ġáĭ«áĪĪáī¥áĭİáīµ": 7146,
      "áĪĺáĪ³": 7147,
      "Ġáī°áĪ¨áīµ": 7148,
      "ĠáĪĭáĭŃáĪĨáĬķ": 7149,
      "ĠáĪĺáī³áĭ¨áīµ": 7150,
      "ĠáīģáĪ³áīģáĪ¶áī½": 7151,
      "ĠPlay": 7152,
      "ĠáĪĪáĪįáĮĨáī½": 7153,
      "Ġáĭ¨áĪĺáĬ¨áĪĭáĬ¨áĭ«": 7154,
      "ĠáĭŃáĬĲáĪ³": 7155,
      "áīĢáĪ©": 7156,
      "ĠáĬłáĮĭáĮ£áĪļáĭİáī½": 7157,
      "ĠáĪĺáīĢáĪĺáĮ«": 7158,
      "ĠáĬ©áĪ«áīµ": 7159,
      "áī£áī£áĭŃ": 7160,
      "ĠáĪķáĭĿáī¡áĪĿ": 7161,
      "Ġ|": 7162,
      "áĪ½áĭį": 7163,
      "ĠáĪĺáī°áĭį": 7164,
      "áīªáĪį": 7165,
      "áĭįáīħ": 7166,
      "ĠáĬłáĭµáĪĽ": 7167,
      "ĠáĬ«áĪµ": 7168,
      "ĠáĭŃáĮĪáĪŃ": 7169,
      "áĬĲáįĥáįĢ": 7170,
      "ĠáĪĿáĪ½": 7171,
      "ĠáĬłáĭ«áĪµáįĪáĪįáĮį": 7172,
      "ĠáīłáĮĪáĬķáĭĺáī¥": 7173,
      "ĠáĪ¶áĪµáī°áĬĽ": 7174,
      "áĪªáĭ«áĭİáī½": 7175,
      "ĠáīłáĪ°áįĬáĭį": 7176,
      "ĠáīłáĪ¬": 7177,
      "áĭµáĭµáĪŃ": 7178,
      "ĠáĬłáīģ": 7179,
      "áĪ³áī½áĪģáĬķ": 7180,
      "ĠáĪĿáĭµáī¥": 7181,
      "ĠáĬ¥áĪĨáĬĵ": 7182,
      "Ġáī½áĮįáĪ®áī½áĬķ": 7183,
      "ĠáĬĥáĭŃáĪİáī½": 7184,
      "áī¥áĬĵáĪį": 7185,
      "Ġáĭ°áĪ´áīµ": 7186,
      "áĬ¨áīµáĪį": 7187,
      "ĠáīłáĬ¨áįĬ": 7188,
      "Ġáĭ¨áĬłáĬķáī°": 7189,
      "áĭ«áĭįáīģáīµ": 7190,
      "Ġáī´áĪĮáīªáĭ¥áĬķ": 7191,
      "áĬłáĪĭáĪħ": 7192,
      "ĠáįįáĪįáĪµ": 7193,
      "áĮĬáĭľáĪĿ": 7194,
      "áĪĩ": 7195,
      "áĮĥáĮĢáīµ": 7196,
      "Ġáī¥áĭ¨": 7197,
      "áĪįáī¶": 7198,
      "Ġáĭ¨áī°áĪµáįĭ": 7199,
      "áĬªáĭİáī½": 7200,
      "ĠáįĵáĪŃáĬŃ": 7201,
      "Ġáĭ¨áĬĲáįĥ": 7202,
      "ĠáīłáĪĽáĪ³": 7203,
      "áĭķáĪ«áī¥": 7204,
      "ĠáĪ°áĪ«áī°áĬĽ": 7205,
      "Ġáī°áĪµáĪĽáĪĿ": 7206,
      "ĠáĪ¨áĭ¥áĪĿ": 7207,
      "ĠáĪĪáĪĺáĪµáĪĽáīµ": 7208,
      "Ġáī°áĪĺáĪĪáĪ±": 7209,
      "ĠáįĭáĭŃáĪİáī½áĬķ": 7210,
      "áįĪáĪįáĮĭáī¸áĭį": 7211,
      "Ġáĭ¨áĪļáīł": 7212,
      "áĪĪáīµáĬķ": 7213,
      "Ġáī³áĭ«": 7214,
      "Ġáī°áĪįáĭķáĬ®": 7215,
      "ĠáīĢáīł": 7216,
      "ĠáĪłáĪ«áī°áĬĽ": 7217,
      "áĪŃáī±": 7218,
      "ĠáĪŃáĭĿáĪĺáīµ": 7219,
      "Ġl": 7220,
      "áī½áĬĿ": 7221,
      "Ġ00": 7222,
      "ĠáĪĺáĮ¨áĪ¨áĪ»áĭį": 7223,
      "ĠáĭŃáĪ°áĮ¥": 7224,
      "Ġáī°áĬĿ": 7225,
      "ĠáĮĨáĬķ": 7226,
      "Ġáĭ«áĪµáĬ¨áīµáĪĭáĪį": 7227,
      "ĠáĪµáĭ«áĪľ": 7228,
      "Ġáī°áĮ«áĪ«": 7229,
      "áĭĵáī±": 7230,
      "ĠáĬłáĪ³áĪ³áī¢": 7231,
      "ĠáīłáĪ±": 7232,
      "ĠØ": 7233,
      "áīłáĪ°": 7234,
      "ĠáĬ¨áĮ¨": 7235,
      "ĠáĮĪáĪĺáĭµ": 7236,
      "ĠáĬ¥áĪŃáĪ³áī¸áĭį": 7237,
      "áĮĪáįĭ": 7238,
      "áĬ¢áīµáĭ®áĮµáĭ«": 7239,
      "Ġáĭ«áĭ°áĪ¨áĮī": 7240,
      "ĠáįĪáĪª": 7241,
      "Ġáĭ¨áī³áĪªáĬŃ": 7242,
      "31": 7243,
      "Ġáĭ¨áĮĢáĪŃáĪĺáĬķ": 7244,
      "ĠáĬłáĭ«áĭ«áĭĿ": 7245,
      "áĮĪáī°áĬĽ": 7246,
      "ĠáĬ«áĪĿ": 7247,
      "ĠáĭµáĪ®": 7248,
      "Ġáĭ¨áĬłáīµáĬŃáĪįáīµ": 7249,
      "Ġáī°áĭĪáĬ«áĭ®áī½": 7250,
      "áĪĺáĪĭ": 7251,
      "ĠáĬĲáĮĭáĭ´áĭİáī½": 7252,
      "ĠáīłáĪĺáĪĦáĭµ": 7253,
      "áĮİáĪĿ": 7254,
      "Ġáĭ¨áī¤": 7255,
      "ĠáĬ¥áĪŀáĬŃ": 7256,
      "ĠáĭįáĪµáĮ£áĭĬ": 7257,
      "ĠáīµáĪĭáĪįáīħ": 7258,
      "áĭĮáĭŃ": 7259,
      "áĭ«áī½áĪģ": 7260,
      "ĠáĬłáĪµáī³áĭįáīĭáĪį": 7261,
      "ber": 7262,
      "Ġáĭ«áĮĪáĬĻ": 7263,
      "Ġáĭ¨áĪįáĮħ": 7264,
      "Ġáĭ¨áĪļáĪĺáĮ¡": 7265,
      "ĠáĪķáįĥáĬĵáīµ": 7266,
      "Ġáĭ¨áįĢáĪĲáĭŃ": 7267,
      "áĭŀáĪŃ": 7268,
      "áīłáī³": 7269,
      "ĠáĪĪáĪĽáĭ³": 7270,
      "áĮĪáĪĪáĮ¸áĭį": 7271,
      "ĠáĮįáĭ¢": 7272,
      "ĠáĭĪáĪ¨áĭ³": 7273,
      "ĠáĬłáĭ°áī£áī£áĭŃ": 7274,
      "ĠáĮįáĬķáĬĻáĬĲáī¶áī½": 7275,
      "ĠáĪĺáĮĭáī¢áīµ": 7276,
      "áĮ«áĭĭ": 7277,
      "Ġáĭ¨áĬŃáĪŃáĪµáī¶áĪµ": 7278,
      "Ġáī°áĭĺáĮį": 7279,
      "ĠáĮ¨áĪĿ": 7280,
      "ĠáĪĿáĪµáĮ¢áĪŃ": 7281,
      "áĪĭáīĢáĪī": 7282,
      "ĠáīłáĬłáĪĿáĪĭáĬŃ": 7283,
      "ĠáĬłáĭįáĪ®áįķáĪĭ": 7284,
      "Ġáī¬": 7285,
      "ĠáĭĺáįĪ": 7286,
      "ĠáīłáĪĽáĪħáīłáĪ«áĭĬ": 7287,
      "ĠáįĮáĭ´": 7288,
      "áĮĪáĪ¬": 7289,
      "áĪĨáī½": 7290,
      "Ġáĭ¨áīĢáĬķ": 7291,
      "áĮłáī£áīł": 7292,
      "áĬķáĮĢ": 7293,
      "ĠáĬĲáī¥": 7294,
      "áĮ¸áĪĺ": 7295,
      "ĠáīłáīħáĭµáĪļáĭ«": 7296,
      "áĪ°áĮłáĬķ": 7297,
      "áĪµáī³áĭĪáīĤáĭ«": 7298,
      "ĠáĭŃáĭįáĪĭáĪį": 7299,
      "ĠáīłáĭĺáĪŃ": 7300,
      "ĠáĪ¥áįįáĪ«": 7301,
      "Ġ2010": 7302,
      "ĠáĮłáįĭ": 7303,
      "Ġáī¤áī´": 7304,
      "ĠáīłáĪĺáĪĿ": 7305,
      "Ġáĭ¨áĪįáĮĨáī½": 7306,
      "ĠáĪĺáĭµáĪ¨áĪ»": 7307,
      "Ġáĭ¨áĭĺáĪĭáĪĪáĪĿ": 7308,
      "áīĤáĭİáī½": 7309,
      "Ġáĭķáĭ³": 7310,
      "ĠáĬłáĭĿáĪ«áĪŃ": 7311,
      "ĠáĬ§áĪ¨": 7312,
      "áĮ£áĪĪáĬķ": 7313,
      "áīĥáĮłáĪį": 7314,
      "Ġáī³áĭĽ": 7315,
      "Ġáīłáī¤": 7316,
      "ĠáĪĢáĭŃ": 7317,
      "áĮĭáĮł": 7318,
      "ine": 7319,
      "áĭ³áĪĪáĪģ": 7320,
      "ĠáĮįáī¦áī½": 7321,
      "Ġáĭ°áĪµáī°áĬŀáī½": 7322,
      "ĠáĬłáĪ®áĮĮ": 7323,
      "áĭĿáĮĪáī¥": 7324,
      "Ġáĭ¨áĬ«áī²áīµ": 7325,
      "ĠáĪ²áī³": 7326,
      "áĬ¥áĬķ": 7327,
      "Ġáĭ¨áĬ¥áĬĵáĬķáī°": 7328,
      "ĠáĭŃáī³áĭ«áĪī": 7329,
      "ĠáĪĪáĪĺáĮİáī¥áĬĺáīµ": 7330,
      "áī¥áĪĭáīµ": 7331,
      "Ġáī°áī½": 7332,
      "áĮĪáĭĭáĪį": 7333,
      "Ġáĭ«áĪµáĮĪáī¡": 7334,
      "áįĸáĪĪáī²áĬ«": 7335,
      "áĭ«áĬķáĪĿ": 7336,
      "ĠáĪĺáīĨáĪĿ": 7337,
      "áĬ«áī°áīµ": 7338,
      "ĠáĬ¥áĬķáĭ°áĪĿáī³": 7339,
      "ĠáĬłáĪµáī°áĭĭáįħ": 7340,
      "ĠáĪĺáĪ»áĪ»áĪį": 7341,
      "Ġ48": 7342,
      "ĠáĬªáĪ³áĪ«": 7343,
      "Ġáĭ¨áĪĿáĬĵáĭį": 7344,
      "áĭīáĪĿ": 7345,
      "áĭļáĭ«áĪĿ": 7346,
      "ĠáĬ¤áĮĢáĬķáĪ²": 7347,
      "ĠáĬ¢áĬķáī°áĪŃáĬĶáīµ": 7348,
      "ĠáĪĪáĪĺáĪĪáĭĪáĮ¥": 7349,
      "ĠáĬ¥áĮłáī¥": 7350,
      "Ġáĭ¨áĪĺáĮĢáĪĺáĪªáĭ«áĭİáī¹": 7351,
      "Ġáĭ¨áĬ¬": 7352,
      "ĠáĪĪáĪĺáĮ«áĭĪáīµ": 7353,
      "Ġáĭ¨áĪĬ": 7354,
      "áī£áī¢áĭ«áĭĬ": 7355,
      "ĠáĬłáĪµáĪ«": 7356,
      "áĪĭáīģ": 7357,
      "ĠáĬłáĭįáīĢ": 7358,
      "Ġáī¤áī°áĪ°áī¡": 7359,
      "áįİáĬķ": 7360,
      "ĠáĬ¨áĪļáĭ«áĪµ": 7361,
      "Ġáĭ¨áįĪáĪ¨áĬķáĪ³áĭŃ": 7362,
      "Ġáĭ¨áīĢáĮ¥áī³": 7363,
      "áĭ°áī£áī£áĭŃ": 7364,
      "ĠáĪĽáĪµáī°áĬ«áĬ¨áĪį": 7365,
      "ĠáĮ£áī¢áĭ«áĭį": 7366,
      "ĠáĬłáĭµáĬĵ": 7367,
      "Ġáĭ¨áĪ¨": 7368,
      "ĠáĬ¥áĪ«áīµ": 7369,
      "áĬĹáĬķ": 7370,
      "áī¥áĪĶáĪŃ": 7371,
      "Ġáĭ¨áĪ¨áĮħáĪĿ": 7372,
      "ĠáįĪáĪ¨áĬķ": 7373,
      "áĪŃáĪµáī¶áĪµáĬķ": 7374,
      "ĠáīłáĪĺáĪĭ": 7375,
      "ĠáĪĪáĪĺáīĨáĮ£áĮłáĪŃ": 7376,
      "ĠáĬĲáīłáĪ¨áĬĿ": 7377,
      "ĠáįĪáĪįáĮĮ": 7378,
      "Ġáĭ«áĪĪáĪĽ": 7379,
      "Ġáĭ¨áĪĮáĪĭ": 7380,
      "Ġáĭ¨áīłáĭŃáĬĲáĪĺáĪ¨áī¥": 7381,
      "ĠáĬ¥áĭ¨áĪŀ": 7382,
      "Ġ39": 7383,
      "ĠáĬłáĭŃáĪ°áĪ«áĪĿ": 7384,
      "Ġáĭ¨áĬĲáĮĪ": 7385,
      "áĮ´áĭĽ": 7386,
      "Ġáī°áĪ½áĬ¨áĪŃáĬ«áĪª": 7387,
      "ĠáĭŃáĮłáīĢáĪĽáĪī": 7388,
      "ĠáīłáĬłáĪį": 7389,
      "áĬ®áĪŃ": 7390,
      "ĠáĪĺáĪįáĪ°áĭį": 7391,
      "ĠáĬ¨áĬ¥áĪ·": 7392,
      "Ġáī°áĭ°áĪ¨áĮĪ": 7393,
      "Ġáĭ¨áĪļáĪĨáĬĲ": 7394,
      "ĠáĮ¨áĪ¨áīĥ": 7395,
      "ĠáĪĪáĪĺáĪĿáĪ¨áĮ¥": 7396,
      "áĬĲáĮĭáĮĪáĪ©": 7397,
      "áī¦áĬķ": 7398,
      "áī£áī£áĪª": 7399,
      "ĠáĬ¥áĬķáĭ°áĭįáĪĿ": 7400,
      "Ġáī§": 7401,
      "ĠáĬ¤áĬŃáĪµ": 7402,
      "ĠáĪĺáĮįáī£áī£áīµ": 7403,
      "ĠáĪĤáĭ°áī±": 7404,
      "ĠáīłáĪĪ": 7405,
      "ĠáīĢáĮłáĪĪ": 7406,
      "ĠáīłáĪĽáĮį": 7407,
      "áīµáĪ®": 7408,
      "áĬĸáĪ¨áĭįáĪĿ": 7409,
      "ĠáĪĪáĪĺáĪŀáĬ¨áĪŃ": 7410,
      "ĠáĬ¥áĬķáīłáĪį": 7411,
      "Ġáĭ°áĮĭáįĬáĭİáī½": 7412,
      "Ġáĭ¨áīłáĪĭáĭŃáĬĲáīµ": 7413,
      "ĠQ": 7414,
      "Ġáī½áĪĭ": 7415,
      "ĠáĮİáĪ«": 7416,
      "ĠáĬ¥áĪ«áĪµáĭİáĬķ": 7417,
      "ĠáĪĿáĮįáī£áĪŃ": 7418,
      "ĠáĬłáĮĭáĮ¥": 7419,
      "ĠáĬłáįķáĪį": 7420,
      "ĠáīłáĪŃáĪ³áī¸áĭį": 7421,
      "Ġáī°áĬ³áĪĥ": 7422,
      "ĠáĬłáįĪáĪŃ": 7423,
      "ĠáĬłáĪŃáī£": 7424,
      "ĠáĪĬáī£áĪį": 7425,
      "Ġáĭ¨áĬłáĮĪáĪªáī±": 7426,
      "ĠáĪĺáĪµáīĢáĪį": 7427,
      "áĪ³áĪĿ": 7428,
      "ĠáĪĪáĪĺáĮłáĭ¨áīħ": 7429,
      "ra": 7430,
      "Ġáĭ²áĪŀáĬŃáĪ«áĪ²": 7431,
      "Ġáī°áĮĪáĪįáĮ¿áĪį": 7432,
      "ĠáīłáĮĪáĭĽ": 7433,
      "áĮĪáĬķáĭĺáī¥": 7434,
      "áĪįáĪĿáĬĵ": 7435,
      "Ġáī°áĭ°áĮĭ": 7436,
      "ĠáĪĪáĮį": 7437,
      "ĠáĪĽáĬķáĬķ": 7438,
      "ĠáĬłáĪĽáĪŃ": 7439,
      "áĬĲáĪ³áĭį": 7440,
      "áĪ«áī¥": 7441,
      "áĪ°áĬŀ": 7442,
      "ĠáĪĺáĬĲáĮĭáĮĪáĪŃ": 7443,
      "ĠáĪĪáĪĽáĮ¥áįĭáīµ": 7444,
      "ĠáĬ¨áī°áĪĪáĭ«áĭ©": 7445,
      "áĭ¨áĪ¨": 7446,
      "ĠáĪĪáĪĽáĪŁáĪĭáīµ": 7447,
      "áĭ¨áĪµ": 7448,
      "áīłáĪ«áīµ": 7449,
      "ĠáĬłáĪ³áĭĽáĬĿ": 7450,
      "ĠáĪįáĪĽáĭµ": 7451,
      "ĠáĪĽáĬķáĪ³áīµ": 7452,
      "áĮłáĬĵáĬ¨áĪŃ": 7453,
      "ĠáīħáĪŃáĮ¸áīµ": 7454,
      "Ġáĭ¨áĪŀáīµ": 7455,
      "ĠáĬ¥áĬķáĭ²áįĪ": 7456,
      "áīĨáĪŃ": 7457,
      "ĠáĬ¥áĭµáĮĪ": 7458,
      "ĠáĪ¬áĭ²áĭ®": 7459,
      "Ġáī°áĪ³áī³áįĬ": 7460,
      "Ġáĭ¨áĪĽáĪµáī°": 7461,
      "Ġáī°áĪ°áĪĿ": 7462,
      "ĠáīłáĪĺáĮ½áĪĲáįį": 7463,
      "Ġáį³áį": 7464,
      "ĠáĪļáĭĽ": 7465,
      "ĠáĬ¥áĬĲáĭļáĭ«áĬķ": 7466,
      "Ġáĭ°áĪĺáĭĪáĭĿ": 7467,
      "áĪħáĪ¨": 7468,
      "ĠáīłáĮįáĪĿáīµ": 7469,
      "ĠáĬ¥áĭįáĬĲáī±": 7470,
      "ĠáĮĪáĪįáĮ¿áĪį": 7471,
      "ĠáĬłáĪµáĬªáĭ«": 7472,
      "ĠáĬ¥áĮįáĭļ": 7473,
      "ĠáĭįáĮĬáĭ«": 7474,
      "ĠáĭĵáĭŃáĬĸáī½": 7475,
      "ĠáĪĪáĬĲ": 7476,
      "ĠáĪĺáĪµáĪªáĭ«": 7477,
      "ĠáĬ¥áĪŀáĬŃáĪ«áĪĪáĪģ": 7478,
      "Ġáī¼": 7479,
      "ĠáĪħáĭĪáĪĵáīµ": 7480,
      "áĮĵáī¸áĭį": 7481,
      "Ġáĭ¨áī°áĮ»áįĪ": 7482,
      "ĠáĮ½áįıáĪį": 7483,
      "áīĨáīħáĪį": 7484,
      "ĠáĮĪáĪĪáĪį": 7485,
      "áĪĺáĭĿáĮĪáī¥": 7486,
      "áĪĨáĬķáīłáīµ": 7487,
      "ĠâĨĲ": 7488,
      "Ġáī°áĬĵáĮĪáĪ©": 7489,
      "ĠáĬ¥áĬĵáīĢáĪŃáī£áĪĪáĬķ": 7490,
      "ĠáĭįáĪ¸": 7491,
      "áĪĪáī³": 7492,
      "Ġáĭ«áĪµáĭ°": 7493,
      "áĬ¨áĬĲ": 7494,
      "ĠáįĪáī³áĬĿ": 7495,
      "Ġáĭ±áīĦáīµ": 7496,
      "ĠáīĦ": 7497,
      "ĠáĭŃáĬ¨áī¥": 7498,
      "ĠáĪĽáĬ¨áĬĵáĭĪáĬķ": 7499,
      "ĠáĪĺáĮłáĮ£áīµ": 7500,
      "ĠáĬłáįįáīĥ": 7501,
      "Ġáī°áĪĺáĪĭáĪ½": 7502,
      "áĭĪáĪµáĭ±": 7503,
      "Ġáĭ³áĬĽ": 7504,
      "ĠáīłáĪĺáĭ°áīłáĬĽ": 7505,
      "áĪµáī³áĭĬ": 7506,
      "Ġáĭ¨áĪļáī»áĪĪáĭį": 7507,
      "áĪĪáĪĪ": 7508,
      "ĠáĪ°áĭī": 7509,
      "ĠáĭĺáĮįáĭŃ": 7510,
      "ĠáĬ¥áĪµáĬ¨áĪĺ": 7511,
      "áĮĭáĬķ": 7512,
      "áĮĭáĮŃ": 7513,
      "Ġáī³áĮį": 7514,
      "ĠáĮ½áĪģ": 7515,
      "ĠáįįáīµáĪħ": 7516,
      "ĠáĬłáĭĿáĬĵáĬĿ": 7517,
      "Ġ2009": 7518,
      "Ġáĭ«áĪħ": 7519,
      "ĠáĬ¢áĬķáī°áĪŃ": 7520,
      "ĠáĭĭáĮĭáĭį": 7521,
      "ĠáĪĺáĬķáĮĪáĭ±áĬķ": 7522,
      "áĪŃáĮĤ": 7523,
      "ĠáĪĺáįįáī³áīµ": 7524,
      "ĠáĭµáĪ«": 7525,
      "ĠáĪ³áĬķáī²": 7526,
      "ĠáĭŃáĮĪáĬĵáĬĽáĪī": 7527,
      "Tube": 7528,
      "ĠáĬłáĪĽáĬ«áĪª": 7529,
      "ĠáīłáįįáĪŃáĭµ": 7530,
      "ĠáĪĪáĪħáĭĿáī¥": 7531,
      "Ġáĭ¨áĬĴ": 7532,
      "áī¸áĮį": 7533,
      "Ġáĭ¨áī°áĪ«": 7534,
      "Ġáī£áĪįáĬĵ": 7535,
      "áĪ½áī³": 7536,
      "ĠáīłáĪĺáĮ¨áĪ¨áĪ»áĭį": 7537,
      "ĠáīłáĬ¥áĬķáĮįáĪĬáĭĿáĬĽ": 7538,
      "ĠáĪĺáĭµáĬĥáĬĴ": 7539,
      "ĠáīłáĪĺáĪĨáĬĵáī¸áĭį": 7540,
      "ĠáĪĺáĪµáĬ®áīµ": 7541,
      "Ġáī°áī£": 7542,
      "áīħáĭ«": 7543,
      "ĠáĬ¨áĮł": 7544,
      "ĠáĬ¥áĬĵáĮĪáĬĽáĪĪáĬķ": 7545,
      "ĠáīłáĬ¢áĭ¨áĪ©áĪ³áĪĮáĪĿ": 7546,
      "ĠáĭŀáĬķ": 7547,
      "áĬ¨áĭįáĬķ": 7548,
      "áĭ³áĮįáĪĿ": 7549,
      "ĠáĪĺáĪŃáĪħ": 7550,
      "áĪĿáĬĲáĭį": 7551,
      "ĠáīĢáĪŃáī¦": 7552,
      "Ġáĭ¨áĬĳáĪ®": 7553,
      "Ġáĭ¨áī°áĬ¨áĪĪ": 7554,
      "Ġáīłáī¦áī³áĭį": 7555,
      "ĠáĬ¥áĬķáĭ³áĪīáīµ": 7556,
      "áĪ°áĪ³": 7557,
      "ĠáĬķáīħ": 7558,
      "Ġáĭ«áĪĺ": 7559,
      "ĠáĪ½áĬķ": 7560,
      "ĠáĭŃáĬ¨áĪ°áī³áĪį": 7561,
      "áĬĲáĭįáĪĿ": 7562,
      "ĠáĪ²áĬĵáĮĪáĪŃ": 7563,
      "Ġáī³áĭ°áĪŃáĮĭ": 7564,
      "áĪĢáįį": 7565,
      "ĠáĬ¥áĪļ": 7566,
      "ĠáĪĺáĪŀ": 7567,
      "áīĢáĭŃ": 7568,
      "ĠáĭŃáĬ¸áĭįáĪĿ": 7569,
      "ĠáĬłáįĪáĮ»áĮ¸áĪĿ": 7570,
      "ĠáĪµáĪĪáĪĨáĬķ": 7571,
      "áĮ£áĮ£": 7572,
      "áįĭáĭĬ": 7573,
      "ĠáīłáįĸáĪĪáī²áĬ«": 7574,
      "ĠáĮİáī¥": 7575,
      "ĠáĬłáĪįáī°áĮĪáĬĺ": 7576,
      "ĠZ": 7577,
      "Ġáīłáī°áĬ¨áī³áī³áĭŃ": 7578,
      "áĪ¶áī¹": 7579,
      "ĠáĭĪáĮªáĭİáī½": 7580,
      "áĪįáĪĽ": 7581,
      "ĠáīĢáĬĳ": 7582,
      "ĠáĬ¨áĬĶ": 7583,
      "Ġáĭ¨áĪĺáĪĨáĬķ": 7584,
      "áĪ°áĮłáĬĿ": 7585,
      "Ġáī°áĬłáĪĿ": 7586,
      "ĠáĮįáįį": 7587,
      "ĠáĪĽáĪµáī³áĭĪáĪµ": 7588,
      "áĪµáĪĪáĭļáĪħ": 7589,
      "ĠáĬłáĪµáįĪáįĥáĪļ": 7590,
      "ĠáĪĥáĪĭáįĬáĬĲáīµ": 7591,
      "ĠáĪĽáĪĿáĮ£áīµ": 7592,
      "ĠáĪĺáīħáĭ°": 7593,
      "ĠáīłáĪģáĪĪáī°áĬĽáĭį": 7594,
      "ĠáĪĿáĪķáĪ¨áīµ": 7595,
      "Ġáĭ«áĪµáī½áĪį": 7596,
      "ĠáĪµáĭµ": 7597,
      "ĠáĬłáĪįáĪ°áĪĽ": 7598,
      "ĠáĭŃáīĨáĭ«áĪį": 7599,
      "ĠáīłáĬłáĬ«": 7600,
      "Ġáĭ«áĪĪáĬķáĬķ": 7601,
      "áįĪáīĢáĭ°": 7602,
      "áĪįáĬĽáĪį": 7603,
      "Ġáī°áĬ¨áĪ«": 7604,
      "Ġáī°áĪ°áĪŃ": 7605,
      "Ġâĺħ": 7606,
      "ĠáĬ¥áĬĲáĪĽáĬķ": 7607,
      "áĮłáīĥáĪį": 7608,
      "áĭĺáī¥": 7609,
      "ĠáĭŃáĬ«áĪĦáĭ³áĪį": 7610,
      "ĠáīłáĪŀáīµ": 7611,
      "Ġ]": 7612,
      "ĠáĮ¨áĭĭáī³áĭİáī½áĬķ": 7613,
      "ĠáīłáĪµáĪįáĬŃ": 7614,
      "ĠáĪĺáĬ¨áī³áī°áĪį": 7615,
      "ĠáĭįáĮ£": 7616,
      "Ġáĭ¨áĪļáĪłáĪ«": 7617,
      "Ġáĭ¨áĪĻáĬ¨áĪ«": 7618,
      "ĠáīłáĪĺáĮ£": 7619,
      "ĠáĮĪáīłáĪ¬": 7620,
      "ĠáĪħáįĥáĬĵáīµ": 7621,
      "ĠáīłáĪĺáĪ°": 7622,
      "Ġáĭ¨áĬ©áī£áĬķáĭ«": 7623,
      "ĠáĮįáī¢": 7624,
      "Ġáī³áĭ³áĮĬ": 7625,
      "áī£áīłáĪį": 7626,
      "ĠáĪļáĪµáī±": 7627,
      "ĠáĪģáĪįáĮĬáĭľáĪĿ": 7628,
      "Ġáĭ¨áĬŃáįįáĭ«": 7629,
      "áĪĥáįį": 7630,
      "ĠáĪ°áĬĲáĭ¶áī½": 7631,
      "ĠáĬŃáīµáīµáĪį": 7632,
      "ĠáĪĪáĪĺáĮįáĪĪáĮ½": 7633,
      "ĠáĪ°áįĭ": 7634,
      "ĠáĭĪáĮ£áī±": 7635,
      "áĪŃáĬ©": 7636,
      "ĠáĬĲáĭ³áĮħ": 7637,
      "ĠáĬ¥áĪĿáī¢": 7638,
      "áīĢáĬĽ": 7639,
      "ĠáĪĺáįħáĪĲ": 7640,
      "ĠáĭŃáĪĺáĪ¨": 7641,
      "ĠáĪµáįĸáĪŃ": 7642,
      "ĠáĮ¥áĪ¬": 7643,
      "áī£áĪįáĪĿ": 7644,
      "ĠáīłáĮįáī¥áįħ": 7645,
      "Ġáĭ¨áįįáīµ": 7646,
      "ĠáĭĪáĪĪáĭµ": 7647,
      "Ġáī°áĮįáĭ³": 7648,
      "áĭķáĬĵ": 7649,
      "ĠáĬŃáįįáī°áīµ": 7650,
      "ĠáįįáĮ¥áĪ¨": 7651,
      "áĪ°áĭįáĬķ": 7652,
      "áĬŃáĪĮ": 7653,
      "ĠáĬłáĪªáįį": 7654,
      "ĠáīłáīģáĮ¥áĮ¥áĪŃ": 7655,
      "Ġthe": 7656,
      "ĠáĬ¨áĬ¤": 7657,
      "Ġáī£áĪħáĪªáĭİáī½": 7658,
      "ĠáĬłáĪĿáĪĭáĬ«áī½áĬķ": 7659,
      "áĪµáī³áĬķáī¡áĪį": 7660,
      "ĠáĭµáĬķáĮĭáĮĮ": 7661,
      "áī¥áĪ°áī£": 7662,
      "Ġáĭ¨áĪļáĮłáīĢáĪĻ": 7663,
      "áĪĺáĪĻ": 7664,
      "ĠáĬłáĪµáįĪáĪª": 7665,
      "ĠáīłáĬĴ": 7666,
      "ID": 7667,
      "Ġáĭ¨áĪĺáī³": 7668,
      "ĠáĭŃáĭŁáĪį": 7669,
      "Ġáĭ¨áī´áĬŃ": 7670,
      "ĠáĬĲáĪĲáĪ´": 7671,
      "ĠáĪĿáĪŃáĮ«áĭį": 7672,
      "ĠáĬ«áĪŃáī³": 7673,
      "Ġáĭ«áī°áĬ®": 7674,
      "if": 7675,
      "Ġ197": 7676,
      "og": 7677,
      "áī³áĭ°áĪŃ": 7678,
      "ĠáīłáĪįáĮħ": 7679,
      "ĠáĮĮáī³áĭ¬": 7680,
      "áĮĨáĪ®": 7681,
      "ĠáĪĮáĪĭáĪĿ": 7682,
      "ĠáĪ°áĪĽáĭ«áĭĬ": 7683,
      "ĠáĪĽáĬŃáīłáĪŃ": 7684,
      "ĠáĬ¤áĪŃáĪĿáĭ«áĪµ": 7685,
      "ĠáĭĪáĪ¨áĪŃáĪ½áĬĿ": 7686,
      "ĠáīłáĭµáĪĿ": 7687,
      "ĠáĪĽáĪŀ": 7688,
      "ĠáĬłáĪµáī³": 7689,
      "ĠáĬŃáĪ¨áĪĿáīµ": 7690,
      "Ġ/>": 7691,
      "ĠáīĨáĭŃáī°áĭĭáĪį": 7692,
      "áĬŀáī¹áĬķ": 7693,
      "áĪĺáĬĵáĬķ": 7694,
      "áĭļáĪį": 7695,
      "ĠáĪĺáĭĿáĬĵáĬĽ": 7696,
      "áīģáĬĿ": 7697,
      "áĪŃáĪ³áī¸áĭį": 7698,
      "áĪĺáīħ": 7699,
      "out": 7700,
      "ĠáĭŃáĬĸáĪŃáī£áī¸áĭĭáĪį": 7701,
      "ĠáĭĪáĭŃáĬķ": 7702,
      "ĠáĪ¨áīĤáīħ": 7703,
      "Ġáĭ«áĪµáįĪáĪįáĮĭáī¸áĭĭáĪį": 7704,
      "ĠáĪĪáĪ½": 7705,
      "ĠáĪµáĬķáĪį": 7706,
      "ĠáĭŃáĪµáĮ¡": 7707,
      "ĠáĭĺáĬĵ": 7708,
      "áĮĪáī¢áĭ«": 7709,
      "áĪīáīłáīµ": 7710,
      "áī²áī±": 7711,
      "Ġ...\"": 7712,
      "ĠáĬłáĭŃáĬķ": 7713,
      "áĬ¥áĬķáĭ´áīµ": 7714,
      "áįİáĬ«": 7715,
      "ĠáĪµáĪ«áĭį": 7716,
      "áĮĢáĪĿáĪ¨áĭį": 7717,
      "Ġáĭ¨áĪĨáĬķ": 7718,
      "ĠáĪħáĮ»áĬĵáīµ": 7719,
      "ĠáĪĺáĮ½áĪĶáīµ": 7720,
      "ĠáĬ«áĪħáĬĵáīµ": 7721,
      "ĠáĪ²áĭ°áĪŃáĪµ": 7722,
      "ĠáĮĪáĪįáįĢ": 7723,
      "ĠáĭĪáĮį": 7724,
      "áĭĪáīĤáĭ«": 7725,
      "áĬ¨áįĭáįĪáĪį": 7726,
      "ĠáĪĪáĮĭ": 7727,
      "ĠáĮłáĭ¨áīĢ": 7728,
      "ĠáĭŃáĬĲáĮĪ": 7729,
      "ĠáĬ¥áĬĲáĪĨáĪĿ": 7730,
      "Ġáĭ¨áī°áĭ«áĭ«áĭĺ": 7731,
      "áīĢáīłáĪĪáĭį": 7732,
      "ĠáĬ¥áĭ«áĪįáĬ©": 7733,
      "ĠáīłáĬłáĪĭáĪħ": 7734,
      "áĭŃáĪ¨áĪ±": 7735,
      "Ġáī¢áĪĨáĬĳáĪĿ": 7736,
      "áĬ¨áįĪáīµ": 7737,
      "áĬ¥áĬĲáĪŃáĪ±": 7738,
      "ĠáīłáĪķáĭĿáī¥": 7739,
      "ĠáĬ¥áĭ«áĭ¨": 7740,
      "áĪĺáī»áī¸áīµ": 7741,
      "áī®": 7742,
      "Ġáī°áĬ¨áĪĭ": 7743,
      "ĠáĮĬáĭľáĭįáĬķ": 7744,
      "áī³áĭŃáĪĿ": 7745,
      "áī¶áī»áī½áĬķáĬķ": 7746,
      "áĭķáĪĪ": 7747,
      "Ġe": 7748,
      "áīĢáĪ»": 7749,
      "Ġáīłáī³áĪªáĬŃ": 7750,
      "ĠáĪĺáīµ": 7751,
      "ĠáĬ¨áĪĿáĪŃ": 7752,
      "Ġáĭ¨áī°áĮĢáĪĺáĪ¨áĭį": 7753,
      "Ġáĭ°áĬķáī¦áī½": 7754,
      "áĭĪáĪŃáĭµ": 7755,
      "ĠáĬ¥áĬķáĮłáī¥": 7756,
      "áĪµáįĪáĪĭáĮĬ": 7757,
      "ĠáĬ¥áĭ¨áĪłáĪ«": 7758,
      "áĪ£áĭŃ": 7759,
      "Ġáĭ¨áįĮáĭ´áĪ«áĪį": 7760,
      "Ġáī°áĪĺáĪĪáĪµ": 7761,
      "áīĢáĮ£": 7762,
      "ĠáĪ°áĪ«áĭĬáīµ": 7763,
      "ĠáĪ¨áĭ³áīµ": 7764,
      "ĠáĪķáįĥáĬķ": 7765,
      "ĠáĬłáĪµáī°áĬĵáĮĭáĮħ": 7766,
      "Ġáĭ¨áĪļáĭ«áĪĿáĪŃ": 7767,
      "ord": 7768,
      "ĠáĬłáĪģáĬĳ": 7769,
      "ĠáĪµáĪįáīµ": 7770,
      "ĠáīłáĭŃáĬĲáĮĪ": 7771,
      "ĠáīłáĪ¨áĪ«": 7772,
      "ĠáĪ°áĮ¥áī·áĪį": 7773,
      "ĠáĪĻáĪµáĪĬáĪĿ": 7774,
      "Ġáī°áĪĺáĭĿ": 7775,
      "ĠáīłáĬ¨áįĬáĪį": 7776,
      "ment": 7777,
      "áĪĺáī°": 7778,
      "ĠáĬłáĪĭáī½áĪģ": 7779,
      "áĬ«áī°áī°": 7780,
      "ĠáĬłáĬĲáĪ³": 7781,
      "áĪ³áĪĪáĬķ": 7782,
      "hat": 7783,
      "Ġáĭ¨áĪĽáĭŃáī½áĪį": 7784,
      "ĠáĪĽáĬķáĬķáĪĿ": 7785,
      "Ġáĭ«áĪ³áĭµ": 7786,
      "ĠáĪĽáĭĭ": 7787,
      "áĪ¨áĮĭáĮįáĮ¥": 7788,
      "ĠApp": 7789,
      "áĮłáīłáīĢáĭį": 7790,
      "ĠÃ": 7791,
      "ĠáĬĲáī¢áĭŃ": 7792,
      "áįĭáĭŃ": 7793,
      "ĠáĭĵáĪ£": 7794,
      "ĠáĪ¸áĪĽ": 7795,
      "ĠáĬłáĭŃáī³áĭĪáīħáĪĿ": 7796,
      "ĠáīłáĬłáĪµáī°": 7797,
      "áįĪáĪ³áĭĬ": 7798,
      "áĬłáĭİ": 7799,
      "Ġ42": 7800,
      "ĠáĪĽáĭķáĬ¨áĪĭáĭĬ": 7801,
      "ĠáĪĽáĪµáī°áĬ«áĬ¨": 7802,
      "áĭķáĭµ": 7803,
      "ĠâĢ¢": 7804,
      "áįĥáįĪ": 7805,
      "ĠáĮĮáī³áī½áĬķ": 7806,
      "ĠáĬĲáįĭáĪµ": 7807,
      "áĭ¦": 7808,
      "Ġáĭ¨áĪļáĭ°áĪ¨áĮĪáĭį": 7809,
      "ĠáĪ°áĪĮáĭ³": 7810,
      "áĮłáĭŃáīĢáĭį": 7811,
      "ĠáĮ¨áĪ¨áī³": 7812,
      "áī³áī½áĬķáĪĿ": 7813,
      "áįĲáĪŃ": 7814,
      "ĠáĪµáĪħáī°áī¶áī½": 7815,
      "áĬĹáĬĹáĪŃ": 7816,
      "áī³áĪĭáī½áĪģ": 7817,
      "ĠáĪĪáĬ¢áīµáĭ®áĮµáĭ«": 7818,
      "ĠáĪĽáĮįáĬĺ": 7819,
      "ĠáĪ«áĪ³áī½áĬķáĬķ": 7820,
      "ly": 7821,
      "áĪĽáī¸áĭįáĬķ": 7822,
      "ĠáĬķáĭĳ": 7823,
      "ĠáīłáĪĢáĮĪáĪŃ": 7824,
      "ĠáĬ«áĮĪáĬĺ": 7825,
      "Ġáĭ¨áĪĮáĪĭáī¸áĭį": 7826,
      "ĠáĬ¥áĬĵáī±": 7827,
      "áĬ¾áĬĲ": 7828,
      "áĭŃáĮ£áĬķ": 7829,
      "ĠáĪĢáĭŃáĪį": 7830,
      "ĠáĮįáī¥áĭ£": 7831,
      "Ġáī°áĪĺáĪµ": 7832,
      "áīłáĪĭáĪ¸": 7833,
      "ĠáīłáīłáĪŃáĬ«áī³": 7834,
      "áĪ®áĬķáī¶": 7835,
      "ĠáĬĲáīłáĪ«áī¸áĭį": 7836,
      "Ġáĭ¨áĪ»": 7837,
      "áĪĺáĬĵáīµ": 7838,
      "ĠáĬ¨áĮī": 7839,
      "ĠáĬ¨áĪĺáī¶": 7840,
      "ĠáĬ¥áĪ«áĪ´áĬķ": 7841,
      "áī°áĬŀáī¹": 7842,
      "ĠáĬłáĭŃáĭ°áĪĪáĪĿáĬķ": 7843,
      "áĭ´áĪŀáĬŃáĪ«áĪ²": 7844,
      "ĠáīłáĮ¨áĪĪáĪĽ": 7845,
      "áĮ»áįī": 7846,
      "Ġáī°áĪŀ": 7847,
      "ĠáĭŃáĮĪáĪĪ": 7848,
      "áĪĭáīµáĪĿ": 7849,
      "áĪĺáĪĭáĪĪ": 7850,
      "ĠáĭįáĭµáīĢáīµ": 7851,
      "áĪ®áĮ¥": 7852,
      "Ġáĭ¨áīµáĭ³áĪŃ": 7853,
      "ĠáĪĪáĪĺáĭįáĮ£áīµ": 7854,
      "ĠáīłáĪĨáĬĲáĭį": 7855,
      "ĠáīłáĪĺáĮ¥": 7856,
      "Ġáī½áĪıáĪį": 7857,
      "Ġáĭ¨áĪļáĪĦáĭµ": 7858,
      "ĠáĬłáĪįáī³": 7859,
      "ĠáĮ³áĮ³": 7860,
      "ĠáīµáĮįáīłáĪ«": 7861,
      "ĠáīłáĮ¨áĪ¨": 7862,
      "ĠáĬłáĬ¨áī£áī¢": 7863,
      "ĠáĪĬáĬ¨áĪ°áīµ": 7864,
      "áĭľáĪĽ": 7865,
      "Ġáī£áĭŃáĪĨáĬķ": 7866,
      "áĭĭáĭĪáīħ": 7867,
      "áĭ³áĪĽ": 7868,
      "ĠáĪ¨áĭĺáĪĿ": 7869,
      "ĠáĪįáĪĿáĪĿáĭµ": 7870,
      "ĠáĬ¢áīµáĭ®áĮµáĭ«áĬķ": 7871,
      "Ġáĭ¨áĬ©": 7872,
      "ĠáĬŃáĪĬ": 7873,
      "ĠáĬĲáįĭ": 7874,
      "ĠáĬĲáĮĪáĪ©áĬķ": 7875,
      "ĠáĪĺáĭµáĬĥáĬĴáīµ": 7876,
      "ĠáĬłáĬĲáĮĭáĮĪáĪŃ": 7877,
      "Ġáĭ©áĪ®": 7878,
      "Ġáĭ¨áī°áĭĪáĪĪáĭ°áĭį": 7879,
      "Ġáĭ¨áī°áĭĽ": 7880,
      "ĠáĮ¨áĪŃ": 7881,
      "áĪµáĪĽáĪĻ": 7882,
      "áĬ¢áĭ¨áĪ±áĪµ": 7883,
      "ĠáĭŃáĬ¨áī°áĪī": 7884,
      "ĠáĪģáĪĭáī½áĬķ": 7885,
      "Ġáĭ¨áĬłáĪĽáĪ«": 7886,
      "ĠáĬłáĪĭáĪµ": 7887,
      "ĠáĪ©áĪ²áĭ«": 7888,
      "Ġáĭ¨áĪļáĮĪáĪŃáĪĺáĭį": 7889,
      "ĠáīłáįĮáĪµáī¡áĬŃ": 7890,
      "ĠáįĢáĪ¨": 7891,
      "ĠáĬ¥áĮģáĬķ": 7892,
      "ĠáĮ©áĬ¸áīµ": 7893,
      "áĬ³áĪµ": 7894,
      "áĪłáĪ©áīµ": 7895,
      "ĠáīµáĬķáĪ£áĬ¤": 7896,
      "Ġáĭ¨áĪĿáĪŃáĪĿáĪŃ": 7897,
      "ĠáĪĿáĭķáĪ«áī¥": 7898,
      "ĠáīłáįĬáī±": 7899,
      "Ġáī°áĬĵáĮĪáĪŃ": 7900,
      "áĭ°áĭŃ": 7901,
      "ĠáĭŃáĮłáĭŃáīģ": 7902,
      "Ġáĭ¨áįĵáĪŃáī²": 7903,
      "áĪĿáĪ³": 7904,
      "áĬ«áī¸áĭį": 7905,
      "ĠáĪĪáī¥áī»": 7906,
      "ĠáīłáĬ¥áĮĥ": 7907,
      "Ġáĭ³áī¦": 7908,
      "ĠáįĵáĪŃáĪĭáĪĽ": 7909,
      "áĭĬáĭį": 7910,
      "ĠáĭĭáĬĲáĬĽáĭį": 7911,
      "Ġ44": 7912,
      "ĠáĬłáĭ°áĮĭáĭİáī½": 7913,
      "ĠáĪĬáĭįáĪį": 7914,
      "Ġáĭ¨áĪ«áĪ³áī¸áĭį": 7915,
      "ĠáĪĺáĭĽáĪĻáĪŃáī±": 7916,
      "Ġáĭ«áĬķáī°": 7917,
      "áī»áī¸áĭįáĪĿ": 7918,
      "34": 7919,
      "áĬķáīħáĪįáįį": 7920,
      "ĠáīłáĪĺáĬ«": 7921,
      "ĠáĮłáĬķáĬŃ": 7922,
      "Ġáĭ«áĬĲ": 7923,
      "ĠáĪĪáĪĺáįĪáĪĪáĮį": 7924,
      "ĠáĪĺáĬĸáĪ©áĬķ": 7925,
      "áĬ«áĬ¤áĪį": 7926,
      "ĠáĪ°áĬ¨": 7927,
      "ĠáĪŀáĬĿ": 7928,
      "áĪ®áįķáĪĭáĬķ": 7929,
      "ĠáĬłáī³áĭįáīħáĪĿ": 7930,
      "80": 7931,
      "ĠáĬłáĪ¥áĪ«": 7932,
      "ĠáĬ¨áįĬáīµ": 7933,
      "ĠáĪĪáĭĽ": 7934,
      "ĠáĪ²áįĪ": 7935,
      "ĠáĬ¥áĪĨáĬĵáĪĪáĪģ": 7936,
      "áĬĲáīµáĪĿ": 7937,
      "Ġáĭ¨áĪ¥áĬĲ": 7938,
      "áĮįáĪŀ": 7939,
      "ĠáĪĪáĭµáĪŃ": 7940,
      "Ġáī°áĬĲáĮį": 7941,
      "ĠáĮħáĪĿáĪŃ": 7942,
      "Ġáĭ¨áĪļáĭ«áĭ°áĪŃáĮīáīµ": 7943,
      "ĠáĬ¥áĪŃáĮ¥": 7944,
      "ĠMac": 7945,
      "ĠáĬłáĪµáī°áĭ³áĭ³áĪª": 7946,
      "Ġáīłáī£áĪħáĪŃ": 7947,
      "áī¡áĬĵ": 7948,
      "Ġ300": 7949,
      "áĭŃáĪµ": 7950,
      "ĠáĬ¥áĬķáĭ°áĪļáĪīáīµ": 7951,
      "áĪĦáĭ°áĭį": 7952,
      "ĠáĬłáĭŃáī¼": 7953,
      "ĠáĪķáįĥ": 7954,
      "Ġáī¢áĪį": 7955,
      "Ġáĭ¨áĪļáī³áĭĪáīħ": 7956,
      "Ġáĭ¨áĪľ": 7957,
      "Ġáĭ¶áĪ®": 7958,
      "Ġáĭ®áĬĵ": 7959,
      "ĠáĪĿáĬķáĭĽáĪ¬": 7960,
      "ĠáīłáĪħáĭŃáĭĪ": 7961,
      "ĠáĮ¥áīĤáī¶áī½": 7962,
      "ĠáĪĽáĬ¨áĪĽáī»": 7963,
      "ĠáĪĶ": 7964,
      "ĠáĪĿáĬŃáĬķáĭ«áī³áĭĬ": 7965,
      "ĠáīłáĪĽáĪ°áī¥": 7966,
      "ĠáĬ¨áĬĥ": 7967,
      "ĠáĪĺáī³áĭĪáīĤáĭ«": 7968,
      "ĠáīłáĪ¦": 7969,
      "áĬ¨áĪ«áĪį": 7970,
      "ĠáĬłáĮłáįĭ": 7971,
      "áī°áĪ¨": 7972,
      "áī£áĬŃ": 7973,
      "áĬķáĮ»": 7974,
      "Ġáĭ¨áĪ°áĮłáĭį": 7975,
      "áĭ³áĪªáĭİáī½": 7976,
      "ĠáīłáĮĢáĪŃáĪĺáĬķ": 7977,
      "Ġáĭ¨áĪļáī³áĭ¨áĭį": 7978,
      "ĠáĬŃáĪĪáī¦áī½": 7979,
      "áĭįáĪŃ": 7980,
      "áĪįáĭ©": 7981,
[...]
