{
  "version": "1.0",
  "truncation": null,
  "padding": null,
  "added_tokens": [
    {
      "id": 0,
      "content": "<unk>",
      "single_word": false,
      "lstrip": false,
      "rstrip": false,
      "normalized": false,
      "special": true
    },
    {
      "id": 1,
      "content": "<s>",
      "single_word": false,
      "lstrip": false,
      "rstrip": false,
      "normalized": false,
      "special": true
    },
    {
      "id": 2,
      "content": "</s>",
      "single_word": false,
      "lstrip": false,
      "rstrip": false,
      "normalized": false,
      "special": true
    },
    {
      "id": 3,
      "content": "<pad>",
      "single_word": false,
      "lstrip": false,
      "rstrip": false,
      "normalized": false,
      "special": true
    },
    {
      "id": 4,
      "content": "<mask>",
      "single_word": false,
      "lstrip": false,
      "rstrip": false,
      "normalized": false,
      "special": true
    }
  ],
  "normalizer": {
    "type": "NFC"
  },
  "pre_tokenizer": {
    "type": "ByteLevel",
    "add_prefix_space": true,
    "trim_offsets": true,
    "use_regex": true
  },
  "post_processor": null,
  "decoder": {
    "type": "ByteLevel",
    "add_prefix_space": true,
    "trim_offsets": true,
    "use_regex": true
  },
  "model": {
    "type": "BPE",
    "dropout": null,
    "unk_token": "<unk>",
    "continuing_subword_prefix": null,
    "end_of_word_suffix": null,
    "fuse_unk": false,
    "byte_fallback": false,
    "ignore_merges": false,
    "vocab": {
      "<unk>": 0,
      "<s>": 1,
      "</s>": 2,
      "<pad>": 3,
      "<mask>": 4,
      "!": 5,
      "\"": 6,
      "#": 7,
      "$": 8,
      "%": 9,
      "&": 10,
      "'": 11,
      "(": 12,
      ")": 13,
      "*": 14,
      "+": 15,
      ",": 16,
      "-": 17,
      ".": 18,
      "/": 19,
      "0": 20,
      "1": 21,
      "2": 22,
      "3": 23,
      "4": 24,
      "5": 25,
      "6": 26,
      "7": 27,
      "8": 28,
      "9": 29,
      ":": 30,
      ";": 31,
      "<": 32,
      "=": 33,
      ">": 34,
      "?": 35,
      "@": 36,
      "A": 37,
      "B": 38,
      "C": 39,
      "D": 40,
      "E": 41,
      "F": 42,
      "G": 43,
      "H": 44,
      "I": 45,
      "J": 46,
      "K": 47,
      "L": 48,
      "M": 49,
      "N": 50,
      "O": 51,
      "P": 52,
      "Q": 53,
      "R": 54,
      "S": 55,
      "T": 56,
      "U": 57,
      "V": 58,
      "W": 59,
      "X": 60,
      "Y": 61,
      "Z": 62,
      "[": 63,
      "\\": 64,
      "]": 65,
      "^": 66,
      "_": 67,
      "a": 68,
      "b": 69,
      "c": 70,
      "d": 71,
      "e": 72,
      "f": 73,
      "g": 74,
      "h": 75,
      "i": 76,
      "j": 77,
      "k": 78,
      "l": 79,
      "m": 80,
      "n": 81,
      "o": 82,
      "p": 83,
      "q": 84,
      "r": 85,
      "s": 86,
      "t": 87,
      "u": 88,
      "v": 89,
      "w": 90,
      "x": 91,
      "y": 92,
      "z": 93,
      "{": 94,
      "|": 95,
      "}": 96,
      "~": 97,
      "¡": 98,
      "¢": 99,
      "£": 100,
      "¤": 101,
      "¥": 102,
      "¦": 103,
      "§": 104,
      "¨": 105,
      "©": 106,
      "ª": 107,
      "«": 108,
      "¬": 109,
      "®": 110,
      "¯": 111,
      "°": 112,
      "±": 113,
      "²": 114,
      "³": 115,
      "´": 116,
      "µ": 117,
      "¶": 118,
      "·": 119,
      "¸": 120,
      "¹": 121,
      "º": 122,
      "»": 123,
      "¼": 124,
      "½": 125,
      "¾": 126,
      "¿": 127,
      "Â": 128,
      "Ã": 129,
      "Ä": 130,
      "Å": 131,
      "Æ": 132,
      "Ç": 133,
      "É": 134,
      "Ê": 135,
      "Ë": 136,
      "Ì": 137,
      "Î": 138,
      "Ï": 139,
      "Ð": 140,
      "Ñ": 141,
      "Ò": 142,
      "Ö": 143,
      "×": 144,
      "Ø": 145,
      "Ù": 146,
      "Ú": 147,
      "Û": 148,
      "Ü": 149,
      "ß": 150,
      "à": 151,
      "á": 152,
      "â": 153,
      "ã": 154,
      "ä": 155,
      "å": 156,
      "æ": 157,
      "ç": 158,
      "è": 159,
      "é": 160,
      "ê": 161,
      "ë": 162,
      "ì": 163,
      "í": 164,
      "ï": 165,
      "ð": 166,
      "Ġ": 167,
      "Ģ": 168,
      "ģ": 169,
      "Ĥ": 170,
      "ĥ": 171,
      "Ħ": 172,
      "ħ": 173,
      "Ĩ": 174,
      "ĩ": 175,
      "Ī": 176,
      "ī": 177,
      "Ĭ": 178,
      "ĭ": 179,
      "Į": 180,
      "į": 181,
      "İ": 182,
      "ı": 183,
      "Ĳ": 184,
      "ĳ": 185,
      "Ĵ": 186,
      "ĵ": 187,
      "Ķ": 188,
      "ķ": 189,
      "ĸ": 190,
      "Ĺ": 191,
      "ĺ": 192,
      "Ļ": 193,
      "ļ": 194,
      "Ľ": 195,
      "ľ": 196,
      "Ŀ": 197,
      "ŀ": 198,
      "Ł": 199,
      "ł": 200,
      "Ń": 201,
      "áĪ": 202,
      "áĬ": 203,
      "áĭ": 204,
      "áī": 205,
      "ĠáĬ": 206,
      "áį": 207,
      "áĮ": 208,
      "ĠáĪ": 209,
      "Ġáĭ": 210,
      "áĬķ": 211,
      "áī¥": 212,
      "áīµ": 213,
      "áĪĿ": 214,
      "áĭŃ": 215,
      "ĠáĬ£": 216,
      "ĠáĬ¥": 217,
      "áį¢": 218,
      "áĪį": 219,
      "áĪŃ": 220,
      "áī°": 221,
      "áĪµ": 222,
      "ĠáĮ": 223,
      "áĪĪ": 224,
      "áĬĵ": 225,
      "áīł": 226,
      "ĠáĬ¥áĭ": 227,
      "áī²": 228,
      "ĠáĭĿ": 229,
      "ĠáĬķ": 230,
      "áī³": 231,
      "áĬĲ": 232,
      "áį¡": 233,
      "Ġáī¥": 234,
      "áĬ¥": 235,
      "ĠáĪĺ": 236,
      "ĠáĬŃ": 237,
      "áĬ£": 238,
      "ĠáĪĿ": 239,
      "áĭµ": 240,
      "ĠáĬ¨": 241,
      "ĠáĬ£áī¥": 242,
      "áĪ¨": 243,
      "áī£": 244,
      "áĪĺ": 245,
      "áĪķ": 246,
      "áĪĭ": 247,
      "áĪ«": 248,
      "áįį": 249,
      "áĮĪ": 250,
      "áĭį": 251,
      "áĭķ": 252,
      "áĪĽ": 253,
      "áĮį": 254,
      "áĭ°": 255,
      "áĪī": 256,
      "Ġáĭĺ": 257,
      "Ġáī": 258,
      "áĪİ": 259,
      "ĠáĬĲ": 260,
      "Ġáī°": 261,
      "áĬ½": 262,
      "áĬ«": 263,
      "ĠáĬĵ": 264,
      "ĠáĪĵ": 265,
      "áĭĿ": 266,
      "áĪĵ": 267,
      "ĠáĭŃ": 268,
      "ĠáĬ¥áĭ©": 269,
      "áĭ«": 270,
      "áĪ°": 271,
      "áĭļ": 272,
      "ĠáĬ¢": 273,
      "áįĪ": 274,
      "ĠáĪ°": 275,
      "áĭĵ": 276,
      "ĠáĪµ": 277,
      "Ġáĭµ": 278,
      "áĪª": 279,
      "áĪ³": 280,
      "áĮ½": 281,
      "áĭĪ": 282,
      "ĠáĬ«": 283,
      "ĠáĮį": 284,
      "ĠáĬ¨áĪĿ": 285,
      "áĭ³": 286,
      "ĠáĬ¥áĬķ": 287,
      "ĠáĬ£áĭŃ": 288,
      "áī¶": 289,
      "áĪĬ": 290,
      "áĬŃ": 291,
      "áī³áīµ": 292,
      "ĠáĭĪ": 293,
      "Ġáĭĵ": 294,
      "áĬ»": 295,
      "áĭ©": 296,
      "áĭİ": 297,
      "áĭĬ": 298,
      "Ġáīµ": 299,
      "áĪ©": 300,
      "ĠáĬĵáĭŃ": 301,
      "áĪħ": 302,
      "áĭ¨": 303,
      "áĬ¨": 304,
      "áĮ¥": 305,
      "áīķ": 306,
      "áĬ©": 307,
      "áĬ¡": 308,
      "áĬ¸": 309,
      "ĠáĬ«áī¥": 310,
      "áĭĽ": 311,
      "áĭĺ": 312,
      "ĠáĬ¥áī²": 313,
      "ĠáĪķ": 314,
      "áĭĭ": 315,
      "Ġ\"": 316,
      "áī¢": 317,
      "Ġáīł": 318,
      "ĠáĭµáĪĽ": 319,
      "áĮĭ": 320,
      "áĭ®": 321,
      "áĭįáĬķ": 322,
      "áĬĴ": 323,
      "Ġáĭ°": 324,
      "áĪ®": 325,
      "áĬ¹": 326,
      "áĭ²": 327,
      "ĠáĬ¥áĭļ": 328,
      "ĠáĮĪ": 329,
      "áĪĥ": 330,
      "ĠáĪĿáĪµ": 331,
      "áĪļ": 332,
      "áĬĳ": 333,
      "áį£": 334,
      "áī¶áĪĿ": 335,
      "áī¡": 336,
      "áĬĲáīµ": 337,
      "Ġáĭ¨": 338,
      "áī±": 339,
      "áĪ±": 340,
      "áĪ²": 341,
      "ĠáĪħ": 342,
      "áĮ¸": 343,
      "áĮ»": 344,
      "áĬ©áĪĿ": 345,
      "áĮł": 346,
      "ĠáĪĽ": 347,
      "ĠáĭĺáĭŃ": 348,
      "áī¦": 349,
      "ĠáĬ¥áĬķáī°": 350,
      "ĠáĬĵáī¥": 351,
      "áĬ¦": 352,
      "áĪ½": 353,
      "ĠáĪĥ": 354,
      "áĪŀ": 355,
      "ĠáĪĺáĬķ": 356,
      "Ġáįį": 357,
      "Ġáĭį": 358,
      "ĠáĪµáĪĪ": 359,
      "ĠáĬ¸": 360,
      "Ġ1": 361,
      "Ġáį": 362,
      "áīµáĬķ": 363,
      "áĭ±": 364,
      "áĪİáĪĿ": 365,
      "Ġáĭļ": 366,
      "ĠáĭĿáī°": 367,
      "áīłáĪŃ": 368,
      "ĠáĬ£áĪĪ": 369,
      "áĪĻ": 370,
      "áĪĿáĪĭ": 371,
      "áīħ": 372,
      "Ġáīħ": 373,
      "áī¥áĪį": 374,
      "áīĲ": 375,
      "ĠáĮ¥": 376,
      "áĬ½áĬ¥": 377,
      "áīĢ": 378,
      "áĬ¾": 379,
      "áĬ®": 380,
      "ĠáĪ°áī¥": 381,
      "áī³áĭŃ": 382,
      "ĠáĬŃáīµ": 383,
      "ĠáĪĵáĭ°": 384,
      "Ġáĭķ": 385,
      "ĠáĬ©": 386,
      "ĠáĬŃáĬķ": 387,
      "áĬ¢": 388,
      "áĪĿáĪĭáĬ½": 389,
      "áĮĪáĪŃ": 390,
      "ĠáĮ¸": 391,
      "áīłáĪ¨": 392,
      "ĠáĬ¨áĬ£": 393,
      "ĠáĪį": 394,
      "ĠáĬ£áĪİ": 395,
      "áĬł": 396,
      "áĭĻ": 397,
      "Ġ2": 398,
      "ĠáīĢ": 399,
      "áĭī": 400,
      "áįĭ": 401,
      "áīĤ": 402,
      "Ġáī£": 403,
      "ĠáĬª": 404,
      "ĠáĭĺáĪĪ": 405,
      "ĠáĬ®": 406,
      "áĭ¶": 407,
      "áĭľ": 408,
      "ĠáĮ½": 409,
      "áī¥áĪŃ": 410,
      "áĮº": 411,
      "áĭĵáĪį": 412,
      "áĬ½áĬ¥áĪį": 413,
      "ĠáĪŃ": 414,
      "áĭĳ": 415,
      "áĪĿáĬķ": 416,
      "áī£áīµ": 417,
      "Ġ(": 418,
      "ĠáĭĺáĪİ": 419,
      "ĠáĬ¥áĭ¨": 420,
      "ĠáĬ£áĪĿáĪĭáĬ½": 421,
      "ĠáĮįáĬķ": 422,
      "áĬª": 423,
      "áĬ¹áĪĿ": 424,
      "ĠáĬ¥áĭ®": 425,
      "ĠáĬł": 426,
      "ĠáįĪ": 427,
      "ĠáĬĲáī²": 428,
      "ĠáĬ¥áĭį": 429,
      "áīĥ": 430,
      "ĠáĬ¥áĭįáĬķ": 431,
      "áĮ£": 432,
      "ĠáĬ¥áĭ®áĪĿ": 433,
      "áĪ«áīµ": 434,
      "áĪĳ": 435,
      "ĠáĭĪáĭŃ": 436,
      "áįĪáĪį": 437,
      "ĠáĬĲáĭŃ": 438,
      "áĪĴ": 439,
      "ĠáĮįáĬĵ": 440,
      "Ġáī¤": 441,
      "ĠáĬķáĪĿ": 442,
      "áĮĬ": 443,
      "áĭ«áĬķ": 444,
      "áĪ«áĪķ": 445,
      "áĮ¢": 446,
      "ĠáĪħáĭĿ": 447,
      "ĠáĭĵáĪĺ": 448,
      "Ġ-": 449,
      "..": 450,
      "áĮī": 451,
      "áĬĸ": 452,
      "áĬ¤": 453,
      "áĬ¸áĭįáĬķ": 454,
      "ĠáĭĿáĬĲ": 455,
      "áĬ¦áĪĿ": 456,
      "áĬ¾áĬĲ": 457,
      "áĬ£áī¥": 458,
      "áĪĪáīµ": 459,
      "ĠáĬ¥áĬķáī³áĭŃ": 460,
      "Ġ'": 461,
      "áīĵ": 462,
      "ĠáĬ¢áĬĵ": 463,
      "áĭķáī£": 464,
      "áĪ«áĭŃ": 465,
      "Ġáī¥áĪĿ": 466,
      "áĭ«áīµ": 467,
      "áĬķáī²": 468,
      "ĠáĬ¥áĪĿ": 469,
      "Ġáī¥áĭĻ": 470,
      "áĬĽ": 471,
      "áĬº": 472,
      "ĠáĮįáĭľ": 473,
      "áĭŃáĬĳ": 474,
      "ĠáĬ¤": 475,
      "áĪĪáĪĿ": 476,
      "ĠáĪ½": 477,
      "ĠáĬ½": 478,
      "ĠáĬ«áĪį": 479,
      "áĪµáī²": 480,
      "áĪĺáĭŃ": 481,
      "áĪįáĬĵ": 482,
      "áĮ¹": 483,
      "ĠáĭĿáīł": 484,
      "áĬĲáĬķ": 485,
      "ĭáĬķ": 486,
      "áĮįáĭļ": 487,
      "áĭ®áĪĿ": 488,
      "ĠáĮī": 489,
      "ĠáĬ¢áĭ©": 490,
      "áĭİáĪĿ": 491,
      "áīłáĭŃ": 492,
      "áįĬ": 493,
      "áĭĪáīµ": 494,
      "áĪĭáīµ": 495,
      "Ġáī¥áĭĽ": 496,
      "áĭĺáĭŃ": 497,
      "áįī": 498,
      "áĪĺáĬķ": 499,
      "áĭĴ": 500,
      "ĠáĪ°áī£áīµ": 501,
      "áĪ®áĪĿ": 502,
      "ĠáĪĺáĭĵáĪį": 503,
      "áĮĤ": 504,
      "ĠáĬ¸áĬ£": 505,
      "áĮĪáĪį": 506,
      "áĪķáĪª": 507,
      "Ġáī¥áĭĽáĭķáī£": 508,
      "ĠáĬ©áĪī": 509,
      "ĠáĬ£áĬĲ": 510,
      "ĠáĬ¥áī¶áĪĿ": 511,
      "áį§": 512,
      "áĪ¨áīµ": 513,
      "Ġáį¡": 514,
      "áĪĵáīµ": 515,
      "ĠáĬ¨áĭŃ": 516,
      "áĬĵáĬķ": 517,
      "áĭĵáīµ": 518,
      "áĮĪáī¥": 519,
      "áĪµáī°": 520,
      "áĪ³áī¥": 521,
      "áĭĥ": 522,
      "áī£áĪŃ": 523,
      "ĠáĬĲáĭļ": 524,
      "áĪĪáĬķ": 525,
      "ĠáĬķáĪ±": 526,
      "áĭķáĪĬ": 527,
      "áĮİ": 528,
      "áĪŃáĪµ": 529,
      "áĭŃáĬķ": 530,
      "Ġáį¢": 531,
      "ĠáĬ¥áī°": 532,
      "Ġáīĥ": 533,
      "ĠáĬ¥áĬĵ": 534,
      "ĠáĬĲáĮĪáĪŃ": 535,
      "ĠáĬ¥áĮįáĭļ": 536,
      "ĠáĬ£áĭŃáĬ®": 537,
      "áĪĺáĪµ": 538,
      "áī³áĭĬ": 539,
      "áĪĲ": 540,
      "áĪ«áĭĬ": 541,
      "ĠáĬ£áī¥áĭļ": 542,
      "ĠáĬ¥áĭ«": 543,
      "ĠáĬ¥áĪŀ": 544,
      "áĪ¬": 545,
      "ĠáĬķáĪµ": 546,
      "áĪ°áĪŃ": 547,
      "áĪįáĬ«": 548,
      "áī¥áĪī": 549,
      "ĠáĪĪ": 550,
      "ĠáĪħáĭĿáī¢": 551,
      "Ġáīħáĭµ": 552,
      "áĪ¶": 553,
      "áĪħáĪŃ": 554,
      "ĠáĭĵáĪĺáīµ": 555,
      "ĠáĬŃáĪį": 556,
      "áĪĨ": 557,
      "áĪĺáĪŃ": 558,
      "ĠáĪ¨": 559,
      "Ġáī¥áĪĵ": 560,
      "Ġáĭľ": 561,
      "áĬ³": 562,
      "áĪŃáĬ¨": 563,
      "ĠáĬ¥áīµ": 564,
      "Ġáī¤áīµ": 565,
      "áĪ±áĪµ": 566,
      "áĪŃáĬ¥": 567,
      "ĠáĪĿáĭµ": 568,
      "áĪĶ": 569,
      "ĠáĪŀ": 570,
      "ĠáĭĵáĪĪáĪĿ": 571,
      "ĠáĬĲáĭŃáĪ©": 572,
      "ĠáĬ£áĭŃáīµ": 573,
      "áĮ¡": 574,
      "áįħ": 575,
      "ĠáĬ£áĬķ": 576,
      "ĠáĪķáĮĤ": 577,
      "Ġ3": 578,
      "áį¥": 579,
      "ĠáĬ¢áĪī": 580,
      "áĪįáĬķ": 581,
      "ĠáĪİ": 582,
      "ĠáĬ¨áĪĿáĭĿ": 583,
      "áĬĵáīµ": 584,
      "áį¤": 585,
      "ĠáĪĿáĬ½": 586,
      "Ġ20": 587,
      "áĪ¸": 588,
      "ĠáĪĥáĮĪáĪŃ": 589,
      "áĪŃáīµ": 590,
      "ĠáĪ³": 591,
      "áĮĢ": 592,
      "ĠáĬ¢áĬ»": 593,
      "áī°áĭŃ": 594,
      "áĬ£áĭŃ": 595,
      "áĭįáĭ«áĬķ": 596,
      "ĠáĪĿáĭĥ": 597,
      "Ġáĭĭ": 598,
      "ĠáĭĿáĪĵ": 599,
      "ĠáĮĢ": 600,
      "Ġáī°áĪĺ": 601,
      "ĠáĬ¥áī³": 602,
      "ĠáĬ¥áĭĭáĬķ": 603,
      "Ġáī¥áĭĻáĪķ": 604,
      "ĠáĪµáĪĪáĭļ": 605,
      "ĠáĬ£áī¥áī²": 606,
      "áĮĪáī¥áĪŃ": 607,
      "ĠáĪĺáĪį": 608,
      "ĠáĪŃáĬ¥": 609,
      "ĠáĪĺáĭĵáĪįáī²": 610,
      "ĠáĮ¥áĪ«áĭŃ": 611,
      "Ġáī¥áĭĿ": 612,
      "ĠáĬµ": 613,
      "ĠáĪĥáĮĪ": 614,
      "ĠáĪĽáĪĪáīµ": 615,
      "Ġáĭ³": 616,
      "áĪĶáĪŃ": 617,
      "áĪĿáĪħáĪŃ": 618,
      "áĪĪáĭŃ": 619,
      "ĠáĬ¨áī°": 620,
      "ĠáĬ¨áĪĿáĭļ": 621,
      "ĠáĬ¨áĪĿáĬ¡": 622,
      "áĪĵáįį": 623,
      "áĬĵáĭŃ": 624,
      "áįĪáĪįáĮ¥": 625,
      "áĪĮ": 626,
      "áĪľ": 627,
      "ĠáĪļ": 628,
      "áĭĽáĪ¨": 629,
      "ĠáĬķáĬ£": 630,
      "ĠáĪĺáĮ½": 631,
      "ĠáĪĺáĪ°": 632,
      "ĠáĪİáĪļ": 633,
      "áĭµáĪį": 634,
      "ĠáĬ£áĭŃáĬ®áĬĲáĬķ": 635,
      "ĠáĪĺáĬķáĮį": 636,
      "áĭŃáĭĪáīµ": 637,
      "áīłáĪ©": 638,
      "áĭŀ": 639,
      "áĪĤ": 640,
      "áĮħ": 641,
      "Ġáī³": 642,
      "Ġáīħáĭ±": 643,
      "áī°áĬķ": 644,
      "áīłáĪį": 645,
      "ĠáĮł": 646,
      "ĠáĪĿáĬ¥": 647,
      "áĪ»": 648,
      "Ġáī¦": 649,
      "áĪĽáĭŃ": 650,
      "ĠáĪĿáĬķ": 651,
      "áĪ°áī¥": 652,
      "ĠáĭĿáĬ¾áĬĲ": 653,
      "áĬķáĬķ": 654,
      "ĠáĪĺáĪµ": 655,
      "áĭĢ": 656,
      "ĠáĬ¥áĮįáĭļáĬ£áī¥": 657,
      "ĠáĭµáĪķáĪª": 658,
      "Ġáĭ¶": 659,
      "ĠáĪµáĪ«áĪķ": 660,
      "ĠáĭĿáī¥áĪį": 661,
      "ĠáĬķáĭĵ": 662,
      "ĠáĬ¥áĪµ": 663,
      "áĪĭáĭŃ": 664,
      "ĠáīħáĭµáĪļ": 665,
      "áĮ½áĬ¥": 666,
      "áĭ³áĭŃ": 667,
      "áĬ¹áĬķ": 668,
      "ĠáĬº": 669,
      "áĪĿáĪŃ": 670,
      "ĠáĬķáĪķ": 671,
      "áĭ³áĬ¥": 672,
      "ĠáĬ£áī¦": 673,
      "áįİ": 674,
      "áĬ£áīµ": 675,
      "áĮĪáĭ²": 676,
      "áīĳ": 677,
      "ĠáĬ®áĭŃáĬĳ": 678,
      "ĠáĭĿáĬĲáīłáĪ¨": 679,
      "áĪĥáĪį": 680,
      "ĠáĬ¸áĪĿ": 681,
      "áĮ¦": 682,
      "ĠáĪįáĭķáĪĬ": 683,
      "ĠáĬ£áī£": 684,
      "ĠáĬ£áįį": 685,
      "ĠáĭŃáĬ½áĬ¥áĪį": 686,
      "áī¦áĪĿ": 687,
      "áĭ°áĭŃ": 688,
      "áĪµáīµ": 689,
      "áĪŃáĭ«": 690,
      "áī¤": 691,
      "ĠáĬŃáĪ³áī¥": 692,
      "áĪĭáĪĪ": 693,
      "Ġáīħáĭ±áĪµ": 694,
      "Ġáĭ°áīĤ": 695,
      "ĠáĬŃáĪŃáĪµ": 696,
      "áīĨ": 697,
      "áĪŃáĬķ": 698,
      "áĪ¨áĬ½": 699,
      "ĠáĬ«áĪįáĬ¥": 700,
      "áĭĲ": 701,
      "ĠáĬ¨áĪĺáĭŃ": 702,
      "ĠáĭĿáĪĺ": 703,
      "áĮįáī£": 704,
      "ĠáīĥáĪį": 705,
      "áĬ¤áĪį": 706,
      "ĠáĬ»": 707,
      "ĠáĭĪáĭ²": 708,
      "Ġ4": 709,
      "ĠáĬĲáĮĪ": 710,
      "ĠáĪĿáĪŃ": 711,
      "áĪĦ": 712,
      "Ġáī¥áĪŃ": 713,
      "ĠáĪµáĪĿ": 714,
      "ĠáĬ¥áĪĿáīłáĪŃ": 715,
      "ĠáĭĵáĭŃ": 716,
      "áĭŃáī³": 717,
      "ĠáĬĲáīłáĪ¨": 718,
      "áĭ°áĪį": 719,
      "...": 720,
      "ĠáĬķáĪµáĬ»": 721,
      "ĠáĬķáĪĵ": 722,
      "áĬ°": 723,
      "ĠáĪĿáĬ½áĬķ": 724,
      "áĭµáĬķ": 725,
      "áĪŃáĬĵ": 726,
      "ĠáĬ£áĪĪáĭİ": 727,
      "ĠáĬ¤áĪŃáīµ": 728,
      "áĪŃáĬ¨áī¥": 729,
      "áĬĲáī³áīµ": 730,
      "ĠáĬŃáĪįáī°": 731,
      "áĪĭáĪĿ": 732,
      "ĠáīµáĪĿáĪħáĪŃ": 733,
      "áĭĸ": 734,
      "áĮĥ": 735,
      "áĪ´": 736,
      "ĠáĮĮ": 737,
      "ĠáĮĪáĪĪ": 738,
      "áīµáĬĵ": 739,
      "Ġáī¦áī³": 740,
      "áīĭ": 741,
      "ĠáĮİ": 742,
      "áĬ¦áīµ": 743,
      "áĭ°áĬķ": 744,
      "ĠáĬ£áĭĿ": 745,
      "ĠáĪĺáĮ½áĪĵáįį": 746,
      "ĠáĭŃáĬ¹áĬķ": 747,
      "ĠáĪµáĪŃ": 748,
      "áĬĸáĪĿ": 749,
      "Ġ.": 750,
      "ĠáĬ£áĮĪ": 751,
      "áī¥áĪ¨": 752,
      "áĬŃáī¥": 753,
      "ĠáĬŃáįį": 754,
      "ĠáĬ£áĭŃáī°": 755,
      "Ġáī¥áĭĺáĭŃ": 756,
      "ĠáĪķáī¶": 757,
      "áĪĿáĪį": 758,
      "Ġáĭ¨áĪ±áĪµ": 759,
      "áĪĽáīµ": 760,
      "ĠáĬ£áĭ¨": 761,
      "ĠáĬķáĪ³": 762,
      "áĭª": 763,
      "áĪŃáĬ«": 764,
      "ĠáĬ¥áĬ³": 765,
      "ĠáĮĪáĭĽ": 766,
      "Ġáĭ²": 767,
      "áĪµáĬķ": 768,
      "áĪĿáĬķáī³áĭŃ": 769,
      "ĠáĭĺáĪĪáĭİ": 770,
      "áĬ¨áĬ£": 771,
      "áĬ¥áī²": 772,
      "Ġáīłáĭļ": 773,
      "ĠáĪĻ": 774,
      "ĠáĬ£áĪµ": 775,
      "ĠáĬķáĭĿ": 776,
      "áįĥ": 777,
      "Ġáįĸ": 778,
      "áĪĽáĭķ": 779,
      "áĬŃáīµ": 780,
      "áĮĲ": 781,
      "áīµáĬ©áĪĿ": 782,
      "ĠáĪĿáĪ³": 783,
      "áī¡áīķ": 784,
      "áĪģ": 785,
      "Ġáīģ": 786,
      "ĠáĪĵáĬķáī²": 787,
      "ĠáĪĿáĭµáĪª": 788,
      "ĠáĬ¤áĪŃáīµáĪ«": 789,
      "áĭµáĪķ": 790,
      "áįĪáīµ": 791,
      "ĠáĬķáĬ½": 792,
      "00": 793,
      "áĪ¬áī³": 794,
      "áĬ«áĬķ": 795,
      "ĠáĬķáĬ¥": 796,
      "áī£áī¥": 797,
      "ĠáĬ£áĬ«": 798,
      "Ġ5": 799,
      "áīłáĪĪ": 800,
      "ĠáĮĲ": 801,
      "áĪ°áĪĿ": 802,
      "áĬķáĭĺ": 803,
      "áĪİáīµ": 804,
      "ĠáĭĿáĭĪ": 805,
      "ĠáĬ°": 806,
      "ĠáĪĽáĪķ": 807,
      "ĠáĪĿáĭĥáĬĳ": 808,
      "áĪīáĬ¥": 809,
      "ĠáĬ£áĪĺ": 810,
      "ĠáĪĺáĬķáĮįáĪµáī²": 811,
      "ĠáĪĵáīł": 812,
      "áī¥áĪª": 813,
      "ĠáĬ¢áĬ¹áĪĿ": 814,
      "áĮ£áĬķ": 815,
      "áĮĪáĪįáĮį": 816,
      "Ġáī°áĭĪ": 817,
      "áīłáīµ": 818,
      "áĮįáī£áĪŃ": 819,
      "ĠáĪĺáĪŃ": 820,
      "ĠáĬ¨áĪĿáī²": 821,
      "ĠáĭĿáĮĪ": 822,
      "ĠáĬŃáĬ¸áĭįáĬķ": 823,
      "ĠáĪ¸": 824,
      "ĠáīłáĪĪ": 825,
      "áī¥áĬķ": 826,
      "áĪ³áĭķ": 827,
      "ĠáĪĵáīĤ": 828,
      "áī³áīµáĬķ": 829,
      "ĠáĪĿáĬ¥áĬķáī²": 830,
      "áīģ": 831,
      "ĠáĮĪáĭŃ": 832,
      "áĭŃáī²": 833,
      "ĠáĬĲáī¶áĪĿ": 834,
      "áī¥áĪĪ": 835,
      "ĠáīµáĪĿáĪħáĪŃáī²": 836,
      "áĬ¥áĬķ": 837,
      "ĠáĪħáĭŃáĭĪáīµ": 838,
      "ĠáĬķáĪķáĬĵ": 839,
      "áĪīáĬķ": 840,
      "ĠáĮĬ": 841,
      "áĭµáĪ«": 842,
      "áĭŃáĭµ": 843,
      "Ġáī¥áĭĻáĪĵáīµ": 844,
      "áī£áĪį": 845,
      "Ġáī¤áī°": 846,
      "ĠáĪµáĪĪáĭĿ": 847,
      "áĮ¾": 848,
      "áĪħáĪį": 849,
      "áĪĦáĪŃ": 850,
      "ĠáĬĶ": 851,
      "áĪķáī²": 852,
      "ĠáĭĿáĬ£": 853,
      "áĪµáįĭ": 854,
      "ĠáĪĵáĭµ": 855,
      "áī°áĪŃ": 856,
      "ĠáīĨ": 857,
      "áī¶áĪµ": 858,
      "ĠáĭĵáĭŃáĬĲáīµ": 859,
      "áī£áĭķ": 860,
      "áĮįáĭ°": 861,
      "ĠáĬ¥áĭļáĬ£": 862,
      "áĮĵ": 863,
      "Ġáĭ°áĬ£": 864,
      "ĠáĬ¨áī°áĪĽ": 865,
      "Ġáī¥áĬ£": 866,
      "áĭ³áĬķ": 867,
      "ĠáĬ¥áĪµáĪ«": 868,
      "ĠáĪĵáīłáĪ¬áī³": 869,
      "áĪĸ": 870,
      "ĠáĮĪáĪĬ": 871,
      "ĠáĭįáĪ½": 872,
      "Ġáī°áīĲ": 873,
      "ĠáĪĿáĪķ": 874,
      "ĠáĪ½áĭĳ": 875,
      "ĠáĬ¢áĭ¨": 876,
      "ĠáĬ£áĪĪáĭī": 877,
      "áĬĽáī³áīµ": 878,
      "ĠáĭĪáĪŃ": 879,
      "ĠáĬ£áĪķ": 880,
      "ĠáĬ£áĭŃáĬĲ": 881,
      "áĪĥáĬķ": 882,
      "áĪĺáĪį": 883,
      "áĭ¶áĪĿ": 884,
      "ĠáĬ¨áĪĿáĭĺ": 885,
      "ĠáĪĺáĮį": 886,
      "Ġáī£áĭķ": 887,
      "áĪªáĬ«": 888,
      "ĠáĪĽáĬ¥": 889,
      "ĠáĭĿáīłáĪĪ": 890,
      "Ġáĭ®": 891,
      "áĪ°áĬķ": 892,
      "áī¥áĬĵ": 893,
      "áĪ°áĭŃ": 894,
      "ĠáĮ½áī¡áīķ": 895,
      "áĬŃáĬ¥": 896,
      "ĠáĬ£áĭį": 897,
      "ĠáĮīáĭ³áĭŃ": 898,
      "ĠáīĢáĭ³": 899,
      "ĠáĪĺáĭĪ": 900,
      "áįĢ": 901,
      "ĠáĬ¦": 902,
      "áįĪáĪĭáĪĪ": 903,
      "áĬŃáĪį": 904,
      "áī´": 905,
      "áĭ³áĬ¥áī³": 906,
      "áĮīáĪµ": 907,
      "áĮįáĪŃ": 908,
      "áĮĪáĪĿ": 909,
      "ĠáĭĿáĭĢ": 910,
      "áĭ°áĪĬ": 911,
      "ĠáĬ£áĪŃ": 912,
      "Ġáī¥áĬ¸": 913,
      "ĠáĬķáĪĺ": 914,
      "ĠáįįáĪŃ": 915,
      "Ġáīłáī²": 916,
      "ĠáĪĥáĮĪáĪ«áīµ": 917,
      "áĪµáĭķ": 918,
      "ĠáĪĵáĭŃ": 919,
      "ĠáĬĲáįį": 920,
      "áĪĨáĭĭ": 921,
      "ĠáĮĪáĬķáĭĺ": 922,
      "Ġáįķ": 923,
      "áīłáĪī": 924,
      "áĭ®áĬķ": 925,
      "ĠáĬ«áī¥áī²": 926,
      "áįĪáĪŃ": 927,
      "Ġáī°áĪµáįĭ": 928,
      "ĠáĬ«áĪįáĬ¦áīµ": 929,
      "áį¦": 930,
      "ĠáĬµáĪī": 931,
      "áĪŃáĬ¢": 932,
      "ĠáĪ°áĪĪ": 933,
      "Ġ201": 934,
      "ĠáĪĺáĭ°": 935,
      "ĠáĭĿáĬ¸": 936,
      "Ġ6": 937,
      "áĪĪáĪµ": 938,
      "áī£áĭŃ": 939,
      "áĭĬáīµ": 940,
      "áĪ¨áĬķ": 941,
      "áīĴ": 942,
      "áĪ«áĬķ": 943,
      "ĠáĬ»áī¥": 944,
      "ĠáĮĵ": 945,
      "ĠáĪķáĪĽ": 946,
      "áĬ½áĬ¥áĪī": 947,
      "áĮłáĬķ": 948,
      "ĠáĬ¢áĪİáĪĿ": 949,
      "ĠáĪ°áĪĭáĪĿ": 950,
      "ĠáĭŃáī¥áĪį": 951,
      "ĠáĬĲáĮĪáĪ«áīµ": 952,
      "ĠáĪµáĪį": 953,
      "áĭŀáĪĿ": 954,
      "áĬ®áĬĲ": 955,
      "áī°áĪĵ": 956,
      "áĪŃáī¥": 957,
      "áĬĲáī¥áĪŃ": 958,
      "Ġáī¥áįį": 959,
      "ĠáĪĺáĬķáįĪ": 960,
      "áĮ»áĬ¢": 961,
      "áĪĿáī²": 962,
      "ĠáĬ¥áĮįáĭļáĬ£áī¥áĪĶáĪŃ": 963,
      "ĠáįįáĪį": 964,
      "Ġáī³áĪª": 965,
      "áĭĽáĪ¨áī¥": 966,
      "Ġáī£áĪħ": 967,
      "áĪ¨áī£": 968,
      "Ġáī°áĪĵ": 969,
      "ĠáĬ¨áĪİ": 970,
      "ĠáĭĵáĪĺáī³áīµ": 971,
      "áĪĥáī¥": 972,
      "ĠáĬ¥áĭĽ": 973,
      "Ġ19": 974,
      "áĮ¸áĬķ": 975,
      "Ġáĭ¨áĪĪáĬķ": 976,
      "ĠáĪĿáĪĿ": 977,
      "ĠáĬ£áĬ¥": 978,
      "Ġáĭįáĭµ": 979,
      "áĪŃáĪķ": 980,
      "áīłáĭŃáī²": 981,
      "ĠáĬ½áīµ": 982,
      "ĠáĪĤ": 983,
      "ĠáĬ£áĭĿáĭ©": 984,
      "Ġáī¥áĪĺ": 985,
      "áīµáĭ®": 986,
      "áĮĪáĭĿ": 987,
      "áĪ¶áĪĿ": 988,
      "Ġáī¥áī°": 989,
      "ĠáĪĴ": 990,
      "áī£áī¢": 991,
      "áĭ°áīµ": 992,
      "áīłáĪ®": 993,
      "Ġáįįáīķ": 994,
      "áĮŃ": 995,
      "ĠáĪĿáĪį": 996,
      "áĪĭáĬ¥": 997,
      "áī£áĭĬ": 998,
      "áĮ«": 999,
      "áĬĶ": 1000,
      "áĪĻáĬķ": 1001,
      "áĮįáīłáĪŃ": 1002,
      "ĠáĬŃáĪŃáĪµáī¶áĪµ": 1003,
      "áĬłáī¥": 1004,
      "áĪĭáĬķ": 1005,
      "áĬ¨áįį": 1006,
      "ĠáĪĺáĭĪáĭ³áĬ¥áī³": 1007,
      "ĠáĬłáī¥": 1008,
      "áĬ½áī²": 1009,
      "ĠáĬ©áĬĲáī³áīµ": 1010,
      "áĪĽáĬķ": 1011,
      "Ġáī¥áĪµ": 1012,
      "áĭħ": 1013,
      "áĭµáĬĵ": 1014,
      "áī¥áĪİ": 1015,
      "ĠáĬ¥áĪµáĪ«áĬ¤áĪį": 1016,
      "ĠáĬ¬": 1017,
      "áĭķáĬĵ": 1018,
      "ĠáĪĭ": 1019,
      "ĠáĬ£áī¥áĬ¡": 1020,
      "áĮĪáī¥áĪ®": 1021,
      "áĪįáĬ©áĪĿ": 1022,
      "áī¥áĪ©": 1023,
      "áĪĿáĬĵ": 1024,
      "ĠáĮĢáĪļ": 1025,
      "Ġáī°áįĪ": 1026,
      "áĪŃáĭµ": 1027,
      "áĪ¨áĬ¸": 1028,
      "ĠáĮĬáĭľ": 1029,
      "Ġáĭµáĭ©": 1030,
      "ĠáĮĪáĬķáĭĺáī¥": 1031,
      "áĭŃáĬĵ": 1032,
      "ĠáĭįáĬķ": 1033,
      "áĬŃáĬķ": 1034,
      "áī±áĬķ": 1035,
      "áī²áĬ«": 1036,
      "Ġáĭ¨áĪĨáĭĭ": 1037,
      "áĭķáĪį": 1038,
      "áīĸ": 1039,
      "áĪĪáĮ¥": 1040,
      "áĬ¾áĬĳ": 1041,
      "ĠáĬ£áĪĪáĬ¹": 1042,
      "Ġ8": 1043,
      "áĪĵáĬķ": 1044,
      "ĠáĭĺáĪĪáĭī": 1045,
      "áįįáī²": 1046,
      "áī³áĬķ": 1047,
      "ĠáĭĿáĪĵáĪĪ": 1048,
      "áĬłáī¥áĪĶáĪŃ": 1049,
      "Ġáī°áī£": 1050,
      "Ġáĭķáĭµ": 1051,
      "áĪ¨áī¥": 1052,
      "áĬŃáĪŃ": 1053,
      "áīłáī¥": 1054,
      "ĠáīµáĬ½áĬ¥áĪį": 1055,
      "ĠáĪµáĪŃáĭĵáīµ": 1056,
      "ĠáĬķáĭĺ": 1057,
      "Ġáī°áĪ°": 1058,
      "Ġ7": 1059,
      "áĮįáī£áĬ¥": 1060,
      "ĠáĪĺáĮĪáĭ²": 1061,
      "áįĪáĪįáĮ¦": 1062,
      "ĠáĬ¥áĮįáĭļáĬ£áī¥áĪĦáĪŃ": 1063,
      "áĪįáĬ¥": 1064,
      "ĠáĪĺáī¥": 1065,
      "áĬ¨áīµ": 1066,
      "áĪĭáĪĽ": 1067,
      "ĠáĪµáĭµáĪ«": 1068,
      "áĬ¨áĭįáĬķ": 1069,
      "áĬĲáīµáĬķ": 1070,
      "áĪķáĮį": 1071,
      "ĠáĭĿáĭĵ": 1072,
      "áĭĪáĪµ": 1073,
      "áĭİáĬķ": 1074,
      "áĮįáī¥": 1075,
      "áĭ«áĭĬ": 1076,
      "áĮµ": 1077,
      "ĠáĮ½áĪĳ": 1078,
      "ĠáĬ£áĪį": 1079,
      "ĠáĬ£áĭŃáĬ°": 1080,
      "áĭ«áī±": 1081,
      "ĠáīĲ": 1082,
      "ĠáĭĪáĪĪ": 1083,
      "áĮĮ": 1084,
      "ĠáĬ²": 1085,
      "ĠáĬķáĪħ": 1086,
      "ĠáĪµáĪĪáĪĿáĬķáī³áĭŃ": 1087,
      "Ġ10": 1088,
      "áĮĢáĪĺáĪŃ": 1089,
      "ĠáĪķáĮĬ": 1090,
      "áĭķáī²": 1091,
      "áĬķáĬ«": 1092,
      "áĬ©áĬķ": 1093,
      "ĠáĬ£áĪĿ": 1094,
      "áĭ´": 1095,
      "ĠáįĢ": 1096,
      "Ġáĭħ": 1097,
      "áįĤ": 1098,
      "ĠáĭĽ": 1099,
      "ĠáĬ¥áĬķáĭ³": 1100,
      "Ġáī¥áĬ¥": 1101,
      "ĠáĪ°áĪĪáĪµáī°": 1102,
      "ĠáĬ£áĮĭ": 1103,
      "ĠáĬ£áī¢": 1104,
      "ĠáĬķáī¥": 1105,
      "ĠáĮ»": 1106,
      "Ġáī°áĮĪ": 1107,
      "ĠáĪĵáĭµáĪ½": 1108,
      "ĠáĮ¥áĪ«áĪķ": 1109,
      "áĮķ": 1110,
      "Ġáī°áĬ£": 1111,
      "áīµáĬ«": 1112,
      "ĠáĬ¥áĬķáī°áĬ¾áĬĲ": 1113,
      "áĪĿáĪµ": 1114,
      "ĠáĬķáĬĲ": 1115,
      "ĠáĪĿáĬ½áĬķáĭ«áīµ": 1116,
      "áĮįáĭ°áįį": 1117,
      "Ġáī¥áĬ¸áĪĺáĭŃ": 1118,
      "ĠáĬŃáĪ³áĭķ": 1119,
      "áĪ³áĭŃ": 1120,
      "ĠáīłáĪį": 1121,
      "ĠáĬĵáĭŃáī²": 1122,
      "ĠáĬ£áīµ": 1123,
      "áĮĪáĭµ": 1124,
      "ĠáĬ£áĭŃáĬķ": 1125,
      "áĪŀáĪĿ": 1126,
      "ĠáĬ£áĮĪáĭ³": 1127,
      "ĠáĬķáĮīáĪµ": 1128,
      "ĠáĬķáĮį": 1129,
      "ĠáĬ¢áīµáĭ®": 1130,
      "áĪ°áĪŃáĪķ": 1131,
      "ĠáĭĢ": 1132,
      "áĪ³áīµ": 1133,
      "ĠáĪĿáįį": 1134,
      "ĠáĭµáĪĿ": 1135,
      "ĠáĬ¢áĪĪ": 1136,
      "ĠáīłáĭĵáĪį": 1137,
      "áĪ¨áĬ£": 1138,
      "ĠáĮĭ": 1139,
      "áĪĪáī²áĬ«": 1140,
      "ĠáĮĲáĭŃáī³": 1141,
      "ĠáĪĿáĭį": 1142,
      "ĠáĪ²": 1143,
      "áĮ¥áīĢ": 1144,
      "áĭĺáĬķ": 1145,
      "áĬķáĭ²": 1146,
      "ĠáĭĿáĭĢáĬĲ": 1147,
      "ĭáĬķáīĭ": 1148,
      "ĠáĪĽáĭŃ": 1149,
      "ĠáĬ£áĭµ": 1150,
      "áĪĺáĮ½áĬ¥": 1151,
      "áĪµáĬĵ": 1152,
      "Ġáī³áĪªáĬ½": 1153,
      "áĪ¨áĬŃáī¥": 1154,
      "ĠáĪĿáĭķ": 1155,
      "Ġáĭĵáī¥": 1156,
      "áī¥áĪīáĬķ": 1157,
      "áĭ«áĭ³": 1158,
      "ĠáĭĪáĪŃáĪĴ": 1159,
      "ĠáĪĽáĭķ": 1160,
      "ĠáĬķáĮĪ": 1161,
      "ĠáĪ«": 1162,
      "ĠáĬŃáĬķáĭ°áĭŃ": 1163,
      "ĠáĬ£áĪĪáĬĵ": 1164,
      "Ġáĭĵáī¢": 1165,
      "ĠáĭįáĪ½áĮ¢": 1166,
      "áĭŃáĭĪ": 1167,
      "áįķ": 1168,
      "ĠáīµáĮį": 1169,
      "ĠáĬ£áĮĪáĪįáĮį": 1170,
      "áī°áĬĽáī³áīµ": 1171,
      "ĠáĭĭáĪĭ": 1172,
      "áĭŃáī¶": 1173,
      "áĬ¨áĬ£áĪį": 1174,
      "ĠáĬ¨áĪĪ": 1175,
      "ĠáĬ¥áĬķáĬ¨": 1176,
      "áĬħ": 1177,
      "ĠáĪĺáĭµ": 1178,
      "ĠáīµáĬ«": 1179,
      "ĠáĬ¢áĪįáĬ«": 1180,
      "ĠáĪĲ": 1181,
      "ĠáĬķáĪ³áī¶áĪĿ": 1182,
      "áĪ¨áĮĭ": 1183,
      "áĮ½áĪķ": 1184,
      "ĠáĪĺáĬķáĬ¥": 1185,
      "ĠáĪĿáĪīáĬ¥": 1186,
      "áĪĭáĭĬ": 1187,
      "áĮ½áĬķ": 1188,
      "ŀáĪĿ": 1189,
      "áĭ¨áĬķ": 1190,
      "áĭ«áĪµ": 1191,
      "áĭĪáĬķ": 1192,
      "ĠáĬ¨áī£áī¢": 1193,
      "áĪķáīµ": 1194,
      "áĮĪáī¥áĪ¨": 1195,
      "ĠáĬŃáī¥áĪį": 1196,
      "áĮ½áĪį": 1197,
      "ĠáĪĺáĭĵ": 1198,
      "áĬĲáĭŃ": 1199,
      "Ġáĭĵáĭ²": 1200,
      "Ġáī¥áĪį": 1201,
      "ĠáĭĿáįĪ": 1202,
      "ĠáĬ¢áīµáĭ®áĮµ": 1203,
      "ĠáĭĺáĭŃáī°": 1204,
      "ĠáĬ¥áĭŀáĪĿ": 1205,
      "áĪĵáĭ°": 1206,
      "áĬŃáĭķ": 1207,
      "áĮ³": 1208,
      "ĠáĭĿáĪ°": 1209,
      "áĬ£áĬķ": 1210,
      "áĭ³áĪŃ": 1211,
      "ĠáīłáĪİ": 1212,
      "áĪ¥": 1213,
      "Ġ9": 1214,
      "ĠáĬ¥áĮįáĭļáĬłáī¥áĪĶáĪŃ": 1215,
      "ĠáĪĺáĬķáĮİ": 1216,
      "ĠáĬ¥áĪĿáĬĲáīµ": 1217,
      "Ġ[": 1218,
      "ĠáĬĲáī¥": 1219,
      "ĠáĬ«áī¥áĭļ": 1220,
      "áĮ»áĬ¥": 1221,
      "ĠáĭŃáĬ¸áĭįáĬķ": 1222,
      "ĠáĬĲáī³": 1223,
      "áĪķáĭĿ": 1224,
      "áĪĺáĪµáĪį": 1225,
      "ĠáĬŃáĪħ": 1226,
      "áīłáĬ£": 1227,
      "ĠáįĸáĪĪáī²áĬ«": 1228,
      "ĠáĪħáĮįáĭ°áįį": 1229,
      "re": 1230,
      "áīłáĬķ": 1231,
      "áĮ»áĪķ": 1232,
      "Ġáĭ°áĮĪ": 1233,
      "áĪ¨áĮĥ": 1234,
      "áĪĺáĪ«": 1235,
      "Ġáī°áĮł": 1236,
      "Ġáī¥áĭµ": 1237,
      "ĠáĬ£áĭĭ": 1238,
      "áĬ«áī¥": 1239,
      "áĭĭáīµ": 1240,
      "ĠáĬ¢áĬķ": 1241,
      "áĭµáĪįáĭ¨": 1242,
      "áĬ¨áĪį": 1243,
      "áĭķáĬķ": 1244,
      "áĭ°áĪĪ": 1245,
      "ĠáĪŀáīµ": 1246,
      "ĠáĮįáī¥": 1247,
      "ĠáĬ¢áĭ¨áĪ±áĪµ": 1248,
      "áįįáĬķ": 1249,
      "Ġáī¥áĪĵáīĤ": 1250,
      "áĬłáĬķ": 1251,
      "ĠáĬŃáĬĲ": 1252,
      "ĠáĬķáĭ°": 1253,
      "ĠáįįáīķáĪª": 1254,
      "ĠáĪ°áĪĽ": 1255,
      "áįĭáĪį": 1256,
      "áĪĭáĪį": 1257,
      "Ġáī°áĭĭ": 1258,
      "áĬ»áĬķ": 1259,
      "áĪ«áĪŃ": 1260,
      "ĠáīĭáĬķáīĭ": 1261,
      "ĠáĭĿáĬĲáīłáĪ©": 1262,
      "áĪµáĪĿ": 1263,
      "áĬ»áīµáĬ©áĪĿ": 1264,
      "Ġáī¥áĭĺ": 1265,
      "áĭ°áĪĿ": 1266,
      "ĠáĭĿáĬ½áĬ¥áĪį": 1267,
      "áĪ³áĪµ": 1268,
      "ĠáīµáĪŃ": 1269,
      "Ġ12": 1270,
      "ĠáįĬ": 1271,
      "ĠáĬ¥áĭ¨áĬķ": 1272,
      "ĠáĪĵáĭŃáĪĬ": 1273,
      "áĪįáī¦": 1274,
      "Ġáī°áī£áĪĤ": 1275,
      "ĠáĪĿáīµ": 1276,
      "ĠáĪĺáĮº": 1277,
      "áĪįáĭĳ": 1278,
      "ĠáĬķáĪ°": 1279,
      "áĮĪáī¥áĪ©": 1280,
      "Ġáĭ¨áī¥áĪīáĬķ": 1281,
      "ĠáĬ£áĭŃáĬĲáīłáĪ¨": 1282,
      "ĠáĪĿáĮį": 1283,
      "ĠáĪĺáĪįáĪ²": 1284,
      "ĠáĬķáĬ¹": 1285,
      "ĠáĭĺáĪĪáĬĵ": 1286,
      "ĠáĭĿáī°áįĪáĪĭáĪĪ": 1287,
      "ĠáĮŃ": 1288,
      "áĪ¨áĪµ": 1289,
      "ĠáĬ£áĮĪáĭ³áĪ²": 1290,
      "áīµáĭ«áĬķ": 1291,
      "ĠáĭĺáĭŃáĬ®áĬĲ": 1292,
      "áĪĪáĪĽ": 1293,
      "ĠáĬ£áĪĽ": 1294,
      "ĠáĬķáĭķ": 1295,
      "Ġ15": 1296,
      "ĠáĬªáĬ¸áĭįáĬķ": 1297,
      "ĠáĪĿáĬ½áĬķáĭ«áī±": 1298,
      "áĬ¼": 1299,
      "ĠáĭĿáĪĿ": 1300,
      "áĭµáĬ«": 1301,
      "ĠáĪĵáĪ³áī¥": 1302,
      "ĠáĬ©áĪİáĪĿ": 1303,
      "ĠáĭĪáĪ²": 1304,
      "ĠáĪĪáĭį": 1305,
      "ĠáįįáĪī": 1306,
      "ĠáĬ£áĪİáĬĵ": 1307,
      "ĠáĪĵáĮĪáĭĿ": 1308,
      "áĭµáĪĬ": 1309,
      "áĪįáĪĿ": 1310,
      "ĠáĪĺáĬķáĮĪáĭ²": 1311,
      "Ġáĭ«": 1312,
      "áįįáĪŃ": 1313,
      "áĪ½áī°": 1314,
      "Ġáĭĺáĭ¨": 1315,
      "ĠáĪ°áĭĵáīµ": 1316,
      "áĪĵáĪµ": 1317,
      "áĪĢ": 1318,
      "áĪķáĬķ": 1319,
      "ĠáĪĺáĮįáĪĪ": 1320,
      "ĠáīłáĪİáĪĿ": 1321,
      "áĪ«áī¥": 1322,
      "áįĪáĪįáĮ¡": 1323,
      "ĠáĬ¢áīµáĭ®áĮµáĭ«": 1324,
      "áĬĵáĭĬ": 1325,
      "ĠáĪĵáĪĭ": 1326,
      "ĠáĬ£áĪĭ": 1327,
      "Ġáī°áĮĭ": 1328,
      "ĠáĪĺáĪĪ": 1329,
      "ĠáĪµáĬĲ": 1330,
      "ĠáĪ°áĪĽáĭŃ": 1331,
      "áī¡áĪŃ": 1332,
      "áįĸ": 1333,
      "ĠáĭĪáĪ¨": 1334,
      "áī³áī¶áĪĿ": 1335,
      "áĬ«áĭ¨": 1336,
      "áĪķáĪį": 1337,
      "áĪ³áĬº": 1338,
      "áĮ¨": 1339,
      "áĭµáĪŃ": 1340,
      "áįįáīµ": 1341,
      "ĠáĪĥáĭŃ": 1342,
      "Ġáī°áĪ¨": 1343,
      "áī¢áīµ": 1344,
      "ĠáĪĺáĬķáįĪáĪµ": 1345,
      "ĠáĬķáĪĭ": 1346,
      "ĠáĪ°áī¥áĬ£áĭŃ": 1347,
      "ĠáĪĬ": 1348,
      "ĠáĬĲáĭŃáĪ®áĪĿ": 1349,
      "áĭĵáī°": 1350,
      "áįģ": 1351,
      "Ġáī¥áĮį": 1352,
      "Ġ11": 1353,
      "áīłáĭ¨": 1354,
      "áįįáīħ": 1355,
      "Ġáĭ©": 1356,
      "ĠáĬ£áĪľ": 1357,
      "áĬ¸áĭŃáĭµ": 1358,
      "áĮįáĮ½": 1359,
      "áĬķáīĢ": 1360,
      "áĪĵáĭŃ": 1361,
      "ĠáĬ£áī¥áī³": 1362,
      "Ġáī°áĬ¸": 1363,
      "Ġ?": 1364,
      "Ġáī°áĪ«": 1365,
      "ĠáĬ¨áĬĲ": 1366,
      "ĠáĬŃáįįáĪĬ": 1367,
      "áī¥áĪĥáĪį": 1368,
      "áĭĬáĪķ": 1369,
      "Ġáī°áĭĵ": 1370,
      "Ġáįĭ": 1371,
      "ĠáĭĺáĪĭ": 1372,
      "áĬķáī³": 1373,
      "áĪĥáĪŃ": 1374,
      "ĠáĭĿáĪĵáĪĪáįĪ": 1375,
      "ĠáĪĺáĭĿ": 1376,
      "ĠáĬ½áĬķ": 1377,
      "ĠáĬĵáī¥áī²": 1378,
      "ĠáĭĿáĪŃ": 1379,
      "ĠáĬĲáīłáĪ©": 1380,
      "ĠáĪĺáĮĢáĪĺáĪŃ": 1381,
      "áīłáĪ«": 1382,
      "ĠáĮ¸áĬĴ": 1383,
      "ĠáĬĲáįįáĪ²": 1384,
      "Ġáĭ°áīĢ": 1385,
      "áī°áīµ": 1386,
      "Ġ18": 1387,
      "ĠáĭķáĪĪáīµ": 1388,
      "ĠáĪĺáī¥áĭĽ": 1389,
      "áī¥áĪĭ": 1390,
      "áĬķáĪµ": 1391,
      "ĠĠ": 1392,
      "áĪĭáĭį": 1393,
      "ĠáĪĺáĪįáĬ¥": 1394,
      "Ġáĭ°áĭį": 1395,
      "áĪįáĭĵ": 1396,
      "áĭīáĬķ": 1397,
      "áĪŃáī²": 1398,
      "Ġáĭī": 1399,
      "ĠáĬ£áīłáĭŃ": 1400,
      "áĬĵáĪį": 1401,
      "ĠáĪ±": 1402,
      "áĮĪáĪįáĮ½": 1403,
      "áī¥áĪİáĪĿ": 1404,
      "áĭĿáī¢": 1405,
      "Ġáįįáīĵ": 1406,
      "ĠáĪĥáī¥": 1407,
      "áĬ½áĬķ": 1408,
      "ĠáĬ£áĭŃáĬ°áĬĲáĬķ": 1409,
      "Ġ14": 1410,
      "áĪ«áĭĬáīµ": 1411,
      "ĠáĬ£áĮĪáĪįáĮįáĪİáīµ": 1412,
      "áĬĵáĭ®": 1413,
      "ĠáĬ£áĬ¼": 1414,
      "áĪĿáĪįáĬ¨áīµ": 1415,
      "áĭ³áĪĿ": 1416,
      "ĠáĬ¥áĭĪ": 1417,
      "ĠáĬĲáĭŃáĪ¨": 1418,
      "ĠáĪµáĭ°": 1419,
      "áĪĺáĪ¨": 1420,
      "ĠáīµáĪķáī²": 1421,
      "áĮ¥áĪĿ": 1422,
      "ĠáĭŃáīķ": 1423,
      "ĠáĬŃáĪŃ": 1424,
      "áĪĺáīµ": 1425,
      "áĪİáĬķ": 1426,
      "ĠáĮ¨": 1427,
      "ĠáīĢáĭ³áĪĽáĭŃ": 1428,
      "ĠáĬķáĪĭáĭķáĪĬ": 1429,
      "ĠáĬ£áĭ°": 1430,
      "ĠáĭĪáĬ¨áįį": 1431,
      "Ġáī¥áĭĵ": 1432,
      "áĪŃáĬ¥áĭ®": 1433,
      "ĠáĮĪáĬĵ": 1434,
      "ĠáĪĺáĮłáĬķ": 1435,
      "Ġáįĵ": 1436,
      "ĠáĬ¥áĬķáī°áĭĺáĭŃ": 1437,
      "Ġáī¥áĪ°": 1438,
      "ĠáĪ°áīłáĭŃáī²": 1439,
      "Ġáįįáīµ": 1440,
      "áĬ¢áīµ": 1441,
      "ĠáĮ¸áĮĪáĪĿ": 1442,
      "::": 1443,
      "ĠáĪĵáī¢": 1444,
      "áĬ¡áĬķ": 1445,
      "áĭŃáĬĸáĪĿ": 1446,
      "áĪ³áĬķ": 1447,
      "áĪħáīł": 1448,
      "Ġáī¢": 1449,
      "ĠáĭĪáĮ»áĬ¢": 1450,
      "áĮįáĪ¨": 1451,
      "ĠáĪĺáĪ°áĪį": 1452,
      "áĮ¥áīĥ": 1453,
      "Ġáī¥áĪķ": 1454,
      "áī°áĭĪ": 1455,
      "ĠáĬ«áĪįáĬ£áĭŃ": 1456,
      "Ġáī°áĪĽ": 1457,
      "áĭĸáĪĿ": 1458,
      "ĠáĬŃáĪĿ": 1459,
      "ĠáīµáĮįáĪ«áĭŃ": 1460,
      "áįİáĪĿ": 1461,
      "ĠáĭŃáĮįáī£áĬ¥": 1462,
      "áĮĪáĬķ": 1463,
      "áĪĿáīłáĪŃ": 1464,
      "áīħáĪµ": 1465,
      "áĪ½áĬķ": 1466,
      "áī£áĪķ": 1467,
      "ĠáĬ¨áī¢": 1468,
      "Ġáī¥áīĲ": 1469,
      "ĠáĬ£áĬ¼áī£": 1470,
      "ĠáĬ¥áī°áĬķ": 1471,
      "ĠáīµáĬķ": 1472,
      "ĠáĪĿáĪħ": 1473,
      "áĪĽáĬĸ": 1474,
      "áĪŀáĬŃ": 1475,
      "ĠáĪµáĪįáĮ£áĬķ": 1476,
      "Ġáīķ": 1477,
      "ĠáĬ£áĭŃáĬĲáīłáĪ¨áĬķ": 1478,
      "áĪĿáĪ®": 1479,
      "ĠáĭĿáīĲ": 1480,
      "ĠáĬ£áī£áĪĭáīµ": 1481,
      "ĠáĭĺáĭŃáīµ": 1482,
      "áīĿ": 1483,
      "áī¥áĪ¨áīµ": 1484,
      "ĠáĪĺáĮįáĪĪáĮº": 1485,
      "áĪ³áĭĬ": 1486,
      "áī£áĬķ": 1487,
      "áī¥áĪ«": 1488,
      "ĠáĭĿáįį": 1489,
      "ĠáĪĪáĭįáĮ¢": 1490,
      "ĠáĪ°áĭĵ": 1491,
      "ĠáĬ¥áĬķáĪĨ": 1492,
      "Ġáĭ°áĪ¨áĮĥ": 1493,
      "áĪ«áĬ¸": 1494,
      "Ġ!": 1495,
      "ĠáĮ¾": 1496,
      "ĠáĭĿáĪĪ": 1497,
      "áī¤áīµ": 1498,
      "ĠáĪ°áĪį": 1499,
      "áĮįáĪĿ": 1500,
      "Ġáī°áīĵ": 1501,
      "ĠáĪ°áī¥áĬ£": 1502,
      "ĠáĬķáĬ½áĬ¥áĪį": 1503,
      "ĠáĬ¾": 1504,
      "ĠáĪŃáĬŃáī¥": 1505,
      "áĬĳáĭķ": 1506,
      "áĪĪáĭī": 1507,
      "ĠáĪĿáĮ½": 1508,
      "áĪŃáĮĭ": 1509,
      "áĭ¨áīµ": 1510,
      "ĠáĪ³áĭķ": 1511,
      "ĠáįĪáī°": 1512,
      "áĪ¬áīµ": 1513,
      "ĠáĪ°áĪĻáĬķ": 1514,
      "ĠáĬłáĭŃ": 1515,
      "áĮłáįį": 1516,
      "ĠáĬķáĬ£áī¥": 1517,
      "ĠáĭįáĪ³": 1518,
      "ĠáĬ£áĭŃáĬŃáĬ¥": 1519,
      "áĭ°áĪŃ": 1520,
      "ĠáĭĺáĪĪáĭİáĪĿ": 1521,
      "ĠáĪ°áĪļ": 1522,
      "ĠáĭħáĪī": 1523,
      "áĭĪáĭŃ": 1524,
      "ĠáĬ¥áĬĵáī°": 1525,
      "áĮįáĬķ": 1526,
      "áĮħáĪĪ": 1527,
      "ĠáĪĺáĪĬ": 1528,
      "ĠáĪľ": 1529,
      "ĠáĮ³": 1530,
      "Ġáįħ": 1531,
      "ĠáĮĪáĭŃáĪ©": 1532,
      "Ġáī°áĭĽ": 1533,
      "áĪ¨áĭµ": 1534,
      "ĠáĬ¢áĭ®áĪĿ": 1535,
      "áĬĲáī±": 1536,
      "ĠáĮ½áĪĳáįį": 1537,
      "áĮ¥áįį": 1538,
      "Ġáī¥áįįáĪĭáĭŃ": 1539,
      "ĠáĭĿáĬ¸áĭįáĬķ": 1540,
      "Ġáĭ°áĮĬ": 1541,
      "ĠáĬ°áĭŃáĬĳ": 1542,
      "ĠáĭĺáĪĺ": 1543,
      "áĭ³áĭ«áīµ": 1544,
      "ĠáĪĿáĭĿ": 1545,
      "áĪĪáĬĴ": 1546,
      "ĠáĬķáĬ£áĪĿáĪĭáĬ½": 1547,
      "áĬ¥áĭĽ": 1548,
      "ĠáĬ«áī¥áĬ¡": 1549,
      "áīĲáīµ": 1550,
      "áī¡áĪ«áīµ": 1551,
      "áĮįáĪĪ": 1552,
      "áĬ¨áĪĿ": 1553,
      "ĠáĭĺáīłáĪĪ": 1554,
      "ĠáĬ¨áĪĿáĭĺáĭŃ": 1555,
      "áĪĻáĪŃ": 1556,
      "áĪµáīµáĭ®": 1557,
      "áīłáĬ£áĪŃ": 1558,
      "áįĪáĪįáĮ¥áĬķ": 1559,
      "ĠáĭľáĬĵ": 1560,
      "áĪĸáĪĿ": 1561,
      "ĠáĪµáĮĭ": 1562,
      "ĠáĪķáĪĽáĪĿ": 1563,
      "áĮįáĬ¥": 1564,
      "áĬ»áĪį": 1565,
      "ĠáĭµáĪķ": 1566,
      "áīª": 1567,
      "ĠáĪķáĭļ": 1568,
      "áĪħáī¥": 1569,
      "ĠáĪĵáĪĪ": 1570,
      "áĮ¢áĬ£áīµ": 1571,
      "áĬĳáĬķ": 1572,
      "Ġáī£áĪķáĪª": 1573,
      "ĠáĬ¢áĪįáĬĵ": 1574,
      "áĭµáĪĿ": 1575,
      "áī£áĭķáī°": 1576,
      "ĠáĭķáĪĭáĪĽ": 1577,
      "áĬŃáĭİ": 1578,
      "áĭĺáĪŃ": 1579,
      "áĭĭáĭŃ": 1580,
      "ĠáĬ£áĪľáĪªáĬ«": 1581,
      "Ġáī¥áīµ": 1582,
      ":-": 1583,
      "ĠáĬ£áīł": 1584,
      "áĭķáĪĪ": 1585,
      "áĪµáĭķáī¥": 1586,
      "ĠáĭĪáĭŃáĪµ": 1587,
      "Ġáĭ³áĭĬáīµ": 1588,
      "áĪµáī³áīµ": 1589,
      "ĠáĭķáĭµáĪį": 1590,
      "áĬ©áĪĿáĬķ": 1591,
      "ĠáĬ¹": 1592,
      "Ġáĭĵáīķ": 1593,
      "ĠáĪĥáĮĪáĪ«áĭĬ": 1594,
      "Ġáī¥áĭĪ": 1595,
      "ĠáĮĢáĪļáĪ©": 1596,
      "Ġáīµáī¥áĪį": 1597,
      "Ġ+": 1598,
      "áĬŃáĪŃáĪµ": 1599,
      "Ġáī°áī£áĪĤáĪī": 1600,
      "ĠáĮĵáĪį": 1601,
      "ĠáĮ¥áĭķáĬĵ": 1602,
      "ĠáĬ£áįįáĪª": 1603,
      "Ġ...": 1604,
      "áĪ®áĮ³": 1605,
      "ĠáĭĺáĭŃáĪĿ": 1606,
      "ĠáĭĿáĭį": 1607,
      "áĮ¥áĬķ": 1608,
      "ĠáĬ£áĪĪáĭĭ": 1609,
      "ĠáĪĺáĪĭáĬ¥": 1610,
      "áĪĺáĪ°": 1611,
      "ĠáĪĺáĪª": 1612,
      "áĬ£áī±": 1613,
      "ĠáĮįáĬĵáĬ¸": 1614,
      "ĠáĪĵáĭ«": 1615,
      "ĠáĭĿáĭ«áĭ³": 1616,
      "áĭĭáĬķ": 1617,
      "ĠáĪĺáĭ°áī¥": 1618,
      "Ġ13": 1619,
      "ĠáĪĻáĪ´": 1620,
      "áĮīáĪĿ": 1621,
      "áįĭáīµ": 1622,
      "Ġáī¥áĪĿáī£áĪį": 1623,
      "ĠáĪ¶": 1624,
      "ĠáĬŃáĪħáĪį": 1625,
      "áĪ³áī°": 1626,
      "áį§\"": 1627,
      "ĠáĬ£áĭķ": 1628,
      "ĠáĪĵáĭ²": 1629,
      "20": 1630,
      "áĪ¨áĭŃ": 1631,
      "áĭķáĭŀ": 1632,
      "ĠáĮķ": 1633,
      "ĠáĪ¨áĬº": 1634,
      "Ġáĭ°áĪŃ": 1635,
      "áĬ«áĭ®": 1636,
      "ĠáĬĲáīłáĪŃ": 1637,
      "áĭĭáĪŃ": 1638,
      "ĠáĬķáĬ£áī¥áĬĲáīµ": 1639,
      "Ġáį£": 1640,
      "áĬķáĮį": 1641,
      "ĠáĬ£áĪ°": 1642,
      "ĠáĭįáĪį": 1643,
      "ĠáĬ£áĬ«áĪį": 1644,
      "áĮ¥áĪ®": 1645,
      "áĪįáī¦áĬķ": 1646,
      "áĭ°áĪįáĭ©": 1647,
      "áĮ»áĪŃ": 1648,
      "áĮĭáī³áīµ": 1649,
      "ĠáĬ¨áī¢áĭµ": 1650,
      "áĮ¥áĪŃ": 1651,
      "áĬĥ": 1652,
      "ĠáĪĿáĮįáī£áĪŃ": 1653,
      "Ġáĭŀ": 1654,
      "ĠáĭĿáĮ¸": 1655,
      "Ġ16": 1656,
      "ĠáĮįáī¥áĪª": 1657,
      "áĪĵáĪŃ": 1658,
      "ĠáīĪ": 1659,
      "ĠáĬ£áīĲ": 1660,
      "ĠáĬķáĭħ": 1661,
      "Ġáĭĺáī°": 1662,
      "ĠáĪĿáĪµáĬ¡": 1663,
      "Ġáī°áīł": 1664,
      "ĠáĪĵáĪ³": 1665,
      "áĮ½áĪª": 1666,
      "ĠáĪĿáĪŃáĮ«": 1667,
      "ĠáĬŃáĪįáī²": 1668,
      "ĠáĭĺáĪĺáĬķ": 1669,
      "áĬ£áī¶áĪĿ": 1670,
      "Ġáīłáī¥": 1671,
      "ĠáĬķáĭĪ": 1672,
      "áĪĥáīł": 1673,
      "ĠáĪįáĪĿ": 1674,
      "ĠáĪĨ": 1675,
      "Ġáĭĵáī¥áĭª": 1676,
      "Ġáĭ¨áĪįáī¦áĬķ": 1677,
      "áĭ³áīµ": 1678,
      "ĠáĭŃáįį": 1679,
      "ĠáĬ«áī¥áī¶áĪĿ": 1680,
      "áĪŀáĬķ": 1681,
      "áī³áĪķ": 1682,
      "ĠáīĢáĬķáĭ²": 1683,
      "ĠáĬ®áĬĲ": 1684,
      "áĪŀáĬŃáĪ«": 1685,
      "áĪĵáĪį": 1686,
      "áĪªáī¡": 1687,
      "ĠáĬ¢áĭµ": 1688,
      "áī¡áĬ¥": 1689,
      "ĠáĬłáĪİ": 1690,
      "ĠáĪħáĭŃáĭĪ": 1691,
      "ĠáĬ£áĪħ": 1692,
      "ĠáĭĺáĭŃáī¥áĪī": 1693,
      "ĠáĭŃáĪķ": 1694,
      "ĠáĮĪáĮ½": 1695,
      "Ġáīĵ": 1696,
      "áī¨": 1697,
      "áī°áĪĽ": 1698,
      "áīłáĪĥáĪį": 1699,
      "ĠáĬŃáĭĪ": 1700,
      "áĪĬáįī": 1701,
      "ĠáĬ£áĪĺáĪªáĬ«": 1702,
      "ĠáįįáĪīáĭŃ": 1703,
      "Ġ17": 1704,
      "ĠáĮ¸áĪİáīµ": 1705,
      "áĪ«áĪĿ": 1706,
      "ĠáĪĺáĪ³": 1707,
      "ĠáĬĥ": 1708,
      "ĠáĪĵáĪĻ": 1709,
      "áĪ©áī¥": 1710,
      "áĬ£áĬĲ": 1711,
      "Ġáĭįáĭµáī¥": 1712,
      "áįĵ": 1713,
      "áĪĪáĬĵ": 1714,
      "áĮ½áīł": 1715,
      "áĬĲáīłáĪ¨": 1716,
      "ĠáĬĶáĪ©": 1717,
      "ĠáĬ£áĮ¸": 1718,
      "áĬ«áĭ¨áĭµ": 1719,
      "en": 1720,
      "ĠáĬ£áĬ½": 1721,
      "ĠáĬŃáįĭáĪį": 1722,
      "ĠáĬķáĪĵáĭ°": 1723,
      "áīµáī³áīµ": 1724,
      "ĠáĬ£áĪĪáĭİáĪĿ": 1725,
      "ĠáĬķáĬ¸": 1726,
      "ĠáĪķáĭŃáĭĪáīµ": 1727,
      "ĠáĪĽáĪķáīł": 1728,
      "áĪĿáĬ«": 1729,
      "ĠáĭĪáīµ": 1730,
      "ĠáīĥáĪįáĪ²": 1731,
      "Ġáī£áĭķáĪī": 1732,
      "ĠáĪįáī¢": 1733,
      "áĬķáī¥": 1734,
      "ĠáĬķáĪµáĬ»áīµáĬ©áĪĿ": 1735,
      "ĠáĪ®": 1736,
      "áĪįáī²": 1737,
      "ĠáįĸáĪĬ": 1738,
      "ĠáĪĥáĭŃáĪĽáĬĸ": 1739,
      "ĠáĭĺáĪİáĬĵ": 1740,
      "áĭĴáīµ": 1741,
      "áĪ®áĬķ": 1742,
      "áĭįáīµ": 1743,
      "ĠáĭŃáĪµ": 1744,
      "ĠáĬ¥áĬķáī°áĬ¾": 1745,
      "áĮ£áĭķ": 1746,
      "Ġ200": 1747,
      "Ġáī¥áĪĺáĬķ": 1748,
      "ĠáĬ£áĪŃáī£áĭķáī°": 1749,
      "áĪ°áĪŃáī°": 1750,
      "ĠáĬ£áįįáĪªáīĥ": 1751,
      "ĠáĪ»": 1752,
      "ĠáĬķáĭį": 1753,
      "Ġáĭ°áĪĿ": 1754,
      "ĠáĬ¥áĬķáĬ¨áĪİ": 1755,
      "áĪĺáĭµ": 1756,
      "áįįáĪį": 1757,
      "áĬ¥áĭļ": 1758,
      "áĮłáĪŃ": 1759,
      "áĬ£áĬ½": 1760,
      "áī£áĪħ": 1761,
      "ĠáĬ¥áĪĿáīłáĬ£áĪŃ": 1762,
      "ĠáĬ¥áĭĭ": 1763,
      "áĪ¨áĪĿ": 1764,
      "ĠáĪĿáĬĵáĪį": 1765,
      "Ġáĭĳ": 1766,
      "ĠáĬ¥áĬķáīµ": 1767,
      "Ġáī¥áĪħ": 1768,
      "áĪ³áĪĮ": 1769,
      "ĠáįĸáĪĪáī²áĬ«áĭĬ": 1770,
      "áĬµ": 1771,
      "ĠáįķáĪ®": 1772,
      "ĠáĪĺáīķ": 1773,
      "ĠáĮ¸áĮĭ": 1774,
      "áīķáĬķ": 1775,
      "áĪµáĬĲáīµ": 1776,
      "áĪĽáĪĿ": 1777,
      "ĠáĬ£áĮĪáī£áī¥": 1778,
      "ĠáĬķáĬ¹áĪī": 1779,
      "ĠáĬĲáĭĬáĪķ": 1780,
      "ĠáĪµáĪĪáĭĿáĬ¾áĬĲ": 1781,
      "ĠáĬķáĭµ": 1782,
      "ĠáĪļáĬĴ": 1783,
      "ĠáĭĿáĬ½": 1784,
      "ĠáĬ¢áĭ«": 1785,
      "ĠáĭµáĪĿáĮº": 1786,
      "áī£áĬ¤": 1787,
      "áĪŃáĬ¨áī¡": 1788,
      "ĠáĪĺáī¥áĭĽáĪķáīµ": 1789,
      "on": 1790,
      "áīĽ": 1791,
      "ĠáĭĭáĮĭ": 1792,
      "Ġáī¥áĭį": 1793,
      "áĬ¥áīµ": 1794,
      "áĮĴ": 1795,
      "áĪµáī²áĭ«áĬķ": 1796,
      "ĠáĭĪáĬķ": 1797,
      "ĠáĬ¨áĭŃáī°": 1798,
      "ĠáĭĿáĪŃáĬ¨áī¥": 1799,
      "ĠáĬ£áĭŃáĬŃáĬ¥áĪįáĬķ": 1800,
      "áĪµáĬ»": 1801,
      "áĪµáĬ«": 1802,
      "ĠáĬłáĪĿáĪĭáĬ½": 1803,
      "áĮįáĪĬ": 1804,
      "âĢ": 1805,
      "ĠáĮĢáĪŃ": 1806,
      "ĠáĭĿáĪµ": 1807,
      "áĪŃáĭİ": 1808,
      "áĪŃáĭ«áĪĿ": 1809,
      "ĠáīłáĪī": 1810,
      "ĠáĪ°áĭŃ": 1811,
      "áĮįáĪŃáĬĽ": 1812,
      "ĠáĭĿáī°áįĪ": 1813,
      "áĪįáĭİ": 1814,
      "ðŁ": 1815,
      "ĠáĬ£áīķ": 1816,
      "ĠáĪ°áĬķ": 1817,
      "áĪ³áĪ³": 1818,
      "ti": 1819,
      "áĪİáĪµ": 1820,
      "ĠáĬķáĮ¥": 1821,
      "ĠáĪĵáĭ°áĮĭ": 1822,
      "ĠáĪµáĬ¥": 1823,
      "ĠáĬ£áĪĪáĭį": 1824,
      "ĠáĬķáĪĺáĬķ": 1825,
      "áĪŃáĬŃ": 1826,
      "ĠáĪĵáĪĭáįį": 1827,
      "áĪįáĭ«": 1828,
      "áĪįáĬª": 1829,
      "ĠáĭĿáī°áĭĪ": 1830,
      "ĠáĭķáĭµáĪĺ": 1831,
      "ĠáĪĺáĪįáĬ¥áĬ½áī²": 1832,
      "ĠáĬ¥áĭĿ": 1833,
      "ĠáĪĺáĪ¨": 1834,
      "ĠáĪĺáĭĽ": 1835,
      "áĪĭáīµáĬĵ": 1836,
      "ĠáĪĺáĪ¬áīµ": 1837,
      "ĠáĬķáĪĿáĬķáī³áĭŃ": 1838,
      "áīłáĪª": 1839,
      "áįĴ": 1840,
      "áĭ°áĮĪ": 1841,
      "ĠáĪ¥": 1842,
      "ĠáĭŃáĪĿ": 1843,
      "áĭ°áĬķáīµ": 1844,
      "áĬ½áĬ¥áĪįáĬķ": 1845,
      "ĠáĪ³áĪį": 1846,
      "Ġáī¥áĪŃáĪĥáĬķ": 1847,
      "Ġáī¥áĭĿáī°": 1848,
      "ĠáĬķáĬŃ": 1849,
      "ĠáĭĺáĪ¨áī£": 1850,
      "ĠáĬŃáīķ": 1851,
      "áĬ£áĪĪáĪĿ": 1852,
      "ĠáĭŃáĬ½áĬ¥áĪī": 1853,
      "ĠáĬĵáĭŃáĭļ": 1854,
      "áĪ°áĭ«áīµ": 1855,
      "áĪŀáīµ": 1856,
      "áĪįáĭ©": 1857,
      "áĪªáīµ": 1858,
      "Ġáĭķáĭ®": 1859,
      "áĪįáĭį": 1860,
      "ĠáĮīáĮħáĪĪ": 1861,
      "áĪ°áĪĿáĭķ": 1862,
      "ĠáĬ£áī¦áĭŃ": 1863,
      "ĠáĪ°áĬĵáĭŃ": 1864,
      "áĪ¨áįĪ": 1865,
      "ĠáĪķáī¶áī³áīµ": 1866,
      "áĬķáĬĵ": 1867,
      "ĠáįįáĪŃáĭ²": 1868,
      "ĠáĬ«áī£": 1869,
      "Ġáĭ¨áī¥áĪį": 1870,
      "ĠáĬŃáĪŃáĪµáīµáĭ«áĬķ": 1871,
      "ĠáĭĺáĪĪáĬ¹": 1872,
      "áĪ°áīµ": 1873,
      "ĠáĪķáī¡áĪ«áīµ": 1874,
      "áĪĭáĮ¥": 1875,
      "ĠáĬŃáĭį": 1876,
      "Ġáī´": 1877,
      "ĠáĮįáī¥áĮº": 1878,
      "áĭ°áĪµ": 1879,
      "19": 1880,
      "ĠáĭĺáĮĭ": 1881,
      "áĪŃáĮį": 1882,
      "áĮ½áĬĲáīµ": 1883,
      "ĠáĬ£áī°": 1884,
      "ĠáĪķáī¥áĪ¨": 1885,
      "ĠáĬ£áī³": 1886,
      "ĠáĬ£áĭļ": 1887,
      "ĠáĪĵáĬķ": 1888,
      "ĠáĬŃáĬķáĭ²": 1889,
      "ĠáĭŃáĬ¨áĬ£áĪį": 1890,
      "ĠáĪ°áĬĲ": 1891,
      "áĪĥáĪ®": 1892,
      "ĠáĪĿáīķ": 1893,
      "áĪ¹": 1894,
      "áĪŃáĬ©áĪĿ": 1895,
      "Ġáī¡": 1896,
      "áĪĬáĪį": 1897,
      "ĠáįĪáĮº": 1898,
      "ĠáĪ½áĪķ": 1899,
      "áĭĵáĪĪ": 1900,
      "áĬ£áĪĿ": 1901,
      "áĪĵáĭµ": 1902,
      "ĠáĬ£áĭŃáĬ¨áĬ£": 1903,
      "ĠáĬ¤áĭį": 1904,
      "ĠáĬĲáĭĽ": 1905,
      "áĪ¨áĬ½áī¡": 1906,
      "áĪħáĬķ": 1907,
      "ĠáīĥáĪĭáīµ": 1908,
      "ĠáĪµáĭ°áī°áĬĽáī³áīµ": 1909,
      "ĠáĮ£": 1910,
      "áīĢáīµ": 1911,
      "ĠáĬ£áĪİáĬ¹": 1912,
      "Ġáī°áĮ»": 1913,
      "áĬĵáī¥": 1914,
      "ĠáįįáĪįáĮł": 1915,
      "áĪĺáĪī": 1916,
      "ĠáĬķáĮ½": 1917,
      "ĠáĪĵáĪŃ": 1918,
      "ĠáĬ£áĪĿáĪĭ": 1919,
      "ĠáĪħáĭ«": 1920,
      "ĠáĬ¢áĪĭ": 1921,
      "áĪ³áĪ³áĪĬ": 1922,
      "áĭĭáĭķ": 1923,
      "Ġáīª": 1924,
      "ĠM": 1925,
      "ĠáĮīáī£áĬ¤": 1926,
      "ĠáīµáĪĿ": 1927,
      "ĠáĪ°áĪ«áĭĬáīµ": 1928,
      "ĠáīĢáĪ¨áī£": 1929,
      "er": 1930,
      "ĠáĬµáĪİáĪĿ": 1931,
      "Ġáīłáī³": 1932,
      "áĭ°áĬĵ": 1933,
      "ĠáĪħáĭĿáī¥": 1934,
      "áĬŃáĬ¥áĪį": 1935,
      "ĠáįķáĪ¨": 1936,
      "ĠáĭĺáĪĪáĭĭ": 1937,
      "Ġ/": 1938,
      "áįįáĪ«": 1939,
      "áīħáĬķ": 1940,
      "áī³áĪį": 1941,
      "áĭĿáĬķ": 1942,
      "ĠáĭĺáĭŃáĬ°": 1943,
      "Ġ30": 1944,
      "áĭµáĪļ": 1945,
      "Ġáī»": 1946,
      "áĮ¸áĪĿ": 1947,
      "ĠáĬ£áĪµáī°": 1948,
      "ĠáĭµáĬ£": 1949,
      "áĮ£áĭķáĪļ": 1950,
      "áī°áĬĽ": 1951,
      "ĠáĮ¸áī¥": 1952,
      "áī³áĭį": 1953,
      "ĠáĭĪáīµáĪ©": 1954,
      "Ġáī¥áĪ°áĬķ": 1955,
      "áĮ¹áĪĿ": 1956,
      "ĠáīµáĬ¥áĭĽ": 1957,
      "áĪĵáīµáīµ": 1958,
      "ĠáĬķáĬ½áīµ": 1959,
      "áĪįáĭµ": 1960,
      "áĭµáĬ£": 1961,
      "ĠáĭĵáīłáĭŃáī²": 1962,
      "ĠáĪħáĮ»": 1963,
      "ĠáĬĲáĮ»": 1964,
      "Ġáī¥áĭķ": 1965,
      "Ġ24": 1966,
      "Ġáī£áĭŃáī¶": 1967,
      "ĠáĪĺáĪ°áĪ¨áīµ": 1968,
      "ĠáĮĢáĪŃáĪĺáĬķ": 1969,
      "áĮ£áĪļ": 1970,
      "ĠáĭĿáīłáĪĥáĪį": 1971,
      "ĠáĮįáĭµáĬķ": 1972,
      "ĠáĬĸ": 1973,
      "ĠáĪĺáĮĢáĪĺáĪŃáī³": 1974,
      "ĠáĬ£áĪŃáĬ¥": 1975,
      "ĠáĮ¥áīķ": 1976,
      "áĭµáĭ®": 1977,
      "ĠáĭįáĮįáĬ¥": 1978,
      "ĠáĭĿáĪķ": 1979,
      "ĠáĭĵáĪ°áĪŃáī°": 1980,
      "ĠáĭŃáĭį": 1981,
      "ĠáĬŃáĪĺ": 1982,
      "áĭŃáĭİ": 1983,
      "ĠáĪįáĭĳ": 1984,
      "ĠáĪĺáĪµáĪŃáĪķ": 1985,
      "ĠáĪįáĬŃáĭķ": 1986,
      "ĠáĬªáĭ³áĬķ": 1987,
      "áĪŃáĪ²": 1988,
      "áĭįáĪİáĪµ": 1989,
      "Ġ25": 1990,
      "ĠáĬĲáĮ¥": 1991,
      "Ġ^": 1992,
      "Ġáīį": 1993,
      "Ġáī¥áīķ": 1994,
      "ĠáĭŃáĪĺáĪµ": 1995,
      "Ġáįįáīĵáĭµ": 1996,
      "áĮįáĭļáĬ£áī¥": 1997,
      "ĠáĪĽáĪķáīłáĪŃ": 1998,
      "ĠáĪĿáĬĵáĪįáī£áīµ": 1999,
      "ĠáĭĪáĪĭ": 2000,
      "ĠáĪŃáĬ¥áĪ±": 2001,
      "ĠáĬķáĭĵáĭŃ": 2002,
      "Ġáī¥áĮ£áĭķáĪļ": 2003,
      "ĠáĪĺáĮ¸": 2004,
      "ĠáĭŃáĪŃáĬ¨áī¥": 2005,
      "ĠáĬ£áī°áĪĵ": 2006,
      "áĪ©áĪ³áĪĮ": 2007,
      "ĠáĪĿáĪĿáĪķ": 2008,
      "Ġáĭŀáī£": 2009,
      "Ġáī°áĪĺáĪĬ": 2010,
      "ĠáĪĺáĮ»áĬ¢": 2011,
      "ĠáĭĿáĬĲáīłáĪŃ": 2012,
      "áĬ¦áĬķ": 2013,
      "áī³áī°": 2014,
      "áĪ°áĭµ": 2015,
      "áĮłáīķ": 2016,
      "ĠáĬ¥áĬĲ": 2017,
      "ĠáĭĿáĬ¾áĬĳ": 2018,
      "áĪħáĪī": 2019,
      "áĬĲáī¥áĪ©": 2020,
      "áĭĽáī¥": 2021,
      "ĠáĬ£áĭŃáĬŃ": 2022,
      "ĠáĭĿáĬ¾": 2023,
      "áĪĿáīµ": 2024,
      "áĭĵáĭĿ": 2025,
      "áĪĪáĭĪ": 2026,
      "áĪķáĬĵ": 2027,
      "áĭµáĪª": 2028,
      "ĠáĭŃáī¥áĪī": 2029,
      "áĭķáĪŃ": 2030,
      "áĭ¨áĪ±áĪµ": 2031,
      "ĠáĪķáī¥áĪ¨áī°": 2032,
      "Ġáĭķáĭ³": 2033,
      "áĪµáĪ³": 2034,
      "áĭĽáĪ¨áī¡": 2035,
      "áĮħáĪĿáĪŃ": 2036,
      "Ġáī°áĭ°": 2037,
      "ĠáĪĵáĭį": 2038,
      "áĪĥáĭ°": 2039,
      "áī¥áĬ«": 2040,
      "ĠáĪ°áĪ«áĪķ": 2041,
      "ĠáĪĥáĮĪáĪŃáĬĵ": 2042,
      "áĪº": 2043,
      "Ġáī°áĬķ": 2044,
      "ĠáĪª": 2045,
      "ĠáĪ©": 2046,
      "ĠáīµáĮįáĪŃáĬĽ": 2047,
      "ĠáĭĿáīķ": 2048,
      "ĠáĬ£áī¥áĭĽ": 2049,
      "ĠáĬ£áĪķáĭĭ": 2050,
      "áĭĪáĪµáĭµ": 2051,
      "ĠáĬŃáĪķ": 2052,
      "ĠáĬ¥áĭĻ": 2053,
      "ĠáĬ£áīĲáĭ²": 2054,
      "ĠáĬŃáįī": 2055,
      "ĠáĪĽáĬ¥áĬ¨áĪį": 2056,
      "ĠáĬķáĪŃáĬ¥": 2057,
      "ĠáĬ¤áĭįáĪ®áĮ³": 2058,
      "áĪ¨áĬĵ": 2059,
      "Ġáī¥áĭĺáĭŃáĬ«": 2060,
      "áĪ¸áīµ": 2061,
      "ĠáĮĪáĭĽáĬ¥": 2062,
      "áĭĽáĬ¥": 2063,
      "ĠáīµáĬ«áĪį": 2064,
      "ĠáĬŃáĬ¥": 2065,
      "ĠáĮ½áī£áĪķ": 2066,
      "áĮ½áĪŃ": 2067,
      "ĠáīĨáĪįáĭĳ": 2068,
      "ĠáĬŃáĪµ": 2069,
      "Ġ*": 2070,
      "ĠT": 2071,
      "áĪĿáĪĪ": 2072,
      "Ġáī¥áĪĺáĪ°": 2073,
      "ĠáĪķáĪį": 2074,
      "áĬ©áĪī": 2075,
      "áĬķáĭ³": 2076,
      "ĠáĬ¥áĮį": 2077,
      "ĠáĭĿáīłáĭĿ": 2078,
      "áī³áī±": 2079,
      "ĠáĬ¹áĪī": 2080,
      "ĠáĪĿáĬ½áĪª": 2081,
      "ĠáĮīáĭķáĭŀ": 2082,
      "Ġáī¥áĪĵáī£áĪŃ": 2083,
      "ĠáĪĿáī£áĪį": 2084,
      "áĭĻáĭŃ": 2085,
      "ĠA": 2086,
      "ĠáĮ½áĪķ": 2087,
      "áĪ¨áĬ½áī¦": 2088,
      "ĠáĬŃáĮĪáī¥áĪŃ": 2089,
      "Ġáĭ³áĪŃáĮĭ": 2090,
      "ĠáĬ¥áī²áĬ£": 2091,
      "ĠáīµáĪĽ": 2092,
      "Ġáī¥áĪĵáĭ°": 2093,
      "áĬ¬": 2094,
      "ĠáĪĺáĬķáĬ¥áĪ°áĭ«áīµ": 2095,
      "ĠáĪħáĭĿáī£áĭĬ": 2096,
      "áĭįáī²": 2097,
      "áĬ«áĪį": 2098,
      "ĠN": 2099,
      "áĬŃáĪ®": 2100,
      "áīłáĬĵ": 2101,
      "Ġáī°áĮ¸": 2102,
      "áĮ¾áĪĿ": 2103,
      "Ġáĭ°áĪµ": 2104,
      "ĠáĬķáĭĺáĪĪ": 2105,
      "in": 2106,
      "áĪįáī³áīµ": 2107,
      "....": 2108,
      "ĠáĪĺáĬķáĬ¥áĪ°áĭŃ": 2109,
      "áĬ£áĪį": 2110,
      "ĠáĪ½áĭĪ": 2111,
      "áĪħáī¦": 2112,
      "áĪ©áĬķ": 2113,
      "ĠáĭįáĮ½": 2114,
      "ĠáĬķáĮ¹": 2115,
      "ĠáĬ¸áĭŃ": 2116,
      "ĠáĭŃáĮį": 2117,
      "áĮ»áī¥": 2118,
      "Ġáī¥áĪŃáĮįáĮ½": 2119,
      "áī³áīµáĬĵ": 2120,
      "Ġ23": 2121,
      "Ġáī¥áī°áĭĪ": 2122,
      "ĠáĪĿáĭķáĪ«": 2123,
      "ĠáĬ£áĬ¥áĪĿáĪ®": 2124,
      "áĪ¨áīł": 2125,
      "ĠáĮ½áĬķ": 2126,
      "ĠáĭĪáĬķáĮĮ": 2127,
      "áī¸": 2128,
      "Ġ21": 2129,
      "ĠáĬķáĪ°áī¥": 2130,
      "ĠáĪķáī¥áĪ¨áīµ": 2131,
      "ĠáĬ£áĭ²": 2132,
      "ĠáĪĪáĭŃáī²": 2133,
      "áī¥áī²": 2134,
      "áĪŃáĬł": 2135,
      "áį¡-": 2136,
      "áĪ©áĪ³áĪĮáĪĿ": 2137,
      "ĠáĪĺáīĲ": 2138,
      "áĬ£áĬĵ": 2139,
      "ĠáĪĺáĭĵáĪįáī³áīµ": 2140,
      "ĠáĪĿáĭĥáĬķ": 2141,
      "áīķáĪŃ": 2142,
      "ĠáĬ¼": 2143,
      "ĠáĪĺáĪ«áĪķ": 2144,
      "áĭ³áĪµ": 2145,
      "áĮĭáĭĬ": 2146,
      "ĠáĪĺáĪĵ": 2147,
      "áį£+": 2148,
      "ĠáĪ°áĪįáįĬ": 2149,
      "ĠáīµáĪŃáĮīáĪĿ": 2150,
      "Ġáī£áĪħáĪŃ": 2151,
      "Ġáį¥": 2152,
      "ĠáĪĵáĮ¢áĬ£áīµ": 2153,
      "áī½": 2154,
      "áĮįáĬĵ": 2155,
      "Ġáī¥áĭ°": 2156,
      "ĠáĮ³áĭįáĪİáĪµ": 2157,
      "áī¦áīµ": 2158,
      "ĠáįįáĪ¨": 2159,
      "áĪķáĮįáĭĺ": 2160,
      "ĠáĪĿáĪµáī²": 2161,
      "ĠáĪĵáĭĬ": 2162,
      "áĭĿáĪŃ": 2163,
      "ĠáĪĽáĪķáīłáĪ«áĭĬ": 2164,
      "ĠáĪĦ": 2165,
      "Ġáī°áĬĲ": 2166,
      "ĠáĭĿáī°áįĪáĪĭáĪĪáĭ©": 2167,
      "áĭĢáĬĲ": 2168,
      "ĠáĪĺáĭĵáĪµ": 2169,
      "ĠáĬ£áĭĺ": 2170,
      "ĠáĬ°áĬĲ": 2171,
      "áĪ¶áīµ": 2172,
      "ĠáĪĺáĪ°áĪ¨": 2173,
      "áī¥áĪĵ": 2174,
      "ĠáįĪáĪĬ": 2175,
      "áĬŃáĬŃ": 2176,
      "ĠáīµáĬ½áĬ¥áĪī": 2177,
      "áĪĪáĬ«": 2178,
      "Ġáĭĵáĭį": 2179,
      "áĪ°áĪŃáĪĳ": 2180,
      "áĭįáĭķ": 2181,
      "áĭŃáĬĲ": 2182,
      "or": 2183,
      "áĭĶ": 2184,
      "áĭĵáĬĴ": 2185,
      "ĠáĪķáĪĽáīķ": 2186,
      "áĬ£áĪĿáĬķ": 2187,
      "ĠáĪĿáĬ»": 2188,
      "Ġáī¥áĭµáĪķáĪª": 2189,
      "Ġ22": 2190,
      "Ġáī¥áĬķ": 2191,
      "ĠáĬ¸áī°áĪĽ": 2192,
      "ĠáĪŃáĬ¥áĭŃáī¶": 2193,
      "ĠáĮĮáĮĭ": 2194,
      "ĠáĭĢáĭŃáĬĳ": 2195,
      "ĠáĬ£áī¥áĬĲáīµ": 2196,
      "Ġáī¥áĬ½": 2197,
      "Ġáĭİ": 2198,
      "áĪįáĭ®áĬķ": 2199,
      "áĬ©áĭİ": 2200,
      "áįĪáĪ»": 2201,
      "ĠáĭĿáĮį": 2202,
      "áī¡áī¥": 2203,
      "Ġáĭļáī¥áĪį": 2204,
      "áĪ±áĬķ": 2205,
      "ĠáīĢáĭ°áĪĿ": 2206,
      "áĪ³áĬ¥": 2207,
      "ĠáĮ¸áĮĪ": 2208,
      "áĬĵáĭķáī²": 2209,
      "ĠáĮĥ": 2210,
      "ĠáĭĿáĮ¸áĬķ": 2211,
      "áį¡+": 2212,
      "ĠáĬ£áĭĴ": 2213,
      "áĭµáīķ": 2214,
      "ĠáĪĿáĬķáīħáĪµ": 2215,
      "ĠáĬ£áī£áĪį": 2216,
      "ĠáĮĮáĪŃáĬ«": 2217,
      "áĭĪáĪŃ": 2218,
      "ĠáĬĲáĭŃáĪ«": 2219,
      "áĮĪáĪĪ": 2220,
      "ĠáĬŃáī¥áĪª": 2221,
      "ĠáĭĵáĭĪáīµ": 2222,
      "ĠáĪĢ": 2223,
      "ĠáĬķáĪĿáįį": 2224,
      "ĠáĬ®áĭŃáĬĸáĪĿ": 2225,
      "ĠáĬŃáĪŃáĪµáī²áĭ«áĬķ": 2226,
      "ĠáĪĵáĪĭáįįáĬĲáīµ": 2227,
      "áīĢáĪį": 2228,
      "áĪ°áĬĲ": 2229,
      "áĮłáĪĺ": 2230,
      "Ġáī¥áī°áĭĪáĪ³áĬº": 2231,
      "áīĥáĪµ": 2232,
      "ĠáĬ£áĭŃáįĪáĪįáĮ¥áĬķ": 2233,
      "áĪĽáĪŃ": 2234,
      "ĠáįĬáĪįáĪĿ": 2235,
      "ĠáĪĵáĪĻáĪ½áī°": 2236,
      "ĠáĬ®áĬķ": 2237,
      "Ġáī¥áī¥": 2238,
      "000": 2239,
      "ĠáĮĪáĭ²": 2240,
      "ĠáĪ¨áĬ£": 2241,
      "ĠáĭĿáĬ£áĪĺáĪ°": 2242,
      "áĬ»áĬ½": 2243,
      "áĮĲáĪµ": 2244,
      "áįĪáĪĪ": 2245,
      "áĪĪáĭİ": 2246,
      "ĠáĪĽáĬ¥áĬ¨": 2247,
      "Ġáĭ²áĬ»": 2248,
      "áĪĭáī¶áĪĿ": 2249,
      "ĠáĬŃáī°": 2250,
      "Ġáī«": 2251,
      "ĠáīłáĮĥ": 2252,
      "áĬĲáī¶áĪĿ": 2253,
      "ĠáĪĺáĬ¨": 2254,
      "áī¥áĭİ": 2255,
      "áĬªáĬĵ": 2256,
      "áĪł": 2257,
      "ĠáĪįáĭĳáĪį": 2258,
      "ĠáĪĺáĪµáĭĭ": 2259,
      "áĪŃáĪĥ": 2260,
      "áĪĿáĪħ": 2261,
      "an": 2262,
      "ĠR": 2263,
      "áĭ©áĬķ": 2264,
      "ĠáĬĵáĮ½áĬĲáīµ": 2265,
      "ĠáĭĿáĪĥ": 2266,
      "áįĪáī±": 2267,
      "ĠáĮ»áĭķ": 2268,
      "ĠáĬ®áĭŃáĬĵ": 2269,
      "áĭĵáĪįáī²": 2270,
      "áī«": 2271,
      "áĮįáĪĬáĭĿ": 2272,
      "ĠáĬķáĬ¥áĪ½": 2273,
      "ĠáĬ£áī¢áĪī": 2274,
      "ĠáīħáĬĳáĭķ": 2275,
      "áĮ¥áī³": 2276,
      "ĠáĬĵáī£": 2277,
      "ĠáĬ£áĮĭáĮ£áĪļ": 2278,
      "Ġ_": 2279,
      "áįĮ": 2280,
      "áĭ°áĪī": 2281,
      "Ġáī°áĮįáī£áĪŃ": 2282,
      "áĬ¨áĪŃ": 2283,
      "áĭĪáĪĵáīµ": 2284,
      "áĪĿáĬĲáīµ": 2285,
      "ĠáĬķáīķ": 2286,
      "ĠáĬ¥áĭĻáĭŃ": 2287,
      "áīĪ": 2288,
      "ĠáĬ¨áĪĿáĭĺáĪİ": 2289,
      "áĮ½áĪĳ": 2290,
      "ĠáĭŃáĮ½": 2291,
      "áĭįáĮ½": 2292,
      "áĪĿáĭķ": 2293,
      "ĠáĪ°áīłáĭŃ": 2294,
      "Ġáī¥áĪ°áĬķáĬª": 2295,
      "Ġáī¥áĬĵáĭŃ": 2296,
      "ĠáĪ½áĭĪáĭ°áĬķ": 2297,
      "ĠáĪĺáĮĭ": 2298,
      "ĠáĭĿáĪĺáĮ½áĬ¥": 2299,
      "áĪ°áĪī": 2300,
      "ĠáĪĺáĮįáī¢": 2301,
      "ĠáĪĺáĭµáĪ¨áĬ½": 2302,
      "áĪ¨áĬĴ": 2303,
      "ĠáĭķáĬķ": 2304,
      "Ġáī°áĪ³": 2305,
      "ĠáĪĿáĪµáĮ¢": 2306,
      "ĠáĪĺáĪ«": 2307,
      "ĠáīłáĪ¨": 2308,
      "ĠáīłáĮº": 2309,
      "áĮ¥áĪ¨áīµ": 2310,
      "Ġáī°áĮįáī£": 2311,
      "ĠáĬķáĭĵáĬ»": 2312,
      "ĠáĮĪáĪĬáĬ¦áĪĿ": 2313,
      "ĠáĬ£áĭŃáĪĿ": 2314,
      "áĪįáĪį": 2315,
      "ĠáĭĿáĪĿáĪįáĬ¨áīµ": 2316,
      "ĠáĪµáĪĪáĭĺ": 2317,
      "ĠáĭĪáĭ«": 2318,
      "ĠáĪįáī¥": 2319,
      "áĪĭáĬķáĭµ": 2320,
      "áĭŃáĪ©": 2321,
      "ĠáĭĿáĭ°": 2322,
      "áī¡áĬķ": 2323,
      "Ġáī°áĬ»": 2324,
      "ĠáĬ£áĭŃáĪĺáĪµ": 2325,
      "ĠáĬŃáīµáĬ¨áĭįáĬķ": 2326,
      "áĬ«áĭŃ": 2327,
      "ĠáĮ¥áĬķ": 2328,
      "\"áį¢": 2329,
      "áĪįáĪĽáīµ": 2330,
      "ĠáĬ£áĪĪáĬ«": 2331,
      "ĠáīµáĪĽáĪĬ": 2332,
      "áĪ¾": 2333,
      "áĪĭáĬ¢": 2334,
      "ĠáĮįáĭĿ": 2335,
      "ĠáĪ°áĪª": 2336,
      "áĪ«áīµáĬķ": 2337,
      "ĠáĭĿáĮįáīłáĪŃ": 2338,
      "ĠáĭŃáĪĺ": 2339,
      "ĠáĮħ": 2340,
      "ĠáĭįáĪī": 2341,
      "ĠáĭĻ": 2342,
      "ĠáĭĤ": 2343,
      "áīłáĪĭ": 2344,
      "ĠáīµáĪķáĭĿ": 2345,
      "ĠáĪ°áī¥áĬ£áĭĬ": 2346,
      "Ġáī¥áĪĿáĭĥ": 2347,
      "ĠáĬ¥áĬķáĭµ": 2348,
      "ĠáĬĵáī¥áĬ¡": 2349,
      "áĪįáĮ¢": 2350,
      "ĠáĭµáĪį": 2351,
      "áĮİáĪµ": 2352,
      "áĪĺáĬĵ": 2353,
      "ĠáĭĿáĮĪáīłáĪ¨": 2354,
      "áĪŃáĬ£": 2355,
      "ĠáĭįáĪĳ": 2356,
      "ĠáĬŃáĬķáĭµ": 2357,
      "ĠáĬ£áĭ³": 2358,
      "ĠáĬ£áĭĪ": 2359,
      "Ġáī°áĮĪáĪĬ": 2360,
      "áįįáĬĵ": 2361,
      "áī±áĪĿ": 2362,
      "ĠáĬŃáĬ¸": 2363,
      "ĠáĮīáĭ³áĭ«áīµ": 2364,
      "ĠáĪ°áĭŃáĮ£áĬķ": 2365,
      "áĬĴáīµ": 2366,
      "ĠáĭĿáī¥áĪī": 2367,
      "áīĨáī¥": 2368,
      "áĪįáī°": 2369,
      "ĠáĬ¨áĪĺáĭŃáĪ²": 2370,
      "áĭŃáīµ": 2371,
      "ĠáĭĿáĮĪáīłáĪŃ": 2372,
      "ĠáĪĿáĪ³áĭŃ": 2373,
      "ĠáįįáĮ»": 2374,
      "áĭķáī¥": 2375,
      "ĠáĭŃáĭĪ": 2376,
      "áĪĥáĬķáĪµ": 2377,
      "ĠáĬķáī°": 2378,
      "ĠáīĢáĮº": 2379,
      "áĭļáĭ°áĬķáīµ": 2380,
      "áĪįáĭĭ": 2381,
      "áĪµáĪ«": 2382,
      "ĠáĪĺáĬĵ": 2383,
      "ĠáĪĺáīłáĪį": 2384,
      "ĠáĬ£áĪµáĪĺáĪ«": 2385,
      "ĠáĭĿáīłáĪİ": 2386,
      "ĠáįįáīµáĪĴ": 2387,
      "Ġáĭ¨áĭµáĪĬ": 2388,
      "ĠáĪĵáīĢ": 2389,
      "áįįáĬ«": 2390,
      "áĮ¥áĪ¨": 2391,
      "ĠáĭĿáĮĪáī¥áĪŃ": 2392,
      "Ġáī°áĪĿ": 2393,
      "áĭ«áī³áīµ": 2394,
      "ĠáĮİáĭŃáī³": 2395,
      "ad": 2396,
      "ĠáĪĺáĪ²": 2397,
      "áĪµáī°áĪŃ": 2398,
      "ĠáĬ£áĭŃáĬ®áĬķ": 2399,
      "áĪ´áįį": 2400,
      "ĠáīµáĮ½": 2401,
      "áĬķáĮ»": 2402,
      "áīµáĭ«": 2403,
      "ĠáĭŃáįĪáĪįáĮ¥": 2404,
      "ĠáĬ£áįĪ": 2405,
      "áĪĵáĭĿ": 2406,
      "ĠáĪĿáĪµáĮĭ": 2407,
      "Ġáĭ°áĮĬáĪĿ": 2408,
      "om": 2409,
      "ĠáįįáĪįáĮłáīµ": 2410,
      "ĠáĪŃáĬ¥áĪ²": 2411,
      "ĠáĪĤáĭĪáīµ": 2412,
      "áīĺ": 2413,
      "ĠáĮĭáĭľ": 2414,
      "ĠáĬĴ": 2415,
      "ĠáīµáĬ«áĪĭáīµ": 2416,
      "ĠS": 2417,
      "áĭ°áĪ«": 2418,
      "áĭįáĬĲáīµ": 2419,
      "áĮ½áĪĿ": 2420,
      "áĪĪáĭį": 2421,
      "ĠáĪĿáĭķáī£": 2422,
      "Ġáī¥áĪī": 2423,
      "ĠáĬķáĮī": 2424,
      "áĭ«áī°": 2425,
      "áĬŃáĪĿáĬĵ": 2426,
      "ĠC": 2427,
      "ĠáĪŀáĭŃ": 2428,
      "ĠáĪĿáĪķáĪ¨áīµ": 2429,
      "ĠáĬ¨áĭŃáīµ": 2430,
      "ĠáįĪáĪª": 2431,
      "áĬķáīµ": 2432,
      "ĠáĭĵáĪŃ": 2433,
      "áĭĵáĭŃ": 2434,
      "ĠáĪĽáĪŃáĭ«áĪĿ": 2435,
      "ĠáĬ£áī¥áĪŃáĪĥ": 2436,
      "áīłáĪİ": 2437,
      "ĠáĭĪáĮº": 2438,
      "ĠáĪĿáī¥": 2439,
      "ĠáĬ¥áĪµáĬ¨": 2440,
      "áĮĭáĪļ": 2441,
      "ĠáĬķáĭķáĬ¡": 2442,
      "ĠáĭĺáĭŃáĬ°áĬĲ": 2443,
      "ĠáĪĺáīł": 2444,
      "Ġáī°áĭĪáĪ³áĬº": 2445,
      "áĪ°áĪŃáī²": 2446,
      "áĭµáĪķáĬķ": 2447,
      "áĪĵáĪµáī¥": 2448,
      "áĭ«áīµáĬķ": 2449,
      "ĠáĭļáĬ½áĬ¥áĪį": 2450,
      "ĠáĬ¡": 2451,
      "áĪľáĬķ": 2452,
      "ĠáĪĭáĭķáĪĬ": 2453,
      "ĠáĬ£áĪµáī³áīµ": 2454,
      "ar": 2455,
      "ĠáĬ£áĮ½": 2456,
      "Ġáī¥áĪĺáĪ°áĪ¨áīµ": 2457,
      "áĭĭáĪŃáĭ«": 2458,
      "ĠáīĢáĪĬáĪį": 2459,
      "ĠáĬ¨áĪĿáĭĿáī°": 2460,
      "ĠáĭµáĬķ": 2461,
      "ĠáĭŃáĪĺáĪµáĪį": 2462,
      "ĠáĪ°áĪĭ": 2463,
      "ĠáĭįáĪįáīĢ": 2464,
      "ĠáĬ¥áĬķáī°áī°": 2465,
      "ĠáĬ²áĬĵáīµ": 2466,
      "ĠáĭįáĪ³áĬĲ": 2467,
      "Ġáīµáĭķ": 2468,
      "áĭĺáĪ«": 2469,
      "áĮ»áĪĬ": 2470,
      "áĪĺáĪµáĮį": 2471,
      "ĠáĬŃáĬ¢": 2472,
      "ĠáĬ¸áĪĿáĭļ": 2473,
      "ĠáĭĪáĪĪáĭ¶": 2474,
      "ĠáĬ²áĪī": 2475,
      "ĠáĭĪáĬķáĮĮáĪį": 2476,
      "ĠáĪĺáĬķáīłáĪª": 2477,
      "ĠáĪķáī¥áĪ¨áī°áĪ°áī¥": 2478,
      "ĠáĭĽáĬķáī³": 2479,
      "ĠáĭĺáĭŃáĬ®áĬĲáĪµ": 2480,
      "ĠáĪħáĭĪáĪĵáīµ": 2481,
      "Ġáī¥áĪ©": 2482,
      "Ġáī°áĪĺáĪ³áĪ³áĪĬ": 2483,
      "áĪµáī³": 2484,
      "ĠáĭµáĬ»": 2485,
      "Ġáī°áĪĺáĪį": 2486,
      "ĠáĪ°áĭĵáī³áīµ": 2487,
      "Ġáī£áĬķ": 2488,
      "ĠáĭµáĪķáĪªáĬ¡": 2489,
      "áĪģáĭ³": 2490,
      "Ġáī°áĪª": 2491,
      "áĮ¸áĪŃ": 2492,
      "ĠáĭĿáī°áįĪáĪĭáĪĪáĭ¨": 2493,
      "áĪģáĭµ": 2494,
      "áĬ»áĭĬ": 2495,
      "Ġáĭĺáįį": 2496,
      "ĠáĬ£áĮĪáĪį": 2497,
      "ĠáīĵáĪį": 2498,
      "ĠáĭįáĪķ": 2499,
      "ĠáĬ¥áĬ®": 2500,
      "ĠáĬ®áĪĿ": 2501,
      "ĠáĪĵáĮº": 2502,
      "áī¢áĪ©": 2503,
      "ĠáįįáĪįáĪį": 2504,
      "áīłáĭĿ": 2505,
      "ĠáĭĿáĮł": 2506,
      "áĭµáĪįáĭ®": 2507,
      "ĠáįįáĮ¹áĪĿ": 2508,
      "ĠáĬ¤áĪŃáīµáĪ«áĭįáĭ«áĬķ": 2509,
      "áĬŃáĪŃáĪµáīµáĭ«áĬķ": 2510,
      "ĠáĪĿáĪ¸áīµ": 2511,
      "áĪŀáĬŃáĪ«áĪ²": 2512,
      "ĠP": 2513,
      "áĪ¨áĬł": 2514,
      "ĠáĪŃáĬ¢": 2515,
      "áĪįáĭ®": 2516,
      "áĭĢáĬĳ": 2517,
      "ĠáĪĺáĮºáĬ¡": 2518,
      "ĠáĬ¢áĬº": 2519,
      "áĪĥáĪī": 2520,
      "ĠáĬ£áĬķáĪµáīµáĭ®": 2521,
      "ĠáīµáĪķáĭĿáī¶": 2522,
      "ĠáīģáĮł": 2523,
      "ĠáĭŃáĮĪáī¥áĪŃ": 2524,
      "ĠáĪī": 2525,
      "áĭĻáĪķ": 2526,
      "ĠáĬ¢áĪ³": 2527,
      "áĮĪáīłáĪ¨": 2528,
      "áī£áĬ¥": 2529,
      "ĠáĮīáĭµ": 2530,
      "áĪĽáĭĬ": 2531,
      "áĪĮáīµ": 2532,
      "ĠE": 2533,
      "áĭĵáĬķ": 2534,
      "ĠáĬ®áĪļ": 2535,
      "ĠáĬŃáī³": 2536,
      "ĠáįĪáĪŃ": 2537,
      "ĠáĪ°áĪĽáĭ«áīµ": 2538,
      "ĠáĭĿáĭ°áĪĬ": 2539,
      "ĠáĮįáĭ°": 2540,
      "ĠáĪĴáĭĿ": 2541,
      "Ġáĭ°áī¡áī¥": 2542,
      "ĠáĬķáĭĵáĬĵ": 2543,
      "10": 2544,
      "áĪĪáĬķáĬķ": 2545,
      "st": 2546,
      "áĭ¨áĭŃ": 2547,
      "ĠáĭĿáĭĵáīłáĭ¨": 2548,
      "áĪĪáĪī": 2549,
      "áĭĭáĪŃáĭ«áīµ": 2550,
      "Ġáįįáīħ": 2551,
      "áĪ³áĪµáī£": 2552,
      "ĠáĭļáĬ¸áĭįáĬķ": 2553,
      "áĬķáĬ©": 2554,
      "ĠáĬŃáī¥": 2555,
      "ĠáĮ½áĭµ": 2556,
      "ĠáĬķáĪħáĭĿáī¢": 2557,
      "áĪįáĭ°": 2558,
      "áĪ¨áĮ½": 2559,
      "áĪįáĬ»": 2560,
      "ĠáĬķáĬ»áĪį": 2561,
      "ĠáĬ£áĭŃáĬª": 2562,
      "ĠáĭĿáĭµ": 2563,
      "ĠáįĮ": 2564,
      "ĠáĪĿáĬķáīħáĪµáīĵ": 2565,
      "ĠáĮ¥áīł": 2566,
      "Ġáī¥áĬ¥áĬ¡": 2567,
      "áĪĪáĭ¨": 2568,
      "áĬ¥áĪĿ": 2569,
      "áĮįáĪµáī²": 2570,
      "áĮłáĪ«": 2571,
      "ĠáĭĺáĪĪáĭį": 2572,
      "áĪŃáĪĴ": 2573,
      "ĠáĪķáĬŃáĪĿáĬĵ": 2574,
      "ĠáĬ¥áĭļáĬ¦áĪĿ": 2575,
      "áĮłáĪ¨": 2576,
      "áĭŃáī³áĭŃ": 2577,
      "áĭĮ": 2578,
      "áĪĭáĭķ": 2579,
      "áĪ°áĪį": 2580,
      "ĠáĬ¥áĭļáĬ£áī¶áĪĿ": 2581,
      "áīķáī²": 2582,
      "ĠáĭĿáīłáĪī": 2583,
      "ĠáĪĺáĪµáĬ¨": 2584,
      "ĠáĭĿáĪ¨áĬ£": 2585,
      "áĬ¥áĬĵ": 2586,
      "ou": 2587,
      "ĠáĭĿáī°áĪĵ": 2588,
      "áĭĤ": 2589,
      "áĭĭáĪĿ": 2590,
      "ĠáĬ¥áĪµáĪ«áĬ¤": 2591,
      "ĠáĬ¥áĬķáĪµáĪ³": 2592,
      "´áĮ¥áĪ®": 2593,
      "áĪĪáĬ¹": 2594,
      "ĠáĬŃáī¥áĪī": 2595,
      "ĠáĮįáīłáĪŃ": 2596,
      "ĠáĭĺáĭŃáĬķ": 2597,
      "ĠáĬ¨áī¥": 2598,
      "ĠáīµáįĪáĪįáĮ¥": 2599,
      "áĬ£áĬŃáĪį": 2600,
      "áĮĭáĮĪ": 2601,
      "Ġm": 2602,
      "ĠáĪĿáīħ": 2603,
      "ĠáĭĿáĭ°áĪĪ": 2604,
      "ĠáĪĿáĪ³áĬĵ": 2605,
      "ĠáĬķáĪį": 2606,
      "áĪĭáĭįáĭ«áĬķ": 2607,
      "ĠáĭĪáī°": 2608,
      "ĠáĪĿáĪµáĬŃáĪŃ": 2609,
      "áĪĪáĭµ": 2610,
      "ĠáĪĵáĪ³áī£áīµ": 2611,
      "ĠáĪĿáĪįáĬŃáīµ": 2612,
      "áī¥áĪ®": 2613,
      "ĠáĪĵáī°": 2614,
      "Ġ26": 2615,
      "áĮĨ": 2616,
      "áĭĽáĪ¨áī¦": 2617,
      "ĠáĬĵáīµáĬ«": 2618,
      "áįĪáĪµ": 2619,
      "áĮª": 2620,
      "ĠáĭĿáĪµáĭķáī¥": 2621,
      "áĪĺáĭĿ": 2622,
      "áĮłáĬĵ": 2623,
      "ĠáĭĪáĪ°": 2624,
      "ĠáĭľáĮĭáī³áīµ": 2625,
      "áĬŃáĪµ": 2626,
      "áī¥áĬ£": 2627,
      "Ġáĭ©áĬĴ": 2628,
      "ĠáĮĪáīłáĪŃ": 2629,
      "áī¡áīħ": 2630,
      "áĭįáĪŃ": 2631,
      "ĠáĬŃáĪħáĪī": 2632,
      "áĭ¨áĬĵ": 2633,
      "ĠáĪļáĪįáĭ®áĬķ": 2634,
      "ĠáĪĺáĮ½áĬĵáĭķáī²": 2635,
      "ĠáĮĪáĭŃáĪ¨": 2636,
      "ĠáĬ¥áĬķáī°áĬ¾áĭŃáĬĳ": 2637,
      "áĮ¸áĪį": 2638,
      "áĬķáī±": 2639,
      "áĭŃáĪ¨áĪµ": 2640,
      "áī¥áĭĽ": 2641,
      "ĠáĬ¨áĭĵ": 2642,
      "áĪ«áĬ¥": 2643,
      "áįİáĬķ": 2644,
      "áĮĪáĪµ": 2645,
      "ĠáĮ¥áĭĳ": 2646,
      "ĠáĪĿáĪ³áĬ»": 2647,
      "áĭķáĪĭ": 2648,
      "ĠáĬĵáī°áĭŃ": 2649,
      "ĠáīµáĪķ": 2650,
      "áĪ³áīĲ": 2651,
      "ĠáĪĺáĬ£": 2652,
      "ĠáĪħáĭĿáī¥áĬĵ": 2653,
      "ĠáĪ°áĪĿ": 2654,
      "ore": 2655,
      "ĠáĬ£áĬ«áĪĭáīµ": 2656,
      "ĠáĪµáī¥": 2657,
      "áĪĿáĭµ": 2658,
      "ĠáĪµáĬ¥áĪĬ": 2659,
      "ĠáĪĺáĮ»": 2660,
      "Ġáī°áĪĪ": 2661,
      "ĠáĬ£áī¥áĭ«áī°": 2662,
      "ĠáĬ£áĭĭáĪŃáĪķ": 2663,
      "ĠáĬ¥áĭĺ": 2664,
      "áĬ¥áĬ«": 2665,
      "ĠáĪĿáĬķáī£áĪŃ": 2666,
      "Ġáī¥áĮ¸": 2667,
      "Ġ[.": 2668,
      "ĠáĬ£áī²": 2669,
      "áĮįáĪµ": 2670,
      "ĠáĭĪáĭ°": 2671,
      "ĠáĪµáĪĪáĭĺáĭŃ": 2672,
      "ĠáĮ¥áĪŃ": 2673,
      "ĠáĪĺáĬķáįĪáĪ³áĭĬ": 2674,
      "áĪ¨áĮĭáĮĪ": 2675,
      "Ġáī²": 2676,
      "ĠáĭĵáīķáĪļ": 2677,
      "áĭįáĭĵáī°": 2678,
      "áĭİáĪµ": 2679,
      "ĠáĭĺáĪĿ": 2680,
      "ĠáĬ£áĬķáĮ»áĪŃ": 2681,
      "ĠáĬ½áĪ³áĭķ": 2682,
      "ĠáĪĺáĪĿáĪŃ": 2683,
      "ĠáĬķáįĪ": 2684,
      "ĠáĪĺáī¥áĭĽáĪķáīµáĬ¡": 2685,
      "ĠáĮ¸áĬĴáĪĳ": 2686,
      "ĠNe": 2687,
      "ĠáĪĵáĪĬáįī": 2688,
      "áĭĪáī³": 2689,
      "áĮ¦áĪĿ": 2690,
      "áĬ²": 2691,
      "ĠáĭŃáĬĲ": 2692,
      "ĠáĬŃáī¡áĪŃ": 2693,
      "Ġáī»áĭŃáĬĵ": 2694,
      "ĠáĪĺáĪ«áĪķáī²": 2695,
      "áĮ½áĬ¡": 2696,
      "ĠáĪĺáĬķáĮįáĪµ": 2697,
      "áįĸáĪŃáīµ": 2698,
      "ĠáĭĺáĬķ": 2699,
      "áīĥáĪį": 2700,
      "áĭĪáĬĵ": 2701,
      "ĠáĬ¢áĬķáī°áĪŃ": 2702,
      "ĠáĭŃáĬ¸": 2703,
      "áĬłáīµ": 2704,
      "ĠáĭĿáĪ¨áĬ¸": 2705,
      "ĠáĬķáĬķ": 2706,
      "Ġáĭ°áĬķ": 2707,
      "áī£áĪħáĪĪ": 2708,
      "áĪİáĪĿáĬķ": 2709,
      "áĬ¤áĬķ": 2710,
      "áĭįáĪµ": 2711,
      "áĭ°áĬ£": 2712,
      "áĬ¨áĭŃ": 2713,
      "ĠáĬķáĭħáĪī": 2714,
      "Ġáĭ°áī¥": 2715,
      "Ġáī¥áĪĿáĪīáĬ¥": 2716,
      "Ġáĭ°áĪĬ": 2717,
      "áĪŃáĬ¥áĭ©": 2718,
      "áĬ¥áī°": 2719,
      "ĠáĮįáĪŃ": 2720,
      "áĭ°áĪįáĬķ": 2721,
      "áĮĪáĪįáĮįáĪį": 2722,
      "ĠáĬ£áī¶": 2723,
      "áĪ¨áįį": 2724,
      "ĠáĬĲáĭŀáĪĿ": 2725,
      "áĬ¹áĪį": 2726,
      "ĠáĭķáĪĪ": 2727,
      "ĠáĬķáĮ¥áįĪ": 2728,
      "ĠáĬ£áĪĪáĬ»": 2729,
      "ĠáīĢáĪįáĮ¢": 2730,
      "ĠáĪ¨áī¥áĪĵ": 2731,
      "ĠáĬĵáī±": 2732,
      "ĠáĪĿáĪµáĪĬ": 2733,
      "ĠáĮ¥áīłáī¥": 2734,
      "áĬĵáĭķ": 2735,
      "áĬĵáīµáĬķ": 2736,
      "ĠáĪŀáĭ«": 2737,
      "áįĭáĪµ": 2738,
      "ĠáĬ£áīµáĪĴ": 2739,
      "áī³áĭĬáīµ": 2740,
      "ĠáĮ¸áī¥áĮ»áī¥": 2741,
      "ĠáĬķáĬ¥áĪ½áī¶": 2742,
      "áĪ¨áĪī": 2743,
      "ĠáĭµáĪ®": 2744,
      "Ġáĭĵáī£áĭŃ": 2745,
      "ĠáĪŃáĬ¥áĪ°": 2746,
      "áī£áīµáĬķ": 2747,
      "áĪĬáĮ¡": 2748,
      "ĠáĪĺáĭĵáĪįáīµáī³áīµ": 2749,
      "ĠáĬķáĪĵáĭµáĪķ": 2750,
      "áĪĭáĭī": 2751,
      "ĠáĮ¸áĪİ": 2752,
      "ĠáĬķáĬĲáįį": 2753,
      "Ġâ": 2754,
      "áĭįáĪŀ": 2755,
      "ĠáĪĽáĬ¥áĪ°áĪŃáī²": 2756,
      "áĪµáĭ«": 2757,
      "ĠáĬ£áĪĪáĬĴ": 2758,
      "ĠáĪµáĮī": 2759,
      "ĠáĬ£áĪķáĭĭáīµ": 2760,
      "áĪĪáĪį": 2761,
      "ĠáĪĺáĮ¥áīĥ": 2762,
      "ĠáĪ°áįĬ": 2763,
      "Ġáĭ¨áī¥áĪįáĬĵáĬķ": 2764,
      "ĠáĬķáĬ¥áĮįáĭļáĬ£áī¥": 2765,
      "ĠáĪł": 2766,
      "ĠáįĸáĪĬáĪµ": 2767,
      "Ġáĭ©áĬĴáī¨": 2768,
      "le": 2769,
      "áĪĥáĭŃ": 2770,
      "áįĭáĬķ": 2771,
      "ĠáĬ¥áĬĵáīłáĪĪ": 2772,
      "ĠáĭĢáĬĲ": 2773,
      "Ġáĭ¨áĪ©áĪ³áĪĮáĪĿ": 2774,
      "Ġáį¤": 2775,
      "ĠáĭĿáĪĵáĭĺ": 2776,
      "ĠáĪĺáĭĭ": 2777,
      "áĪĬáĪī": 2778,
      "ĠáĬ¨áĪĿáĭĿáĬ¾áĬĲ": 2779,
      "ĠáĭĿáīłáĪį": 2780,
      "ĠáĭĿáĪĺáĮ¸": 2781,
      "áįĨ": 2782,
      "ĠáįķáĪ¨áĭļáĭ°áĬķáīµ": 2783,
      "ĠáĬķáĮ¸": 2784,
      "ĠáĬ¾áĭŃáĬĳ": 2785,
      "ĠáĪĵáī²": 2786,
      "ĠáĮĪáĪĬáĮ¹": 2787,
      "ĠáĬ¥áĭĺáĬķ": 2788,
      "ĠáĪ½áĮįáĪŃ": 2789,
      "ĠáĬĲáīłáĪ¨áīµ": 2790,
      "ĠáīłáĪįáĭİ": 2791,
      "áĪĺáĮ¥": 2792,
      "ĠáĭĺáĪķ": 2793,
      "ĠáĪĥáĭŃáĪĽáĬĸáīµ": 2794,
      "áīłáĪįáĬĵ": 2795,
      "ĠáĪĿáī¥áĪ«": 2796,
      "Ġáĭ«áĬ¥": 2797,
      "ĠáĭĭáĬĵ": 2798,
      "áīĲáĬķ": 2799,
      "Ġáĭ¶áĪĭ": 2800,
      "áĭ¨áĪŃ": 2801,
      "ĠáĮĪáĭŃáĪ®áĪĿ": 2802,
      "ĠáĪĽáĭķáĪ¨": 2803,
      "áĪĥáīµ": 2804,
      "Ġs": 2805,
      "Ġáĭ¨áĭµáĪįáĭ¨": 2806,
      "ĠáĭĿáī°áĭĭ": 2807,
      "ĠáīģáĮ½áĪª": 2808,
      "Ġáī±": 2809,
      "áĮĪáĪįáĮ¸": 2810,
      "ĠáĭĿáīłáĪĪáĮ¸": 2811,
      "ĠáĪĵáĪ«": 2812,
      "ĠáĭľáĮĭ": 2813,
      "ĠáĪĺáĪµáĬ¨áĪ¨áĪĿ": 2814,
      "áĪĭáīµáĬķ": 2815,
      "´áĮ¥áĪ®áĪµ": 2816,
      "áĬ»áĪįáĬ¥": 2817,
      "ĠáĬ¥áĬķáī°áĭĿ": 2818,
      "ĠáĬŃáĪŃáĪµáīµáĭ«": 2819,
      "Ġ28": 2820,
      "ĠáīĢáĭŃ": 2821,
      "ĠáĪĺáĪªáĪķ": 2822,
      "áĭĵáĬĵ": 2823,
      "Ġáĭ®áĪ´áįį": 2824,
      "ĠáĪŃáĪĳ": 2825,
      "áĪĽáĪį": 2826,
      "áĪĪáĭŃáī²": 2827,
      "áĪŃáĬ«áī¥": 2828,
      "áĪŀáī±": 2829,
      "ĠáĭĺáĪĪáĬ»": 2830,
      "ĠáĭŃáī¥áĪĪ": 2831,
      "ĠáĪĺáĪ«áĪĴ": 2832,
      "ĠáĪĵáĪ¶áīµ": 2833,
      "áĬ»áĭ¨": 2834,
      "ĠáĪĿáĪĿáĪķáĭ³áĪŃ": 2835,
      "ĠáĮĪáĪĿ": 2836,
      "Ġáĭķáĭ³áĮĭ": 2837,
      "ĠáĬ£áĭŃáįĪ": 2838,
      "ĠáĬķáīµ": 2839,
      "áĭķáĭµ": 2840,
      "áī±áĭķ": 2841,
      "áįĪáĪĭáĪĪáĭ¨": 2842,
      "ĠáĪ³áĪįáĪ³áĭŃ": 2843,
      "Ġáĭ¨áī¥áĪĪ": 2844,
      "áĮ¸áĪĺ": 2845,
      "áĬ¥áī³": 2846,
      "áĪĪáĪµáī°": 2847,
      "áīµáĬ»": 2848,
      "Ġáī¶": 2849,
      "ĠáįĪáī°áĬĵ": 2850,
      "áīĥáĬķ": 2851,
      "ĠáĪµáĮīáĪĿáī²": 2852,
      "ĠáĬķáī£áĭķ": 2853,
      "Ġáĭ°áīħ": 2854,
      "ĠáĬ£áĮ¸áī¢": 2855,
      "áĭ°áĪįáĭ®": 2856,
      "áīłáĮ½áĪķ": 2857,
      "ĠáĭĿáĬķ": 2858,
      "Ġáī£áĪŃ": 2859,
      "ĠáĬ¨áĭ¨": 2860,
      "áĭĵáĪī": 2861,
      "áĮ¢áĪ©": 2862,
      "ĠáĪ±áĭ³áĬķ": 2863,
      "ĠáĪĿáĮ¥": 2864,
      "Ġáī°áĪ«áĬ¥": 2865,
      "ĠáĪĵáĭ«áĪį": 2866,
      "ĠáĬŃáĭµ": 2867,
      "áĪµáĪŃ": 2868,
      "áĬ¹áĪĿáĬķ": 2869,
      "ĠáĪ«áĬ¥": 2870,
      "ĠáĭĺáĪŃáĬ¢": 2871,
      "ĠáĬ¨áĬł": 2872,
      "Ġáī³áĪķ": 2873,
      "ĠáĭĿáĬĲáīłáĪ¨áīµ": 2874,
      "ĠáĪĽáĪķáīłáĪ¨": 2875,
      "ĠáįĪáĪ¨áĬķ": 2876,
      "Ġáī¥áĮ½": 2877,
      "áĮĪáĪŃáĪĿ": 2878,
      "ĠáĬ£áĪ¨": 2879,
      "ĠáĪĺáĭ³áĭŃ": 2880,
      "áĭ°áĮį": 2881,
      "ĠáĬ©áĪįáĬĵ": 2882,
      "áī¶áĬķ": 2883,
      "ĠáĭĿáĬĲáīłáĪ®": 2884,
      "áĪ®áĬĵ": 2885,
      "ĠáīħáĪŃ": 2886,
      "áīĨáĪĿ": 2887,
      "Ġáī¥áĬ¢": 2888,
      "ĠáĪķáĭĿáī¢": 2889,
      "ĠáĪµáĭĴ": 2890,
      "ĠáĬķáĬ»áĪįáĬ¦áīµ": 2891,
      "áīĵáĭŃ": 2892,
      "áĭĵáī¢": 2893,
      "áĪĪáĪ±": 2894,
      "15": 2895,
      "áĪµáĪĪ": 2896,
      "áįĪáĬķ": 2897,
      "ĠáĬķáĪħáĭĿ": 2898,
      "ĠáĪĺáĪµáĭĭáĬ¥áī²": 2899,
      "Ġáĭ³áĮį": 2900,
      "ĠáīĨáĪįáĭĵ": 2901,
      "ĠáĪĿáĭķáĪ«áįį": 2902,
      "Ġáī¥áĬĲ": 2903,
      "ĠáĪĿáĭī": 2904,
      "áĪĵáĭŃáĪ½": 2905,
      "ĠáĬŃáĪįáī²áĬ¦áĪĿ": 2906,
      "ĠáĬŃáĪįáĪį": 2907,
      "ĠáĬ¥áĬ¹áĪį": 2908,
      "ĠáĬŃáīµáĮĪáī¥áĪŃ": 2909,
      "ĠáĬ¨áĪĿáĬ¡áĭįáĬķ": 2910,
      "áĪµáĪį": 2911,
      "áĮ¥áīĢáĪĿ": 2912,
      "ĠáĬ¥áĬķáĮįáĪĬáĭĿ": 2913,
      "áīĸáĪĿ": 2914,
      "áĭĪáĬ«": 2915,
      "ĠáĬĵáīµáĬĵ": 2916,
      "ĠáĪįáīłáĭŃ": 2917,
      "ĠáĬ£áĪħáĭĽáī¥": 2918,
      "ĠáĪĺáĮĪ": 2919,
      "ĠáįĪáĪĪáĪĽ": 2920,
      "ĠáĬŃáī¥áĪŃ": 2921,
      "áīµáĪª": 2922,
      "áĪĭáĪ½": 2923,
      "áĮ½áĬ£": 2924,
      "Ġáī¥áĭĵáĪį": 2925,
      "áĭ²áĬ¡": 2926,
      "ĠáĬ£áī¥áĬ£": 2927,
      "áĪĵáĪįáįį": 2928,
      "Ġáī°áĭ³": 2929,
      "ĠáĮ¸áĪĭáĬ¢": 2930,
      "ĠáĮ¸áĮĪáĪĽáīµ": 2931,
      "ĠáĭĿáĬ£áĪĺáĪ°áĪĪ": 2932,
      "áĪ¨áī³": 2933,
      "Ġáī£áĭŃáī³": 2934,
      "Ġáĭ¨áĪİáĬķ": 2935,
      "ĠáĪĽáĬķ": 2936,
      "Ġáĭ¨áī¥áĪĪáĭŃáĬķ": 2937,
      "ĠáĭŃáĬķ": 2938,
      "Ġáī¥áĭĿáĭ«áĭ³": 2939,
      "ĠáĪĺáĪĿáĪŃáĪĴ": 2940,
      "ĠáĪĺáĭĵáĪįáī³áĭĬ": 2941,
      "ĠáĭĿáĪĿáĭµáĬĵ": 2942,
      "ĠáĪ¬": 2943,
      "ĠáĪĺáīķáĭ°áĪµ": 2944,
      "Ġáī¥áĬ¡": 2945,
      "ĠáĬĲáī¢": 2946,
      "Ġ27": 2947,
      "áĪĵáĪī": 2948,
      "ĠáĪĻáĪīáĬ¥": 2949,
      "ĠáĪĺáĪŃáĭĵ": 2950,
      "ĠáĪĺáĭĿáĪĻáĪŃ": 2951,
      "áīķáĪŃáī¥": 2952,
      "ĠáĪĺáĮĢáĪĺáĪŃáĭ«": 2953,
      "ĠáĭĿáĮĪáīłáĪ®": 2954,
      "áĮ¥áīĢáĪĺáĪī": 2955,
      "ĠáĭĿáĬĲáī¥áĪŃ": 2956,
      "ĠáĮ½áĪķáįĪáīµ": 2957,
      "Ġáī°áĭĭáĪĤ": 2958,
      "ĠáĬŃáĬ½": 2959,
      "ĠáĪĵáĭµáĬĲáīµ": 2960,
      "ĠáĬķáĮįáĪĨ": 2961,
      "áĪĿáĪįáĬ¨": 2962,
      "al": 2963,
      "ĠáĪĺáįįáīµ": 2964,
      "ĠáĬķáĪĿáĮįáī£áĪŃ": 2965,
      "áĬ¥áĭĿ": 2966,
      "Ġáĭĺáĭį": 2967,
      "ĠáĬ£áĪİáĬĴ": 2968,
      "Ġáī¥áĬ¸áĪĿ": 2969,
      "ĠáĪĲáĭļ": 2970,
      "ĠáĭŃáĭĿ": 2971,
      "áĬ¸áĭŃ": 2972,
      "áĪĪáī¥": 2973,
      "ĠáĪŃáĮį": 2974,
      "áĪķáĮįáĭĿ": 2975,
      "ĠáĬķáĪĥ": 2976,
      "áĭĵáĪŃ": 2977,
      "ĠáĪ°áĬķáīłáīµ": 2978,
      "ĠáĬķáĬĵáĭŃ": 2979,
      "ĠáĪĺáĪ°áĪ¨áī³áĭĬ": 2980,
      "áĭĽáīµ": 2981,
      "áī³áĪĿ": 2982,
      "áĪ¨áī¡": 2983,
      "ĠáĪĺáĪ°áĪĭáīµ": 2984,
      "áĮĪáīłáĪŃ": 2985,
      "ĠáĮ½áĪĳáįĭáīµ": 2986,
      "ĠáĭĪáĭ«áĬĲ": 2987,
      "áĭĻáĪĵáīµ": 2988,
      "ĠRe": 2989,
      "Ġ0": 2990,
      "áĪµáīµáĪª": 2991,
      "áĮĭáĪĿ": 2992,
      "ĠáĭĪáĭµ": 2993,
      "ĠáĬ£áĮĭáĮ¢": 2994,
      "ĠáĬŃáįīáĬ¥": 2995,
      "ĠáĪĺáĪĿáĪħáĪŃ": 2996,
      "áĬĸáĪµ": 2997,
      "Ġáĭ¶áĪĭáĪŃ": 2998,
      "áīłáĮ½": 2999,
      "áįħáĬ¥": 3000,
      "ĠáĬ£áī°áĪĵáĪ³áĪµáī£": 3001,
      "áįįáĪª": 3002,
      "áĮłáīĵ": 3003,
      "ĠáĮĮáĪŃáĬĵ": 3004,
      "ĠáĬŃáī³áīłáīµ": 3005,
      "ĠáĬ«áī¥áī³": 3006,
      "Ġáī£áĪħáĪĬ": 3007,
      "ĠáĪĺáīµ": 3008,
      "ĠáĮĪáīłáĪ¨": 3009,
      "ĠáīĥáĪĪ": 3010,
      "ĠáĭĿáĪĺáĪµ": 3011,
      "ĠáĬ£áĭ¨áĪŃ": 3012,
      "ĠáĪĴáĭĻ": 3013,
      "ĠáĬķáĪĿáĪŃáĬ«áī¥": 3014,
      "ĠáĬ¤áĪį": 3015,
      "ĠáĪĺáĮ¥áīĥáĭķáī²": 3016,
      "ĠáĬŃáĬķáī¥áĪį": 3017,
      "áĮ£áĪª": 3018,
      "ĠáĪ¸áĭįáĭĵáī°": 3019,
      "áĮłáįįáĬ¥": 3020,
      "áĬ½áĬ¥áĪİ": 3021,
      "ĠáĪµáĪĿáĪĿáĭķ": 3022,
      "áĪĿáĪĪáĪµ": 3023,
      "áīļ": 3024,
      "ĠáĬŃáīµáī¥áĪį": 3025,
      "ĠáīħáĭµáĪĿ": 3026,
      "Ġáĭ°áĮĪáįį": 3027,
      "ĠáĬ®áįį": 3028,
      "ĠáĭĪáĮĪáĬķ": 3029,
      "áīłáĪ®áĪĿ": 3030,
      "ĠáĮĢáĪĺáĪ¨": 3031,
      "ĠáĭĿáĪŃáĬ¨áī¡": 3032,
      "ĠáĪ°áĪľáĬķ": 3033,
      "ĠáīłáĪĭ": 3034,
      "ĠáĪĺáĪĭáĬ¥áĬ½áī²": 3035,
      "ĠáĬ®áĭŃáĬķ": 3036,
      "ĠáĬķáĪĿáĪµ": 3037,
      "ĠáĪĺáĪįáĬ£áĬ½": 3038,
      "áĭ°áĮĪáĬĵ": 3039,
      "ĠáĪĺáĭĽáĪĻáĪŃ": 3040,
      "ĠáĪĺáĬķáĬĲáīµ": 3041,
      "Ġáĭ¨áī¥": 3042,
      "áĭĵáĬ«": 3043,
      "áī°áĪī": 3044,
      "ĠáĬķáĬº": 3045,
      "ĠáĬĵáī¥áĪ«": 3046,
      "ĠáĭĵáĬķáīĢ": 3047,
      "ĠáĪ¨áĬ¸": 3048,
      "ĠáĪĺáĪŃáīłáī¥": 3049,
      "ĠáĪĺáĬªáĬĵ": 3050,
      "ĠáĬ¢áĭ±": 3051,
      "ĠáĬ£áī¥áĪŃáĪĥáĪĿ": 3052,
      "áī¶áĪĿáĬķ": 3053,
      "ĠáĭĿáĪĵáĪ¸": 3054,
      "áĪĪáĪĽáĭĬ": 3055,
      "ĠáīµáĬ¸áĭįáĬķ": 3056,
      "ĠáĮĭáĬķ": 3057,
      "áĭ¨áĬĴ": 3058,
      "ĠáĮ¸áĪĵáĭŃ": 3059,
      "ĠáĪĿáĪįáĬŃ": 3060,
      "ig": 3061,
      "ĠáĬ¥áĪ±": 3062,
      "ĠáĭĺáĪŃ": 3063,
      "ĠáĭĪáī°áĪĥáĭ°": 3064,
      "áĬ¾áĬķ": 3065,
      "áĪ°áĪĿáĭĳ": 3066,
      "áī¥áĪĪáĬ©áĪĿ": 3067,
      "ĠáĪįáĬ¡": 3068,
      "áĪĵáĭĬ": 3069,
      "áĬŃáī°áĪŃ": 3070,
      "ĠáĭĪáĪĪáĭ²": 3071,
      "Ġáī°áĮłáīĴ": 3072,
      "14": 3073,
      "áīłáĬĴ": 3074,
      "ĠáĮ«": 3075,
      "áĭµáĬ©áĪĿ": 3076,
      "áĬ¨áĭŃáĭµ": 3077,
      "ĠáĬĵáīłáĭŃ": 3078,
      "áĬ¦áĪį": 3079,
      "áĭĵáī¥": 3080,
      "ĠáĬ£áī±áĪĿ": 3081,
      "ĠáĮįáĪĿáīµ": 3082,
      "áĪĥáĭµ": 3083,
      "Ġáī¦áī³áī³áīµ": 3084,
      "ĠáĮ½áī¡áīħ": 3085,
      "áĮįáĪĪáĮ½": 3086,
      "áĪĺáĪĵ": 3087,
      "ĠáĭįáĮ½áĬ¢áīµ": 3088,
      "ĠáĪĵáīĢáĬĽ": 3089,
      "Ġáī¥áĪħáĭŃáĭĪáīµ": 3090,
      "áĪ«áĪŃáĪĵ": 3091,
      "ĠáĬķáįį": 3092,
      "ĠáīģáĪ©áī¥": 3093,
      "áĭĵáīµáĬķ": 3094,
      "ĠáĬŃáįįáĪĪ": 3095,
      "ĠáĭĿáĮ½": 3096,
      "áĭĪáĮ½áĬ¥": 3097,
      "áīŃ": 3098,
      "ĠáĬķáīł": 3099,
      "áĬ½áĬķáĭ«áīµ": 3100,
      "ĠáĮĪáĬĲáīµ": 3101,
      "ĠáĬ£áĬ«áĭŃ": 3102,
      "Ġ199": 3103,
      "ĠáĪĿáĪµáĮĭáĬĵ": 3104,
      "Ġáĭ°áī¥áĭ³": 3105,
      "ĠáĪĿáĬķáīħáĪµáīĵáĪµ": 3106,
      "ĠáĭĿáĮįáī¥": 3107,
      "ĠáĭŃáĪģáĭ³": 3108,
      "ĠáĭĿáī°áĬ£": 3109,
      "ĠáĬ£áĬ¥áĭ³": 3110,
      "áī¥áĪİáĪĿáĬķ": 3111,
      "áĪįáĮ¡": 3112,
      "ĠáĬĲáĮ¥áī¢": 3113,
      "áĬ£áĭĬ": 3114,
      "Ġc": 3115,
      "ĠáĪĺáĪµáī°": 3116,
      "áĭĽáĬķ": 3117,
      "ĠáĭĭáĭķáĪĭ": 3118,
      "ĠáĬŃáĬ£": 3119,
      "áĮįáĮĭ": 3120,
      "ĠáĪĵáĮºáĪŃ": 3121,
      "áīłáĪįáĬ«": 3122,
      "áĮįáĪį": 3123,
      "ĠáĪµáīķ": 3124,
      "Ġáįİ": 3125,
      "áī£áĪ©": 3126,
      "18": 3127,
      "ĠáĬŃáĬĲáī¥áĪŃ": 3128,
      "áĭ°áĭ°": 3129,
      "Ġáīªáĭµáĭ®": 3130,
      "ĠáīµáĬ¥áĭĽáĭĿ": 3131,
      "âĢº": 3132,
      "ĠáĪĵáĭ³áĪŃ": 3133,
      "ĠáĪķáĭ«": 3134,
      "Ġáī°áī£áĭķ": 3135,
      "ĠáĬĵáĮ»": 3136,
      "ĠáĪ°áĪ«áĪķáī°áĬĽáī³áīµ": 3137,
      "ĠáįįáĪŃáīĤ": 3138,
      "ĠáĭĿáĮĪáī¥áĪ®": 3139,
      "áĪĺáĭŃáī²": 3140,
      "áĮĲáĭŃáī³": 3141,
      "ĠáĬ¥áĬ©": 3142,
      "ĠáĪķáĪŃ": 3143,
      "ĠáĪĺáĬ¨áĪ«": 3144,
      "ĠáĪĭáĭķáĪĪ": 3145,
      "ĠáĬ¨áįĬ": 3146,
      "áĪĭáī³áīµ": 3147,
      "ĠáĪĿáĮįáī¢": 3148,
      "ĠáĭŃáĮįáī¥": 3149,
      "áĬĲáī³": 3150,
      "ĠáĮ¸áĪįáĪĽáīµ": 3151,
      "ĠáĬ£áĪ¨áĮĭ": 3152,
      "ĠáĮįáī¥áĪ¨": 3153,
      "áĪĺáĪįáĬŃáīµ": 3154,
      "ĠáĪµáĪĻ": 3155,
      "ĠáĪĿáĭĥáĬĸáĪĿ": 3156,
      "áĬķáīĤ": 3157,
      "ĠáĬĲáĮĬ": 3158,
      "ĠáĪ¾": 3159,
      "áĭ¨áĪĨáĭĭ": 3160,
      "Ġáī¥áĪµáĪĿ": 3161,
      "ĠáĪĺáĮ»áĪķ": 3162,
      "áĪĭáĬ¸": 3163,
      "ĠáĬ¥áĬķáĭ°áĮĪáĬĵ": 3164,
      "ĠáĪ½áĪĽ": 3165,
      "12": 3166,
      "áĪ°áĪĿáĭĸ": 3167,
      "ĠáĭĿáĬ¸áįį": 3168,
      "ĠáĬ£áīłáĪŃ": 3169,
      "Ġáī°áīĵáĭįáĪŀ": 3170,
      "ĠáĪļáĬ¥": 3171,
      "ĠáĬ£áĪŃáĬ¥áĪµáī²": 3172,
      "áīłáĬ«": 3173,
      "ĠáĬĲáĬķ": 3174,
      "ĠáĬĵáī¥áī³": 3175,
      "Ġáĭĺáī¥": 3176,
      "ĠáĭĺáĪį": 3177,
      "Ġáĭ¶áī¥": 3178,
      "ĠáĭĪáĮĪ": 3179,
      "ĠáĬķáĪĿáĪķ": 3180,
      "ĠáĭĵáĭŃáĬĴ": 3181,
      "Ġáī°áīĲáī¢": 3182,
      "ĠáĮįáī¡áĬ¥": 3183,
      "ĠáĬŃáįįáĪĬáīµ": 3184,
      "ĠáĭĿáĪĪáĭĵáĪĪ": 3185,
      "áīį": 3186,
      "ĠáĪķáĪįáĪļ": 3187,
      "ĠáĬŃáĬķáĬ¨áĭįáĬķ": 3188,
      "ĠáĬ¨áī°áĪĽáī³áīµ": 3189,
      "áĪħáĬĵáīµ": 3190,
      "áīĥáĭĬ": 3191,
      "áĬĿ": 3192,
      "ĠáĬŃáĬķáĮĪáī¥áĪŃ": 3193,
      "ĠáįĢáĮĪáĪĿ": 3194,
      "ĠáĭįáĪ³áĬĶ": 3195,
      "áĭ³áĭµ": 3196,
      "ĠáĬ£áĪĪáĬ©áĪĿ": 3197,
      "ĠáĮ¥áīħ": 3198,
      "ĠáĬ©áĪĪáĬķ": 3199,
      "ĠáĮłáįĬ": 3200,
      "ag": 3201,
      "Ġáī¥áĪĿáĬķ": 3202,
      "áĪķáī³": 3203,
      "ĠáĬ£áĪİáĬ«": 3204,
      "ĠáĪµáĪĿáĭĴáīµ": 3205,
      "ĠáĬķáĭ°áīĤ": 3206,
      "ĠáĬ£áĭŃáĪģáĭµ": 3207,
      "ĠáĪįáĪĿáĭĵáīµ": 3208,
      "ĠáĬ¥áįĪáĪįáĮ¥": 3209,
      "ĠáĮįáĪį": 3210,
      "áĬ¾áĪĿ": 3211,
      "ĠáįĪáĮºáĪĻ": 3212,
      "Ġáĭ´": 3213,
      "ĠáĬ¨áĪĽ": 3214,
      "Ġ29": 3215,
      "ĠáĪĻáĭļ": 3216,
      "ĠáĪħáĮ»áĬĵáīµ": 3217,
      "ĠáįįáīħáĪª": 3218,
      "ĠáĬŃáĭķ": 3219,
      "ĠH": 3220,
      "ĠáĪĵáĪĬ": 3221,
      "áĭįáĭ«áĬķáĬķ": 3222,
      "áĭ±áĬķ": 3223,
      "ĠáĬ¨áĪĪáĬ¹": 3224,
      "áĪ¨áĬ£áĬ¥": 3225,
      "Ġ40": 3226,
      "áĮ»áīµ": 3227,
      "áĬŃáĪįáĬ»áĪį": 3228,
      "ĠáĭĺáĭŃáĬ®": 3229,
      "ĠáĪħáĭĿáī¥áĬķ": 3230,
      "áĬ»áĬ½áĪŃ": 3231,
      "ĠáĭĿáī¥": 3232,
      "áīłáĪįáĭķ": 3233,
      "ĠáĬŃáĪ°": 3234,
      "áĭµáĭ«": 3235,
      "ĠáįįáĮ¥áĪ¨áīµ": 3236,
      "áĭ±áĪ½áī°": 3237,
      "ĠáĬ£áĭ°áĭŃ": 3238,
      "áĪ¨áī±": 3239,
      "ĠáĬŃáĬ¸áĭŃáĭµ": 3240,
      "ĠáįĪáī²": 3241,
      "Ġ,": 3242,
      "ĠáĬ£áĭŃáĬ®áĬĳáĬķ": 3243,
      "ĠáĪĤáī¡": 3244,
      "ĠáĮ´áĮ¥áĪ®áĪµ": 3245,
      "ĠáĪķáĮį": 3246,
      "Ġ50": 3247,
      "áĪµáĭķáī¡": 3248,
      "it": 3249,
      "ĠáĬķáĭļ": 3250,
      "áĭĪáĬ¨áįį": 3251,
      "ĠáīłáĪĪáīµ": 3252,
      "ĠáĪĺáĭĺ": 3253,
      "ĠáĭĿáī¥áĪİ": 3254,
      "Ġáīµáĭ°áĪĬ": 3255,
      "ĠáĪįáĪĻ": 3256,
      "áĭĴáĪī": 3257,
      "ĠáįįáĪįáĪįáĭŃ": 3258,
      "áī¥áī³áīµ": 3259,
      "ĠáĬķáī¥áĪ¨áīµ": 3260,
      "ĠáĬķáĬ¢": 3261,
      "Ġáī¥áĮ¥": 3262,
      "áĪĿáī£": 3263,
      "Ġáī£áĪħáĪª": 3264,
      "áĪĪáĭĭ": 3265,
      "ĠáĭĪáĪª": 3266,
      "ĠáĬ¸áĬł": 3267,
      "ĠáĪĿáĪĿáĪĭ": 3268,
      "áĮĪáĭµáĪµ": 3269,
      "áĬ¥áĭİ": 3270,
      "áĪİáĮĤ": 3271,
      "ĠáĬ¢áĪįáĬ©áĪĿ": 3272,
      "ĠáĭķáĪŃ": 3273,
      "ĠáĭĿáĭĿ": 3274,
      "áī°áĪį": 3275,
      "Ġáī¥áĪŃáī±áĭķ": 3276,
      "Ġáī¥áĪ°áĪĭáĪĿ": 3277,
      "áĪ£": 3278,
      "áĬ£áĪĪ": 3279,
      "áĭ±áĪµ": 3280,
      "ĠáĪĺáĭ°áī£áīµ": 3281,
      "áī¥áī¥": 3282,
      "áĪ«áĪħ": 3283,
      "ĠáĪĿáĬķáĪĿ": 3284,
      "áĪĲáĬķ": 3285,
      "ĠáĭĿáįĪáĪįáĮ¦": 3286,
      "áĪĭáĪĬ": 3287,
      "Ġáĭķáī¥": 3288,
      "áĪķáī¥": 3289,
      "ĠáĬķáĪĿáĭį": 3290,
      "áĭĪáĪį": 3291,
      "Ġáī¥áĪĿáĪµ": 3292,
      "ĠáĪĺáĪĬáĪ±": 3293,
      "ĠáĪµáĭ°áīµ": 3294,
      "ĠáĪĥáĮĪáĪ¨": 3295,
      "ĠáĪµáĪĿáĭĴ": 3296,
      "áĬ¥áĪĪ": 3297,
      "ĠáĬ¨áī¶": 3298,
      "áĪĿáĪħáĪŃáī²": 3299,
      "áĪªáĭ«": 3300,
      "áī¶áīµ": 3301,
      "Ġáĭ¨áĪĽ": 3302,
      "ĠáĭĿáī°áĪ¨": 3303,
      "áĬ»áĭ¨áĭ°": 3304,
      "ĠáĮĨ": 3305,
      "áĪ°áĪĽ": 3306,
      "Ġáī£áĪŃáĭ«": 3307,
      "ĠáĮįáĬķáī¦áīµ": 3308,
      "17": 3309,
      "áĮ¸áĪ«": 3310,
      "áĭ¨áĪī": 3311,
      "áī¥áĪĪáĬ«": 3312,
      "ĠáĬŃáĬ¾áĬĳ": 3313,
      "áĮįáĭµ": 3314,
      "Ġáī¤áī°áĬŃáĪŃáĪµáīµáĭ«áĬķ": 3315,
      "áĬĵáĪµ": 3316,
      "áĪ°áĬĵ": 3317,
      "áī¥áĭ«": 3318,
      "áĬķáĭ«": 3319,
      "ĠáĭįáĪĭ": 3320,
      "xt": 3321,
      "áĭĵáī³áīµ": 3322,
      "ĠáĭĿáī°áīĲ": 3323,
      "áĪĥáī¦": 3324,
      "áĮ£áĭĬ": 3325,
      "ĠáĪĴáĭ°áīµ": 3326,
      "áĬķáĭ°": 3327,
      "áī»": 3328,
      "Ġáī¥áĭĿáĬ¾áĬĲ": 3329,
      "áĭµáĪķáĪŃ": 3330,
      "ĠáīłáĪ¨áĬ»": 3331,
      "áīµáĪŃ": 3332,
      "ĠáĪĵáĮ¥": 3333,
      "Ġáī¥áĭĪáĮĪ": 3334,
      "ĠáĬĵáī¥áĭļ": 3335,
      "ĠáĮ¥áīĵ": 3336,
      "ĠáĭĴ": 3337,
      "áĬ³áĬķ": 3338,
      "ĠáĭĿáī¥áĪĥáĪį": 3339,
      "áĪ¨áįįáī²": 3340,
      "ĠáĬ´": 3341,
      "ĠáĬ»áĪį": 3342,
      "áį¡\"": 3343,
      "ĠáĬ«áĪŃ": 3344,
      "áĪĥáĪ©": 3345,
      "áĮĬáĭķ": 3346,
      "11": 3347,
      "áī£áĪª": 3348,
      "ĠáĭĵáĪĪáĪĿáĬĵ": 3349,
      "ĠáĭµáĪķáĬĲáīµ": 3350,
      "áĬŃáī¶": 3351,
      "ĠáĪĿáĬķáĮª": 3352,
      "áĭŃáĪĬ": 3353,
      "ĠáĬ¦áĪĿ": 3354,
      "áĪįáĮ¦": 3355,
      "Ġáĭµáĭ«": 3356,
      "áīłáĬĽ": 3357,
      "at": 3358,
      "ĠáĬŃáĭĿ": 3359,
      "ĠáĭĿáĪĺáĪµáĪį": 3360,
      "Ġáī¥áĮ¾": 3361,
      "ĠáĪĿáĪµáī¶áĪĿ": 3362,
      "ĠáĬķáĮ¥áįĪáī³áīµ": 3363,
      "ĠáĬķáī¡áĪŃ": 3364,
      "ĠáĬĲáī°áĬķ": 3365,
      "ĠáĪĽáĪŃ": 3366,
      "ĠáĭĿáĬ£áĬŃáĪį": 3367,
      "ĠáĮĪáīł": 3368,
      "ĠáĪĺáĬķáĮįáĪµáī³áīµ": 3369,
      "ĠáĪĺáĪµáīĢáĪį": 3370,
      "ĠáĪĿáĪµáĮ¢áĪŃ": 3371,
      "ĠB": 3372,
      "áĬĲáĬ«": 3373,
      "Ġáĭ¨áī¥áĪİáĪĿáĬķ": 3374,
      "Ġáī³áĪķáī²": 3375,
      "áĬŃáįį": 3376,
      "áĪµáĬ¥": 3377,
      "áĪĺáĬĴ": 3378,
      "ĠáĪħáĭĿáī¥áī³áīµ": 3379,
      "ĠáĬ¸áĪİ": 3380,
      "Ġáī°áĪĽáĪĤ": 3381,
      "ĠáĪĿáĪĥáī¥": 3382,
      "Ġáī°áĪ¸": 3383,
      "ĠáīłáĪ¨áĬ¸": 3384,
      "ĠáĭļáĪŃáĬ¨áī¥": 3385,
      "áĪĺáī³áīµ": 3386,
      "áĮºáĪ©": 3387,
      "ĠáĬ£áĬķáĪµáī²": 3388,
      "ĠáĭĤáĪī": 3389,
      "Ġáī¥áĪª": 3390,
      "áĪ³áĬ¤": 3391,
      "Ġáĭ«áĬ¥áīĨáī¥": 3392,
      "áĬ£áĪĿáĬĳ": 3393,
      "áĪµáįĴ": 3394,
      "áĬ¦áĪĿáĬķ": 3395,
      "áĮĭáĮĬ": 3396,
      "áĮ¸áīµ": 3397,
      "ĠáĪ³áĭķáī¤": 3398,
      "ĠáĬ£áĪ¨áĬ£áĬ¥": 3399,
      "Ġáī¥áīĢ": 3400,
      "ĠáĪĿáĭµáĪŃáĬķ": 3401,
      "áĬķáĬ©áĪĿ": 3402,
      "ĠáĪ°áĪĽáĭķ": 3403,
      "áĭĺáĭĿ": 3404,
      "ĠáĬ£áī¡": 3405,
      "ĠáĬ¥áĬķáī°áĭµáĬ£": 3406,
      "ĠáįįáĪįáĪµ": 3407,
      "áĪĺáĮł": 3408,
      "ĠáĭŃáĪĵ": 3409,
      "áĪªáī¦áĪĿ": 3410,
      "ĠáĪŃáĬ¥áĪµáĬ»": 3411,
      "áīħáĭķ": 3412,
      "ĠáĬķáĪĿáĪĿ": 3413,
      "ĠáĪĿáĪŃáĬ£áĭŃ": 3414,
      "ĠáĪĵáī¢áĪ©": 3415,
      "ĠáĬĸáĪŃ": 3416,
      "ĠáĬ£áĭŃáĪĺáĪµáĪĪáĬķáĬķ": 3417,
      "ĠáĪĺáĭĽáĪĻáĪŃáī±": 3418,
      "ĠáīħáĬķ": 3419,
      "ĠáĮįáĬķáī£áĪŃ": 3420,
      "áĬ£áĪĿáĪĭáĬ½": 3421,
      "Ġt": 3422,
      "áīłáī£": 3423,
      "ĠáĪĵáĪŃáĬĲáīµ": 3424,
      "ĠáīħáĭµáĪľ": 3425,
      "ĠáĬĵáĭŃáī¶áĪĿ": 3426,
      "ĠáĬ¥áĮįáĪª": 3427,
      "áĪ°áī£áīµ": 3428,
      "ĠáĪµáĮį": 3429,
      "ĠáīħáĭµáĪļáĬ¡": 3430,
      "ĠáĬ£áĭĿáĭ®áĪĿ": 3431,
      "ĠD": 3432,
      "ĠáĬķáĬ¨": 3433,
      "áĪĻáĬĵáīµ": 3434,
      "ĠáĪĺáīĵ": 3435,
      "ĠáĬ¥áĬķáĮĮ": 3436,
      "Ġáī°áĭĺ": 3437,
      "ĠáĬ£áĮį": 3438,
      "ĠáĬ¥áĬķáī°áĪİ": 3439,
      "Ġáĭ®áĪĥáĬķáĪµ": 3440,
      "ĠáĭĿáĬ½áĬ¥áĪī": 3441,
      "áĪ³áĭŃáĭ«áĪµ": 3442,
      "áĪĺáĪĭáĪĪ": 3443,
      "ĠáĬ£áĪħáĮī": 3444,
      "ĠáĬ¤áĪŃáīµáĪ«áĭĬ": 3445,
      "ĠáĬ£áĭŃáĪ¨áĬ¸": 3446,
      "Ġáĭ°áĪĵáĬķ": 3447,
      "áī°áĬ£": 3448,
      "áĭ°áī¥": 3449,
      "áįĭáĬ¥": 3450,
      "ĠáĪĺáĪµáĪĺáĪŃ": 3451,
      "ĠáĭĿáī°áĬ¸": 3452,
      "Ġáĭĳáīķ": 3453,
      "ĠáĮĭáĬķáī³": 3454,
      "ĠáĬ£áĭ´": 3455,
      "áī°áĭŃáĬķ": 3456,
      "ĠáĪĺáĪĪáĪ°": 3457,
      "ĠáĮ¸áĪĵ": 3458,
      "ĠáĬ£áĭŃáĬĲáīłáĪ®": 3459,
      "ĠáĬŃáĭĽáĪ¨áī¥": 3460,
      "ĠáĬķáĬĲáĭĬáĪķ": 3461,
      "áĬķáĮİ": 3462,
      "Ġáī¥áĮĪ": 3463,
      "Ġ31": 3464,
      "ĠĠĠ": 3465,
      "Ġáī°áĪĭ": 3466,
      "áĪįáĬĵáĬķ": 3467,
      "áĪĿáĭİ": 3468,
      "ĠáĪĵáĮĲáĪµ": 3469,
      "ĠáĭĦ": 3470,
      "áĮĭáĮ¥": 3471,
      "áĪ¨áĬ½áīł": 3472,
      "áĬ£áĬĴ": 3473,
      "áĭ°áĮĭ": 3474,
      "ĠáĭĵáĪļ": 3475,
      "Ġáī¤áī±": 3476,
      "ĠáĪ¨áĪ²": 3477,
      "ĠáĭĿáĬ«áĭ¨áĭµ": 3478,
      "ĠáĪķáĮĭáĭĬ": 3479,
      "Ġáī¥áĪĿáĮįáī£áĪŃ": 3480,
      "áĪ¶áĬķ": 3481,
      "ĠáīłáĪĬ": 3482,
      "áĭ¬": 3483,
      "ĠáĪĿáĬķáī³áĭŃ": 3484,
      "áĬ£áĭ«": 3485,
      "Ġáĭįáĭµáī£áīµ": 3486,
      "áĬŃáĪŃáĪµáī¶áĪµ": 3487,
      "áĭĪáĪ°": 3488,
      "Ġáī°áĮĪáĪĬáĮ¹": 3489,
      "ĠáĭĿáĭķ": 3490,
      "áĭĲáĬķ": 3491,
      "ĠáĬ¸áĭĵ": 3492,
      "Ġáī«áĭŃáĪ¨áĪµ": 3493,
      "áĪįáĭ¨": 3494,
      "Ġáĭĵáĭµ": 3495,
      "áįĪáī°": 3496,
      "ĠáĪĽáĪħ": 3497,
      "áįįáīĢ": 3498,
      "Ġáī¥áĭĿáĪĴ": 3499,
      "Ġáĭ³áĪķ": 3500,
      "ĠáĪĨáĪµáįĴ": 3501,
      "13": 3502,
      "ĠáĮĪáīłáĬķ": 3503,
      "ĠáĪĺáīĲáĪĪ": 3504,
      "ĠáĭµáĬ½": 3505,
      "áĮ¥áĬĵ": 3506,
      "ĠáĪķáĮ»": 3507,
      "áĪĭáĪµ": 3508,
      "ĠáĪĵáĭ«áĪİ": 3509,
      "ĠáĬ£áĭŃáĬ®áĬķáĬ©áĬķ": 3510,
      "áĪ³áĭµ": 3511,
      "16": 3512,
      "áĪĭáĮ½": 3513,
      "ĠáĮįáĮ¥": 3514,
      "ĠáĬ£áĭŃáĪ°": 3515,
      "áĮ£áĪŃ": 3516,
      "áĬ¡áĪµ": 3517,
      "ĠáĮ¥áĪª": 3518,
      "áĪĴáįī": 3519,
      "ĠáĭĽáĭķáī£": 3520,
      "áĪ¨áĪŃ": 3521,
      "ĠáĪĵáĭŃáĪįáī³áīµ": 3522,
      "ĠáĪĮ": 3523,
      "ĠáĭĵáĪ¨áī¥": 3524,
      "ĠáįķáĪ®áĮĢ": 3525,
      "ĠáĪħáĭĿáīłáĭŃ": 3526,
      "Ġáī¥áĪĿáĬ½áĬķáĭ«áīµ": 3527,
      "áįįáĪĪ": 3528,
      "ĠáĭŃáĭ°áĪĬ": 3529,
      "áĬŃáĬĸ": 3530,
      "ĠáĭĪáĮį": 3531,
      "ĠáĬ£áīµáĭ©": 3532,
      "áĪĵáĪĪ": 3533,
      "ĠáĭĪáĭŃáĬĴ": 3534,
      "áĪĺáĬĲ": 3535,
      "21": 3536,
      "ĠáĬªáīķ": 3537,
      "ĠáĭīáĬķ": 3538,
      "ĠáīĢáĮºáĪī": 3539,
      "ĠI": 3540,
      "áĭįáĪį": 3541,
      "ĠáĭĿáĪŃáĭĿáĪŃ": 3542,
      "ðŁĩ": 3543,
      "ĠáĬķáĪ¶áĪĿ": 3544,
      "áĪĭáĪĽáĭĬ": 3545,
      "áĭµáĪĺ": 3546,
      "áĪĺáĮ¡": 3547,
      "áĭįáĪ«": 3548,
      "ĠáĬ¨áĭŃáĭ±": 3549,
      "22": 3550,
      "áįįáĭİ": 3551,
      "áĪĵáĪ°": 3552,
      "ĠáĭĵáĪĪ": 3553,
      "áĭĺáī°": 3554,
      "Ġ100": 3555,
      "ĠáĮ½áĭµáīĤ": 3556,
      "ĠáĪĺáĬĲ": 3557,
      "áĬ»áīµ": 3558,
      "Ġáī°áĭĪáĪĬ": 3559,
      "áĪĬáĬ¥": 3560,
      "ĠáĮ¥áįį": 3561,
      "ĠáĪĿáĭķáī£áĪĪ": 3562,
      "ĠáĬķáĭµáĪķáĪª": 3563,
      "áĪĵáĬĵ": 3564,
      "ĠáĭįáĪķáĪµáĬĲáīµ": 3565,
      "ĠáįĪáĪŃáĬ¦áĬķ": 3566,
      "áĭµáĪ½": 3567,
      "áĬĲáī²": 3568,
      "ĠáĬŃáĪĿáĪĪáĪµ": 3569,
      "áĪ½áĪĵáīµ": 3570,
      "áī¥áĪİáĪµ": 3571,
      "ĠáĬķáĬĲáī¥": 3572,
      "áįĥáĬ¢": 3573,
      "ĠáĮįáĭ³": 3574,
      "ĠáĭĿáĪ¨": 3575,
      "áĪĺáĪµáĮįáĬķ": 3576,
      "ĠáĬŃáĭ³": 3577,
      "ĠáĬ£áĪĪáĬ¹áĪĿ": 3578,
      "ĠáĬ£áĪĿáĪĭáĬ½áĬĵ": 3579,
      "áī¥áĪĭáĭķ": 3580,
      "ĠáĮ¸áĭĬ": 3581,
      "áĬķáĭµ": 3582,
      "ĠáĪĺáĪĭ": 3583,
      "áĪĺáĭįáīµ": 3584,
      "ĠáĭŃáĬ½": 3585,
      "ĠáĬķáĪĿáĪŃ": 3586,
      "ĠáĪĺáĪįáĬŃáĭķ": 3587,
      "Ġáī°áĪ¨áĬº": 3588,
      "ĠáĪ¹": 3589,
      "áįĪáĪįáĮ¡áĬķ": 3590,
      "áįĪáĪ»áĭĬ": 3591,
      "áīłáĪ³": 3592,
      "áĮĬáīµ": 3593,
      "áĭĵáĭĬ": 3594,
      "áĪ©áĬ½": 3595,
      "ĠáĪĺáĪ«áĬ¸": 3596,
      "ĠáĪĽáī´": 3597,
      "ĠáĭĺáĭŃáĪķ": 3598,
      "ĠáĬ£áĬ¨": 3599,
      "áĪĬáīµ": 3600,
      "ĠáĪĿáĭĥáĬĵ": 3601,
      "ĠáĬĲáĮĭ": 3602,
      "ĠáĪ½áĪĽáĮįáĪĪ": 3603,
      "âĢ¹": 3604,
      "áĪħáī¡": 3605,
      "áĪħáī¦áĪĿ": 3606,
      "áĮĢáĪĺáĪ¨": 3607,
      "Ġáī¥áīĳ": 3608,
      "ĠáĪŀáī°": 3609,
      "ĠáĭĻáĪŃáĭ«": 3610,
      "áĮįáĪ«": 3611,
      "áĪµáĭ«áĭĬ": 3612,
      "ĠáĪµáĪįáĮ£": 3613,
      "ĠáĬ£áīĢ": 3614,
      "Ġáĭ°áīģ": 3615,
      "ĠáĬŃáĪĺáĮ½áĬ¥": 3616,
      "Ġáī°áĬ½": 3617,
      "ĠáĪ°áīł": 3618,
      "áī¥áĬ¡": 3619,
      "áī¥áĪĥ": 3620,
      "ĠáĭĺáĭŃáĬ°áĬĲáĪµ": 3621,
      "Ġáī¥áĬĵ": 3622,
      "áĮĪáĭ°": 3623,
      "ĠáĪĵáĪ²": 3624,
      "ĠáĬ¥áĬķáĬ®": 3625,
      "ĠáĭĪáĪ³": 3626,
      "ĠáĭĿáī°áĪ°": 3627,
      "ĠáĪĥáī¥áī²": 3628,
      "áĬķáīĭ": 3629,
      "áĬ£áĬ¸": 3630,
      "áĪĭáįį": 3631,
      "ĠáĭĿáĬĲáī¥áĪ©": 3632,
      "áįĭáĭŃ": 3633,
      "Ġáī¥áĮ»": 3634,
      "áĪ¨áĭ°": 3635,
      "Ġáī¥áĪŃáĪĥ": 3636,
      "áĭĿáĪĿ": 3637,
      "áĪĵáĬĴ": 3638,
      "ĠáĭĺáĪİáĬ«": 3639,
      "ĠáĬķáĭĵáĪĪáĪĿ": 3640,
      "áĪĵáīķ": 3641,
      "Ġáī°áĮĭáĭ³": 3642,
      "ĠáĭĺáĪŃáĬ¥": 3643,
      "Ġáĭķáĭī": 3644,
      "Ġáīĺ": 3645,
      "ĠáĭĪáĪį": 3646,
      "áĮ¥áĭķ": 3647,
      "ĠáĪķáĭĿ": 3648,
      "áīĲáĪŃ": 3649,
      "ĠáĬķáĮĪáĭĽáĬ¥": 3650,
      "ĠáĭĿáĮįáī£áĬ¥": 3651,
      "ĠáĭŃáĬĲáī¥áĪŃ": 3652,
      "ĠáĭĿáĪĺáĪį": 3653,
      "ĠRead": 3654,
      "ĠáīµáĮ½áī¢áīµ": 3655,
      "ĠáĬ£áĬĲáĬķ": 3656,
      "ĠáĬ£áĭ³áĪĿ": 3657,
      "ĠáĪ½áĭ±áĪ½áī°": 3658,
      "áī²áīµ": 3659,
      "ĠáīĢáĮ»áĪĬ": 3660,
      "ĠáĪĺáĪŃáĪĺáĪ«": 3661,
      "Ġáī¥áĭµáĪķáĪªáĬ¡": 3662,
      "Ġáĭĺáĭ³": 3663,
      "ĠáĭĪáĪĭáĭ²": 3664,
      "ĠáīłáĪŃ": 3665,
      "ĠáĬ£áī£áĭŃ": 3666,
      "áįĪáīµáĭİ": 3667,
      "Ġáī°áĭĽáĪªáī¡": 3668,
      "áĪµáī¡": 3669,
      "ĠáĬĲáįįáĪµ": 3670,
      "áĪ«áĮ½": 3671,
      "ĠáĮ¸áĭĪáī³": 3672,
      "ĠáĪµáĪįáĮłáĬĵ": 3673,
      "ĠáĬķáĮįáĭ²": 3674,
      "áĬªáĪĿ": 3675,
      "áĪįáĮ¡áįį": 3676,
      "áīĲáĪŃáī¥": 3677,
      "ĠáĪĺáĮ»áĪķáįįáī²": 3678,
      "áĪªáĬ½": 3679,
      "áĪ®áīµ": 3680,
      "áĮ¹áĮ½": 3681,
      "áĮ»áĪį": 3682,
      "áĪįáĭ«áĬķ": 3683,
      "Ġáī°áīĢ": 3684,
      "áĪħáĬĵ": 3685,
      "Ġáī¥áĭĺáĭ¨": 3686,
      "ĠáĭŃáīµ": 3687,
      "ĠNext": 3688,
      "Ġp": 3689,
      "áĪµáī¥": 3690,
      "áĪĬáĪĿ": 3691,
      "ĠáĬ£áĬķáī³": 3692,
      "áĪŀáĬķáī°": 3693,
      "áĮĪáīµ": 3694,
      "ĠáĬ£áĪļ": 3695,
      "ĠáĮ¾áī³áĭĬ": 3696,
      "ĠáĭµáĪķáĪŃ": 3697,
      "Ġ2020": 3698,
      "ĠáĪĽáĬ¥áĬ¨áĪĭáĭŃ": 3699,
      "ĠáĬ£áĪ¨áĬ£áĬ¥áĭ«": 3700,
      "ĠáĬķáĭĿáī°": 3701,
      "áĮĪáĭµáī³áīµ": 3702,
      "áĪĭáĭª": 3703,
      "ĠáĬ£áĮ¥": 3704,
      "áĭµáĬ¥": 3705,
      "ĠáĪĺáĪ°áĬ»áĬ½áĪŃ": 3706,
      "ĠáĬķáĭĺáĭŃ": 3707,
      "áĭĵáĪĪáĪĿ": 3708,
      "ĠáĬķáĮ¹áĪŃ": 3709,
      "ĠáĬķáĭµáĪķáĪªáīµ": 3710,
      "Ġ2018": 3711,
      "ĠáĪħáĭ«áĭį": 3712,
      "ĠáĭŃáįįáĪĪáĮ¥": 3713,
      "ĠáĪĺáįįáīµáĪĴ": 3714,
      "ĠáĬ¥áĬķáĬ½áĬ¥áĪį": 3715,
      "ĠáĪĺáĪªáĪķáĬĲáīµ": 3716,
      "áĭ¨áĬ«": 3717,
      "ĠáĪĿáįįáĪĭáĮ¥": 3718,
      "áĪ³áī°áįī": 3719,
      "áĬ£áĬ«": 3720,
      "ĠáĬ£áĪĽáĪ«": 3721,
      "áīķáĬ«": 3722,
      "ĠáĭŃáīķáĪ¨": 3723,
      "ĠáĪĺáĪ³áĪŃáĪĴ": 3724,
      "áĪ½áī±": 3725,
      "is": 3726,
      "ĠáĬŃáīµáĪ¨áĬŃáī¥": 3727,
      "áĮİáĪĿ": 3728,
      "Ġáīħáĭ±áĪ³áĬķ": 3729,
      "áĪŃáĭµáĬ¦": 3730,
      "ĠáĬķáĭĺáĪĪáĬ£áĪĪáĪĿ": 3731,
      "áĭįáĭķáĪį": 3732,
      "áĪ©áĭŃ": 3733,
      "ĠáĮ¸áĪĭáĬ¥": 3734,
      "ĠáįĪáĮ£áĪª": 3735,
      "ĠáĬ£áĮĪáĪįáĮįáĪİ": 3736,
      "áĪĽáĭįáĭ«áĬķ": 3737,
      "ĠáĭĪáĪ¨áīĲáīµ": 3738,
      "ĠáĪĺáįħ": 3739,
      "áĭ°áĪ¨": 3740,
      "ĠáĪŃáĬł": 3741,
      "Ġáī¥áĭĿáī¥áĪį": 3742,
      "ĠáĪĺáī¥áĭĽáĪķáīµáĬ¦áĪĿ": 3743,
      "áĪĪáĪĺ": 3744,
      "Ġáī¥áĬ»áĪįáĬ¥": 3745,
      "ĠáĬŃáĪ°áĪŃáĪķ": 3746,
      "ĠáĪĵáĭĪáĭŃ": 3747,
      "ĠáĪĪáīł": 3748,
      "áĪŃáĬª": 3749,
      "áĪĽáī´": 3750,
      "áĪĵáīµáĬķ": 3751,
      "ĠáĮįáĪĿ": 3752,
      "ĠáĭĺáĭŃáī¥áĪį": 3753,
      "ĠáĬķáĪ°áī£áīµ": 3754,
      "ĠáĭĿáĪĺáĪŃ": 3755,
      "áĬ£áĪī": 3756,
      "áĪµáīµáĪ«": 3757,
      "ĠáĬ£áĭŃáĬķáĬ½áĬ¥áĪįáĬķ": 3758,
      "ĠáĬ¢áĬķáī°áĪŃáĬĲáīµ": 3759,
      "áĮĪáĪ¨": 3760,
      "áĭįáĭĵáĪį": 3761,
      "ĠáĪĵáī£áĪŃ": 3762,
      "ĠáĪµáĭµáĪ«áī¤": 3763,
      "ĠáĪĿáĪ³áĪĮ": 3764,
      "ĠáĪķáĪī": 3765,
      "ĠáĪĿáĪµáĪ«áĪķ": 3766,
      "ĠáĪŃáĪķ": 3767,
      "áĪĺáĪ©": 3768,
      "Ġáī°áĪ°áĪļ": 3769,
      "ĠáĪĵáĭ²áĪ½": 3770,
      "ĠáīĪáĪįáĭĳ": 3771,
      "ĠáĪĿáī¥áĪ«áīķ": 3772,
      "Ġáī¥áĪĽ": 3773,
      "áĮ¥áīĢáĪĻ": 3774,
      "ĠáĭĺáĭŃáī¥áĪİáĪĿ": 3775,
      "áĬ®áĬĲáĬķ": 3776,
      "ĠáĬ¥áĬķáĮĮáĪ«": 3777,
      "áĪŃáĪĿ": 3778,
      "áĮ»áĭĪ": 3779,
      "ĠáĭĪáĪ²áĭ±": 3780,
      "áĪĪáĬ©áĪĿ": 3781,
      "ĠáĪĵáĮ¢": 3782,
      "ĠáĭĺáĮĭáĮłáĪĺ": 3783,
      "Ġáī£áĭķáĪįáĬ»": 3784,
      "ĠáĬŃáĪŃáĪµáīµáĭ«áĬĵáīµ": 3785,
      "ĠáĬķáįĪáĪįáĮ¥": 3786,
      "áĬ¨áī³áī°": 3787,
      "ĠáĬ©áĪĭáīµáĬĵ": 3788,
      "ĠáĬ¥áĪĻáĬķ": 3789,
      "áī°áĬĵ": 3790,
      "áĪĪáĬ»": 3791,
      "ĠáĬŃáĮ½": 3792,
      "áĮĪáĭ³": 3793,
      "áĪķáĬ«": 3794,
      "ĠáĪµáĬ¢": 3795,
      "ĠáĬ¥áĪĿáĬĴ": 3796,
      "áĬ£áīµáĭī": 3797,
      "áĬĲáĮį": 3798,
      "áĭµáĪķáĪª": 3799,
      "ĠáĪįáĭķáĪį": 3800,
      "ĠáĬķáĪĽ": 3801,
      "áī¥áĪįáĬķ": 3802,
      "ĠáīĢáĪªáī¡": 3803,
      "áįĢáĬķ": 3804,
      "ĠáĬ£áĪ³": 3805,
      "30": 3806,
      "ĠáĬ£áī¦áĬĵ": 3807,
      "Ġ2017": 3808,
      "ĠáĬķáĭħáĪİáĪĿ": 3809,
      "áĮĭáĬĳ": 3810,
      "Ġáĭĳáīķáī£": 3811,
      "áĭįáĪķ": 3812,
      "áįĪáĪī": 3813,
      "Ġáĭ±": 3814,
      "ĠáĭĺáĭµáĪĬ": 3815,
      "ĠáĭµáīĥáĪµ": 3816,
      "Ġ32": 3817,
      "áĬ¹áĪī": 3818,
      "áĭµáĪįáĭ®áĪĿ": 3819,
      "ed": 3820,
      "áĪ«áĪĿáįķ": 3821,
      "áĮłáĭį": 3822,
      "ĠáĬķáĪĿáĭµ": 3823,
      "áĭ³áĭĬ": 3824,
      "áĬĲáįį": 3825,
      "ĠáĬŃáĪ¨áĬŃáī¥": 3826,
      "ĠáĬ¥áĬĵáīłáĪī": 3827,
      "ĠáĭįáĪīáĭµ": 3828,
      "ĠáĬ£áĮĭáĮ¢áĪĻ": 3829,
      "áįįáĪĪáĮ¥": 3830,
      "ĠáĬĵáī£áĭŃ": 3831,
      "ĠáĭĪáĭ°áĭŃ": 3832,
      "áī°áĪŃáįį": 3833,
      "ĠáĪ´": 3834,
      "ĠáĬŃáĮį": 3835,
      "ĠáĭŃáīłáĪį": 3836,
      "ĠáįįáĪ«áĬķ": 3837,
      "Ġáī°áĪĺáĪµ": 3838,
      "áĬ®áĭŃáĬĳ": 3839,
      "áĪĿáĬĲ": 3840,
      "ĠáĬŃáīłáĪĥáĪį": 3841,
      "Ġáī°áĮłáĬķ": 3842,
      "ĠáĬ«áīłáĭŃ": 3843,
      "ĠáĪĵáĭ°áĮĪ": 3844,
      "ĠáĬ½áĪįáī°": 3845,
      "ĠáĭĿáĬ¸áĭŃáĭµ": 3846,
      "Ġáī¥áĪĦ": 3847,
      "ĠáĭĿáī°áĬ»áĭ¨áĭ°": 3848,
      "ĠáĬ®áĪ®áĬĵ": 3849,
      "áĪ½áī²": 3850,
      "áĬŃáĬĸáĪİáĮĤ": 3851,
      "áĭĿáĭ«": 3852,
      "áĮ¸áĬķáĪķ": 3853,
      "ĠáĬ¥áĪµáĪ«áĬ¤áĪĭáĭįáĭ«áĬķ": 3854,
      "ĠáĬķáĪĻ": 3855,
      "áĬ£áĪµ": 3856,
      "áĮ¹áĪŃ": 3857,
      "Ġáī¥áĪ½": 3858,
      "ĠáĭŃáĮĪáĪįáĮ½": 3859,
      "Ġáĭ°áĪĵáĪŃ": 3860,
      "ĠáįķáĪ®áĮĢáĬŃáīµ": 3861,
      "áĭ°áĭµ": 3862,
      "ĠáĪĨáĪµáįĴáī³áĪį": 3863,
      "ĠáĬ¢áĭµáĬ«": 3864,
      "Ġáī¥áĬ¸áĪĿáĭļ": 3865,
      "ĠáĪĺáĭķ": 3866,
      "ic": 3867,
      "ĠáĮįáĭµ": 3868,
      "áī³áī²": 3869,
      "ĠáĪĵáĮİáĪµ": 3870,
      "ĠáĭķáĪ¨áįįáī²": 3871,
      "áĪĽáīµáĬķ": 3872,
      "ĠáĪķáĮī": 3873,
      "ĠáĬķáĪĿáĭĥ": 3874,
      "igr": 3875,
      "ĠáĬŃáĪĵ": 3876,
      "ĠáĭĪáĪŃáīĤ": 3877,
      "áĬķáī¥áī¥": 3878,
      "Ġáī°áĮĵ": 3879,
      "ĠáĪµáĪ«": 3880,
      "ĠáīĭáĬķáīĭáī³áīµ": 3881,
      "áĬĲáĮįáĪ¨": 3882,
      "áĪĺáĬ«": 3883,
      "ĠáĪĵáįĪáĪ»áĭĬ": 3884,
      "ĠáĪ°áįĬáĪķ": 3885,
      "áįĨáĪĿ": 3886,
      "ĠáĬ¢áĪ³áĭŃáĭ«áĪµ": 3887,
      "áĭĺáī¥": 3888,
      "ĠáĪĺáĮĭáī¢áīµ": 3889,
      "áĪ«áĬ¸áī¥": 3890,
      "áī°áĬ«": 3891,
      "áī³áī³": 3892,
      "ĠáĪĺáĪĿ": 3893,
      "ĠáĭĿáĬĲáīłáĪŃáĬ©": 3894,
      "áĭŃáĪ½": 3895,
      "ĠáįįáĮ»áĪľ": 3896,
      "Ġ)": 3897,
      "ĠáĭŃáĭµ": 3898,
      "áĪ»áĭŃ": 3899,
      "ĠáīłáĪĪáĬĴ": 3900,
      "ĠáĭŃáĮįáīłáĪŃ": 3901,
      "ĠáĬ£áīĲáĭ²áĪĻ": 3902,
      "ĠáĭŃáīłáĪĥáĪį": 3903,
      "áĬ»áĭ®": 3904,
      "ĠáĭĺáĪĪáĬ¹áĪĿ": 3905,
      "ĠáĪĻáĭļáīĥ": 3906,
      "ĠÂ": 3907,
      "áĮįáĪ«áĪĿ": 3908,
      "áī³áīµáĬ«": 3909,
      "ĠáĮĪáĭĿ": 3910,
      "ĠáĪĺáĬ«": 3911,
      "ĠáĬ£áĭļáĭ©": 3912,
      "ĠáĭŃáĪ°": 3913,
      "ĠáĮĭáĭľáĮł": 3914,
      "ĠáĬ¢áĪ³áĭ«áĪµ": 3915,
      "ĠáĭŃáĬ¹": 3916,
      "áĭ³áĭ²": 3917,
      "áĬķáĭĺáī¥": 3918,
      "ĠáĬ£áĪī": 3919,
      "ĠáīµáįĪáĪįáĮ¡": 3920,
      "ĠáĪ¨áĬł": 3921,
      "Ġáĭ³áĮįáĪĿ": 3922,
      "ĠáĭĿáĮ¸áĬķáĪĲ": 3923,
      "áĬ¥áī¶áĪĿ": 3924,
      "Ġáĭ°áĭŃ": 3925,
      "áĮ¸áĪ©": 3926,
      "ĠáĪĥáĭĭáĪŃáĭ«": 3927,
      "áīłáĪ¨áĪī": 3928,
      "áĬ¥áĬķáī³áĭŃ": 3929,
      "ĠáĪįáĪĻáĭµ": 3930,
      "ay": 3931,
      "ĠáĬ¨áĪĪáĬ»": 3932,
      "ĠáĬ£áĭ²áĪµ": 3933,
      "ĠáĭĿáįĪáĪįáĮ¥": 3934,
      "ĠáĪĺáĪ¸": 3935,
      "ĠáĪĵáĮĭ": 3936,
      "áĪļáĪ©": 3937,
      "áĪ¨áĮį": 3938,
      "ĠáīµáĪ«áĪĿáįķ": 3939,
      "ĠáĪĿáĪŃáĬ«áī¥": 3940,
      "Ġáī¥áĪĺáĪį": 3941,
      "áĭ«áĭŃ": 3942,
      "áĬ¥áĬ¨": 3943,
      "ĠáĭįáĪħ": 3944,
      "Ġáĭ³áĮįáĪĽáĭŃ": 3945,
      "ĠáĬķáĬł": 3946,
      "ĠáĬ«áĬ£": 3947,
      "ĠáĬĶáĪŃáĬĵ": 3948,
      "Ġáī°áĬķáĪ²": 3949,
      "áĪ³áĭįáĭ«áĬķ": 3950,
      "áįĪáĪįáĮł": 3951,
      "ĠáĪĪáĭŃ": 3952,
      "ĠáĪ«áĬ¥áĭŃ": 3953,
      "áĪįáĭķ": 3954,
      "áĬĲáī³áĭĬ": 3955,
      "ĠáĪķáĭŃáĭĪ": 3956,
      "ĠáĮ½áĪĿ": 3957,
      "ĠáĪĪáĬ«": 3958,
      "ĠáīµáĬķáĪ³áĬ¤": 3959,
      "áī¡áĪį": 3960,
      "áĮįáĭļáĬłáī¥áĪĶáĪŃ": 3961,
      "áĪİáĪŀáĬķ": 3962,
      "ĠáĬ£áįįáĪįáĮ¦": 3963,
      "ĠáĪĽáĬ¥áĬ¸": 3964,
      "ĠáĭĵáĪ³": 3965,
      "ĠáĪķáĪįáĬĵ": 3966,
      "Ġáĭ³áĬķ": 3967,
      "ent": 3968,
      "ĠáĭĵáĬķáīĢáĮ½": 3969,
      "áīħáĪŃ": 3970,
      "ĠáĬ£áī¦áĬ¡": 3971,
      "ĠáĬķáĭĳ": 3972,
      "ĠáĮįáĭĺ": 3973,
      "áĪŀáī°": 3974,
      "Ġáī¥áĪĿáĭĥáĬĳ": 3975,
      "ĠáĪĺáĭµáĪĥ": 3976,
      "ĠáĪĺáī³áĬķ": 3977,
      "ĠáĭĺáĭŃáĬĲ": 3978,
      "Ġáįįáī³áĪķ": 3979,
      "ĠáĪįáĭķ": 3980,
      "ĠáĬ£áĭ¨áĬĵáĭŃ": 3981,
      "Ġáī¥áĮįáī¡áĬ¥": 3982,
      "ĠáĪļáĬĴáĪµáī°áĪŃ": 3983,
      "ĠáĬŃáĮįáīłáĪŃ": 3984,
      "áĭĿáĮĬ": 3985,
      "ĠáĪħáĬķ": 3986,
      "ĠáĪŀáĬķáĮİ": 3987,
      "Ġáī¥áĪµáĪ«áīµ": 3988,
      "ĠáĪĺáĪįáĬ¥áĬ½": 3989,
      "áĮ¥áīĥáĪĿ": 3990,
      "ĠáĬ¥áī¥áĪĪáĬ©áĪĿ": 3991,
      "áĪµáĬ®": 3992,
      "ĠáĪĵáĪĿ": 3993,
      "ĠáĭŃáįĪ": 3994,
      "ĠáĬ¥áĬķáīĭ": 3995,
      "ĠáīµáĬ½": 3996,
      "áĮĪáī¥áĪ¨áĪī": 3997,
      "áī¥áĭĵ": 3998,
      "ĠáĬķáĬ½áĬķ": 3999,
      "ĠáĮ¥áĭĳáĪĿ": 4000,
      "áĬĵáĪķ": 4001,
      "áĪ«áĪį": 4002,
      "ĠáĬĵáĭŃáī³": 4003,
      "ĠáĭįáĭµáĭµáĪŃ": 4004,
      "ĠáĮĮáĪ©": 4005,
      "Ġáī¥áĭµáĪĨ": 4006,
      "ĠáĪħáĭŃáĭĪáī°áĭŃ": 4007,
      "ĠáĭŃáĭĽáĪ¨áī¥": 4008,
      "áīĢáīķ": 4009,
      "áĬ¤áīµ": 4010,
      "áĭĽáĪ¨áīł": 4011,
      "ĠáĮĪáĪĬáĬ¡": 4012,
      "ĠáĭĪáĪ¨áĭ³": 4013,
      "áĭķáĬ«": 4014,
      "ĠáĭŃáĪĵáĭŃáĪ½": 4015,
      "Ġáī¥áĭĿáĪĿáĪįáĬ¨áīµ": 4016,
      "ĠáĬ£áīłáī£": 4017,
      "áĮĪáĪįáĮ¾": 4018,
      "áĮłáīħ": 4019,
      "ĠáĬµáĬĲáī³áīµ": 4020,
      "ĠáĪĿáĪ³áĬ»áīµáĬ©áĪĿ": 4021,
      "ĠáīĢáĭ³áĪŀáīµ": 4022,
      "áīĥáĪĪáĪµ": 4023,
      "Ġáī¥áĪĵáįĪáĪ»": 4024,
      "ĠáīµáĪŃáĮī": 4025,
      "áĭŃáĭŃ": 4026,
      "ĠáĭļáĪĺáĮ½áĬ¥": 4027,
      "ĠáĮ¥áĪĿ": 4028,
      "ĠáĭĿáĪĥáīł": 4029,
      "áĮĪáīł": 4030,
      "ĠáĭŃáĪµáĪĿ": 4031,
      "ĠáīĲáĭ³": 4032,
      "ĠáĪĺáĪŃáĬ¨áī¥": 4033,
      "ĠáĬŃáĪ³": 4034,
      "ĠáĪĿáĪĭáĪ½": 4035,
      "áĪķáĭĿáĬķ": 4036,
      "ĠáĬķáĬ£áĭŃ": 4037,
      "áĬ«áĭŃáĭµ": 4038,
      "ĠáĪµáĭĬ": 4039,
      "ĠáĭĿáī°áĪĺ": 4040,
      "áĪįáĭįáĪĭáĭį": 4041,
      "ĠáįĸáĪĬáĪ²": 4042,
      "ĠáĮ»áĭķáĪª": 4043,
      "ĠáĪĳ": 4044,
      "ĠáĬķáĪĿáĬķ": 4045,
      "áĪŃáĪ²áī²": 4046,
      "áĪİáĪļ": 4047,
      "Ġ2016": 4048,
      "ĠáĭĿáĭĪáĪµ": 4049,
      "ĠáĭĺáĪµ": 4050,
      "áĪ«áĪ²": 4051,
      "ĠáĬĲáĭį": 4052,
      "Ġáī°áĬ½áĬ¥áĪİ": 4053,
      "ĠáĬĲáīłáĪŃáĬ©": 4054,
      "áĮįáĭĴ": 4055,
      "áī¦áĬķ": 4056,
      "ĠáĪįáĭ°áīµ": 4057,
      "ĠáĬĳ": 4058,
      "ĠáĭĿáī°áī£áĪħáĪĪ": 4059,
      "Ġáī°áĮĪáĭŃáĪ©": 4060,
      "vi": 4061,
      "Ġáĭĵáī¢áĭŃ": 4062,
      "áĭµáĪļáīµ": 4063,
      "ĠáĬ¨áĭ°": 4064,
      "Ġáĭĺáīķ": 4065,
      "Ġáįĥ": 4066,
      "Ġáī°áĮĭáĪ©": 4067,
      "áĪĽáĪµ": 4068,
      "ĠáĮĪáī¥áĪ¨": 4069,
      "ĠáĪĵáī¢áĪ®áĪĿ": 4070,
      "Ġmore": 4071,
      "ĠáįįáĮ¡": 4072,
      "áįĲ": 4073,
      "áĭ°áĪĻ": 4074,
      "ĠáĪĵáīħ": 4075,
      "áĪ«áĭķ": 4076,
      "ĠáīĬ": 4077,
      "ĠáĭįáĭķáĪį": 4078,
      "Ġáīĳ": 4079,
      "áįĪáĬĴ": 4080,
      "áĮĭáĮ¥áĪĿ": 4081,
      "áĬĸáīµ": 4082,
      "áĪ©áĬĴ": 4083,
      "ĠáĬ£áĭŃáīµáĬ½áĬ¥áĪįáĬķ": 4084,
      "ĠáĭĿáĪµáĭķáī¡": 4085,
      "áĪ¨áĮĪ": 4086,
      "ĠáįįáĪ½": 4087,
      "ĠáĭĿáī°áĭĵ": 4088,
      "áĪ°áĪŃáĪĲ": 4089,
      "áĭįáĭĵ": 4090,
      "Ġáī¥áĬ¥áĪĿáĬĲáīµ": 4091,
      "ĠáĬŃáīµáīħ": 4092,
      "ĠáĬŃáĪįáī²áĬ¡": 4093,
      "áĭķáĭİ": 4094,
      "áĬ½áĭİ": 4095,
      "ĠáįĪáĪĭ": 4096,
      "ĠáĪµáĪ«áĪķáī²": 4097,
      "ĠáĮĪáĮ¹": 4098,
      "áĭĿáĪĴ": 4099,
      "áĭįáĬķáī²": 4100,
      "Ġáī°áĮĭáĭ³áĪĭáĭŃ": 4101,
      "áīµáĬ¡": 4102,
      "ĠáĪĺáĪįáĬŃ": 4103,
      "ĠáĪĵáĪĭáįĬ": 4104,
      "ĠáĭĿáĬ¾áĬĲáīµ": 4105,
      "ĠáĬŃáįĪ": 4106,
      "áĮĪáĪ²": 4107,
      "áĪ³áĪ°": 4108,
      "ĠáĬ¥áīµáī¥áĪį": 4109,
      "Ġáīµáī¥": 4110,
      "áĪ©áĭķ": 4111,
      "ĠáĬķáĪĿáĭķ": 4112,
      "ĠáĮĴ": 4113,
      "ĠáĭĺáĭµáĪįáĭ¨": 4114,
      "áĭĪáĪĿáī²": 4115,
      "ĠáĬ£áĭŃáĭ°áĪįáĬķ": 4116,
      "áĪĴáī±": 4117,
      "ĠáĮįáī¥áĪŃ": 4118,
      "áĪħáĪĭ": 4119,
      "áĬ©áĪĿáĭİ": 4120,
      "ĠáĮĲáĭŃáī³áĭŃ": 4121,
      "ĠáĭŃáĪĺáĮ½áĬ¥": 4122,
      "ĠáĪļáĪĬ": 4123,
      "ĠáĭµáĪŃ": 4124,
      "ĠáĬ£áĭĭáĪįáĭµ": 4125,
      "ĠáĪħáĮ»áĬķ": 4126,
      "áĪľáīµ": 4127,
      "ĠáĭĿáĪĵáĪĪáįī": 4128,
      "ĠáĪĿáĭĿáĪ«áī¥": 4129,
      "ĠáĪķáĮīáĪµ": 4130,
      "ĠáĪĿáĬŃáĪįáĬ»áĪį": 4131,
      "ĠáĪµáįĸáĪŃáīµ": 4132,
      "áĭİáīµ": 4133,
      "ĠáĬ¸áī°": 4134,
      "ĠáĪĺáĪ«áĬ¸áī¢": 4135,
      "ĠáĭĿáĭĢáĬĳ": 4136,
      "Ġáī°áĪĵáī¢áĪ©": 4137,
      "áĭĺáĪŃáĪĭáĬķáĭµ": 4138,
      "ĠáĮ½áĪįáĭĭ": 4139,
      "Ġáī¥áĭĺáĭ¨áĮĪáĭµáĪµ": 4140,
      "áī£áĪ«áĭĬ": 4141,
      "ĠáĪĵáĭĺáĬķ": 4142,
      "áĭ°áĪįáī²": 4143,
      "áĬ«áĭĬ": 4144,
      "áĪ³áī°áįį": 4145,
      "ĠáĪĵáĭ°áĮĪáĬĽ": 4146,
      "áĪħáĪįáĭİ": 4147,
      "áī°áī±": 4148,
      "ĠáĭĪáĭ±": 4149,
      "áĬ»áī¥": 4150,
      "áīķáĪª": 4151,
      "ĠáĬ£áĪĿáĪį": 4152,
      "áĭįáĪĿ": 4153,
      "ĠáĪļáĬ¥áī²": 4154,
      "áĬĲáīķ": 4155,
      "ĠáĮĢáĮĭáĬĳ": 4156,
      "ĠáĬ¨áĪĪáĭī": 4157,
      "áī¢áĪ²": 4158,
      "ĠáĭŃáĪĺáĪµáĪĪáĬĴ": 4159,
      "ĠáĪĿáĪµáīµ": 4160,
      "he": 4161,
      "Ġáĭĺáįįáīħ": 4162,
      "ĠáĭĪáįĥáĬ¢": 4163,
      "ĠáĬ¥áīµáĬ½áĬ¥áĪį": 4164,
      "ĠáĪĺáĬķáĮįáĪµáīµ": 4165,
      "áĮĪáĪįáĮįáĪī": 4166,
      "ĠáĬ£áĭįáĮº": 4167,
      "ĠáĬ¨áĪĪáĬĵ": 4168,
      "ĠáĪ°áĪĭáĪĿáĬķ": 4169,
      "ĠáĭĿáĭĽáĪ¨áī¥": 4170,
      "áĬ¢áĪī": 4171,
      "ĠáĪŀáĭŃáī±": 4172,
      "ĠáĪµáįįáĪ«": 4173,
      "Ġáĭ¶áĬŃáī°áĪŃ": 4174,
      "ĠáĪĺáĮĵ": 4175,
      "ĠáĭĪáĭĺáī°": 4176,
      "ĠáĬ®áĭŃáĬĲ": 4177,
      "Ġáī¥áĪĺáĬķáįĪáĪµ": 4178,
      "ĠáĬĲáĮ¥áī¥áī³áīµ": 4179,
      "áĪŃáĭİáĪĿ": 4180,
      "ĠáĭļáĮĪáī¥áĪŃ": 4181,
      "Ġáī¥áĪĿáĪķ": 4182,
      "ĠáĪĺáĪŃáĮĪ": 4183,
      "ĠáĬ£áĭįáĪ«": 4184,
      "ĠáĮ¾áĪĿ": 4185,
      "ĠáīłáĪ¨áĬ¸áīµ": 4186,
      "ĠáĬķáĭ¨áĪ±áĪµ": 4187,
      "áĬŃáĭ«": 4188,
      "áīķáĬĵ": 4189,
      "ĠáĭĺáĭŃáĬŃáĬ¥áĪį": 4190,
      "áįĭáĪŃ": 4191,
      "áĪŃáĬ¨áī£": 4192,
      "áĭ¥": 4193,
      "ĠáĪĵáĬªáĪĿ": 4194,
      "áĬ¢áī³áĭĬ": 4195,
      "ĠáĭĬ": 4196,
      "áĬķáĪ±": 4197,
      "ĠáĬ¥áĭ°": 4198,
      "áĪĺáĮ¸": 4199,
      "Ġáī¥áīĵ": 4200,
      "ĠTigr": 4201,
      "áĬĲáĬ½": 4202,
      "áĬĲáĮ½": 4203,
      "áįĪáĪįáĭ¨": 4204,
      "ĠáĬ£áĭŃáĬ¨áĬ£áĪĪáĬķ": 4205,
      "áĪŃáĬĴ": 4206,
      "ĠáĪĺáĮºáĬ¦áĪĿ": 4207,
      "áĪĺáĮ½": 4208,
      "áĭĭáĪħ": 4209,
      "Ġáĭ¨áĪķ": 4210,
      "áĬĵáĭ³": 4211,
      "ĠáĪķáĭµáĪª": 4212,
      "ĠáĮ¥áīħáĪĿáī²": 4213,
      "Ġáī¥áĪªáĮ£áĬķ": 4214,
      "ĠáĪµáĬķ": 4215,
      "áĭĳáĬĴ": 4216,
      "Ġáĭµáĭ®áĪĿ": 4217,
      "áĪµáīµáĪŃ": 4218,
      "ĠáĭĿáī£": 4219,
      "ĠáĪĿáĪģ": 4220,
      "áĪ¨áī°": 4221,
      "ĠáĪķáĮĪ": 4222,
      "áĭĪáĪµáĭ°": 4223,
      "ĠáīłáĮĥáĬ»": 4224,
      "ĠáĬ«áī£áĭŃ": 4225,
      "ĠáĬĲáīłáĪŃáī²": 4226,
      "áĪķáĮįáĭĺáĬ«": 4227,
      "áĪ³áĪį": 4228,
      "áĪ¨áĮĭáĮį": 4229,
      "ĠáĬŃáĪħáĪįáĭİ": 4230,
      "ĠáĭĪáĪ³áĬĴ": 4231,
      "áĪ¨áĬ«": 4232,
      "ĠáĭĿáĪ°áĪĽáĭķ": 4233,
      "ĠáīłáĮ½": 4234,
      "ĠáĪĥáĭĭáĪŃáĭ«áīµ": 4235,
      "ĠáĬ¥áĪĿáī¥áĬ£": 4236,
      "ĠáĬŃáĬķáĬŃáĬķ": 4237,
      "ĠáĪĿáĪµáī°": 4238,
      "ĠáĭŃáĬ¸áĭŃáĭµ": 4239,
      "áĮ¥áĭĵ": 4240,
      "ĠáĪĺáĪĽ": 4241,
      "ĠáīĽ": 4242,
      "ĠáĬ«áī¥áī°áĬķ": 4243,
      "áĪĪáĮ¡": 4244,
      "áĮ½áĬ¦": 4245,
      "ĠáīłáĭŃáĬĳ": 4246,
      "ĠáĭķáĪ½": 4247,
      "Ġáī°áī³": 4248,
      "áĪ°áĭŃáī²": 4249,
      "ĠáĪĥáĮĪáĪŃáĬķ": 4250,
      "ĠáĭĪáĮĪáĬĵáīµ": 4251,
      "áīµáĪĿáĪħáĪŃáī²": 4252,
      "ĠáĬªáĭµ": 4253,
      "ĠáĭĵáĪ»": 4254,
      "áĭĭáĪµ": 4255,
      "ĠáĬ£áĬĵ": 4256,
      "ĠáĮ»áĭµ": 4257,
      "ĠáĪŃáĮįáĮ¸": 4258,
      "Ġáī°áĪ°áĪĿ": 4259,
      "ĠáĭµáĪĮáīµ": 4260,
      "áĮ½áĭķ": 4261,
      "ĠáĬ£áĭŃáīł": 4262,
      "ĠáĬķáĬ¥áĪµáĪ«": 4263,
      "áĪŃáĭ³": 4264,
      "Ġáĭĺáīł": 4265,
      "áīłáĪįáĬ©": 4266,
      "ĠáĬķáī¥áĭĻáĪĵáīµ": 4267,
      "ĠáĬ¨áĭį": 4268,
      "ĠáĪ½áĮį": 4269,
      "áĪįáįį": 4270,
      "áĮįáĬ¡": 4271,
      "ĠáĪŃáĬ¥áĪ¶áĪĿ": 4272,
      "ĠáĪĽáĬķáĪĿ": 4273,
      "áĬĲáĭŃáī²": 4274,
      "ĠáĭŃáĭķ": 4275,
      "áĪµáī°áĭŃáī²": 4276,
      "áĬŃáĪįáī°": 4277,
      "ĠáīģáĮłáī£áĭĬ": 4278,
      "ĠáĪº": 4279,
      "ĠáĬ£áĪķáĪĬ": 4280,
      "ĠáĬ£áĭŃáĬŃáīµ": 4281,
      "áĮ½áĪķáįį": 4282,
      "ĠáĬ£áĭĭáĮħ": 4283,
      "ĠáĭĿáĬĵ": 4284,
      "ĠáĬ£áĭŃáĭĪ": 4285,
      "áī¤áī°": 4286,
      "ĠáĬ£áĮĨ": 4287,
      "áī¦áĭŃ": 4288,
      "ĠáĭĿáĬ¨áĬ£áĪį": 4289,
      "ĠáĬķáįĭáĪµ": 4290,
      "áĪĬáĬķ": 4291,
      "ĠáīħáĭĭáĪĿ": 4292,
      "Ġáĭ°áīĢáĬķ": 4293,
      "ĠáĭĿáįįáĪĪáĮ¥": 4294,
      "ĠáĪ°áĬĲáĭµ": 4295,
      "ĠáĬ¥áĬ½áĬ¥áĪį": 4296,
      "Ġáī°áī°": 4297,
      "ĠáīĢáĭ³áĪĺáĭŃáī²": 4298,
      "Ġáī°áĭĭáĪĤáī¡": 4299,
      "ĠáĬ£áĪ¸": 4300,
      "áįĪáĪŃáī²": 4301,
      "ĠáĪĵáĪĿáĪĪ": 4302,
      "ĠáĬ¥áĬķáĭµáĪķáĪŃ": 4303,
      "Ġ33": 4304,
      "áĮįáī£áĬ¥áĬķ": 4305,
      "ĠáĬ«áī£áĬĵ": 4306,
      "ĠáĮ¥áīķáĪļ": 4307,
      "ĠáĪĽáĪķáīłáĪ¨áĪ°áī¥": 4308,
      "ĠáĪĭáĭķáĪĪáĭĭáĭŃ": 4309,
      "24": 4310,
      "áĪĪáĪ°": 4311,
      "áĬ£áīµáĬķ": 4312,
      "áĭµáĪµ": 4313,
      "áĪĴáīµ": 4314,
      "Ġáī°áįĪáĮ¥áĪ®": 4315,
      "Ġáī°áĮįáī£áĪ«áīµ": 4316,
      "ĠáĭįáĪĳáĭ³áīµ": 4317,
      "áīłáĭ©": 4318,
      "áĮ½áĭĵ": 4319,
      "ĠáĬķáĪĿáĮį": 4320,
      "ĠáĭĿáĬĲáīłáĪ«": 4321,
      "ĠáĬ£áĭŃáĬ°áĬķ": 4322,
      "ĠáĪĺáīłáĮĪáĪ²": 4323,
      "áĭŃáĪŃ": 4324,
      "áĪĳáīµ": 4325,
      "Ġáī³áĪķáĪ³áĪµ": 4326,
      "áĪĪáĪĪ": 4327,
      "ĠáĪĵáĪ¨áĪµ": 4328,
      "áĪµáĪķ": 4329,
      "ĠáĪįáī¥áĬĵ": 4330,
      "ĠáĪķáĪŃáĪ»": 4331,
      "áĪ«áĭįáĭ«áĬķ": 4332,
      "áįĪáĪĪáĮ¥": 4333,
      "áĭµáĬ¡": 4334,
      "Ġáī¥áĪĵáĭµáĪ½": 4335,
      "ĠáĭĿáĪĺáĮ¹": 4336,
      "áĪĿáĪ©": 4337,
      "ĠáĭĿáīµ": 4338,
      "ĠáĬŃáĪĺáĪŃ": 4339,
      "ĠáįĴ": 4340,
      "áĪĺáĬĳ": 4341,
      "áĬ«áĬ¤áĪį": 4342,
      "ĠáĪ¨áĬºáīł": 4343,
      "áĬķáĭĽ": 4344,
      "áī¥áĭĵáī°": 4345,
      "Ġáī¥áĮ¹": 4346,
      "áĮįáĪ¶": 4347,
      "Ġáī°áĪĺáĪŃ": 4348,
      "ĠáĭĪáĪ°áĬķ": 4349,
      "ĠáĪ°áī¥áĬ¡": 4350,
      "áĪ°áĪµ": 4351,
      "ĠáĪĿáīµáĬ¥": 4352,
      "ĠáĮįáīłáĪ©": 4353,
      "áĮĭáĭĿ": 4354,
      "ĠáĪħáĭ«áī¥": 4355,
      "ĠáĪ°áĭ²": 4356,
      "Ġáĭ°áĪŀ": 4357,
      "ĠáĭĿáĮĪáĪĪ": 4358,
      "Ġáī¥áīĲáĪĬáĪī": 4359,
      "áĪįáĪļ": 4360,
      "ĠáĭĺáĪİáĬ¹": 4361,
      "áĬķáĮ»áĪ©": 4362,
      "áĮłáĭŃ": 4363,
      "Ġáī°áĪĺáĪ«": 4364,
      "ĠáĭļáĪķ": 4365,
      "áĬ®áĬĸ": 4366,
      "ĠáĬķáĬ¥áĮįáĭļáĬ£áī¥áĪĶáĪŃ": 4367,
      "áī²áĬķ": 4368,
      "áĬĲáī°áĭŃ": 4369,
      "ĠáĬ¨áĪĿáīµ": 4370,
      "áįīáĬķ": 4371,
      "áĮ¸áĮį": 4372,
      "Ġáī°áĬ£áĪĿ": 4373,
      "ĠáĪķáĪīáįį": 4374,
      "ĠáĭĿáĪ°áĪŃáĪķ": 4375,
      "ĠáĪĺáĪ¨áĭ³áĬ¥áī³": 4376,
      "ĠáĪ°áĪİáĪŀáĬķ": 4377,
      "ĠáĬłáĬķ": 4378,
      "ĠáĪ°áĪĽáĭŃáĬķ": 4379,
      "ĠáįįáĪīáĮ¥": 4380,
      "ĠáĪĿáĬŃáĬķ": 4381,
      "ĠáĬ£áĪĽáĪ«áĮº": 4382,
      "ĠáĬķáĬ©áĪī": 4383,
      "áĭĳáĬķ": 4384,
      "ĠáĪŃáĪĳáīķ": 4385,
      "ĠáĬŃáĮĪáī¥áĪ©": 4386,
      "ĠáĮķáĭ³áĭŃ": 4387,
      "Ġáī¥áĭļ": 4388,
      "Ġáī°áĪĺáĪĬáĪ±": 4389,
      "Ġáĭ©áĬĴáī¨áĪŃáĪ²áī²": 4390,
      "ĠáĪĿáĪħáĪĭ": 4391,
      "áīµáĪ«": 4392,
      "áįįáī³áīµ": 4393,
      "ĠáĪ°áĪŃ": 4394,
      "Ġáĭ°áĪŃáįĬ": 4395,
      "ĠáĮįáĭ´": 4396,
      "ĠáĬ£áĬķáī¢": 4397,
      "ĠáĪįáī¥áĬ»": 4398,
      "ĠáĬĸáĪŃáĭĪáĭŃ": 4399,
      "ĠáĬ£áĪĥ": 4400,
      "áĬ½áī¥": 4401,
      "áĬ¨áĪµ": 4402,
      "ĠáĬªáĭĢáĬĳ": 4403,
      "Ġáī¥áĪĻ": 4404,
      "ĠáĪĿáĮħ": 4405,
      "ĠáĬ¥áĬķáī°áĭ°áĬ£": 4406,
      "ĠáĬ£áīµáĪĴáĭĻ": 4407,
      "áĮĭáĪį": 4408,
      "ĠáĭļáĬĲáī¥áĪ©": 4409,
      "áįīáĬ¥": 4410,
      "áĪīáĪµ": 4411,
      "ĠáĪ³áĪĭ": 4412,
      "ĠáĪĵáĬķáĪ³áī¥": 4413,
      "ĠáĭŃáĬ£áĬŃáĪį": 4414,
      "áĮĪáĪįáĮ¹": 4415,
      "ĠáĬ£áĪĽáĪį": 4416,
      "ĠáĬ£áĭĴáĬķ": 4417,
      "áĬ¥áĪ°áĭŃ": 4418,
      "ĠáĬ£áĭµáĪĭáĭª": 4419,
      "tion": 4420,
      "ĠáĪĵáĭ³áĪµ": 4421,
      "ĠáĪĺáĬ½": 4422,
      "ĠáĪįáī¡": 4423,
      "ĠáĬ»áĪįáĬ¥": 4424,
      "ĠáĭĿáī°áĮĪáī¥áĪ¨": 4425,
      "ĠáĭįáĪ½áĮ£áĭĬ": 4426,
      "Ġáī°áīĲáĪļ": 4427,
      "ĠáĬ¨áĪĭ": 4428,
      "áĮĭáĪŃ": 4429,
      "áĭ¶áĬķ": 4430,
      "Ġáī°áĪĿáĪĥáĪ®": 4431,
      "ĠáĬķáĬĲáįįáĪ²": 4432,
      "áĪįáī£": 4433,
      "ĠáĬķáĬ©": 4434,
      "ĠáĬ¨áĭŃáĬķ": 4435,
      "ĠáĪļáĭ«": 4436,
      "ĠáĮİáĬķ": 4437,
      "ĠáĬŃáįĭ": 4438,
      "áĪĺáĮ¹": 4439,
      "áĭ±áĪ½": 4440,
      "es": 4441,
      "áįįáīµáĬķ": 4442,
      "áĮłáīĲ": 4443,
      "ĠáĪķáĭ³áĪŃ": 4444,
      "ĠáĮįáĮ¥áĪļ": 4445,
      "ĠáĬŃáīł": 4446,
      "áĮĪáī¥áĪ«": 4447,
      "Ġáī¥áĪīáĮ½": 4448,
      "ĠáĪ°áī¥áĬķ": 4449,
      "Ġ2019": 4450,
      "áĭµáĭİ": 4451,
      "ĠáĭĵáĪĪáĪĿáĪĪ": 4452,
      "ĠáĭĿáĬ¸áįįáĬł": 4453,
      "ĠáĪĽáĪĪ": 4454,
      "ĠáīħáĭµáĪĺ": 4455,
      "Ġáīłáĭ°": 4456,
      "áĪĥáī¦áĪĿ": 4457,
      "ĠáĮ½áī¥": 4458,
      "áĪŀáĬŃáĪ«áĪµáĭ«áĭĬ": 4459,
      "áĮģ": 4460,
      "ĠáĬķáĭ°áĪĬ": 4461,
      "Ġáĭ²áĬ¹áĪĿ": 4462,
      "Ġáī£áĪķ": 4463,
      "ĠáĭįáĪįáīĥáĭĬ": 4464,
      "ĠáĭĿáĪĥáī¦": 4465,
      "áĪĥáĪ«áĭŃ": 4466,
      "ĠáĮłáĮłáĭį": 4467,
      "ĠáĬłáĪİáĬ¹": 4468,
      "ĠáĭĿáĬ½áĪª": 4469,
      "ĠáĬķáĭ³": 4470,
      "áĭĭáĪ©": 4471,
      "ĠáĮ½áĪį": 4472,
      "ĠáĬ£áĬĲáĪµ": 4473,
      "ĠáīĨáĮ¸áĪ«": 4474,
      "ĠáĪĿáĭīáī³áīµ": 4475,
      "ĠáĭĿáĪĥáī¥": 4476,
      "ĠáĬĶáĪ®áĪĿ": 4477,
      "áįĪáĪĭáĪĪáĭ©": 4478,
      "ĠáĬłáī¥áĭļ": 4479,
      "ĠáĪķáĮįáī³áīµ": 4480,
      "ĠáĬ¥áĬķáī°áĭĢáĬĲ": 4481,
      "ĠáĭĺáĪĪáĬ«": 4482,
      "ĠáĪĺáī¥áĭĽáĪķ": 4483,
      "ĠáĪĿáĬ»áĬĳ": 4484,
      "áĬĵáĭįáĭ«áĬķ": 4485,
      "áĪ«áĪµ": 4486,
      "áĮĪáĪ©": 4487,
      "áĪīáĭį": 4488,
      "ĠáĬ£áĭŃáĬ¨": 4489,
      "ĠáĬŃáĪĬ": 4490,
      "ĠáĬŃáĮĪáī¥áĪ®": 4491,
      "áĪ«áĪª": 4492,
      "áĪĵáĭĺ": 4493,
      "Ġáĭ¨áĮį": 4494,
      "áī³áī°áĭŃ": 4495,
      "áĪĺáĪĥáĪŃ": 4496,
      "áĭ©áĬĴ": 4497,
      "áĮ¸áĪī": 4498,
      "ĠáĭĿáĭĪáĪ°": 4499,
      "áĬ®áĬĳ": 4500,
      "Ġáī³áĭŃ": 4501,
      "ĠáĬķáĪµáĭµáĪ«": 4502,
      "ĠáĬ¥áī£": 4503,
      "áĪĪáįį": 4504,
      "áĭķáĬĵáĬķ": 4505,
      "Ġáī°áĪŃ": 4506,
      "ĠáĭŃáĪĺáĪŃ": 4507,
      "ĠáĪĺáĪ²áĪī": 4508,
      "áĪ¨áĬ©áĪĿ": 4509,
      "ĠáĬ«áĪħáĬĵáīµ": 4510,
      "ĠáĬ©áī£áĬķ": 4511,
      "ĠáīħáĪįáĭįáĪĭáĭį": 4512,
      "Ġ35": 4513,
      "ĠáĬķáĬ¹áĪİáĪĿ": 4514,
      "áĪªáĬ«áĬķ": 4515,
      "áĬ®áĪŃ": 4516,
      "ĠáĬķáĮĪáī¥áĪŃ": 4517,
      "áĪĭáĪĭ": 4518,
      "áīĭáĪŃ": 4519,
      "áĬ¥áĬķáī°": 4520,
      "ĠáįĪáī°áĬĲ": 4521,
      "ĠáĬķáĭ¨áĪĨáĭĭ": 4522,
      "áĭĭáĪķ": 4523,
      "áĮĭáĪµ": 4524,
      "ĠáĬ£áĪįáī¦": 4525,
      "ĠáĭŃáĬ¥": 4526,
      "áĬŃáĪĪ": 4527,
      "ĠáīłáĭŃáĬķ": 4528,
      "ĠáĪŃáĬ¥áĪµáĬĵ": 4529,
      "áĭħáĪī": 4530,
      "ĠáįĭáĭŃ": 4531,
      "ĠáĬ¥áĭĭáĬĵáĭĬ": 4532,
      "ĠáįĪáīµ": 4533,
      "áĪĵáĬķáĪµ": 4534,
      "ing": 4535,
      "áīĬ": 4536,
      "ĠáĬ£áĭµáĪ«": 4537,
      "áĪªáĪµ": 4538,
      "ĠáĬ£áī¦áī³áīµ": 4539,
      "ĠáĪĵáįį": 4540,
      "ĠáĬ£áĪĿáĪĭáĬŃ": 4541,
      "ĠáīłáĮºáĪĳ": 4542,
      "ĠáĬ£áĪĿáĪĭáĬ½áĬķ": 4543,
      "ĠáĪħáĭŃáĭĪáīµáĬĵ": 4544,
      "Ġáī°áīĸ": 4545,
      "ĠáĪŃáĬ¥áĭ¨": 4546,
      "áĪħáīłáĬ«": 4547,
      "ĠâĨ": 4548,
      "ĠáĬĲáįĭ": 4549,
      "ĠáĬ©áĬĲáīµ": 4550,
      "ĠáĪĽáĪķáīłáĪ«áīµ": 4551,
      "ĠáĭĵáĪĺáĮ½": 4552,
      "áĪįáĭĪ": 4553,
      "ĠáĪĽáĭķáĮ¾": 4554,
      "ĠáĭĺáĪĪáĬ£áĪĪáĪĿ": 4555,
      "áĭ±áĬ¥": 4556,
      "áĬ¥áĪĿáĪ®": 4557,
      "ĠáĬ£áī¥áī°áĬķ": 4558,
      "áīłáĪİáĪĿ": 4559,
      "ĠáĭĵáĬķ": 4560,
      "áĭįáĭĴ": 4561,
      "Ġáĭįáįħ": 4562,
      "ĠáĪĿáĪįáĬŃáī³áīµ": 4563,
      "ĠáĭŃáī¥": 4564,
      "ĠáĭµáĬķáĮį": 4565,
      "áĮ½áĪĬ": 4566,
      "ĠáĬĲáĭŃáĪŃáĭİ": 4567,
      "ĠáĮĢáĬĲ": 4568,
      "ĠáĬ£áĭ¨áĭµáĪįáĭ¨": 4569,
      "Ġáīµáī¥áĪī": 4570,
      "ĠáīµáĪŃáĬ¨áī¥": 4571,
      "Ġáĭ°áīĴ": 4572,
      "áĮĢáĪĺ": 4573,
      "ĠáĮĢáĪļáĪ®áĪĿ": 4574,
      "ĠáĪĺáĭĿáĮĪáī¥": 4575,
      "ĠáīµáĬķáī¢áīµ": 4576,
      "ĠáĭµáĪĮ": 4577,
      "áĪ³áĪ²": 4578,
      "ĠáĬ£áĮĪáĭ°": 4579,
      "áĬĶáīµ": 4580,
      "ĠáĪĺáĬķáīłáĪŃ": 4581,
      "ĠáĬ£áĭĿáĭ¨": 4582,
      "ĠáĭĿáĬ£áī°": 4583,
      "ĠáĪ¾áī¥áĭĵáī°": 4584,
      "áĬ¥áī±": 4585,
      "Ġáĭ¨áĪĪ": 4586,
      "ĠáĪ¸áī¶": 4587,
      "ĠáĬĲáĮ»áĬĲáīµ": 4588,
      "áĪįáī¥": 4589,
      "áĪįáĮł": 4590,
      "ĠáĪħáĮ¹áĮ½": 4591,
      "áįįáĪķ": 4592,
      "ĠáĪ°áĪ«áĪķáī°áĬĽ": 4593,
      "áĬĲáĬĵ": 4594,
      "ĠáĬķáĪµáĬº": 4595,
      "ĠáĪ¸áĪŀáĬķáī°": 4596,
      "áĬ©áĬ¹áĪĿ": 4597,
      "ĠáīģáĮłáī£": 4598,
      "ĠáĬķáĬŃáīµ": 4599,
      "ĠáĭĵáĪµ": 4600,
      "ĠáĬķáįĪáĪĪáĪĽ": 4601,
      "áĭŃáĪ®": 4602,
      "áĪħáĭĪ": 4603,
      "Ġáī°áĪĺáĪĪáĪµ": 4604,
      "Ġ<": 4605,
      "...]": 4606,
      "Ġáī¥áī°áĪĺ": 4607,
      "ĠáĬ£áĪİáĭİ": 4608,
      "ĠáĬķáĪĿáīķ": 4609,
      "Ġ[...]": 4610,
      "áĪ«áĪŃáī£": 4611,
      "ĠáĮ¥áįįáĬ£áīµ": 4612,
      "Ġáī¥áĪªáĮ£áĬķáĭ«": 4613,
      "ĠáĭĿáĪħáī¥": 4614,
      "ĠáĬ¥áĬķáĬŃ": 4615,
      "áĬ£áī°": 4616,
      "áī¥áĪŃáĪĥ": 4617,
      "áĮ»áĮ¸": 4618,
      "ĠáįķáĪ®áĮįáĪ«áĪĿ": 4619,
      "Ġáĭĵáĭįáĭ²": 4620,
      "ê¬": 4621,
      "áĬ¨áĪĺáĭŃ": 4622,
      "ĠáĪħáĪį": 4623,
      "Ġáĭ²áĪŀáĬŃáĪ«áĪ²": 4624,
      "ĠáĮįáĭ²": 4625,
      "ĠáĭĲ": 4626,
      "áĭ«áĪŃ": 4627,
      "ĠáĪĿáĬķáī£áĪ©": 4628,
      "ĠáĬķáĪ½": 4629,
      "Ġáī°áĮĭáĭ°áĪįáī²": 4630,
      "áī¡áĪµ": 4631,
      "ĠáĬ£áĪħáĮīáĪ«áĭĬ": 4632,
      "ĠáĬŃáĬ«áĭ¨áĭµ": 4633,
      "ĠáĪĵáĭ°áĪµáī²": 4634,
      "ĠáĭĵáĪĺáī°": 4635,
      "áĪŃáĬ¥áĭŃáĭİ": 4636,
      "ĠáĪµáĪŃáĭĵáī°": 4637,
      "Ġ2013": 4638,
      "áĮĭáĪĬ": 4639,
      "ĠáĬŃáīµáĪķ": 4640,
      "ĠðŁ": 4641,
      "ĠáĬ£áĪĿáĪĭáĬ¸áĭŃ": 4642,
      "Ġáī¥áįģ": 4643,
      "ĠáĬ£áĭŃáĪĺ": 4644,
      "áĭĽáĬ¥áī²": 4645,
      "áĪķáĮįáĭĻ": 4646,
      "áĬ©áĪ®": 4647,
      "ĠáĬ£áĪİáĬ»": 4648,
      "áįĭáĪ½": 4649,
      "ĠáĪĥáī¥áī³áĪĿ": 4650,
      "ĠáĭŃáĪŃáĬ¨áī¡": 4651,
      "ĠáīµáĮĪáī¥áĪŃ": 4652,
      "ct": 4653,
      "ĠáĪĥáĬķáĭ°": 4654,
      "ĠáĬ¥áī°áĭĪ": 4655,
      "ĠáĬ£áĪķáĪĬáįī": 4656,
      "áĪħáīłáĬĵ": 4657,
      "ĠáĬķáī£áī¥": 4658,
      "li": 4659,
      "ĠáĪĺáĬ¥áī°": 4660,
      "ĠáĮİáĪ¨": 4661,
      "áī£áĪįáĬĲáīµ": 4662,
      "áĪĿáĪĿ": 4663,
      "ĠáĬķáĬ¤": 4664,
      "ĠáĬķáīĵ": 4665,
      "ĠáįĪáĪ¨áĬķáĪ³": 4666,
      "ĠáĭĿáĪ°áĪŃ": 4667,
      "áīĵáīµ": 4668,
      "Ġáī´áĬŃáĬĸáĪİáĮĤ": 4669,
      "ĠáĬ£áĭĽ": 4670,
      "ĠáĪĿáīģ": 4671,
      "ĠáĪµáĭī": 4672,
      "áĭ²áīµ": 4673,
      "áĮ¥áįįáĬ¥": 4674,
      "ĠáĬķáī¥áĪį": 4675,
      "áĭķáĪī": 4676,
      "Ġáīħáĭ³": 4677,
      "ĠáĪĿáĭµáĪĵáĬķ": 4678,
      "ĠáĪĺáĬķáĮįáĪ¥": 4679,
      "ĠáĬ¾áĬĲ": 4680,
      "áĮ¸áīł": 4681,
      "ĠáĬ¥áĬķáī°áĭĪ": 4682,
      "áĪ¨áĮĭáĮįáĮ½": 4683,
      "áĮ»áĪķáįĪ": 4684,
      "ĠáĬ£áĮĢ": 4685,
      "áĪªáĬŃ": 4686,
      "Ġáī°áĪĺáĪĥáĪ®": 4687,
      "ĠáĭĭáĬķ": 4688,
      "ĠáĬ£áĮĪáĭ°áĪµáī²": 4689,
      "áī³áĭįáĬķ": 4690,
      "áĬ£áĭ©": 4691,
      "áĭµáĭµ": 4692,
      "ĠáĪĵáĭĪ": 4693,
      "ĠáĭµáĪķáĪŃáĭļ": 4694,
      "ĠáĬ«áĪĬáĬ¥": 4695,
      "ĠáĭĺáĭŃáįĪáĪįáĮ¥": 4696,
      "ĠáĮĢáĪĺáĪŃ": 4697,
      "ĠáĬ£áĭµáĪĭáĭŃ": 4698,
      "áĪµáĬ¹áĪĿ": 4699,
      "Ġáīĸ": 4700,
      "áįĪáĭŃ": 4701,
      "áīĥáĭĪ": 4702,
      "Ġ2015": 4703,
      "ĠáĮłáįĬáĬ¡": 4704,
      "ĠáĮłáĬķáīĤ": 4705,
      "ĠáĪĵáī£áĪ«áĭĬ": 4706,
      "áĭ¨áĪĪ": 4707,
      "ĠáĪķáĪĻ": 4708,
      "Ġáī¥áĪĿáĭį": 4709,
      "ĠáĭĿáĭĪáĪĥáī¥": 4710,
      "Ġáī°áĭĪáĪ²": 4711,
      "ĠáĬ¨áĪĿáĭĺáĪĪáĭİ": 4712,
      "ĠáĬķáĪĺáĮĢáĪĺáĪŃ": 4713,
      "ĠáĬķáĪĵáĭµáĪķáĭ¶áĪĿ": 4714,
      "ĠáĬ£áĭŃáĬĲáīłáĪ®áĬķ": 4715,
      "áĭ¨áĬĵáĭŃ": 4716,
      "áĪµáī°áĬķ": 4717,
      "ĠáĭĿáĭĪáĮ¸": 4718,
      "ĠáĬ£áĪĺáĪįáĬª": 4719,
      "Ġáī°áĭĽáĪª": 4720,
      "áī¥áĭµ": 4721,
      "ĠáĮįáįį": 4722,
      "Ġáī¥áĭĻáĬħ": 4723,
      "ĠáĪµáĭµáĪ«áī¤áīµ": 4724,
      "áĭįáĬĵ": 4725,
      "ĠáĬ£áĭŃáĮįáī£áĬ¥áĬķ": 4726,
      "Ġáīłáĭĵ": 4727,
      "ĠáĪħáĬķáĮ»": 4728,
      "ĠáĭĺáĪİáĬĴ": 4729,
      "ĠáĪĿáĪĿáĪĭáĪµ": 4730,
      "áĪİáĪĽ": 4731,
      "ĠáĭŃáĪ°áĪŃáĪķ": 4732,
      "áī¥áĪŃáĬķ": 4733,
      "ĠáĬ£áĭŃáĬ®áĬĲáīµáĬķ": 4734,
      "áĬŃáĬ¥áĪī": 4735,
      "Ġáī°áĪªáįī": 4736,
      "áĪĻáĬĵ": 4737,
      "ĠáĪħáĭŃáĭĪáī±": 4738,
      "ĠáĭĵáĪŃáī¢": 4739,
      "ĠáĭĿáĮĪáĪįáĮ½": 4740,
      "áĬ¸áīµ": 4741,
      "Ġáĭļáĭį": 4742,
      "ĠáĪ¥áĮĭ": 4743,
      "Ġáī°áĬ£áĪ²": 4744,
      "Ġáī°áīłáĮĬ": 4745,
      "ĠáĭĺáĭµáĪįáĭ®": 4746,
      "ĠáīµáĬ¸": 4747,
      "Ġáĭ®áĪĥ": 4748,
      "ĠáĬ£áīĥ": 4749,
      "Ġáĭĺáī¥áĪį": 4750,
      "Ġáĭ°áĮĭáĮĬ": 4751,
      "ĠáĬķáĪŃáĬł": 4752,
      "ĠáĮįáĭ³áĭŃ": 4753,
      "ĠáįĭáĪķ": 4754,
      "ĠáĬĵáī£áĬ»": 4755,
      "ĠáĬŃáī¥áĪ¨": 4756,
      "áĪĽáĪļ": 4757,
      "áīĢáĪŃ": 4758,
      "áĪĿáĮ½áĬ¥": 4759,
      "áĭŃáĭ±": 4760,
      "áĪįáĭ®áĪĿ": 4761,
      "ĠáįķáĪ¬": 4762,
      "ĠáĬ¥áĬķáīłáĪŃ": 4763,
      "áĪ©áĬĵ": 4764,
      "áĬ¨áĪĭáĬ¸": 4765,
      "ĠáĪ½áĪĿ": 4766,
      "Ġáī¥áĭĿáīłáĪĪ": 4767,
      "ĠáīłáĪįáĬ©": 4768,
      "ĠáĪ©áĪµáĭ«": 4769,
      "Ġáĭ°áĪĬáĬ»": 4770,
      "Ġ=": 4771,
      "ĠáĬ¸áĪĺáĭŃ": 4772,
      "ĠáĬ¥áĭĭáĬĵáīµ": 4773,
      "áĭĽáĪŃ": 4774,
      "ĠáĪĿáĬķáī£áī¥": 4775,
      "ĠáĬĲáī¥áĭª": 4776,
      "Ġd": 4777,
      "ĠáĪĺáĪĺ": 4778,
      "áĮ¸áĭŃ": 4779,
      "Ġáī¥áĭĽáĭķáī£áĬ¡": 4780,
      "áĮłáįįáĬ¡": 4781,
      "ĠáĬ¥áĬ½": 4782,
      "ĠáĬŃáĭ³áĬķ": 4783,
      "áĬ£áī³": 4784,
      "ĠáĪĿáĪ½": 4785,
      "ĠáĭĿáī°áĪ¨áįĪ": 4786,
      "áĪĻáĬĴ": 4787,
      "áī¥áĪĪáĬĴ": 4788,
      "ĠáĭĦáĬķáĬ«": 4789,
      "áĪĪáĭ©": 4790,
      "áįįáĪ¨": 4791,
      "áĮįáĪª": 4792,
      "áĭ³áĪĪáĭĪ": 4793,
      "ĠáĪķáĬķ": 4794,
      "ĠáĬ£áĪ½áĪĵáīµ": 4795,
      "ĠáĮĪáĬķ": 4796,
      "ĠáĬķáĬ¥áĬ¡": 4797,
      "áĬŃáĪŃáĪµáī²áĭ«áĬķ": 4798,
      "ĠáĬ£áĭµáĪ«áĪ»": 4799,
      "ĠáĪĵáī°áīµ": 4800,
      "ĠáĪ°áĪĭáĪĽáĭĬ": 4801,
      "ĠáĪļáĬĴáĪµáīµáĪŃ": 4802,
      "Ġáī°áĪĺáĬķ": 4803,
      "áįĥáĬ¥": 4804,
      "ĠáĪ°áī¥áĬ£áĭŃáĬķ": 4805,
      "ĠáĪĵáĭ³": 4806,
      "ĠáĬ¸áĪĿáĬ¡": 4807,
      "ĠáĮĮáĪŃáĬ©áĪĿ": 4808,
      "áī¥áĬ©": 4809,
      "áĪįáĭİáĪĿ": 4810,
      "áĬĲáīłáĪ©": 4811,
      "áĪ°áĭ«áĪµ": 4812,
      "áĪĬáĬĵ": 4813,
      "Ġáī¥áĪĵáĬķ": 4814,
      "ĠáĬĶáĪ¨": 4815,
      "áĪŃáĬĲáīµ": 4816,
      "ĠáīłáĭŃ": 4817,
      "áĮ»áĪĿ": 4818,
      "ĠáĮħáĮįáĬĵ": 4819,
      "et": 4820,
      "áĪĪáĮł": 4821,
      "ĠáĬķáīħ": 4822,
      "ĠáĭįáĪŃ": 4823,
      "ĠáīĢáĪª": 4824,
      "ĠáĪĪáī£": 4825,
      "Ġáī¥áĭĺáĪİ": 4826,
      "ĠáĪĿáĬ»áĭµ": 4827,
      "ĠáĬķáĬ¥áĮįáĭļáĬ£áī¥áĪĦáĪŃ": 4828,
      "Ġáī¥áĪĿáĬ¥": 4829,
      "áī¥áĪ¨áĪī": 4830,
      "ĠáįĵáĪŃáī²": 4831,
      "Ġáī£áĬķáĬŃ": 4832,
      "ĠáĭĿáįĪáīµ": 4833,
      "áĭĪáĭ²": 4834,
      "áĬĴáĬķ": 4835,
      "ĠáĪħáĪĭ": 4836,
      "ro": 4837,
      "ĠáĪĿáĪµáĪĽáĭķ": 4838,
      "ĠáĭĿáīłáĪįáĬ«": 4839,
      "ĠáĮĭáĭľáĮ£": 4840,
      "ĠáĬŃáĪ¨": 4841,
      "ĠáīµáĪŃáĬ¢": 4842,
      "ĠáĮ¸áĪ¨": 4843,
      "ĠáĬķáĪĿáįįáĪĭáĮ¥": 4844,
      "ĠáĬ£áĭŃáĬ¨áĬ£áĪįáĬķ": 4845,
      "ĠáĬ¨áĪĺ": 4846,
      "Ġáī¥áīĲáĮ¥áī³": 4847,
      "áĮ¥áĬ¤": 4848,
      "ĠáĬ£áĮ¸áĮĭáĪļ": 4849,
      "ĠáĭĿáīłáĭĿáĪķ": 4850,
      "áĪŃáĭķ": 4851,
      "ĠáĬ£áĭŃáīµáįįáĪŃ": 4852,
      "áĮ»áĭĪáīµ": 4853,
      "ĠáĬªáĭ³": 4854,
      "Ġáī¥áĪĽáĭķ": 4855,
      "áĪĽáĭµ": 4856,
      "áĬ«áĪįáĬ¥": 4857,
      "Ġáī¥áĪĿáĪį": 4858,
      "áĪŃáĬ¨áĭŃ": 4859,
      "ĠáĬ¥áĬ¨áĭŃ": 4860,
      "ĠáĬ«áĬķ": 4861,
      "áĬ¨áĪĿáī²": 4862,
      "Ġáĭįáĭ³": 4863,
      "áį§'": 4864,
      "ĠáĪ³áĬ¦áĪį": 4865,
      "Ġáī¥áĭĺáĭŃáĬ«áĭļ": 4866,
      "áī¥áĬ©áĪĿ": 4867,
      "ĠáĬ£áī³áĭĬ": 4868,
      "ĠáĪ°áĪ«": 4869,
      "ĠáĮ¸áĮ¥áī³": 4870,
      "áĪĲáĮķ": 4871,
      "Ġ#": 4872,
      "ĠáĬ¨áĬ¨áĪĿ": 4873,
      "ĠáĬķáĪĿáĬ¥": 4874,
      "ĠáĪĺáĪķ": 4875,
      "áĭĿáĬĵ": 4876,
      "ĠáĭĪáįįáĪª": 4877,
      "ĠáīµáĬ¥": 4878,
      "áĮ¢áĪŃ": 4879,
      "ĠáĬ£áįįáĬķ": 4880,
      "ĠáĬ»áī£": 4881,
      "Ġáī£áĪħáĪŃáĭ«áīµ": 4882,
      "áī¥áĪĬ": 4883,
      "áĪīáĭŃ": 4884,
      "ĠáĬĲáī¦": 4885,
      "áįĶ": 4886,
      "ĠáĬĲáĭŃáĪŃáĬĵ": 4887,
      "ĠáĭŃáī¥áĪĪáĬĵ": 4888,
      "áĬķáĪķáĬĵ": 4889,
      "áĭ°áįį": 4890,
      "ĠáĭķáĪĭáĪį": 4891,
      "áĬłáĭŃ": 4892,
      "áĪĳáĬķ": 4893,
      "ĠáīłáĪĪáī¶": 4894,
      "áĪ®áįĵ": 4895,
      "ĠáĬ£áįįáĪĬáĮ¡": 4896,
      "áī¥áĬĵáĭ®": 4897,
      "ĠáĬ£áĪ°áĪ«áĪŃáĪĵ": 4898,
      "Ġáī¥áĬķáĮ¹áĪŃ": 4899,
      "áīħáĪį": 4900,
      "ĠáĬ£áī£áĭŃáī²": 4901,
      "ĠáĪĿáĬ½áĬķáĭ«áī³áīµ": 4902,
      "ĠáĪĵáĪĪáĭĭ": 4903,
      "ĠáĪ¶áĪŃáĭ«": 4904,
      "ĠáĬķáīłáĭŃ": 4905,
      "áĭĭáĬ¥": 4906,
      "ĠáĬ¨áĪĿáĭĿáĬĲáīłáĪ¨": 4907,
      "ĠáĮłáĭį": 4908,
      "ĠáĬ£áĭįáĪµáīµáĪ«": 4909,
      "ĠáĬ£áĪĿáĮº": 4910,
      "ĠáĬ¥áĪ±áĪ«áīµ": 4911,
      "ĠáĮĤ": 4912,
      "áįħáĪį": 4913,
      "ĠáĬķáĭ°áīĢ": 4914,
      "ĠáĭŃáĮįáīłáĪ¨": 4915,
      "ĠáĬķáĭĤ": 4916,
      "áī¶áĪĬ": 4917,
      "áĪŃáĬ¥áĭŃ": 4918,
      "áĪĮáįİáĬķ": 4919,
      "ĠáĬ£áĪĽáĪįáĬ½áī²": 4920,
      "Ġáĭ¨áĮįáĭ³áĪµ": 4921,
      "ĠáĭĿáĪĿáĪįáĬ¨": 4922,
      "Ġáī°áĬķáĪµ": 4923,
      "áĮĭáįį": 4924,
      "ĠáĪįáī¦áĪĿ": 4925,
      "Ġáī¥áĪĿáīķ": 4926,
      "Ġáī°áĮĪáĪĬáįģ": 4927,
      "ĠáĪļáĬ¥áī³áĭĬáīµ": 4928,
      "áĪªáĬ¡": 4929,
      "ĠáĪĺáĭĵáĪįáīµáĬķ": 4930,
      "ous": 4931,
      "ĠáĭĪáī°áĪĥáĭ°áĪ«áĭĬ": 4932,
      "ĠáĭļáĮĪáĪįáĮ½": 4933,
      "ĠáĪ¨áĭµ": 4934,
      "ĠÂ·": 4935,
      "áī¥áĭİáĪĿ": 4936,
      "ĠáĬ¸áĪĪáĭī": 4937,
      "ĠáĬŃáĬķáĭµáĭļ": 4938,
      "ĠáĪ¬áĪ³": 4939,
      "ĠáĪµáĮįáĬ£áīµ": 4940,
      "el": 4941,
      "ĠáĪĺáĮ¹": 4942,
      "áįįáĮ¸áĪĿ": 4943,
      "ĠáĬķáĪĿáĭĿ": 4944,
      "áĪŃáīµáĭĸ": 4945,
      "Ġáī¥áīķáĭĵáīµ": 4946,
      "ĠáīµáĪ½": 4947,
      "Ġáī°áĪ°áĪª": 4948,
      "ĠáĬ¨áĭŃáī°áĪ¨áįĪ": 4949,
      "ĠáĬŃáĬ¥áĪĪáīµ": 4950,
      "ĠáĬ£áĪĿáĪįáĬ¾": 4951,
      "áĪ«áĪ½": 4952,
      "áĪĻáĬ¤áĪį": 4953,
      "ĠáĪŃáĬŃ": 4954,
      "ĠáĪħáĭŃáĭĪáīµáĬ«": 4955,
      "ĠáĬŃáĭĪáĪµáĭµ": 4956,
      "ĠáīµáĭĿ": 4957,
      "ĠáĪĺáīĵáī¥áĪŃ": 4958,
      "na": 4959,
      "ĠáīĢáĬķ": 4960,
      "Ġáī¥áĪĵáĭŃáĪĬ": 4961,
      "Ġáī¥áī°áĪĺáĪ³áĪ³áĪĬ": 4962,
      "áĮ½áĬĵ": 4963,
      "ĠáĪŀáĭŃáī¶áĪĿ": 4964,
      "áĪįáī¢": 4965,
      "ĠáīħáĪį": 4966,
      "áĪĿáĪįáĪµ": 4967,
      "ome": 4968,
      "áĬ®áĬĸáĪļ": 4969,
      "ĠáĭĪáĮĭ": 4970,
      "Ġáīµáĭį": 4971,
      "ĠáĬ¨áĬķ": 4972,
      "áĬ«áĪįáĬ¦áīµ": 4973,
      "ĠáĪĿáĬŃáīµ": 4974,
      "ĠáĬ£áī¥áī¶áĪĿ": 4975,
      "áĪ®áĪµ": 4976,
      "áĬĲáīµáĬĵ": 4977,
      "ĠáĬ»áī¥áī²": 4978,
      "ĠáĭŃáĬ¾áĬĳ": 4979,
      "áĮĭáĪ«": 4980,
      "ĠáĭĿáī°áīł": 4981,
      "ĠáĭĵáĪĺáī³áĭĬ": 4982,
      "ĠáĭĿáīĳ": 4983,
      "ĠáīĢáĭŃáĪķ": 4984,
      "ĠáįĪáĪ¨": 4985,
      "áĪĨáĪĿ": 4986,
      "ĠáĪ°áĭįáĪ«": 4987,
      "Ġáī°áįĪáĮ¢áĪ©": 4988,
      "Ġáī¥áĭĵáĭŃ": 4989,
      "áĬŃáĪ©": 4990,
      "áĬŃáĭİáĪĿ": 4991,
      "Ġáī¤áīµáĬ«": 4992,
      "ĠáĬ£áĭŃáīµáĪķ": 4993,
      "ĠáĭĭáĪķ": 4994,
      "áĬµáĪī": 4995,
      "ĠáĪĺáĬ¥áī°áĭĬ": 4996,
      "Ġáī£áĭķáĪĪáĭŃ": 4997,
      "ĠáĭĺáĮĪáĪŃáĪĿ": 4998,
      "ĠáĪķáĭµ": 4999,
      "Ġ34": 5000,
      "ĠáĪĿáĬ¥áī³áĭį": 5001,
      "áĮķáĪĿ": 5002,
      "ĠáĭĪáĮºáĬ¡": 5003,
      "Ġáĭ¨áĭµáĪįáĭ¨áĬĵ": 5004,
      "áĭ°áĮĭáĮĭáĪļ": 5005,
      "Ġáī°áĪįáĬ¥": 5006,
      "áĭĵáĪĺ": 5007,
      "Ġ\"'": 5008,
      "áĪ±áĪĿ": 5009,
      "Ġáī¥áĪĿáĪĿ": 5010,
      "ĠáĬ¥áĬķáīĭáĭķ": 5011,
      "ĠF": 5012,
      "áĭ«áĪ½": 5013,
      "ĠáĬ¸áĭ°": 5014,
      "ĠáĬķáĪĻáĪ´": 5015,
      "Ġáĭļáīķ": 5016,
      "áīĦ": 5017,
      "áĬ«áĬĴ": 5018,
      "ĠáĪĵáĭĭáĪŃáĭ«": 5019,
      "ĠáĭĵáĪĿ": 5020,
      "áįįáī³": 5021,
      "ĠáĭŃáīħ": 5022,
      "áĮŃáīµ": 5023,
      "áĮ¤": 5024,
      "ĠáĪĺáĭļ": 5025,
      "tic": 5026,
      "ĠáĮĪáĪĿáĮĭáĪĿ": 5027,
      "ĠáĪļáĭ«áĭĿáĭ«": 5028,
      "ĠáĭµáĬķáĮįáĪį": 5029,
      "áĮ¸áĪĪ": 5030,
      "áĪĭáīµáĬ©áĪĿ": 5031,
      "ĠáĪĴáĭŀáĪĿ": 5032,
      "ĠáĮĢáĪļáĪ¨": 5033,
      "ĠáĬ¨áĪ¨áĬķ": 5034,
      "ĠáĭŃáĪħáī¥": 5035,
      "áī¦áĬĵ": 5036,
      "Ġ2014": 5037,
      "ĠáĬķáĪįáĭķáĪĬ": 5038,
      "Ġáī°áĪ«áĬ¥áĭ©": 5039,
      "ĠáĬ¥áī¥": 5040,
      "ĠáĪĺáĪŃáīµáĭĸ": 5041,
      "áĪĭáĭŃáĬķ": 5042,
      "Ġ38": 5043,
      "áīłáĪįáĬ©áĪĿ": 5044,
      "áĪįáĮ£áĬķ": 5045,
      "ĠáĬ¢áĭ°áĭŃ": 5046,
      "ĠáīĢáĭ³áĪĿ": 5047,
      "ĠáĪĺáĭĽáĪĻ": 5048,
      "ĠáĬ£áĭŃáĬ¨áĬ£áĪį": 5049,
      "ĠáĪįáĭķáĪĬáĬ¡": 5050,
      "áĭķáĭĿ": 5051,
      "ĠáĬĵáī¶áĪĿ": 5052,
      "ĠáĭŃáīł": 5053,
      "ĠáĬ£áĬ«áĭŃáĭ³": 5054,
      "ĠáĬ£áī°áĭĪ": 5055,
      "áĮĪáī¡": 5056,
      "áĭ®áĪµ": 5057,
      "ĠáĭĺáĭŃáĬ¨áĬ£": 5058,
      "ĠáĬķáĪµáĬ¹áĪĿ": 5059,
      "Ġáī°áĪĺáĬŃáĪ®": 5060,
      "ĠáĬŃáĪ²": 5061,
      "ĠáĪĿáĭķáĪ«áī¥": 5062,
      "Ġáįħáī¡áīķ": 5063,
      "ĠáĭĿáĪ¨áĬł": 5064,
      "áĭķáĪ¶": 5065,
      "ĠáįįáĪ½áĬ½": 5066,
      "áĭįáĭĴáīµ": 5067,
      "áĬ®áĬķ": 5068,
      "áī¤áĪį": 5069,
      "23": 5070,
      "áĭµáĪĽ": 5071,
      "Ġáī°áĪµ": 5072,
      "Ġáī£áī¢": 5073,
      "ĠáĬ£áĭŃáĬ®áĬĵáĬķ": 5074,
      "ĠáĬĲáĮĪáĪµáī³áīµ": 5075,
      "ĠáĬķáĪĵáĭĭáĪ©": 5076,
      "ĠáĪĵáĬķáĮİ": 5077,
      "áĪķáī¥áī£áĪŃ": 5078,
      "ĠáĭŃáī¥áĪĥáĪį": 5079,
      "áįĭáĪķ": 5080,
      "ĠáĮĲáĭŃáī³áĬĵ": 5081,
      "ĠáĬķáĪŃáĬ¥áĪ±": 5082,
      "ĠáĪĿáī¥áĮ»áĪķ": 5083,
      "áĪįáĭ®áĬĵáīµ": 5084,
      "ĠáįįáĪįáĪµáĮ¥áĬ¤": 5085,
      "id": 5086,
      "ĠáĪĺáĪĥ": 5087,
      "ĠáĬŃáįĪáĪįáĮ¥": 5088,
      "ĠáĭĺáĪİáĬ»": 5089,
      "Ġáī°áī³áĪĴ": 5090,
      "áĪįáĬ¹áĪĿ": 5091,
      "ĠáĪµáĪĺáĭŃ": 5092,
      "ĠáĭĪáĮ¸": 5093,
      "ĠáĪŃáĮįáĮ½": 5094,
      "ĠáĬ¥áĪµáĬª": 5095,
      "áĪĺáĪĭáĪĪáĪµ": 5096,
      "ĠáĭįáĪħáīłáīµ": 5097,
      "áĪįáīĢ": 5098,
      "áĪĺáī°": 5099,
      "ĠáįĪáĮ¢áĪ©": 5100,
      "Ġáī¥áĪķáĮĬ": 5101,
      "ĠáĪħáĬķáĭ²": 5102,
      "ĠáĬŃáīµáĭĪ": 5103,
      "Ġáĭ²áĭ©": 5104,
      "áĭįáī³": 5105,
      "áĭ°áĬķáīķ": 5106,
      "ĠáĬ«áī¶áĪĬ": 5107,
      "ĠáĭĵáĪĮ": 5108,
      "ĠáĪĤáĭĪ": 5109,
      "ĠáĪľáĭ³": 5110,
      "ĠáĪķáĮīáĪ³áīµ": 5111,
      "áīµáĪĪáīµ": 5112,
      "áĪµáĪµ": 5113,
      "áĬĵáįį": 5114,
      "ĠáĭĺáĮ¸": 5115,
      "ĠáĪĿáĭĥáĬĲáĭŃ": 5116,
      "ĠáĭĿáīĲáĪ¨áīł": 5117,
      "ĠáĭĿáīłáĭĿáĪĲ": 5118,
      "ĠáĬ£áĭįáī¶": 5119,
      "ĠáĬłáĪİáĬĵ": 5120,
      "áī²áĬ«áĬķ": 5121,
      "ĠáĭĿáįĪáĪŃ": 5122,
      "áĬĲáĬĴ": 5123,
      "ĠáĮįáĭļ": 5124,
      "ĠáĮįáĭ³áĭ«áīµ": 5125,
      "Ġáĭ°áĪ´": 5126,
      "ĠáĪĿáĪµáĬ£": 5127,
      "ĠáĬ£áĬķáī¥áī¥": 5128,
      "ĠáĪĿáĬ¥áĬķáī³": 5129,
      "Ġ60": 5130,
      "ĠáĪ¨áĬ£áĭ¨": 5131,
      "áĬķáĪ³": 5132,
      "áĬ©áĪŃ": 5133,
      "áĭĽáĭĿ": 5134,
      "áĭĸáĬķ": 5135,
      "ĠáĪµáĭ°áī°áĬĽ": 5136,
      "ĠáĬ£áĮĪáĪįáĮĪáĪį": 5137,
      "Ġáī°áĮĢ": 5138,
      "áĬĳáĭŃ": 5139,
      "ĠáĪĿáĪķáĭ°áĪ«": 5140,
      "ĠáĪĪáĭŃáīµáĬķ": 5141,
      "áīĭáĬķáīĭ": 5142,
      "áĬ¥áĭĪ": 5143,
      "áĮ½áĪİ": 5144,
      "áįĪáĪįáĮ£": 5145,
      "Ġáī£áĭķáĪİáĪĿ": 5146,
      "Ġáī°áįĪáĪĬáĮ¡": 5147,
      "ĠáĬ£áĪĿáĪĵ": 5148,
      "áĬķáĮĭ": 5149,
      "ĠáĪĺáĮ»áĬ¥": 5150,
      "áįĪáĪ¨": 5151,
      "áĮ¦áĪµ": 5152,
      "Ġáĭ®áĪĵáĬķáĪµ": 5153,
      "Ġáī¥áī°áĭ°áĮĭáĮĭáĪļ": 5154,
      "ĠáĪĿáĪħáĪĭáĭī": 5155,
      "ĠáĪĵáĭ±áĪ½": 5156,
      "ĠáĬ¢áĪĪáĬķ": 5157,
      "ĠáĭļáĮįáīłáĪŃ": 5158,
      "ĠáĬªáĬ¸": 5159,
      "ĠáĬķáĪĿáī¥": 5160,
      "áĪĺáĪŃáī²": 5161,
      "áĮĵáĪµ": 5162,
      "revi": 5163,
      "áĪ³áī°áįįáī²": 5164,
      "ĠáĬ£áĪ¨áĮĭáĮĬ": 5165,
      "áĭĭáĪļ": 5166,
      "Ġáī¥áĪĿáīµ": 5167,
      "ĠáĬ£áĭĿáĭ«": 5168,
      "áĭĪáĪµáĭ¶": 5169,
      "ĠáĭķáĪĭ": 5170,
      "ĠáĪŃáĬ¥áĪ°áĭŃ": 5171,
      "Ġáīħáĭ±áĪ³áīµ": 5172,
      "ĠáĪµáĪĿáĭĳ": 5173,
      "áįĪáĪįáĮ¦áĬķ": 5174,
      "ww": 5175,
      "áĬĲáĪī": 5176,
      "ĠáĭĵáĪ°áĪŃáī°áĭį": 5177,
      "áī°áĪĿ": 5178,
      "áįįáĮ½áĪĿ": 5179,
      "áĬĽáĬķ": 5180,
      "áĮĪáī¥áĪ®áĪĿ": 5181,
      "áĪ¨áĬ¸áīł": 5182,
      "ĠáĮ»áĭµáīķ": 5183,
      "ĠáĪ°áĪĽáĬ¥": 5184,
      "ĠáĮ¨áĬķ": 5185,
      "ĠMore": 5186,
      "ĠáĬĲáī¢áĭŃ": 5187,
      "ĠáĬķáįī": 5188,
      "ĠáĬ®áĪŃáĭ«": 5189,
      "ĠáĬŃáĪĪ": 5190,
      "ĠáĬŃáīµáĭķ": 5191,
      "Ġáī¥áĬ£áĬķáĮ»áĪ©": 5192,
      "Ġáī°áįĪáĮº": 5193,
      "Ġ70": 5194,
      "Ġáĭ°áīĢáĭŃ": 5195,
      "ĠáĬ£áĭķáĪ©áĬ½": 5196,
      "áĪĺáĬĵáĬķ": 5197,
      "áĭ°áīķ": 5198,
      "ĠáĭĺáĭŃáĬŃ": 5199,
      "ĠáĪĺáī¥áĪ«áĪħ": 5200,
      "Ġáī°áīłáĮįáĪ¶": 5201,
      "ĠáĬ£áĭŃáĬ¨áĬ£áĪįáĬ©áĬķ": 5202,
      "ĠáĬķáī³": 5203,
      "ĠáĬĲáįĪáĪŃáī²": 5204,
      "áĪįáĬ«áĬķ": 5205,
      "ĠáĪ¨áĬºáī¡": 5206,
      "áĪĺáĪĭ": 5207,
      "áĮ¥áīħ": 5208,
      "ĠáĬŃáĪŃáĪµáīµáĬĵ": 5209,
      "Ġáĭ²áįķ": 5210,
      "áĬ¥áĬķáĪĨ": 5211,
      "Ġáĭĵáī¥áĭŃ": 5212,
      "ĠáĪĵáī¢áĪŃáĬĵ": 5213,
      "ĠáĬķáĬķáĮīáĪµ": 5214,
      "ĠáĬķáī£áĭķáĪī": 5215,
      "ĠáĮ¡": 5216,
      "áĬ«áĪŃ": 5217,
      "ĠáĭĪáī¥": 5218,
      "ĠáĪ®áĪľ": 5219,
      "ĠáĪµáĪĽáĭķ": 5220,
      "ĠáĬ£áĭŃáĪĵ": 5221,
      "áĮ»áĭķáī²": 5222,
      "ĠáĬ¥áīµáĪŃáĬ¨áī¥": 5223,
      "ĠáĬķáĪµáĬ»áĬķ": 5224,
      "áĭĪáĪµáĭ±": 5225,
      "áĬ£áĬķáĪµáīµáĭ®": 5226,
      "Ġáī°áĭĽáĪ¨áī¥": 5227,
      "áĬ¥áĪĿáĪĽáĬķ": 5228,
      "áĪ°áĪĭ": 5229,
      "áīłáĪįáĭĳ": 5230,
      "ĠáĬ£áĪĺáĬĵ": 5231,
      "áĬķáĪµáĬ»áīµáĬ©áĪĿ": 5232,
      "áĪĺáĪµáĮįáĬĲáĬ«": 5233,
      "revious": 5234,
      "ĠáĬ¨áĭŃáĭ°": 5235,
      "áĪĲáīµ": 5236,
      "am": 5237,
      "ĠáĪĿáī°": 5238,
      "áĭĪáĪī": 5239,
      "Ġáĭ°áī¥áĪ¨": 5240,
      "ĠáĪĿáĭµáĪĭáĭį": 5241,
      "Ġáī¥áĭ°áĪ¨áĮĥ": 5242,
      "ĠáĪŃáĮįáĮ¸áĬĽ": 5243,
      "ĠáĭµáĪĴ": 5244,
      "ĠáĬ¸áĬĲ": 5245,
      "ĠáĬ£áĭįáĪ®áĮ³": 5246,
      "ĠáĭķáĭµáĪļ": 5247,
      "áīķáĮ¢": 5248,
      "ĠáĪŀáīµáĬķ": 5249,
      "Ġáĭ²áĬĵ": 5250,
      "ĠáĪĬáī¥áĭ«": 5251,
      "Ġn": 5252,
      "áīµáĭ©": 5253,
      "ĠáĬ¢áĮ£": 5254,
      "ĠáĪµáĪĿáĬ«": 5255,
      "Ġáī¥áī¥áĭĻáĪķ": 5256,
      "ĠáĬĲáįĭáĪªáīµ": 5257,
      "áĮĪáĬĵ": 5258,
      "ĠáĬłáĬĲ": 5259,
      "ĠáĭĿáīłáĮ½": 5260,
      "ĠáīħáĭµáĪĺáĭŃ": 5261,
      "ĠáĬ£áĪĿáī£": 5262,
      "ĠáĬķáĮĪáĪĪ": 5263,
      "Ġáī¥áĪĥ": 5264,
      "áĬŃáĪ²": 5265,
      "Ġáī¥áĪŃáĬŃáīµ": 5266,
      "Ġáįįáīĵáĭ°": 5267,
      "ĠáīĵáĪĭáīµ": 5268,
      "ĠáĬ¬áĬķáĭ«": 5269,
      "Ġáī¥áĭĿáī°áįĪáĪĭáĪĪáĭ¨": 5270,
      "áĭ³áĪį": 5271,
      "ĠáĬ£áĪĿáĪĭáĬ½áĬ«": 5272,
      "Ġáī¥áī¥áĭĿáĪĴ": 5273,
      "ĠáĭĿáĬ¥": 5274,
      "áĪĭáĭįáĬķ": 5275,
      "áĭĺáĬĴ": 5276,
      "áĮĭáĬ¥": 5277,
      "ĠáĬ®áĪļáī´": 5278,
      "áĪµáīµáĭ®áĬķ": 5279,
      "ĠáĬĥáĮ¢áĬ£áīµ": 5280,
      "ĠáĪ°áįĪáĪŃ": 5281,
      "ĠáĪķáĪ°": 5282,
      "ĠáĪ°áĪļáĭĲ": 5283,
      "ĠáīĪáĪįáĭĵ": 5284,
      "áĮįáĭĿ": 5285,
      "Ġáī°áĪŃáĬ¥áĭ®": 5286,
      "áĭµáĪķáĭµ": 5287,
      "ĠáĭĵáĪĬ": 5288,
      "ĠáīħáĪ©áī¥": 5289,
      "ĠáĬķáĪĿáĭµáĪª": 5290,
      "ĠáĬ¥áĭ°áĪĬ": 5291,
      "ĠáĬķáĭĺáĪİ": 5292,
      "ĠáĭĽáĮĬáīµ": 5293,
      "ĠáĬ£áĮĪáĪįáĮĭáĪĬ": 5294,
      "ĠW": 5295,
      "ĠáĬ©áĬķ": 5296,
      "Ġáī¤áī°áĭŃ": 5297,
      "ĠáĪĺáĬĵáĬ¥áĪ°áĭŃ": 5298,
      "ĠáĭĿáĪį": 5299,
      "ĠáĭĺáĪ«": 5300,
      "Ġáī°áĪ³áīµ": 5301,
      "as": 5302,
      "áĪŃáĭĵáīµ": 5303,
      "Ġáī°áĮĪáĭ²": 5304,
      "ĠáīµáĬĲáī¥áĪŃ": 5305,
      "ĠáĭĿáī°áĮłáīķ": 5306,
      "ĠáĬ¥áĪĿáī£": 5307,
      "áĬķáĭ±": 5308,
      "Ġáī°áĪĥ": 5309,
      "ĠáĭŃáĮĪáī¥áĪ©": 5310,
      "áĪĲáĭŃ": 5311,
      "ĠáĪĿáĭĥáĬķáĬ«": 5312,
      "Ġáī°áĪĺáĪª": 5313,
      "Ġáī¥áĮįáĭľ": 5314,
      "áīªáĭµ": 5315,
      "ĠáĮ¥áīķáĪ²": 5316,
      "áĪĭáī±": 5317,
      "ĠáĬ£áĭįáĪ«áĮĥ": 5318,
      "25": 5319,
      "áĭµáĮį": 5320,
      "ĠáĬ£áĪµáĭĴ": 5321,
      "ĠáĭħáĪİáĪĿ": 5322,
      "ĠáĪĺáī£áĬ¥": 5323,
      "áĭ°áĪĺ": 5324,
      "ĠáĪµáĭį": 5325,
      "ĠáĪĺáĭ³": 5326,
      "ĠáĪĺáĭĵáīµ": 5327,
      "ĠáĪĿáī£": 5328,
      "ĠáĮ¸áĬķ": 5329,
      "Ġáī°áĪ¨áĬºáī¡": 5330,
      "Ġáī¥áĪļ": 5331,
      "áĪĥáī¡": 5332,
      "ĠáĬ£áįįáĪªáĬ«": 5333,
      "áĪĪáĭİáĪĿ": 5334,
      "ĠáĭĿáĭ°áĪįáĭ©": 5335,
      "áĬĲáīłáĪŃ": 5336,
      "áĪĵáĪĭáĪĪ": 5337,
      "ĠáĪĺáĬķáĮįáĪµáī°": 5338,
      "ĠáĭįáĮ½áĬ¢": 5339,
      "Ġáī£áĪŃáĬĲáīµ": 5340,
      "Ġáĭķáī¥áĭ¨áīµ": 5341,
      "áĪµáĬ½": 5342,
      "ĠáĭŃáīĢ": 5343,
      "áĭļáĬ£": 5344,
      "áĪħáĪĪ": 5345,
      "ĠáĬŃáĬķáīħ": 5346,
      "Ġáĭ°áīĢáĬķáĪµáīµáĭ®": 5347,
      "ĠáĪĺáĪ¬": 5348,
      "áĮĪáĪ°": 5349,
      "ĠáĭķáĪĽáĪĿ": 5350,
      "áĮĢáīµ": 5351,
      "ĠáĬŃáĪħáī¥": 5352,
      "Ġáĭ°áī¥áĭ³áīł": 5353,
      "Ġáĭĺáĭķ": 5354,
      "ĠáĬ¨áĪĿáĭĿáĬ½áĬ¥áĪį": 5355,
      "ĠáĪķáĮ»áĬķ": 5356,
      "áĭ®áĪĵ": 5357,
      "ĠáĪĵáĭ°áĪ«": 5358,
      "ĠáĬ°áĬķ": 5359,
      "ĠáĬ²áĪİáĪĿ": 5360,
      "ĠáįĪáĪĬáĮ¥": 5361,
      "áĪĿáĪĥáĪŃ": 5362,
      "ĠáĪĺáĮĪáĭµáī³áīµ": 5363,
      "Ġ37": 5364,
      "ĠáĪĬáīĢ": 5365,
      "ĠáĬ£áĪĺáĪµ": 5366,
      "áīłáĪµ": 5367,
      "áĪĵáī±": 5368,
      "ĠáĬ£áīµáĭ®áĪĿ": 5369,
      "áī¸áĪµáĬ®": 5370,
      "ĠáįįáĮ»áĪĺ": 5371,
      "áĬ»áĬ¸": 5372,
      "áįįáīħáĪŃ": 5373,
      "ĠáĬŃáĬŃáĬŃ": 5374,
      "áĬŃáī³": 5375,
      "ĠáĪķáĪ«áĭŃ": 5376,
      "ĠáĬ¨áĭŃáĭ²": 5377,
      "ĠáĪļáĪµ": 5378,
      "Ġ198": 5379,
      "ĠáĭĪáĮĭáĪķáī³": 5380,
      "áī¹": 5381,
      "ĠáĪĺáī¸": 5382,
      "ĠáīĢáīµáĪª": 5383,
      "ĠáĮĪáĪĬáįĨáĪĿ": 5384,
      "ĠáĭĪáĪ²áĬ¹": 5385,
      "Ġáī£áī¢áĪİáĬķ": 5386,
      "ĠL": 5387,
      "áĪĭáĭķáĪĪ": 5388,
      "ĠáĮįáĭĿáĬ£áīµ": 5389,
      "áīµáĪ®": 5390,
      "áīłáĬ¦": 5391,
      "ĠáĬŃáĬ£áī±": 5392,
      "áįįáī°": 5393,
      "ĠáĮ¸áĪĵáįį": 5394,
      "ĠáĪĿáĪŃáĮįáĮĭ": 5395,
      "Ġ197": 5396,
      "ĠáĮŃáĬķáīĢ": 5397,
      "áįĸáĪŃ": 5398,
      "ĠáĭµáĬķáĬ³áĬķ": 5399,
      "ĠáĬ£áīłáĪŃáĬŃáī¶": 5400,
      "áĪŃáĭ³áĬ¥": 5401,
      "ĠáĪĵáĪļ": 5402,
      "áī¡áĭķ": 5403,
      "ĠáĪļáĬ«áĬ¤áĪį": 5404,
      "áĪħáīłáĬĴ": 5405,
      "ĠáĪľáĪĭ": 5406,
      "Ġáī°áĬ»áĭŃáĭ±": 5407,
      "áįĪáĬĵ": 5408,
      "áĬŃáĪĿ": 5409,
      "Ġáĭ°áīĵáĭŃ": 5410,
      "ĠáĮłáīķ": 5411,
      "ĠáĭįáĪĳáĭµ": 5412,
      "ĠáĪĺáĭµáĪĥáĬĴáīµ": 5413,
      "ch": 5414,
      "ĠáĭĿáĮİ": 5415,
      "áĪķáĭĭ": 5416,
      "ĠáĭĿáĪŃáĪŃáī¥": 5417,
      "ĠáĭµáĪįáĭ¨áīµ": 5418,
      "ĠáĮįáĭ´áī³": 5419,
      "áĬĵáĬ¸": 5420,
      "ĠáĬĲáĪĵáĪ°": 5421,
      "áĭĿáī¥": 5422,
      "ĠáĬ©áĬĵáīµ": 5423,
      "ĠáĭķáĪĪáī°": 5424,
      "ĠáĪĪáīłáĭ³": 5425,
      "áĭįáĭĳ": 5426,
      "ĠáĭĺáĬ½áĬ¥áĪį": 5427,
      "ĠHome": 5428,
      "ĠáĪ°áī¥áĬ¡áīµ": 5429,
      "ĠáĪĺáĪĪáĪµ": 5430,
      "áĭ°áĭ±": 5431,
      "áĬŃáĭĭ": 5432,
      "ĠáĬŃáĬķáĪŃáĬ¢": 5433,
      "ĠáĪ³áĪĻáĬ¤áĪį": 5434,
      "ĠáĭĿáĭĵáīł": 5435,
      "Ġáī¥áĭįáĪĳ": 5436,
      "áĬ»áĬ¥áĪĪ": 5437,
      "ĠáĪħáĪįáĭį": 5438,
      "Ġáī¥áĪŃáĬª": 5439,
      "ĠáĬĲáī£áĪª": 5440,
      "ĠáĭµáĪ«": 5441,
      "áįĬáīµ": 5442,
      "áīłáĭĿáĪķ": 5443,
      "Ġáĭ°áĪŀáĭĿ": 5444,
      "ĠáĬķáĭ®": 5445,
      "Ġáī¥áĪĥáĬķ": 5446,
      "áĮ¥áĪķ": 5447,
      "áĭĺáĪİ": 5448,
      "áī¢áĭŃ": 5449,
      "ĠáĬ£áĬĲáĭįáĬķ": 5450,
      "Ġáī°áĮ£": 5451,
      "ĠáĪĺáĮ¥": 5452,
      "ĠáĬŃáĭįáĬķ": 5453,
      "ĠáĭĵáĭµáĬĵ": 5454,
      "ĠáĬķáĬ£áī¦": 5455,
      "ĠáĬłáĭŃáĬ®áĬĲáĬķ": 5456,
      "ĠáĪĺáĪĿáĪħ": 5457,
      "ĠáĪĿáĮ¥áīĥáĪĿ": 5458,
      "ĠáĭĵáĭĪ": 5459,
      "ĠáĭĺáĭŃáĭĪ": 5460,
      "ĠáĬŃáĬķáĭ³": 5461,
      "áĬĸáĬķ": 5462,
      "ĠáĪĥáĮĪáĪ®áĪĿ": 5463,
      "áī¥áĪĪáĬĵ": 5464,
      "Ġáī£áĭķáĪįáĬĵ": 5465,
      "ĠáĪĺáĪ¨áįĥ": 5466,
      "ĠáĬ¥áĬķáĭµáĭ©": 5467,
      "ĠáĮ¥áīłáīłáĬĽ": 5468,
      "áĭµáĬ©": 5469,
      "ĠáĭĺáĬ½": 5470,
      "ĠáĬ©áī£áĬķáĭ«": 5471,
      "áĪŃáįĬ": 5472,
      "ĠáĭŃáĬŃ": 5473,
      "ĠáĭµáĬħ": 5474,
      "áĭĽáĭĺ": 5475,
      "áĭ²áĪĻ": 5476,
      "áĬ¨áĪĿáĭļ": 5477,
      "ĠáĭĿáĪ°áĪŃáĪĳ": 5478,
      "ĠáĭŃáĭĽáĪ¨áī¡": 5479,
      "áĪ®áĪĿáĬķ": 5480,
      "áįĭáįį": 5481,
      "ĠáĭĿáĬ¸áīłáĪŃ": 5482,
      "ĠáįĢáĮĪ": 5483,
      "ĠáĭĿáīłáĭĿáĪĳ": 5484,
      "ĠáĭĪáĪªáĭ±": 5485,
      "Ġáī¥áĪ«": 5486,
      "ĠáĬŃáĪŃáĬ¢": 5487,
      "ĠáĬĲáĭ³áĭ²": 5488,
      "Ġáī°áĭĺáĪŃ": 5489,
      "Ġáĭ°áĪĥáĭŃ": 5490,
      "áĪĥáĪħáĪĭ": 5491,
      "ĠáĬŃáīµáĪ¨áĬ½áī¡": 5492,
      "áĮīáĭŃ": 5493,
      "Ġáī¥áĪĵáĭĬ": 5494,
      "áĮ¡áĬķ": 5495,
      "ĠáĬŃáįīáīµ": 5496,
      "ĠáīħáĭµáĪľáĬ»": 5497,
      "ĠáĭĵáĪŃáĬ¨áĭŃ": 5498,
      "ĠáīĥáĬķáĭĽ": 5499,
      "Ġ36": 5500,
      "áĮĭáī¥": 5501,
      "áĬłáĬĵ": 5502,
      "ĠáĮĪáĪĬáĮ¾áĪĿ": 5503,
      "ĠáīłáĭĵáĪįáī²": 5504,
      "Ġáī¥áīħ": 5505,
      "Ġáī°áĪ³áī°áįįáī²": 5506,
      "ĠáĪĵáĮĬ": 5507,
      "ĠáĬ«áī¥áĭŀáĪĿ": 5508,
      "ĠáĭĺáĪĺáĬĲ": 5509,
      "ĠâĢ¹": 5510,
      "áĬĲáĪŃ": 5511,
      "ĠáĭŃáĮ¸": 5512,
      "ĠáĪĬáīĥ": 5513,
      "ĠáĪĿáĪħáĪĭáĭį": 5514,
      "áĭĺáĪ«áĪ¨áī¥": 5515,
      "Ġáī°áįĪáĮºáĪĻ": 5516,
      "ĠáĬķáĬ¡áĪµ": 5517,
      "áĬ¥áĮįáĭļáĬ£áī¥": 5518,
      "áĪķáĭµ": 5519,
      "áįįáĮ½": 5520,
      "ĠáĬ£áĭŃáįĭ": 5521,
      "áĬ®áīµ": 5522,
      "ĠáĮ½áĬĳáĭķ": 5523,
      "áĪĺáĭĵ": 5524,
      "ĠáĬŃáīµáĭį": 5525,
      "áī°áĬķáĪµ": 5526,
      "Ġáī°áīĲáī£áĪįáĬĲáīµ": 5527,
      "ĠáĮ³áĮ³": 5528,
      "ĠáĬķáīķáĭµáĪļáīµ": 5529,
      "ĠáĬ®áĭŃáĬķáĬ«": 5530,
      "ĠáįįáĪ«áĬķáī¸áĪµáĬ®": 5531,
      "áī°áī°": 5532,
      "ĠáĬķáīłáĪį": 5533,
      "ĠáĬ£áī¥áĭĺáĬķ": 5534,
      "áĪīáĬ¡": 5535,
      "Ġáīłáī¶áĪĿ": 5536,
      "ĠáĬ£áĪĺáĬķáī²": 5537,
      "ĠáĭĿáīķáĮ½áĪį": 5538,
      "ĠáĮ¥áĬķáĪ²": 5539,
      "Ġáī°áĮĢáĪļáĪ©": 5540,
      "áĬ£áĬ©áĪĿ": 5541,
      "ĠáīĿ": 5542,
      "ĠáĪĵáĪ°": 5543,
      "áĪ°áĪĪ": 5544,
      "áĬªáĬķ": 5545,
      "ĠáĬķáĭĿáĬ¾áĬĲ": 5546,
      "Ġ80": 5547,
      "Ġáī¡áĬķ": 5548,
      "áĮ½áĪĳáįį": 5549,
      "ĠáĬħ": 5550,
      "ĠáĬķáī¤áī°": 5551,
      "ĠáĬ¢áĭ®": 5552,
      "ĠáĬ°áĭŃáĬĸáĪĿ": 5553,
      "ĠáĪĺáĮ¨": 5554,
      "ĠáĬĲáĪ©": 5555,
      "ĠáĭĺáĭŃáī¥": 5556,
      "ĠáĭĿáįĪáĮł": 5557,
      "ĠáĭĿáĪŃáĬł": 5558,
      "ĠMe": 5559,
      "áĬ¥áĪį": 5560,
      "áĪĭáĪ´": 5561,
      "ĠáĬ«áĪħáĬķ": 5562,
      "áĬ½áĬ¥áĪīáĬķ": 5563,
      "ĠáĬ£áĬķáįĪáīµ": 5564,
      "ĠáĪ°áīłáĭŃáī±": 5565,
      "ĠáĪĪáĬ«áī²áīµ": 5566,
      "Ġ....": 5567,
      "ĠáĪĵáĭĭáĪŃáĭ«áīµ": 5568,
      "ĠáĪķáĮ½": 5569,
      "ĠáĭĺáĮĭáĮł": 5570,
      "ĠáĬ¥áĭī": 5571,
      "áĪĬáĬ¡": 5572,
      "áĪłáĪŃ": 5573,
      "ĠáĭķáĮ½": 5574,
      "Ġáī°áĭĪáĪįáĭ°": 5575,
      "ĠáĪ°áĪĽáĭ«áĭĬ": 5576,
      "áĪĪáĬ¹áĪĿ": 5577,
      "ĠáĭµáĪ«áĪŃ": 5578,
      "ĠáĬ£áĭŃáĭ°áĪĪ": 5579,
      "Ġáīµáīķ": 5580,
      "Ġáĭ°áĭµáĪķáĪª": 5581,
      "26": 5582,
      "áĭĭáĬ½": 5583,
      "ĠáĪĵáĭ°áĪ½áī²": 5584,
      "Ġáī°áīĲáī²": 5585,
      "ĠáĬķáī¥áĭĵáīµ": 5586,
      "Ġáī¥áĬ¥áĬķ": 5587,
      "ĠáĭŃáĮįáī£": 5588,
      "áĪªáĬķ": 5589,
      "Ġáįįáīĥ": 5590,
      "ĠáĮ½áĪĴ": 5591,
      "ĠáĬķáĪĿáīµ": 5592,
      "ĠáĭĿáĬĲáīłáĪ®áĪĿ": 5593,
      "áīĵáĪķ": 5594,
      "áĮįáĪ¨áĬĵ": 5595,
      "ĠáĭµáĬ»áī³áīµ": 5596,
      "ĠáĭĿáĪŀáī±": 5597,
      "ĠáĬĲáīłáĪ«": 5598,
      "Ġáĭ°áĪįáĭ¨": 5599,
      "ĠáĬŃáīµáĬķ": 5600,
      "ĠáĮįáĪ«áīµ": 5601,
      "ĠáįįáĪŃáĪĴ": 5602,
      "ĠáĬ£áĭŃáĬŃáĬ¥áĪīáĬķ": 5603,
      "ĠáĮ¸áī¥áĮ»": 5604,
      "ĠPrevious": 5605,
      "ĠáĬķáĮİ": 5606,
      "áįĪáĪ©": 5607,
      "áĮ½áĭİ": 5608,
      "ĠáĪĿáĪ³áī³áī¶áĪĿ": 5609,
      "ĠáĪĺáĮ»áĪĿáĭµ": 5610,
      "Ġáī¥áĪĤ": 5611,
      "ĠáĬŃáĪĺáĪį": 5612,
      "ĠáĬŃáĬķáĮĪáī¥áĪ®": 5613,
      "ĠáĭĵáĭŃáĬĲáī³áīµ": 5614,
      "ĠáĪĵáĪĪáīĵ": 5615,
      "Ġ>": 5616,
      "ĠáĬķáĮĲáĭŃáī³": 5617,
      "ĠáĪĺáī°": 5618,
      "ĠáĪĺáĬ¸": 5619,
      "Ġáĭĺáĭµ": 5620,
      "ĠáĬ£áĭŃáĪķ": 5621,
      "áĬķáĪµáĬ»": 5622,
      "ĠáĪĵáĪĪáįįáī²": 5623,
      "áĪķáĭµáĪķ": 5624,
      "Ġáĭ°áĪ«áĪ²": 5625,
      "áĬ½áĬ¥áĪĭ": 5626,
      "ĠáĭĿáĮĪáī¥áĪ©": 5627,
      "ĠáĬ£áī¥áĭĿ": 5628,
      "Ġáīµáĭ°áĪįáĭ©": 5629,
      "áĬ©áĪŀ": 5630,
      "ĠáĪ«áī¥": 5631,
      "ĠáĪĺáĬķáĮįáĪµáīµáĬķ": 5632,
      "28": 5633,
      "ĠáĬķáĬ¸áĭįáĬķ": 5634,
      "ĠáĪĿáĮī": 5635,
      "áĪ¨áĪµáĭķ": 5636,
      "áĮĪáī£": 5637,
      "ĠáĮ¥áĬķáī²": 5638,
      "ĠáĪĺáĪ°áĭį": 5639,
      "Ġáī¤áī°áĪ°áī¥": 5640,
      "Ġáī³áĪªáĬ»áĭĬ": 5641,
      "ĠáĮ¸áĭĬáĭĳ": 5642,
      "áĪµáī¡áĬŃ": 5643,
      "áĪķáĮĤ": 5644,
      "áĪĽáĪª": 5645,
      "áĮ½áĮ»áĪŃ": 5646,
      "áĮĭáĬķ": 5647,
      "áĮ¹áĬķ": 5648,
      "ĠáĬ£áĪįáĭĴ": 5649,
      "Ġáĭ°áīĵáĭŃáīķ": 5650,
      "áīµáĪµ": 5651,
      "áĪįáĪĿáĬĵ": 5652,
      "ĠáĬķáī¤áīµ": 5653,
      "áĭ«áĭ¨": 5654,
      "áĭĽáĭŃ": 5655,
      "áĪ½áĮ¢": 5656,
      "ĠáĬµáĬĵáīµ": 5657,
      "ĠáĭĪáĬ¨áįįáĬĵ": 5658,
      "ĠáĭĿáĬ¾áĬĵ": 5659,
      "ĠáĬŃáĬ¥áĪĪ": 5660,
      "ĠáĬ¥áĬķáĪµáĪ³áī³áīµ": 5661,
      "áĮłáīĵáĪįáĪį": 5662,
      "áīłáĬĽáī³áīµ": 5663,
      "Ġáī¥áĮī": 5664,
      "Ġáī¥áĮĢ": 5665,
      "ĠáĪµáĪ©áĭķ": 5666,
      "ĠáĬ¥áī°áīĲ": 5667,
      "áĪŃáĬ¥áĭ«": 5668,
      "áīłáĪįáĭİ": 5669,
      "ĠáĬķáĬ¥áĪµáĪ«áĬ¤áĪį": 5670,
      "ĠáĭĿáīĢ": 5671,
      "áĮ»áĭķ": 5672,
      "Ġáį¦": 5673,
      "áī´áĪŃ": 5674,
      "Ġáī°áĬ£áĬª": 5675,
      "Ġáī°áĪ¨áĭ²": 5676,
      "ĠáĬ£áĮ½áĭĭáĪŃ": 5677,
      "ĠáįįáĮ¡áĪŃ": 5678,
      "ĠáĬŃáī¥áĪ¨áīµ": 5679,
      "Ġáī°áīĥ": 5680,
      "Ġ39": 5681,
      "ĠáĮĢáĪĺáĪ©": 5682,
      "ĠáĭĿáī°áĪ¨áįī": 5683,
      "ĠáĮįáĭľáĬķ": 5684,
      "ĠáĬ£áĪķáĪĺáĭµ": 5685,
      "ĠáĬ£áĬ½áĪ«áĬķ": 5686,
      "ĠáĬķáīłáĭŃáĬĳ": 5687,
      "ĠáĬ¥áĮĪáĭ³": 5688,
      "ĠáĪ°áī£áīµáĬķ": 5689,
      "áĪ©áĪĿ": 5690,
      "ĠáĪĿáĪµáĭļ": 5691,
      "ĠáĬ£áĬķáīłáī¥": 5692,
      "áĮ¸áĪ¨": 5693,
      "Ġáī¥áĭĺáĭŃáĪĿ": 5694,
      "Ġáīģáįħ": 5695,
      "áĭ³áĪĿáĬĲáīµ": 5696,
      "un": 5697,
      "áĬŃáī±": 5698,
      "ĠáĬ£áĬ«áĪĭáĭĬ": 5699,
      "ĠáĬĴáĭį": 5700,
      "ĠG": 5701,
      "ĠáĭĿáĪĲ": 5702,
      "Ġáī¥áī¥áĪŃ": 5703,
      "Ġáī¥áĬ¹áĪī": 5704,
      "áĪķáĭİ": 5705,
      "Ġáīłáĭ°áĪį": 5706,
      "ĠáĮ¥áĪľáīµ": 5707,
      "ĠáĬķáĬ£áĬ»": 5708,
      "ĠáĮİáĭ°áĬĵ": 5709,
      "ĠáĪĺáĮįáĭĽáĬ¥áī²": 5710,
      "áĪ¨áĭµáĬ¥": 5711,
      "áĪ°áĪĽáĪĽáĭķ": 5712,
      "ĠáĭµáĬ½áĬĲáīµ": 5713,
      "áĭŃáĭİáĪĿ": 5714,
      "áĬ£áī¦": 5715,
      "áĪ°áĬĴ": 5716,
      "ĠáĪħáĭŃáĭĪáī¶áĪĿ": 5717,
      "Ġ2009": 5718,
      "ĠáĬ¥áĭĭáĬĳ": 5719,
      "áĭįáĭİ": 5720,
      "ĠáĬ¥áĬĵáĪ°": 5721,
      "ĠáĬĲáī¥áĭ«áīµ": 5722,
      "Ġáĭ²áįķáĪİáĪĽ": 5723,
      "ĠáĬ¥áĪĽ": 5724,
      "ĠáĬŃáĮĪáī¥áĪ¨": 5725,
      "ĠáĪĵáĪįáĭ®": 5726,
      "Ġáīłáīĥ": 5727,
      "Ġáĭ¨áĪĺáĬķ": 5728,
      "áīĲáĪĿ": 5729,
      "ĠáĮ¸áīłáī£": 5730,
      "ĠáĪĺáĭ°áĪĿ": 5731,
      "ĠáĪķáĪĽáĪĽáīµ": 5732,
      "Ġáĭ¨áī¥áĪįáĬ«áĬķ": 5733,
      "ĠáĪĽáĪį": 5734,
      "ĠáĭįáĭĴ": 5735,
      "ĠáĬ¨áĭŃáĭ¶áĪĿ": 5736,
      "áĪķáĮįáĭĺáĬĵ": 5737,
      "ĠáīµáĪŃáĮīáĪĻ": 5738,
      "ĠáĪĵáĪĺáĭµ": 5739,
      "ĠáĬ¨áĪĿáī¶áĪĿ": 5740,
      "ĠáĬ£áĭŃáĬ½áĬ¥áĪįáĬķ": 5741,
      "ĠáĮĪáĭļ": 5742,
      "áĬ¾áĬĵ": 5743,
      "ĠáĪĿáĪŃáĭ³áĬ¥": 5744,
      "200": 5745,
      "ĠáĭĺáĪĪáĬĴ": 5746,
      "ri": 5747,
      "ĠáĪķáĪ°áī¥": 5748,
      "ĠáĬĲáĭŃáĪ¨áĬķ": 5749,
      "áĮĪáĮ½": 5750,
      "Ġáĭ¨áī¥áĪĭáĬķ": 5751,
      "ĠáĬķáĪĺáĪŃ": 5752,
      "ĠáĭĺáĪĪáĭĪáĬķ": 5753,
      "ĠáĭĿáĮĢáĪĺáĪ¨": 5754,
      "áĪ«áĪ¨": 5755,
      "ĠáĮĪáĭ³áĪĿ": 5756,
      "ĠáĮ¸áīķáĮ¢": 5757,
      "ĠáĪĿáĪķáĪ³áī¥": 5758,
      "áĬ¨áĪįáī²": 5759,
      "ĠáĬ¥áĪµáĪ«áĬ¤áĪįáĬķ": 5760,
      "áī¥áĭĽáĭķáī£": 5761,
      "ĠáĭĿáĭ°áĪį": 5762,
      "áī³áī³áīµ": 5763,
      "ĠáĬ¥áĬķáī³": 5764,
      "ĠáĪįáĬ¢": 5765,
      "áīķáĪŃáī¡": 5766,
      "áĬŃáĭ«áĭµ": 5767,
      "Ġáĭĵáīħ": 5768,
      "ĠáĭļáĬĲáī¥áĪŃ": 5769,
      "áĪĵáĪµáī¡": 5770,
      "ĠáĪĺáĮįáĪĪáįĤ": 5771,
      "Ġáī¥áĮįáī¥áĪª": 5772,
      "ĠáĮ»áĭķáĭ³": 5773,
      "Ġáī¥áĬĲáĮ»": 5774,
      "Ġáī°áĪ³áīµáįİ": 5775,
      "ĠáĬ³": 5776,
      "áĭķáī¢": 5777,
      "áĭķáĬ©áĪĿ": 5778,
      "Ġ45": 5779,
      "Ġáī£áĬķáĬª": 5780,
      "ĠáĪµáĭĴáī¡": 5781,
      "ĠáĬ¨áĬķáī±": 5782,
      "áĭĵáĪĿ": 5783,
      "ĠáĭĪáĬª": 5784,
      "ĠáĬ«áī¥áĬ£": 5785,
      "áĭĲáīµ": 5786,
      "ĠáĬ£áĬ¥áĮĭ": 5787,
      "ĠáĭħáĬĲáī³áīµ": 5788,
      "ĠáĭµáĪĿáįĤ": 5789,
      "Ġáī°áĮłáīĢ": 5790,
      "áĭ°áĪĭ": 5791,
      "ĠáĭĪáĪĬ": 5792,
      "áĭ©áĬĵ": 5793,
      "áĪļáĬķ": 5794,
      "áīłáĪŃáī²": 5795,
      "ĠáĬµáĪĪáĬķ": 5796,
      "ĠáĪĿáĬķáī£": 5797,
      "ĠáĬĶáĪ«": 5798,
      "Ġ2012": 5799,
      "ĠáĬ¥áĬķáī°áĭĺáĭŃáĬ®áĭŃáĬĳ": 5800,
      "ws": 5801,
      "Ġáī°áĭį": 5802,
      "ĠáĮįáĮ¥áĪĿ": 5803,
      "ĠáĬ£áĬķáīłáĪ³": 5804,
      "áĭĽáĪ¨áī¦áĪĿ": 5805,
      "ĠáĬ£áĬ¥áĭ³áĭį": 5806,
      "ĠáĬ¢áĪħáĭĪ": 5807,
      "áĬ¨áī¡": 5808,
      "ĠáĬ£áĮĪáĭ³áĪµáĬĲáīµ": 5809,
      "áĮ¥áįįáĬ¡": 5810,
      "ĠáĭĺáĪķáĭĿáĬķ": 5811,
      "áīłáĪ©áĬķ": 5812,
      "áįĪáĪįáĮ¦áĪĿ": 5813,
      "áĭĵáĭĿáĭ«": 5814,
      "ĠáĮ»áĭµáīĥáĬķ": 5815,
      "ĠáĬ¢áĪ°áĭ«áĪµ": 5816,
      "ĠáĬ£áĬķáĪµ": 5817,
      "ĠáĭŃáīķáĮ½áĪį": 5818,
      "Ġáī°áĬķáĪ²áĬ¡": 5819,
      "ĠáįįáĪįáĪµáĮ¥áĬ¤áĪĽáĭįáĭ«áĬķ": 5820,
      "áĬ©áĬ»": 5821,
      "ĠáĭĿáī°áĭĽáĪ¨áī¦": 5822,
      "áĬºáĪī": 5823,
      "ĠáĬ¥áĭīáĬķ": 5824,
      "ĠáĬ£áĭŃáįįáīĢ": 5825,
      "Ġáĭ°áīĨáĪĿ": 5826,
      "áī¡áĮ¥": 5827,
      "ĠáĪ°áī¥áĬĲáīµ": 5828,
      "ĠáĬķáĭĿáī¥áĪį": 5829,
      "áī³áĭįáĭ«áĬķ": 5830,
      "áĬ¨áī¥": 5831,
      "áĮ¥áī³áīµ": 5832,
      "ĠáĭĿáī°áĪĺáĪŃ": 5833,
      "ĠáĪĿáĪŃáĪĿáĪŃ": 5834,
      "áĪĺáĪįáĬ¨": 5835,
      "Ġáī°áĪµáįĭáĭŃ": 5836,
      "áĪĽáĬķáĬĲáīµ": 5837,
      "Ġáī¢áī¢áĪ²": 5838,
      "áĪŃáĮįáĮĭ": 5839,
      "ĠáĬŃáī¥áĪŃáĬķ": 5840,
      "áĪ¨áīµáĬķ": 5841,
      "áĭĺáĬĵ": 5842,
      "ĠáĬ£áĮĢáĬķáĭ³": 5843,
      "áī³áī°áĬķ": 5844,
      "ĠáĪĺáī¥áĪŃ": 5845,
      "áĮ¸áī¥": 5846,
      "áīĥáĪŃ": 5847,
      "ĠáĬ¥áī¶áīµ": 5848,
      "ĠáĭĿáĬ®áĬĲ": 5849,
      "áĪħáī£": 5850,
      "áĮĪáĭĿáĬ¥": 5851,
      "ĠáĬ¥áĬĴ": 5852,
      "áĬ«áĪµ": 5853,
      "áĪĵáī¥": 5854,
      "ĠáĪ°áĪ«áĭĬ": 5855,
      "ĠáĪĵáĮ¥áĭ«áīµ": 5856,
      "áĪµáĬŃ": 5857,
      "ĠáĪµáīĵáĭŃ": 5858,
      "ĠáĪĥáĮĪáĪ©": 5859,
      "Ġáī£áĪħáĪĭáĭĬ": 5860,
      "ĠáĬ¨áī£áī¢áī³áīµ": 5861,
      "áįįáĪī": 5862,
      "Ġáĭµáĭ¨": 5863,
      "Ġáī³áī¦áīµ": 5864,
      "áĪĿáĪŃáĭĵ": 5865,
      "ĠáĬ£áī£áĮĬáĭķ": 5866,
      "ĠáįįáĪįáĭŃ": 5867,
      "Ġáī°áīĵáĭĪáĪĿáī²": 5868,
      "Ġáī¥áĪĵáĬķáĪ³áī¥": 5869,
      "ĠáĬ£áĪĿáī£áĪ³": 5870,
      "ĠáĪħáĭį": 5871,
      "Ġáĭ²áĭ«": 5872,
      "áīłáĭ®": 5873,
      "áīłáīµáĬķ": 5874,
      "áĭ³áĭ°": 5875,
      "ĠáĭļáĭĪ": 5876,
      "ĠáĮłáīĵ": 5877,
      "--": 5878,
      "ĠáĬķáī¥áĪ¨": 5879,
      "ĠáĪµáĭĳ": 5880,
      "áĭĪáĬ©áĪĿ": 5881,
      "áĪħáĪįáĭĪáĬ«": 5882,
      "Ġáĭµáĭ«áī¥áĪİáĪµ": 5883,
      "ĠáĬķáĪĿáĭĥáĬĳ": 5884,
      "áĪŃáĪµáī²": 5885,
      "ĠáĭĿáīĸ": 5886,
      "ĠáīłáĪĥ": 5887,
      "ĠáĪĿáĪµáī³": 5888,
      "áīķáĪŃáī¦": 5889,
      "ĠáĪĵáįĭáĪ½": 5890,
      "áĪŃáĮĭáĪķ": 5891,
      "Ġáī¥áĭĪáĮĪáĬĲáĭŃ": 5892,
      "áĪŃáī£": 5893,
      "áĪŃáī¶": 5894,
      "ĠáĭĪáĪĥáī¥": 5895,
      "ĠáĭļáĪµáĭķáī¥": 5896,
      "ĠáĬ£áĪįáĬ®": 5897,
      "ĠáĪĺáĮĪáĪ»": 5898,
      "ĠáĪĵáī¥": 5899,
      "Ġáĭ°áĪĿáīł": 5900,
      "ĠáĪĺáĭĽáĪĻáĪŃáī²": 5901,
      "ĠU": 5902,
      "ĠáĬ¥áĮĥ": 5903,
      "áĭľáĬ¡": 5904,
      "ĠáĪ²áīª": 5905,
      "Ġáĭĵáĭįáĭ°": 5906,
      "áĪµáĪ«áĪķ": 5907,
      "áĭ°áĪİáĪĿ": 5908,
      "ĠáĪĥáī¦áĪĿ": 5909,
      "ĠáīĥáĪī": 5910,
      "ĠáĬ¥áĬĵáĪĥ": 5911,
      "áĪŃáĬ¨áĪµ": 5912,
      "ĠáĪĵáĭµáĪĵáĭ°": 5913,
      "ĠáĬŃáĭĪáĮ½áĬ¥": 5914,
      "ĠáĬķáĭµáĬ»": 5915,
      "ĠáĬ¢áĬ®áĬĸáĪļ": 5916,
      "ĠáīµáĬ½áĬ¥": 5917,
      "ĠáĬµáĪĭáīµáĬĵ": 5918,
      "áĮµáĭ«": 5919,
      "Ġáī¥áĪįáĬŃáĭķ": 5920,
      "Ġáĭĺáĭ¨áĪĪ": 5921,
      "áįįáīħáĪ®": 5922,
      "áĪĪáĭ®": 5923,
      "áīłáĪĪáīµ": 5924,
      "Ġáī¥áīĭáĬķáīĭ": 5925,
      "áĮ½áĬ«": 5926,
      "áĬŃáī²": 5927,
      "ĠáĭĺáĪİáĬķ": 5928,
      "áĪ°áĪĿáĭĵ": 5929,
      "Ġáī£áĪħáĪŃáĭ«áĭĬ": 5930,
      "áĪµáĪįáĮ£áĬķ": 5931,
      "ĠáĭįáĪĭáĭµ": 5932,
      "ĠáĭĵáĪĪáĪĿáĪĪáĬ»áĭĬ": 5933,
      "ĠáĭĵáĪĪáĪĽáĭĬ": 5934,
      "ĠáĪĥáįįáī²": 5935,
      "áĮĲáĪ±": 5936,
      "ĠáĬķáĬ¥áĮįáĭļáĬłáī¥áĪĶáĪŃ": 5937,
      "ĠáĬ¨áĪĿáĭĺáĪĪáĭī": 5938,
      "ĠáĭµáĪįáĭ¨": 5939,
      "ĠáĭļáĪµáĪĿ": 5940,
      "ĠáĬ¥áī°áįĪáĪĭáĪĪáĭ¨": 5941,
      "ĠáĪĿáĪŃáĪĺáĪ«": 5942,
      "ĠáĪ¸áĬĲáĬ½": 5943,
      "ĠáĬ¥áī¶": 5944,
      "áĭįáīµáĬķ": 5945,
      "ĠáĬ«áĪŃáĭµ": 5946,
      "ĠáĮ¥áĭķáĬĵáĬķ": 5947,
      "áĭµáĪįáĭ¨áĬĵ": 5948,
      "áīłáĭ°": 5949,
      "Ġáī¥áĪĪáĭŃáī²": 5950,
      "ĠáīµáĪĺáĪµáĪį": 5951,
      "áĪļáīµ": 5952,
      "ĠáĬ»áī¥áī¶áĪĿ": 5953,
      "Ġáī¥áĪĺáĮĪáĭ²": 5954,
      "ĠáĪĺáĭ°áĪĿáĭ°áĪĿ": 5955,
      "ĠáĪ½áĮĭáĪ«": 5956,
      "ĠáĪĺáĭ°áĪ¨": 5957,
      "ĠáīµáĮįáĪ«": 5958,
      "áįįáĪ«áĪħ": 5959,
      "ĠáĪĺáĬ£áĭ²": 5960,
      "áĪįáĬŃ": 5961,
      "ĠáĭĿáĭ°áĪįáĭ®": 5962,
      "áĮ½áĪī": 5963,
      "áĮ½áĪĵáįį": 5964,
      "áĮłáī£áĭĬ": 5965,
      "áīĥáĪĪ": 5966,
      "ĠáĬ¥áĬķáī°áĭĺáĭŃáī°": 5967,
      "ĠáĭĺáĪ°": 5968,
      "ĠáĪ°áĪĻáĬĵáīµ": 5969,
      "áĭ©áĪĿ": 5970,
      "áĪŃáīµáĪ«": 5971,
      "áī£áī¥áĪ®": 5972,
      "Ġáī°áĮ»áĪĴáįī": 5973,
      "ĠáĬ£áĭĴáĬķáī²": 5974,
      "ĠáĪĺáĬķáĮįáĪµáī³áĭĬ": 5975,
      "ĠáĮ¨áĬķáįĪáĪŃ": 5976,
      "áĪµáī³áĬķ": 5977,
      "áĮĭáĭķ": 5978,
      "ĠáįĪáĪªáĪ³áĭįáĭ«áĬķ": 5979,
      "__": 5980,
      "áĭŃáĭĭ": 5981,
      "ĠáĬ£áĪ«áĭĬáīµ": 5982,
      "áĪ¨áĬŃ": 5983,
      "ĠáīµáĪĳáīµ": 5984,
      "ĠáĬķáĪĿáī£áĪį": 5985,
      "ĠáĪµáĪĪáĭĿáĬĲáīłáĪ¨": 5986,
      "ĠáĪĺáī¸áĪĿ": 5987,
      "em": 5988,
      "ĠáĭĮ": 5989,
      "ĠáĬŃáĪĿáĪµ": 5990,
      "ĠáĬĲáīĴ": 5991,
      "áī³áīµáĬ©áĪĿ": 5992,
      "ĠáĭĺáĭŃáĬ£": 5993,
      "áĬłáĪį": 5994,
      "ĠáĪ³áĭŃ": 5995,
      "Ġáī¥áĬ£áĬ«áĪį": 5996,
      "ĠáīįáĮ½áĪª": 5997,
      "Ġáī¥áĬ¡áī¥áĬ¡": 5998,
      "áĭ¥áĬķ": 5999,
      "ĠáĮģ": 6000,
      "áĪŃáĬ¥áĭ®áĪĿ": 6001,
      "ĠáĬ¥áįĪáī±": 6002,
      "Ġáī¥áĬŃáĪŃáĪµáī¶áĪµ": 6003,
      "áĭĭáįį": 6004,
      "ĠáĪĿáĪµáĪĭ": 6005,
      "áĪĺáĬķáĮįáĪµáī²": 6006,
      "ĠáĬ«áī£áĬ»": 6007,
      "ĠáĪ°áīłáĭŃáīµáĬķ": 6008,
      "Ġáī°áĪĺáĪµáĮĪáĬķ": 6009,
      "ĠáĪµáīµáĪ«": 6010,
      "áĬ¦áīµáĬķ": 6011,
      "ĠáĪŀáī£áĭŃ": 6012,
      "ĠáĪµáĪĪáĭĿáī°": 6013,
      "ĠáĪĴáĭĿáĬ«": 6014,
      "ĠáĮĪáīłáĬĲ": 6015,
      "ĠáĪĵáĮĭáĭļ": 6016,
      "ªðŁĩ": 6017,
      "ĠáĭŃáĬ«áĭ¨áĭµ": 6018,
      "áĭĪáĬĴ": 6019,
      "áī¢áĭµ": 6020,
      "Ġáĭ°áĭ¨": 6021,
      "ĠáĮĪáĭµáĪĬ": 6022,
      "ĠáĪĿáĪµáĬ¦áĪĿ": 6023,
      "ĠáĬ®áĪļáĪ½áĬķ": 6024,
      "ĠáīĢáĪįáĮ¢áįī": 6025,
      "27": 6026,
      "ĠáĬ£áĭ«": 6027,
      "áīłáĬ©áĪĿ": 6028,
      "ĠáĪĥáĬĵ": 6029,
      "ĠáĬ¤áĪŃ": 6030,
      "ĠáĬķáĭĵáĪĺáī³áīµ": 6031,
      "ĠáĬ£áī£áĬĵ": 6032,
      "ĠáĮĪáĭĽáĬĵ": 6033,
      "ĠáĭķáĭµáĪľ": 6034,
      "ĠáĬķáĪħáĭŃáĭĪáīµ": 6035,
      "áĬĥáīµ": 6036,
      "ĠáĬĸáĪħ": 6037,
      "ĠáĪįáī¥áĬ¹áĪĿ": 6038,
      "ĠáĭĪáĮįáĭĵáĭĬ": 6039,
      "áĭµáĪįáĬķ": 6040,
      "áĬ£áī¥áĭļ": 6041,
      "ĠáĬ£áĪ°áĬĵ": 6042,
      "ĠáĪļáĬĴáĪµáīµáĪª": 6043,
      "ĠáĬŃáĪĵáĪįáįį": 6044,
      "áįĪáĪ«": 6045,
      "áī«áĭŃáĪ¨áĪµ": 6046,
      "áĮ¥áīł": 6047,
      "Ġáĭ°áīĥ": 6048,
      "áĮ¸áĪĻ": 6049,
      "áĮłáĪĿ": 6050,
      "Ġáī°áĪ«áĬº": 6051,
      "ĠáĬ£áĬ¼áī£áī³áīµ": 6052,
      "ĠáĪĺáĪĵáĭĻ": 6053,
      "Ġáī¥áīĳáĭķ": 6054,
      "ĠáĪĽáĬ¥áĬ¸áĪį": 6055,
      "ĠáĪĥáĬķáĭ°áīłáīµ": 6056,
      "áĪĽáīķ": 6057,
      "áĭ°áīĲ": 6058,
      "ĠáĪµáĮķ": 6059,
      "ĠáĪŃáĭ±áĬ¥": 6060,
      "ĠáĬ¥áĬĵáĬ£": 6061,
      "Ġ44": 6062,
      "ĠáįĸáĪĪ": 6063,
      "Ġáī¥áĪĿáĭĥáĬķ": 6064,
      "ĠáĭĿáĪŀáī°": 6065,
      "ĠáĭŃáĮ½áīł": 6066,
      "ĠáĪķáĪ³áī¥": 6067,
      "ĠáĭĺáĭŃáĬ¨áĬ£áĪį": 6068,
      "ĠáĪŃáĪĴ": 6069,
      "ĠáĬŃáĬĲáĮįáĪ¨": 6070,
      "ĠáĭĿáĭµáĪĪ": 6071,
      "ðŁĩªðŁĩ": 6072,
      "ĠáĪĿáĪĤ": 6073,
      "áĭ³áĪª": 6074,
      "Ġáĭ°áĪ¨áīµ": 6075,
      "ĠáĪħáĭĿáī£": 6076,
      "Ġáĭ«áĭķ": 6077,
      "ĠáĪ³áĭķáī¤áĬķ": 6078,
      "ĠáĭĪáī³": 6079,
      "áĬ¸áĭįáĬķáĬķ": 6080,
      "Ġáī¥áī°áĮįáī£áĪŃ": 6081,
      "Ġáī¥áĪ©áĪħ": 6082,
      "ĠáĭĪáī°áĪĥáĭ°áĪ«áīµ": 6083,
      "ĠáĪĺáĪ°áĭįáĬ¢": 6084,
      "áĬ¥áĪµ": 6085,
      "áĪ°áĬ«": 6086,
      "áĭĵáĭª": 6087,
      "ĠáĬķáĪĺáĮ»áĬ¢": 6088,
      "Ġáī¥áĮ»áĭŃ": 6089,
      "ĠáĪĵáĮĪ": 6090,
      "ĠáĪŃáĬ¥áĭ©": 6091,
      "ĠáĪĵáĬķáĪ³áĬ¥": 6092,
      "ĠáĬ»áĪįáĬ£áĭŃ": 6093,
      "áīº": 6094,
      "ĠáĬ£áĭĪáĬķ": 6095,
      "áĪŃáĬ»": 6096,
      "áĬĲáĭļ": 6097,
      "ĠáĪĺáįĤ": 6098,
      "ĠáĪĿáĮįáī£": 6099,
      "ĠáĬ©áĬĳ": 6100,
      "Ġáī¥áĭĽáĭķáī¥": 6101,
      "áĪµáĪĿáĭķ": 6102,
      "ĠáĪĿáīµáĬ¥áĪĿáĪĽáĬķ": 6103,
      "ĠáĭĿáĬ£áĪĺáĪ°áĪī": 6104,
      "ĠáĭĿáĮįáī¥áĬ¦": 6105,
      "Ġáī°áĭĪáĪĬáĭ±": 6106,
      "ĠáĪĺáĮ¨áĪ¨": 6107,
      "ĠáĭĿáĪĿáĪµ": 6108,
      "Ġ2011": 6109,
      "ĠáĪħáĭŃáĭĪáīµáĬķ": 6110,
      "ĠáĬĥáĮ¢": 6111,
      "ĠáĪĺáĪ¨áĮ»": 6112,
      "ĠáĬĲáĬķáĪķáĭµáĪķ": 6113,
      "ĠáĬķáīĳ": 6114,
      "áĮįáĭķ": 6115,
      "áĬ½áĪįáī²": 6116,
      "ĠáĭĿáī¥áĪįáĭİ": 6117,
      "Ġáī°áĭĭáĪ³": 6118,
      "ĠáīµáĬ¥áĭĽáĭĽáīµ": 6119,
      "ĠáĬ£áĮ¸áī¢áīĳ": 6120,
      "ĠáĬ£áīĭ": 6121,
      "ĠáĭĺáĬŃáĪŃ": 6122,
      "áĪĵáīĤ": 6123,
      "ĠáĬ¢áĭ¨áĬķ": 6124,
      "áī²áĬ«áĭĬ": 6125,
      "ĠáĭķáĭµáĪĭáīµ": 6126,
      "ĠáīķáĭµáĪļ": 6127,
      "Ġb": 6128,
      "ĠáĬŃáĪ«áĭŃ": 6129,
      "áĪĺáĪ¨áīµ": 6130,
      "ĠáĪµáĪŃáĪĳ": 6131,
      "Ġáī°áĪĽáĪĥáĪ®": 6132,
      "áī¥áĭĴ": 6133,
      "ĠáĬ¥áī¥áĪį": 6134,
      "ĠáĬķáīĲ": 6135,
      "áĬ«áīµ": 6136,
      "áĪĵáĭ¨": 6137,
      "ĠáĬ£áĪĪáĭĪáĬķ": 6138,
      "ĠáĮīáĭ³": 6139,
      "ĠáĮĮáĪ¨": 6140,
      "áīĽáĬķáīĭ": 6141,
      "ĠáĬ¥áĭĿáĪµ": 6142,
      "ĠáĭĵáĪĪáĪĿáĬķ": 6143,
      "ðŁĩªðŁĩ·": 6144,
      "áĪħáĭ¶": 6145,
      "áĬ¨áĪĪ": 6146,
      "ĠáĬ«áī¥áĬ£áī¶áĪĿ": 6147,
      "Ġáĭ¨áĭķ": 6148,
      "ĠáĬ¥áĬķáī°áĭŃ": 6149,
      "ĠáĬŃáĬķáĪķ": 6150,
      "ĠáĪļáĬ¢": 6151,
      "ĠáĬ£áĪĺáĪ«áĪŃáĪĵ": 6152,
      "ĠáĭĿáĬĲáīłáĪŃáĬĵ": 6153,
      "Ġáī°áĬ£áĪĿáĪ«áīµ": 6154,
      "ĠáĬķáĬĵ": 6155,
      "áĪĺáīķ": 6156,
      "áįįáĪ¨áīµ": 6157,
      "ĠáĭĺáĭŃáī¥áĪĭ": 6158,
      "ĠáĮĪáĭĽáĬ¢": 6159,
      "ĠáįķáĪ¨áĪ²": 6160,
      "ĠáĮ½áĬķáĭĵáīµ": 6161,
      "Ġáī°áĮ¨": 6162,
      "áĮ¸áī£áĪŃ": 6163,
      "Ġáī¥áĪĿáĮį": 6164,
      "ĠáĭľáĮį": 6165,
      "ĠáĬķáĬ¸áĭŃ": 6166,
      "ĠáĪīáīĥ": 6167,
      "ĠáĮĢáĪĺáĪŃáĬ©": 6168,
      "ĠáĪĺáī¥áĪŃáĪĤ": 6169,
      "ĠáīµáĬ½áĬ¥áĪĬ": 6170,
      "áĮĪáĭ±": 6171,
      "Ġáī°áįĭ": 6172,
      "ĠáĭµáĪĵáĪŃ": 6173,
      "áĪĬáĪµ": 6174,
      "ĠáĭĺáĭŃáĪ°": 6175,
      "ĠáĬķáĪĿáĪŃáĮįáĮĭ": 6176,
      "áĪĺáĬķáīµ": 6177,
      "áĮħáĪĺáĪŃ": 6178,
      "ĠáĬ£áĪīáī³áĭĬ": 6179,
      "Ġáī°áĬĵ": 6180,
      "ĠáĭŃáĬĲáī¥áĪ©": 6181,
      "áīĢáĬķ": 6182,
      "Ġáī¥áĪĵáĮºáĪ©": 6183,
      "ĠáĬ£áĭŃáīµáįĪáĪįáĮ¡áĬķ": 6184,
      "ĠáĬ£áĬķáĪµáī°áĭŃáī²": 6185,
      "áĪ¸áĪį": 6186,
      "ĠáĪĺáĭµáĪĵáĬĴ": 6187,
      "áĪķáīµáīµ": 6188,
      "ĠáĬ«áī£áĬ»áīµáĬ©áĪĿ": 6189,
      "ĠáīĲáĭ³áĪĽáĭŃ": 6190,
      "ĠáīłáĭŃáĬķáĬ»": 6191,
      "áĬ¢áĭ¨áĪ±áĪµ": 6192,
      "ĠáĮĢáĪļáĪ«": 6193,
      "ĠáĪĥáĭŃáĪĪ": 6194,
      "ĠáĭŃáĪµáĪĥ": 6195,
      "ĠáĭĿáī°áįĪáĮ¸áĪĺ": 6196,
      "ĠáĬŃáīķáĮ½áĪį": 6197,
      "ĠáĬĵáī£áĬ»áīµáĬ©áĪĿ": 6198,
      "ĠáĬŃáĮħáĪĿáĪŃ": 6199,
      "Ġáĭ°áĪĪáĭŃáī²": 6200,
      "ĠáĬ£áįįáĪĬ": 6201,
      "Ġáī°áĪĺáĪįáĪ°": 6202,
      "áīµáĬ¹áĪĿ": 6203,
      "áĪĽáĪħ": 6204,
      "Ġáĭįáĭķ": 6205,
      "ĠáĬ£áĪİáĭī": 6206,
      "ĠáĮİáī¦": 6207,
      "áĪ«áĬ¸áī¡": 6208,
      "ĠáīµáĬ¥áĭĽáĭĽ": 6209,
      "áĪµáĪĪáĪĿáĬķáī³áĭŃ": 6210,
      "áĭ«áĪį": 6211,
      "ĠáĭĵáĮĪáī¥": 6212,
      "áīħáĭµáĪļ": 6213,
      "áīĥáīĲ": 6214,
      "áĭ°áĪįáĭ¨": 6215,
      "ĠáĪµáĪŃáĭĵáī³áīµ": 6216,
      "ĠáįįáĪŃáĪĥáīµ": 6217,
      "ĠáĮ»áĭįáĭĴáīµ": 6218,
      "Ġáī°áī£áĪĤáĪİáĪĿ": 6219,
      "ĠáĬ£áī¡áĬĲ": 6220,
      "ĠáĪĺáĪĭáĬº": 6221,
      "ĠáĭĿáĬĵáī¥": 6222,
      "áĬĲáĬ©áĪĿ": 6223,
      "ĠáĭŃáĭ°áĪįáĭ©": 6224,
      "ĠáīµáĬ¹": 6225,
      "Ġáĭ¨áĭµáĪįáĭ®": 6226,
      "ĠáįĨ": 6227,
      "ĠáĬķáĪĵáĬķáī²": 6228,
      "ĠáĪĴáĭĺ": 6229,
      "ĠáįįáīķáĪŃáĬķ": 6230,
      "ĠáĬŃáĪŃáĬ¨áī¥": 6231,
      "ĠáĬ£áĭŃáĬ£": 6232,
      "ĠáĬ®áĪŃ": 6233,
      "ĠáĬ£áįī": 6234,
      "ĠáĬŃáĪ¨áĬ½áī¡": 6235,
      "Ġáĭ¨áĬķ": 6236,
      "ĠáĬ©áĭķáĪ¶": 6237,
      "ĠáĬªáĭĪ": 6238,
      "ĠáĭĿáĪĺáĮ»áĬ¥": 6239,
      "ĠáĬ£áī¢áĪİáĪĿ": 6240,
      "áĪŃáĭ³áĬĸáĪµ": 6241,
      "Ġáĭ°áīĴáīķ": 6242,
      "áĮįáĪ®": 6243,
      "áĭĵáĪµ": 6244,
      "ĠáĮįáī¡": 6245,
      "áĭ²áĭ«": 6246,
      "áĪ½áĭĳ": 6247,
      "áĬ³áĬĳ": 6248,
      "ĠáĮłáīĴ": 6249,
      "Ġ48": 6250,
      "ĠáĪĿáĭįáĮ»áĬ¥": 6251,
      "ĠáĪĽáĭķáĬ¨": 6252,
      "ĠáĪłáĪĪáĪµáī°": 6253,
      "ĠáĬŃáīħ": 6254,
      "ĠáĬ¨áĪĿáī³": 6255,
      "áĪĬáĭ«": 6256,
      "ĠáĮ½áĭ®áĬķ": 6257,
      "ĠáĪŃáĪµáī²": 6258,
      "Ġ43": 6259,
      "ĠáĪĺáī¥áĮ½áĭĵ": 6260,
      "ĠáĭĿáĭĵáī¢": 6261,
      "ĠáĬ¢áĮ£áĪįáĭ«": 6262,
      "áĪ¨áīķ": 6263,
      "ĠáĭĵáĪª": 6264,
      "áĪĺáĪŃáĮ½": 6265,
      "ticle": 6266,
      "áĪ«áī³áīµ": 6267,
      "áĬŃáī°": 6268,
      "Ġáĭ°áĪŀáĬŃáĪ«áĪ²": 6269,
      "áĪįáĬĵáĭ®": 6270,
      "ĠáĬ¢áĪīáĬĴ": 6271,
      "Ġ42": 6272,
      "áĬ£áī±áĪĿ": 6273,
      "ĠáĭįáįħáĬ¢áīµ": 6274,
      "ĠáĪĺáĭ°áĪĿáĭ°áĪĿáī³": 6275,
      "50": 6276,
      "ĠáĬŃáįĪáīµ": 6277,
      "ĠáĭŃáĪŃ": 6278,
      "ĠáīµáĭĽáĪ¨áī¥": 6279,
      "ĠáĬ«áī¥áĬ¦áĪĿ": 6280,
      "áīłáĪŃáīµ": 6281,
      "áĪĺáĪįáĬ¥": 6282,
      "áī°áĭĪáĪ°áĬĲ": 6283,
      "ĠáĪĺáīķáĮ»áĭķáī²": 6284,
      "áĬ£áĭĿ": 6285,
      "áī£áī£": 6286,
      "Ġáīħáī¡áĪį": 6287,
      "ĠáĬ£áĭĭáĪį": 6288,
      "ĠO": 6289,
      "ĠáĬ¥áĪĻáĬĵáīµ": 6290,
      "áįĪáĪ¨áĬķ": 6291,
      "ĠáĬ«áĪķ": 6292,
      "ĠáĬ£áĭŃáĪ¨áĬ£": 6293,
      "ĠáĪĥáī¡": 6294,
      "ĠáĮīáĭµáĬ£áīµ": 6295,
      "ĠáĬķáĪĥáĮĪáĪŃ": 6296,
      "ĠáĪĺáĪįáĬŃáĭĳ": 6297,
      "áĪķáĭ±": 6298,
      "áĭĵáĭĻ": 6299,
      "ĠáĪįáĭķáĪĮ": 6300,
      "ĠáĪĿáīµáĬ¥áĪµáĪ³": 6301,
      "áĭŃáĪį": 6302,
      "ĠáĬ«áĬĵáĭ³": 6303,
      "ĠáĭĺáĭŃáĬĲáīłáĪ¨": 6304,
      "ĠáĬµáĪĭ": 6305,
      "ĠáĪĽáĪķáīłáĪ«": 6306,
      "ĠáĭĿáĮĪáīłáĪ©": 6307,
      "ĠáĬ¥áĬĲáĪĨ": 6308,
      "áĪĿáĬ©áĪĿ": 6309,
      "áįĪáĪª": 6310,
      "ĠáĭĵáĭŃáĬķ": 6311,
      "ĠáĮ½áī£": 6312,
      "ĠáĮĮáĬĵ": 6313,
      "Ġáī¥áĬ£áĪĿáĪĭáĬ½": 6314,
      "ĠCor": 6315,
      "ĠáĪįáĬ¡áĬ½": 6316,
      "ĠáĭŃáīµáĪ¨áįį": 6317,
      "ĠáĬķáĭ³áĭĬáīµ": 6318,
      "ha": 6319,
      "áĪµáĭİ": 6320,
      "áĪµáĮĭ": 6321,
      "áīĵáĬķ": 6322,
      "áĬ£áĭŃáĭİ": 6323,
      "ĠáĮłáĬķ": 6324,
      "ĠáĮłáĪĪáī¥": 6325,
      "rect": 6326,
      "ĠáĬķáĭįáĪī": 6327,
      "ĠáĪļáĪĬáĭ®áĬķ": 6328,
      "áĬķáĭļ": 6329,
      "ĠáĪĿáĪħáĪŃ": 6330,
      "áĪĵáĪ¸": 6331,
      "áĬŃáĪ¨": 6332,
      "áīĥáĭķ": 6333,
      "ĠáĬķáĪĿáĪĿáĪĭ": 6334,
      "áĮįáĭļáĬ¡": 6335,
      "ĠáĭŃáĪĵáīµáīµ": 6336,
      "Ġáĭļáī¥áĪĥáĪį": 6337,
      "ĠáĬ¥áĪĿáī¥áĭĽ": 6338,
      "ĠáĪ²áĬ¦áĪį": 6339,
      "ĠáĬ£áĭµáĪį": 6340,
      "ĠáĭĺáīłáĬķ": 6341,
      "áīħáĬĵ": 6342,
      "ĠáĬŃáīµáĮĪáī¥áĪ®": 6343,
      "ĠáįĪáĪ«": 6344,
      "ĠáĬ½áįīáĬ¥": 6345,
      "ĠáĬ£áĭŃáīµáįĪáĪįáĮ¥áĬķ": 6346,
      "áĪķáĪįáįį": 6347,
      "ĠáĪĥáĭŃáĪĽáĬĸáī³áĭĬ": 6348,
      "ĠáĮĭáĭľáĮłáĬĽ": 6349,
      "Ġar": 6350,
      "áĭĿáī°": 6351,
      "áĪ°áĪĭáĪĿ": 6352,
      "Ġáī¥áĭĪáĮĪáĬķ": 6353,
      "ĠáĮĥáįĵ": 6354,
      "ĠáĬ¤áĪįáĭ«áĪµ": 6355,
      "ĠáīłáĭŃáĬĲáĭŃ": 6356,
      "ĠáĭĿáĬ¨áĬ£": 6357,
      "ĠáĮłáĪĪ": 6358,
      "ĠáĪĺáĭĵáĪŃ": 6359,
      "ĠáĪĺáĪĪáĪ°áĪī": 6360,
      "ĠáĪĺáĪĪáĪ°áĪİáĪĿ": 6361,
      "Ġáī¥áĪĺáĪįáĬŃáĭķ": 6362,
      "²áį": 6363,
      "ĠáĬ£áīĵ": 6364,
      "áī³áī±áĬķ": 6365,
      "áĭ°áĬ«": 6366,
      "ĠáĭŃáĭĪáĪµáĭµ": 6367,
      "ĠáĭµáĪĻ": 6368,
      "áĪĬáĬ¦áĪĿ": 6369,
      "ĠáĬ«áī¥áĭĽ": 6370,
      "ĠáĪķáĮįáĬķ": 6371,
      "áĮĭáĭµ": 6372,
      "ĠáĭįáĪ«áĭŃ": 6373,
      "áĪĴáī³áīµ": 6374,
      "Ġáī¥áĭĺáĪĭ": 6375,
      "Ġcom": 6376,
      "ĠáĬķáĮįáīłáĪŃ": 6377,
      "áĬĲáĭĪ": 6378,
      "Ġáī¥áĮŃ": 6379,
      "ĠáĬĲáīłáĪ®": 6380,
      "áĪ³áĪŃ": 6381,
      "áĬŃáĪķ": 6382,
      "ĠáĬĲáĭŃáĪ©áĬĴ": 6383,
      "ĠáĭĿáĬ£áĪĿáĬķ": 6384,
      "ĠáĬķáĪŃáĬ¢": 6385,
      "áĪĺáĭĵáĬĴ": 6386,
      "ĠáĬ¨áĪĿáĬ¥áīµ": 6387,
      "áī¢áī¥": 6388,
      "ĠáĭįáĮ¹": 6389,
      "ĠáĬŃáīµáĬĲáī¥áĪŃ": 6390,
      "Ġáī£áĪ®áīµ": 6391,
      "ĠáĬķáĬ¥áĪµ": 6392,
      "ĠáĭĵáĪŃáĬª": 6393,
      "ĠáĮįáīłáĪŃáĭİ": 6394,
      "ĠáīĽáĬķáīĭ": 6395,
      "áīłáĬ½": 6396,
      "ĠáĪķáĮĭ": 6397,
      "ĠáĬŃáĬķáĬĲáī¥áĪŃ": 6398,
      "ĠáĬ®áīªáĭµ": 6399,
      "áĪĶáīµ": 6400,
      "ĠáĪµáĪ«áĪķáĬķ": 6401,
      "ĠáĮĪáĭŃáĪ«": 6402,
      "Ġáĭĳáĭ°áīµ": 6403,
      "Ġo": 6404,
      "áĪīáĪį": 6405,
      "áĮ½áĬł": 6406,
      "ĠáĮĪáīłáĪ©": 6407,
      "ĠáīħáĬĳ": 6408,
      "ĠáĪªáĬ¢": 6409,
      "áī«áĪį": 6410,
      "ĠáĪŃáĬ¢áĬĵ": 6411,
      "áĮłáīħáĪĿ": 6412,
      "TV": 6413,
      "áĪŃáīłáīµ": 6414,
      "áĭįáĮ½áĬ¥": 6415,
      "ĠáĬ¤áįį": 6416,
      "ĠáīµáĪĿáĪħáĪŃáīµáĬķ": 6417,
      "ĠáĬ¨áĪİáĬĵ": 6418,
      "ĠáĭĪáĮ»áĬ¥": 6419,
      "áĮłáī£": 6420,
      "ĠáĭĿáįįáĮ¸áĪĿ": 6421,
      "ĠáĭĺáĪĺáĬĵáĭĬ": 6422,
      "ĠáĬŃáĪħáĪįáĭĪáĬĵ": 6423,
      "ĠáĭĺáĮĭáĮ¥áĪĿ": 6424,
      "áĭŃáĬĲáĬķ": 6425,
      "ĠáĭĿáĮ½áīł": 6426,
      "áĪ«áĬ½": 6427,
      "ĠáĭĺáĪĽ": 6428,
      "áįĥáįħ": 6429,
      "ĠáĬ£áī¢áĪĪ": 6430,
      "Ġáī°áĮłáīĥ": 6431,
      "áĬķáīĢáĪ³áīĲ": 6432,
      "ĠáĪ°áĪĿáĭĳ": 6433,
      "ĠáĬ£áĪ®áĬķ": 6434,
      "áĪįáĮ£": 6435,
      "ĠáĬķáī£": 6436,
      "áĬ£áĪ°": 6437,
      "ĠáĪĿáĪ¥": 6438,
      "áĬ½áī¥áĪŃ": 6439,
      "áĪ°áĭ±": 6440,
      "ĠáĭĵáĪ«áīµ": 6441,
      "ĠáĪĽáĭ«áīµ": 6442,
      "ĠáĬķáĪĿáĬ½": 6443,
      "áĮĬáĭµ": 6444,
      "ĠáĬķáĪµáĪĿ": 6445,
      "ĠáĭĭáĭŃ": 6446,
      "ĠáĬ£áĪĺáĪĵ": 6447,
      "ĠáĪĿáĪķáī³áīµ": 6448,
      "ĠáĮįáī¥áĮ»": 6449,
      "ĠáĬ£áīłáĪĥáĪħáĪĭ": 6450,
      "áĭĭáĭķáī³": 6451,
      "Ġáī¥áĬ£áĭŃ": 6452,
      "áĪĭáĬ¥áī²": 6453,
      "áĮĵáĭµ": 6454,
      "ĠáīĢáĭ³áĪĿáĬĲáīµ": 6455,
      "ĠáĪłáĬĵáĭŃ": 6456,
      "ĠáĪĺáīµáĬ¨": 6457,
      "Ġáī°áī£áĭķáīµáĭ®": 6458,
      "ĠáĪµáĮķáĪĿáī²": 6459,
      "áĪĭáĭ©": 6460,
      "áĭĵáĭ®": 6461,
      "Ġáĭķáī¤áīµ": 6462,
      "Ġáīķáĭ±áĪµ": 6463,
      "ost": 6464,
      "ĠáĪĿáīµáĬ«": 6465,
      "áĪħáĪīáĬķ": 6466,
      "ĠáĭļáĪĿ": 6467,
      "áīħáĭµ": 6468,
      "ĠáĬ½áĬ£": 6469,
      "ĠáĬ¥áī°áĭĭ": 6470,
      "áĪħáĪįáĭĪáĬĵ": 6471,
      "ĠáĬ£áĭŃáĬ°áĬĳáĬķ": 6472,
      "ĠáĭµáĪķáĪ¨": 6473,
      "ĠCorrect": 6474,
      "ĠáĬ£áĪ°áĪŃ": 6475,
      "ĠáĪĺáĭĲ": 6476,
      "ĠáĬķáĬ½áī¥áĪª": 6477,
      "ĠáĬ£áī¢áĪįáĬ«": 6478,
      "Ġáĭ°áī¥áĭ³áī¤": 6479,
      "29": 6480,
      "ĠáĬ£áįĭ": 6481,
      "ĠáĬķáĬ»áĪįáĬ¥": 6482,
      "ĠáĮ¸áĬĴáĪĸáĪĿ": 6483,
      "ĠáĭŃáīķáĪ¬áī³": 6484,
      "ĠáĪµáīħ": 6485,
      "áĬ®áĪµ": 6486,
      "áĪĿáĪŃáĪĿáĪŃ": 6487,
      "ĠáĮĭáĪ»": 6488,
      "áĭµáĬħ": 6489,
      "ĠáįįáĪŃáĭ«áīµ": 6490,
      "ĠáĭĿáī°áįĪáĪĭáĪĪáĭ«": 6491,
      "ĠáĬ¥áĬ½áĪĬ": 6492,
      "ĠáĬ£áĪ²": 6493,
      "áĬĲáīĳ": 6494,
      "Ġáī¥áĪĿáĬķáī³áĭŃ": 6495,
      "áī£áĪµ": 6496,
      "áĭįáĭµ": 6497,
      "áĮ»áĮ½": 6498,
      "áīĢáĪµ": 6499,
      "ĠáĪ°áĪįáįįáī³áīµ": 6500,
      "Ġto": 6501,
      "ke": 6502,
      "áĪŃáĪĳ": 6503,
      "áĪĪáĭŃáĬķ": 6504,
      "áĪĵáĮİ": 6505,
      "áĭİáĪĿáĬķ": 6506,
      "ĠáĬĵáĭŃáĭĽ": 6507,
      "ĠáįĪáĮ»": 6508,
      "Ġáī¥áįįáĮ¹áĪĿ": 6509,
      "áĪĭáĭįáĬĲáīµ": 6510,
      "Ġ2008": 6511,
      "áįĪáĪĪáĮł": 6512,
      "Ġáī¥áĪŃáĪĥáĬĲ": 6513,
      "ĠáĪ¨áĭµáĬ¤áīµ": 6514,
      "áĪĽáĪĿáĬķ": 6515,
      "ĠáĪµáĪļ": 6516,
      "ĠáĬ£áĭŃáįĪáĪįáĮ¡áĬķ": 6517,
      "ĠáĭĺáĭŃáīħ": 6518,
      "ĠáĬŃáīµáįĪáĪįáĮ¥": 6519,
      "ĠáīĢáĪµ": 6520,
      "áįĬáĪĳ": 6521,
      "ĠáĮ½áĪĳáįĭ": 6522,
      "ĠáĬ£áĭµáĪĽ": 6523,
      "Ġáī°áĬ¸áįĬ": 6524,
      "ĠáĭĿáī°áĭĪáĪ°áĬĲ": 6525,
      "ĠáĪŃáĬ¤": 6526,
      "Ġáī¥áĪĺáĭĵáĪįáī²": 6527,
      "ĠáĭĺáĪĪáĬĵáĭ®": 6528,
      "ĠáĮŃáĪŃ": 6529,
      "ĠáĬ£áĭŃáĬŃáĪĵáĭµ": 6530,
      "ĠV": 6531,
      "áĪ«áī±": 6532,
      "áĭ°áīłáīµ": 6533,
      "ĠáĪĵáĭī": 6534,
      "ĠáĭĺáĭŃáĪĿáĪŃ": 6535,
      "ĠáĪ¨áīĽ": 6536,
      "ĠáĬ£áĮ¥áįĬ": 6537,
      "ĠáĬķáĪŀáīµ": 6538,
      "ĠáĬĵáĬ¥": 6539,
      "ĠáĭĪáĭ®": 6540,
      "áĭ¶áĪĿáĬķ": 6541,
      "ĠáĮ½áĪ©áĭŃ": 6542,
      "ĠáĪ³áĪĿ": 6543,
      "ĠáįįáīµáĪķáĬķ": 6544,
      "ĠáĭŃáī¥áĪĪáĬĴ": 6545,
      "ation": 6546,
      "áĪµáĪĺáĭŃ": 6547,
      "ĠáĮ¢": 6548,
      "ĠáĬķáĬĲáī¥áĪŃ": 6549,
      "áĮįáįį": 6550,
      "áĪªáĬ¦": 6551,
      "ĠáīµáĭĬ": 6552,
      "Ġáī¥áįįáīķáĪª": 6553,
      "ĠáīĨáĪįáĭĳáīµ": 6554,
      "ĠáĬŃáĬ¢áĪī": 6555,
      "áĮ¥áĪª": 6556,
      "ĠáĮĮáĮĭáī³áīµ": 6557,
      "áĪķáĮįáĭŀáĪĿ": 6558,
      "áĪ³áĭŃáīµ": 6559,
      "áĪķáĪįáįİ": 6560,
      "ĠáĮķáĭµ": 6561,
      "ĠáĬķáĬ¢áĭ¨áĪ±áĪµ": 6562,
      "ĠáįĢáĮĪáĪĽáīµ": 6563,
      "áĬ£áĭ¨": 6564,
      "áĬ£áĭ®": 6565,
      "áĪ«áĭįáĬķ": 6566,
      "áĪ°áī¥áĬ©": 6567,
      "Ġáī¥áīĲáĮ»áĪĬ": 6568,
      "ĠáĪµáĪĪáĭĺáĪİ": 6569,
      "Ġáī°áĪĺáĪ«áĪĺáĪŃáī²": 6570,
      "áĮ©": 6571,
      "áī°áĭ¨": 6572,
      "ĠáĭĿáĮħáĪĿáĪŃ": 6573,
      "áĬĲáī¥": 6574,
      "ĠáĪķáī¥áĪª": 6575,
      "Ġáī¤áī°áĬŃáĪŃáĪµáī²áĭ«áĬķ": 6576,
      "Ġáī°áĭĵáĮ½": 6577,
      "ĠáĪĺáĪł": 6578,
      "ĠáĪĿáĮ½áĬķ": 6579,
      "áĭµáĪ½áī°": 6580,
      "áĭĿáĮĪáī¥": 6581,
      "ĠáĬ£áĭŃáīłáĪį": 6582,
      "ĠáīµáĪ°áĪŃáĪķ": 6583,
      "áĬ¸áī¥": 6584,
      "ĠáĬłáĭ©": 6585,
      "áīĨáĪ®": 6586,
      "ĠáĬķáĭĺáĪį": 6587,
      "ĠáĪ«áī¥áĭĵáĭŃ": 6588,
      "áī¥áĮ½": 6589,
      "áĭµáīħ": 6590,
      "ĠáĬĲáĭĺáĬķ": 6591,
      "ĠáĭŃáĮįáĭ°": 6592,
      "áĪ³áĪķ": 6593,
      "ĠáĭĺáĪĪáĬ©áĪĿ": 6594,
      "ĠáĬ£áī¦áĬ¹áĪĿ": 6595,
      "ĠáĮĵáĪ³": 6596,
      "Ġáī°áĮįáī£áĪ«áĭĬ": 6597,
      "ĠáĪĵáīĢáĭŃ": 6598,
      "áĪĪáĭ«": 6599,
      "ĠáĬķáĬ«áĪįáĬ¦áīµ": 6600,
      "ĠáĪĵáĮİ": 6601,
      "ĠáĭŃáĬ¨": 6602,
      "ĠáĪĪáĪĿ": 6603,
      "áĪ¨áĬ½áī£": 6604,
      "Ġáī°áĬ¸áī³áī°": 6605,
      "ĠáĪķáĭŃáĭĪáīµáĬĵ": 6606,
      "Ġáī¥áīķáĪįáĮ¡áįį": 6607,
      "ĠáĬ£áĭ²áĬ¡": 6608,
      "ĠáīłáĮĥáĬ¹áĪĿ": 6609,
      "ĠáĪĺáĬĵáįį": 6610,
      "th": 6611,
      "ĠáĬķáĪİáĪļ": 6612,
      "ĠáīµáĪįáĪļ": 6613,
      "Ġáī£áī¡áĪŃ": 6614,
      "ĠáįĸáĪİ": 6615,
      "ĠáĪĿáĪĿáĪĥáĪŃ": 6616,
      "ĠáĪĴáĭĽ": 6617,
      "ĠáĪĿáĭįáĪ³áĭµ": 6618,
      "ĠáĪĺáīµáĬ¨áĪį": 6619,
      "ĠáĬ£áīĳ": 6620,
      "áī³áĪĽáīµ": 6621,
      "ĠáĬĲáīĲ": 6622,
      "ĠáīµáĪķáīµáĬĵ": 6623,
      "Ġáī¥áĪ¨": 6624,
      "ĠáĪ°áĪľ": 6625,
      "áīķáįĭ": 6626,
      "áĬ¹áĭİ": 6627,
      "Ġáī¥áĪĿáįį": 6628,
      "Ġáī°áĪĵáĮĴ": 6629,
      "áĪĺáĪµáĮįáĬĸ": 6630,
      "ĠáĬ¥áĬķáī°áĭĪáĪĵáĭ°": 6631,
      "áĭĭáĬ½áī¥áī²": 6632,
      "áĭ±áĪ³áīµ": 6633,
      "ĠáĬŃáīµáĬ¨áĭŃáĭµ": 6634,
      "ĠáĬķáĪ±áĬķ": 6635,
      "ĠáĪ³áĪįáĪ°áĭŃáī²": 6636,
      "ĠáĪ°áĬĲáĭ³áīµ": 6637,
      "ĠâĢ¹âĢ¹": 6638,
      "áĪįáĪµ": 6639,
      "áĬ¸áįį": 6640,
      "áĭĺáĭĺ": 6641,
      "ĠáĪķáĬĲ": 6642,
      "áĪ®áĬķáĬķ": 6643,
      "Ġáī£áĭŃ": 6644,
      "ĠáĬķáĭĪáĭ²": 6645,
      "Ġáĭ³áĬķáĬ¤áĪį": 6646,
      "ĠáĭĿáĭĭ": 6647,
      "áĬ©áĭĭ": 6648,
      "ĠáĬŃáĬķáĭĿ": 6649,
      "áĪĪáĪĿáī²": 6650,
      "ĠáĬ£áĭŃáī°áĪŃ": 6651,
      "ĠáĪĿáĪµáīµáĭįáĭĵáĪį": 6652,
      "ĠáĬ¥áĮĪáī¥áĪŃ": 6653,
      "áī£áĪ½": 6654,
      "áĭĿáĬ¾áĬĲ": 6655,
      "ĠáīµáįĪáĪįáĮ¦": 6656,
      "áĭĽáĪĿ": 6657,
      "áīµáĬķáĪµ": 6658,
      "áĪĻáĪī": 6659,
      "ĠáĭĺáĪİáĭİ": 6660,
      "Ġáī°áĪĺáĬ©áĪ®": 6661,
      "Ġ2010": 6662,
      "ĠáĬĲáī¥áĪ±": 6663,
      "Ġáī°áĪĺáĪĬáĪ¶áĪĿ": 6664,
      "ĠáĪŃáĬŃáī£áīµ": 6665,
      "áįįáĬķáī²": 6666,
      "ĠáīłáĪª": 6667,
      "áĪĻáĪ½áī°": 6668,
      "ĠáĬ£áī¦áī³áīµáĬĵ": 6669,
      "ĠáĪĿáīµáĪķáī¥áī£áĪŃ": 6670,
      "ĠáįħáĪķ": 6671,
      "áįįáĪįáĮł": 6672,
      "ĠáĬ¥áĬ©áĭŃ": 6673,
      "ĠáĭĿáĬł": 6674,
      "ĠáĭĿáĪŃáĬ¨áī£": 6675,
      "áĪķáīµáĬĵ": 6676,
      "ĠáĭŃáįĪáĪįáĮ¡": 6677,
      "ĠáĪĵáīłáĪ¬áī³áī³áīµ": 6678,
      "Ġáī°áĪ°áĪĽáĪļ": 6679,
      "ĠáĪįáĪĿáĭ²": 6680,
      "áĪĺáĪĿ": 6681,
      "ĠáīłáĭĽ": 6682,
      "ĠáĬ¥áĭļáĬłáĬķ": 6683,
      "ĠáĬ£áĪĪáĪĿ": 6684,
      "ĠáĭĺáĪİáĬ¹áĪĿ": 6685,
      "ĠáĮłáīł": 6686,
      "áĭµáĪķáĬĳ": 6687,
      "áĮ¥áīĥáĪµ": 6688,
      "áĪĥáīłáĬ«": 6689,
      "áĪŃáĭĭ": 6690,
      "áīłáĭ«": 6691,
      "ĠáĭĿáĭĺ": 6692,
      "ĠáĪĺáĭ³áĭ«áīµ": 6693,
      "ĠáĬªáĬķ": 6694,
      "ĠáĬ¥áĬķáĭ³áī°": 6695,
      "ĠáĮ¥áīłáī¥áĬķ": 6696,
      "Ġf": 6697,
      "áĭ°áĬĴ": 6698,
      "ĠáĭĪáĭ³": 6699,
      "áĬ®áĪĿ": 6700,
      "ĠáĬ¥áĭ®áī¥": 6701,
      "Ġáī¥áĪĿáĪŃ": 6702,
      "ĠáĪ½áĪįáĪĽáīµ": 6703,
      "Ġáĭ®áĪŃáĭ³áĬĸáĪµ": 6704,
      "ĠáĮ¾áĪŃ": 6705,
      "Ġáī¥áĪĺáĬķáĮĪáĭ²": 6706,
      "áĬ£áĪĿáĬĸ": 6707,
      "áī°áĪĪ": 6708,
      "áĪĺáĭĵáĪį": 6709,
      "áĪ°áī²": 6710,
      "ĠáĬ¥áĬķáī°áĪĥ": 6711,
      "ĠáĬ¥áĬķáī°áĭ°áĪĬ": 6712,
      "ĠáīµáĬķáĪ£": 6713,
      "ĠáĭŃáĪĿáĪħ": 6714,
      "ĠáĮ½áĪįáĬ¢": 6715,
      "áĬ¥áĭĭ": 6716,
      "áĭ°áīł": 6717,
      "ĠáĪµáĭµ": 6718,
      "ĠáĬ¥áĭ«áĪ±": 6719,
      "áĮĪáī¥áĪŃáĬķ": 6720,
      "áĬĶáĬķ": 6721,
      "áĪħáīłáĬ©áĪĿ": 6722,
      "Ġáī¥áĪĿáĬ¥áī³áĭį": 6723,
      "áĪįáĭķáĪį": 6724,
      "áĪĭáĪĭáĭŃ": 6725,
      "ĠáĬŃáīµáĪŃáĬ¢": 6726,
      "ĠáĬŃáīµáĮĪáī¥áĪ©": 6727,
      "ĠáĬ½áīµáĬ¨áĭįáĬķ": 6728,
      "ĠáĮ¸áĪĵáįĬ": 6729,
      "ĠáĮ¹": 6730,
      "áĪĺáĪĥ": 6731,
      "ĠáĭŃáĪĥáī¥": 6732,
      "ĠáĪ°áĮĬ": 6733,
      "ĠáīµáĪĵ": 6734,
      "áĮ¸áĬĵáĬķ": 6735,
      "ĠáĬķáĬ£áĪ½áī±": 6736,
      "ĠáĪĺáĮ½áĪĵáįįáī²": 6737,
      "ĠáĬķáĬ½áĪįáī°": 6738,
      "ĠáĭĿáĬ¸áĬ£áĪĪ": 6739,
      "ĠáĪĺáĮłáĬķáīĢáīķ": 6740,
      "áĬĵáĬĴ": 6741,
      "áĪĽáĪŃáĭ«áĪĿ": 6742,
      "áĪ³áĭį": 6743,
      "ĠáīµáĬ¸áĭŃáĭµ": 6744,
      "ĠáĭĺáĭŃáĪĵ": 6745,
      "ĠáįĪáĭį": 6746,
      "ĠáĬ£áĭŃáĬķáįĪáĪįáĮ¥áĬķ": 6747,
      "ĠáĪĿáįįáĮ£áĪŃ": 6748,
      "ĠáĬķáĪĺáĬķáĮįáĪµáī²": 6749,
      "Ġáĭķáĭīáīµ": 6750,
      "ĠáĬŃáįĭáĪĭáīµ": 6751,
      "ĠáĪĺáĪ¨áĮĭáĮĪ": 6752,
      "ĠáĬŃáĬ¾áĬĲ": 6753,
      "áĪĭáĭµ": 6754,
      "Ġáī°áĪŀáĬŃ": 6755,
      "ĠáĪĵáīħáĬķ": 6756,
      "ĠáĬ¢áĪ«áĬķ": 6757,
      "áĮĭáĬķáĭ³": 6758,
      "áĪĿáĪŃáĭĸ": 6759,
      "Ġáī°áī£áĪĤáĪĭ": 6760,
      "ĠáĪĿáĪĿáĪķáĭ³": 6761,
      "ĠáĬķáĮ¹áĪħ": 6762,
      "Ġáī¥áĬĵáĮ»": 6763,
      "il": 6764,
      "ss": 6765,
      "áĭĪáĪĪ": 6766,
      "áĪħáĬ¤": 6767,
      "áĬĴáĬĵ": 6768,
      "áĪµáī°áĭįáĭķ": 6769,
      "ĠáĪĺáĪµáįįáĬķ": 6770,
      "ĠáīģáĮ½": 6771,
      "ĠáĬ£áĮ½áĬĴ": 6772,
      "ĠáĪĿáĮħáĪĽáĪŃ": 6773,
      "ĠáĮłáīĵáĪļ": 6774,
      "áĮ²": 6775,
      "áī°áī£áī¥": 6776,
      "ĠáĪĺáĮł": 6777,
      "áĬŃáĬĴ": 6778,
      "ĠáĭĪáĪįáĭµ": 6779,
      "ĠáĮĪáĪĭáĭī": 6780,
      "ĠáīħáĭµáĪµáī²": 6781,
      "ĠáĪŀáī±": 6782,
      "Ġáī¦áī³áĬķ": 6783,
      "ĠáīĲáĪªáī¡": 6784,
      "ĠáĬ¤áĭįáĪ®áĮ³áĭĬ": 6785,
      "áĮįáĪ©": 6786,
      "áĬ¨áĪ¨": 6787,
      "ĠáĪĽáĬªáĬĵ": 6788,
      "ĠáĪĺáĪªáĪŃ": 6789,
      "ĠáĪĴáĭĿáĬĵ": 6790,
      "ĠáĪĿáĬŃáĬķáĭ«áī±": 6791,
      "ĠáĭĵáĪµáī¢": 6792,
      "ĠáĬ£áįįáĬķáĮ«": 6793,
      "áīłáĪĬ": 6794,
      "áĪ«áī¢": 6795,
      "ĠáĪµáĪĴ": 6796,
      "ĠáĭĵáĪĮáīµ": 6797,
      "ĠáīłáĮĬáĭķ": 6798,
      "ĠáĪĿáĮįáĪĭáĮ½": 6799,
      "Ġáī°áīĵáĪĬ": 6800,
      "Ġáī«áī²áĬ«áĬķ": 6801,
      "ĠáĬķáĬ¥áĪ½áī°áĭŃ": 6802,
      "ĠáĪµáĭĬáĭĺáĪŃáĪĭáĬķáĭµ": 6803,
      "ĠáĬ¥áĪĿáī¥áĬ£áĪŃáĪ²": 6804,
      "áĭµáĬĴ": 6805,
      "ĠáĭŃáĭĵáī¢": 6806,
      "ĠáĬ¥áĬķáĭ²": 6807,
      "áĪĥáī¢": 6808,
      "áĮłáī¥": 6809,
      "ĠáĬ¥áĬķáī°áĪĥáĪį": 6810,
      "ĠáĬ£áī³áĬ½áĪįáī²": 6811,
      "ĠáĪµáī¥áĬ¨áīµ": 6812,
      "ĠáĪĺáī¥áĪ«áĪħáī²": 6813,
      "Ġáĭĺáĭĺ": 6814,
      "ĠáīµáĬ¹áĬķ": 6815,
      "Ġáī³áĪªáĬŃ": 6816,
      "ĠáįĢáī¥": 6817,
      "ĠáĭĿáĮ¸áĬķáĪĳ": 6818,
      "ĠáĪķáĭ«áĭį": 6819,
      "ĠáĬķáĮĵ": 6820,
      "Ġáī¥áĭħáĪī": 6821,
      "áĭĵáĪ¨": 6822,
      "Ġáįįáīĳ": 6823,
      "ĠáĪŃáĬ¹": 6824,
      "ĠáĬ¥áī°áĮĪáī¥áĪ¨": 6825,
      "Ġ196": 6826,
      "áĪ¨áĬ£áĭ©": 6827,
      "ĠáĬŃáĪ°áĪŃáĪĳ": 6828,
      "áĪħáī¥áĬķ": 6829,
      "ĠáīħáĭµáĪµáīµ": 6830,
      "áīĨáĪµ": 6831,
      "ĠáĬ£áĭŃáĬĲáīłáĪŃ": 6832,
      "áĭŃáīķ": 6833,
      "Ġáī¥áĪŃáĬ¥": 6834,
      "áĭ°áĪİ": 6835,
      "ĠáĪħáįĥ": 6836,
      "áĪµáī°áĭįáĭķáĪį": 6837,
      "áĭŃáĬķáĬ«": 6838,
      "ĠáĬĲáĮĪáĭµ": 6839,
      "ĠáĬŃáĪįáī²áĬłáĬķ": 6840,
      "ĠáĬ£áĪĥáĭ±": 6841,
      "ĠáĬ£áĮĪáĪįáĮĪáĪįáī²": 6842,
      "ac": 6843,
      "áĬķáī°": 6844,
      "Ġáī¥áĪŀáīµ": 6845,
      "ĠáĪĿáĪĥ": 6846,
      "áĪĵáĬ«": 6847,
      "ĠáĬĶáĪŃáĬ«": 6848,
      "áĮŃáī³áīµ": 6849,
      "ĠáĬŃáĪ½": 6850,
      "Ġáĭ°áĪįáĭ©": 6851,
      "ĠáĪĥáĭ¨": 6852,
      "ĠáĪĿáĭµáĪ¨": 6853,
      "áįĪáĪŃáĪħ": 6854,
      "ĠáĭĿáĮłáįį": 6855,
      "ĠáĬ«áĪĿ": 6856,
      "áĬ»áĭµ": 6857,
      "áĭ¨áĪ¨": 6858,
      "ĠáĪŃáĬ½": 6859,
      "ĠáĪŃáĬ¥áĭ®áĪĿ": 6860,
      "ĠáĪĥáĮĪáĪ¨áĭŃ": 6861,
      "áīģáĬķ": 6862,
      "áī¥áĪħ": 6863,
      "Ġáī¥áĪķáĪį": 6864,
      "áĭµáĭ©": 6865,
      "áĪ¨áīłáĪī": 6866,
      "Ġáī°áīĺ": 6867,
      "Ġáīłáĭ³": 6868,
      "Ġáīłáī¢": 6869,
      "ĠáĪĥáī¦": 6870,
      "áīĢáĬĴ": 6871,
      "ĠáĮķáĮħáĪĪ": 6872,
      "ĠáĪĿáīķáĪ«áī¥": 6873,
      "ĠáįįáĪįáĪįáĭ«áīµ": 6874,
      "ĠáĭļáĪµ": 6875,
      "Ġáī£áĬ¥": 6876,
      "ĠáĪĵáĭ²áĪµ": 6877,
      "ĠáĭĿáĮĪáī¥áĪŃáĭİ": 6878,
      "ĠáĬ£áĪĺáĪįáĬªáī±": 6879,
      "ĠáĭŃáįĪáī±": 6880,
      "ĠáĭĪáĪįáĭ°": 6881,
      "áīķáĪį": 6882,
      "ĠáįĪáĪĪ": 6883,
      "ĠáĬ½áįį": 6884,
      "Ġ2021": 6885,
      "ĠáĬ£áĪŃáī¥áĭĵ": 6886,
      "ĠáĪĺáĬķáĬ¥áĪ°": 6887,
      "ĠáīµáĪĿáĬĴáīµ": 6888,
      "ĠáĬ£áĭŃáĪĺáĪµáĪįáĬķ": 6889,
      "Ġáī¥áĪīáĭŃ": 6890,
      "ĠáĬ£áĭŃáĪ¨áĬ¸áī¥": 6891,
      "Ġáī¥áĭĵáĭŃáĬĴ": 6892,
      "ĠáĬ£áĪ»": 6893,
      "áī°áĪİ": 6894,
      "ĠáĬŃáī¡áĪ«áīµ": 6895,
      "áĪĵáĭĻ": 6896,
      "ĠáĭŃáĮħáĪĿáĪŃ": 6897,
      "ĠáĪħáĭĿáī¡": 6898,
      "áĭĥáĬĳ": 6899,
      "Ġáī£áĪħáĮĬ": 6900,
      "ĠáĪ±áĪŃ": 6901,
      "ĠáĬ£áĬħ": 6902,
      "ĠáĬķáĪµáĪĵ": 6903,
      "ĠáĬ£áī¦áĬ»": 6904,
      "ĠáĭĪáĪŃáĪĵáĭĬ": 6905,
      "ĠáįķáĪĭ": 6906,
      "Ġáī°áĪĵáī¢": 6907,
      "ĠáĬķáĪ°áĪĪáĪµáī°": 6908,
      "ĠáĬķáĭĪáĪĪ": 6909,
      "Ġáī¥áĮ¸áĪİáīµ": 6910,
      "áī¥áĪĥáĪĪ": 6911,
      "áĬĢ": 6912,
      "áĬĲáĭ¨": 6913,
      "áį£\"": 6914,
      "áĮĬáĪĳ": 6915,
      "ĠáĪĵáĪĻáĪµ": 6916,
      "ĠáĬ£áĭįáī¶áī¡áĪµ": 6917,
      "áĬ»áĬ¥": 6918,
      "áĪħáĪ«": 6919,
      "ĠáĭķáĪĿ": 6920,
      "ĠáĪŃáĬ¥áĪ³": 6921,
      "áĪĭáĪĪáĪµ": 6922,
      "ĠáĭĿáĭĪáĪ¨áĭ°": 6923,
      "ĠáĪĤáī¦áĪĿ": 6924,
      "ĠáĬ£áĪįáĬ£": 6925,
      "Ġáī°áĭĽáĪªáī¦áĪĿ": 6926,
      "ĠáĬķáĮīáĪ¥": 6927,
      "Ġáī±áĪŃáĬª": 6928,
      "Ġ<<": 6929,
      "ĠáĭĿáĮĪáĪŃáĪĿ": 6930,
      "Ġáĭĵáĭĭ": 6931,
      "ĠáĬ¥áĬķáī°áĭĺ": 6932,
      "ĠáĪ¸áĭŃ": 6933,
      "ĠáĬ£áĮĭáĭŃáĪ½": 6934,
      "ĠáĮķáĭķáĭŀ": 6935,
      "ĠáĬ£áĬª": 6936,
      "áĮĪáįį": 6937,
      "Ġáĭĵáĭ±": 6938,
      "ĠáĪ¨áĬ£áĭ©": 6939,
      "áĬĲáĪµ": 6940,
      "áĬ£áĪĪáĪĽáĭĬ": 6941,
      "ĠáĬĵáīķáįĭ": 6942,
      "áĭ²áĭ®": 6943,
      "ĠáĭķáĮ¡": 6944,
      "áī´áĬĵ": 6945,
      "ĠáĪĿáĭįáĪ³": 6946,
      "áīĲáīµáĪī": 6947,
      "ĠNews": 6948,
      "ĠáĭĺáĭŃáĪķáĮĭáĭĬ": 6949,
      "ĠáīĺáĪįáĭĵ": 6950,
      "áĭ³áĪī": 6951,
      "ĠáĬŃáīµáĪ°áĪŃáĪķ": 6952,
      "ĠáĬŃáĬķáĪŃáĬ¥áĭ®": 6953,
      "áĮĪáĪįáĮįáĪİáīµ": 6954,
      "ĠáĬ¥áĬķáĬ¨áĪĪáĭī": 6955,
      "ĠáĬ¢áĬķáĭ±": 6956,
      "áĪĿáĪħáĪ®": 6957,
      "áĪŃáīĤ": 6958,
      "ĠáĬŃáĮĪáĪįáĮ½": 6959,
      "áĭĺáĭŀ": 6960,
      "ĠáĭļáĬ£áĬŃáĪį": 6961,
      "ĠáįĪáī³áĭĬ": 6962,
      "ĠáĮĪáĭĽáĬ»": 6963,
      "ĠáĬ¢áĭ¨áĪ©áĪ³áĪĮáĪĿ": 6964,
      "ĠáĮĥáĪįáī£": 6965,
      "ĠáĪĺáĬĲáī£áī¥áĪ®": 6966,
      "Ġáī¥áīĽáĬķáīĭ": 6967,
      "ĠáįĪáĬķ": 6968,
      "ĠáįĪáĮłáĪ¨": 6969,
      "áĮ£áīµ": 6970,
      "ĠáĬķáĬ£áĬ»áīµáĬ©áĪĿ": 6971,
      "Ġáī°áīĲáĪĺáĮł": 6972,
      "ĠáįįáĪŃáĭµ": 6973,
      "ĠáĭįáĭµáīĢáīµ": 6974,
      "ĠáĬ£áĭ³áĪ«áĪ½": 6975,
      "ĠáĪĿáīµáĬ¥áĪµáĪ³áĪŃ": 6976,
      "ĠáĬķáĭĺáĪįáĬ£áĪĪáĪĿ": 6977,
      "ĠáĬ£áīłáĭ¨": 6978,
      "áĬ¥áĬ©áĪĿ": 6979,
      "ĠáĭŃáĮĪáī¥áĪ®": 6980,
      "ĠáĭŃáĮįáĪĪáĮ½": 6981,
      "áĮ»áĮ¸áĪŃ": 6982,
      "ĠáĭĿáī°áī£áĪħ": 6983,
      "ĠáĮ¸áī£": 6984,
      "áĮĵáĭĵáĭĿ": 6985,
      "áĪĥáĭ°áĪ«áĭĬ": 6986,
      "áĪ¨áįī": 6987,
      "ĠáĬ¢áĬ«": 6988,
      "áĪ³áīµáĬķ": 6989,
      "ĠáĭĿáįĪáĮłáĪ¨": 6990,
      "ĠáĬ¥áĭĿáĬĴ": 6991,
      "ĠáĮĢáĬĲáĪ«áĪį": 6992,
      "ĠáĭĿáĪ¸": 6993,
      "ĠáĭĿáĪ°áĪĿáĭķ": 6994,
      "áį¡*": 6995,
      "ĠáĬ¥áĬķáĮįáĪĬ": 6996,
      "áĬŃáĭ®": 6997,
      "áĪ®áĪľ": 6998,
      "áĪŃáĬ¨áī¦": 6999,
      "ĠáĬµáĪĭáī¶áĪĿ": 7000,
      "áĮ½áĪķáįĪáīµ": 7001,
      "ĠáĬ£áĪķáĭĭáī±": 7002,
      "ĠáĭķáĬķáīħ": 7003,
      "ĠáĮįáĪĪ": 7004,
      "ĠáĭĪáĪµ": 7005,
      "ĠáĮİáĬĴ": 7006,
      "áįįáĪŃáĭ²": 7007,
      "Ġáī¥áĭķáĭµáĪĺ": 7008,
      "31": 7009,
      "lo": 7010,
      "ĠáĪĺáĪ®": 7011,
      "áĭµáĭ³áĬ¥": 7012,
      "ĠáĬŃáīµáĪĿ": 7013,
      "ve": 7014,
      "ĠáĬķáĭ¨": 7015,
      "ĠáĭŃáįĪáĪįáĮ¦": 7016,
      "áĬ©áĪį": 7017,
      "ĠáĬ¥áĬķáī°áīµ": 7018,
      "ĠáĬĵáī¥áĬ£": 7019,
      "áĪĺáĪŃáĪķ": 7020,
      "áįħáĬķ": 7021,
      "ĠáĬ£áī£áĬ»": 7022,
      "áī°áĪĵáĪ³áĪµ": 7023,
      "ĠáĭĿáī°áįĪáĮ¥áĪ¨": 7024,
      "ĠáĬ£áĭŃáĬ¨áĬ£áĪīáĬķ": 7025,
      "áĪįáĮ¥": 7026,
      "ĠáĬ£áī¥áĭŃ": 7027,
      "ĠáĮįáĮīáĭŃ": 7028,
      "áĭĺáįį": 7029,
      "Ġáī¥áĪĿáĬ½": 7030,
      "ĠáĬ¥áĪµáĪįáĪĿáĬĵ": 7031,
      "Ġáī°áĪ°áĭĬ": 7032,
      "Ġ90": 7033,
      "Ġáĭ°áĮĪáįįáī²": 7034,
      "áįĸáĪĪáī²áĬ«": 7035,
      "ĠáįĵáĪŃ": 7036,
      "Ġáī¥áĪĺáĪ°áĪ¨áī±": 7037,
      "ĠáĮ¥áĭĳáĭŃ": 7038,
      "ĠáĭķáĪŃáīĤ": 7039,
      "Ġáī°áĮłáīĢáĪĿáī²": 7040,
      "Ġarticle": 7041,
      "ĠáĭĿáĪħáī¦": 7042,
      "ĠáĪĵáĭĺ": 7043,
      "áĮłáĪ©": 7044,
      "ĠáĪĽáĭŃáĬķ": 7045,
      "ĠáĭĿáī°áĪĺáĪµ": 7046,
      "ĠáĪ¶áĪĽ": 7047,
      "ĠáĬĲáīłáĪŃáĬĵ": 7048,
      "ĠáĭĺáĮĭáĮ¥": 7049,
      "áĬ¬áīµ": 7050,
      "ĠáįķáĪ¨áĪ²áĭ°áĬķáīµ": 7051,
      "áĪĪáįĪ": 7052,
      "Ġáī¥áĪ¨áīµ": 7053,
      "ĠáĬŃáĭĭ": 7054,
      "ĠáĬŃáĪ°áĪŃ": 7055,
      "ĠáīĤ": 7056,
      "áĮłáīĢ": 7057,
      "ĠáĬĲáĮĪáĪ©": 7058,
      "ĠáĮįáĪįáĮĭ": 7059,
      "áĪµáįĸáĪŃáīµ": 7060,
      "áī£áĭįáĭ«áĬķ": 7061,
      "ĠáīµáĪ«": 7062,
      "ĠáĭĺáĭŃáī²": 7063,
      "ĠáĮ¥áĪįáĭ«áĬķ": 7064,
      "ĠáĪįáī¦áĬĵ": 7065,
      "áĪŃáĬĵáĭ®": 7066,
      "Ġáĭ®áĬĵáĪµ": 7067,
      "ĠáĪĺáĭĿáĪĻ": 7068,
      "áĮ¥áĪĿáīµ": 7069,
      "Ġáĭ¨áĭµáĪįáĭ¨áĬ«": 7070,
      "Ġáī¥áĮĢáĬ«": 7071,
      "ĠáĬĲáĬĵ": 7072,
      "áĪŃáĪĿáĭ«áĪµ": 7073,
      "áĪŃáįį": 7074,
      "áī°áĮĤ": 7075,
      "ĠáĭĿáĪµáĪĿ": 7076,
      "áĪĥáĬĲ": 7077,
      "áįħáĪķ": 7078,
      "Ġáĭ³áĬ£": 7079,
      "áĪŃáĬ«áĭ®": 7080,
      "áĬŃáīµáĪªáĬŃ": 7081,
      "ĠáĬķáĪĿáįįáī³áĪķ": 7082,
      "áĭķáī¥áĭ«": 7083,
      "ĠáĭĺáĪŃáĬ¥áĪµáī³": 7084,
      "ĠáĬ£áĪŀ": 7085,
      "áĬĲáī±áĬķ": 7086,
      "áĭµáī¥": 7087,
      "áĪķáĭĽ": 7088,
      "ĠáĭŃáĪŃáĬł": 7089,
      "ĠáĭįáĮį": 7090,
      "ĠáĭļáĭĽáĪ¨áī¥": 7091,
      "ĠáįĪáĮ¢": 7092,
      "ĠáĪ½áĬ®áĪŃ": 7093,
      "ĠáĬ¥áīµáĬ¸áĭįáĬķ": 7094,
      "ĠáĪŀáĭ«áĭĬ": 7095,
      "áįħáĪŃ": 7096,
      "ĠáĪĽáĭķáīłáĪį": 7097,
      "ĠáĬķáĭ°áĪĵáĪŃ": 7098,
      "ĠáĭŃáĪķáī¥áĪŃ": 7099,
      "ĠáĮįáĪŃáĪĿ": 7100,
      "áĬķáī³áĭŃ": 7101,
      "ĠáĬ£áĪĿáĪŃ": 7102,
      "ĠáĬ¥áĪĿáĬķ": 7103,
      "Ġáĭ¨áĪĺáĪįáĬŃáīµ": 7104,
      "ĠáĪĿáĪŃáĬ»áī¥": 7105,
      "ĠáĮĪáĪĬáĬ£áī¶áĪĿ": 7106,
      "ĠáĮŃáī¥": 7107,
      "áĬ«áĭŃáĭ±": 7108,
      "ĠáĮ¸áĪİáīµáĬķ": 7109,
      "ĠáĭĿáĪ½": 7110,
      "Ġáī¥áĮĲáĭŃáī³": 7111,
      "ĠáĬ¨áĭ±": 7112,
      "áĪ«áīķ": 7113,
      "áĪ³áĪ°áĪį": 7114,
      "ĠáĬķáĬ£áĪĿáĬķ": 7115,
      "ĠáĮĮáĪ®áĪĿ": 7116,
      "Ġáī¥áĬ¥áī°": 7117,
      "ĠáĬķáĮĪáĪ¨áĬĴ": 7118,
      "Ġáī¥áĭįáĪķáĭ±": 7119,
      "ĠáĪĵáĪ¨áĪµáī¶áīµ": 7120,
      "Ġti": 7121,
      "áĮ®": 7122,
      "ĠáĬķáįĪáĪįáĮ¦": 7123,
      "áĪĽáī±": 7124,
      "áĪĵáįĪ": 7125,
      "áĬŃáĪįáĬĵ": 7126,
      "áĮĲáĭŃáī³áĭŃ": 7127,
      "ĠáĬ¤áĪŃáīµáĪ«áĬķ": 7128,
      "ĠáĬķáĬĲáī¢áĭŃ": 7129,
      "ĠáĪµáĮĭáĭĬ": 7130,
      "ĠáĬŃáĪħáĪįáĭİáĪĿ": 7131,
      "ĠáĮİáĪ¨áī£áī¥": 7132,
      "ĠáĮŃáĬķáīĢáīµ": 7133,
      "ĠáĬŃáĭĵ": 7134,
      "áĭ°áĪ°": 7135,
      "áĮ¥áĪ©": 7136,
      "ĠáĬŃáĬķáĬ¨áĭŃáĭµ": 7137,
      "Ġáĭľáĭ°áĬķáīķ": 7138,
      "ĠáĬĲáī¥áĪµáĬ»": 7139,
      "ĠáĪĿáĬĵáĪįáī£áĪ½": 7140,
      "áĪĵáĪĪáįĪ": 7141,
      "ĠáĪĽáī´áĭİáĪµ": 7142,
      "ĠáĬķáĪĿáĭĥáĬķ": 7143,
      "Ġáī¥áĪĻáĪīáĬ¥": 7144,
      "Ġáīħáĭ³áĪ´": 7145,
      "ĠáĬ¥áĪĺ": 7146,
      "Ġáī°áĪĲ": 7147,
      "ĠáĬĵáīµ": 7148,
      "áĭĪáī²": 7149,
      "Ġáĭ°áĬº": 7150,
      "ĠáĬ¥áĪŀáĬ¸": 7151,
      "áĬ°áĬĳ": 7152,
      "ĠáīģáĪŃ": 7153,
      "ĠáĪ«áĪħ": 7154,
      "Ġáī¥áĮįáĪį": 7155,
      "Ġáī¥áĭĪáĮįáĭĴ": 7156,
      "ĠáĬŃáĬ¸áĭīáĬķ": 7157,
      "Ġáī°áī£áĭķáī³áĭŃ": 7158,
      "ĠáĬ£áĭŃáĬ°áĬķáĬ©áĬķ": 7159,
      "ĠáĭŃáīĲ": 7160,
      "áī±áī¥": 7161,
      "ĠáĮ¸áĪįáĭ©": 7162,
      "ĠáĬªáĪİ": 7163,
      "ĠáĬķáĪµáĪ«áĪķ": 7164,
      "ĠáĬķáĪĵáīĤ": 7165,
      "áīłáĬ£áĬĵ": 7166,
      "ĠáĬķáĪ°áīłáĭŃ": 7167,
      "áįįáĬ©áĪĿ": 7168,
      "ĠáĮįáĬ¥áĭĿ": 7169,
      "Ġáīµáī¥áĪİ": 7170,
      "ĠáĮ¥áĪ«": 7171,
      "ĠáĬ£áĭŃáīµáįįáĪ«áĪħ": 7172,
      "Ġáĭ³áĭŃ": 7173,
      "Ġáī¥áĬ£áĬ»": 7174,
      "ĠáĪĨáī´": 7175,
      "ĠáĪ®áĪĽ": 7176,
      "ĠáĬķáĮ½áī£": 7177,
      "Ġáī¥áĭ°áĪĵáĬķ": 7178,
      "ĠáĬ»áĪįáĬ¦áīµ": 7179,
      "ĠáĮįáĭµáī¥": 7180,
      "ĠáĮĪáĭĿáĬ¡": 7181,
      "Ġw": 7182,
      "áĬ¥áĪĺáĬķ": 7183,
      "áįĭáĭķ": 7184,
      "áĭĽáĪ¨áīłáĪī": 7185,
      "Ġáī¦áĪŃáĭµ": 7186,
      "Ġáĭ®áĬĵ": 7187,
      "Ġáī¥áĭĿáī°áĬ»áĬ¥áĪĪ": 7188,
      "ĠáīµáĪĿáĬĴ": 7189,
      "Ġáī°áĪĺáĪĬáĪ°": 7190,
      "Ġáīµáī¥áĭĵáīµ": 7191,
      "ĠáĪĽáĪĪáī°áĭŃ": 7192,
      "áĪįáĪ²": 7193,
      "áĭįáĭĲ": 7194,
      "áĮįáī¥áĪŃ": 7195,
      "áįĪáĮ¸áĪĺ": 7196,
      "ĠáĮįáĮŃáīµ": 7197,
      "Ġáĭĵáĭ°áĭŃ": 7198,
      "áĪ©áīµ": 7199,
      "ĠáĬĲáī¥áĪ²": 7200,
      "ĠáĪĿáĮ½áĪĵáįį": 7201,
      "ĠáįĮáĭ°áĪ«": 7202,
      "Ġáī°áĮłáĬķáīĢ": 7203,
      "ĠáĬ£áĪĿáĪĵáĪ«": 7204,
      "ĠáĬ£áĪĿáī£áĪ³áĭ°áĪŃ": 7205,
      "ĠáįħáĪķáįĪáīµ": 7206,
      "ĠáĪĺáĮłáĬķáīĢáīķáī³": 7207,
      "áĪµáįĪ": 7208,
      "ĠáĬŃáīłáĮ½áĪķ": 7209,
      "ĠáĭĺáĭµáĪį": 7210,
      "ĠáĭĵáĬķáĭ²": 7211,
      "áĮ¥áĭĴ": 7212,
      "ĠáĭļáĪĿáĪįáĬ¨áīµ": 7213,
      "ĠáĭĿáī°áĮ¸": 7214,
      "ĠáĭĪáĮ»áĬ¢áī³áīµ": 7215,
      "ĠáĪŃáĬ¢áī¶": 7216,
      "ĠáĮ¥áĪĿáīĢáīµ": 7217,
      "Ġáī°áīĲáĪļáĮ¡": 7218,
      "ĠáĬķáĪĺáĮĢáĪĺáĪŃáĭ«": 7219,
      "ĠáĭĺáĪŃáĬ£": 7220,
      "ĠáĬ¥áĬķáĭ¶": 7221,
      "ĠáĬ£áĭŃáįĪáĪĪ": 7222,
      "áĮ¥áĪŃáĬķ": 7223,
      "ĠáĪĥáĪĪ": 7224,
      "áį§+": 7225,
      "áĪĺáĪµáĪĪáĬĴ": 7226,
      "áĮħáĬķ": 7227,
      "ĠáĬ£áĭįáĪ®áįĵ": 7228,
      "ĠáĮ£áĭķ": 7229,
      "ĠáĪħáĭĿáī¥áĬ»": 7230,
      "ĠáĬ£áĪķáĭĭáīµáĬķ": 7231,
      "ĠáĬķáĭĭ": 7232,
      "Ġáī¥áĪĺáĪµ": 7233,
      "Ġáī¥áĬ¨áĪĺáĭŃ": 7234,
      "áĪĺáĪĪ": 7235,
      "ĠáĪĵáĪª": 7236,
      "áĪ³áĬĲ": 7237,
      "ĠáĭĵáĮ½": 7238,
      "áĪ½áī³": 7239,
      "áĪħáĪįáĭİáĪĿ": 7240,
      "áĪĵáĭ°áĪŃ": 7241,
      "ĠáĭķáĪĪáī³áĭĬ": 7242,
      "Ġa": 7243,
      "ĠáĪĺáįĪ": 7244,
      "áĮĪáĮ¥": 7245,
      "áĪħáĬĵáīµáĬķ": 7246,
      "ĠáĪķáĭ°": 7247,
      "Ġáĭ°áĮĭ": 7248,
      "ĠáĮĪáĮ»áīµ": 7249,
      "ĠáĪįáĭ°": 7250,
      "ĠáĪļáĭĽáĬķ": 7251,
      "áĮħáĪĿáĪ©": 7252,
      "ĠáĬķáĭĵáĬ¹áĪĿ": 7253,
      "ĠáĬ£áĭĿáĪĽ": 7254,
      "ĠáĬ£áīķáĪĵ": 7255,
      "ĠáĪŃáĪĳáĪµ": 7256,
      "âĢºâĢº": 7257,
      "ĠáĭķáĪ½áĬĲáīµ": 7258,
      "ĠJ": 7259,
      "áĭŃáī¥": 7260,
      "ĠáĭŃáī¥áĪİ": 7261,
      "ĠáĬ¨áĭŃáĭĪ": 7262,
      "ĠáĬŃáįįáĪįáī³áīµ": 7263,
      "ĠáĭįáĪ½áĮ¥": 7264,
      "ĠáĭĿáĬ¸áĭ±": 7265,
      "ĠáĭĿáī°áĭĪáĪĪáĭµ": 7266,
      "ĠáĬķáĪħáĭĿáī¡": 7267,
      "ĠáĬķáĪĿáĪŃáĬ£áĭŃ": 7268,
      "áĪ¨áĭ¨": 7269,
      "áĪ¨áĭ®": 7270,
      "áĪĵáĬķáī²": 7271,
      "ĠáĪ°áĬĳáĭŃ": 7272,
      "Ġáĭ°áīłáĬĵ": 7273,
      "ĠáĪŃáĪµ": 7274,
      "ĠáĪĺáĪµáĪĪáĬĴ": 7275,
      "áī¥áĪªáĬ«": 7276,
      "áĪ°áĭŃáĮ£áĬķ": 7277,
      "áĭįáĮ½áĬ¦": 7278,
      "ĠáĭµáĪ«áĪĽ": 7279,
      "áĬ£áĭµ": 7280,
      "áĪ¨áĮ¸": 7281,
      "áĪ«áĪ¨áī¥": 7282,
      "áĪĵáĪ³áī¥": 7283,
      "ĠáĬ¥áĬĵáīłáĪįáĬĵ": 7284,
      "Ġáī°áĭĵáĭĬ": 7285,
      "ĠáĪ°áĪļáĬĵ": 7286,
      "and": 7287,
      "ĠáĬ£áĭŃáĬĲáīłáĪ®áĪĿáĬķ": 7288,
      "ĠáĮ¸áī¥áĮ»áī£áīµ": 7289,
      "Ġáī¥áī³": 7290,
      "áĬ¥áĪ°áĭ«áīµ": 7291,
      "áĭįáĭĭ": 7292,
      "áĪ°áĪ°": 7293,
      "áĭĺáĬ«": 7294,
      "áĭĺáĮ½": 7295,
      "ĠáĬŃáĬķáĭĽáĪ¨áī¥": 7296,
      "ĠáĮ¸áĪį": 7297,
      "ĠáĪĥáĮĪáĪ«áīµáĬķ": 7298,
      "ĠáĬ¢áīµáĭ®áĮµáĭ«áĬķ": 7299,
      "ĠáĬ£áĭŃáįĪáĪĪáĮ¥": 7300,
      "Ġáī°áĪ°áĪĿáĭ©": 7301,
      "ĠâĨĲ": 7302,
      "ĠáĮįáįįáĭĴ": 7303,
      "ĠáĮłáĭįáīĳ": 7304,
      "ĠáĭĿáįĪáĮłáĪ®": 7305,
      "áĪŃáĪĽ": 7306,
      "áĮįáīłáĪ¨": 7307,
      "ĠáīµáĪµ": 7308,
      "ĠáĭĿáīłáĪĭ": 7309,
      "ĠáĬ°áĭŃáĬĵ": 7310,
      "ĠáĪĿáĪĿáĮ»áĬ¥": 7311,
      "ĠáĬķáī¥áĭĻáĪķ": 7312,
      "Ġáī¥áĮ½áī¡áīķ": 7313,
      "ĠáĭįáĮ½áĬ¢áī±": 7314,
      "áĬķáĬŃ": 7315,
      "ĠáĭŃáĭ°áĪį": 7316,
      "Ġáĭ°áįĬ": 7317,
      "ĠáĬ¥áīµáĮĪáī¥áĪ®": 7318,
      "ĠáĬłáĭŃáīµ": 7319,
      "áĪĺáĪĵáĪĭáĪį": 7320,
      "ĠáĬ¥áĬ©áĭ«áīµ": 7321,
      "Ġ;": 7322,
      "ĠáĪĿáĬŃ": 7323,
      "ĠáĪµáĪķ": 7324,
      "áĪĥáĪĪ": 7325,
      "ĠáĪĿáĪµáĭĿ": 7326,
      "ĠáĪĽáĪ«": 7327,
      "ĠáĮ¸áĪĬ": 7328,
      "ĠáĬªáĮĪáī¥áĪŃ": 7329,
      "ĠáĬķáĪĿáĮ¥": 7330,
      "ĠáĭĿáĮĪáĭ°áĭ°": 7331,
      "ĠáĮĪáĭŃáĪŃáĬ«": 7332,
      "áĬŃáĪįáī²": 7333,
      "áĪµáĭķáĪŃ": 7334,
      "Ġáīłáĭ°áĪįáĬ«": 7335,
      "ĠáīµáĪ½áĭĵáī°": 7336,
      "ĠáĪ°áĪĽáĬ¥áī³áīµ": 7337,
      "áĬĲáĮĪ": 7338,
      "ĠáĬŃáĪĿáĪį": 7339,
      "áĪĺáĪİáĪĿ": 7340,
      "ĠáĬĵáīµáĬ©áĪĿ": 7341,
      "ĠáĬ¥áĬķáĮĪáī¥áĪ®": 7342,
      "ĠáĭĪáĬ¨": 7343,
      "Ġáīħáī¥": 7344,
      "ĠáĬŃáīµáĬ¨áįį": 7345,
      "ĠáĬ£áĬķáī¥": 7346,
      "Ġáī¥áĪĺáĮĢáĪĺáĪŃ": 7347,
      "ĠáĪĺáĭµáĪ¨": 7348,
      "Ġáī¥áĪ°áĪª": 7349,
      "ĠáĪĺáĭĺáĬĵ": 7350,
      "áĪįáĭĪáĮ¥": 7351,
      "áī°áĬĴ": 7352,
      "ĠáĭĿáĬ¨": 7353,
      "ĠáĭŃáĪģ": 7354,
      "áĭ¨áīµáĬķ": 7355,
      "áĭĺáĭĻ": 7356,
      "ĠáĪ³áĭŃáĬķ": 7357,
      "Ġ41": 7358,
      "ĠáĭįáĪ½áĮłáĭŃ": 7359,
      "áĪŃáĪķáīķ": 7360,
      "ĠáĪĲáĭ°": 7361,
      "ĠáĬ£áĭŃáĬ®áĬķáĬ«áĬķ": 7362,
      "Ġáī¥áĭĿáīłáĪĪáĮ¸": 7363,
      "ĠáĬŃáĪ¨áĪĿáī²": 7364,
      "ĠáĬ£áĭĪáĬķáī³áĭĬ": 7365,
      "ĠáĬ¢áĬķáĭ±áĪµáīµáĪª": 7366,
      "áĪīáīĥ": 7367,
      "Ġáĭ¨áĪĽáĬķ": 7368,
      "ĠáĭįáĮ¥áĬķ": 7369,
      "áįħáĬ¡": 7370,
      "Ġáī¥áįįáĪīáĭŃ": 7371,
      "ĠáĪĿáĪįáĬª": 7372,
      "ĠáīµáĪŃáĮķáĪĿ": 7373,
      "ĠáĪµáĬ¥áĪįáī³áīµ": 7374,
      "ĠáĪĺáīħ": 7375,
      "áĪ¨áĮ¹": 7376,
      "áĬ¹áĭİáĬķ": 7377,
      "áīĲáĪī": 7378,
      "ĠáĬŃáĬķáĭķ": 7379,
      "áĬłáĭŃáī²": 7380,
      "ĠáĪĿáĭµáĪĭ": 7381,
      "ĠáĭĿáĭĢáĬĲáīµ": 7382,
      "ĠáĪĺáĪĬáĬ¡": 7383,
      "Ġáįĥáĭķ": 7384,
      "Ġáī¥áĪĽáĭķáĪ¨": 7385,
      "Ġáī°áĪŀáĬŃáĪ®": 7386,
      "áĪĿáĪ³": 7387,
      "áĪįáĭī": 7388,
      "áĪĪáīµáĬķ": 7389,
      "ĠáĬŃáĮ¸": 7390,
      "ĠáĬŃáī¥áĪİ": 7391,
      "ĠáĪĵáĮį": 7392,
      "áįĥáĪĬ": 7393,
      "áī´áĬ¹áĪĿ": 7394,
      "ĠáĭĿáĭĵáĭŃ": 7395,
      "ĠáĬ£áĭµáĮĬ": 7396,
      "áĮįáĮĭáĪŃ": 7397,
      "áĮ»áĭĪáī±": 7398,
      "ĠáĬķáįīáĭķ": 7399,
      "áĬ£áĬķáĬķ": 7400,
      "ĠáĬĲáĭĿ": 7401,
      "ĠáĭŃáįĪáīµ": 7402,
      "áĭ«áĪĿ": 7403,
      "áĭļáĪĻ": 7404,
      "ĠáĭµáĪīáĭį": 7405,
      "áĭ³áīµáĬķ": 7406,
      "ĠáĬ£áĭŃáĪµ": 7407,
      "ĠáįįáĮ¥áĪ¨": 7408,
      "ĠáĭĿáī°áįĪáĪįáĭ¨": 7409,
      "ĠáīĢáī²": 7410,
      "ĠáĬªáīµ": 7411,
      "ĠáĭĿáīłáĮ½áĪķ": 7412,
      "Ġáī£áĭķáĪĭ": 7413,
      "áīłáĮ½áĪĸ": 7414,
      "ĠáĭĿáĭĪáĪµáĭµ": 7415,
      "Ġáī¥áĪĦáĪŃ": 7416,
      "ĠáĪĺáĮĪáĭµ": 7417,
      "áĮĪáĪ«áĭĬ": 7418,
      "áįĪáĮ¥áĪŃ": 7419,
      "áĭĭáĪª": 7420,
      "áĭĭáĭįáĭ«áĬķ": 7421,
      "áī¦áĪĿáĬķ": 7422,
      "ĠáīĢáĪŃáĬĴ": 7423,
      "ĠáĬ®áĪĪ": 7424,
      "ĠáīĥáĪįáĬ«": 7425,
      "ĠáĪĿáĭµáĪĭáĭŃ": 7426,
      "ĠáĮŃáįįáĪ«": 7427,
      "ĠáĭĪáĪ²áĭ¶áĪĿ": 7428,
      "ĠáĭĿáī°áĪĵáī°": 7429,
      "áĪµáĪŃáĭĵáīµ": 7430,
      "ĠáĪļáĬ¥áīµáĬķ": 7431,
      "Ġáī¥áĭµáĪĨáī³áīµ": 7432,
      "ĠáīłáĮ½áĪĲ": 7433,
      "op": 7434,
      "áĭŃáĪĭ": 7435,
      "ĠáĬ£áĬŃ": 7436,
      "áĪĭáĪħ": 7437,
      "áĬ½áī¥áĪ®": 7438,
      "áĬ¸áĪµ": 7439,
      "áĭĭáĬķáĬķ": 7440,
      "áĮłáīħáĪµ": 7441,
      "ĠáĬ«áĪįáĬ¦áīµáĬķ": 7442,
      "áĮĲáĭµ": 7443,
      "ĠáĮĵáĪĪáĭŃ": 7444,
      "ĠáĭŃáīķáĪ¨áī³": 7445,
      "ĠáĪķáĭ«áĭĭáĭŃ": 7446,
      "ĠáĪµáĪ«áĪĵáīµ": 7447,
      "áĪķáĪī": 7448,
      "áĪĽáĬ¥": 7449,
      "áĪĥáĭµáĪĿ": 7450,
      "ĠáįįáĪĪáĮ¥": 7451,
      "ĠáīħáīµáĪĪáīµ": 7452,
      "áĪ«áĭŃáĬķ": 7453,
      "ĠáĪĺáĮ½áĬĵáĭķ": 7454,
      "ĠáĪ«áĭķ": 7455,
      "Ġáī¥áĪ©áĬ½": 7456,
      "ĠáĮĨáĬķ": 7457,
      "áĪįáĪĿáĬķ": 7458,
      "áĭįáĭį": 7459,
      "áīħáĬ»": 7460,
      "ĠáĬłáĪ¨": 7461,
      "ĠáĪĿáĪ³áĬ¹áĪĿ": 7462,
      "Ġáįĭáī¥áĪªáĬ«": 7463,
      "áĪĿáī£áĪ²": 7464,
      "ĠáĪĵáĪ¨áĪµáī³áĭŃ": 7465,
      "ĠáīµáĬķáĪ£áĬ¤": 7466,
      "áĬĵáĭį": 7467,
      "ĠáĬ¥áĭµ": 7468,
      "ĠáĬ£áī¥áĪª": 7469,
      "áĬ½áĪª": 7470,
      "ĠáĭĪáĪĵáĭ°": 7471,
      "ĠáĭĪáĬ¨áĪįáī²": 7472,
      "ĠáĭįáĭĴáĪī": 7473,
      "áĭ±áī¥": 7474,
      "ĠáĭĿáĬĲáīłáĪ¨áĬĴ": 7475,
      "ĠáĬĲáįįáĪ°áĭŃ": 7476,
      "ĠáĪ°áĪĭáĪĿáī³": 7477,
      "ĠáĮĪáĮ½áĬ«": 7478,
      "ĠáĬ£áĬ½áī¥áĪ®": 7479,
      "ĠáĬ£áĭĺáĪ«áĪŃáī£": 7480,
      "Ġáī°áĪĺáĪįáĪ±": 7481,
      "ub": 7482,
      "ĠáĬ£áĮłáīĵ": 7483,
      "ĠáĬĲáįĥ": 7484,
      "ĠáĬ»áĪħáĬĵáīµ": 7485,
      "ĠáĬłáī¥áī²": 7486,
      "ĠáĬķáĪħáĭŃáĭĪ": 7487,
      "ĠáĪ°áī¥áĬ£áĭ«": 7488,
      "ĠáĪįáĪĿáĪĿáĭµ": 7489,
      "ĠáĪ°áĭŃáįĬ": 7490,
      "ĠATV": 7491,
      "ĠáĭĺáįįáīĢ": 7492,
      "ĠáĭĺáĬ«": 7493,
      "áĪħáĪª": 7494,
      "ĠáĬĵáī¥áī¶áĪĿ": 7495,
      "ĠáĬªáĪĺáĮ½áĬ¥": 7496,
      "ĠáĪļáĭµáĭ«": 7497,
      "ĠáĬ£áĪµáĪĽáīµ": 7498,
      "ĠáĭĿáįĪáī±": 7499,
      "áĪ¨áĪĻ": 7500,
      "áĬ¸áĬ£": 7501,
      "Ġáĭ°áĭĬ": 7502,
      "ĠáĬŃáīµáĪĵ": 7503,
      "áīĨáīµ": 7504,
      "áĪģáĬķ": 7505,
      "ĠáĪ¸áĪĪáĪį": 7506,
      "ĠáĬ¥áĭļáĬ£áī°áĬķ": 7507,
      "Ġáī°áĬ£áĪĿáĪŃ": 7508,
      "ĠáĬŃáĪŃáĬł": 7509,
      "ĠáĮ£áĪįáĭ«áĬķ": 7510,
      "ĠáįįáĪįáĮłáīµáĬķ": 7511,
      "Ġáĭ°áīģáĬķ": 7512,
      "ĠY": 7513,
      "áĪªáī±": 7514,
      "ĠáĬŃáīµáĭµ": 7515,
      "ĠáĬŃáĬķáĪĿáĪĪáĪµ": 7516,
      "Ġáī£áĭ¶": 7517,
      "áĪĳáįį": 7518,
      "ĠáĭľáĪĽ": 7519,
      "ĠáĬ£áī£áĬ»áīµáĬ©áĪĿ": 7520,
      "ĠáĪĿáĪŃáĬ¢áīµ": 7521,
      "ĠáĪĵáĪĪáįĭ": 7522,
      "áĪ«áĬ¥áĭ¨": 7523,
      "ĠáĬķáĪĺáĪµ": 7524,
      "áĪĵáĭµáĪķ": 7525,
      "ĠáĪ°áĪ¨áĮĪ": 7526,
      "áĪħáĭĿ": 7527,
      "Ġáī¤áī³": 7528,
      "ĠáĭĿáīłáĪĪáīµ": 7529,
      "Ġáī£áĪħáĪŃáĭŃ": 7530,
      "áī¬": 7531,
      "Ġáī¥áīķáĬķ": 7532,
      "áĭįáĬķáĬķ": 7533,
      "áĪĥáĪĥ": 7534,
      "ĠáĬ£áĪİáĬ¹áĪĿ": 7535,
      "ĠáĪĿáĬ¥áĪĺáĬĵáĬķ": 7536,
      "ĠáĪĿáįįáĪį": 7537,
      "ĠáĪĺáĪ¨áĮĭáĮĪáĮº": 7538,
      "Ġ@": 7539,
      "áĪŃáī£áĭķáī°": 7540,
      "Ġáī¥áĭĭ": 7541,
      "ĠáįįáĬķ": 7542,
      "áīĢáĪ³áīĲ": 7543,
      "ĠáĮīáĪį": 7544,
      "áĮĪáĪįáĬ«áĬķ": 7545,
      "ĠáĪ³áĬķ": 7546,
      "áĬ£áīµáĬĵ": 7547,
      "ĠáĪĿáĪĿáĪµ": 7548,
      "ĠáĬ£áīķáĪª": 7549,
      "ĠáĪĺáīłáīĨ": 7550,
      "áĪĥáĭŃáĪĽáĬĸ": 7551,
      "ĠáĪ°áĭ²áĪħáĬ¤": 7552,
      "Ġáįįáīĵáĭ°áĬĽ": 7553,
      "áīłáĭµ": 7554,
      "áįįáĬ¥": 7555,
      "ĠáĭŃáĬŃáĬ¥áĪį": 7556,
      "ĠáĬŃáīµáĭĽáĪ¨áī¥": 7557,
      "áįĭáįĬ": 7558,
      "ĠáĮ½áĪĭáĪį": 7559,
      "ĠáĬ¤áĪµ": 7560,
      "áĪ¨áĬ½áīłáĪī": 7561,
      "ĠáĮĪáĭŃáĪŃáĬĵ": 7562,
      "ĠáĪĿáĭįáĭ³": 7563,
      "Ġáī´áĪĮ": 7564,
      "ĠáĭĿáīłáĪįáĬ«áĭ®": 7565,
      "ĠáĪģ": 7566,
      "ĠáĪĺáī°áĬ«": 7567,
      "áĪĺáĮ»": 7568,
      "Ġáī°áĭĺáĪ«": 7569,
      "áĪ®áĪŀ": 7570,
      "áĪµáĭķáī¦": 7571,
      "ĠáĪĻáĪ´áĬķ": 7572,
      "Ġáĭ³áĮįáĪĺ": 7573,
      "ĠáĮŃáĪŃáĪĸ": 7574,
      "áĭ²áĬķ": 7575,
      "áī¥áĪŃáĪĥáĬķ": 7576,
      "áĪµáī²áī«áĪį": 7577,
      "Ġáī£áĪħáĪįáĬķ": 7578,
      "ĠáĪĭáĭŃ": 7579,
      "ĠáĪĭáĭķ": 7580,
      "ĠáĮĪáīłáĪŃáĬ©áĪĿ": 7581,
      "Ġáĭ©áĬĴáī¨áĪŃáĪµáī²": 7582,
      "ĠáĭŃáĮįáī¥áĬ¦": 7583,
      "ĠáĪķáĮ»áĬĵáīµ": 7584,
      "ĠáĬ®áĪ®áĬĵáī«áĭŃáĪ¨áĪµ": 7585,
      "áĪĿáī¥": 7586,
      "áīłáĭŃáĬĳ": 7587,
      "áĬ£áĭŃáĬķ": 7588,
      "áĪ¨áĭ³": 7589,
      "áĪ¨áī¦": 7590,
      "Ġáī°áĭĺáĭŃ": 7591,
      "áĭĿáĬ«": 7592,
      "ĠáĭµáĪķáĬķ": 7593,
      "ĠáīµáĭĪ": 7594,
      "ĠáĪĥáĪ¨áĪŃ": 7595,
      "Ġáī¤áīµáĬĵ": 7596,
      "áĪħáĪįáĭī": 7597,
      "Ġáī°áīĲáĪĽ": 7598,
      "ĠáĬ¨áĪĿáĭĺáĭŃáĬ®áĬĲ": 7599,
      "ĠáīħáĪŃáĮº": 7600,
      "ĠáĬķáĭĤáĪī": 7601,
      "Ġáī¥áĭįáĪĳáĭ±": 7602,
      "ĠáĬ£áĭŃáĬŃáĪĵáĭµáĮĪáĪįáĬ«áĬķ": 7603,
      "Ġáĭª": 7604,
      "ĠáĮĪáĭ°áī¥": 7605,
      "Ġáĭ¨áĭµáĪį": 7606,
      "ĠáĬªáĭ±": 7607,
      "ĠáĬ£áĪĿáĪĭáĬ½áĬ©áĪĿ": 7608,
      "ĠáĬłáĪĪáĭİ": 7609,
      "Ġáī¥áĪĿáĭµ": 7610,
      "ĠáĭĪáĪĪáĭµ": 7611,
      "ĠáĭĺáĭŃáĬ®áĬĳ": 7612,
      "ĠáĬ´áĬķáĬ«": 7613,
      "ĠáĬ£áĪĵáīµáĬķ": 7614,
      "ĠáĭĿáī°áĮĪáīłáĪ¨": 7615,
      "áīĵáīķ": 7616,
      "ĠáĬķáī¥áĭĺáĪİ": 7617,
      "ĠáĮŃáī¡áĮ¥": 7618,
      "ĠáĬ£áĪľáĪªáĬ«áĬķ": 7619,
      "Ġáī¥áĭĵáī¢": 7620,
      "ĠáĪħáĪĭáĭĪ": 7621,
      "Ġáįįáīĥáĭµ": 7622,
      "ĠáĬŃáĬ½áĬ¥áĪį": 7623,
      "áĪ«áĭµ": 7624,
      "ĠáĬ£áĭŃáīĢ": 7625,
      "ĠáĪħáĮį": 7626,
      "ĠáĭĺáĭŃáĬ¨": 7627,
      "ĠáĪµáĮĭáī¥": 7628,
      "ĠáĬ£áĭĴáĬķáīµ": 7629,
      "áĪŃáĬ©": 7630,
      "ĠáĭĿáĪĵáīµáīµ": 7631,
      "ĠáĬ¨áĪŃ": 7632,
      "ĠáĭµáĪĵáĬķ": 7633,
      "ĠáĭĵáīĲáĬķ": 7634,
      "Ġáīµáįħ": 7635,
      "Ġáīłáī°áĬķ": 7636,
      "ĠáĭĿáī°áĪ¨áĬ½áīł": 7637,
      "ĠáĬªáĭį": 7638,
      "Ġáī¥áĪµáĪĺáĭŃ": 7639,
      "ĠáĬķáĭĪáĭ±": 7640,
      "áĪĽáĪĿáĭĳ": 7641,
      "Ġáī¥áĭķáĪĪáīµ": 7642,
      "ĠáĪĺáĪ¸áįĪáĬĴ": 7643,
      "ĠâĨĴ": 7644,
      "Ġáī¥áĪĥáĬķáĭ°áīłáīµ": 7645,
      "ĠáĪĿáĪħáĪŃáī²": 7646,
      "áīµáĪį": 7647,
      "áĪŃáĬ½": 7648,
      "ĠáĬķáīĢ": 7649,
      "áĪĵáįī": 7650,
      "ĠáĬ£áĭŃáī¥áĪįáĬķ": 7651,
      "ĠáīłáĪŃáīµ": 7652,
      "ĠáĭļáĮįáī¥": 7653,
      "ĠáĭĵáĪĺáīµáĬķ": 7654,
      "áĪĭáīµáĬĴ": 7655,
      "ĠáĪ¨áī¡áĭķ": 7656,
      "áīĨáī¥áĬķ": 7657,
      "Ġáī°áĭĪáĪ°": 7658,
      "áīªáĭ¥áĬķ": 7659,
      "ĠáįĪáĪĬáĮł": 7660,
      "Ġáī¥áĬ½áī¥áĪª": 7661,
      "ĠáĬŃáĬ¢áĪĭ": 7662,
      "ĠáīĢáĭŃáĭ²": 7663,
      "áĭĵáĪĺáī±": 7664,
      "ĠáĭĿáĭĵáĭŃáĬĲáī±": 7665,
      "Ġáī°áĮİ": 7666,
      "ĠáĭŃáĬ«": 7667,
      "Ġáĭĵáĭ¶áĪĿ": 7668,
      "ĠáīĥáĪįáĪµáĬĵ": 7669,
      "áĮ¸áĬķáĪĳ": 7670,
      "ĠáĬĲáįįáĪµáĭĪáĬ¨áįį": 7671,
      "ĠáįĭáĭŃáĬĵáĬķ": 7672,
      "ĠáĮĥáįĵáĬķ": 7673,
      "áī°áĬ½": 7674,
      "áĭµáĪĪ": 7675,
      "áĪĵáīĲ": 7676,
      "áīķáĬ©áĪĿ": 7677,
      "Ġáĭļáĭ°áĪĬ": 7678,
      "ĠáįĢáĪĵáĭŃ": 7679,
      "ĠáĭįáĪ³áĬĲáī³áīµ": 7680,
      "ĠáĬ£áĭļáĬĵ": 7681,
      "ĠáīµáĬ¹áĪ¨áīµ": 7682,
      "áī°áĭį": 7683,
      "áĪ¨áĬº": 7684,
      "áĭįáĭĸ": 7685,
      "áĭĿáĬĲáīµ": 7686,
      "ĠáīµáĪ¨áĬŃáī¥": 7687,
      "ĠáĮ¸áĪĭáĬ¥áī²": 7688,
      "áĮ£áĭŃ": 7689,
      "ĠáĬ£áĪµáī°áī¥": 7690,
      "áĪĿáĬĲáĮĪáĪŃ": 7691,
      "ĠáĪĺáĪŃáĮĪáĮº": 7692,
      "ĠáĪĺáĭ²": 7693,
      "ĠáĭŃáĪĿáĪµ": 7694,
      "ĠáĪĺáĪįáĪ±": 7695,
      "ĠáĮĪáĭĽáĭŃ": 7696,
      "Ġáĭ°áĪŃáĮĬ": 7697,
      "ĠáĪ½áĮįáĪ«áīµ": 7698,
      "áī¥áĪĬáĬŃ": 7699,
      "áĬĵáĮ½": 7700,
      "ĠáīħáĪ³": 7701,
      "áĮĢáĪŃ": 7702,
      "áĮĪáĭĿáĬ¡": 7703,
      "ĠáĪĪáĭįáĮ¥áī³áīµ": 7704,
      "ĠáĪ¶áĪĽáĪį": 7705,
      "ĠáĮ«áįį": 7706,
      "ĠáīµáĮįáĪ«áĭĭáĭŃ": 7707,
      "BC": 7708,
      "ĠáĪĺáĭį": 7709,
      "ĠáĬĵáĮ½": 7710,
      "ĠáĭŃáĬ£áĬ½": 7711,
      "ĠáīµáĮĪáĪįáĮ½": 7712,
      "Ġáĭ¨áĮĭáĮ¥": 7713,
      "ĠáĬŃáĬķáĪ¨áĬŃáī¥": 7714,
      "ĠáĬ¤áĪ¨áīµ": 7715,
      "ĠáĪİáĪĿ": 7716,
      "ĠáĬķáĭĵáĬ»áīµáĬ©áĪĿ": 7717,
      "ĠáĮ½áī¡áīķáĬķ": 7718,
      "ĠáĬ£áĪŃáĬ£áĭ«": 7719,
      "ĠáĬ¨áĪĽáĬ»": 7720,
      "ĠáĪļáĬ¢áī³áĭĬáīµ": 7721,
      "ĠáĭľáĮįáĬĲáīµ": 7722,
      "áĪĿáĪķ": 7723,
      "áĭ°áĪĭáīµ": 7724,
      "ĠáĭĺáīłáĪī": 7725,
      "áĭĵáīł": 7726,
      "Ġáĭ°áĪ¨": 7727,
      "ĠáīĢáĪ¨áī¥": 7728,
      "ĠáĪĪáĪļ": 7729,
      "ĠáĪĥáĮĪáĪ«": 7730,
      "Ġ46": 7731,
      "ĠáĬĲáĮĪáĪ¨": 7732,
      "áĪĥáĬķáĮ½": 7733,
      "ĠáĮĪáĬķáĭĺáī£áĭĬ": 7734,
      "áī°áĪĵáī£": 7735,
      "ĠáĪ¥áĪįáĮ£áĬķ": 7736,
      "ĠTag": 7737,
      "Ġáī°áĪĽáĪĤáĪ¨": 7738,
      "oo": 7739,
      "áĬķáī°áĪŃ": 7740,
      "ĠáĬ£áĬºáĪī": 7741,
      "Ġáĭ°áī¡": 7742,
      "ĠáĭĿáī°áĭį": 7743,
      "ĠáĬķáĪĿáĪį": 7744,
      "ĠáĬŃáįįáĪĪáĮ¥": 7745,
      "ĠáĬ£áĭŃáī°áīĲ": 7746,
      "ĠáĪĻáĪµ": 7747,
      "ĠáĬŃáĪħáĪįáĭĪáĬ«": 7748,
      "ĠáĪĺáĭĵáĪµáĬ¨áĪŃ": 7749,
      "ĠáĬ£áĭĴáĬķáī¶áĪĿ": 7750,
      "ĠáĬ£áĭįáĪµáīµáĪ«áĪįáĭ«": 7751,
      "ĠáĬ£áĪĵáīµ": 7752,
      "ĠáĭĿáīħ": 7753,
      "áĮĪáĪĭ": 7754,
      "Ġáī°áĬ¾": 7755,
      "ĠáĭĵáīłáĭŃ": 7756,
      "áīµáĬķáĪµáĬ¥": 7757,
      "ĠáĬŃáīµáĬ¨": 7758,
      "ĠáĬŃáĬķáĪ°áĪŃáĪķ": 7759,
      "ĠáĬ£áĭŃáīµáĪ¨áĪµ": 7760,
      "Ġáī°áĪĺáĭĿáĮĬ": 7761,
      "ĠáĭĿáĬ£áī°áĭĪ": 7762,
      "ĠáĪĺáĮºáĬ¥áĬ«": 7763,
      "ĠáĬķáĬłáĪĿáĪĭáĬ½": 7764,
      "Ġli": 7765,
      "áĪįáī³": 7766,
      "ĠáĬķáĬŃáĪŃáĪµáī¶áĪµ": 7767,
      "Ġáī°áĬł": 7768,
      "áĭĿáĭİ": 7769,
      "ĠáĪĺáĬķáĮĲ": 7770,
      "ĠáīĢáĭ²": 7771,
      "ĠáĭĿáīłáĪİáĪĿ": 7772,
      "ĠáĭįáĪ½áĮ¡": 7773,
      "áĮ¸áĬķáĪĲ": 7774,
      "ĠáĪ°áĪªáĪĳ": 7775,
      "ĠáĭĿáī°áĭĭáĪħáīł": 7776,
      "Ġáĭ°áīħáĬĵ": 7777,
      "ĠáĪĺáĬķáĮįáĪµáīµáī³áīµ": 7778,
      "áī°áī£áĭķ": 7779,
      "ĠáĪĿáĭŃáĭŃ": 7780,
      "ĠáĭĺáĮĪáĭµ": 7781,
      "áĮ¥áĭİ": 7782,
      "ĠáĬķáĪĿáĮ½": 7783,
      "ĠáĬ¤áįĮ": 7784,
      "ĠáĬ£áĭŃáīµáĪ¨áĪµáĭķ": 7785,
      "ĠáĭĿáĪĵáĪ°": 7786,
      "ĠáĬ£áīµáĭ¨": 7787,
      "áĪĥáīłáĬĵ": 7788,
      "ðŁĺ": 7789,
      "ĠáĪ³áĪįáĪķ": 7790,
      "ĠáĪĭáĭķáĪĪáĭİáīµ": 7791,
      "ĠáīµáĭĬáī°áĪŃ": 7792,
      "áī²áĬ¨": 7793,
      "áĮłáĪį": 7794,
      "ĠáĬ£áĪĪáĬ©": 7795,
      "ĠáĪŃáĭµ": 7796,
      "ĠáĪļáĬ¢áī³áĭĬ": 7797,
      "ĠáĬ¸áĪĿáī²": 7798,
      "ĠáĬ£áĪµáįĬ": 7799,
      "ĠáĬķáĪĺáĪĭáĬ¥": 7800,
      "áĭ´áĪ«": 7801,
      "Ġáī¥áįģáĭķ": 7802,
      "ĠáĬ¥áī±": 7803,
      "ĠáĪĿáįħ": 7804,
      "áĭ¨áĪĿ": 7805,
      "ĠáīĢáĭĭáĪļ": 7806,
      "áĪ¨áĬ½áī¦áĪĿ": 7807,
      "ĠáīłáĪĪáĪµ": 7808,
      "ĠáĬ¨áĪİáĬ»": 7809,
      "áĬ¨áĭįáĬķáĬķ": 7810,
      "ĠáĪĵáĪ³áī£": 7811,
      "ĠáĬķáĪĿáĪŃáĮįáĮĭáĮ½": 7812,
      "ĠáĮįáĭ³áĪĿ": 7813,
      "áĭ¨áĬ©áĪĿ": 7814,
      "áĭ¨áĪĪáĭŃ": 7815,
      "áĬĳáĬ¤áĪį": 7816,
      "Ġáĭ¨áįįáīħ": 7817,
      "ĠáĪĺáĬķáĮĪ": 7818,
      "ĠáĭļáĬĲ": 7819,
      "áĬłáĪŃ": 7820,
      "ĠáĬłáĭļ": 7821,
      "ĠáĬķáĪĿáĪīáĬ¥": 7822,
      "Ġáī¥áĪĵáĬķáī²": 7823,
      "ĠáĬ½áĬķáĭ°áĭŃ": 7824,
      "ĠáĮ¸áĬĴáĪĲ": 7825,
      "ĠáĪ¨áĬºáī¥áĬĵ": 7826,
      "ĠáĬĵáī£áĬĵ": 7827,
      "ĠáĬķáĬºáĭµ": 7828,
      "ĠáĪĺáĬ«áĭŃáĬķ": 7829,
      "ĠáĭĿáĪĥáīłáĬĵ": 7830,
      "ĠáĬķáĪĿáī¥áĮ»áĪķ": 7831,
      "Ġv": 7832,
      "Ġáĭĺáīµ": 7833,
      "ĠáĬĲáĬĵáī¥": 7834,
      "ĠáĮįáĪªáĬ½": 7835,
      "ĠáĬ£áĭŃáĮį": 7836,
      "ĠáĭĵáĭŃáĬĳ": 7837,
      "áĮĭáĪª": 7838,
      "áī±áĪŃ": 7839,
      "ĠáĭĿáī°áĭ³áĪĪáĭĪ": 7840,
      "ĠáīħáĪįáĮ¡áįį": 7841,
      "ĠáĭĿáīłáĪĥáĪī": 7842,
      "áĪįáĬ«áĭĬ": 7843,
      "Ġáĭľáįįáīħ": 7844,
      "áĭ³áĬķáīµ": 7845,
      "Ġáī¥áĪįáĪ½": 7846,
      "Ġáī¥áĪ¸": 7847,
      "ĠáĬ¨áĪµ": 7848,
      "áĮ¥áĬ«": 7849,
      "ĠáĭķáĮį": 7850,
      "áīµáĭ®áĮµáĭ«": 7851,
      "ĠáĮīáĮħáĪĪáī³áīµ": 7852,
      "ĠáĪ¨áĬ£áĬ¹": 7853,
      "Ġáĭ¨áĪĽáĬĲ": 7854,
      "áĪĿáĬĳ": 7855,
      "áĪŃáĪŃ": 7856,
      "ĠáĭĺáĬ«áĭ¨": 7857,
      "áīĢáī¥": 7858,
      "Ġáī¥áĪĿáĮ¥": 7859,
      "Ġáĭľáī¥áĪį": 7860,
      "áī¥áĪ«áĭįáĭ«áĬķ": 7861,
      "ĠáĮĪáīłáĬĵáīµ": 7862,
      "ment": 7863,
      "ĠáĬ£áī¤": 7864,
      "áĪ«áĬķáĬķ": 7865,
      "áĬ½áīµ": 7866,
      "áįĪáīķ": 7867,
      "ĠáĭĵáĪĽ": 7868,
      "Ġáĭĵáĭ«": 7869,
      "áĬ¨áī±": 7870,
      "áĮ¸áĪĭ": 7871,
      "ĠáĭĿáī°áĭĺáĪŃ": 7872,
      "ĠáĭķáĪµáĪ«": 7873,
      "ĠáīĢáĮ¥": 7874,
      "ĠáĬ¥áĪĿáīłáĬ£": 7875,
      "ĠáĬ¥áīµáĭ°áĪĬ": 7876,
      "áįĢáīµ": 7877,
      "ĠáĭŃáĪķáĪ¸": 7878,
      "ĠáĭĿáĮĪáīłáĪŃáĭİ": 7879,
      "áĪ¨áĮĭáĮĪáĮ½": 7880,
      "ĠáĮįáĪįáĮĭáĪİáīµ": 7881,
      "ĠáĬ£áĬ¸": 7882,
      "ĠáĬŃáĮ¸áĬķáĪķ": 7883,
      "áĪĽáĪĽáĭķ": 7884,
      "ĠáĭĺáĭµáĪįáĭ®áĪĿ": 7885,
      "ĠáĭŃáĮĪáĪįáĮ¹": 7886,
      "ĠáĬ¢áĭ¶áĪĿ": 7887,
      "ĠáĭµáĮĭáįį": 7888,
      "áĮ¥áīłáī¥": 7889,
      "Ġáī¥áĪĿáĪĥáī¥": 7890,
      "ĠáĭĺáĪĪáĭİáĬķ": 7891,
      "áĮ¨áĬķ": 7892,
      "ĠáĬķáĮ½áī¥": 7893,
      "ĠáĭŃáĪĺáĪµáĪĪáĬ«": 7894,
      "ĠáĪĿáĪĿáĪķáĭ«áĪ½": 7895,
      "ĠáĬŃáĭ³áĭįáĬķ": 7896,
      "Ġáī°áĪ°áĪļáĭĳáĬĴ": 7897,
      "Ġáī°áīĲáī²áĪİáĪĿ": 7898,
      "ĠáĬķáĮĭ": 7899,
      "Ġáī¥áī£": 7900,
      "ĠáĪĿáĮŃ": 7901,
      "ĠáĪ°áĭ°": 7902,
      "ĠáĪµáĬĴ": 7903,
      "ĠáĮįáĭĻ": 7904,
      "áĭ³áĬ¢": 7905,
      "áĬ©áĭİáĬķ": 7906,
      "ĠáĬ¸áĪ¨áĬķ": 7907,
      "ĠáĭļáĮĪáī¥áĪ®": 7908,
      "ĠáĮĪáĪĬáĪĭ": 7909,
      "ĠáĬ£áĮĭáĬķ": 7910,
      "Ġáįįáīĵáĭ±": 7911,
      "Ġáī¥áīĲáĭ³áĪĿáĬĲáīµ": 7912,
      "ĠáĭĿáī°áįĪáĪĪáĭ¨": 7913,
      "Ġáī¥áĮ¸áĮĭ": 7914,
      "ĠáĭĿáĪĺáĪµáĪĪáĬĴ": 7915,
      "áĬķáīĽ": 7916,
      "ĠáĬķáĬ¡": 7917,
      "áĭµáĬĲáīµ": 7918,
      "áĭ³áĪĽáĭŃ": 7919,
      "ĠáĬªáīĲáīµ": 7920,
      "ĠáĪĿáĭĥáĬķáĬĵ": 7921,
      "ĠáĪĵáīłáĪ¬áī³áĬķ": 7922,
      "ĠáĬ£áĮĭáĮ£áĪļáī³áīµ": 7923,
      "ĠáĬ¥áĬķáĮįáĪĬáĭĿáĬĽ": 7924,
      "ĠáĪĪáī£áĪĿ": 7925,
      "ĠáĭŃáĮĪáī¥áĪ¨": 7926,
      "ĠáĬ¥áĬķáĪµ": 7927,
      "Ġáįī": 7928,
      "ĠáĬªáī¥áĪĥáĪį": 7929,
      "áĬ¤áĪĭáĭįáĭ«áĬķ": 7930,
      "ĠáĬ£áĬķáīł": 7931,
      "ĠáĭĿáĭĪáĪĪ": 7932,
      "ĠáĪĺáĭ°áīłáĪŃ": 7933,
      "ĠáĬķáī¥áĮ»": 7934,
      "ĠáĪĿáīķáī£áĪį": 7935,
      "ĠáĪĵáī°áī¶": 7936,
      "ĠáĭŃáĬĲáĮįáĪ¨áĬĵ": 7937,
      "Ġáī¥áĮĪáĭĽáĬ¥": 7938,
      "ĠáĪµáĪįáĮ£áĬĳ": 7939,
      "ĠáĬķáĪ¨áĬŃáī¥": 7940,
      "áįįáĪµ": 7941,
      "áĮĪáĪ±": 7942,
      "ĠáĬ£áĭŃáĪ¨": 7943,
      "Ġáīłáĭ¨": 7944,
      "ĠáĭļáĪĺáĪµáĪį": 7945,
      "ĠáĬ¤áĪĪ": 7946,
      "ĠáĬ¥áīµáĮĪáī¥áĪŃ": 7947,
      "ĠáĬ¨áĪĿáĭļáĬ¦áĪĿ": 7948,
      "ĠáĪĺáĭµáĬĥ": 7949,
      "ĠáĬ¥áĪĿáĬĲáīµáĬĵ": 7950,
      "ĠáĭĿáĪĪáĬ£áĬ¸": 7951,
      "ĠáĪĦáĬķ": 7952,
      "áĮłáĪ«áĮ¥áĪŃ": 7953,
      "Ġáī¥áĬ¢áĭµ": 7954,
      "áĪŃáĭĿáĪŃ": 7955,
      "áīłáĪ«áĭĬ": 7956,
      "ĠáĬŃáĪ°áĪĿáĭķ": 7957,
      "áĬ£áĬ¹": 7958,
      "Ġáī°áĭĽáĪ¨áīł": 7959,
      "ĠáĭŃáī£": 7960,
      "ĠáĬ¢áĪįáĬª": 7961,
      "áĭ®áĪĥáĬķáĪµ": 7962,
      "ĠáįĪáĪĪáĮ¥": 7963,
      "ĠáĬ¦áĪªáīµ": 7964,
      "áĬķáĬª": 7965,
      "ĠáĬ£áĪĺáĬķ": 7966,
      "ĠáĪĿáĪ©": 7967,
      "áĭĪáĪ¨": 7968,
      "ĠáĬ£áĭŃáįĭáĪį": 7969,
      "ĠáĭĵáĪ¨": 7970,
      "ĠáĬ¸áī£áī¢": 7971,
      "ĠáĭĢáĭŃáĬĸáĪĿ": 7972,
      "ĠáĬŃáĪħáīłáĬ«": 7973,
      "Ġáī¥áĪĺáĬķáįĪ": 7974,
      "ĠáĬ£áĪķáĭĭáīµáĬĵ": 7975,
      "ĠáĭĪáĮºáĬ¦áĪĿ": 7976,
      "ĠáįĮáĪµáī¡áĬŃ": 7977,
      "ĠáĬ£áĪµáĭĴáī¡": 7978,
      "ĠáĬŃáĬŃáĬŃáĬŃáĬŃ": 7979,
      "ĠáĪĺáī°áĬ«áĬ¥áī³": 7980,
      "áĭŃáĪµ": 7981,
      "áĭµáīģ": 7982,
      "Ġáĭ°áĬĵ": 7983,
      "ĠáĬ©áĪį": 7984,
      "ĠáĬªáĮĪáī¥áĪ©": 7985,
      "ĠáĮ½áĪŃáĮį": 7986,
      "ĠáĬ£áĭŃáīµáĪµ": 7987,
      "áĮĢáĭį": 7988,
      "ĠáĬķáĭĵáĬº": 7989,
      "áĪĿáĪŃáī²": 7990,
      "áĭħáĪª": 7991,
      "Ġáī°áĮĪáĭ³": 7992,
      "Ġáī°áĮłáīĤ": 7993,
      "ĠáĬ£áĭŃáĬĲáīłáĪ¨áĬķáĬķ": 7994,
      "Ġáī°áĭĵáĭĺ": 7995,
      "ĠáĭĿáĮłáīĲ": 7996,
      "ĠáĪĵáī²áī±": 7997,
      "Ġáĭ¨áĪĽáĬĵáĭŃ": 7998,
      "Ġáī°áĬ½áĪĬ": 7999,
      "Ġáī°áĮĵáĭĴ": 8000,
      "áĪĬáĬ»": 8001,
      "áīħáī²": 8002,
      "ĠáĮłáī£áĭŃ": 8003,
      "ĠáĬķáĭĵáĬ£": 8004,
      "ĠáĮĪáĭĽáĭįáī²": 8005,
      "Ġáĭ°áĮĬáĪĺ": 8006,
      "áĬ£áĪĿáĬķáĬķ": 8007,
      "Ġáī¥áĬ½áĪįáī°": 8008,
      "ĠáĬ£áĮłáĬķ": 8009,
      "ĠáĬķáĬŃáĬķ": 8010,
      "Ġáī¸": 8011,
      "ĠáĭŃáĮĪáĪį": 8012,
      "ĠáĭŃáī¥áĪĭ": 8013,
      "áĪĻáīµ": 8014,
      "Ġáī£áĬ¥áī³": 8015,
      "áĮĮáĮĭ": 8016,
      "ĠáĬ£áīĲáĭ²áĪĺ": 8017,
      "ĠáĬ£áĭŃáĪ°áĪĽáĭķ": 8018,
      "ĠáĮĭáĭľáĮłáĬĽáī³áīµ": 8019,
      "ĠáĪķáĮ½áĪ¨áīµ": 8020,
      "áī¥áĬ»": 8021,
      "Ġáī¥áīģ": 8022,
      "ĠáĬŃáī¥áĪĥáĪį": 8023,
      "áī£áĪĭáīµ": 8024,
      "áĭ°áī£": 8025,
      "áĪ³áĪ°áĪŃ": 8026,
      "áĭĭáĪį": 8027,
      "ĠáĪµáĪĪáī²": 8028,
      "ĠáĮĲáĭ°áĬĵ": 8029,
      "ĠáĪĺáĪŃáĮĪáĪĿ": 8030,
      "ĠáĬ£áĪľáĬķ": 8031,
      "ĠáĭĿáĮįáīłáĬ¦": 8032,
      "ĠáĬ´áĬķáĬĵ": 8033,
      "áĮ¶": 8034,
      "ĠáĬ£áįķ": 8035,
      "áĪ¨áĪ¨": 8036,
      "áĭĵáī±": 8037,
      "ĠáĪµáĪĽ": 8038,
      "ĠáĪĥáĭ²": 8039,
      "áĪ¨áĬ½áī¥áĭİ": 8040,
      "ĠáĪĿáĭĥáĬĳáĬķ": 8041,
      "ĠáĬ¢áĬķáī¨": 8042,
      "ĠáĮ¨áĭį": 8043,
      "ĠáĬ¥áĭĭáĭŃ": 8044,
      "Ġáī°áĪįáĬ¥áĬ¾": 8045,
      "ĠáĬķáįĭ": 8046,
      "ĠáīĦ": 8047,
      "áĪĵáīħ": 8048,
      "áĬŃáĭĳ": 8049,
      "áĬŃáĭĴ": 8050,
      "Ġáīłáĭ²": 8051,
      "ĠáĬłáĭ¨": 8052,
      "Ġáī¥áĭĿáĮįáī£áĬ¥": 8053,
      "ĠáĬ£áĭ¨áĬĸáīµ": 8054,
      "Ġáī°áĭ³áĪįáĭ©": 8055,
      "ĠáĭŃáĬ¹áĬĳ": 8056,
      "ays": 8057,
      "ĠáĭŃáĪģáĭ³áĬķ": 8058,
      "ĠáĬ£áĪ«": 8059,
      "Ġáī¥áĬł": 8060,
      "ĠáĭŃáĪ½": 8061,
      "ĠáĬ¢áĪįáĭİ": 8062,
      "ĠáĬ¤áĪĮ": 8063,
      "ĠáĬ£áĭ¨áĭµáĪįáĬķ": 8064,
      "Ġ500": 8065,
      "ĠáĬ£áĭĴáĬķáī±": 8066,
      "áĬ«áĭŃáĭ¶": 8067,
      "ĠáĪ¬áĭµáĭ®": 8068,
      "40": 8069,
      "ki": 8070,
      "ĠáĭĿáĭĽáĪ¨áī¡": 8071,
      "áĬ¥áĪŀ": 8072,
      "áĭ°áīĤ": 8073,
      "ĠáĮįáĪ©áĪĿ": 8074,
      "áĬĴáĭ«": 8075,
      "ĠáĮĪáįħ": 8076,
      "áĮĢáĬķ": 8077,
      "áĪ¨áĬ¸áī¡": 8078,
      "ĠáĪ©áī£": 8079,
      "ĠáĪĺáĭµáĪķáĬķ": 8080,
      "ĠáĪĿáĬĵ": 8081,
      "Ġáī°áįĥ": 8082,
      "ĠáĪĵáĪ¨áĮį": 8083,
      "ĠáĮĪáĮ¢": 8084,
      "ĠáĭķáĪĽ": 8085,
      "áīĥáī¥": 8086,
      "Ġáī¥áĪĿáĭķ": 8087,
      "áĪŃáĭµáĬ¡": 8088,
      "ĠáĬ¢áīµáĭ®áĮµáĭ«áĭįáĭ«áĬķ": 8089,
      "ĠáĬ£áįĪáĪĭáĪĭáĭŃ": 8090,
      "áīłáĭĿáĪĳ": 8091,
      "ĠáĭĿáĪĺáĪįáĬ¦": 8092,
      "áĬķáĪ³áī¶áĪĿ": 8093,
      "áĪŃáĬ¹áĪĿ": 8094,
      "ĠáĭĺáĬĲ": 8095,
      "áīĲáĭ°": 8096,
      "Ġáī¥áĪĿáĭĿ": 8097,
      "ĠáĬ£áĪĺáĪªáĬ«áĬķ": 8098,
      "Ġáī°áĭĪáĬ¨": 8099,
[...]
