#version: plain BPE baseline
á Ī
á Ĭ
á ĭ
á ī
Ġ áĬ
á į
á Į
Ġ áĪ
Ġ áĭ
áĬ ķ
áī ¥
áī µ
áĪ Ŀ
áĭ Ń
ĠáĬ £
ĠáĬ ¥
áį ¢
áĪ į
áĪ Ń
áī °
áĪ µ
Ġ áĮ
áĪ Ī
áĬ ĵ
áī ł
ĠáĬ¥ áĭ
áī ²
Ġáĭ Ŀ
ĠáĬ ķ
áī ³
áĬ Ĳ
áį ¡
Ġ áī¥
áĬ ¥
ĠáĪ ĺ
ĠáĬ Ń
áĬ £
ĠáĪ Ŀ
áĭ µ
ĠáĬ ¨
ĠáĬ£ áī¥
áĪ ¨
áī £
áĪ ĺ
áĪ ķ
áĪ ĭ
áĪ «
áį į
áĮ Ī
áĭ į
áĭ ķ
áĪ Ľ
áĮ į
áĭ °
áĪ ī
Ġáĭ ĺ
Ġ áī
áĪ İ
ĠáĬ Ĳ
Ġ áī°
áĬ ½
áĬ «
ĠáĬ ĵ
ĠáĪ ĵ
áĭ Ŀ
áĪ ĵ
Ġáĭ Ń
ĠáĬ¥áĭ ©
áĭ «
áĪ °
áĭ ļ
ĠáĬ ¢
áį Ī
ĠáĪ °
áĭ ĵ
ĠáĪ µ
Ġáĭ µ
áĪ ª
áĪ ³
áĮ ½
áĭ Ī
ĠáĬ «
ĠáĮ į
ĠáĬ¨ áĪĿ
áĭ ³
ĠáĬ¥ áĬķ
ĠáĬ£ áĭŃ
áī ¶
áĪ Ĭ
áĬ Ń
áī³ áīµ
Ġáĭ Ī
Ġáĭ ĵ
áĬ »
áĭ ©
áĭ İ
áĭ Ĭ
Ġ áīµ
áĪ ©
ĠáĬĵ áĭŃ
áĪ ħ
áĭ ¨
áĬ ¨
áĮ ¥
áī ķ
áĬ ©
áĬ ¡
áĬ ¸
ĠáĬ« áī¥
áĭ Ľ
áĭ ĺ
ĠáĬ¥ áī²
ĠáĪ ķ
áĭ ĭ
Ġ "
áī ¢
Ġ áīł
Ġáĭµ áĪĽ
áĮ ĭ
áĭ ®
áĭį áĬķ
áĬ Ĵ
Ġáĭ °
áĪ ®
áĬ ¹
áĭ ²
ĠáĬ¥áĭ ļ
ĠáĮ Ī
áĪ ĥ
ĠáĪĿ áĪµ
áĪ ļ
áĬ ĳ
áį £
áī¶ áĪĿ
áī ¡
áĬĲ áīµ
Ġáĭ ¨
áī ±
áĪ ±
áĪ ²
ĠáĪ ħ
áĮ ¸
áĮ »
áĬ© áĪĿ
áĮ ł
ĠáĪ Ľ
Ġáĭĺ áĭŃ
áī ¦
ĠáĬ¥áĬķ áī°
ĠáĬĵ áī¥
áĬ ¦
áĪ ½
ĠáĪ ĥ
áĪ ŀ
ĠáĪĺ áĬķ
Ġ áįį
Ġáĭ į
ĠáĪµ áĪĪ
ĠáĬ ¸
Ġ 1
Ġ áį
áīµ áĬķ
áĭ ±
áĪİ áĪĿ
Ġáĭ ļ
ĠáĭĿ áī°
áīł áĪŃ
ĠáĬ£ áĪĪ
áĪ Ļ
áĪĿ áĪĭ
áī ħ
Ġáī ħ
áī¥ áĪį
áī Ĳ
ĠáĮ ¥
áĬ½ áĬ¥
áī Ģ
áĬ ¾
áĬ ®
ĠáĪ° áī¥
áī³ áĭŃ
ĠáĬŃ áīµ
ĠáĪĵ áĭ°
Ġáĭ ķ
ĠáĬ ©
ĠáĬŃ áĬķ
áĬ ¢
áĪĿáĪĭ áĬ½
áĮĪ áĪŃ
ĠáĮ ¸
áīł áĪ¨
ĠáĬ¨ áĬ£
ĠáĪ į
ĠáĬ£ áĪİ
áĬ ł
áĭ Ļ
Ġ 2
Ġáī Ģ
áĭ ī
áį ĭ
áī Ĥ
Ġ áī£
ĠáĬ ª
Ġáĭĺ áĪĪ
ĠáĬ ®
áĭ ¶
áĭ ľ
ĠáĮ ½
áī¥ áĪŃ
áĮ º
áĭĵ áĪį
áĬ½áĬ¥ áĪį
ĠáĪ Ń
áĭ ĳ
áĪĿ áĬķ
áī£ áīµ
Ġ (
Ġáĭĺ áĪİ
ĠáĬ¥áĭ ¨
ĠáĬ£ áĪĿáĪĭáĬ½
ĠáĮį áĬķ
áĬ ª
áĬ¹ áĪĿ
ĠáĬ¥áĭ ®
ĠáĬ ł
Ġ áįĪ
ĠáĬĲ áī²
ĠáĬ¥áĭ į
áī ĥ
ĠáĬ¥áĭį áĬķ
áĮ £
ĠáĬ¥áĭ® áĪĿ
áĪ« áīµ
áĪ ĳ
ĠáĭĪ áĭŃ
áįĪ áĪį
ĠáĬĲ áĭŃ
áĪ Ĵ
ĠáĮį áĬĵ
Ġáī ¤
ĠáĬķ áĪĿ
áĮ Ĭ
áĭ« áĬķ
áĪ« áĪķ
áĮ ¢
ĠáĪħ áĭĿ
Ġáĭĵ áĪĺ
Ġ -
. .
áĮ ī
áĬ ĸ
áĬ ¤
áĬ¸ áĭįáĬķ
ĠáĭĿ áĬĲ
áĬ¦ áĪĿ
áĬ¾ áĬĲ
áĬ£ áī¥
áĪĪ áīµ
ĠáĬ¥áĬķ áī³áĭŃ
Ġ '
áī ĵ
ĠáĬ¢ áĬĵ
áĭķ áī£
áĪ« áĭŃ
Ġáī¥ áĪĿ
áĭ« áīµ
áĬķ áī²
ĠáĬ¥ áĪĿ
Ġáī¥ áĭĻ
áĬ Ľ
áĬ º
ĠáĮį áĭľ
áĭŃ áĬĳ
ĠáĬ ¤
áĪĪ áĪĿ
ĠáĪ ½
ĠáĬ ½
ĠáĬ« áĪį
áĪµ áī²
áĪĺ áĭŃ
áĪį áĬĵ
áĮ ¹
ĠáĭĿ áīł
áĬĲ áĬķ
ĭ áĬķ
áĮį áĭļ
áĭ® áĪĿ
ĠáĮ ī
ĠáĬ¢ áĭ©
áĭİ áĪĿ
áīł áĭŃ
áį Ĭ
áĭĪ áīµ
áĪĭ áīµ
Ġáī¥ áĭĽ
áĭĺ áĭŃ
áį ī
áĪĺ áĬķ
áĭ Ĵ
ĠáĪ° áī£áīµ
áĪ® áĪĿ
ĠáĪĺ áĭĵáĪį
áĮ Ĥ
ĠáĬ¸ áĬ£
áĮĪ áĪį
áĪķ áĪª
Ġáī¥áĭĽ áĭķáī£
ĠáĬ© áĪī
ĠáĬ£ áĬĲ
ĠáĬ¥ áī¶áĪĿ
áį §
áĪ¨ áīµ
Ġ áį¡
áĪĵ áīµ
ĠáĬ¨ áĭŃ
áĬĵ áĬķ
áĭĵ áīµ
áĮĪ áī¥
áĪµ áī°
áĪ³ áī¥
áĭ ĥ
áī£ áĪŃ
ĠáĬĲ áĭļ
áĪĪ áĬķ
ĠáĬķ áĪ±
áĭķ áĪĬ
áĮ İ
áĪŃ áĪµ
áĭŃ áĬķ
Ġ áį¢
ĠáĬ¥ áī°
Ġáī ĥ
ĠáĬ¥ áĬĵ
ĠáĬĲ áĮĪáĪŃ
ĠáĬ¥ áĮįáĭļ
ĠáĬ£áĭŃ áĬ®
áĪĺ áĪµ
áī³ áĭĬ
áĪ Ĳ
áĪ« áĭĬ
ĠáĬ£áī¥ áĭļ
ĠáĬ¥áĭ «
ĠáĬ¥ áĪŀ
áĪ ¬
ĠáĬķ áĪµ
áĪ° áĪŃ
áĪį áĬ«
áī¥ áĪī
ĠáĪ Ī
ĠáĪħáĭĿ áī¢
Ġáīħ áĭµ
áĪ ¶
áĪħ áĪŃ
ĠáĭĵáĪĺ áīµ
ĠáĬŃ áĪį
áĪ Ĩ
áĪĺ áĪŃ
ĠáĪ ¨
Ġáī¥ áĪĵ
Ġáĭ ľ
áĬ ³
áĪŃ áĬ¨
ĠáĬ¥ áīµ
Ġáī¤ áīµ
áĪ± áĪµ
áĪŃ áĬ¥
ĠáĪĿ áĭµ
áĪ Ķ
ĠáĪ ŀ
Ġáĭĵ áĪĪáĪĿ
ĠáĬĲáĭŃ áĪ©
ĠáĬ£áĭŃ áīµ
áĮ ¡
áį ħ
ĠáĬ£ áĬķ
ĠáĪķ áĮĤ
Ġ 3
áį ¥
ĠáĬ¢ áĪī
áĪį áĬķ
ĠáĪ İ
ĠáĬ¨áĪĿ áĭĿ
áĬĵ áīµ
áį ¤
ĠáĪĿ áĬ½
Ġ2 0
áĪ ¸
ĠáĪĥ áĮĪáĪŃ
áĪŃ áīµ
ĠáĪ ³
áĮ Ģ
ĠáĬ¢ áĬ»
áī° áĭŃ
áĬ£ áĭŃ
áĭį áĭ«áĬķ
ĠáĪĿ áĭĥ
Ġáĭ ĭ
ĠáĭĿ áĪĵ
ĠáĮ Ģ
Ġáī° áĪĺ
ĠáĬ¥ áī³
ĠáĬ¥áĭ ĭáĬķ
Ġáī¥áĭĻ áĪķ
ĠáĪµáĪĪ áĭļ
ĠáĬ£áī¥ áī²
áĮĪ áī¥áĪŃ
ĠáĪĺ áĪį
ĠáĪŃ áĬ¥
ĠáĪĺáĭĵáĪį áī²
ĠáĮ¥ áĪ«áĭŃ
Ġáī¥ áĭĿ
ĠáĬ µ
ĠáĪĥ áĮĪ
ĠáĪĽ áĪĪáīµ
Ġáĭ ³
áĪĶ áĪŃ
áĪĿ áĪħáĪŃ
áĪĪ áĭŃ
ĠáĬ¨ áī°
ĠáĬ¨áĪĿ áĭļ
ĠáĬ¨áĪĿ áĬ¡
áĪĵ áįį
áĬĵ áĭŃ
áįĪáĪį áĮ¥
áĪ Į
áĪ ľ
ĠáĪ ļ
áĭĽ áĪ¨
ĠáĬķ áĬ£
ĠáĪĺ áĮ½
ĠáĪĺ áĪ°
ĠáĪİ áĪļ
áĭµ áĪį
ĠáĬ£áĭŃáĬ® áĬĲáĬķ
ĠáĪĺáĬķ áĮį
áĭŃ áĭĪáīµ
áīł áĪ©
áĭ ŀ
áĪ Ĥ
áĮ ħ
Ġ áī³
Ġáīħ áĭ±
áī° áĬķ
áīł áĪį
ĠáĮ ł
ĠáĪĿ áĬ¥
áĪ »
Ġáī ¦
áĪĽ áĭŃ
ĠáĪĿ áĬķ
áĪ° áī¥
ĠáĭĿ áĬ¾áĬĲ
áĬķ áĬķ
ĠáĪĺ áĪµ
áĭ Ģ
ĠáĬ¥áĮįáĭļ áĬ£áī¥
Ġáĭµ áĪķáĪª
Ġáĭ ¶
ĠáĪµ áĪ«áĪķ
ĠáĭĿ áī¥áĪį
ĠáĬķ áĭĵ
ĠáĬ¥ áĪµ
áĪĭ áĭŃ
Ġáīħáĭµ áĪļ
áĮ½ áĬ¥
áĭ³ áĭŃ
áĬ¹ áĬķ
ĠáĬ º
áĪĿ áĪŃ
ĠáĬķ áĪķ
áĭ³ áĬ¥
ĠáĬ£ áī¦
áį İ
áĬ£ áīµ
áĮĪ áĭ²
áī ĳ
ĠáĬ® áĭŃáĬĳ
ĠáĭĿáĬĲ áīłáĪ¨
áĪĥ áĪį
ĠáĬ¸ áĪĿ
áĮ ¦
ĠáĪį áĭķáĪĬ
ĠáĬ£ áī£
ĠáĬ£ áįį
ĠáĭŃ áĬ½áĬ¥áĪį
áī¦ áĪĿ
áĭ° áĭŃ
áĪµ áīµ
áĪŃ áĭ«
áī ¤
ĠáĬŃ áĪ³áī¥
áĪĭ áĪĪ
Ġáīħáĭ± áĪµ
Ġáĭ° áīĤ
ĠáĬŃ áĪŃáĪµ
áī Ĩ
áĪŃ áĬķ
áĪ¨ áĬ½
ĠáĬ«áĪį áĬ¥
áĭ Ĳ
ĠáĬ¨ áĪĺáĭŃ
ĠáĭĿ áĪĺ
áĮį áī£
Ġáīĥ áĪį
áĬ¤ áĪį
ĠáĬ »
ĠáĭĪ áĭ²
Ġ 4
ĠáĬĲ áĮĪ
ĠáĪĿ áĪŃ
áĪ Ħ
Ġáī¥ áĪŃ
ĠáĪµ áĪĿ
ĠáĬ¥áĪĿ áīłáĪŃ
Ġáĭĵ áĭŃ
áĭŃ áī³
ĠáĬĲ áīłáĪ¨
áĭ° áĪį
.. .
ĠáĬķáĪµ áĬ»
ĠáĬķ áĪĵ
áĬ °
ĠáĪĿáĬ½ áĬķ
áĭµ áĬķ
áĪŃ áĬĵ
ĠáĬ£áĪĪ áĭİ
ĠáĬ¤ áĪŃáīµ
áĪŃáĬ¨ áī¥
áĬĲ áī³áīµ
ĠáĬŃáĪį áī°
áĪĭ áĪĿ
Ġáīµ áĪĿáĪħáĪŃ
áĭ ĸ
áĮ ĥ
áĪ ´
ĠáĮ Į
ĠáĮĪ áĪĪ
áīµ áĬĵ
Ġáī¦ áī³
áī ĭ
ĠáĮ İ
áĬ¦ áīµ
áĭ° áĬķ
ĠáĬ£ áĭĿ
ĠáĪĺáĮ½ áĪĵáįį
ĠáĭŃ áĬ¹áĬķ
ĠáĪµ áĪŃ
áĬĸ áĪĿ
Ġ .
ĠáĬ£ áĮĪ
áī¥ áĪ¨
áĬŃ áī¥
ĠáĬŃ áįį
ĠáĬ£áĭŃ áī°
Ġáī¥ áĭĺáĭŃ
ĠáĪķ áī¶
áĪĿ áĪį
Ġáĭ¨ áĪ±áĪµ
áĪĽ áīµ
ĠáĬ£ áĭ¨
ĠáĬķ áĪ³
áĭ ª
áĪŃ áĬ«
ĠáĬ¥ áĬ³
ĠáĮĪ áĭĽ
Ġáĭ ²
áĪµ áĬķ
áĪĿáĬķ áī³áĭŃ
ĠáĭĺáĪĪ áĭİ
áĬ¨ áĬ£
áĬ¥ áī²
Ġáīł áĭļ
ĠáĪ Ļ
ĠáĬ£ áĪµ
ĠáĬķ áĭĿ
áį ĥ
Ġáį ĸ
áĪĽ áĭķ
áĬŃ áīµ
áĮ Ĳ
áīµ áĬ©áĪĿ
ĠáĪĿ áĪ³
áī¡ áīķ
áĪ ģ
Ġáī ģ
ĠáĪĵ áĬķáī²
ĠáĪĿáĭµ áĪª
ĠáĬ¤áĪŃáīµ áĪ«
áĭµ áĪķ
áįĪ áīµ
ĠáĬķ áĬ½
0 0
áĪ¬ áī³
áĬ« áĬķ
ĠáĬķ áĬ¥
áī£ áī¥
ĠáĬ£ áĬ«
Ġ 5
áīł áĪĪ
ĠáĮ Ĳ
áĪ° áĪĿ
áĬķ áĭĺ
áĪİ áīµ
ĠáĭĿ áĭĪ
ĠáĬ °
ĠáĪĽ áĪķ
ĠáĪĿáĭĥ áĬĳ
áĪī áĬ¥
ĠáĬ£ áĪĺ
ĠáĪĺáĬķáĮį áĪµáī²
ĠáĪĵ áīł
áī¥ áĪª
ĠáĬ¢ áĬ¹áĪĿ
áĮ£ áĬķ
áĮĪáĪį áĮį
Ġáī° áĭĪ
áīł áīµ
áĮį áī£áĪŃ
ĠáĪĺ áĪŃ
ĠáĬ¨áĪĿ áī²
ĠáĭĿ áĮĪ
ĠáĬŃ áĬ¸áĭįáĬķ
ĠáĪ ¸
Ġáīł áĪĪ
áī¥ áĬķ
áĪ³ áĭķ
ĠáĪĵ áīĤ
áī³áīµ áĬķ
ĠáĪĿáĬ¥ áĬķáī²
áī ģ
ĠáĮĪ áĭŃ
áĭŃ áī²
ĠáĬĲ áī¶áĪĿ
áī¥ áĪĪ
ĠáīµáĪĿáĪħáĪŃ áī²
áĬ¥ áĬķ
ĠáĪħ áĭŃáĭĪáīµ
ĠáĬķáĪķ áĬĵ
áĪī áĬķ
ĠáĮ Ĭ
áĭµ áĪ«
áĭŃ áĭµ
Ġáī¥áĭĻ áĪĵáīµ
áī£ áĪį
Ġáī¤ áī°
ĠáĪµáĪĪ áĭĿ
áĮ ¾
áĪħ áĪį
áĪĦ áĪŃ
ĠáĬ Ķ
áĪķ áī²
ĠáĭĿ áĬ£
áĪµ áįĭ
ĠáĪĵ áĭµ
áī° áĪŃ
Ġáī Ĩ
áī¶ áĪµ
ĠáĭĵáĭŃ áĬĲáīµ
áī£ áĭķ
áĮį áĭ°
ĠáĬ¥áĭļ áĬ£
áĮ ĵ
Ġáĭ° áĬ£
ĠáĬ¨áī° áĪĽ
Ġáī¥ áĬ£
áĭ³ áĬķ
ĠáĬ¥áĪµ áĪ«
ĠáĪĵáīł áĪ¬áī³
áĪ ĸ
ĠáĮĪ áĪĬ
Ġáĭį áĪ½
Ġáī° áīĲ
ĠáĪĿ áĪķ
ĠáĪ½ áĭĳ
ĠáĬ¢ áĭ¨
ĠáĬ£áĪĪ áĭī
áĬĽ áī³áīµ
ĠáĭĪ áĪŃ
ĠáĬ£ áĪķ
ĠáĬ£áĭŃ áĬĲ
áĪĥ áĬķ
áĪĺ áĪį
áĭ¶ áĪĿ
ĠáĬ¨áĪĿ áĭĺ
ĠáĪĺ áĮį
Ġáī£ áĭķ
áĪª áĬ«
ĠáĪĽ áĬ¥
ĠáĭĿáīł áĪĪ
Ġáĭ ®
áĪ° áĬķ
áī¥ áĬĵ
áĪ° áĭŃ
ĠáĮ½ áī¡áīķ
áĬŃ áĬ¥
ĠáĬ£ áĭį
ĠáĮī áĭ³áĭŃ
ĠáīĢ áĭ³
ĠáĪĺ áĭĪ
áį Ģ
ĠáĬ ¦
áįĪ áĪĭáĪĪ
áĬŃ áĪį
áī ´
áĭ³áĬ¥ áī³
áĮī áĪµ
áĮį áĪŃ
áĮĪ áĪĿ
ĠáĭĿ áĭĢ
áĭ° áĪĬ
ĠáĬ£ áĪŃ
Ġáī¥ áĬ¸
ĠáĬķ áĪĺ
Ġáįį áĪŃ
Ġáīł áī²
ĠáĪĥáĮĪ áĪ«áīµ
áĪµ áĭķ
ĠáĪĵ áĭŃ
ĠáĬĲ áįį
áĪĨ áĭĭ
ĠáĮĪ áĬķáĭĺ
Ġáį ķ
áīł áĪī
áĭ® áĬķ
ĠáĬ«áī¥ áī²
áįĪ áĪŃ
Ġáī° áĪµáįĭ
ĠáĬ«áĪį áĬ¦áīµ
áį ¦
ĠáĬµ áĪī
áĪŃ áĬ¢
ĠáĪ° áĪĪ
Ġ20 1
ĠáĪĺ áĭ°
ĠáĭĿ áĬ¸
Ġ 6
áĪĪ áĪµ
áī£ áĭŃ
áĭĬ áīµ
áĪ¨ áĬķ
áī Ĵ
áĪ« áĬķ
ĠáĬ» áī¥
ĠáĮ ĵ
ĠáĪķ áĪĽ
áĬ½áĬ¥ áĪī
áĮł áĬķ
ĠáĬ¢ áĪİáĪĿ
ĠáĪ° áĪĭáĪĿ
ĠáĭŃ áī¥áĪį
ĠáĬĲáĮĪ áĪ«áīµ
ĠáĪµ áĪį
áĭŀ áĪĿ
áĬ® áĬĲ
áī° áĪĵ
áĪŃ áī¥
áĬĲ áī¥áĪŃ
Ġáī¥ áįį
ĠáĪĺáĬķ áįĪ
áĮ» áĬ¢
áĪĿ áī²
ĠáĬ¥áĮįáĭļáĬ£áī¥ áĪĶáĪŃ
Ġáįį áĪį
Ġáī³ áĪª
áĭĽáĪ¨ áī¥
Ġáī£ áĪħ
áĪ¨ áī£
Ġáī° áĪĵ
ĠáĬ¨ áĪİ
ĠáĭĵáĪĺ áī³áīµ
áĪĥ áī¥
ĠáĬ¥áĭ Ľ
Ġ1 9
áĮ¸ áĬķ
Ġáĭ¨ áĪĪáĬķ
ĠáĪĿ áĪĿ
ĠáĬ£ áĬ¥
Ġáĭį áĭµ
áĪŃ áĪķ
áīłáĭŃ áī²
ĠáĬ½ áīµ
ĠáĪ Ĥ
ĠáĬ£áĭĿ áĭ©
Ġáī¥ áĪĺ
áīµ áĭ®
áĮĪ áĭĿ
áĪ¶ áĪĿ
Ġáī¥ áī°
ĠáĪ Ĵ
áī£ áī¢
áĭ° áīµ
áīł áĪ®
Ġáįį áīķ
áĮ Ń
ĠáĪĿ áĪį
áĪĭ áĬ¥
áī£ áĭĬ
áĮ «
áĬ Ķ
áĪĻ áĬķ
áĮį áīłáĪŃ
ĠáĬŃáĪŃáĪµ áī¶áĪµ
áĬł áī¥
áĪĭ áĬķ
áĬ¨ áįį
ĠáĪĺáĭĪ áĭ³áĬ¥áī³
ĠáĬł áī¥
áĬ½ áī²
ĠáĬ© áĬĲáī³áīµ
áĪĽ áĬķ
Ġáī¥ áĪµ
áĭ ħ
áĭµ áĬĵ
áī¥ áĪİ
ĠáĬ¥áĪµáĪ« áĬ¤áĪį
ĠáĬ ¬
áĭķ áĬĵ
ĠáĪ ĭ
ĠáĬ£áī¥ áĬ¡
áĮĪáī¥ áĪ®
áĪį áĬ©áĪĿ
áī¥ áĪ©
áĪĿ áĬĵ
ĠáĮĢ áĪļ
Ġáī° áįĪ
áĪŃ áĭµ
áĪ¨ áĬ¸
ĠáĮĬ áĭľ
Ġáĭµ áĭ©
ĠáĮĪáĬķáĭĺ áī¥
áĭŃ áĬĵ
Ġáĭį áĬķ
áĬŃ áĬķ
áī± áĬķ
áī² áĬ«
Ġáĭ¨ áĪĨáĭĭ
áĭķ áĪį
áī ĸ
áĪĪ áĮ¥
áĬ¾ áĬĳ
ĠáĬ£áĪĪ áĬ¹
Ġ 8
áĪĵ áĬķ
ĠáĭĺáĪĪ áĭī
áįį áī²
áī³ áĬķ
ĠáĭĿáĪĵ áĪĪ
áĬłáī¥ áĪĶáĪŃ
Ġáī° áī£
Ġáĭķ áĭµ
áĪ¨ áī¥
áĬŃ áĪŃ
áīł áī¥
Ġáīµ áĬ½áĬ¥áĪį
ĠáĪµáĪŃ áĭĵáīµ
ĠáĬķ áĭĺ
Ġáī° áĪ°
Ġ 7
áĮįáī£ áĬ¥
ĠáĪĺ áĮĪáĭ²
áįĪáĪį áĮ¦
ĠáĬ¥áĮįáĭļáĬ£áī¥ áĪĦáĪŃ
áĪį áĬ¥
ĠáĪĺ áī¥
áĬ¨ áīµ
áĪĭ áĪĽ
ĠáĪµ áĭµáĪ«
áĬ¨ áĭįáĬķ
áĬĲáīµ áĬķ
áĪķ áĮį
ĠáĭĿ áĭĵ
áĭĪ áĪµ
áĭİ áĬķ
áĮį áī¥
áĭ« áĭĬ
áĮ µ
ĠáĮ½ áĪĳ
ĠáĬ£ áĪį
ĠáĬ£áĭŃ áĬ°
áĭ« áī±
Ġáī Ĳ
ĠáĭĪ áĪĪ
áĮ Į
ĠáĬ ²
ĠáĬķ áĪħ
ĠáĪµáĪĪ áĪĿáĬķáī³áĭŃ
Ġ1 0
áĮĢ áĪĺáĪŃ
ĠáĪķ áĮĬ
áĭķ áī²
áĬķ áĬ«
áĬ© áĬķ
ĠáĬ£ áĪĿ
áĭ ´
Ġáį Ģ
Ġáĭ ħ
áį Ĥ
Ġáĭ Ľ
ĠáĬ¥áĬķ áĭ³
Ġáī¥ áĬ¥
ĠáĪ°áĪĪ áĪµáī°
ĠáĬ£ áĮĭ
ĠáĬ£ áī¢
ĠáĬķ áī¥
ĠáĮ »
Ġáī° áĮĪ
ĠáĪĵáĭµ áĪ½
ĠáĮ¥ áĪ«áĪķ
áĮ ķ
Ġáī° áĬ£
áīµ áĬ«
ĠáĬ¥áĬķáī° áĬ¾áĬĲ
áĪĿ áĪµ
ĠáĬķ áĬĲ
ĠáĪĿáĬ½áĬķ áĭ«áīµ
áĮįáĭ° áįį
Ġáī¥áĬ¸ áĪĺáĭŃ
ĠáĬŃ áĪ³áĭķ
áĪ³ áĭŃ
Ġáīł áĪį
ĠáĬĵáĭŃ áī²
ĠáĬ£ áīµ
áĮĪ áĭµ
ĠáĬ£áĭŃ áĬķ
áĪŀ áĪĿ
ĠáĬ£áĮĪ áĭ³
ĠáĬķ áĮīáĪµ
ĠáĬķ áĮį
ĠáĬ¢ áīµáĭ®
áĪ°áĪŃ áĪķ
Ġáĭ Ģ
áĪ³ áīµ
ĠáĪĿ áįį
Ġáĭµ áĪĿ
ĠáĬ¢ áĪĪ
Ġáīł áĭĵáĪį
áĪ¨ áĬ£
ĠáĮ ĭ
áĪĪ áī²áĬ«
ĠáĮĲ áĭŃáī³
ĠáĪĿ áĭį
ĠáĪ ²
áĮ¥ áīĢ
áĭĺ áĬķ
áĬķ áĭ²
ĠáĭĿáĭĢ áĬĲ
ĭáĬķ áīĭ
ĠáĪĽ áĭŃ
ĠáĬ£ áĭµ
áĪĺ áĮ½áĬ¥
áĪµ áĬĵ
Ġáī³áĪª áĬ½
áĪ¨ áĬŃáī¥
ĠáĪĿ áĭķ
Ġáĭĵ áī¥
áī¥áĪī áĬķ
áĭ« áĭ³
ĠáĭĪáĪŃ áĪĴ
ĠáĪĽ áĭķ
ĠáĬķ áĮĪ
ĠáĪ «
ĠáĬŃáĬķ áĭ°áĭŃ
ĠáĬ£áĪĪ áĬĵ
Ġáĭĵ áī¢
ĠáĭįáĪ½ áĮ¢
áĭŃ áĭĪ
áį ķ
Ġáīµ áĮį
ĠáĬ£ áĮĪáĪįáĮį
áī° áĬĽáī³áīµ
Ġáĭĭ áĪĭ
áĭŃ áī¶
áĬ¨áĬ£ áĪį
ĠáĬ¨ áĪĪ
ĠáĬ¥áĬķ áĬ¨
áĬ ħ
ĠáĪĺ áĭµ
Ġáīµ áĬ«
ĠáĬ¢ áĪįáĬ«
ĠáĪ Ĳ
ĠáĬķáĪ³ áī¶áĪĿ
áĪ¨ áĮĭ
áĮ½ áĪķ
ĠáĪĺáĬķ áĬ¥
ĠáĪĿ áĪīáĬ¥
áĪĭ áĭĬ
áĮ½ áĬķ
ŀ áĪĿ
áĭ¨ áĬķ
áĭ« áĪµ
áĭĪ áĬķ
ĠáĬ¨ áī£áī¢
áĪķ áīµ
áĮĪáī¥ áĪ¨
ĠáĬŃ áī¥áĪį
áĮ½ áĪį
ĠáĪĺ áĭĵ
áĬĲ áĭŃ
Ġáĭĵ áĭ²
Ġáī¥ áĪį
ĠáĭĿ áįĪ
ĠáĬ¢áīµáĭ® áĮµ
ĠáĭĺáĭŃ áī°
ĠáĬ¥áĭ ŀáĪĿ
áĪĵ áĭ°
áĬŃ áĭķ
áĮ ³
ĠáĭĿ áĪ°
áĬ£ áĬķ
áĭ³ áĪŃ
Ġáīł áĪİ
áĪ ¥
Ġ 9
ĠáĬ¥áĮįáĭļ áĬłáī¥áĪĶáĪŃ
ĠáĪĺáĬķ áĮİ
ĠáĬ¥áĪĿ áĬĲáīµ
Ġ [
ĠáĬĲ áī¥
ĠáĬ«áī¥ áĭļ
áĮ» áĬ¥
ĠáĭŃ áĬ¸áĭįáĬķ
ĠáĬĲ áī³
áĪķ áĭĿ
áĪĺáĪµ áĪį
ĠáĬŃ áĪħ
áīł áĬ£
Ġáįĸ áĪĪáī²áĬ«
ĠáĪħ áĮįáĭ°áįį
r e
áīł áĬķ
áĮ» áĪķ
Ġáĭ° áĮĪ
áĪ¨ áĮĥ
áĪĺ áĪ«
Ġáī° áĮł
Ġáī¥ áĭµ
ĠáĬ£ áĭĭ
áĬ« áī¥
áĭĭ áīµ
ĠáĬ¢ áĬķ
áĭµáĪį áĭ¨
áĬ¨ áĪį
áĭķ áĬķ
áĭ° áĪĪ
ĠáĪŀ áīµ
ĠáĮį áī¥
ĠáĬ¢áĭ¨ áĪ±áĪµ
áįį áĬķ
Ġáī¥áĪĵ áīĤ
áĬł áĬķ
ĠáĬŃ áĬĲ
ĠáĬķ áĭ°
Ġáįįáīķ áĪª
ĠáĪ° áĪĽ
áįĭ áĪį
áĪĭ áĪį
Ġáī° áĭĭ
áĬ» áĬķ
áĪ« áĪŃ
Ġáī ĭáĬķáīĭ
ĠáĭĿáĬĲ áīłáĪ©
áĪµ áĪĿ
áĬ» áīµáĬ©áĪĿ
Ġáī¥ áĭĺ
áĭ° áĪĿ
ĠáĭĿ áĬ½áĬ¥áĪį
áĪ³ áĪµ
Ġáīµ áĪŃ
Ġ1 2
Ġáį Ĭ
ĠáĬ¥áĭ¨ áĬķ
ĠáĪĵáĭŃ áĪĬ
áĪį áī¦
Ġáī°áī£ áĪĤ
ĠáĪĿ áīµ
ĠáĪĺ áĮº
áĪį áĭĳ
ĠáĬķ áĪ°
áĮĪáī¥ áĪ©
Ġáĭ¨ áī¥áĪīáĬķ
ĠáĬ£áĭŃáĬĲ áīłáĪ¨
ĠáĪĿ áĮį
ĠáĪĺáĪį áĪ²
ĠáĬķ áĬ¹
ĠáĭĺáĪĪ áĬĵ
ĠáĭĿáī° áįĪáĪĭáĪĪ
ĠáĮ Ń
áĪ¨ áĪµ
ĠáĬ£áĮĪáĭ³ áĪ²
áīµ áĭ«áĬķ
ĠáĭĺáĭŃ áĬ®áĬĲ
áĪĪ áĪĽ
ĠáĬ£ áĪĽ
ĠáĬķ áĭķ
Ġ1 5
ĠáĬª áĬ¸áĭįáĬķ
ĠáĪĿáĬ½áĬķ áĭ«áī±
áĬ ¼
ĠáĭĿ áĪĿ
áĭµ áĬ«
ĠáĪĵ áĪ³áī¥
ĠáĬ© áĪİáĪĿ
ĠáĭĪ áĪ²
ĠáĪĪ áĭį
Ġáįį áĪī
ĠáĬ£áĪİ áĬĵ
ĠáĪĵ áĮĪáĭĿ
áĭµ áĪĬ
áĪį áĪĿ
ĠáĪĺáĬķ áĮĪáĭ²
Ġáĭ «
áįį áĪŃ
áĪ½ áī°
Ġáĭĺ áĭ¨
ĠáĪ° áĭĵáīµ
áĪĵ áĪµ
áĪ Ģ
áĪķ áĬķ
ĠáĪĺáĮį áĪĪ
Ġáīł áĪİáĪĿ
áĪ« áī¥
áįĪáĪį áĮ¡
ĠáĬ¢áīµáĭ®áĮµ áĭ«
áĬĵ áĭĬ
ĠáĪĵ áĪĭ
ĠáĬ£ áĪĭ
Ġáī° áĮĭ
ĠáĪĺ áĪĪ
ĠáĪµ áĬĲ
ĠáĪ° áĪĽáĭŃ
áī¡ áĪŃ
áį ĸ
ĠáĭĪ áĪ¨
áī³ áī¶áĪĿ
áĬ« áĭ¨
áĪķ áĪį
áĪ³ áĬº
áĮ ¨
áĭµ áĪŃ
áįį áīµ
ĠáĪĥ áĭŃ
Ġáī° áĪ¨
áī¢ áīµ
ĠáĪĺáĬķáįĪ áĪµ
ĠáĬķ áĪĭ
ĠáĪ°áī¥ áĬ£áĭŃ
ĠáĪ Ĭ
ĠáĬĲáĭŃ áĪ®áĪĿ
áĭĵ áī°
áį ģ
Ġáī¥ áĮį
Ġ1 1
áīł áĭ¨
áįį áīħ
Ġáĭ ©
ĠáĬ£ áĪľ
áĬ¸ áĭŃáĭµ
áĮį áĮ½
áĬķ áīĢ
áĪĵ áĭŃ
ĠáĬ£áī¥ áī³
Ġáī° áĬ¸
Ġ ?
Ġáī° áĪ«
ĠáĬ¨ áĬĲ
ĠáĬŃáįį áĪĬ
áī¥ áĪĥáĪį
áĭĬ áĪķ
Ġáī° áĭĵ
Ġáį ĭ
Ġáĭĺ áĪĭ
áĬķ áī³
áĪĥ áĪŃ
ĠáĭĿáĪĵáĪĪ áįĪ
ĠáĪĺ áĭĿ
ĠáĬ½ áĬķ
ĠáĬĵáī¥ áī²
ĠáĭĿ áĪŃ
ĠáĬĲ áīłáĪ©
ĠáĪĺ áĮĢáĪĺáĪŃ
áīł áĪ«
ĠáĮ¸ áĬĴ
ĠáĬĲáįį áĪ²
Ġáĭ° áīĢ
áī° áīµ
Ġ1 8
Ġáĭķ áĪĪáīµ
ĠáĪĺáī¥ áĭĽ
áī¥ áĪĭ
áĬķ áĪµ
Ġ Ġ
áĪĭ áĭį
ĠáĪĺáĪį áĬ¥
Ġáĭ° áĭį
áĪį áĭĵ
áĭī áĬķ
áĪŃ áī²
Ġáĭ ī
ĠáĬ£ áīłáĭŃ
áĬĵ áĪį
ĠáĪ ±
áĮĪáĪį áĮ½
áī¥ áĪİáĪĿ
áĭĿ áī¢
Ġáįį áīĵ
ĠáĪĥ áī¥
áĬ½ áĬķ
ĠáĬ£áĭŃáĬ° áĬĲáĬķ
Ġ1 4
áĪ«áĭĬ áīµ
ĠáĬ£áĮĪáĪįáĮį áĪİáīµ
áĬĵ áĭ®
ĠáĬ£ áĬ¼
áĪĿáĪį áĬ¨áīµ
áĭ³ áĪĿ
ĠáĬ¥áĭ Ī
ĠáĬĲáĭŃ áĪ¨
ĠáĪµ áĭ°
áĪĺ áĪ¨
Ġáīµ áĪķáī²
áĮ¥ áĪĿ
ĠáĭŃ áīķ
ĠáĬŃ áĪŃ
áĪĺ áīµ
áĪİ áĬķ
ĠáĮ ¨
ĠáīĢáĭ³ áĪĽáĭŃ
ĠáĬķáĪĭ áĭķáĪĬ
ĠáĬ£ áĭ°
ĠáĭĪ áĬ¨áįį
Ġáī¥ áĭĵ
áĪŃáĬ¥ áĭ®
ĠáĮĪ áĬĵ
ĠáĪĺ áĮłáĬķ
Ġáį ĵ
ĠáĬ¥áĬķáī° áĭĺáĭŃ
Ġáī¥ áĪ°
ĠáĪ° áīłáĭŃáī²
Ġáįį áīµ
áĬ¢ áīµ
ĠáĮ¸ áĮĪáĪĿ
: :
ĠáĪĵ áī¢
áĬ¡ áĬķ
áĭŃ áĬĸáĪĿ
áĪ³ áĬķ
áĪħ áīł
Ġáī ¢
ĠáĭĪ áĮ»áĬ¢
áĮį áĪ¨
ĠáĪĺáĪ° áĪį
áĮ¥ áīĥ
Ġáī¥ áĪķ
áī° áĭĪ
ĠáĬ«áĪį áĬ£áĭŃ
Ġáī° áĪĽ
áĭĸ áĪĿ
ĠáĬŃ áĪĿ
ĠáīµáĮį áĪ«áĭŃ
áįİ áĪĿ
ĠáĭŃ áĮįáī£áĬ¥
áĮĪ áĬķ
áĪĿ áīłáĪŃ
áīħ áĪµ
áĪ½ áĬķ
áī£ áĪķ
ĠáĬ¨ áī¢
Ġáī¥ áīĲ
ĠáĬ£áĬ¼ áī£
ĠáĬ¥áī° áĬķ
Ġáīµ áĬķ
ĠáĪĿ áĪħ
áĪĽ áĬĸ
áĪŀ áĬŃ
ĠáĪµáĪį áĮ£áĬķ
Ġáī ķ
ĠáĬ£áĭŃáĬĲáīłáĪ¨ áĬķ
áĪĿ áĪ®
ĠáĭĿ áīĲ
ĠáĬ£áī£ áĪĭáīµ
ĠáĭĺáĭŃ áīµ
áī Ŀ
áī¥ áĪ¨áīµ
ĠáĪĺáĮįáĪĪ áĮº
áĪ³ áĭĬ
áī£ áĬķ
áī¥ áĪ«
ĠáĭĿ áįį
ĠáĪĪáĭį áĮ¢
ĠáĪ° áĭĵ
ĠáĬ¥áĬķ áĪĨ
Ġáĭ° áĪ¨áĮĥ
áĪ« áĬ¸
Ġ !
ĠáĮ ¾
ĠáĭĿ áĪĪ
áī¤ áīµ
ĠáĪ° áĪį
áĮį áĪĿ
Ġáī° áīĵ
ĠáĪ°áī¥ áĬ£
ĠáĬķ áĬ½áĬ¥áĪį
ĠáĬ ¾
ĠáĪŃ áĬŃáī¥
áĬĳ áĭķ
áĪĪ áĭī
ĠáĪĿ áĮ½
áĪŃ áĮĭ
áĭ¨ áīµ
ĠáĪ³ áĭķ
ĠáįĪ áī°
áĪ¬ áīµ
ĠáĪ° áĪĻáĬķ
ĠáĬł áĭŃ
áĮł áįį
ĠáĬķ áĬ£áī¥
Ġáĭį áĪ³
ĠáĬ£áĭŃ áĬŃáĬ¥
áĭ° áĪŃ
ĠáĭĺáĪĪ áĭİáĪĿ
ĠáĪ° áĪļ
Ġáĭħ áĪī
áĭĪ áĭŃ
ĠáĬ¥áĬĵ áī°
áĮį áĬķ
áĮħ áĪĪ
ĠáĪĺ áĪĬ
ĠáĪ ľ
ĠáĮ ³
Ġáį ħ
ĠáĮĪáĭŃ áĪ©
Ġáī° áĭĽ
áĪ¨ áĭµ
ĠáĬ¢ áĭ®áĪĿ
áĬĲ áī±
ĠáĮ½áĪĳ áįį
áĮ¥ áįį
Ġáī¥áįį áĪĭáĭŃ
ĠáĭĿ áĬ¸áĭįáĬķ
Ġáĭ° áĮĬ
ĠáĬ° áĭŃáĬĳ
Ġáĭĺ áĪĺ
áĭ³ áĭ«áīµ
ĠáĪĿ áĭĿ
áĪĪ áĬĴ
ĠáĬķáĬ£ áĪĿáĪĭáĬ½
áĬ¥ áĭĽ
ĠáĬ«áī¥ áĬ¡
áīĲ áīµ
áī¡ áĪ«áīµ
áĮį áĪĪ
áĬ¨ áĪĿ
Ġáĭĺ áīłáĪĪ
ĠáĬ¨áĪĿ áĭĺáĭŃ
áĪĻ áĪŃ
áĪµáīµ áĭ®
áīłáĬ£ áĪŃ
áįĪáĪįáĮ¥ áĬķ
Ġáĭľ áĬĵ
áĪĸ áĪĿ
ĠáĪµ áĮĭ
ĠáĪķáĪĽ áĪĿ
áĮį áĬ¥
áĬ» áĪį
Ġáĭµ áĪķ
áī ª
ĠáĪķ áĭļ
áĪħ áī¥
ĠáĪĵ áĪĪ
áĮ¢ áĬ£áīµ
áĬĳ áĬķ
Ġáī£ áĪķáĪª
ĠáĬ¢ áĪįáĬĵ
áĭµ áĪĿ
áī£áĭķ áī°
Ġáĭķ áĪĭáĪĽ
áĬŃ áĭİ
áĭĺ áĪŃ
áĭĭ áĭŃ
ĠáĬ£áĪľ áĪªáĬ«
Ġáī¥ áīµ
: -
ĠáĬ£ áīł
áĭķ áĪĪ
áĪµáĭķ áī¥
ĠáĭĪáĭŃ áĪµ
Ġáĭ³ áĭĬáīµ
áĪµ áī³áīµ
Ġáĭķ áĭµáĪį
áĬ©áĪĿ áĬķ
ĠáĬ ¹
Ġáĭĵ áīķ
ĠáĪĥáĮĪ áĪ«áĭĬ
Ġáī¥ áĭĪ
ĠáĮĢáĪļ áĪ©
Ġáīµ áī¥áĪį
Ġ +
áĬŃ áĪŃáĪµ
Ġáī°áī£áĪĤ áĪī
ĠáĮĵ áĪį
ĠáĮ¥ áĭķáĬĵ
ĠáĬ£áįį áĪª
Ġ ...
áĪ® áĮ³
ĠáĭĺáĭŃ áĪĿ
ĠáĭĿ áĭį
áĮ¥ áĬķ
ĠáĬ£áĪĪ áĭĭ
ĠáĪĺ áĪĭáĬ¥
áĪĺ áĪ°
ĠáĪĺ áĪª
áĬ£ áī±
ĠáĮįáĬĵ áĬ¸
ĠáĪĵ áĭ«
ĠáĭĿ áĭ«áĭ³
áĭĭ áĬķ
ĠáĪĺáĭ° áī¥
Ġ1 3
ĠáĪĻ áĪ´
áĮī áĪĿ
áįĭ áīµ
Ġáī¥áĪĿ áī£áĪį
ĠáĪ ¶
ĠáĬŃ áĪħáĪį
áĪ³ áī°
áį§ "
ĠáĬ£ áĭķ
ĠáĪĵ áĭ²
2 0
áĪ¨ áĭŃ
áĭķ áĭŀ
ĠáĮ ķ
ĠáĪ¨ áĬº
Ġáĭ° áĪŃ
áĬ« áĭ®
ĠáĬĲ áīłáĪŃ
áĭĭ áĪŃ
ĠáĬķáĬ£áī¥ áĬĲáīµ
Ġ áį£
áĬķ áĮį
ĠáĬ£ áĪ°
Ġáĭį áĪį
ĠáĬ£áĬ« áĪį
áĮ¥ áĪ®
áĪįáī¦ áĬķ
áĭ°áĪį áĭ©
áĮ» áĪŃ
áĮĭ áī³áīµ
ĠáĬ¨áī¢ áĭµ
áĮ¥ áĪŃ
áĬ ĥ
ĠáĪĿ áĮįáī£áĪŃ
Ġáĭ ŀ
ĠáĭĿ áĮ¸
Ġ1 6
ĠáĮį áī¥áĪª
áĪĵ áĪŃ
Ġáī Ī
ĠáĬ£ áīĲ
ĠáĬķ áĭħ
Ġáĭĺ áī°
ĠáĪĿáĪµ áĬ¡
Ġáī° áīł
ĠáĪĵ áĪ³
áĮ½ áĪª
ĠáĪĿáĪŃ áĮ«
ĠáĬŃáĪį áī²
Ġáĭĺ áĪĺáĬķ
áĬ£ áī¶áĪĿ
Ġáīł áī¥
ĠáĬķ áĭĪ
áĪĥ áīł
ĠáĪį áĪĿ
ĠáĪ Ĩ
Ġáĭĵáī¥ áĭª
Ġáĭ¨ áĪįáī¦áĬķ
áĭ³ áīµ
ĠáĭŃ áįį
ĠáĬ«áī¥ áī¶áĪĿ
áĪŀ áĬķ
áī³ áĪķ
ĠáīĢ áĬķáĭ²
ĠáĬ® áĬĲ
áĪŀáĬŃ áĪ«
áĪĵ áĪį
áĪª áī¡
ĠáĬ¢ áĭµ
áī¡ áĬ¥
ĠáĬł áĪİ
ĠáĪħ áĭŃáĭĪ
ĠáĬ£ áĪħ
ĠáĭĺáĭŃ áī¥áĪī
ĠáĭŃ áĪķ
ĠáĮĪ áĮ½
Ġáī ĵ
áī ¨
áī° áĪĽ
áīł áĪĥáĪį
ĠáĬŃ áĭĪ
áĪĬ áįī
ĠáĬ£áĪĺ áĪªáĬ«
ĠáįįáĪī áĭŃ
Ġ1 7
ĠáĮ¸ áĪİáīµ
áĪ« áĪĿ
ĠáĪĺ áĪ³
ĠáĬ ĥ
ĠáĪĵ áĪĻ
áĪ© áī¥
áĬ£ áĬĲ
Ġáĭįáĭµ áī¥
áį ĵ
áĪĪ áĬĵ
áĮ½ áīł
áĬĲ áīłáĪ¨
ĠáĬĶ áĪ©
ĠáĬ£ áĮ¸
áĬ«áĭ¨ áĭµ
e n
ĠáĬ£ áĬ½
ĠáĬŃ áįĭáĪį
ĠáĬķáĪĵ áĭ°
áīµ áī³áīµ
ĠáĬ£áĪĪ áĭİáĪĿ
ĠáĬķ áĬ¸
ĠáĪķ áĭŃáĭĪáīµ
ĠáĪĽáĪķ áīł
áĪĿ áĬ«
ĠáĭĪ áīµ
ĠáīĥáĪį áĪ²
Ġáī£áĭķ áĪī
ĠáĪį áī¢
áĬķ áī¥
ĠáĬķáĪµáĬ» áīµáĬ©áĪĿ
ĠáĪ ®
áĪį áī²
Ġáįĸ áĪĬ
ĠáĪĥáĭŃ áĪĽáĬĸ
ĠáĭĺáĪİ áĬĵ
áĭĴ áīµ
áĪ® áĬķ
áĭį áīµ
ĠáĭŃ áĪµ
ĠáĬ¥áĬķáī° áĬ¾
áĮ£ áĭķ
Ġ20 0
Ġáī¥ áĪĺáĬķ
ĠáĬ£áĪŃ áī£áĭķáī°
áĪ°áĪŃ áī°
ĠáĬ£áįįáĪª áīĥ
ĠáĪ »
ĠáĬķ áĭį
Ġáĭ° áĪĿ
ĠáĬ¥áĬķáĬ¨ áĪİ
áĪĺ áĭµ
áįį áĪį
áĬ¥ áĭļ
áĮł áĪŃ
áĬ£ áĬ½
áī£ áĪħ
ĠáĬ¥áĪĿ áīłáĬ£áĪŃ
ĠáĬ¥áĭ ĭ
áĪ¨ áĪĿ
ĠáĪĿ áĬĵáĪį
Ġáĭ ĳ
ĠáĬ¥áĬķ áīµ
Ġáī¥ áĪħ
áĪ³ áĪĮ
ĠáįĸáĪĪáī²áĬ« áĭĬ
áĬ µ
Ġáįķ áĪ®
ĠáĪĺ áīķ
ĠáĮ¸ áĮĭ
áīķ áĬķ
áĪµ áĬĲáīµ
áĪĽ áĪĿ
ĠáĬ£áĮĪ áī£áī¥
ĠáĬķáĬ¹ áĪī
ĠáĬĲ áĭĬáĪķ
ĠáĪµáĪĪáĭĿ áĬ¾áĬĲ
ĠáĬķ áĭµ
ĠáĪļ áĬĴ
ĠáĭĿ áĬ½
ĠáĬ¢ áĭ«
ĠáĭµáĪĿ áĮº
áī£ áĬ¤
áĪŃáĬ¨ áī¡
ĠáĪĺáī¥áĭĽ áĪķáīµ
o n
áī Ľ
Ġáĭĭ áĮĭ
Ġáī¥ áĭį
áĬ¥ áīµ
áĮ Ĵ
áĪµáī² áĭ«áĬķ
ĠáĭĪ áĬķ
ĠáĬ¨áĭŃ áī°
ĠáĭĿ áĪŃáĬ¨áī¥
ĠáĬ£áĭŃáĬŃáĬ¥ áĪįáĬķ
áĪµ áĬ»
áĪµ áĬ«
ĠáĬł áĪĿáĪĭáĬ½
áĮį áĪĬ
â Ģ
ĠáĮĢ áĪŃ
ĠáĭĿ áĪµ
áĪŃ áĭİ
áĪŃáĭ« áĪĿ
Ġáīł áĪī
ĠáĪ° áĭŃ
áĮįáĪŃ áĬĽ
ĠáĭĿáī° áįĪ
áĪį áĭİ
ð Ł
ĠáĬ£ áīķ
ĠáĪ° áĬķ
áĪ³ áĪ³
t i
áĪİ áĪµ
ĠáĬķ áĮ¥
ĠáĪĵáĭ° áĮĭ
ĠáĪµ áĬ¥
ĠáĬ£áĪĪ áĭį
ĠáĬķ áĪĺáĬķ
áĪŃ áĬŃ
ĠáĪĵáĪĭ áįį
áĪį áĭ«
áĪį áĬª
ĠáĭĿáī° áĭĪ
Ġáĭķáĭµ áĪĺ
ĠáĪĺáĪįáĬ¥ áĬ½áī²
ĠáĬ¥áĭ Ŀ
ĠáĪĺ áĪ¨
ĠáĪĺ áĭĽ
áĪĭáīµ áĬĵ
ĠáĪĺ áĪ¬áīµ
ĠáĬķ áĪĿáĬķáī³áĭŃ
áīł áĪª
áį Ĵ
áĭ° áĮĪ
ĠáĪ ¥
ĠáĭŃ áĪĿ
áĭ°áĬķ áīµ
áĬ½áĬ¥áĪį áĬķ
ĠáĪ³ áĪį
Ġáī¥áĪŃ áĪĥáĬķ
Ġáī¥áĭĿ áī°
ĠáĬķ áĬŃ
Ġáĭĺ áĪ¨áī£
ĠáĬŃ áīķ
áĬ£ áĪĪáĪĿ
ĠáĭŃ áĬ½áĬ¥áĪī
ĠáĬĵáĭŃ áĭļ
áĪ° áĭ«áīµ
áĪŀ áīµ
áĪį áĭ©
áĪª áīµ
Ġáĭķ áĭ®
áĪį áĭį
ĠáĮī áĮħáĪĪ
áĪ°áĪĿ áĭķ
ĠáĬ£áī¦ áĭŃ
ĠáĪ° áĬĵáĭŃ
áĪ¨ áįĪ
ĠáĪķáī¶ áī³áīµ
áĬķ áĬĵ
ĠáįįáĪŃ áĭ²
ĠáĬ« áī£
Ġáĭ¨ áī¥áĪį
ĠáĬŃáĪŃáĪµ áīµáĭ«áĬķ
ĠáĭĺáĪĪ áĬ¹
áĪ° áīµ
ĠáĪķ áī¡áĪ«áīµ
áĪĭ áĮ¥
ĠáĬŃ áĭį
Ġáī ´
ĠáĮįáī¥ áĮº
áĭ° áĪµ
1 9
Ġáĭĺ áĮĭ
áĪŃ áĮį
áĮ½ áĬĲáīµ
ĠáĬ£ áī°
ĠáĪķ áī¥áĪ¨
ĠáĬ£ áī³
ĠáĬ£ áĭļ
ĠáĪĵ áĬķ
ĠáĬŃáĬķ áĭ²
ĠáĭŃ áĬ¨áĬ£áĪį
ĠáĪ° áĬĲ
áĪĥ áĪ®
ĠáĪĿ áīķ
áĪ ¹
áĪŃ áĬ©áĪĿ
Ġáī ¡
áĪĬ áĪį
ĠáįĪ áĮº
ĠáĪ½ áĪķ
áĭĵ áĪĪ
áĬ£ áĪĿ
áĪĵ áĭµ
ĠáĬ£áĭŃ áĬ¨áĬ£
ĠáĬ¤ áĭį
ĠáĬĲ áĭĽ
áĪ¨áĬ½ áī¡
áĪħ áĬķ
Ġáīĥ áĪĭáīµ
ĠáĪµáĭ° áī°áĬĽáī³áīµ
ĠáĮ £
áīĢ áīµ
ĠáĬ£áĪİ áĬ¹
Ġáī° áĮ»
áĬĵ áī¥
ĠáįįáĪį áĮł
áĪĺ áĪī
ĠáĬķ áĮ½
ĠáĪĵ áĪŃ
ĠáĬ£ áĪĿáĪĭ
ĠáĪħ áĭ«
ĠáĬ¢ áĪĭ
áĪ³áĪ³ áĪĬ
áĭĭ áĭķ
Ġáī ª
Ġ M
ĠáĮī áī£áĬ¤
Ġáīµ áĪĿ
ĠáĪ° áĪ«áĭĬáīµ
ĠáīĢ áĪ¨áī£
e r
ĠáĬµ áĪİáĪĿ
Ġáīł áī³
áĭ° áĬĵ
ĠáĪħáĭĿ áī¥
áĬŃáĬ¥ áĪį
Ġáįķ áĪ¨
ĠáĭĺáĪĪ áĭĭ
Ġ /
áįį áĪ«
áīħ áĬķ
áī³ áĪį
áĭĿ áĬķ
ĠáĭĺáĭŃ áĬ°
Ġ3 0
áĭµ áĪļ
Ġáī »
áĮ¸ áĪĿ
ĠáĬ£ áĪµáī°
Ġáĭµ áĬ£
áĮ£áĭķ áĪļ
áī° áĬĽ
ĠáĮ¸ áī¥
áī³ áĭį
ĠáĭĪáīµ áĪ©
Ġáī¥ áĪ°áĬķ
áĮ¹ áĪĿ
Ġáīµ áĬ¥áĭĽ
áĪĵáīµ áīµ
ĠáĬķáĬ½ áīµ
áĪį áĭµ
áĭµ áĬ£
Ġáĭĵ áīłáĭŃáī²
ĠáĪħ áĮ»
ĠáĬĲ áĮ»
Ġáī¥ áĭķ
Ġ2 4
Ġáī£ áĭŃáī¶
ĠáĪĺáĪ° áĪ¨áīµ
ĠáĮĢáĪŃ áĪĺáĬķ
áĮ£ áĪļ
ĠáĭĿáīł áĪĥáĪį
ĠáĮį áĭµáĬķ
ĠáĬ ĸ
ĠáĪĺáĮĢáĪĺáĪŃ áī³
ĠáĬ£ áĪŃáĬ¥
ĠáĮ¥ áīķ
áĭµ áĭ®
Ġáĭį áĮįáĬ¥
ĠáĭĿ áĪķ
Ġáĭĵ áĪ°áĪŃáī°
ĠáĭŃ áĭį
ĠáĬŃ áĪĺ
áĭŃ áĭİ
ĠáĪį áĭĳ
ĠáĪĺáĪµ áĪŃáĪķ
ĠáĪį áĬŃáĭķ
ĠáĬª áĭ³áĬķ
áĪŃ áĪ²
áĭį áĪİáĪµ
Ġ2 5
ĠáĬĲ áĮ¥
Ġ ^
Ġáī į
Ġáī¥ áīķ
ĠáĭŃ áĪĺáĪµ
Ġáįįáīĵ áĭµ
áĮįáĭļ áĬ£áī¥
ĠáĪĽáĪķ áīłáĪŃ
ĠáĪĿáĬĵáĪį áī£áīµ
ĠáĭĪ áĪĭ
ĠáĪŃáĬ¥ áĪ±
ĠáĬķáĭĵ áĭŃ
Ġáī¥ áĮ£áĭķáĪļ
ĠáĪĺ áĮ¸
ĠáĭŃ áĪŃáĬ¨áī¥
ĠáĬ£ áī°áĪĵ
áĪ© áĪ³áĪĮ
ĠáĪĿáĪĿ áĪķ
Ġáĭŀ áī£
Ġáī°áĪĺ áĪĬ
ĠáĪĺ áĮ»áĬ¢
ĠáĭĿáĬĲ áīłáĪŃ
áĬ¦ áĬķ
áī³ áī°
áĪ° áĭµ
áĮł áīķ
ĠáĬ¥ áĬĲ
ĠáĭĿ áĬ¾áĬĳ
áĪħ áĪī
áĬĲ áī¥áĪ©
áĭĽ áī¥
ĠáĬ£áĭŃ áĬŃ
ĠáĭĿ áĬ¾
áĪĿ áīµ
áĭĵ áĭĿ
áĪĪ áĭĪ
áĪķ áĬĵ
áĭµ áĪª
ĠáĭŃ áī¥áĪī
áĭķ áĪŃ
áĭ¨ áĪ±áĪµ
ĠáĪķáī¥áĪ¨ áī°
Ġáĭķ áĭ³
áĪµ áĪ³
áĭĽáĪ¨ áī¡
áĮħ áĪĿáĪŃ
Ġáī° áĭ°
ĠáĪĵ áĭį
áĪĥ áĭ°
áī¥ áĬ«
ĠáĪ° áĪ«áĪķ
ĠáĪĥáĮĪáĪŃ áĬĵ
áĪ º
Ġáī° áĬķ
ĠáĪ ª
ĠáĪ ©
Ġáīµ áĮįáĪŃáĬĽ
ĠáĭĿ áīķ
ĠáĬ£áī¥ áĭĽ
ĠáĬ£áĪķ áĭĭ
áĭĪáĪµ áĭµ
ĠáĬŃ áĪķ
ĠáĬ¥áĭ Ļ
ĠáĬ£áīĲ áĭ²
ĠáĬŃ áįī
ĠáĪĽáĬ¥ áĬ¨áĪį
ĠáĬķ áĪŃáĬ¥
ĠáĬ¤áĭį áĪ®áĮ³
áĪ¨ áĬĵ
Ġáī¥áĭĺáĭŃ áĬ«
áĪ¸ áīµ
ĠáĮĪáĭĽ áĬ¥
áĭĽ áĬ¥
ĠáīµáĬ« áĪį
ĠáĬŃ áĬ¥
ĠáĮ½ áī£áĪķ
áĮ½ áĪŃ
ĠáīĨ áĪįáĭĳ
ĠáĬŃ áĪµ
Ġ *
Ġ T
áĪĿ áĪĪ
Ġáī¥áĪĺ áĪ°
ĠáĪķ áĪį
áĬ© áĪī
áĬķ áĭ³
ĠáĬ¥ áĮį
ĠáĭĿáīł áĭĿ
áī³ áī±
ĠáĬ¹ áĪī
ĠáĪĿáĬ½ áĪª
ĠáĮī áĭķáĭŀ
Ġáī¥áĪĵ áī£áĪŃ
ĠáĪĿ áī£áĪį
áĭĻ áĭŃ
Ġ A
ĠáĮ½ áĪķ
áĪ¨áĬ½ áī¦
ĠáĬŃ áĮĪáī¥áĪŃ
Ġáĭ³ áĪŃáĮĭ
ĠáĬ¥áī² áĬ£
Ġáīµ áĪĽ
Ġáī¥áĪĵ áĭ°
áĬ ¬
ĠáĪĺáĬķáĬ¥ áĪ°áĭ«áīµ
ĠáĪħáĭĿ áī£áĭĬ
áĭį áī²
áĬ« áĪį
Ġ N
áĬŃ áĪ®
áīł áĬĵ
Ġáī° áĮ¸
áĮ¾ áĪĿ
Ġáĭ° áĪµ
ĠáĬķáĭĺ áĪĪ
i n
áĪį áī³áīµ
.. ..
ĠáĪĺáĬķáĬ¥ áĪ°áĭŃ
áĬ£ áĪį
ĠáĪ½ áĭĪ
áĪħ áī¦
áĪ© áĬķ
Ġáĭį áĮ½
ĠáĬķ áĮ¹
ĠáĬ¸ áĭŃ
ĠáĭŃ áĮį
áĮ» áī¥
Ġáī¥áĪŃ áĮįáĮ½
áī³áīµ áĬĵ
Ġ2 3
Ġáī¥áī° áĭĪ
ĠáĪĿáĭķ áĪ«
ĠáĬ£áĬ¥ áĪĿáĪ®
áĪ¨ áīł
ĠáĮ½ áĬķ
ĠáĭĪáĬķ áĮĮ
áī ¸
Ġ2 1
ĠáĬķ áĪ°áī¥
ĠáĪķ áī¥áĪ¨áīµ
ĠáĬ£ áĭ²
ĠáĪĪ áĭŃáī²
áī¥ áī²
áĪŃ áĬł
áį¡ -
áĪ©áĪ³áĪĮ áĪĿ
ĠáĪĺ áīĲ
áĬ£ áĬĵ
ĠáĪĺáĭĵáĪį áī³áīµ
ĠáĪĿáĭĥ áĬķ
áīķ áĪŃ
ĠáĬ ¼
ĠáĪĺ áĪ«áĪķ
áĭ³ áĪµ
áĮĭ áĭĬ
ĠáĪĺ áĪĵ
áį£ +
ĠáĪ°áĪį áįĬ
ĠáīµáĪŃ áĮīáĪĿ
Ġáī£ áĪħáĪŃ
Ġáį ¥
ĠáĪĵ áĮ¢áĬ£áīµ
áī ½
áĮį áĬĵ
Ġáī¥ áĭ°
ĠáĮ³ áĭįáĪİáĪµ
áī¦ áīµ
Ġáįį áĪ¨
áĪķáĮį áĭĺ
ĠáĪĿáĪµ áī²
ĠáĪĵ áĭĬ
áĭĿ áĪŃ
ĠáĪĽáĪķáīł áĪ«áĭĬ
ĠáĪ Ħ
Ġáī° áĬĲ
ĠáĭĿáī°áįĪáĪĭáĪĪ áĭ©
áĭĢ áĬĲ
ĠáĪĺáĭĵ áĪµ
ĠáĬ£ áĭĺ
ĠáĬ° áĬĲ
áĪ¶ áīµ
ĠáĪĺáĪ° áĪ¨
áī¥ áĪĵ
ĠáįĪ áĪĬ
áĬŃ áĬŃ
Ġáīµ áĬ½áĬ¥áĪī
áĪĪ áĬ«
Ġáĭĵ áĭį
áĪ°áĪŃ áĪĳ
áĭį áĭķ
áĭŃ áĬĲ
o r
áĭ Ķ
áĭĵ áĬĴ
ĠáĪķáĪĽ áīķ
áĬ£ áĪĿáĬķ
ĠáĪĿ áĬ»
Ġáī¥áĭµ áĪķáĪª
Ġ2 2
Ġáī¥ áĬķ
ĠáĬ¸ áī°áĪĽ
ĠáĪŃáĬ¥ áĭŃáī¶
ĠáĮĮ áĮĭ
ĠáĭĢ áĭŃáĬĳ
ĠáĬ£áī¥ áĬĲáīµ
Ġáī¥ áĬ½
Ġáĭ İ
áĪį áĭ®áĬķ
áĬ© áĭİ
áįĪ áĪ»
ĠáĭĿ áĮį
áī¡ áī¥
Ġáĭļ áī¥áĪį
áĪ± áĬķ
ĠáīĢ áĭ°áĪĿ
áĪ³ áĬ¥
ĠáĮ¸ áĮĪ
áĬĵ áĭķáī²
ĠáĮ ĥ
ĠáĭĿ áĮ¸áĬķ
áį¡ +
ĠáĬ£ áĭĴ
áĭµ áīķ
ĠáĪĿáĬķ áīħáĪµ
ĠáĬ£áī£ áĪį
ĠáĮĮ áĪŃáĬ«
áĭĪ áĪŃ
ĠáĬĲáĭŃ áĪ«
áĮĪ áĪĪ
ĠáĬŃ áī¥áĪª
Ġáĭĵ áĭĪáīµ
ĠáĪ Ģ
ĠáĬķáĪĿ áįį
ĠáĬ® áĭŃáĬĸáĪĿ
ĠáĬŃáĪŃ áĪµáī²áĭ«áĬķ
ĠáĪĵáĪĭáįį áĬĲáīµ
áīĢ áĪį
áĪ° áĬĲ
áĮł áĪĺ
Ġáī¥áī°áĭĪ áĪ³áĬº
áīĥ áĪµ
ĠáĬ£áĭŃ áįĪáĪįáĮ¥áĬķ
áĪĽ áĪŃ
ĠáįĬ áĪįáĪĿ
ĠáĪĵáĪĻ áĪ½áī°
ĠáĬ® áĬķ
Ġáī¥ áī¥
00 0
ĠáĮĪ áĭ²
ĠáĪ¨ áĬ£
ĠáĭĿáĬ£ áĪĺáĪ°
áĬ» áĬ½
áĮĲ áĪµ
áįĪ áĪĪ
áĪĪ áĭİ
ĠáĪĽáĬ¥ áĬ¨
Ġáĭ² áĬ»
áĪĭ áī¶áĪĿ
ĠáĬŃ áī°
Ġáī «
Ġáīł áĮĥ
áĬĲ áī¶áĪĿ
ĠáĪĺ áĬ¨
áī¥ áĭİ
áĬª áĬĵ
áĪ ł
ĠáĪįáĭĳ áĪį
ĠáĪĺáĪµ áĭĭ
áĪŃ áĪĥ
áĪĿ áĪħ
a n
Ġ R
áĭ© áĬķ
ĠáĬĵ áĮ½áĬĲáīµ
ĠáĭĿ áĪĥ
áįĪ áī±
ĠáĮ» áĭķ
ĠáĬ® áĭŃáĬĵ
áĭĵáĪį áī²
áī «
áĮįáĪĬ áĭĿ
ĠáĬķáĬ¥ áĪ½
ĠáĬ£áī¢ áĪī
Ġáīħ áĬĳáĭķ
áĮ¥ áī³
ĠáĬĵ áī£
ĠáĬ£áĮĭ áĮ£áĪļ
Ġ _
áį Į
áĭ° áĪī
Ġáī° áĮįáī£áĪŃ
áĬ¨ áĪŃ
áĭĪ áĪĵáīµ
áĪĿ áĬĲáīµ
ĠáĬķ áīķ
ĠáĬ¥áĭĻ áĭŃ
áī Ī
ĠáĬ¨áĪĿáĭĺ áĪİ
áĮ½ áĪĳ
ĠáĭŃ áĮ½
áĭį áĮ½
áĪĿ áĭķ
ĠáĪ° áīłáĭŃ
Ġáī¥áĪ°áĬķ áĬª
Ġáī¥ áĬĵáĭŃ
ĠáĪ½áĭĪ áĭ°áĬķ
ĠáĪĺ áĮĭ
ĠáĭĿáĪĺ áĮ½áĬ¥
áĪ° áĪī
ĠáĪĺáĮį áī¢
ĠáĪĺáĭµ áĪ¨áĬ½
áĪ¨ áĬĴ
Ġáĭķ áĬķ
Ġáī° áĪ³
ĠáĪĿáĪµ áĮ¢
ĠáĪĺ áĪ«
Ġáīł áĪ¨
Ġáīł áĮº
áĮ¥ áĪ¨áīµ
Ġáī° áĮįáī£
ĠáĬķáĭĵ áĬ»
ĠáĮĪáĪĬ áĬ¦áĪĿ
ĠáĬ£áĭŃ áĪĿ
áĪį áĪį
ĠáĭĿ áĪĿáĪįáĬ¨áīµ
ĠáĪµáĪĪ áĭĺ
ĠáĭĪ áĭ«
ĠáĪį áī¥
áĪĭáĬķ áĭµ
áĭŃ áĪ©
ĠáĭĿ áĭ°
áī¡ áĬķ
Ġáī° áĬ»
ĠáĬ£áĭŃ áĪĺáĪµ
ĠáĬŃáīµ áĬ¨áĭįáĬķ
áĬ« áĭŃ
ĠáĮ¥ áĬķ
" áį¢
áĪį áĪĽáīµ
ĠáĬ£áĪĪ áĬ«
ĠáīµáĪĽ áĪĬ
áĪ ¾
áĪĭ áĬ¢
ĠáĮį áĭĿ
ĠáĪ° áĪª
áĪ« áīµáĬķ
ĠáĭĿ áĮįáīłáĪŃ
ĠáĭŃ áĪĺ
ĠáĮ ħ
Ġáĭį áĪī
Ġáĭ Ļ
Ġáĭ Ĥ
áīł áĪĭ
Ġáīµ áĪķáĭĿ
ĠáĪ°áī¥áĬ£ áĭĬ
Ġáī¥áĪĿ áĭĥ
ĠáĬ¥áĬķ áĭµ
ĠáĬĵáī¥ áĬ¡
áĪį áĮ¢
Ġáĭµ áĪį
áĮİ áĪµ
áĪĺ áĬĵ
ĠáĭĿáĮĪ áīłáĪ¨
áĪŃ áĬ£
Ġáĭį áĪĳ
ĠáĬŃáĬķ áĭµ
ĠáĬ£ áĭ³
ĠáĬ£ áĭĪ
Ġáī°áĮĪ áĪĬ
áįį áĬĵ
áī± áĪĿ
ĠáĬŃ áĬ¸
ĠáĮī áĭ³áĭ«áīµ
ĠáĪ°áĭŃ áĮ£áĬķ
áĬĴ áīµ
ĠáĭĿ áī¥áĪī
áīĨ áī¥
áĪį áī°
ĠáĬ¨áĪĺáĭŃ áĪ²
áĭŃ áīµ
ĠáĭĿáĮĪ áīłáĪŃ
ĠáĪĿáĪ³ áĭŃ
Ġáįį áĮ»
áĭķ áī¥
ĠáĭŃ áĭĪ
áĪĥáĬķ áĪµ
ĠáĬķ áī°
ĠáīĢ áĮº
áĭļ áĭ°áĬķáīµ
áĪį áĭĭ
áĪµ áĪ«
ĠáĪĺ áĬĵ
ĠáĪĺ áīłáĪį
ĠáĬ£áĪµ áĪĺáĪ«
ĠáĭĿáīł áĪİ
Ġáįįáīµ áĪĴ
Ġáĭ¨ áĭµáĪĬ
ĠáĪĵ áīĢ
áįį áĬ«
áĮ¥ áĪ¨
ĠáĭĿ áĮĪáī¥áĪŃ
Ġáī° áĪĿ
áĭ« áī³áīµ
ĠáĮİ áĭŃáī³
a d
ĠáĪĺ áĪ²
áĪµáī° áĪŃ
ĠáĬ£áĭŃáĬ® áĬķ
áĪ´ áįį
Ġáīµ áĮ½
áĬķ áĮ»
áīµ áĭ«
ĠáĭŃ áįĪáĪįáĮ¥
ĠáĬ£ áįĪ
áĪĵ áĭĿ
ĠáĪĿáĪµ áĮĭ
Ġáĭ°áĮĬ áĪĿ
o m
ĠáįįáĪįáĮł áīµ
ĠáĪŃáĬ¥ áĪ²
ĠáĪĤ áĭĪáīµ
áī ĺ
ĠáĮĭ áĭľ
ĠáĬ Ĵ
ĠáīµáĬ« áĪĭáīµ
Ġ S
áĭ° áĪ«
áĭį áĬĲáīµ
áĮ½ áĪĿ
áĪĪ áĭį
ĠáĪĿ áĭķáī£
Ġáī¥ áĪī
ĠáĬķ áĮī
áĭ« áī°
áĬŃ áĪĿáĬĵ
Ġ C
ĠáĪŀ áĭŃ
ĠáĪĿáĪķ áĪ¨áīµ
ĠáĬ¨áĭŃ áīµ
ĠáįĪ áĪª
áĬķ áīµ
Ġáĭĵ áĪŃ
áĭĵ áĭŃ
ĠáĪĽ áĪŃáĭ«áĪĿ
ĠáĬ£áī¥ áĪŃáĪĥ
áīł áĪİ
ĠáĭĪ áĮº
ĠáĪĿ áī¥
ĠáĬ¥áĪµ áĬ¨
áĮĭ áĪļ
ĠáĬķáĭķ áĬ¡
ĠáĭĺáĭŃáĬ° áĬĲ
ĠáĪĺ áīł
Ġáī°áĭĪ áĪ³áĬº
áĪ°áĪŃ áī²
áĭµáĪķ áĬķ
áĪĵáĪµ áī¥
áĭ« áīµáĬķ
Ġáĭļ áĬ½áĬ¥áĪį
ĠáĬ ¡
áĪľ áĬķ
ĠáĪĭ áĭķáĪĬ
ĠáĬ£áĪµ áī³áīµ
a r
ĠáĬ£ áĮ½
Ġáī¥áĪĺáĪ° áĪ¨áīµ
áĭĭ áĪŃáĭ«
ĠáīĢ áĪĬáĪį
ĠáĬ¨áĪĿáĭĿ áī°
Ġáĭµ áĬķ
ĠáĭŃ áĪĺáĪµáĪį
ĠáĪ° áĪĭ
ĠáĭįáĪį áīĢ
ĠáĬ¥áĬķáī° áī°
ĠáĬ² áĬĵáīµ
ĠáĭįáĪ³ áĬĲ
Ġáīµ áĭķ
áĭĺ áĪ«
áĮ» áĪĬ
áĪĺáĪµ áĮį
ĠáĬŃ áĬ¢
ĠáĬ¸áĪĿ áĭļ
ĠáĭĪáĪĪ áĭ¶
ĠáĬ² áĪī
ĠáĭĪáĬķáĮĮ áĪį
ĠáĪĺáĬķ áīłáĪª
ĠáĪķáī¥áĪ¨áī° áĪ°áī¥
ĠáĭĽ áĬķáī³
ĠáĭĺáĭŃáĬ®áĬĲ áĪµ
ĠáĪħ áĭĪáĪĵáīµ
Ġáī¥ áĪ©
Ġáī°áĪĺ áĪ³áĪ³áĪĬ
áĪµ áī³
Ġáĭµ áĬ»
Ġáī°áĪĺ áĪį
ĠáĪ°áĭĵ áī³áīµ
Ġáī£ áĬķ
ĠáĭµáĪķáĪª áĬ¡
áĪģ áĭ³
Ġáī° áĪª
áĮ¸ áĪŃ
ĠáĭĿáī°áįĪáĪĭáĪĪ áĭ¨
áĪģ áĭµ
áĬ» áĭĬ
Ġáĭĺ áįį
ĠáĬ£ áĮĪáĪį
Ġáīĵ áĪį
Ġáĭį áĪķ
ĠáĬ¥ áĬ®
ĠáĬ® áĪĿ
ĠáĪĵ áĮº
áī¢ áĪ©
ĠáįįáĪį áĪį
áīł áĭĿ
ĠáĭĿ áĮł
áĭµáĪį áĭ®
Ġáįį áĮ¹áĪĿ
ĠáĬ¤áĪŃáīµáĪ« áĭįáĭ«áĬķ
áĬŃáĪŃáĪµ áīµáĭ«áĬķ
ĠáĪĿ áĪ¸áīµ
áĪŀáĬŃáĪ« áĪ²
Ġ P
áĪ¨ áĬł
ĠáĪŃ áĬ¢
áĪį áĭ®
áĭĢ áĬĳ
ĠáĪĺáĮº áĬ¡
ĠáĬ¢ áĬº
áĪĥ áĪī
ĠáĬ£áĬķ áĪµáīµáĭ®
ĠáīµáĪķáĭĿ áī¶
Ġáīģ áĮł
ĠáĭŃ áĮĪáī¥áĪŃ
ĠáĪ ī
áĭĻ áĪķ
ĠáĬ¢ áĪ³
áĮĪ áīłáĪ¨
áī£ áĬ¥
ĠáĮī áĭµ
áĪĽ áĭĬ
áĪĮ áīµ
Ġ E
áĭĵ áĬķ
ĠáĬ® áĪļ
ĠáĬŃ áī³
ĠáįĪ áĪŃ
ĠáĪ°áĪĽ áĭ«áīµ
ĠáĭĿ áĭ°áĪĬ
ĠáĮį áĭ°
ĠáĪĴ áĭĿ
Ġáĭ° áī¡áī¥
ĠáĬķáĭĵ áĬĵ
1 0
áĪĪáĬķ áĬķ
s t
áĭ¨ áĭŃ
ĠáĭĿáĭĵ áīłáĭ¨
áĪĪ áĪī
áĭĭáĪŃ áĭ«áīµ
Ġáįį áīħ
áĪ³áĪµ áī£
Ġáĭļ áĬ¸áĭįáĬķ
áĬķ áĬ©
ĠáĬŃ áī¥
ĠáĮ½ áĭµ
ĠáĬķáĪħ áĭĿáī¢
áĪį áĭ°
áĪ¨ áĮ½
áĪį áĬ»
ĠáĬķ áĬ»áĪį
ĠáĬ£áĭŃ áĬª
ĠáĭĿ áĭµ
Ġáį Į
ĠáĪĿáĬķáīħáĪµ áīĵ
ĠáĮ¥ áīł
Ġáī¥áĬ¥ áĬ¡
áĪĪ áĭ¨
áĬ¥ áĪĿ
áĮį áĪµáī²
áĮł áĪ«
ĠáĭĺáĪĪ áĭį
áĪŃ áĪĴ
ĠáĪķ áĬŃáĪĿáĬĵ
ĠáĬ¥áĭļ áĬ¦áĪĿ
áĮł áĪ¨
áĭŃ áī³áĭŃ
áĭ Į
áĪĭ áĭķ
áĪ° áĪį
ĠáĬ¥áĭļáĬ£ áī¶áĪĿ
áīķ áī²
ĠáĭĿáīł áĪī
ĠáĪĺáĪµ áĬ¨
ĠáĭĿ áĪ¨áĬ£
áĬ¥ áĬĵ
o u
ĠáĭĿáī° áĪĵ
áĭ Ĥ
áĭĭ áĪĿ
ĠáĬ¥áĪµáĪ« áĬ¤
ĠáĬ¥áĬķ áĪµáĪ³
´ áĮ¥áĪ®
áĪĪ áĬ¹
ĠáĬŃ áī¥áĪī
ĠáĮį áīłáĪŃ
ĠáĭĺáĭŃ áĬķ
ĠáĬ¨ áī¥
Ġáīµ áįĪáĪįáĮ¥
áĬ£ áĬŃáĪį
áĮĭ áĮĪ
Ġ m
ĠáĪĿ áīħ
ĠáĭĿ áĭ°áĪĪ
ĠáĪĿáĪ³ áĬĵ
ĠáĬķ áĪį
áĪĭ áĭįáĭ«áĬķ
ĠáĭĪ áī°
ĠáĪĿáĪµ áĬŃáĪŃ
áĪĪ áĭµ
ĠáĪĵáĪ³ áī£áīµ
ĠáĪĿáĪį áĬŃáīµ
áī¥ áĪ®
ĠáĪĵ áī°
Ġ2 6
áĮ Ĩ
áĭĽáĪ¨ áī¦
ĠáĬĵ áīµáĬ«
áįĪ áĪµ
áĮ ª
ĠáĭĿ áĪµáĭķáī¥
áĪĺ áĭĿ
áĮł áĬĵ
ĠáĭĪ áĪ°
Ġáĭľ áĮĭáī³áīµ
áĬŃ áĪµ
áī¥ áĬ£
Ġáĭ© áĬĴ
ĠáĮĪ áīłáĪŃ
áī¡ áīħ
áĭį áĪŃ
ĠáĬŃáĪħ áĪī
áĭ¨ áĬĵ
ĠáĪļ áĪįáĭ®áĬķ
ĠáĪĺáĮ½ áĬĵáĭķáī²
ĠáĮĪáĭŃ áĪ¨
ĠáĬ¥áĬķáī°áĬ¾ áĭŃáĬĳ
áĮ¸ áĪį
áĬķ áī±
áĭŃ áĪ¨áĪµ
áī¥ áĭĽ
ĠáĬ¨ áĭĵ
áĪ« áĬ¥
áįİ áĬķ
áĮĪ áĪµ
ĠáĮ¥ áĭĳ
ĠáĪĿáĪ³ áĬ»
áĭķ áĪĭ
ĠáĬĵ áī°áĭŃ
Ġáīµ áĪķ
áĪ³ áīĲ
ĠáĪĺ áĬ£
ĠáĪħáĭĿ áī¥áĬĵ
ĠáĪ° áĪĿ
o re
ĠáĬ£áĬ« áĪĭáīµ
ĠáĪµ áī¥
áĪĿ áĭµ
ĠáĪµáĬ¥ áĪĬ
ĠáĪĺ áĮ»
Ġáī° áĪĪ
ĠáĬ£áī¥ áĭ«áī°
ĠáĬ£áĭĭ áĪŃáĪķ
ĠáĬ¥áĭ ĺ
áĬ¥ áĬ«
ĠáĪĿáĬķ áī£áĪŃ
Ġáī¥ áĮ¸
Ġ[ .
ĠáĬ£ áī²
áĮį áĪµ
ĠáĭĪ áĭ°
ĠáĪµáĪĪ áĭĺáĭŃ
ĠáĮ¥ áĪŃ
ĠáĪĺáĬķáįĪ áĪ³áĭĬ
áĪ¨áĮĭ áĮĪ
Ġ áī²
Ġáĭĵáīķ áĪļ
áĭį áĭĵáī°
áĭİ áĪµ
Ġáĭĺ áĪĿ
ĠáĬ£áĬķ áĮ»áĪŃ
ĠáĬ½ áĪ³áĭķ
ĠáĪĺ áĪĿáĪŃ
ĠáĬķ áįĪ
ĠáĪĺáī¥áĭĽáĪķáīµ áĬ¡
ĠáĮ¸áĬĴ áĪĳ
ĠN e
ĠáĪĵ áĪĬáįī
áĭĪ áī³
áĮ¦ áĪĿ
áĬ ²
ĠáĭŃ áĬĲ
ĠáĬŃ áī¡áĪŃ
Ġáī» áĭŃáĬĵ
ĠáĪĺáĪ«áĪķ áī²
áĮ½ áĬ¡
ĠáĪĺáĬķáĮį áĪµ
áįĸ áĪŃáīµ
Ġáĭĺ áĬķ
áīĥ áĪį
áĭĪ áĬĵ
ĠáĬ¢áĬķ áī°áĪŃ
ĠáĭŃ áĬ¸
áĬł áīµ
ĠáĭĿ áĪ¨áĬ¸
ĠáĬķ áĬķ
Ġáĭ° áĬķ
áī£áĪħ áĪĪ
áĪİáĪĿ áĬķ
áĬ¤ áĬķ
áĭį áĪµ
áĭ° áĬ£
áĬ¨ áĭŃ
ĠáĬķáĭħ áĪī
Ġáĭ° áī¥
Ġáī¥áĪĿ áĪīáĬ¥
Ġáĭ° áĪĬ
áĪŃáĬ¥ áĭ©
áĬ¥ áī°
ĠáĮį áĪŃ
áĭ° áĪįáĬķ
áĮĪáĪįáĮį áĪį
ĠáĬ£ áī¶
áĪ¨ áįį
ĠáĬĲ áĭŀáĪĿ
áĬ¹ áĪį
Ġáĭķ áĪĪ
ĠáĬķáĮ¥ áįĪ
ĠáĬ£áĪĪ áĬ»
ĠáīĢ áĪįáĮ¢
ĠáĪ¨ áī¥áĪĵ
ĠáĬĵ áī±
ĠáĪĿáĪµ áĪĬ
ĠáĮ¥ áīłáī¥
áĬĵ áĭķ
áĬĵ áīµáĬķ
ĠáĪŀ áĭ«
áįĭ áĪµ
ĠáĬ£áīµ áĪĴ
áī³áĭĬ áīµ
ĠáĮ¸áī¥ áĮ»áī¥
ĠáĬķáĬ¥áĪ½ áī¶
áĪ¨ áĪī
Ġáĭµ áĪ®
Ġáĭĵ áī£áĭŃ
ĠáĪŃáĬ¥ áĪ°
áī£ áīµáĬķ
áĪĬ áĮ¡
ĠáĪĺáĭĵáĪį áīµáī³áīµ
ĠáĬķáĪĵ áĭµáĪķ
áĪĭ áĭī
ĠáĮ¸ áĪİ
ĠáĬķáĬĲ áįį
Ġ â
áĭį áĪŀ
ĠáĪĽáĬ¥ áĪ°áĪŃáī²
áĪµ áĭ«
ĠáĬ£áĪĪ áĬĴ
ĠáĪµ áĮī
ĠáĬ£áĪķ áĭĭáīµ
áĪĪ áĪį
ĠáĪĺ áĮ¥áīĥ
ĠáĪ° áįĬ
Ġáĭ¨áī¥áĪį áĬĵáĬķ
ĠáĬķáĬ¥ áĮįáĭļáĬ£áī¥
ĠáĪ ł
ĠáįĸáĪĬ áĪµ
Ġáĭ©áĬĴ áī¨
l e
áĪĥ áĭŃ
áįĭ áĬķ
ĠáĬ¥áĬĵ áīłáĪĪ
ĠáĭĢ áĬĲ
Ġáĭ¨ áĪ©áĪ³áĪĮáĪĿ
Ġáį ¤
ĠáĭĿáĪĵ áĭĺ
ĠáĪĺ áĭĭ
áĪĬ áĪī
ĠáĬ¨áĪĿáĭĿ áĬ¾áĬĲ
ĠáĭĿáīł áĪį
ĠáĭĿáĪĺ áĮ¸
áį Ĩ
ĠáįķáĪ¨ áĭļáĭ°áĬķáīµ
ĠáĬķ áĮ¸
ĠáĬ¾ áĭŃáĬĳ
ĠáĪĵ áī²
ĠáĮĪáĪĬ áĮ¹
ĠáĬ¥áĭĺ áĬķ
ĠáĪ½ áĮįáĪŃ
ĠáĬĲáīłáĪ¨ áīµ
ĠáīłáĪį áĭİ
áĪĺ áĮ¥
Ġáĭĺ áĪķ
ĠáĪĥáĭŃáĪĽáĬĸ áīµ
áīł áĪįáĬĵ
ĠáĪĿ áī¥áĪ«
Ġáĭ« áĬ¥
Ġáĭĭ áĬĵ
áīĲ áĬķ
Ġáĭ¶ áĪĭ
áĭ¨ áĪŃ
ĠáĮĪáĭŃ áĪ®áĪĿ
ĠáĪĽáĭķ áĪ¨
áĪĥ áīµ
Ġ s
Ġáĭ¨ áĭµáĪįáĭ¨
ĠáĭĿáī° áĭĭ
Ġáīģ áĮ½áĪª
Ġáī ±
áĮĪáĪį áĮ¸
ĠáĭĿáīłáĪĪ áĮ¸
ĠáĪĵ áĪ«
Ġáĭľ áĮĭ
ĠáĪĺáĪµáĬ¨ áĪ¨áĪĿ
áĪĭ áīµáĬķ
´áĮ¥áĪ® áĪµ
áĬ» áĪįáĬ¥
ĠáĬ¥áĬķáī° áĭĿ
ĠáĬŃáĪŃáĪµ áīµáĭ«
Ġ2 8
ĠáīĢ áĭŃ
ĠáĪĺáĪª áĪķ
áĭĵ áĬĵ
Ġáĭ® áĪ´áįį
ĠáĪŃ áĪĳ
áĪĽ áĪį
áĪĪáĭŃ áī²
áĪŃáĬ« áī¥
áĪŀ áī±
ĠáĭĺáĪĪ áĬ»
ĠáĭŃ áī¥áĪĪ
ĠáĪĺáĪ« áĪĴ
ĠáĪĵ áĪ¶áīµ
áĬ» áĭ¨
ĠáĪĿáĪĿáĪķ áĭ³áĪŃ
ĠáĮĪ áĪĿ
Ġáĭķáĭ³ áĮĭ
ĠáĬ£áĭŃ áįĪ
ĠáĬķ áīµ
áĭķ áĭµ
áī± áĭķ
áįĪáĪĭáĪĪ áĭ¨
ĠáĪ³áĪį áĪ³áĭŃ
Ġáĭ¨ áī¥áĪĪ
áĮ¸ áĪĺ
áĬ¥ áī³
áĪĪ áĪµáī°
áīµ áĬ»
Ġáī ¶
ĠáįĪáī° áĬĵ
áīĥ áĬķ
ĠáĪµáĮī áĪĿáī²
ĠáĬķ áī£áĭķ
Ġáĭ° áīħ
ĠáĬ£áĮ¸ áī¢
áĭ°áĪį áĭ®
áīł áĮ½áĪķ
ĠáĭĿ áĬķ
Ġáī£ áĪŃ
ĠáĬ¨ áĭ¨
áĭĵ áĪī
áĮ¢ áĪ©
ĠáĪ± áĭ³áĬķ
ĠáĪĿ áĮ¥
Ġáī°áĪ« áĬ¥
ĠáĪĵáĭ« áĪį
ĠáĬŃ áĭµ
áĪµ áĪŃ
áĬ¹ áĪĿáĬķ
ĠáĪ« áĬ¥
Ġáĭĺ áĪŃáĬ¢
ĠáĬ¨ áĬł
Ġáī³ áĪķ
ĠáĭĿáĬĲáīłáĪ¨ áīµ
ĠáĪĽáĪķ áīłáĪ¨
ĠáįĪ áĪ¨áĬķ
Ġáī¥ áĮ½
áĮĪáĪŃ áĪĿ
ĠáĬ£ áĪ¨
ĠáĪĺ áĭ³áĭŃ
áĭ° áĮį
ĠáĬ© áĪįáĬĵ
áī¶ áĬķ
ĠáĭĿáĬĲ áīłáĪ®
áĪ® áĬĵ
Ġáīħ áĪŃ
áīĨ áĪĿ
Ġáī¥ áĬ¢
ĠáĪķ áĭĿáī¢
ĠáĪµ áĭĴ
ĠáĬķáĬ»áĪį áĬ¦áīµ
áīĵ áĭŃ
áĭĵ áī¢
áĪĪ áĪ±
1 5
áĪµ áĪĪ
áįĪ áĬķ
ĠáĬķáĪħ áĭĿ
ĠáĪĺáĪµáĭĭ áĬ¥áī²
Ġáĭ³ áĮį
ĠáīĨ áĪįáĭĵ
ĠáĪĿáĭķáĪ« áįį
Ġáī¥ áĬĲ
ĠáĪĿ áĭī
áĪĵáĭŃ áĪ½
ĠáĬŃáĪįáī² áĬ¦áĪĿ
ĠáĬŃáĪį áĪį
ĠáĬ¥ áĬ¹áĪį
ĠáĬŃáīµ áĮĪáī¥áĪŃ
ĠáĬ¨áĪĿáĬ¡ áĭįáĬķ
áĪµ áĪį
áĮ¥áīĢ áĪĿ
ĠáĬ¥áĬķ áĮįáĪĬáĭĿ
áīĸ áĪĿ
áĭĪ áĬ«
ĠáĬĵ áīµáĬĵ
ĠáĪį áīłáĭŃ
ĠáĬ£áĪħ áĭĽáī¥
ĠáĪĺ áĮĪ
ĠáįĪ áĪĪáĪĽ
ĠáĬŃ áī¥áĪŃ
áīµ áĪª
áĪĭ áĪ½
áĮ½ áĬ£
Ġáī¥ áĭĵáĪį
áĭ² áĬ¡
ĠáĬ£áī¥ áĬ£
áĪĵáĪį áįį
Ġáī° áĭ³
ĠáĮ¸ áĪĭáĬ¢
ĠáĮ¸áĮĪ áĪĽáīµ
ĠáĭĿáĬ£áĪĺáĪ° áĪĪ
áĪ¨ áī³
Ġáī£ áĭŃáī³
Ġáĭ¨ áĪİáĬķ
ĠáĪĽ áĬķ
Ġáĭ¨áī¥áĪĪ áĭŃáĬķ
ĠáĭŃ áĬķ
Ġáī¥áĭĿ áĭ«áĭ³
ĠáĪĺáĪĿáĪŃ áĪĴ
ĠáĪĺáĭĵáĪį áī³áĭĬ
ĠáĭĿáĪĿ áĭµáĬĵ
ĠáĪ ¬
ĠáĪĺáīķ áĭ°áĪµ
Ġáī¥ áĬ¡
ĠáĬĲ áī¢
Ġ2 7
áĪĵ áĪī
ĠáĪĻ áĪīáĬ¥
ĠáĪĺáĪŃ áĭĵ
ĠáĪĺáĭĿ áĪĻáĪŃ
áīķ áĪŃáī¥
ĠáĪĺáĮĢáĪĺáĪŃ áĭ«
ĠáĭĿáĮĪ áīłáĪ®
áĮ¥áīĢ áĪĺáĪī
ĠáĭĿáĬĲ áī¥áĪŃ
ĠáĮ½áĪķ áįĪáīµ
Ġáī°áĭĭ áĪĤ
ĠáĬŃ áĬ½
ĠáĪĵáĭµ áĬĲáīµ
ĠáĬķáĮį áĪĨ
áĪĿáĪį áĬ¨
a l
ĠáĪĺ áįįáīµ
ĠáĬķáĪĿ áĮįáī£áĪŃ
áĬ¥ áĭĿ
Ġáĭĺ áĭį
ĠáĬ£áĪİ áĬĴ
Ġáī¥áĬ¸ áĪĿ
ĠáĪĲ áĭļ
ĠáĭŃ áĭĿ
áĬ¸ áĭŃ
áĪĪ áī¥
ĠáĪŃ áĮį
áĪķáĮį áĭĿ
ĠáĬķ áĪĥ
áĭĵ áĪŃ
ĠáĪ°áĬķ áīłáīµ
ĠáĬķ áĬĵáĭŃ
ĠáĪĺáĪ°áĪ¨ áī³áĭĬ
áĭĽ áīµ
áī³ áĪĿ
áĪ¨ áī¡
ĠáĪĺáĪ° áĪĭáīµ
áĮĪ áīłáĪŃ
ĠáĮ½áĪĳ áįĭáīµ
ĠáĭĪáĭ« áĬĲ
áĭĻ áĪĵáīµ
ĠR e
Ġ 0
áĪµáīµ áĪª
áĮĭ áĪĿ
ĠáĭĪ áĭµ
ĠáĬ£áĮĭ áĮ¢
ĠáĬŃáįī áĬ¥
ĠáĪĺ áĪĿáĪħáĪŃ
áĬĸ áĪµ
Ġáĭ¶áĪĭ áĪŃ
áīł áĮ½
áįħ áĬ¥
ĠáĬ£áī°áĪĵ áĪ³áĪµáī£
áįį áĪª
áĮł áīĵ
ĠáĮĮ áĪŃáĬĵ
ĠáĬŃáī³ áīłáīµ
ĠáĬ«áī¥ áī³
Ġáī£áĪħ áĪĬ
ĠáĪĺ áīµ
ĠáĮĪ áīłáĪ¨
Ġáīĥ áĪĪ
ĠáĭĿ áĪĺáĪµ
ĠáĬ£áĭ¨ áĪŃ
ĠáĪĴ áĭĻ
ĠáĬķáĪĿ áĪŃáĬ«áī¥
ĠáĬ¤ áĪį
ĠáĪĺáĮ¥áīĥ áĭķáī²
ĠáĬŃáĬķ áī¥áĪį
áĮ£ áĪª
ĠáĪ¸ áĭįáĭĵáī°
áĮłáįį áĬ¥
áĬ½áĬ¥ áĪİ
ĠáĪµáĪĿ áĪĿáĭķ
áĪĿ áĪĪáĪµ
áī ļ
ĠáĬŃáīµ áī¥áĪį
Ġáīħáĭµ áĪĿ
Ġáĭ°áĮĪ áįį
ĠáĬ® áįį
ĠáĭĪ áĮĪáĬķ
áīł áĪ®áĪĿ
ĠáĮĢ áĪĺáĪ¨
ĠáĭĿ áĪŃáĬ¨áī¡
ĠáĪ° áĪľáĬķ
Ġáīł áĪĭ
ĠáĪĺáĪĭáĬ¥ áĬ½áī²
ĠáĬ® áĭŃáĬķ
ĠáĬķáĪĿ áĪµ
ĠáĪĺáĪį áĬ£áĬ½
áĭ°áĮĪ áĬĵ
ĠáĪĺáĭĽ áĪĻáĪŃ
ĠáĪĺáĬķ áĬĲáīµ
Ġáĭ¨ áī¥
áĭĵ áĬ«
áī° áĪī
ĠáĬķ áĬº
ĠáĬĵáī¥ áĪ«
Ġáĭĵ áĬķáīĢ
ĠáĪ¨ áĬ¸
ĠáĪĺáĪŃ áīłáī¥
ĠáĪĺ áĬªáĬĵ
ĠáĬ¢ áĭ±
ĠáĬ£áī¥áĪŃáĪĥ áĪĿ
áī¶áĪĿ áĬķ
ĠáĭĿáĪĵ áĪ¸
áĪĪáĪĽ áĭĬ
Ġáīµ áĬ¸áĭįáĬķ
ĠáĮ ĭáĬķ
áĭ¨ áĬĴ
ĠáĮ¸ áĪĵáĭŃ
ĠáĪĿáĪį áĬŃ
i g
ĠáĬ¥ áĪ±
Ġáĭĺ áĪŃ
ĠáĭĪáī° áĪĥáĭ°
áĬ¾ áĬķ
áĪ°áĪĿ áĭĳ
áī¥áĪĪ áĬ©áĪĿ
ĠáĪį áĬ¡
áĪĵ áĭĬ
áĬŃ áī°áĪŃ
ĠáĭĪáĪĪ áĭ²
Ġáī°áĮł áīĴ
1 4
áīł áĬĴ
ĠáĮ «
áĭµ áĬ©áĪĿ
áĬ¨ áĭŃáĭµ
ĠáĬĵ áīłáĭŃ
áĬ¦ áĪį
áĭĵ áī¥
ĠáĬ£ áī±áĪĿ
ĠáĮį áĪĿáīµ
áĪĥ áĭµ
Ġáī¦áī³ áī³áīµ
ĠáĮ½ áī¡áīħ
áĮįáĪĪ áĮ½
áĪĺ áĪĵ
ĠáĭįáĮ½ áĬ¢áīµ
ĠáĪĵáīĢ áĬĽ
Ġáī¥áĪħ áĭŃáĭĪáīµ
áĪ«áĪŃ áĪĵ
ĠáĬķ áįį
Ġáīģ áĪ©áī¥
áĭĵ áīµáĬķ
ĠáĬŃáįį áĪĪ
ĠáĭĿ áĮ½
áĭĪ áĮ½áĬ¥
áī Ń
ĠáĬķ áīł
áĬ½áĬķ áĭ«áīµ
ĠáĮĪ áĬĲáīµ
ĠáĬ£áĬ« áĭŃ
Ġ19 9
ĠáĪĿáĪµáĮĭ áĬĵ
Ġáĭ°áī¥ áĭ³
ĠáĪĿáĬķáīħáĪµáīĵ áĪµ
ĠáĭĿ áĮįáī¥
ĠáĭŃ áĪģáĭ³
ĠáĭĿáī° áĬ£
ĠáĬ£áĬ¥ áĭ³
áī¥áĪİáĪĿ áĬķ
áĪį áĮ¡
ĠáĬĲáĮ¥ áī¢
áĬ£ áĭĬ
Ġ c
ĠáĪĺ áĪµáī°
áĭĽ áĬķ
Ġáĭĭ áĭķáĪĭ
ĠáĬŃ áĬ£
áĮį áĮĭ
ĠáĪĵáĮº áĪŃ
áīł áĪįáĬ«
áĮį áĪį
ĠáĪµ áīķ
Ġáį İ
áī£ áĪ©
1 8
ĠáĬŃ áĬĲáī¥áĪŃ
áĭ° áĭ°
Ġáīª áĭµáĭ®
ĠáīµáĬ¥áĭĽ áĭĿ
âĢ º
ĠáĪĵ áĭ³áĪŃ
ĠáĪķ áĭ«
Ġáī° áī£áĭķ
ĠáĬĵ áĮ»
ĠáĪ°áĪ«áĪķ áī°áĬĽáī³áīµ
ĠáįįáĪŃ áīĤ
ĠáĭĿ áĮĪáī¥áĪ®
áĪĺáĭŃ áī²
áĮĲ áĭŃáī³
ĠáĬ¥ áĬ©
ĠáĪķ áĪŃ
ĠáĪĺáĬ¨ áĪ«
ĠáĪĭ áĭķáĪĪ
ĠáĬ¨ áįĬ
áĪĭ áī³áīµ
ĠáĪĿáĮį áī¢
ĠáĭŃ áĮįáī¥
áĬĲ áī³
ĠáĮ¸ áĪįáĪĽáīµ
ĠáĬ£ áĪ¨áĮĭ
ĠáĮį áī¥áĪ¨
áĪĺáĪį áĬŃáīµ
ĠáĪµ áĪĻ
ĠáĪĿáĭĥ áĬĸáĪĿ
áĬķ áīĤ
ĠáĬĲ áĮĬ
ĠáĪ ¾
áĭ¨ áĪĨáĭĭ
Ġáī¥áĪµ áĪĿ
ĠáĪĺ áĮ»áĪķ
áĪĭ áĬ¸
ĠáĬ¥áĬķ áĭ°áĮĪáĬĵ
ĠáĪ½ áĪĽ
1 2
áĪ°áĪĿ áĭĸ
ĠáĭĿáĬ¸ áįį
ĠáĬ£ áīłáĪŃ
Ġáī°áīĵ áĭįáĪŀ
ĠáĪļ áĬ¥
ĠáĬ£áĪŃáĬ¥ áĪµáī²
áīł áĬ«
ĠáĬĲ áĬķ
ĠáĬĵáī¥ áī³
Ġáĭĺ áī¥
Ġáĭĺ áĪį
Ġáĭ¶ áī¥
ĠáĭĪ áĮĪ
ĠáĬķáĪĿ áĪķ
ĠáĭĵáĭŃ áĬĴ
Ġáī°áīĲ áī¢
ĠáĮį áī¡áĬ¥
ĠáĬŃáįįáĪĬ áīµ
ĠáĭĿáĪĪ áĭĵáĪĪ
áī į
ĠáĪķáĪį áĪļ
ĠáĬŃáĬķ áĬ¨áĭįáĬķ
ĠáĬ¨áī°áĪĽ áī³áīµ
áĪħ áĬĵáīµ
áīĥ áĭĬ
áĬ Ŀ
ĠáĬŃáĬķ áĮĪáī¥áĪŃ
ĠáįĢ áĮĪáĪĿ
ĠáĭįáĪ³ áĬĶ
áĭ³ áĭµ
ĠáĬ£áĪĪ áĬ©áĪĿ
ĠáĮ¥ áīħ
ĠáĬ© áĪĪáĬķ
ĠáĮł áįĬ
a g
Ġáī¥ áĪĿáĬķ
áĪķ áī³
ĠáĬ£áĪİ áĬ«
ĠáĪµáĪĿ áĭĴáīµ
ĠáĬķáĭ° áīĤ
ĠáĬ£áĭŃ áĪģáĭµ
ĠáĪįáĪĿ áĭĵáīµ
ĠáĬ¥ áįĪáĪįáĮ¥
ĠáĮį áĪį
áĬ¾ áĪĿ
ĠáįĪáĮº áĪĻ
Ġáĭ ´
ĠáĬ¨ áĪĽ
Ġ2 9
ĠáĪĻ áĭļ
ĠáĪħáĮ» áĬĵáīµ
Ġáįįáīħ áĪª
ĠáĬŃ áĭķ
Ġ H
ĠáĪĵ áĪĬ
áĭįáĭ«áĬķ áĬķ
áĭ± áĬķ
ĠáĬ¨áĪĪ áĬ¹
áĪ¨áĬ£ áĬ¥
Ġ4 0
áĮ» áīµ
áĬŃáĪį áĬ»áĪį
ĠáĭĺáĭŃ áĬ®
ĠáĪħáĭĿ áī¥áĬķ
áĬ»áĬ½ áĪŃ
ĠáĭĿ áī¥
áīłáĪį áĭķ
ĠáĬŃ áĪ°
áĭµ áĭ«
Ġáįį áĮ¥áĪ¨áīµ
áĭ± áĪ½áī°
ĠáĬ£ áĭ°áĭŃ
áĪ¨ áī±
ĠáĬŃ áĬ¸áĭŃáĭµ
ĠáįĪ áī²
Ġ ,
ĠáĬ£áĭŃáĬ® áĬĳáĬķ
ĠáĪĤ áī¡
ĠáĮ ´áĮ¥áĪ®áĪµ
ĠáĪķ áĮį
Ġ5 0
áĪµáĭķ áī¡
i t
ĠáĬķ áĭļ
áĭĪ áĬ¨áįį
Ġáīł áĪĪáīµ
ĠáĪĺ áĭĺ
ĠáĭĿ áī¥áĪİ
Ġáīµ áĭ°áĪĬ
ĠáĪį áĪĻ
áĭĴ áĪī
ĠáįįáĪįáĪį áĭŃ
áī¥ áī³áīµ
ĠáĬķáī¥ áĪ¨áīµ
ĠáĬķ áĬ¢
Ġáī¥ áĮ¥
áĪĿ áī£
Ġáī£áĪħ áĪª
áĪĪ áĭĭ
ĠáĭĪ áĪª
ĠáĬ¸ áĬł
ĠáĪĿ áĪĿáĪĭ
áĮĪáĭµ áĪµ
áĬ¥ áĭİ
áĪİ áĮĤ
ĠáĬ¢ áĪįáĬ©áĪĿ
Ġáĭķ áĪŃ
ĠáĭĿ áĭĿ
áī° áĪį
Ġáī¥áĪŃ áī±áĭķ
Ġáī¥áĪ° áĪĭáĪĿ
áĪ £
áĬ£ áĪĪ
áĭ± áĪµ
ĠáĪĺáĭ° áī£áīµ
áī¥ áī¥
áĪ« áĪħ
ĠáĪĿáĬķ áĪĿ
áĪĲ áĬķ
ĠáĭĿ áįĪáĪįáĮ¦
áĪĭ áĪĬ
Ġáĭķ áī¥
áĪķ áī¥
ĠáĬķáĪĿ áĭį
áĭĪ áĪį
Ġáī¥áĪĿ áĪµ
ĠáĪĺáĪĬ áĪ±
ĠáĪµ áĭ°áīµ
ĠáĪĥáĮĪ áĪ¨
ĠáĪµáĪĿ áĭĴ
áĬ¥ áĪĪ
ĠáĬ¨ áī¶
áĪĿáĪħáĪŃ áī²
áĪª áĭ«
áī¶ áīµ
Ġáĭ¨ áĪĽ
ĠáĭĿáī° áĪ¨
áĬ»áĭ¨ áĭ°
ĠáĮ Ĩ
áĪ° áĪĽ
Ġáī£ áĪŃáĭ«
ĠáĮįáĬķ áī¦áīµ
1 7
áĮ¸ áĪ«
áĭ¨ áĪī
áī¥áĪĪ áĬ«
ĠáĬŃ áĬ¾áĬĳ
áĮį áĭµ
Ġáī¤áī° áĬŃáĪŃáĪµáīµáĭ«áĬķ
áĬĵ áĪµ
áĪ° áĬĵ
áī¥ áĭ«
áĬķ áĭ«
Ġáĭį áĪĭ
x t
áĭĵ áī³áīµ
ĠáĭĿáī° áīĲ
áĪĥ áī¦
áĮ£ áĭĬ
ĠáĪĴ áĭ°áīµ
áĬķ áĭ°
áī »
Ġáī¥áĭĿ áĬ¾áĬĲ
áĭµáĪķ áĪŃ
ĠáīłáĪ¨ áĬ»
áīµ áĪŃ
ĠáĪĵ áĮ¥
Ġáī¥áĭĪ áĮĪ
ĠáĬĵáī¥ áĭļ
ĠáĮ¥ áīĵ
Ġáĭ Ĵ
áĬ³ áĬķ
ĠáĭĿ áī¥áĪĥáĪį
áĪ¨ áįįáī²
ĠáĬ ´
ĠáĬ» áĪį
áį¡ "
ĠáĬ« áĪŃ
áĪĥ áĪ©
áĮĬ áĭķ
1 1
áī£ áĪª
ĠáĭĵáĪĪáĪĿ áĬĵ
ĠáĭµáĪķ áĬĲáīµ
áĬŃ áī¶
ĠáĪĿáĬķ áĮª
áĭŃ áĪĬ
ĠáĬ¦ áĪĿ
áĪį áĮ¦
Ġáĭµ áĭ«
áīł áĬĽ
a t
ĠáĬŃ áĭĿ
ĠáĭĿ áĪĺáĪµáĪį
Ġáī¥ áĮ¾
ĠáĪĿáĪµ áī¶áĪĿ
ĠáĬķáĮ¥áįĪ áī³áīµ
ĠáĬķ áī¡áĪŃ
ĠáĬĲ áī°áĬķ
ĠáĪĽ áĪŃ
ĠáĭĿáĬ£ áĬŃáĪį
ĠáĮĪ áīł
ĠáĪĺáĬķáĮį áĪµáī³áīµ
ĠáĪĺáĪµ áīĢáĪį
ĠáĪĿáĪµáĮ¢ áĪŃ
Ġ B
áĬĲ áĬ«
Ġáĭ¨ áī¥áĪİáĪĿáĬķ
Ġáī³ áĪķáī²
áĬŃ áįį
áĪµ áĬ¥
áĪĺ áĬĴ
ĠáĪħáĭĿáī¥ áī³áīµ
ĠáĬ¸ áĪİ
Ġáī°áĪĽ áĪĤ
ĠáĪĿ áĪĥáī¥
Ġáī° áĪ¸
Ġáīł áĪ¨áĬ¸
Ġáĭļ áĪŃáĬ¨áī¥
áĪĺ áī³áīµ
áĮº áĪ©
ĠáĬ£áĬķ áĪµáī²
ĠáĭĤ áĪī
Ġáī¥ áĪª
áĪ³ áĬ¤
Ġáĭ«áĬ¥ áīĨáī¥
áĬ£áĪĿ áĬĳ
áĪµ áįĴ
áĬ¦ áĪĿáĬķ
áĮĭ áĮĬ
áĮ¸ áīµ
ĠáĪ³áĭķ áī¤
ĠáĬ£ áĪ¨áĬ£áĬ¥
Ġáī¥ áīĢ
ĠáĪĿáĭµ áĪŃáĬķ
áĬķ áĬ©áĪĿ
ĠáĪ° áĪĽáĭķ
áĭĺ áĭĿ
ĠáĬ£ áī¡
ĠáĬ¥áĬķáī° áĭµáĬ£
ĠáįįáĪį áĪµ
áĪĺ áĮł
ĠáĭŃ áĪĵ
áĪª áī¦áĪĿ
ĠáĪŃáĬ¥ áĪµáĬ»
áīħ áĭķ
ĠáĬķáĪĿ áĪĿ
ĠáĪĿáĪŃ áĬ£áĭŃ
ĠáĪĵáī¢ áĪ©
ĠáĬĸ áĪŃ
ĠáĬ£áĭŃáĪĺáĪµ áĪĪáĬķáĬķ
ĠáĪĺáĭĽáĪĻáĪŃ áī±
Ġáīħ áĬķ
ĠáĮįáĬķ áī£áĪŃ
áĬ£ áĪĿáĪĭáĬ½
Ġ t
áīł áī£
ĠáĪĵáĪŃ áĬĲáīµ
Ġáīħáĭµ áĪľ
ĠáĬĵáĭŃ áī¶áĪĿ
ĠáĬ¥áĮį áĪª
áĪ° áī£áīµ
ĠáĪµ áĮį
ĠáīħáĭµáĪļ áĬ¡
ĠáĬ£áĭĿ áĭ®áĪĿ
Ġ D
ĠáĬķ áĬ¨
áĪĻ áĬĵáīµ
ĠáĪĺ áīĵ
ĠáĬ¥áĬķ áĮĮ
Ġáī° áĭĺ
ĠáĬ£ áĮį
ĠáĬ¥áĬķáī° áĪİ
Ġáĭ® áĪĥáĬķáĪµ
ĠáĭĿ áĬ½áĬ¥áĪī
áĪ³áĭŃ áĭ«áĪµ
áĪĺ áĪĭáĪĪ
ĠáĬ£áĪħ áĮī
ĠáĬ¤áĪŃáīµ áĪ«áĭĬ
ĠáĬ£áĭŃ áĪ¨áĬ¸
Ġáĭ° áĪĵáĬķ
áī° áĬ£
áĭ° áī¥
áįĭ áĬ¥
ĠáĪĺáĪµ áĪĺáĪŃ
ĠáĭĿáī° áĬ¸
Ġáĭĳ áīķ
ĠáĮĭáĬķ áī³
ĠáĬ£ áĭ´
áī° áĭŃáĬķ
ĠáĪĺáĪĪ áĪ°
ĠáĮ¸ áĪĵ
ĠáĬ£áĭŃáĬĲ áīłáĪ®
ĠáĬŃ áĭĽáĪ¨áī¥
ĠáĬķáĬĲ áĭĬáĪķ
áĬķ áĮİ
Ġáī¥ áĮĪ
Ġ3 1
ĠĠ Ġ
Ġáī° áĪĭ
áĪįáĬĵ áĬķ
áĪĿ áĭİ
ĠáĪĵ áĮĲáĪµ
Ġáĭ Ħ
áĮĭ áĮ¥
áĪ¨áĬ½ áīł
áĬ£ áĬĴ
áĭ° áĮĭ
Ġáĭĵ áĪļ
Ġáī¤ áī±
ĠáĪ¨ áĪ²
ĠáĭĿ áĬ«áĭ¨áĭµ
ĠáĪķ áĮĭáĭĬ
Ġáī¥áĪĿ áĮįáī£áĪŃ
áĪ¶ áĬķ
Ġáīł áĪĬ
áĭ ¬
ĠáĪĿáĬķ áī³áĭŃ
áĬ£ áĭ«
Ġáĭįáĭµ áī£áīµ
áĬŃáĪŃáĪµ áī¶áĪµ
áĭĪ áĪ°
Ġáī°áĮĪáĪĬ áĮ¹
ĠáĭĿ áĭķ
áĭĲ áĬķ
ĠáĬ¸ áĭĵ
Ġáī« áĭŃáĪ¨áĪµ
áĪį áĭ¨
Ġáĭĵ áĭµ
áįĪ áī°
ĠáĪĽ áĪħ
áįį áīĢ
Ġáī¥áĭĿ áĪĴ
Ġáĭ³ áĪķ
ĠáĪĨ áĪµáįĴ
1 3
ĠáĮĪ áīłáĬķ
ĠáĪĺáīĲ áĪĪ
Ġáĭµ áĬ½
áĮ¥ áĬĵ
ĠáĪķ áĮ»
áĪĭ áĪµ
ĠáĪĵáĭ« áĪİ
ĠáĬ£áĭŃáĬ®áĬķ áĬ©áĬķ
áĪ³ áĭµ
1 6
áĪĭ áĮ½
ĠáĮį áĮ¥
ĠáĬ£áĭŃ áĪ°
áĮ£ áĪŃ
áĬ¡ áĪµ
ĠáĮ¥ áĪª
áĪĴ áįī
ĠáĭĽ áĭķáī£
áĪ¨ áĪŃ
ĠáĪĵáĭŃ áĪįáī³áīµ
ĠáĪ Į
Ġáĭĵ áĪ¨áī¥
ĠáįķáĪ® áĮĢ
ĠáĪħáĭĿ áīłáĭŃ
Ġáī¥áĪĿ áĬ½áĬķáĭ«áīµ
áįį áĪĪ
ĠáĭŃ áĭ°áĪĬ
áĬŃ áĬĸ
ĠáĭĪ áĮį
ĠáĬ£áīµ áĭ©
áĪĵ áĪĪ
ĠáĭĪáĭŃ áĬĴ
áĪĺ áĬĲ
2 1
ĠáĬª áīķ
Ġáĭī áĬķ
ĠáīĢáĮº áĪī
Ġ I
áĭį áĪį
ĠáĭĿáĪŃ áĭĿáĪŃ
ðŁ ĩ
ĠáĬķ áĪ¶áĪĿ
áĪĭáĪĽ áĭĬ
áĭµ áĪĺ
áĪĺ áĮ¡
áĭį áĪ«
ĠáĬ¨áĭŃ áĭ±
2 2
áįį áĭİ
áĪĵ áĪ°
Ġáĭĵ áĪĪ
áĭĺ áī°
Ġ1 00
ĠáĮ½áĭµ áīĤ
ĠáĪĺ áĬĲ
áĬ» áīµ
Ġáī°áĭĪ áĪĬ
áĪĬ áĬ¥
ĠáĮ¥ áįį
ĠáĪĿáĭķáī£ áĪĪ
ĠáĬķáĭµ áĪķáĪª
áĪĵ áĬĵ
ĠáĭįáĪķ áĪµáĬĲáīµ
ĠáįĪáĪŃ áĬ¦áĬķ
áĭµ áĪ½
áĬĲ áī²
ĠáĬŃáĪĿ áĪĪáĪµ
áĪ½ áĪĵáīµ
áī¥áĪİ áĪµ
ĠáĬķáĬĲ áī¥
áįĥ áĬ¢
ĠáĮį áĭ³
ĠáĭĿ áĪ¨
áĪĺáĪµ áĮįáĬķ
ĠáĬŃ áĭ³
ĠáĬ£áĪĪ áĬ¹áĪĿ
ĠáĬ£áĪĿáĪĭáĬ½ áĬĵ
áī¥áĪĭ áĭķ
ĠáĮ¸ áĭĬ
áĬķ áĭµ
ĠáĪĺ áĪĭ
áĪĺ áĭįáīµ
ĠáĭŃ áĬ½
ĠáĬķáĪĿ áĪŃ
ĠáĪĺáĪį áĬŃáĭķ
Ġáī°áĪ¨ áĬº
ĠáĪ ¹
áįĪáĪįáĮ¡ áĬķ
áįĪáĪ» áĭĬ
áīł áĪ³
áĮĬ áīµ
áĭĵ áĭĬ
áĪ© áĬ½
ĠáĪĺ áĪ«áĬ¸
ĠáĪĽ áī´
ĠáĭĺáĭŃ áĪķ
ĠáĬ£ áĬ¨
áĪĬ áīµ
ĠáĪĿáĭĥ áĬĵ
ĠáĬĲ áĮĭ
ĠáĪ½áĪĽ áĮįáĪĪ
âĢ ¹
áĪħ áī¡
áĪħ áī¦áĪĿ
áĮĢ áĪĺáĪ¨
Ġáī¥ áīĳ
ĠáĪŀ áī°
ĠáĭĻ áĪŃáĭ«
áĮį áĪ«
áĪµ áĭ«áĭĬ
ĠáĪµáĪį áĮ£
ĠáĬ£ áīĢ
Ġáĭ° áīģ
ĠáĬŃ áĪĺáĮ½áĬ¥
Ġáī° áĬ½
ĠáĪ° áīł
áī¥ áĬ¡
áī¥ áĪĥ
ĠáĭĺáĭŃáĬ°áĬĲ áĪµ
Ġáī¥ áĬĵ
áĮĪ áĭ°
ĠáĪĵ áĪ²
ĠáĬ¥áĬķ áĬ®
ĠáĭĪ áĪ³
ĠáĭĿáī° áĪ°
ĠáĪĥáī¥ áī²
áĬķ áīĭ
áĬ£ áĬ¸
áĪĭ áįį
ĠáĭĿáĬĲ áī¥áĪ©
áįĭ áĭŃ
Ġáī¥ áĮ»
áĪ¨ áĭ°
Ġáī¥áĪŃ áĪĥ
áĭĿ áĪĿ
áĪĵ áĬĴ
ĠáĭĺáĪİ áĬ«
ĠáĬķáĭĵ áĪĪáĪĿ
áĪĵ áīķ
Ġáī°áĮĭ áĭ³
Ġáĭĺ áĪŃáĬ¥
Ġáĭķ áĭī
Ġáī ĺ
ĠáĭĪ áĪį
áĮ¥ áĭķ
ĠáĪķ áĭĿ
áīĲ áĪŃ
ĠáĬķáĮĪ áĭĽáĬ¥
ĠáĭĿ áĮįáī£áĬ¥
ĠáĭŃ áĬĲáī¥áĪŃ
ĠáĭĿáĪĺ áĪį
ĠRe ad
ĠáīµáĮ½ áī¢áīµ
ĠáĬ£ áĬĲáĬķ
ĠáĬ£ áĭ³áĪĿ
ĠáĪ½ áĭ±áĪ½áī°
áī² áīµ
ĠáīĢ áĮ»áĪĬ
ĠáĪĺáĪŃ áĪĺáĪ«
Ġáī¥áĭµáĪķáĪª áĬ¡
Ġáĭĺ áĭ³
ĠáĭĪáĪĭ áĭ²
Ġáīł áĪŃ
ĠáĬ£áī£ áĭŃ
áįĪáīµ áĭİ
Ġáī°áĭĽ áĪªáī¡
áĪµ áī¡
ĠáĬĲáįį áĪµ
áĪ« áĮ½
ĠáĮ¸ áĭĪáī³
ĠáĪµáĪį áĮłáĬĵ
ĠáĬķáĮį áĭ²
áĬª áĪĿ
áĪįáĮ¡ áįį
áīĲ áĪŃáī¥
ĠáĪĺáĮ»áĪķ áįįáī²
áĪª áĬ½
áĪ® áīµ
áĮ¹ áĮ½
áĮ» áĪį
áĪį áĭ«áĬķ
Ġáī° áīĢ
áĪħ áĬĵ
Ġáī¥áĭĺ áĭ¨
ĠáĭŃ áīµ
ĠNe xt
Ġ p
áĪµ áī¥
áĪĬ áĪĿ
ĠáĬ£áĬķ áī³
áĪŀáĬķ áī°
áĮĪ áīµ
ĠáĬ£ áĪļ
ĠáĮ¾ áī³áĭĬ
ĠáĭµáĪķ áĪŃ
Ġ20 20
ĠáĪĽáĬ¥áĬ¨ áĪĭáĭŃ
ĠáĬ£áĪ¨áĬ£áĬ¥ áĭ«
ĠáĬķáĭĿ áī°
áĮĪáĭµ áī³áīµ
áĪĭ áĭª
ĠáĬ£ áĮ¥
áĭµ áĬ¥
ĠáĪĺáĪ° áĬ»áĬ½áĪŃ
ĠáĬķ áĭĺáĭŃ
áĭĵ áĪĪáĪĿ
ĠáĬķáĮ¹ áĪŃ
ĠáĬķáĭµáĪķáĪª áīµ
Ġ201 8
ĠáĪħáĭ« áĭį
ĠáĭŃáįį áĪĪáĮ¥
ĠáĪĺáįįáīµ áĪĴ
ĠáĬ¥áĬķ áĬ½áĬ¥áĪį
ĠáĪĺáĪªáĪķ áĬĲáīµ
áĭ¨ áĬ«
ĠáĪĿáįį áĪĭáĮ¥
áĪ³áī° áįī
áĬ£ áĬ«
ĠáĬ£áĪĽ áĪ«
áīķ áĬ«
ĠáĭŃáīķ áĪ¨
ĠáĪĺáĪ³ áĪŃáĪĴ
áĪ½ áī±
i s
ĠáĬŃáīµ áĪ¨áĬŃáī¥
áĮİ áĪĿ
Ġáīħáĭ± áĪ³áĬķ
áĪŃáĭµ áĬ¦
ĠáĬķáĭĺáĪĪ áĬ£áĪĪáĪĿ
áĭį áĭķáĪį
áĪ© áĭŃ
ĠáĮ¸ áĪĭáĬ¥
ĠáįĪ áĮ£áĪª
ĠáĬ£áĮĪáĪįáĮį áĪİ
áĪĽ áĭįáĭ«áĬķ
ĠáĭĪáĪ¨ áīĲáīµ
ĠáĪĺ áįħ
áĭ° áĪ¨
ĠáĪŃ áĬł
Ġáī¥áĭĿ áī¥áĪį
ĠáĪĺáī¥áĭĽáĪķáīµ áĬ¦áĪĿ
áĪĪ áĪĺ
Ġáī¥ áĬ»áĪįáĬ¥
ĠáĬŃ áĪ°áĪŃáĪķ
ĠáĪĵ áĭĪáĭŃ
ĠáĪĪ áīł
áĪŃ áĬª
áĪĽ áī´
áĪĵ áīµáĬķ
ĠáĮį áĪĿ
ĠáĭĺáĭŃ áī¥áĪį
ĠáĬķáĪ° áī£áīµ
ĠáĭĿ áĪĺáĪŃ
áĬ£ áĪī
áĪµáīµ áĪ«
ĠáĬ£áĭŃáĬķ áĬ½áĬ¥áĪįáĬķ
ĠáĬ¢áĬķáī°áĪŃ áĬĲáīµ
áĮĪ áĪ¨
áĭį áĭĵáĪį
ĠáĪĵ áī£áĪŃ
ĠáĪµáĭµáĪ« áī¤
ĠáĪĿáĪ³ áĪĮ
ĠáĪķ áĪī
ĠáĪĿáĪµ áĪ«áĪķ
ĠáĪŃ áĪķ
áĪĺ áĪ©
Ġáī°áĪ° áĪļ
ĠáĪĵáĭ² áĪ½
ĠáīĪ áĪįáĭĳ
ĠáĪĿáī¥áĪ« áīķ
Ġáī¥ áĪĽ
áĮ¥áīĢ áĪĻ
ĠáĭĺáĭŃ áī¥áĪİáĪĿ
áĬ® áĬĲáĬķ
ĠáĬ¥áĬķáĮĮ áĪ«
áĪŃ áĪĿ
áĮ» áĭĪ
ĠáĭĪáĪ² áĭ±
áĪĪ áĬ©áĪĿ
ĠáĪĵ áĮ¢
ĠáĭĺáĮĭ áĮłáĪĺ
Ġáī£áĭķ áĪįáĬ»
ĠáĬŃáĪŃáĪµáīµáĭ« áĬĵáīµ
ĠáĬķ áįĪáĪįáĮ¥
áĬ¨ áī³áī°
ĠáĬ© áĪĭáīµáĬĵ
ĠáĬ¥ áĪĻáĬķ
áī° áĬĵ
áĪĪ áĬ»
ĠáĬŃ áĮ½
áĮĪ áĭ³
áĪķ áĬ«
ĠáĪµ áĬ¢
ĠáĬ¥áĪĿ áĬĴ
áĬ£áīµ áĭī
áĬĲ áĮį
áĭµ áĪķáĪª
ĠáĪį áĭķáĪį
ĠáĬķ áĪĽ
áī¥áĪį áĬķ
ĠáīĢ áĪªáī¡
áįĢ áĬķ
ĠáĬ£ áĪ³
3 0
ĠáĬ£áī¦ áĬĵ
Ġ201 7
ĠáĬķáĭħ áĪİáĪĿ
áĮĭ áĬĳ
Ġáĭĳáīķ áī£
áĭį áĪķ
áįĪ áĪī
Ġáĭ ±
Ġáĭĺ áĭµáĪĬ
Ġáĭµ áīĥáĪµ
Ġ3 2
áĬ¹ áĪī
áĭµáĪį áĭ®áĪĿ
e d
áĪ«áĪĿ áįķ
áĮł áĭį
ĠáĬķáĪĿ áĭµ
áĭ³ áĭĬ
áĬĲ áįį
ĠáĬŃ áĪ¨áĬŃáī¥
ĠáĬ¥áĬĵ áīłáĪī
ĠáĭįáĪī áĭµ
ĠáĬ£áĮĭáĮ¢ áĪĻ
áįį áĪĪáĮ¥
ĠáĬĵ áī£áĭŃ
ĠáĭĪ áĭ°áĭŃ
áī°áĪŃ áįį
ĠáĪ ´
ĠáĬŃ áĮį
ĠáĭŃ áīłáĪį
Ġáįį áĪ«áĬķ
Ġáī° áĪĺáĪµ
áĬ® áĭŃáĬĳ
áĪĿ áĬĲ
ĠáĬŃ áīłáĪĥáĪį
Ġáī° áĮłáĬķ
ĠáĬ« áīłáĭŃ
ĠáĪĵáĭ° áĮĪ
ĠáĬ½ áĪįáī°
ĠáĭĿáĬ¸ áĭŃáĭµ
Ġáī¥ áĪĦ
ĠáĭĿáī° áĬ»áĭ¨áĭ°
ĠáĬ® áĪ®áĬĵ
áĪ½ áī²
áĬŃáĬĸ áĪİáĮĤ
áĭĿ áĭ«
áĮ¸áĬķ áĪķ
ĠáĬ¥áĪµáĪ«áĬ¤ áĪĭáĭįáĭ«áĬķ
ĠáĬķ áĪĻ
áĬ£ áĪµ
áĮ¹ áĪŃ
Ġáī¥ áĪ½
ĠáĭŃ áĮĪáĪįáĮ½
Ġáĭ° áĪĵáĪŃ
ĠáįķáĪ®áĮĢ áĬŃáīµ
áĭ° áĭµ
ĠáĪĨáĪµáįĴ áī³áĪį
ĠáĬ¢ áĭµáĬ«
Ġáī¥áĬ¸áĪĿ áĭļ
ĠáĪĺ áĭķ
i c
ĠáĮį áĭµ
áī³ áī²
ĠáĪĵ áĮİáĪµ
Ġáĭķ áĪ¨áįįáī²
áĪĽ áīµáĬķ
ĠáĪķ áĮī
ĠáĬķáĪĿ áĭĥ
ig r
ĠáĬŃ áĪĵ
ĠáĭĪáĪŃ áīĤ
áĬķáī¥ áī¥
Ġáī° áĮĵ
ĠáĪµ áĪ«
ĠáīĭáĬķáīĭ áī³áīµ
áĬĲ áĮįáĪ¨
áĪĺ áĬ«
ĠáĪĵ áįĪáĪ»áĭĬ
ĠáĪ°áįĬ áĪķ
áįĨ áĪĿ
ĠáĬ¢ áĪ³áĭŃáĭ«áĪµ
áĭĺ áī¥
ĠáĪĺáĮĭ áī¢áīµ
áĪ«áĬ¸ áī¥
áī° áĬ«
áī³ áī³
ĠáĪĺ áĪĿ
ĠáĭĿáĬĲáīłáĪŃ áĬ©
áĭŃ áĪ½
ĠáįįáĮ» áĪľ
Ġ )
ĠáĭŃ áĭµ
áĪ» áĭŃ
ĠáīłáĪĪ áĬĴ
ĠáĭŃ áĮįáīłáĪŃ
ĠáĬ£áīĲáĭ² áĪĻ
ĠáĭŃ áīłáĪĥáĪį
áĬ» áĭ®
ĠáĭĺáĪĪ áĬ¹áĪĿ
ĠáĪĻáĭļ áīĥ
Ġ Â
áĮį áĪ«áĪĿ
áī³áīµ áĬ«
ĠáĮĪ áĭĿ
ĠáĪĺ áĬ«
ĠáĬ£áĭļ áĭ©
ĠáĭŃ áĪ°
ĠáĮĭáĭľ áĮł
ĠáĬ¢áĪ³ áĭ«áĪµ
ĠáĭŃ áĬ¹
áĭ³ áĭ²
áĬķáĭĺ áī¥
ĠáĬ£ áĪī
Ġáīµ áįĪáĪįáĮ¡
ĠáĪ¨ áĬł
Ġáĭ³ áĮįáĪĿ
ĠáĭĿáĮ¸áĬķ áĪĲ
áĬ¥ áī¶áĪĿ
Ġáĭ° áĭŃ
áĮ¸ áĪ©
ĠáĪĥ áĭĭáĪŃáĭ«
áīłáĪ¨ áĪī
áĬ¥áĬķ áī³áĭŃ
ĠáĪįáĪĻ áĭµ
a y
ĠáĬ¨áĪĪ áĬ»
ĠáĬ£áĭ² áĪµ
ĠáĭĿ áįĪáĪįáĮ¥
ĠáĪĺ áĪ¸
ĠáĪĵ áĮĭ
áĪļ áĪ©
áĪ¨ áĮį
Ġáīµ áĪ«áĪĿáįķ
ĠáĪĿáĪŃ áĬ«áī¥
Ġáī¥ áĪĺáĪį
áĭ« áĭŃ
áĬ¥ áĬ¨
Ġáĭį áĪħ
Ġáĭ³áĮį áĪĽáĭŃ
ĠáĬķ áĬł
ĠáĬ« áĬ£
ĠáĬĶ áĪŃáĬĵ
Ġáī°áĬķ áĪ²
áĪ³ áĭįáĭ«áĬķ
áįĪáĪį áĮł
ĠáĪĪ áĭŃ
ĠáĪ«áĬ¥ áĭŃ
áĪį áĭķ
áĬĲ áī³áĭĬ
ĠáĪķ áĭŃáĭĪ
ĠáĮ½ áĪĿ
ĠáĪĪ áĬ«
ĠáīµáĬķ áĪ³áĬ¤
áī¡ áĪį
áĮįáĭļ áĬłáī¥áĪĶáĪŃ
áĪİ áĪŀáĬķ
ĠáĬ£áįį áĪįáĮ¦
ĠáĪĽáĬ¥ áĬ¸
Ġáĭĵ áĪ³
ĠáĪķ áĪįáĬĵ
Ġáĭ³ áĬķ
en t
ĠáĭĵáĬķáīĢ áĮ½
áīħ áĪŃ
ĠáĬ£áī¦ áĬ¡
ĠáĬķ áĭĳ
ĠáĮį áĭĺ
áĪŀ áī°
Ġáī¥áĪĿáĭĥ áĬĳ
ĠáĪĺáĭµ áĪĥ
ĠáĪĺ áī³áĬķ
ĠáĭĺáĭŃ áĬĲ
Ġáįį áī³áĪķ
ĠáĪį áĭķ
ĠáĬ£áĭ¨ áĬĵáĭŃ
Ġáī¥áĮį áī¡áĬ¥
ĠáĪļáĬĴ áĪµáī°áĪŃ
ĠáĬŃ áĮįáīłáĪŃ
áĭĿ áĮĬ
ĠáĪħ áĬķ
ĠáĪŀ áĬķáĮİ
Ġáī¥áĪµ áĪ«áīµ
ĠáĪĺáĪįáĬ¥ áĬ½
áĮ¥áīĥ áĪĿ
ĠáĬ¥ áī¥áĪĪáĬ©áĪĿ
áĪµ áĬ®
ĠáĪĵ áĪĿ
ĠáĭŃ áįĪ
ĠáĬ¥áĬķ áīĭ
Ġáīµ áĬ½
áĮĪáī¥áĪ¨ áĪī
áī¥ áĭĵ
ĠáĬķáĬ½ áĬķ
ĠáĮ¥áĭĳ áĪĿ
áĬĵ áĪķ
áĪ« áĪį
ĠáĬĵáĭŃ áī³
Ġáĭįáĭµ áĭµáĪŃ
ĠáĮĮ áĪ©
Ġáī¥áĭµ áĪĨ
ĠáĪħáĭŃáĭĪ áī°áĭŃ
ĠáĭŃ áĭĽáĪ¨áī¥
áīĢ áīķ
áĬ¤ áīµ
áĭĽáĪ¨ áīł
ĠáĮĪáĪĬ áĬ¡
ĠáĭĪáĪ¨ áĭ³
áĭķ áĬ«
ĠáĭŃ áĪĵáĭŃáĪ½
Ġáī¥áĭĿ áĪĿáĪįáĬ¨áīµ
ĠáĬ£áīł áī£
áĮĪáĪį áĮ¾
áĮł áīħ
ĠáĬµ áĬĲáī³áīµ
ĠáĪĿáĪ³ áĬ»áīµáĬ©áĪĿ
ĠáīĢáĭ³ áĪŀáīµ
áīĥ áĪĪáĪµ
Ġáī¥áĪĵ áįĪáĪ»
ĠáīµáĪŃ áĮī
áĭŃ áĭŃ
Ġáĭļ áĪĺáĮ½áĬ¥
ĠáĮ¥ áĪĿ
ĠáĭĿ áĪĥáīł
áĮĪ áīł
ĠáĭŃ áĪµáĪĿ
ĠáīĲ áĭ³
ĠáĪĺ áĪŃáĬ¨áī¥
ĠáĬŃ áĪ³
ĠáĪĿ áĪĭáĪ½
áĪķáĭĿ áĬķ
ĠáĬķ áĬ£áĭŃ
áĬ« áĭŃáĭµ
ĠáĪµ áĭĬ
ĠáĭĿáī° áĪĺ
áĪįáĭį áĪĭáĭį
ĠáįĸáĪĬ áĪ²
ĠáĮ»áĭķ áĪª
ĠáĪ ĳ
ĠáĬķ áĪĿáĬķ
áĪŃáĪ² áī²
áĪİ áĪļ
Ġ201 6
ĠáĭĿáĭĪ áĪµ
Ġáĭĺ áĪµ
áĪ« áĪ²
ĠáĬĲ áĭį
Ġáī° áĬ½áĬ¥áĪİ
ĠáĬĲáīłáĪŃ áĬ©
áĮį áĭĴ
áī¦ áĬķ
ĠáĪį áĭ°áīµ
ĠáĬ ĳ
ĠáĭĿáī° áī£áĪħáĪĪ
Ġáī°áĮĪ áĭŃáĪ©
v i
Ġáĭĵáī¢ áĭŃ
áĭµáĪļ áīµ
ĠáĬ¨ áĭ°
Ġáĭĺ áīķ
Ġáį ĥ
Ġáī°áĮĭ áĪ©
áĪĽ áĪµ
ĠáĮĪ áī¥áĪ¨
ĠáĪĵáī¢ áĪ®áĪĿ
Ġm ore
Ġáįį áĮ¡
áį Ĳ
áĭ° áĪĻ
ĠáĪĵ áīħ
áĪ« áĭķ
Ġáī Ĭ
Ġáĭį áĭķáĪį
Ġáī ĳ
áįĪ áĬĴ
áĮĭ áĮ¥áĪĿ
áĬĸ áīµ
áĪ© áĬĴ
ĠáĬ£áĭŃáīµ áĬ½áĬ¥áĪįáĬķ
ĠáĭĿ áĪµáĭķáī¡
áĪ¨ áĮĪ
Ġáįį áĪ½
ĠáĭĿáī° áĭĵ
áĪ°áĪŃ áĪĲ
áĭį áĭĵ
Ġáī¥áĬ¥ áĪĿáĬĲáīµ
ĠáĬŃáīµ áīħ
ĠáĬŃáĪįáī² áĬ¡
áĭķ áĭİ
áĬ½ áĭİ
ĠáįĪ áĪĭ
ĠáĪµáĪ«áĪķ áī²
ĠáĮĪ áĮ¹
áĭĿ áĪĴ
áĭįáĬķ áī²
Ġáī°áĮĭáĭ³ áĪĭáĭŃ
áīµ áĬ¡
ĠáĪĺáĪį áĬŃ
ĠáĪĵáĪĭ áįĬ
ĠáĭĿáĬ¾ áĬĲáīµ
ĠáĬŃ áįĪ
áĮĪ áĪ²
áĪ³ áĪ°
ĠáĬ¥áīµ áī¥áĪį
Ġáīµ áī¥
áĪ© áĭķ
ĠáĬķáĪĿ áĭķ
ĠáĮ Ĵ
Ġáĭĺ áĭµáĪįáĭ¨
áĭĪ áĪĿáī²
ĠáĬ£áĭŃ áĭ°áĪįáĬķ
áĪĴ áī±
ĠáĮį áī¥áĪŃ
áĪħ áĪĭ
áĬ©áĪĿ áĭİ
ĠáĮĲ áĭŃáī³áĭŃ
ĠáĭŃ áĪĺáĮ½áĬ¥
ĠáĪļ áĪĬ
Ġáĭµ áĪŃ
ĠáĬ£áĭĭ áĪįáĭµ
ĠáĪħáĮ» áĬķ
áĪľ áīµ
ĠáĭĿáĪĵáĪĪ áįī
ĠáĪĿáĭĿ áĪ«áī¥
ĠáĪķ áĮīáĪµ
ĠáĪĿ áĬŃáĪįáĬ»áĪį
ĠáĪµ áįĸáĪŃáīµ
áĭİ áīµ
ĠáĬ¸ áī°
ĠáĪĺáĪ«áĬ¸ áī¢
ĠáĭĿáĭĢ áĬĳ
Ġáī°áĪĵ áī¢áĪ©
áĭĺáĪŃ áĪĭáĬķáĭµ
ĠáĮ½ áĪįáĭĭ
Ġáī¥áĭĺáĭ¨ áĮĪáĭµáĪµ
áī£ áĪ«áĭĬ
ĠáĪĵ áĭĺáĬķ
áĭ°áĪį áī²
áĬ« áĭĬ
áĪ³áī° áįį
ĠáĪĵáĭ°áĮĪ áĬĽ
áĪħáĪį áĭİ
áī° áī±
ĠáĭĪ áĭ±
áĬ» áī¥
áīķ áĪª
ĠáĬ£ áĪĿáĪį
áĭį áĪĿ
ĠáĪļ áĬ¥áī²
áĬĲ áīķ
ĠáĮĢ áĮĭáĬĳ
ĠáĬ¨áĪĪ áĭī
áī¢ áĪ²
ĠáĭŃáĪĺáĪµ áĪĪáĬĴ
ĠáĪĿáĪµ áīµ
h e
Ġáĭĺ áįįáīħ
ĠáĭĪ áįĥáĬ¢
ĠáĬ¥áīµ áĬ½áĬ¥áĪį
ĠáĪĺáĬķáĮį áĪµáīµ
áĮĪáĪįáĮį áĪī
ĠáĬ£áĭį áĮº
ĠáĬ¨áĪĪ áĬĵ
ĠáĪ°áĪĭ áĪĿáĬķ
ĠáĭĿ áĭĽáĪ¨áī¥
áĬ¢ áĪī
ĠáĪŀáĭŃ áī±
ĠáĪµ áįįáĪ«
Ġáĭ¶ áĬŃáī°áĪŃ
ĠáĪĺ áĮĵ
ĠáĭĪ áĭĺáī°
ĠáĬ® áĭŃáĬĲ
Ġáī¥áĪĺáĬķ áįĪáĪµ
ĠáĬĲáĮ¥ áī¥áī³áīµ
áĪŃ áĭİáĪĿ
Ġáĭļ áĮĪáī¥áĪŃ
Ġáī¥áĪĿ áĪķ
ĠáĪĺáĪŃ áĮĪ
ĠáĬ£áĭį áĪ«
ĠáĮ¾ áĪĿ
ĠáīłáĪ¨áĬ¸ áīµ
ĠáĬķ áĭ¨áĪ±áĪµ
áĬŃ áĭ«
áīķ áĬĵ
ĠáĭĺáĭŃ áĬŃáĬ¥áĪį
áįĭ áĪŃ
áĪŃáĬ¨ áī£
áĭ ¥
ĠáĪĵ áĬªáĪĿ
áĬ¢ áī³áĭĬ
Ġáĭ Ĭ
áĬķ áĪ±
ĠáĬ¥áĭ °
áĪĺ áĮ¸
Ġáī¥ áīĵ
ĠT igr
áĬĲ áĬ½
áĬĲ áĮ½
áįĪáĪį áĭ¨
ĠáĬ£áĭŃáĬ¨áĬ£ áĪĪáĬķ
áĪŃ áĬĴ
ĠáĪĺáĮº áĬ¦áĪĿ
áĪĺ áĮ½
áĭĭ áĪħ
Ġáĭ¨ áĪķ
áĬĵ áĭ³
ĠáĪķ áĭµáĪª
ĠáĮ¥áīħ áĪĿáī²
Ġáī¥áĪª áĮ£áĬķ
ĠáĪµ áĬķ
áĭĳ áĬĴ
Ġáĭµ áĭ®áĪĿ
áĪµáīµ áĪŃ
ĠáĭĿ áī£
ĠáĪĿ áĪģ
áĪ¨ áī°
ĠáĪķ áĮĪ
áĭĪáĪµ áĭ°
ĠáīłáĮĥ áĬ»
ĠáĬ« áī£áĭŃ
ĠáĬĲáīłáĪŃ áī²
áĪķáĮįáĭĺ áĬ«
áĪ³ áĪį
áĪ¨áĮĭ áĮį
ĠáĬŃáĪħáĪį áĭİ
ĠáĭĪáĪ³ áĬĴ
áĪ¨ áĬ«
ĠáĭĿáĪ° áĪĽáĭķ
Ġáīł áĮ½
ĠáĪĥ áĭĭáĪŃáĭ«áīµ
ĠáĬ¥áĪĿ áī¥áĬ£
ĠáĬŃáĬķ áĬŃáĬķ
ĠáĪĿáĪµ áī°
ĠáĭŃ áĬ¸áĭŃáĭµ
áĮ¥ áĭĵ
ĠáĪĺ áĪĽ
Ġáī Ľ
ĠáĬ«áī¥ áī°áĬķ
áĪĪ áĮ¡
áĮ½ áĬ¦
Ġáīł áĭŃáĬĳ
Ġáĭķ áĪ½
Ġáī° áī³
áĪ° áĭŃáī²
ĠáĪĥáĮĪáĪŃ áĬķ
ĠáĭĪáĮĪ áĬĵáīµ
áīµ áĪĿáĪħáĪŃáī²
ĠáĬª áĭµ
Ġáĭĵ áĪ»
áĭĭ áĪµ
ĠáĬ£ áĬĵ
ĠáĮ» áĭµ
ĠáĪŃáĮį áĮ¸
Ġáī° áĪ°áĪĿ
Ġáĭµ áĪĮáīµ
áĮ½ áĭķ
ĠáĬ£áĭŃ áīł
ĠáĬķáĬ¥ áĪµáĪ«
áĪŃ áĭ³
Ġáĭĺ áīł
áīłáĪį áĬ©
ĠáĬķáī¥ áĭĻáĪĵáīµ
ĠáĬ¨ áĭį
ĠáĪ½ áĮį
áĪį áįį
áĮį áĬ¡
ĠáĪŃáĬ¥ áĪ¶áĪĿ
ĠáĪĽáĬķ áĪĿ
áĬĲ áĭŃáī²
ĠáĭŃ áĭķ
áĪµáī° áĭŃáī²
áĬŃáĪį áī°
ĠáīģáĮł áī£áĭĬ
ĠáĪ º
ĠáĬ£áĪķ áĪĬ
ĠáĬ£áĭŃ áĬŃáīµ
áĮ½áĪķ áįį
ĠáĬ£áĭĭ áĮħ
ĠáĭĿ áĬĵ
ĠáĬ£áĭŃ áĭĪ
áī¤ áī°
ĠáĬ£ áĮĨ
áī¦ áĭŃ
ĠáĭĿ áĬ¨áĬ£áĪį
ĠáĬķ áįĭáĪµ
áĪĬ áĬķ
Ġáīħ áĭĭáĪĿ
Ġáĭ°áīĢ áĬķ
ĠáĭĿáįį áĪĪáĮ¥
ĠáĪ°áĬĲ áĭµ
ĠáĬ¥ áĬ½áĬ¥áĪį
Ġáī° áī°
ĠáīĢáĭ³ áĪĺáĭŃáī²
Ġáī°áĭĭáĪĤ áī¡
ĠáĬ£ áĪ¸
áįĪáĪŃ áī²
ĠáĪĵ áĪĿáĪĪ
ĠáĬ¥áĬķ áĭµáĪķáĪŃ
Ġ3 3
áĮįáī£ áĬ¥áĬķ
ĠáĬ«áī£ áĬĵ
ĠáĮ¥áīķ áĪļ
ĠáĪĽáĪķáīłáĪ¨ áĪ°áī¥
ĠáĪĭáĭķáĪĪ áĭĭáĭŃ
2 4
áĪĪ áĪ°
áĬ£ áīµáĬķ
áĭµ áĪµ
áĪĴ áīµ
Ġáī°áįĪ áĮ¥áĪ®
Ġáī°áĮįáī£ áĪ«áīµ
ĠáĭįáĪĳ áĭ³áīµ
áīł áĭ©
áĮ½ áĭĵ
ĠáĬķáĪĿ áĮį
ĠáĭĿáĬĲ áīłáĪ«
ĠáĬ£áĭŃáĬ° áĬķ
ĠáĪĺáīł áĮĪáĪ²
áĭŃ áĪŃ
áĪĳ áīµ
Ġáī³áĪķ áĪ³áĪµ
áĪĪ áĪĪ
ĠáĪĵ áĪ¨áĪµ
áĪµ áĪķ
ĠáĪį áī¥áĬĵ
ĠáĪķáĪŃ áĪ»
áĪ« áĭįáĭ«áĬķ
áįĪ áĪĪáĮ¥
áĭµ áĬ¡
Ġáī¥áĪĵ áĭµáĪ½
ĠáĭĿáĪĺ áĮ¹
áĪĿ áĪ©
ĠáĭĿ áīµ
ĠáĬŃ áĪĺáĪŃ
Ġáį Ĵ
áĪĺ áĬĳ
áĬ« áĬ¤áĪį
ĠáĪ¨áĬº áīł
áĬķ áĭĽ
áī¥ áĭĵáī°
Ġáī¥ áĮ¹
áĮį áĪ¶
Ġáī° áĪĺáĪŃ
ĠáĭĪ áĪ°áĬķ
ĠáĪ°áī¥ áĬ¡
áĪ° áĪµ
ĠáĪĿáīµ áĬ¥
ĠáĮį áīłáĪ©
áĮĭ áĭĿ
ĠáĪħáĭ« áī¥
ĠáĪ° áĭ²
Ġáĭ° áĪŀ
ĠáĭĿáĮĪ áĪĪ
Ġáī¥áīĲ áĪĬáĪī
áĪį áĪļ
ĠáĭĺáĪİ áĬ¹
áĬķáĮ» áĪ©
áĮł áĭŃ
Ġáī°áĪĺ áĪ«
Ġáĭļ áĪķ
áĬ® áĬĸ
ĠáĬķáĬ¥áĮįáĭļáĬ£áī¥ áĪĶáĪŃ
áī² áĬķ
áĬĲ áī°áĭŃ
ĠáĬ¨áĪĿ áīµ
áįī áĬķ
áĮ¸ áĮį
Ġáī°áĬ£ áĪĿ
ĠáĪķáĪī áįį
ĠáĭĿ áĪ°áĪŃáĪķ
ĠáĪĺáĪ¨ áĭ³áĬ¥áī³
ĠáĪ° áĪİáĪŀáĬķ
ĠáĬł áĬķ
ĠáĪ°áĪĽ áĭŃáĬķ
ĠáįįáĪī áĮ¥
ĠáĪĿ áĬŃáĬķ
ĠáĬ£áĪĽáĪ« áĮº
ĠáĬķ áĬ©áĪī
áĭĳ áĬķ
ĠáĪŃáĪĳ áīķ
ĠáĬŃ áĮĪáī¥áĪ©
ĠáĮķ áĭ³áĭŃ
Ġáī¥ áĭļ
Ġáī°áĪĺáĪĬ áĪ±
Ġáĭ©áĬĴáī¨ áĪŃáĪ²áī²
ĠáĪĿáĪħ áĪĭ
áīµ áĪ«
áįį áī³áīµ
ĠáĪ° áĪŃ
Ġáĭ°áĪŃ áįĬ
ĠáĮį áĭ´
ĠáĬ£áĬķ áī¢
ĠáĪįáī¥ áĬ»
ĠáĬĸáĪŃ áĭĪáĭŃ
ĠáĬ£ áĪĥ
áĬ½ áī¥
áĬ¨ áĪµ
ĠáĬª áĭĢáĬĳ
Ġáī¥ áĪĻ
ĠáĪĿ áĮħ
ĠáĬ¥áĬķáī° áĭ°áĬ£
ĠáĬ£áīµáĪĴ áĭĻ
áĮĭ áĪį
Ġáĭļ áĬĲáī¥áĪ©
áįī áĬ¥
áĪī áĪµ
ĠáĪ³ áĪĭ
ĠáĪĵáĬķ áĪ³áī¥
ĠáĭŃ áĬ£áĬŃáĪį
áĮĪáĪį áĮ¹
ĠáĬ£áĪĽ áĪį
ĠáĬ£áĭĴ áĬķ
áĬ¥ áĪ°áĭŃ
ĠáĬ£áĭµ áĪĭáĭª
ti on
ĠáĪĵ áĭ³áĪµ
ĠáĪĺ áĬ½
ĠáĪį áī¡
ĠáĬ» áĪįáĬ¥
ĠáĭĿáī° áĮĪáī¥áĪ¨
ĠáĭįáĪ½ áĮ£áĭĬ
Ġáī°áīĲ áĪļ
ĠáĬ¨ áĪĭ
áĮĭ áĪŃ
áĭ¶ áĬķ
Ġáī°áĪĿ áĪĥáĪ®
ĠáĬķáĬĲáįį áĪ²
áĪį áī£
ĠáĬķ áĬ©
ĠáĬ¨áĭŃ áĬķ
ĠáĪļ áĭ«
ĠáĮİ áĬķ
ĠáĬŃ áįĭ
áĪĺ áĮ¹
áĭ± áĪ½
e s
áįį áīµáĬķ
áĮł áīĲ
ĠáĪķ áĭ³áĪŃ
ĠáĮįáĮ¥ áĪļ
ĠáĬŃ áīł
áĮĪáī¥ áĪ«
Ġáī¥áĪī áĮ½
ĠáĪ°áī¥ áĬķ
Ġ201 9
áĭµ áĭİ
ĠáĭĵáĪĪáĪĿ áĪĪ
ĠáĭĿáĬ¸áįį áĬł
ĠáĪĽ áĪĪ
Ġáīħáĭµ áĪĺ
Ġáīł áĭ°
áĪĥ áī¦áĪĿ
ĠáĮ½ áī¥
áĪŀáĬŃáĪ« áĪµáĭ«áĭĬ
áĮ ģ
ĠáĬķ áĭ°áĪĬ
Ġáĭ² áĬ¹áĪĿ
Ġáī£ áĪķ
ĠáĭįáĪį áīĥáĭĬ
ĠáĭĿáĪĥ áī¦
áĪĥ áĪ«áĭŃ
ĠáĮł áĮłáĭį
ĠáĬłáĪİ áĬ¹
ĠáĭĿáĬ½ áĪª
ĠáĬķ áĭ³
áĭĭ áĪ©
ĠáĮ½ áĪį
ĠáĬ£áĬĲ áĪµ
ĠáīĨ áĮ¸áĪ«
ĠáĪĿáĭī áī³áīµ
ĠáĭĿ áĪĥáī¥
ĠáĬĶ áĪ®áĪĿ
áįĪáĪĭáĪĪ áĭ©
ĠáĬłáī¥ áĭļ
ĠáĪķáĮį áī³áīµ
ĠáĬ¥áĬķáī° áĭĢáĬĲ
ĠáĭĺáĪĪ áĬ«
ĠáĪĺáī¥áĭĽ áĪķ
ĠáĪĿáĬ» áĬĳ
áĬĵ áĭįáĭ«áĬķ
áĪ« áĪµ
áĮĪ áĪ©
áĪī áĭį
ĠáĬ£áĭŃ áĬ¨
ĠáĬŃ áĪĬ
ĠáĬŃ áĮĪáī¥áĪ®
áĪ« áĪª
áĪĵ áĭĺ
Ġáĭ¨ áĮį
áī³ áī°áĭŃ
áĪĺ áĪĥáĪŃ
áĭ© áĬĴ
áĮ¸ áĪī
ĠáĭĿáĭĪ áĪ°
áĬ® áĬĳ
Ġ áī³áĭŃ
ĠáĬķáĪµ áĭµáĪ«
ĠáĬ¥ áī£
áĪĪ áįį
áĭķ áĬĵáĬķ
Ġáī° áĪŃ
ĠáĭŃ áĪĺáĪŃ
ĠáĪĺáĪ² áĪī
áĪ¨ áĬ©áĪĿ
ĠáĬ« áĪħáĬĵáīµ
ĠáĬ© áī£áĬķ
Ġáīħ áĪįáĭįáĪĭáĭį
Ġ3 5
ĠáĬķáĬ¹ áĪİáĪĿ
áĪª áĬ«áĬķ
áĬ® áĪŃ
ĠáĬķ áĮĪáī¥áĪŃ
áĪĭ áĪĭ
áīĭ áĪŃ
áĬ¥áĬķ áī°
ĠáįĪáī° áĬĲ
ĠáĬķ áĭ¨áĪĨáĭĭ
áĭĭ áĪķ
áĮĭ áĪµ
ĠáĬ£áĪį áī¦
ĠáĭŃ áĬ¥
áĬŃ áĪĪ
Ġáīł áĭŃáĬķ
ĠáĪŃáĬ¥ áĪµáĬĵ
áĭħ áĪī
Ġáįĭ áĭŃ
ĠáĬ¥áĭĭ áĬĵáĭĬ
ĠáįĪ áīµ
áĪĵáĬķ áĪµ
in g
áī Ĭ
ĠáĬ£ áĭµáĪ«
áĪª áĪµ
ĠáĬ£áī¦ áī³áīµ
ĠáĪĵ áįį
ĠáĬ£áĪĿáĪĭ áĬŃ
ĠáīłáĮº áĪĳ
ĠáĬ£áĪĿáĪĭáĬ½ áĬķ
ĠáĪħáĭŃáĭĪáīµ áĬĵ
Ġáī° áīĸ
ĠáĪŃáĬ¥ áĭ¨
áĪħáīł áĬ«
Ġâ Ĩ
ĠáĬĲ áįĭ
ĠáĬ© áĬĲáīµ
ĠáĪĽáĪķáīł áĪ«áīµ
ĠáĭĵáĪĺ áĮ½
áĪį áĭĪ
ĠáĪĽáĭķ áĮ¾
ĠáĭĺáĪĪ áĬ£áĪĪáĪĿ
áĭ± áĬ¥
áĬ¥ áĪĿáĪ®
ĠáĬ£áī¥ áī°áĬķ
áīł áĪİáĪĿ
Ġáĭĵ áĬķ
áĭį áĭĴ
Ġáĭį áįħ
ĠáĪĿáĪįáĬŃ áī³áīµ
ĠáĭŃ áī¥
Ġáĭµ áĬķáĮį
áĮ½ áĪĬ
ĠáĬĲáĭŃ áĪŃáĭİ
ĠáĮĢ áĬĲ
ĠáĬ£áĭ¨ áĭµáĪįáĭ¨
Ġáīµ áī¥áĪī
Ġáīµ áĪŃáĬ¨áī¥
Ġáĭ° áīĴ
áĮĢ áĪĺ
ĠáĮĢáĪļ áĪ®áĪĿ
ĠáĪĺáĭĿ áĮĪáī¥
ĠáīµáĬķ áī¢áīµ
Ġáĭµ áĪĮ
áĪ³ áĪ²
ĠáĬ£áĮĪ áĭ°
áĬĶ áīµ
ĠáĪĺáĬķ áīłáĪŃ
ĠáĬ£áĭĿ áĭ¨
ĠáĭĿáĬ£ áī°
ĠáĪ¾ áī¥áĭĵáī°
áĬ¥ áī±
Ġáĭ¨ áĪĪ
ĠáĪ¸ áī¶
ĠáĬĲáĮ» áĬĲáīµ
áĪį áī¥
áĪį áĮł
ĠáĪħ áĮ¹áĮ½
áįį áĪķ
ĠáĪ°áĪ«áĪķ áī°áĬĽ
áĬĲ áĬĵ
ĠáĬķáĪµ áĬº
ĠáĪ¸ áĪŀáĬķáī°
áĬ© áĬ¹áĪĿ
ĠáīģáĮł áī£
ĠáĬķ áĬŃáīµ
Ġáĭĵ áĪµ
ĠáĬķáįĪ áĪĪáĪĽ
áĭŃ áĪ®
áĪħ áĭĪ
Ġáī°áĪĺ áĪĪáĪµ
Ġ <
... ]
Ġáī¥áī° áĪĺ
ĠáĬ£áĪİ áĭİ
ĠáĬķáĪĿ áīķ
Ġ[ ...]
áĪ«áĪŃ áī£
ĠáĮ¥áįį áĬ£áīµ
Ġáī¥áĪªáĮ£áĬķ áĭ«
ĠáĭĿ áĪħáī¥
ĠáĬ¥áĬķ áĬŃ
áĬ£ áī°
áī¥áĪŃ áĪĥ
áĮ» áĮ¸
ĠáįķáĪ® áĮįáĪ«áĪĿ
Ġáĭĵáĭį áĭ²
ê ¬
áĬ¨ áĪĺáĭŃ
ĠáĪħ áĪį
Ġáĭ² áĪŀáĬŃáĪ«áĪ²
ĠáĮį áĭ²
Ġáĭ Ĳ
áĭ« áĪŃ
ĠáĪĿáĬķ áī£áĪ©
ĠáĬķ áĪ½
Ġáī°áĮĭ áĭ°áĪįáī²
áī¡ áĪµ
ĠáĬ£áĪħáĮī áĪ«áĭĬ
ĠáĬŃ áĬ«áĭ¨áĭµ
ĠáĪĵáĭ° áĪµáī²
ĠáĭĵáĪĺ áī°
áĪŃáĬ¥ áĭŃáĭİ
ĠáĪµáĪŃ áĭĵáī°
Ġ201 3
áĮĭ áĪĬ
ĠáĬŃáīµ áĪķ
Ġ ðŁ
ĠáĬ£áĪĿáĪĭ áĬ¸áĭŃ
Ġáī¥ áįģ
ĠáĬ£áĭŃ áĪĺ
áĭĽ áĬ¥áī²
áĪķáĮį áĭĻ
áĬ© áĪ®
ĠáĬ£áĪİ áĬ»
áįĭ áĪ½
ĠáĪĥáī¥ áī³áĪĿ
ĠáĭŃ áĪŃáĬ¨áī¡
Ġáīµ áĮĪáī¥áĪŃ
c t
ĠáĪĥ áĬķáĭ°
ĠáĬ¥áī° áĭĪ
ĠáĬ£áĪķ áĪĬáįī
áĪħáīł áĬĵ
ĠáĬķ áī£áī¥
l i
ĠáĪĺ áĬ¥áī°
ĠáĮİ áĪ¨
áī£áĪį áĬĲáīµ
áĪĿ áĪĿ
ĠáĬķ áĬ¤
ĠáĬķ áīĵ
ĠáįĪáĪ¨áĬķ áĪ³
ĠáĭĿ áĪ°áĪŃ
áīĵ áīµ
Ġáī´ áĬŃáĬĸáĪİáĮĤ
ĠáĬ£ áĭĽ
ĠáĪĿ áīģ
ĠáĪµ áĭī
áĭ² áīµ
áĮ¥áįį áĬ¥
ĠáĬķ áī¥áĪį
áĭķ áĪī
Ġáīħ áĭ³
ĠáĪĿáĭµ áĪĵáĬķ
ĠáĪĺáĬķáĮį áĪ¥
ĠáĬ¾ áĬĲ
áĮ¸ áīł
ĠáĬ¥áĬķáī° áĭĪ
áĪ¨áĮĭ áĮįáĮ½
áĮ»áĪķ áįĪ
ĠáĬ£ áĮĢ
áĪª áĬŃ
Ġáī°áĪĺ áĪĥáĪ®
Ġáĭ ĭáĬķ
ĠáĬ£áĮĪáĭ° áĪµáī²
áī³ áĭįáĬķ
áĬ£ áĭ©
áĭµ áĭµ
ĠáĪĵ áĭĪ
ĠáĭµáĪķáĪŃ áĭļ
ĠáĬ« áĪĬáĬ¥
ĠáĭĺáĭŃ áįĪáĪįáĮ¥
ĠáĮĢ áĪĺáĪŃ
ĠáĬ£áĭµ áĪĭáĭŃ
áĪµ áĬ¹áĪĿ
Ġáī ĸ
áįĪ áĭŃ
áīĥ áĭĪ
Ġ201 5
ĠáĮłáįĬ áĬ¡
ĠáĮł áĬķáīĤ
ĠáĪĵ áī£áĪ«áĭĬ
áĭ¨ áĪĪ
ĠáĪķ áĪĻ
Ġáī¥áĪĿ áĭį
ĠáĭĿáĭĪ áĪĥáī¥
Ġáī°áĭĪ áĪ²
ĠáĬ¨áĪĿáĭĺ áĪĪáĭİ
ĠáĬķáĪĺ áĮĢáĪĺáĪŃ
ĠáĬķáĪĵáĭµáĪķ áĭ¶áĪĿ
ĠáĬ£áĭŃáĬĲáīłáĪ® áĬķ
áĭ¨ áĬĵáĭŃ
áĪµáī° áĬķ
ĠáĭĿáĭĪ áĮ¸
ĠáĬ£áĪĺ áĪįáĬª
Ġáī°áĭĽ áĪª
áī¥ áĭµ
ĠáĮį áįį
Ġáī¥áĭĻ áĬħ
ĠáĪµáĭµáĪ« áī¤áīµ
áĭį áĬĵ
ĠáĬ£áĭŃ áĮįáī£áĬ¥áĬķ
Ġáīł áĭĵ
ĠáĪħ áĬķáĮ»
ĠáĭĺáĪİ áĬĴ
ĠáĪĿáĪĿáĪĭ áĪµ
áĪİ áĪĽ
ĠáĭŃ áĪ°áĪŃáĪķ
áī¥áĪŃ áĬķ
ĠáĬ£áĭŃáĬ® áĬĲáīµáĬķ
áĬŃáĬ¥ áĪī
Ġáī°áĪª áįī
áĪĻ áĬĵ
ĠáĪħáĭŃáĭĪ áī±
ĠáĭĵáĪŃ áī¢
ĠáĭĿ áĮĪáĪįáĮ½
áĬ¸ áīµ
Ġáĭļ áĭį
ĠáĪ¥ áĮĭ
Ġáī°áĬ£ áĪ²
Ġáī°áīł áĮĬ
Ġáĭĺ áĭµáĪįáĭ®
Ġáīµ áĬ¸
Ġáĭ® áĪĥ
ĠáĬ£ áīĥ
Ġáĭĺ áī¥áĪį
Ġáĭ° áĮĭáĮĬ
ĠáĬķ áĪŃáĬł
ĠáĮį áĭ³áĭŃ
Ġáįĭ áĪķ
ĠáĬĵáī£ áĬ»
ĠáĬŃ áī¥áĪ¨
áĪĽ áĪļ
áīĢ áĪŃ
áĪĿ áĮ½áĬ¥
áĭŃ áĭ±
áĪį áĭ®áĪĿ
Ġáįķ áĪ¬
ĠáĬ¥áĬķ áīłáĪŃ
áĪ© áĬĵ
áĬ¨ áĪĭáĬ¸
ĠáĪ½ áĪĿ
Ġáī¥áĭĿ áīłáĪĪ
ĠáīłáĪį áĬ©
ĠáĪ© áĪµáĭ«
Ġáĭ°áĪĬ áĬ»
Ġ =
ĠáĬ¸ áĪĺáĭŃ
ĠáĬ¥áĭĭ áĬĵáīµ
áĭĽ áĪŃ
ĠáĪĿáĬķ áī£áī¥
ĠáĬĲáī¥ áĭª
Ġ d
ĠáĪĺ áĪĺ
áĮ¸ áĭŃ
Ġáī¥áĭĽáĭķáī£ áĬ¡
áĮłáįį áĬ¡
ĠáĬ¥ áĬ½
ĠáĬŃ áĭ³áĬķ
áĬ£ áī³
ĠáĪĿ áĪ½
ĠáĭĿáī° áĪ¨áįĪ
áĪĻ áĬĴ
áī¥áĪĪ áĬĴ
ĠáĭĦ áĬķáĬ«
áĪĪ áĭ©
áįį áĪ¨
áĮį áĪª
áĭ³ áĪĪáĭĪ
ĠáĪķ áĬķ
ĠáĬ£ áĪ½áĪĵáīµ
ĠáĮĪ áĬķ
ĠáĬķáĬ¥ áĬ¡
áĬŃáĪŃ áĪµáī²áĭ«áĬķ
ĠáĬ£áĭµáĪ« áĪ»
ĠáĪĵ áī°áīµ
ĠáĪ° áĪĭáĪĽáĭĬ
ĠáĪļáĬĴ áĪµáīµáĪŃ
Ġáī° áĪĺáĬķ
áįĥ áĬ¥
ĠáĪ°áī¥áĬ£ áĭŃáĬķ
ĠáĪĵ áĭ³
ĠáĬ¸áĪĿ áĬ¡
ĠáĮĮ áĪŃáĬ©áĪĿ
áī¥ áĬ©
áĪį áĭİáĪĿ
áĬĲ áīłáĪ©
áĪ° áĭ«áĪµ
áĪĬ áĬĵ
Ġáī¥áĪĵ áĬķ
ĠáĬĶ áĪ¨
áĪŃ áĬĲáīµ
Ġáīł áĭŃ
áĮ» áĪĿ
ĠáĮħ áĮįáĬĵ
e t
áĪĪ áĮł
ĠáĬķ áīħ
Ġáĭį áĪŃ
ĠáīĢ áĪª
ĠáĪĪ áī£
Ġáī¥áĭĺ áĪİ
ĠáĪĿáĬ» áĭµ
ĠáĬķáĬ¥áĮįáĭļáĬ£áī¥ áĪĦáĪŃ
Ġáī¥áĪĿ áĬ¥
áī¥áĪ¨ áĪī
Ġáįĵ áĪŃáī²
Ġáī£áĬķ áĬŃ
ĠáĭĿ áįĪáīµ
áĭĪ áĭ²
áĬĴ áĬķ
ĠáĪħ áĪĭ
r o
ĠáĪĿáĪµ áĪĽáĭķ
ĠáĭĿáīł áĪįáĬ«
ĠáĮĭáĭľ áĮ£
ĠáĬŃ áĪ¨
Ġáīµ áĪŃáĬ¢
ĠáĮ¸ áĪ¨
ĠáĬķáĪĿáįį áĪĭáĮ¥
ĠáĬ£áĭŃáĬ¨áĬ£ áĪįáĬķ
ĠáĬ¨ áĪĺ
Ġáī¥áīĲ áĮ¥áī³
áĮ¥ áĬ¤
ĠáĬ£áĮ¸ áĮĭáĪļ
ĠáĭĿáīłáĭĿ áĪķ
áĪŃ áĭķ
ĠáĬ£áĭŃáīµ áįįáĪŃ
áĮ» áĭĪáīµ
ĠáĬª áĭ³
Ġáī¥ áĪĽáĭķ
áĪĽ áĭµ
áĬ« áĪįáĬ¥
Ġáī¥áĪĿ áĪį
áĪŃáĬ¨ áĭŃ
ĠáĬ¥ áĬ¨áĭŃ
ĠáĬ« áĬķ
áĬ¨ áĪĿáī²
Ġáĭį áĭ³
áį§ '
ĠáĪ³ áĬ¦áĪį
Ġáī¥áĭĺáĭŃáĬ« áĭļ
áī¥ áĬ©áĪĿ
ĠáĬ£ áī³áĭĬ
ĠáĪ° áĪ«
ĠáĮ¸ áĮ¥áī³
áĪĲ áĮķ
Ġ #
ĠáĬ¨ áĬ¨áĪĿ
ĠáĬķáĪĿ áĬ¥
ĠáĪĺ áĪķ
áĭĿ áĬĵ
ĠáĭĪ áįįáĪª
Ġáīµ áĬ¥
áĮ¢ áĪŃ
ĠáĬ£áįį áĬķ
ĠáĬ» áī£
Ġáī£áĪħáĪŃ áĭ«áīµ
áī¥ áĪĬ
áĪī áĭŃ
ĠáĬĲ áī¦
áį Ķ
ĠáĬĲáĭŃ áĪŃáĬĵ
ĠáĭŃáī¥áĪĪ áĬĵ
áĬķ áĪķáĬĵ
áĭ° áįį
Ġáĭķ áĪĭáĪį
áĬł áĭŃ
áĪĳ áĬķ
ĠáīłáĪĪ áī¶
áĪ® áįĵ
ĠáĬ£áįį áĪĬáĮ¡
áī¥áĬĵ áĭ®
ĠáĬ£áĪ° áĪ«áĪŃáĪĵ
Ġáī¥áĬķ áĮ¹áĪŃ
áīħ áĪį
ĠáĬ£áī£ áĭŃáī²
ĠáĪĿáĬ½áĬķ áĭ«áī³áīµ
ĠáĪĵáĪĪ áĭĭ
ĠáĪ¶ áĪŃáĭ«
ĠáĬķ áīłáĭŃ
áĭĭ áĬ¥
ĠáĬ¨áĪĿáĭĿ áĬĲáīłáĪ¨
ĠáĮł áĭį
ĠáĬ£áĭį áĪµáīµáĪ«
ĠáĬ£áĪĿ áĮº
ĠáĬ¥áĪ± áĪ«áīµ
ĠáĮ Ĥ
áįħ áĪį
ĠáĬķáĭ° áīĢ
ĠáĭŃáĮį áīłáĪ¨
ĠáĬķ áĭĤ
áī¶ áĪĬ
áĪŃáĬ¥ áĭŃ
áĪĮ áįİáĬķ
ĠáĬ£áĪĽáĪį áĬ½áī²
Ġáĭ¨áĮį áĭ³áĪµ
ĠáĭĿ áĪĿáĪįáĬ¨
Ġáī° áĬķáĪµ
áĮĭ áįį
ĠáĪį áī¦áĪĿ
Ġáī¥áĪĿ áīķ
Ġáī°áĮĪáĪĬ áįģ
ĠáĪļáĬ¥ áī³áĭĬáīµ
áĪª áĬ¡
ĠáĪĺáĭĵáĪį áīµáĬķ
ou s
ĠáĭĪáī°áĪĥáĭ° áĪ«áĭĬ
Ġáĭļ áĮĪáĪįáĮ½
ĠáĪ¨ áĭµ
ĠÂ ·
áī¥ áĭİáĪĿ
ĠáĬ¸ áĪĪáĭī
ĠáĬŃáĬķáĭµ áĭļ
ĠáĪ¬ áĪ³
ĠáĪµáĮį áĬ£áīµ
e l
ĠáĪĺ áĮ¹
áįį áĮ¸áĪĿ
ĠáĬķáĪĿ áĭĿ
áĪŃáīµ áĭĸ
Ġáī¥áīķ áĭĵáīµ
Ġáīµ áĪ½
Ġáī°áĪ° áĪª
ĠáĬ¨áĭŃáī° áĪ¨áįĪ
ĠáĬŃáĬ¥ áĪĪáīµ
ĠáĬ£áĪĿáĪį áĬ¾
áĪ« áĪ½
áĪĻ áĬ¤áĪį
ĠáĪŃ áĬŃ
ĠáĪħáĭŃáĭĪáīµ áĬ«
ĠáĬŃ áĭĪáĪµáĭµ
Ġáīµ áĭĿ
ĠáĪĺáīĵ áī¥áĪŃ
n a
ĠáīĢ áĬķ
Ġáī¥áĪĵ áĭŃáĪĬ
Ġáī¥áī°áĪĺ áĪ³áĪ³áĪĬ
áĮ½ áĬĵ
ĠáĪŀáĭŃ áī¶áĪĿ
áĪį áī¢
Ġáīħ áĪį
áĪĿáĪį áĪµ
om e
áĬ®áĬĸ áĪļ
ĠáĭĪ áĮĭ
Ġáīµ áĭį
ĠáĬ¨ áĬķ
áĬ«áĪį áĬ¦áīµ
ĠáĪĿ áĬŃáīµ
ĠáĬ£áī¥ áī¶áĪĿ
áĪ® áĪµ
áĬĲáīµ áĬĵ
ĠáĬ»áī¥ áī²
ĠáĭŃ áĬ¾áĬĳ
áĮĭ áĪ«
ĠáĭĿáī° áīł
ĠáĭĵáĪĺ áī³áĭĬ
ĠáĭĿ áīĳ
ĠáīĢáĭŃ áĪķ
ĠáįĪ áĪ¨
áĪĨ áĪĿ
ĠáĪ° áĭįáĪ«
Ġáī°áįĪ áĮ¢áĪ©
Ġáī¥áĭĵ áĭŃ
áĬŃ áĪ©
áĬŃ áĭİáĪĿ
Ġáī¤áīµ áĬ«
ĠáĬ£áĭŃáīµ áĪķ
Ġáĭĭ áĪķ
áĬµ áĪī
ĠáĪĺáĬ¥áī° áĭĬ
Ġáī£áĭķ áĪĪáĭŃ
Ġáĭĺ áĮĪáĪŃáĪĿ
ĠáĪķ áĭµ
Ġ3 4
ĠáĪĿáĬ¥ áī³áĭį
áĮķ áĪĿ
ĠáĭĪáĮº áĬ¡
Ġáĭ¨áĭµáĪįáĭ¨ áĬĵ
áĭ°áĮĭ áĮĭáĪļ
Ġáī° áĪįáĬ¥
áĭĵ áĪĺ
Ġ" '
áĪ± áĪĿ
Ġáī¥áĪĿ áĪĿ
ĠáĬ¥áĬķáīĭ áĭķ
Ġ F
áĭ« áĪ½
ĠáĬ¸ áĭ°
ĠáĬķáĪĻ áĪ´
Ġáĭļ áīķ
áī Ħ
áĬ« áĬĴ
ĠáĪĵ áĭĭáĪŃáĭ«
Ġáĭĵ áĪĿ
áįį áī³
ĠáĭŃ áīħ
áĮŃ áīµ
áĮ ¤
ĠáĪĺ áĭļ
ti c
ĠáĮĪáĪĿ áĮĭáĪĿ
ĠáĪļáĭ« áĭĿáĭ«
ĠáĭµáĬķáĮį áĪį
áĮ¸ áĪĪ
áĪĭáīµ áĬ©áĪĿ
ĠáĪĴ áĭŀáĪĿ
ĠáĮĢáĪļ áĪ¨
ĠáĬ¨ áĪ¨áĬķ
ĠáĭŃ áĪħáī¥
áī¦ áĬĵ
Ġ201 4
ĠáĬķáĪį áĭķáĪĬ
Ġáī°áĪ«áĬ¥ áĭ©
ĠáĬ¥ áī¥
ĠáĪĺ áĪŃáīµáĭĸ
áĪĭ áĭŃáĬķ
Ġ3 8
áīłáĪį áĬ©áĪĿ
áĪį áĮ£áĬķ
ĠáĬ¢ áĭ°áĭŃ
ĠáīĢáĭ³ áĪĿ
ĠáĪĺáĭĽ áĪĻ
ĠáĬ£áĭŃ áĬ¨áĬ£áĪį
ĠáĪįáĭķáĪĬ áĬ¡
áĭķ áĭĿ
ĠáĬĵ áī¶áĪĿ
ĠáĭŃ áīł
ĠáĬ£áĬ«áĭŃ áĭ³
ĠáĬ£ áī°áĭĪ
áĮĪ áī¡
áĭ® áĪµ
ĠáĭĺáĭŃ áĬ¨áĬ£
ĠáĬķáĪµ áĬ¹áĪĿ
Ġáī°áĪĺ áĬŃáĪ®
ĠáĬŃ áĪ²
ĠáĪĿáĭķ áĪ«áī¥
Ġáįħ áī¡áīķ
ĠáĭĿ áĪ¨áĬł
áĭķ áĪ¶
ĠáįįáĪ½ áĬ½
áĭį áĭĴáīµ
áĬ® áĬķ
áī¤ áĪį
2 3
áĭµ áĪĽ
Ġáī° áĪµ
Ġáī£ áī¢
ĠáĬ£áĭŃáĬ® áĬĵáĬķ
ĠáĬĲáĮĪ áĪµáī³áīµ
ĠáĬķáĪĵ áĭĭáĪ©
ĠáĪĵáĬķ áĮİ
áĪķáī¥ áī£áĪŃ
ĠáĭŃ áī¥áĪĥáĪį
áįĭ áĪķ
ĠáĮĲáĭŃáī³ áĬĵ
ĠáĬķáĪŃáĬ¥ áĪ±
ĠáĪĿáī¥ áĮ»áĪķ
áĪįáĭ® áĬĵáīµ
ĠáįįáĪįáĪµ áĮ¥áĬ¤
i d
ĠáĪĺ áĪĥ
ĠáĬŃ áįĪáĪįáĮ¥
ĠáĭĺáĪİ áĬ»
Ġáī°áī³ áĪĴ
áĪį áĬ¹áĪĿ
ĠáĪµ áĪĺáĭŃ
ĠáĭĪ áĮ¸
ĠáĪŃ áĮįáĮ½
ĠáĬ¥áĪµ áĬª
áĪĺáĪĭáĪĪ áĪµ
ĠáĭįáĪħ áīłáīµ
áĪį áīĢ
áĪĺ áī°
ĠáįĪ áĮ¢áĪ©
Ġáī¥áĪķ áĮĬ
ĠáĪħ áĬķáĭ²
ĠáĬŃáīµ áĭĪ
Ġáĭ² áĭ©
áĭį áī³
áĭ°áĬķ áīķ
ĠáĬ« áī¶áĪĬ
Ġáĭĵ áĪĮ
ĠáĪĤ áĭĪ
ĠáĪľ áĭ³
ĠáĪķáĮī áĪ³áīµ
áīµ áĪĪáīµ
áĪµ áĪµ
áĬĵ áįį
Ġáĭĺ áĮ¸
ĠáĪĿáĭĥ áĬĲáĭŃ
ĠáĭĿáīĲ áĪ¨áīł
ĠáĭĿáīłáĭĿ áĪĲ
ĠáĬ£áĭį áī¶
ĠáĬłáĪİ áĬĵ
áī² áĬ«áĬķ
ĠáĭĿ áįĪáĪŃ
áĬĲ áĬĴ
ĠáĮį áĭļ
ĠáĮį áĭ³áĭ«áīµ
Ġáĭ° áĪ´
ĠáĪĿáĪµ áĬ£
ĠáĬ£áĬķ áī¥áī¥
ĠáĪĿáĬ¥ áĬķáī³
Ġ6 0
ĠáĪ¨áĬ£ áĭ¨
áĬķ áĪ³
áĬ© áĪŃ
áĭĽ áĭĿ
áĭĸ áĬķ
ĠáĪµáĭ° áī°áĬĽ
ĠáĬ£áĮĪáĪį áĮĪáĪį
Ġáī° áĮĢ
áĬĳ áĭŃ
ĠáĪĿáĪķ áĭ°áĪ«
ĠáĪĪáĭŃ áīµáĬķ
áī ĭáĬķáīĭ
áĬ¥ áĭĪ
áĮ½ áĪİ
áįĪáĪį áĮ£
Ġáī£áĭķ áĪİáĪĿ
Ġáī°áįĪ áĪĬáĮ¡
ĠáĬ£áĪĿ áĪĵ
áĬķ áĮĭ
ĠáĪĺ áĮ»áĬ¥
áįĪ áĪ¨
áĮ¦ áĪµ
Ġáĭ® áĪĵáĬķáĪµ
Ġáī¥áī° áĭ°áĮĭáĮĭáĪļ
ĠáĪĿáĪħ áĪĭáĭī
ĠáĪĵ áĭ±áĪ½
ĠáĬ¢ áĪĪáĬķ
Ġáĭļ áĮįáīłáĪŃ
ĠáĬª áĬ¸
ĠáĬķáĪĿ áī¥
áĪĺáĪŃ áī²
áĮĵ áĪµ
re vi
áĪ³áī° áįįáī²
ĠáĬ£áĪ¨áĮĭ áĮĬ
áĭĭ áĪļ
Ġáī¥áĪĿ áīµ
ĠáĬ£áĭĿ áĭ«
áĭĪáĪµ áĭ¶
Ġáĭķ áĪĭ
ĠáĪŃáĬ¥ áĪ°áĭŃ
Ġáīħáĭ± áĪ³áīµ
ĠáĪµáĪĿ áĭĳ
áįĪáĪįáĮ¦ áĬķ
w w
áĬĲ áĪī
ĠáĭĵáĪ°áĪŃáī° áĭį
áī° áĪĿ
áįį áĮ½áĪĿ
áĬĽ áĬķ
áĮĪáī¥ áĪ®áĪĿ
áĪ¨áĬ¸ áīł
ĠáĮ» áĭµáīķ
ĠáĪ°áĪĽ áĬ¥
ĠáĮ¨ áĬķ
ĠM ore
ĠáĬĲáī¢ áĭŃ
ĠáĬķ áįī
ĠáĬ® áĪŃáĭ«
ĠáĬŃ áĪĪ
ĠáĬŃáīµ áĭķ
Ġáī¥áĬ£ áĬķáĮ»áĪ©
Ġáī°áįĪ áĮº
Ġ7 0
Ġáĭ°áīĢ áĭŃ
ĠáĬ£áĭķ áĪ©áĬ½
áĪĺ áĬĵáĬķ
áĭ° áīķ
ĠáĭĺáĭŃ áĬŃ
ĠáĪĺáī¥ áĪ«áĪħ
Ġáī°áīł áĮįáĪ¶
ĠáĬ£áĭŃáĬ¨áĬ£áĪį áĬ©áĬķ
ĠáĬķ áī³
ĠáĬĲ áįĪáĪŃáī²
áĪįáĬ« áĬķ
ĠáĪ¨áĬº áī¡
áĪĺ áĪĭ
áĮ¥ áīħ
ĠáĬŃáĪŃáĪµ áīµáĬĵ
Ġáĭ² áįķ
áĬ¥áĬķ áĪĨ
Ġáĭĵáī¥ áĭŃ
ĠáĪĵáī¢ áĪŃáĬĵ
ĠáĬķáĬķ áĮīáĪµ
ĠáĬķáī£áĭķ áĪī
ĠáĮ ¡
áĬ« áĪŃ
ĠáĭĪ áī¥
ĠáĪ® áĪľ
ĠáĪµ áĪĽáĭķ
ĠáĬ£áĭŃ áĪĵ
áĮ» áĭķáī²
ĠáĬ¥áīµ áĪŃáĬ¨áī¥
ĠáĬķáĪµáĬ» áĬķ
áĭĪáĪµ áĭ±
áĬ£áĬķ áĪµáīµáĭ®
Ġáī° áĭĽáĪ¨áī¥
áĬ¥áĪĿ áĪĽáĬķ
áĪ° áĪĭ
áīłáĪį áĭĳ
ĠáĬ£áĪĺ áĬĵ
áĬķáĪµ áĬ»áīµáĬ©áĪĿ
áĪĺáĪµáĮį áĬĲáĬ«
revi ous
ĠáĬ¨áĭŃ áĭ°
áĪĲ áīµ
a m
ĠáĪĿ áī°
áĭĪ áĪī
Ġáĭ° áī¥áĪ¨
ĠáĪĿáĭµ áĪĭáĭį
Ġáī¥áĭ° áĪ¨áĮĥ
ĠáĪŃáĮįáĮ¸ áĬĽ
Ġáĭµ áĪĴ
ĠáĬ¸ áĬĲ
ĠáĬ£áĭį áĪ®áĮ³
Ġáĭķáĭµ áĪļ
áīķ áĮ¢
ĠáĪŀ áīµáĬķ
Ġáĭ² áĬĵ
ĠáĪĬ áī¥áĭ«
Ġ n
áīµ áĭ©
ĠáĬ¢ áĮ£
ĠáĪµáĪĿ áĬ«
Ġáī¥áī¥ áĭĻáĪķ
ĠáĬĲáįĭ áĪªáīµ
áĮĪ áĬĵ
ĠáĬł áĬĲ
ĠáĭĿáīł áĮ½
Ġáīħáĭµ áĪĺáĭŃ
ĠáĬ£áĪĿ áī£
ĠáĬķáĮĪ áĪĪ
Ġáī¥ áĪĥ
áĬŃ áĪ²
Ġáī¥áĪŃ áĬŃáīµ
Ġáįįáīĵ áĭ°
Ġáīĵ áĪĭáīµ
ĠáĬ¬ áĬķáĭ«
Ġáī¥áĭĿáī° áįĪáĪĭáĪĪáĭ¨
áĭ³ áĪį
ĠáĬ£áĪĿáĪĭáĬ½ áĬ«
Ġáī¥áī¥ áĭĿáĪĴ
ĠáĭĿ áĬ¥
áĪĭ áĭįáĬķ
áĭĺ áĬĴ
áĮĭ áĬ¥
ĠáĬ®áĪļ áī´
áĪµáīµ áĭ®áĬķ
ĠáĬĥ áĮ¢áĬ£áīµ
ĠáĪ° áįĪáĪŃ
ĠáĪķ áĪ°
ĠáĪ°áĪļ áĭĲ
ĠáīĪ áĪįáĭĵ
áĮį áĭĿ
Ġáī° áĪŃáĬ¥áĭ®
áĭµáĪķ áĭµ
Ġáĭĵ áĪĬ
Ġáīħ áĪ©áī¥
ĠáĬķáĪĿ áĭµáĪª
ĠáĬ¥áĭ° áĪĬ
ĠáĬķáĭĺ áĪİ
ĠáĭĽ áĮĬáīµ
ĠáĬ£áĮĪáĪį áĮĭáĪĬ
Ġ W
ĠáĬ© áĬķ
Ġáī¤ áī°áĭŃ
ĠáĪĺáĬĵ áĬ¥áĪ°áĭŃ
ĠáĭĿ áĪį
Ġáĭĺ áĪ«
Ġáī° áĪ³áīµ
a s
áĪŃ áĭĵáīµ
Ġáī° áĮĪáĭ²
Ġáīµ áĬĲáī¥áĪŃ
ĠáĭĿáī° áĮłáīķ
ĠáĬ¥áĪĿ áī£
áĬķ áĭ±
Ġáī° áĪĥ
ĠáĭŃ áĮĪáī¥áĪ©
áĪĲ áĭŃ
ĠáĪĿáĭĥ áĬķáĬ«
Ġáī°áĪĺ áĪª
Ġáī¥áĮį áĭľ
áīª áĭµ
ĠáĮ¥áīķ áĪ²
áĪĭ áī±
ĠáĬ£áĭįáĪ« áĮĥ
2 5
áĭµ áĮį
ĠáĬ£áĪµ áĭĴ
Ġáĭħ áĪİáĪĿ
ĠáĪĺ áī£áĬ¥
áĭ° áĪĺ
ĠáĪµ áĭį
ĠáĪĺ áĭ³
ĠáĪĺ áĭĵáīµ
ĠáĪĿ áī£
ĠáĮ¸ áĬķ
Ġáī°áĪ¨áĬº áī¡
Ġáī¥ áĪļ
áĪĥ áī¡
ĠáĬ£áįį áĪªáĬ«
áĪĪ áĭİáĪĿ
ĠáĭĿ áĭ°áĪįáĭ©
áĬĲ áīłáĪŃ
áĪĵ áĪĭáĪĪ
ĠáĪĺáĬķáĮį áĪµáī°
ĠáĭįáĮ½ áĬ¢
Ġáī£áĪŃ áĬĲáīµ
Ġáĭķáī¥ áĭ¨áīµ
áĪµ áĬ½
ĠáĭŃ áīĢ
áĭļ áĬ£
áĪħ áĪĪ
ĠáĬŃáĬķ áīħ
Ġáĭ°áīĢáĬķ áĪµáīµáĭ®
ĠáĪĺ áĪ¬
áĮĪ áĪ°
Ġáĭķ áĪĽáĪĿ
áĮĢ áīµ
ĠáĬŃáĪħ áī¥
Ġáĭ°áī¥áĭ³ áīł
Ġáĭĺ áĭķ
ĠáĬ¨áĪĿáĭĿ áĬ½áĬ¥áĪį
ĠáĪķáĮ» áĬķ
áĭ® áĪĵ
ĠáĪĵáĭ° áĪ«
ĠáĬ° áĬķ
ĠáĬ² áĪİáĪĿ
ĠáįĪáĪĬ áĮ¥
áĪĿ áĪĥáĪŃ
ĠáĪĺ áĮĪáĭµáī³áīµ
Ġ3 7
ĠáĪĬ áīĢ
ĠáĬ£ áĪĺáĪµ
áīł áĪµ
áĪĵ áī±
ĠáĬ£áīµ áĭ®áĪĿ
áī¸ áĪµáĬ®
ĠáįįáĮ» áĪĺ
áĬ» áĬ¸
áįįáīħ áĪŃ
ĠáĬŃ áĬŃáĬŃ
áĬŃ áī³
ĠáĪķ áĪ«áĭŃ
ĠáĬ¨áĭŃ áĭ²
ĠáĪļ áĪµ
Ġ19 8
ĠáĭĪáĮĭ áĪķáī³
áī ¹
ĠáĪĺ áī¸
ĠáīĢ áīµáĪª
ĠáĮĪáĪĬ áįĨáĪĿ
ĠáĭĪáĪ² áĬ¹
Ġáī£áī¢ áĪİáĬķ
Ġ L
áĪĭ áĭķáĪĪ
ĠáĮįáĭĿ áĬ£áīµ
áīµ áĪ®
áīł áĬ¦
ĠáĬŃ áĬ£áī±
áįį áī°
ĠáĮ¸ áĪĵáįį
ĠáĪĿáĪŃ áĮįáĮĭ
Ġ19 7
ĠáĮŃ áĬķáīĢ
áįĸ áĪŃ
ĠáĭµáĬķ áĬ³áĬķ
ĠáĬ£áīłáĪŃ áĬŃáī¶
áĪŃ áĭ³áĬ¥
ĠáĪĵ áĪļ
áī¡ áĭķ
ĠáĪļ áĬ«áĬ¤áĪį
áĪħáīł áĬĴ
ĠáĪľ áĪĭ
Ġáī°áĬ» áĭŃáĭ±
áįĪ áĬĵ
áĬŃ áĪĿ
Ġáĭ° áīĵáĭŃ
ĠáĮł áīķ
ĠáĭįáĪĳ áĭµ
ĠáĪĺáĭµáĪĥ áĬĴáīµ
c h
ĠáĭĿ áĮİ
áĪķ áĭĭ
ĠáĭĿáĪŃ áĪŃáī¥
ĠáĭµáĪį áĭ¨áīµ
ĠáĮįáĭ´ áī³
áĬĵ áĬ¸
ĠáĬĲ áĪĵáĪ°
áĭĿ áī¥
ĠáĬ© áĬĵáīµ
ĠáĭķáĪĪ áī°
ĠáĪĪáīł áĭ³
áĭį áĭĳ
Ġáĭĺ áĬ½áĬ¥áĪį
ĠH ome
ĠáĪ°áī¥áĬ¡ áīµ
ĠáĪĺ áĪĪáĪµ
áĭ° áĭ±
áĬŃ áĭĭ
ĠáĬŃáĬķ áĪŃáĬ¢
ĠáĪ³ áĪĻáĬ¤áĪį
ĠáĭĿáĭĵ áīł
Ġáī¥áĭį áĪĳ
áĬ» áĬ¥áĪĪ
ĠáĪħ áĪįáĭį
Ġáī¥áĪŃ áĬª
ĠáĬĲ áī£áĪª
Ġáĭµ áĪ«
áįĬ áīµ
áīłáĭĿ áĪķ
Ġáĭ°áĪŀ áĭĿ
ĠáĬķ áĭ®
Ġáī¥ áĪĥáĬķ
áĮ¥ áĪķ
áĭĺ áĪİ
áī¢ áĭŃ
ĠáĬ£áĬĲ áĭįáĬķ
Ġáī° áĮ£
ĠáĪĺ áĮ¥
ĠáĬŃ áĭįáĬķ
Ġáĭĵ áĭµáĬĵ
ĠáĬķáĬ£ áī¦
ĠáĬłáĭŃ áĬ®áĬĲáĬķ
ĠáĪĺ áĪĿáĪħ
ĠáĪĿ áĮ¥áīĥáĪĿ
Ġáĭĵ áĭĪ
ĠáĭĺáĭŃ áĭĪ
ĠáĬŃáĬķ áĭ³
áĬĸ áĬķ
ĠáĪĥáĮĪ áĪ®áĪĿ
áī¥áĪĪ áĬĵ
Ġáī£áĭķ áĪįáĬĵ
ĠáĪĺáĪ¨ áįĥ
ĠáĬ¥áĬķáĭµ áĭ©
ĠáĮ¥áīł áīłáĬĽ
áĭµ áĬ©
Ġáĭĺ áĬ½
ĠáĬ©áī£áĬķ áĭ«
áĪŃ áįĬ
ĠáĭŃ áĬŃ
Ġáĭµ áĬħ
áĭĽ áĭĺ
áĭ² áĪĻ
áĬ¨áĪĿ áĭļ
ĠáĭĿ áĪ°áĪŃáĪĳ
ĠáĭŃ áĭĽáĪ¨áī¡
áĪ® áĪĿáĬķ
áįĭ áįį
ĠáĭĿáĬ¸ áīłáĪŃ
ĠáįĢ áĮĪ
ĠáĭĿáīłáĭĿ áĪĳ
ĠáĭĪáĪª áĭ±
Ġáī¥ áĪ«
ĠáĬŃ áĪŃáĬ¢
ĠáĬĲ áĭ³áĭ²
Ġáī° áĭĺáĪŃ
Ġáĭ° áĪĥáĭŃ
áĪĥ áĪħáĪĭ
ĠáĬŃáīµ áĪ¨áĬ½áī¡
áĮī áĭŃ
Ġáī¥áĪĵ áĭĬ
áĮ¡ áĬķ
ĠáĬŃáįī áīµ
ĠáīħáĭµáĪľ áĬ»
Ġáĭĵ áĪŃáĬ¨áĭŃ
Ġáīĥ áĬķáĭĽ
Ġ3 6
áĮĭ áī¥
áĬł áĬĵ
ĠáĮĪáĪĬ áĮ¾áĪĿ
ĠáīłáĭĵáĪį áī²
Ġáī¥ áīħ
Ġáī° áĪ³áī°áįįáī²
ĠáĪĵ áĮĬ
ĠáĬ«áī¥ áĭŀáĪĿ
ĠáĭĺáĪĺ áĬĲ
Ġ âĢ¹
áĬĲ áĪŃ
ĠáĭŃ áĮ¸
ĠáĪĬ áīĥ
ĠáĪĿáĪħ áĪĭáĭį
áĭĺáĪ« áĪ¨áī¥
Ġáī°áįĪáĮº áĪĻ
ĠáĬķ áĬ¡áĪµ
áĬ¥ áĮįáĭļáĬ£áī¥
áĪķ áĭµ
áįį áĮ½
ĠáĬ£áĭŃ áįĭ
áĬ® áīµ
ĠáĮ½ áĬĳáĭķ
áĪĺ áĭĵ
ĠáĬŃáīµ áĭį
áī°áĬķ áĪµ
Ġáī°áīĲ áī£áĪįáĬĲáīµ
ĠáĮ³ áĮ³
ĠáĬķáīķ áĭµáĪļáīµ
ĠáĬ®áĭŃáĬķ áĬ«
ĠáįįáĪ«áĬķ áī¸áĪµáĬ®
áī° áī°
ĠáĬķ áīłáĪį
ĠáĬ£áī¥ áĭĺáĬķ
áĪī áĬ¡
Ġáīł áī¶áĪĿ
ĠáĬ£áĪĺ áĬķáī²
ĠáĭĿáīķ áĮ½áĪį
ĠáĮ¥áĬķ áĪ²
Ġáī°áĮĢ áĪļáĪ©
áĬ£ áĬ©áĪĿ
Ġáī Ŀ
ĠáĪĵ áĪ°
áĪ° áĪĪ
áĬª áĬķ
ĠáĬķáĭĿ áĬ¾áĬĲ
Ġ8 0
Ġáī¡ áĬķ
áĮ½áĪĳ áįį
ĠáĬ ħ
ĠáĬķ áī¤áī°
ĠáĬ¢ áĭ®
ĠáĬ° áĭŃáĬĸáĪĿ
ĠáĪĺ áĮ¨
ĠáĬĲ áĪ©
ĠáĭĺáĭŃ áī¥
ĠáĭĿáįĪ áĮł
ĠáĭĿáĪŃ áĬł
ĠM e
áĬ¥ áĪį
áĪĭ áĪ´
ĠáĬ« áĪħáĬķ
áĬ½áĬ¥ áĪīáĬķ
ĠáĬ£áĬķ áįĪáīµ
ĠáĪ°áīłáĭŃ áī±
ĠáĪĪáĬ« áī²áīµ
Ġ ....
ĠáĪĵ áĭĭáĪŃáĭ«áīµ
ĠáĪķ áĮ½
ĠáĭĺáĮĭ áĮł
ĠáĬ¥áĭ ī
áĪĬ áĬ¡
áĪł áĪŃ
Ġáĭķ áĮ½
Ġáī°áĭĪ áĪįáĭ°
ĠáĪ°áĪĽ áĭ«áĭĬ
áĪĪ áĬ¹áĪĿ
Ġáĭµ áĪ«áĪŃ
ĠáĬ£áĭŃ áĭ°áĪĪ
Ġáīµ áīķ
Ġáĭ° áĭµáĪķáĪª
2 6
áĭĭ áĬ½
ĠáĪĵáĭ° áĪ½áī²
Ġáī°áīĲ áī²
ĠáĬķáī¥ áĭĵáīµ
Ġáī¥ áĬ¥áĬķ
ĠáĭŃ áĮįáī£
áĪª áĬķ
Ġáįį áīĥ
ĠáĮ½ áĪĴ
ĠáĬķáĪĿ áīµ
ĠáĭĿáĬĲ áīłáĪ®áĪĿ
áīĵ áĪķ
áĮįáĪ¨ áĬĵ
ĠáĭµáĬ» áī³áīµ
ĠáĭĿ áĪŀáī±
ĠáĬĲ áīłáĪ«
Ġáĭ° áĪįáĭ¨
ĠáĬŃ áīµáĬķ
ĠáĮį áĪ«áīµ
ĠáįįáĪŃ áĪĴ
ĠáĬ£áĭŃáĬŃáĬ¥ áĪīáĬķ
ĠáĮ¸áī¥ áĮ»
ĠP revious
ĠáĬķ áĮİ
áįĪ áĪ©
áĮ½ áĭİ
ĠáĪĿáĪ³ áī³áī¶áĪĿ
ĠáĪĺáĮ» áĪĿáĭµ
Ġáī¥ áĪĤ
ĠáĬŃ áĪĺáĪį
ĠáĬŃáĬķ áĮĪáī¥áĪ®
ĠáĭĵáĭŃ áĬĲáī³áīµ
ĠáĪĵáĪĪ áīĵ
Ġ >
ĠáĬķ áĮĲáĭŃáī³
ĠáĪĺ áī°
ĠáĪĺ áĬ¸
Ġáĭĺ áĭµ
ĠáĬ£áĭŃ áĪķ
áĬķáĪµ áĬ»
ĠáĪĵáĪĪ áįįáī²
áĪķ áĭµáĪķ
Ġáĭ° áĪ«áĪ²
áĬ½áĬ¥ áĪĭ
ĠáĭĿ áĮĪáī¥áĪ©
ĠáĬ£áī¥ áĭĿ
Ġáīµ áĭ°áĪįáĭ©
áĬ© áĪŀ
ĠáĪ« áī¥
ĠáĪĺáĬķáĮįáĪµ áīµáĬķ
2 8
ĠáĬķ áĬ¸áĭįáĬķ
ĠáĪĿ áĮī
áĪ¨ áĪµáĭķ
áĮĪ áī£
ĠáĮ¥ áĬķáī²
ĠáĪĺáĪ° áĭį
Ġáī¤áī° áĪ°áī¥
Ġáī³áĪª áĬ»áĭĬ
ĠáĮ¸áĭĬ áĭĳ
áĪµáī¡ áĬŃ
áĪķ áĮĤ
áĪĽ áĪª
áĮ½ áĮ»áĪŃ
áĮĭ áĬķ
áĮ¹ áĬķ
ĠáĬ£áĪį áĭĴ
Ġáĭ°áīĵáĭŃ áīķ
áīµ áĪµ
áĪį áĪĿáĬĵ
ĠáĬķ áī¤áīµ
áĭ« áĭ¨
áĭĽ áĭŃ
áĪ½ áĮ¢
ĠáĬµ áĬĵáīµ
ĠáĭĪáĬ¨áįį áĬĵ
ĠáĭĿáĬ¾ áĬĵ
ĠáĬŃáĬ¥ áĪĪ
ĠáĬ¥áĬķáĪµáĪ³ áī³áīµ
áĮłáīĵ áĪįáĪį
áīł áĬĽáī³áīµ
Ġáī¥ áĮī
Ġáī¥ áĮĢ
ĠáĪµ áĪ©áĭķ
ĠáĬ¥áī° áīĲ
áĪŃáĬ¥ áĭ«
áīłáĪį áĭİ
ĠáĬķáĬ¥áĪµáĪ« áĬ¤áĪį
ĠáĭĿ áīĢ
áĮ» áĭķ
Ġáį ¦
áī´ áĪŃ
Ġáī°áĬ£ áĬª
Ġáī°áĪ¨ áĭ²
ĠáĬ£áĮ½ áĭĭáĪŃ
ĠáįįáĮ¡ áĪŃ
ĠáĬŃ áī¥áĪ¨áīµ
Ġáī° áīĥ
Ġ3 9
ĠáĮĢ áĪĺáĪ©
ĠáĭĿáī°áĪ¨ áįī
ĠáĮįáĭľ áĬķ
ĠáĬ£áĪķ áĪĺáĭµ
ĠáĬ£áĬ½ áĪ«áĬķ
ĠáĬķáīł áĭŃáĬĳ
ĠáĬ¥ áĮĪáĭ³
ĠáĪ° áī£áīµáĬķ
áĪ© áĪĿ
ĠáĪĿáĪµ áĭļ
ĠáĬ£áĬķ áīłáī¥
áĮ¸ áĪ¨
Ġáī¥áĭĺáĭŃ áĪĿ
Ġáīģ áįħ
áĭ³áĪĿ áĬĲáīµ
u n
áĬŃ áī±
ĠáĬ£áĬ« áĪĭáĭĬ
ĠáĬĴ áĭį
Ġ G
ĠáĭĿ áĪĲ
Ġáī¥ áī¥áĪŃ
Ġáī¥ áĬ¹áĪī
áĪķ áĭİ
Ġáīł áĭ°áĪį
ĠáĮ¥ áĪľáīµ
ĠáĬķáĬ£ áĬ»
ĠáĮİ áĭ°áĬĵ
ĠáĪĺáĮį áĭĽáĬ¥áī²
áĪ¨áĭµ áĬ¥
áĪ°áĪĽ áĪĽáĭķ
ĠáĭµáĬ½ áĬĲáīµ
áĭŃ áĭİáĪĿ
áĬ£ áī¦
áĪ° áĬĴ
ĠáĪħáĭŃáĭĪ áī¶áĪĿ
Ġ200 9
ĠáĬ¥áĭĭ áĬĳ
áĭį áĭİ
ĠáĬ¥áĬĵ áĪ°
ĠáĬĲáī¥ áĭ«áīµ
Ġáĭ²áįķ áĪİáĪĽ
ĠáĬ¥ áĪĽ
ĠáĬŃ áĮĪáī¥áĪ¨
ĠáĪĵ áĪįáĭ®
Ġáīł áīĥ
Ġáĭ¨ áĪĺáĬķ
áīĲ áĪĿ
ĠáĮ¸ áīłáī£
ĠáĪĺáĭ° áĪĿ
ĠáĪķáĪĽ áĪĽáīµ
Ġáĭ¨áī¥áĪį áĬ«áĬķ
ĠáĪĽ áĪį
Ġáĭį áĭĴ
ĠáĬ¨áĭŃ áĭ¶áĪĿ
áĪķáĮįáĭĺ áĬĵ
ĠáīµáĪŃáĮī áĪĻ
ĠáĪĵ áĪĺáĭµ
ĠáĬ¨áĪĿ áī¶áĪĿ
ĠáĬ£áĭŃ áĬ½áĬ¥áĪįáĬķ
ĠáĮĪ áĭļ
áĬ¾ áĬĵ
ĠáĪĿáĪŃ áĭ³áĬ¥
2 00
ĠáĭĺáĪĪ áĬĴ
r i
ĠáĪķ áĪ°áī¥
ĠáĬĲáĭŃ áĪ¨áĬķ
áĮĪ áĮ½
Ġáĭ¨áī¥ áĪĭáĬķ
ĠáĬķ áĪĺáĪŃ
ĠáĭĺáĪĪ áĭĪáĬķ
ĠáĭĿ áĮĢáĪĺáĪ¨
áĪ« áĪ¨
ĠáĮĪ áĭ³áĪĿ
ĠáĮ¸ áīķáĮ¢
ĠáĪĿáĪķ áĪ³áī¥
áĬ¨áĪį áī²
ĠáĬ¥áĪµáĪ«áĬ¤ áĪįáĬķ
áī¥áĭĽ áĭķáī£
ĠáĭĿ áĭ°áĪį
áī³ áī³áīµ
ĠáĬ¥áĬķ áī³
ĠáĪį áĬ¢
áīķáĪŃ áī¡
áĬŃáĭ« áĭµ
Ġáĭĵ áīħ
Ġáĭļ áĬĲáī¥áĪŃ
áĪĵáĪµ áī¡
ĠáĪĺáĮįáĪĪ áįĤ
Ġáī¥áĮį áī¥áĪª
ĠáĮ»áĭķ áĭ³
Ġáī¥áĬĲ áĮ»
Ġáī°áĪ³áīµ áįİ
ĠáĬ ³
áĭķ áī¢
áĭķ áĬ©áĪĿ
Ġ4 5
Ġáī£áĬķ áĬª
ĠáĪµáĭĴ áī¡
ĠáĬ¨ áĬķáī±
áĭĵ áĪĿ
ĠáĭĪ áĬª
ĠáĬ«áī¥ áĬ£
áĭĲ áīµ
ĠáĬ£áĬ¥ áĮĭ
Ġáĭħ áĬĲáī³áīµ
ĠáĭµáĪĿ áįĤ
Ġáī°áĮł áīĢ
áĭ° áĪĭ
ĠáĭĪ áĪĬ
áĭ© áĬĵ
áĪļ áĬķ
áīłáĪŃ áī²
ĠáĬµ áĪĪáĬķ
ĠáĪĿáĬķ áī£
ĠáĬĶ áĪ«
Ġ201 2
ĠáĬ¥áĬķáī°áĭĺáĭŃ áĬ®áĭŃáĬĳ
w s
Ġáī° áĭį
ĠáĮį áĮ¥áĪĿ
ĠáĬ£áĬķ áīłáĪ³
áĭĽáĪ¨ áī¦áĪĿ
ĠáĬ£áĬ¥áĭ³ áĭį
ĠáĬ¢ áĪħáĭĪ
áĬ¨ áī¡
ĠáĬ£áĮĪáĭ³ áĪµáĬĲáīµ
áĮ¥áįį áĬ¡
Ġáĭĺ áĪķáĭĿáĬķ
áīłáĪ© áĬķ
áįĪáĪįáĮ¦ áĪĿ
áĭĵáĭĿ áĭ«
ĠáĮ»áĭµ áīĥáĬķ
ĠáĬ¢ áĪ°áĭ«áĪµ
ĠáĬ£áĬķ áĪµ
ĠáĭŃáīķ áĮ½áĪį
Ġáī°áĬķáĪ² áĬ¡
ĠáįįáĪįáĪµáĮ¥áĬ¤ áĪĽáĭįáĭ«áĬķ
áĬ© áĬ»
ĠáĭĿáī° áĭĽáĪ¨áī¦
áĬº áĪī
ĠáĬ¥áĭī áĬķ
ĠáĬ£áĭŃ áįįáīĢ
Ġáĭ° áīĨáĪĿ
áī¡ áĮ¥
ĠáĪ°áī¥ áĬĲáīµ
ĠáĬķáĭĿ áī¥áĪį
áī³ áĭįáĭ«áĬķ
áĬ¨ áī¥
áĮ¥ áī³áīµ
ĠáĭĿáī° áĪĺáĪŃ
ĠáĪĿáĪŃ áĪĿáĪŃ
áĪĺáĪį áĬ¨
Ġáī°áĪµáįĭ áĭŃ
áĪĽáĬķ áĬĲáīµ
Ġáī¢ áī¢áĪ²
áĪŃáĮį áĮĭ
ĠáĬŃáī¥áĪŃ áĬķ
áĪ¨ áīµáĬķ
áĭĺ áĬĵ
ĠáĬ£áĮĢ áĬķáĭ³
áī³ áī°áĬķ
ĠáĪĺ áī¥áĪŃ
áĮ¸ áī¥
áīĥ áĪŃ
ĠáĬ¥ áī¶áīµ
ĠáĭĿ áĬ®áĬĲ
áĪħ áī£
áĮĪáĭĿ áĬ¥
ĠáĬ¥ áĬĴ
áĬ« áĪµ
áĪĵ áī¥
ĠáĪ° áĪ«áĭĬ
ĠáĪĵáĮ¥ áĭ«áīµ
áĪµ áĬŃ
ĠáĪµ áīĵáĭŃ
ĠáĪĥáĮĪ áĪ©
Ġáī£áĪħ áĪĭáĭĬ
ĠáĬ¨áī£áī¢ áī³áīµ
áįį áĪī
Ġáĭµ áĭ¨
Ġáī³ áī¦áīµ
áĪĿáĪŃ áĭĵ
ĠáĬ£áī£ áĮĬáĭķ
ĠáįįáĪį áĭŃ
Ġáī°áīĵ áĭĪáĪĿáī²
Ġáī¥áĪĵáĬķ áĪ³áī¥
ĠáĬ£áĪĿáī£ áĪ³
ĠáĪħ áĭį
Ġáĭ² áĭ«
áīł áĭ®
áīł áīµáĬķ
áĭ³ áĭ°
Ġáĭļ áĭĪ
ĠáĮł áīĵ
- -
ĠáĬķ áī¥áĪ¨
ĠáĪµ áĭĳ
áĭĪ áĬ©áĪĿ
áĪħáĪį áĭĪáĬ«
Ġáĭµáĭ« áī¥áĪİáĪµ
ĠáĬķáĪĿáĭĥ áĬĳ
áĪŃ áĪµáī²
ĠáĭĿ áīĸ
Ġáīł áĪĥ
ĠáĪĿáĪµ áī³
áīķáĪŃ áī¦
ĠáĪĵ áįĭáĪ½
áĪŃáĮĭ áĪķ
Ġáī¥áĭĪáĮĪ áĬĲáĭŃ
áĪŃ áī£
áĪŃ áī¶
ĠáĭĪ áĪĥáī¥
Ġáĭļ áĪµáĭķáī¥
ĠáĬ£áĪį áĬ®
ĠáĪĺáĮĪ áĪ»
ĠáĪĵ áī¥
Ġáĭ°áĪĿ áīł
ĠáĪĺáĭĽáĪĻ áĪŃáī²
Ġ U
ĠáĬ¥ áĮĥ
áĭľ áĬ¡
ĠáĪ² áīª
Ġáĭĵáĭį áĭ°
áĪµ áĪ«áĪķ
áĭ° áĪİáĪĿ
ĠáĪĥ áī¦áĪĿ
Ġáīĥ áĪī
ĠáĬ¥áĬĵ áĪĥ
áĪŃáĬ¨ áĪµ
ĠáĪĵáĭµ áĪĵáĭ°
ĠáĬŃáĭĪ áĮ½áĬ¥
ĠáĬķáĭµ áĬ»
ĠáĬ¢ áĬ®áĬĸáĪļ
Ġáīµ áĬ½áĬ¥
ĠáĬµ áĪĭáīµáĬĵ
áĮµ áĭ«
Ġáī¥áĪį áĬŃáĭķ
Ġáĭĺáĭ¨ áĪĪ
áįįáīħ áĪ®
áĪĪ áĭ®
áīł áĪĪáīµ
Ġáī¥ áīĭáĬķáīĭ
áĮ½ áĬ«
áĬŃ áī²
ĠáĭĺáĪİ áĬķ
áĪ°áĪĿ áĭĵ
Ġáī£áĪħáĪŃ áĭ«áĭĬ
áĪµáĪį áĮ£áĬķ
ĠáĭįáĪĭ áĭµ
ĠáĭĵáĪĪáĪĿáĪĪ áĬ»áĭĬ
Ġáĭĵ áĪĪáĪĽáĭĬ
ĠáĪĥ áįįáī²
áĮĲ áĪ±
ĠáĬķáĬ¥ áĮįáĭļáĬłáī¥áĪĶáĪŃ
ĠáĬ¨áĪĿáĭĺ áĪĪáĭī
ĠáĭµáĪį áĭ¨
Ġáĭļ áĪµáĪĿ
ĠáĬ¥áī° áįĪáĪĭáĪĪáĭ¨
ĠáĪĿáĪŃ áĪĺáĪ«
ĠáĪ¸ áĬĲáĬ½
ĠáĬ¥ áī¶
áĭį áīµáĬķ
ĠáĬ« áĪŃáĭµ
ĠáĮ¥ áĭķáĬĵáĬķ
áĭµáĪįáĭ¨ áĬĵ
áīł áĭ°
Ġáī¥ áĪĪáĭŃáī²
Ġáīµ áĪĺáĪµáĪį
áĪļ áīµ
ĠáĬ»áī¥ áī¶áĪĿ
Ġáī¥áĪĺ áĮĪáĭ²
ĠáĪĺáĭ°áĪĿ áĭ°áĪĿ
ĠáĪ½ áĮĭáĪ«
ĠáĪĺáĭ° áĪ¨
ĠáīµáĮį áĪ«
áįįáĪ« áĪħ
ĠáĪĺáĬ£ áĭ²
áĪį áĬŃ
ĠáĭĿ áĭ°áĪįáĭ®
áĮ½ áĪī
áĮ½ áĪĵáįį
áĮł áī£áĭĬ
áīĥ áĪĪ
ĠáĬ¥áĬķáī°áĭĺáĭŃ áī°
Ġáĭĺ áĪ°
ĠáĪ° áĪĻáĬĵáīµ
áĭ© áĪĿ
áĪŃáīµ áĪ«
áī£áī¥ áĪ®
Ġáī°áĮ» áĪĴáįī
ĠáĬ£áĭĴ áĬķáī²
ĠáĪĺáĬķáĮįáĪµ áī³áĭĬ
ĠáĮ¨áĬķ áįĪáĪŃ
áĪµ áī³áĬķ
áĮĭ áĭķ
ĠáįĪáĪª áĪ³áĭįáĭ«áĬķ
_ _
áĭŃ áĭĭ
ĠáĬ£ áĪ«áĭĬáīµ
áĪ¨ áĬŃ
Ġáīµ áĪĳáīµ
ĠáĬķáĪĿ áī£áĪį
ĠáĪµáĪĪáĭĿ áĬĲáīłáĪ¨
ĠáĪĺáī¸ áĪĿ
e m
Ġáĭ Į
ĠáĬŃ áĪĿáĪµ
ĠáĬĲ áīĴ
áī³áīµ áĬ©áĪĿ
ĠáĭĺáĭŃ áĬ£
áĬł áĪį
ĠáĪ³ áĭŃ
Ġáī¥áĬ£ áĬ«áĪį
Ġáīį áĮ½áĪª
Ġáī¥áĬ¡ áī¥áĬ¡
áĭ¥ áĬķ
ĠáĮ ģ
áĪŃáĬ¥ áĭ®áĪĿ
ĠáĬ¥ áįĪáī±
Ġáī¥ áĬŃáĪŃáĪµáī¶áĪµ
áĭĭ áįį
ĠáĪĿáĪµ áĪĭ
áĪĺáĬķ áĮįáĪµáī²
ĠáĬ«áī£ áĬ»
ĠáĪ°áīłáĭŃ áīµáĬķ
Ġáī°áĪĺáĪµ áĮĪáĬķ
ĠáĪµ áīµáĪ«
áĬ¦ áīµáĬķ
ĠáĪŀ áī£áĭŃ
ĠáĪµáĪĪáĭĿ áī°
ĠáĪĴáĭĿ áĬ«
ĠáĮĪáīł áĬĲ
ĠáĪĵáĮĭ áĭļ
ª ðŁĩ
ĠáĭŃ áĬ«áĭ¨áĭµ
áĭĪ áĬĴ
áī¢ áĭµ
Ġáĭ° áĭ¨
ĠáĮĪ áĭµáĪĬ
ĠáĪĿáĪµ áĬ¦áĪĿ
ĠáĬ®áĪļ áĪ½áĬķ
ĠáīĢáĪįáĮ¢ áįī
2 7
ĠáĬ£ áĭ«
áīł áĬ©áĪĿ
ĠáĪĥ áĬĵ
ĠáĬ¤ áĪŃ
ĠáĬķáĭĵ áĪĺáī³áīµ
ĠáĬ£áī£ áĬĵ
ĠáĮĪáĭĽ áĬĵ
Ġáĭķáĭµ áĪľ
ĠáĬķáĪħ áĭŃáĭĪáīµ
áĬĥ áīµ
ĠáĬĸ áĪħ
ĠáĪįáī¥ áĬ¹áĪĿ
ĠáĭĪáĮį áĭĵáĭĬ
áĭµ áĪįáĬķ
áĬ£áī¥ áĭļ
ĠáĬ£áĪ° áĬĵ
ĠáĪļáĬĴ áĪµáīµáĪª
ĠáĬŃ áĪĵáĪįáįį
áįĪ áĪ«
áī« áĭŃáĪ¨áĪµ
áĮ¥ áīł
Ġáĭ° áīĥ
áĮ¸ áĪĻ
áĮł áĪĿ
Ġáī°áĪ« áĬº
ĠáĬ£áĬ¼áī£ áī³áīµ
ĠáĪĺáĪĵ áĭĻ
Ġáī¥áīĳ áĭķ
ĠáĪĽáĬ¥áĬ¸ áĪį
ĠáĪĥáĬķáĭ° áīłáīµ
áĪĽ áīķ
áĭ° áīĲ
ĠáĪµ áĮķ
ĠáĪŃ áĭ±áĬ¥
ĠáĬ¥áĬĵ áĬ£
Ġ4 4
Ġáįĸ áĪĪ
Ġáī¥áĪĿáĭĥ áĬķ
ĠáĭĿ áĪŀáī°
ĠáĭŃ áĮ½áīł
ĠáĪķ áĪ³áī¥
ĠáĭĺáĭŃ áĬ¨áĬ£áĪį
ĠáĪŃ áĪĴ
ĠáĬŃáĬĲ áĮįáĪ¨
ĠáĭĿáĭµ áĪĪ
ðŁĩ ªðŁĩ
ĠáĪĿ áĪĤ
áĭ³ áĪª
Ġáĭ° áĪ¨áīµ
ĠáĪħáĭĿ áī£
Ġáĭ« áĭķ
ĠáĪ³áĭķáī¤ áĬķ
ĠáĭĪ áī³
áĬ¸áĭįáĬķ áĬķ
Ġáī¥áī° áĮįáī£áĪŃ
Ġáī¥áĪ© áĪħ
ĠáĭĪáī°áĪĥáĭ° áĪ«áīµ
ĠáĪĺáĪ°áĭį áĬ¢
áĬ¥ áĪµ
áĪ° áĬ«
áĭĵ áĭª
ĠáĬķáĪĺ áĮ»áĬ¢
Ġáī¥áĮ» áĭŃ
ĠáĪĵ áĮĪ
ĠáĪŃáĬ¥ áĭ©
ĠáĪĵáĬķ áĪ³áĬ¥
ĠáĬ»áĪį áĬ£áĭŃ
áī º
ĠáĬ£ áĭĪáĬķ
áĪŃ áĬ»
áĬĲ áĭļ
ĠáĪĺ áįĤ
ĠáĪĿ áĮįáī£
ĠáĬ© áĬĳ
Ġáī¥áĭĽ áĭķáī¥
áĪµáĪĿ áĭķ
ĠáĪĿáīµ áĬ¥áĪĿáĪĽáĬķ
ĠáĭĿáĬ£áĪĺáĪ° áĪī
ĠáĭĿáĮįáī¥ áĬ¦
Ġáī°áĭĪáĪĬ áĭ±
ĠáĪĺáĮ¨ áĪ¨
ĠáĭĿ áĪĿáĪµ
Ġ201 1
ĠáĪħáĭŃáĭĪ áīµáĬķ
ĠáĬĥ áĮ¢
ĠáĪĺáĪ¨ áĮ»
ĠáĬĲáĬķ áĪķáĭµáĪķ
ĠáĬķ áīĳ
áĮį áĭķ
áĬ½ áĪįáī²
ĠáĭĿáī¥áĪį áĭİ
Ġáī°áĭĭ áĪ³
ĠáīµáĬ¥áĭĽ áĭĽáīµ
ĠáĬ£áĮ¸áī¢ áīĳ
ĠáĬ£ áīĭ
Ġáĭĺ áĬŃáĪŃ
áĪĵ áīĤ
ĠáĬ¢áĭ¨ áĬķ
áī²áĬ« áĭĬ
Ġáĭķáĭµ áĪĭáīµ
Ġáīķ áĭµáĪļ
Ġ b
ĠáĬŃ áĪ«áĭŃ
áĪĺ áĪ¨áīµ
ĠáĪµáĪŃ áĪĳ
Ġáī°áĪĽ áĪĥáĪ®
áī¥ áĭĴ
ĠáĬ¥ áī¥áĪį
ĠáĬķ áīĲ
áĬ« áīµ
áĪĵ áĭ¨
ĠáĬ£áĪĪ áĭĪáĬķ
ĠáĮī áĭ³
ĠáĮĮ áĪ¨
áīĽ áĬķáīĭ
ĠáĬ¥áĭĿ áĪµ
ĠáĭĵáĪĪ áĪĿáĬķ
ðŁĩªðŁĩ ·
áĪħ áĭ¶
áĬ¨ áĪĪ
ĠáĬ«áī¥ áĬ£áī¶áĪĿ
Ġáĭ¨ áĭķ
ĠáĬ¥áĬķáī° áĭŃ
ĠáĬŃáĬķ áĪķ
ĠáĪļ áĬ¢
ĠáĬ£áĪĺ áĪ«áĪŃáĪĵ
ĠáĭĿáĬĲáīłáĪŃ áĬĵ
Ġáī°áĬ£áĪĿ áĪ«áīµ
ĠáĬķ áĬĵ
áĪĺ áīķ
áįį áĪ¨áīµ
ĠáĭĺáĭŃ áī¥áĪĭ
ĠáĮĪáĭĽ áĬ¢
ĠáįķáĪ¨ áĪ²
ĠáĮ½áĬķ áĭĵáīµ
Ġáī° áĮ¨
áĮ¸ áī£áĪŃ
Ġáī¥áĪĿ áĮį
Ġáĭľ áĮį
ĠáĬķáĬ¸ áĭŃ
ĠáĪī áīĥ
ĠáĮĢáĪĺáĪŃ áĬ©
ĠáĪĺáī¥áĪŃ áĪĤ
ĠáīµáĬ½áĬ¥ áĪĬ
áĮĪ áĭ±
Ġáī° áįĭ
Ġáĭµ áĪĵáĪŃ
áĪĬ áĪµ
ĠáĭĺáĭŃ áĪ°
ĠáĬķáĪĿ áĪŃáĮįáĮĭ
áĪĺáĬķ áīµ
áĮħ áĪĺáĪŃ
ĠáĬ£áĪī áī³áĭĬ
Ġáī° áĬĵ
ĠáĭŃ áĬĲáī¥áĪ©
áīĢ áĬķ
Ġáī¥áĪĵ áĮºáĪ©
ĠáĬ£áĭŃáīµ áįĪáĪįáĮ¡áĬķ
ĠáĬ£áĬķ áĪµáī°áĭŃáī²
áĪ¸ áĪį
ĠáĪĺáĭµ áĪĵáĬĴ
áĪķáīµ áīµ
ĠáĬ«áī£ áĬ»áīµáĬ©áĪĿ
ĠáīĲáĭ³ áĪĽáĭŃ
ĠáīłáĭŃáĬķ áĬ»
áĬ¢ áĭ¨áĪ±áĪµ
ĠáĮĢáĪļ áĪ«
ĠáĪĥáĭŃ áĪĪ
ĠáĭŃáĪµ áĪĥ
ĠáĭĿáī°áįĪ áĮ¸áĪĺ
ĠáĬŃáīķ áĮ½áĪį
ĠáĬĵáī£ áĬ»áīµáĬ©áĪĿ
ĠáĬŃ áĮħáĪĿáĪŃ
Ġáĭ° áĪĪáĭŃáī²
ĠáĬ£áįį áĪĬ
Ġáī°áĪĺáĪį áĪ°
áīµ áĬ¹áĪĿ
áĪĽ áĪħ
Ġáĭį áĭķ
ĠáĬ£áĪİ áĭī
ĠáĮİ áī¦
áĪ«áĬ¸ áī¡
ĠáīµáĬ¥áĭĽ áĭĽ
áĪµáĪĪ áĪĿáĬķáī³áĭŃ
áĭ« áĪį
Ġáĭĵ áĮĪáī¥
áīħ áĭµáĪļ
áīĥ áīĲ
áĭ°áĪį áĭ¨
ĠáĪµáĪŃ áĭĵáī³áīµ
ĠáįįáĪŃ áĪĥáīµ
ĠáĮ» áĭįáĭĴáīµ
Ġáī°áī£áĪĤ áĪİáĪĿ
ĠáĬ£áī¡ áĬĲ
ĠáĪĺáĪĭ áĬº
ĠáĭĿ áĬĵáī¥
áĬĲ áĬ©áĪĿ
ĠáĭŃ áĭ°áĪįáĭ©
Ġáīµ áĬ¹
Ġáĭ¨ áĭµáĪįáĭ®
Ġáį Ĩ
ĠáĬķáĪĵ áĬķáī²
ĠáĪĴ áĭĺ
Ġáįįáīķ áĪŃáĬķ
ĠáĬŃ áĪŃáĬ¨áī¥
ĠáĬ£áĭŃ áĬ£
ĠáĬ® áĪŃ
ĠáĬ£ áįī
ĠáĬŃ áĪ¨áĬ½áī¡
Ġáĭ¨ áĬķ
ĠáĬ© áĭķáĪ¶
ĠáĬª áĭĪ
ĠáĭĿáĪĺ áĮ»áĬ¥
ĠáĬ£áī¢ áĪİáĪĿ
áĪŃáĭ³ áĬĸáĪµ
Ġáĭ°áīĴ áīķ
áĮį áĪ®
áĭĵ áĪµ
ĠáĮį áī¡
áĭ² áĭ«
áĪ½ áĭĳ
áĬ³ áĬĳ
ĠáĮł áīĴ
Ġ4 8
ĠáĪĿáĭį áĮ»áĬ¥
ĠáĪĽáĭķ áĬ¨
ĠáĪł áĪĪáĪµáī°
ĠáĬŃ áīħ
ĠáĬ¨áĪĿ áī³
áĪĬ áĭ«
ĠáĮ½ áĭ®áĬķ
ĠáĪŃ áĪµáī²
Ġ4 3
ĠáĪĺáī¥ áĮ½áĭĵ
ĠáĭĿáĭĵ áī¢
ĠáĬ¢áĮ£ áĪįáĭ«
áĪ¨ áīķ
Ġáĭĵ áĪª
áĪĺáĪŃ áĮ½
tic le
áĪ« áī³áīµ
áĬŃ áī°
Ġáĭ° áĪŀáĬŃáĪ«áĪ²
áĪįáĬĵ áĭ®
ĠáĬ¢áĪī áĬĴ
Ġ4 2
áĬ£áī± áĪĿ
Ġáĭįáįħ áĬ¢áīµ
ĠáĪĺáĭ°áĪĿáĭ°áĪĿ áī³
5 0
ĠáĬŃ áįĪáīµ
ĠáĭŃ áĪŃ
Ġáīµ áĭĽáĪ¨áī¥
ĠáĬ«áī¥ áĬ¦áĪĿ
áīłáĪŃ áīµ
áĪĺáĪį áĬ¥
áī°áĭĪ áĪ°áĬĲ
ĠáĪĺáīķ áĮ»áĭķáī²
áĬ£ áĭĿ
áī£ áī£
Ġáīħ áī¡áĪį
ĠáĬ£áĭĭ áĪį
Ġ O
ĠáĬ¥ áĪĻáĬĵáīµ
áįĪ áĪ¨áĬķ
ĠáĬ« áĪķ
ĠáĬ£áĭŃ áĪ¨áĬ£
ĠáĪĥ áī¡
ĠáĮīáĭµ áĬ£áīµ
ĠáĬķáĪĥ áĮĪáĪŃ
ĠáĪĺáĪįáĬŃ áĭĳ
áĪķ áĭ±
áĭĵ áĭĻ
ĠáĪįáĭķ áĪĮ
ĠáĪĿáīµáĬ¥ áĪµáĪ³
áĭŃ áĪį
ĠáĬ« áĬĵáĭ³
ĠáĭĺáĭŃ áĬĲáīłáĪ¨
ĠáĬµ áĪĭ
ĠáĪĽáĪķ áīłáĪ«
ĠáĭĿáĮĪ áīłáĪ©
ĠáĬ¥áĬĲ áĪĨ
áĪĿ áĬ©áĪĿ
áįĪ áĪª
Ġáĭĵ áĭŃáĬķ
ĠáĮ½ áī£
ĠáĮĮ áĬĵ
Ġáī¥áĬ£ áĪĿáĪĭáĬ½
ĠC or
ĠáĪįáĬ¡ áĬ½
ĠáĭŃáīµ áĪ¨áįį
ĠáĬķáĭ³ áĭĬáīµ
h a
áĪµ áĭİ
áĪµ áĮĭ
áīĵ áĬķ
áĬ£áĭŃ áĭİ
ĠáĮł áĬķ
ĠáĮł áĪĪáī¥
re ct
ĠáĬķáĭį áĪī
ĠáĪļáĪĬ áĭ®áĬķ
áĬķ áĭļ
ĠáĪĿ áĪħáĪŃ
áĪĵ áĪ¸
áĬŃ áĪ¨
áīĥ áĭķ
ĠáĬķáĪĿ áĪĿáĪĭ
áĮįáĭļ áĬ¡
ĠáĭŃ áĪĵáīµáīµ
Ġáĭļ áī¥áĪĥáĪį
ĠáĬ¥áĪĿ áī¥áĭĽ
ĠáĪ² áĬ¦áĪį
ĠáĬ£ áĭµáĪį
Ġáĭĺ áīłáĬķ
áīħ áĬĵ
ĠáĬŃáīµ áĮĪáī¥áĪ®
ĠáįĪ áĪ«
ĠáĬ½ áįīáĬ¥
ĠáĬ£áĭŃáīµ áįĪáĪįáĮ¥áĬķ
áĪķáĪį áįį
ĠáĪĥáĭŃáĪĽáĬĸ áī³áĭĬ
ĠáĮĭáĭľáĮł áĬĽ
Ġ ar
áĭĿ áī°
áĪ° áĪĭáĪĿ
Ġáī¥áĭĪ áĮĪáĬķ
ĠáĮĥ áįĵ
ĠáĬ¤áĪį áĭ«áĪµ
ĠáīłáĭŃ áĬĲáĭŃ
ĠáĭĿ áĬ¨áĬ£
ĠáĮł áĪĪ
ĠáĪĺáĭĵ áĪŃ
ĠáĪĺáĪĪ áĪ°áĪī
ĠáĪĺáĪĪáĪ° áĪİáĪĿ
Ġáī¥áĪĺáĪį áĬŃáĭķ
² áį
ĠáĬ£ áīĵ
áī³ áī±áĬķ
áĭ° áĬ«
ĠáĭŃ áĭĪáĪµáĭµ
Ġáĭµ áĪĻ
áĪĬ áĬ¦áĪĿ
ĠáĬ«áī¥ áĭĽ
ĠáĪķ áĮįáĬķ
áĮĭ áĭµ
Ġáĭį áĪ«áĭŃ
áĪĴ áī³áīµ
Ġáī¥áĭĺ áĪĭ
Ġc om
ĠáĬķ áĮįáīłáĪŃ
áĬĲ áĭĪ
Ġáī¥ áĮŃ
ĠáĬĲ áīłáĪ®
áĪ³ áĪŃ
áĬŃ áĪķ
ĠáĬĲáĭŃáĪ© áĬĴ
ĠáĭĿáĬ£ áĪĿáĬķ
ĠáĬķ áĪŃáĬ¢
áĪĺ áĭĵáĬĴ
ĠáĬ¨áĪĿ áĬ¥áīµ
áī¢ áī¥
Ġáĭį áĮ¹
ĠáĬŃáīµ áĬĲáī¥áĪŃ
Ġáī£ áĪ®áīµ
ĠáĬķáĬ¥ áĪµ
ĠáĭĵáĪŃ áĬª
ĠáĮįáīłáĪŃ áĭİ
ĠáīĽ áĬķáīĭ
áīł áĬ½
ĠáĪķ áĮĭ
ĠáĬŃáĬķ áĬĲáī¥áĪŃ
ĠáĬ® áīªáĭµ
áĪĶ áīµ
ĠáĪµáĪ«áĪķ áĬķ
ĠáĮĪáĭŃ áĪ«
Ġáĭĳ áĭ°áīµ
Ġ o
áĪī áĪį
áĮ½ áĬł
ĠáĮĪ áīłáĪ©
Ġáīħ áĬĳ
ĠáĪª áĬ¢
áī« áĪį
ĠáĪŃáĬ¢ áĬĵ
áĮłáīħ áĪĿ
T V
áĪŃ áīłáīµ
áĭį áĮ½áĬ¥
ĠáĬ¤ áįį
ĠáīµáĪĿáĪħáĪŃ áīµáĬķ
ĠáĬ¨áĪİ áĬĵ
ĠáĭĪ áĮ»áĬ¥
áĮł áī£
ĠáĭĿáįį áĮ¸áĪĿ
ĠáĭĺáĪĺ áĬĵáĭĬ
ĠáĬŃáĪħáĪį áĭĪáĬĵ
ĠáĭĺáĮĭ áĮ¥áĪĿ
áĭŃ áĬĲáĬķ
ĠáĭĿ áĮ½áīł
áĪ« áĬ½
Ġáĭĺ áĪĽ
áįĥ áįħ
ĠáĬ£áī¢ áĪĪ
Ġáī°áĮł áīĥ
áĬķáīĢ áĪ³áīĲ
ĠáĪ°áĪĿ áĭĳ
ĠáĬ£ áĪ®áĬķ
áĪį áĮ£
ĠáĬķ áī£
áĬ£ áĪ°
ĠáĪĿ áĪ¥
áĬ½ áī¥áĪŃ
áĪ° áĭ±
Ġáĭĵ áĪ«áīµ
ĠáĪĽ áĭ«áīµ
ĠáĬķáĪĿ áĬ½
áĮĬ áĭµ
ĠáĬķáĪµ áĪĿ
Ġáĭĭ áĭŃ
ĠáĬ£áĪĺ áĪĵ
ĠáĪĿáĪķ áī³áīµ
ĠáĮįáī¥ áĮ»
ĠáĬ£áīł áĪĥáĪħáĪĭ
áĭĭáĭķ áī³
Ġáī¥ áĬ£áĭŃ
áĪĭ áĬ¥áī²
áĮĵ áĭµ
ĠáīĢáĭ³ áĪĿáĬĲáīµ
ĠáĪł áĬĵáĭŃ
ĠáĪĺáīµ áĬ¨
Ġáī°áī£áĭķ áīµáĭ®
ĠáĪµáĮķ áĪĿáī²
áĪĭ áĭ©
áĭĵ áĭ®
Ġáĭķ áī¤áīµ
Ġáīķ áĭ±áĪµ
o st
ĠáĪĿ áīµáĬ«
áĪħ áĪīáĬķ
Ġáĭļ áĪĿ
áīħ áĭµ
ĠáĬ½ áĬ£
ĠáĬ¥áī° áĭĭ
áĪħáĪį áĭĪáĬĵ
ĠáĬ£áĭŃáĬ° áĬĳáĬķ
ĠáĭµáĪķ áĪ¨
ĠCor rect
ĠáĬ£ áĪ°áĪŃ
ĠáĪĺ áĭĲ
ĠáĬķáĬ½ áī¥áĪª
ĠáĬ£áī¢ áĪįáĬ«
Ġáĭ°áī¥áĭ³ áī¤
2 9
ĠáĬ£ áįĭ
ĠáĬķ áĬ»áĪįáĬ¥
ĠáĮ¸áĬĴ áĪĸáĪĿ
ĠáĭŃáīķ áĪ¬áī³
ĠáĪµ áīħ
áĬ® áĪµ
áĪĿáĪŃ áĪĿáĪŃ
ĠáĮĭ áĪ»
áĭµ áĬħ
ĠáįįáĪŃ áĭ«áīµ
ĠáĭĿáī°áįĪáĪĭáĪĪ áĭ«
ĠáĬ¥áĬ½ áĪĬ
ĠáĬ£ áĪ²
áĬĲ áīĳ
Ġáī¥ áĪĿáĬķáī³áĭŃ
áī£ áĪµ
áĭį áĭµ
áĮ» áĮ½
áīĢ áĪµ
ĠáĪ°áĪį áįįáī³áīµ
Ġt o
k e
áĪŃ áĪĳ
áĪĪ áĭŃáĬķ
áĪĵ áĮİ
áĭİ áĪĿáĬķ
ĠáĬĵáĭŃ áĭĽ
ĠáįĪ áĮ»
Ġáī¥áįį áĮ¹áĪĿ
áĪĭáĭį áĬĲáīµ
Ġ200 8
áįĪáĪĪ áĮł
Ġáī¥áĪŃáĪĥ áĬĲ
ĠáĪ¨áĭµ áĬ¤áīµ
áĪĽ áĪĿáĬķ
ĠáĪµ áĪļ
ĠáĬ£áĭŃ áįĪáĪįáĮ¡áĬķ
ĠáĭĺáĭŃ áīħ
ĠáĬŃáīµ áįĪáĪįáĮ¥
ĠáīĢ áĪµ
áįĬ áĪĳ
ĠáĮ½áĪĳ áįĭ
ĠáĬ£áĭµ áĪĽ
Ġáī°áĬ¸ áįĬ
ĠáĭĿáī°áĭĪ áĪ°áĬĲ
ĠáĪŃ áĬ¤
Ġáī¥áĪĺ áĭĵáĪįáī²
ĠáĭĺáĪĪáĬĵ áĭ®
ĠáĮŃ áĪŃ
ĠáĬ£áĭŃáĬŃ áĪĵáĭµ
Ġ V
áĪ« áī±
áĭ° áīłáīµ
ĠáĪĵ áĭī
ĠáĭĺáĭŃ áĪĿáĪŃ
ĠáĪ¨ áīĽ
ĠáĬ£áĮ¥ áįĬ
ĠáĬķ áĪŀáīµ
ĠáĬĵ áĬ¥
ĠáĭĪ áĭ®
áĭ¶ áĪĿáĬķ
ĠáĮ½ áĪ©áĭŃ
ĠáĪ³ áĪĿ
Ġáįįáīµ áĪķáĬķ
ĠáĭŃáī¥áĪĪ áĬĴ
a tion
áĪµ áĪĺáĭŃ
ĠáĮ ¢
ĠáĬķ áĬĲáī¥áĪŃ
áĮį áįį
áĪª áĬ¦
Ġáīµ áĭĬ
Ġáī¥áįį áīķáĪª
ĠáīĨáĪįáĭĳ áīµ
ĠáĬŃáĬ¢ áĪī
áĮ¥ áĪª
ĠáĮĮ áĮĭáī³áīµ
áĪķáĮį áĭŀáĪĿ
áĪ³áĭŃ áīµ
áĪķáĪį áįİ
ĠáĮķ áĭµ
ĠáĬķáĬ¢ áĭ¨áĪ±áĪµ
ĠáįĢáĮĪ áĪĽáīµ
áĬ£ áĭ¨
áĬ£ áĭ®
áĪ« áĭįáĬķ
áĪ°áī¥ áĬ©
Ġáī¥áīĲ áĮ»áĪĬ
ĠáĪµáĪĪáĭĺ áĪİ
Ġáī°áĪĺáĪ« áĪĺáĪŃáī²
áĮ ©
áī° áĭ¨
ĠáĭĿ áĮħáĪĿáĪŃ
áĬĲ áī¥
ĠáĪķ áī¥áĪª
Ġáī¤áī° áĬŃáĪŃáĪµáī²áĭ«áĬķ
Ġáī°áĭĵ áĮ½
ĠáĪĺ áĪł
ĠáĪĿ áĮ½áĬķ
áĭµ áĪ½áī°
áĭĿ áĮĪáī¥
ĠáĬ£áĭŃ áīłáĪį
Ġáīµ áĪ°áĪŃáĪķ
áĬ¸ áī¥
ĠáĬł áĭ©
áīĨ áĪ®
ĠáĬķáĭĺ áĪį
ĠáĪ«áī¥ áĭĵáĭŃ
áī¥ áĮ½
áĭµ áīħ
ĠáĬĲ áĭĺáĬķ
ĠáĭŃ áĮįáĭ°
áĪ³ áĪķ
ĠáĭĺáĪĪ áĬ©áĪĿ
ĠáĬ£áī¦ áĬ¹áĪĿ
ĠáĮĵ áĪ³
Ġáī°áĮįáī£ áĪ«áĭĬ
ĠáĪĵáīĢ áĭŃ
áĪĪ áĭ«
ĠáĬķ áĬ«áĪįáĬ¦áīµ
ĠáĪĵ áĮİ
ĠáĭŃ áĬ¨
ĠáĪĪ áĪĿ
áĪ¨áĬ½ áī£
Ġáī°áĬ¸ áī³áī°
ĠáĪķáĭŃáĭĪáīµ áĬĵ
Ġáī¥áīķ áĪįáĮ¡áįį
ĠáĬ£áĭ² áĬ¡
ĠáīłáĮĥ áĬ¹áĪĿ
ĠáĪĺáĬĵ áįį
t h
ĠáĬķ áĪİáĪļ
Ġáīµ áĪįáĪļ
Ġáī£ áī¡áĪŃ
Ġáįĸ áĪİ
ĠáĪĿáĪĿ áĪĥáĪŃ
ĠáĪĴ áĭĽ
ĠáĪĿáĭį áĪ³áĭµ
ĠáĪĺáīµ áĬ¨áĪį
ĠáĬ£ áīĳ
áī³ áĪĽáīµ
ĠáĬĲ áīĲ
ĠáīµáĪķ áīµáĬĵ
Ġáī¥ áĪ¨
ĠáĪ° áĪľ
áīķ áįĭ
áĬ¹ áĭİ
Ġáī¥áĪĿ áįį
Ġáī°áĪĵ áĮĴ
áĪĺáĪµáĮį áĬĸ
ĠáĬ¥áĬķáī°áĭĪ áĪĵáĭ°
áĭĭáĬ½ áī¥áī²
áĭ± áĪ³áīµ
ĠáĬŃáīµ áĬ¨áĭŃáĭµ
ĠáĬķáĪ± áĬķ
ĠáĪ³áĪį áĪ°áĭŃáī²
ĠáĪ°áĬĲ áĭ³áīµ
ĠâĢ¹ âĢ¹
áĪį áĪµ
áĬ¸ áįį
áĭĺ áĭĺ
ĠáĪķ áĬĲ
áĪ® áĬķáĬķ
Ġáī£ áĭŃ
ĠáĬķáĭĪ áĭ²
Ġáĭ³áĬķ áĬ¤áĪį
ĠáĭĿ áĭĭ
áĬ© áĭĭ
ĠáĬŃáĬķ áĭĿ
áĪĪáĪĿ áī²
ĠáĬ£áĭŃáī° áĪŃ
ĠáĪĿáĪµáīµ áĭįáĭĵáĪį
ĠáĬ¥ áĮĪáī¥áĪŃ
áī£ áĪ½
áĭĿ áĬ¾áĬĲ
Ġáīµ áįĪáĪįáĮ¦
áĭĽ áĪĿ
áīµáĬķ áĪµ
áĪĻ áĪī
ĠáĭĺáĪİ áĭİ
Ġáī°áĪĺ áĬ©áĪ®
Ġ201 0
ĠáĬĲáī¥ áĪ±
Ġáī°áĪĺáĪĬ áĪ¶áĪĿ
ĠáĪŃáĬŃ áī£áīµ
áįį áĬķáī²
Ġáīł áĪª
áĪĻ áĪ½áī°
ĠáĬ£áī¦ áī³áīµáĬĵ
ĠáĪĿáīµ áĪķáī¥áī£áĪŃ
Ġáįħ áĪķ
áįįáĪį áĮł
ĠáĬ¥áĬ© áĭŃ
ĠáĭĿ áĬł
ĠáĭĿ áĪŃáĬ¨áī£
áĪķ áīµáĬĵ
ĠáĭŃ áįĪáĪįáĮ¡
ĠáĪĵáīłáĪ¬áī³ áī³áīµ
Ġáī°áĪ° áĪĽáĪļ
ĠáĪįáĪĿ áĭ²
áĪĺ áĪĿ
Ġáīł áĭĽ
ĠáĬ¥áĭļ áĬłáĬķ
ĠáĬ£áĪĪ áĪĿ
ĠáĭĺáĪİ áĬ¹áĪĿ
ĠáĮł áīł
áĭµáĪķ áĬĳ
áĮ¥áīĥ áĪµ
áĪĥáīł áĬ«
áĪŃ áĭĭ
áīł áĭ«
ĠáĭĿ áĭĺ
ĠáĪĺ áĭ³áĭ«áīµ
ĠáĬª áĬķ
ĠáĬ¥áĬķáĭ³ áī°
ĠáĮ¥áīł áī¥áĬķ
Ġ f
áĭ° áĬĴ
ĠáĭĪ áĭ³
áĬ® áĪĿ
ĠáĬ¥áĭ® áī¥
Ġáī¥áĪĿ áĪŃ
ĠáĪ½ áĪįáĪĽáīµ
Ġáĭ® áĪŃáĭ³áĬĸáĪµ
ĠáĮ¾ áĪŃ
Ġáī¥áĪĺáĬķ áĮĪáĭ²
áĬ£áĪĿ áĬĸ
áī° áĪĪ
áĪĺ áĭĵáĪį
áĪ° áī²
ĠáĬ¥áĬķáī° áĪĥ
ĠáĬ¥áĬķáī° áĭ°áĪĬ
ĠáīµáĬķ áĪ£
ĠáĭŃáĪĿ áĪħ
ĠáĮ½áĪį áĬ¢
áĬ¥ áĭĭ
áĭ° áīł
ĠáĪµ áĭµ
ĠáĬ¥áĭ« áĪ±
áĮĪáī¥áĪŃ áĬķ
áĬĶ áĬķ
áĪħáīł áĬ©áĪĿ
Ġáī¥áĪĿáĬ¥ áī³áĭį
áĪį áĭķáĪį
áĪĭ áĪĭáĭŃ
ĠáĬŃáīµ áĪŃáĬ¢
ĠáĬŃáīµ áĮĪáī¥áĪ©
ĠáĬ½áīµ áĬ¨áĭįáĬķ
ĠáĮ¸áĪĵ áįĬ
ĠáĮ ¹
áĪĺ áĪĥ
ĠáĭŃ áĪĥáī¥
ĠáĪ° áĮĬ
Ġáīµ áĪĵ
áĮ¸ áĬĵáĬķ
ĠáĬķáĬ£ áĪ½áī±
ĠáĪĺáĮ½áĪĵáįį áī²
ĠáĬķáĬ½ áĪįáī°
ĠáĭĿáĬ¸ áĬ£áĪĪ
ĠáĪĺáĮłáĬķ áīĢáīķ
áĬĵ áĬĴ
áĪĽ áĪŃáĭ«áĪĿ
áĪ³ áĭį
Ġáīµ áĬ¸áĭŃáĭµ
ĠáĭĺáĭŃ áĪĵ
ĠáįĪ áĭį
ĠáĬ£áĭŃáĬķ áįĪáĪįáĮ¥áĬķ
ĠáĪĿáįį áĮ£áĪŃ
ĠáĬķáĪĺáĬķ áĮįáĪµáī²
Ġáĭķáĭī áīµ
ĠáĬŃáįĭ áĪĭáīµ
ĠáĪĺ áĪ¨áĮĭáĮĪ
ĠáĬŃ áĬ¾áĬĲ
áĪĭ áĭµ
Ġáī° áĪŀáĬŃ
ĠáĪĵ áīħáĬķ
ĠáĬ¢ áĪ«áĬķ
áĮĭ áĬķáĭ³
áĪĿáĪŃ áĭĸ
Ġáī°áī£áĪĤ áĪĭ
ĠáĪĿáĪĿáĪķ áĭ³
ĠáĬķáĮ¹ áĪħ
Ġáī¥áĬĵ áĮ»
i l
s s
áĭĪ áĪĪ
áĪħ áĬ¤
áĬĴ áĬĵ
áĪµáī° áĭįáĭķ
ĠáĪĺáĪµ áįįáĬķ
Ġáīģ áĮ½
ĠáĬ£áĮ½ áĬĴ
ĠáĪĿáĮħ áĪĽáĪŃ
ĠáĮłáīĵ áĪļ
áĮ ²
áī° áī£áī¥
ĠáĪĺ áĮł
áĬŃ áĬĴ
ĠáĭĪ áĪįáĭµ
ĠáĮĪ áĪĭáĭī
Ġáīħáĭµ áĪµáī²
ĠáĪŀ áī±
Ġáī¦áī³ áĬķ
ĠáīĲ áĪªáī¡
ĠáĬ¤áĭįáĪ®áĮ³ áĭĬ
áĮį áĪ©
áĬ¨ áĪ¨
ĠáĪĽ áĬªáĬĵ
ĠáĪĺáĪª áĪŃ
ĠáĪĴáĭĿ áĬĵ
ĠáĪĿáĬŃáĬķ áĭ«áī±
ĠáĭĵáĪµ áī¢
ĠáĬ£áįįáĬķ áĮ«
áīł áĪĬ
áĪ« áī¢
ĠáĪµ áĪĴ
Ġáĭĵ áĪĮáīµ
Ġáīł áĮĬáĭķ
ĠáĪĿáĮį áĪĭáĮ½
Ġáī°áīĵ áĪĬ
Ġáī« áī²áĬ«áĬķ
ĠáĬķáĬ¥áĪ½ áī°áĭŃ
ĠáĪµáĭĬ áĭĺáĪŃáĪĭáĬķáĭµ
ĠáĬ¥áĪĿáī¥áĬ£ áĪŃáĪ²
áĭµ áĬĴ
ĠáĭŃ áĭĵáī¢
ĠáĬ¥áĬķ áĭ²
áĪĥ áī¢
áĮł áī¥
ĠáĬ¥áĬķáī° áĪĥáĪį
ĠáĬ£áī³ áĬ½áĪįáī²
ĠáĪµáī¥ áĬ¨áīµ
ĠáĪĺáī¥áĪ«áĪħ áī²
Ġáĭĺ áĭĺ
Ġáīµ áĬ¹áĬķ
Ġáī³áĪª áĬŃ
ĠáįĢ áī¥
ĠáĭĿáĮ¸áĬķ áĪĳ
ĠáĪķáĭ« áĭį
ĠáĬķ áĮĵ
Ġáī¥ áĭħáĪī
áĭĵ áĪ¨
Ġáįį áīĳ
ĠáĪŃ áĬ¹
ĠáĬ¥áī° áĮĪáī¥áĪ¨
Ġ19 6
áĪ¨áĬ£ áĭ©
ĠáĬŃ áĪ°áĪŃáĪĳ
áĪħ áī¥áĬķ
Ġáīħáĭµ áĪµáīµ
áīĨ áĪµ
ĠáĬ£áĭŃáĬĲ áīłáĪŃ
áĭŃ áīķ
Ġáī¥ áĪŃáĬ¥
áĭ° áĪİ
ĠáĪħ áįĥ
áĪµáī° áĭįáĭķáĪį
áĭŃáĬķ áĬ«
ĠáĬĲáĮĪ áĭµ
ĠáĬŃáĪįáī² áĬłáĬķ
ĠáĬ£áĪĥ áĭ±
ĠáĬ£áĮĪáĪįáĮĪáĪį áī²
a c
áĬķ áī°
Ġáī¥ áĪŀáīµ
ĠáĪĿ áĪĥ
áĪĵ áĬ«
ĠáĬĶ áĪŃáĬ«
áĮŃ áī³áīµ
ĠáĬŃ áĪ½
Ġáĭ° áĪįáĭ©
ĠáĪĥ áĭ¨
ĠáĪĿáĭµ áĪ¨
áįĪáĪŃ áĪħ
ĠáĭĿ áĮłáįį
ĠáĬ« áĪĿ
áĬ» áĭµ
áĭ¨ áĪ¨
ĠáĪŃ áĬ½
ĠáĪŃáĬ¥ áĭ®áĪĿ
ĠáĪĥáĮĪ áĪ¨áĭŃ
áīģ áĬķ
áī¥ áĪħ
Ġáī¥ áĪķáĪį
áĭµ áĭ©
áĪ¨ áīłáĪī
Ġáī° áīĺ
Ġáīł áĭ³
Ġáīł áī¢
ĠáĪĥ áī¦
áīĢ áĬĴ
ĠáĮķ áĮħáĪĪ
ĠáĪĿáīķ áĪ«áī¥
ĠáįįáĪįáĪį áĭ«áīµ
Ġáĭļ áĪµ
Ġáī£ áĬ¥
ĠáĪĵáĭ² áĪµ
ĠáĭĿáĮĪáī¥áĪŃ áĭİ
ĠáĬ£áĪĺáĪįáĬª áī±
ĠáĭŃ áįĪáī±
ĠáĭĪ áĪįáĭ°
áīķ áĪį
ĠáįĪ áĪĪ
ĠáĬ½ áįį
Ġ20 21
ĠáĬ£áĪŃ áī¥áĭĵ
ĠáĪĺáĬķáĬ¥ áĪ°
ĠáīµáĪĿ áĬĴáīµ
ĠáĬ£áĭŃáĪĺáĪµ áĪįáĬķ
Ġáī¥áĪī áĭŃ
ĠáĬ£áĭŃáĪ¨áĬ¸ áī¥
Ġáī¥áĭĵáĭŃ áĬĴ
ĠáĬ£ áĪ»
áī° áĪİ
ĠáĬŃ áī¡áĪ«áīµ
áĪĵ áĭĻ
ĠáĭŃ áĮħáĪĿáĪŃ
ĠáĪħáĭĿ áī¡
áĭĥ áĬĳ
Ġáī£áĪħ áĮĬ
ĠáĪ± áĪŃ
ĠáĬ£ áĬħ
ĠáĬķáĪµ áĪĵ
ĠáĬ£áī¦ áĬ»
ĠáĭĪáĪŃ áĪĵáĭĬ
Ġáįķ áĪĭ
Ġáī°áĪĵ áī¢
ĠáĬķáĪ° áĪĪáĪµáī°
ĠáĬķáĭĪ áĪĪ
Ġáī¥áĮ¸ áĪİáīµ
áī¥áĪĥ áĪĪ
áĬ Ģ
áĬĲ áĭ¨
áį£ "
áĮĬ áĪĳ
ĠáĪĵáĪĻ áĪµ
ĠáĬ£áĭįáī¶ áī¡áĪµ
áĬ» áĬ¥
áĪħ áĪ«
Ġáĭķ áĪĿ
ĠáĪŃáĬ¥ áĪ³
áĪĭáĪĪ áĪµ
ĠáĭĿáĭĪ áĪ¨áĭ°
ĠáĪĤ áī¦áĪĿ
ĠáĬ£áĪį áĬ£
Ġáī°áĭĽ áĪªáī¦áĪĿ
ĠáĬķáĮī áĪ¥
Ġáī± áĪŃáĬª
Ġ< <
ĠáĭĿ áĮĪáĪŃáĪĿ
Ġáĭĵ áĭĭ
ĠáĬ¥áĬķáī° áĭĺ
ĠáĪ¸ áĭŃ
ĠáĬ£áĮĭ áĭŃáĪ½
ĠáĮķ áĭķáĭŀ
ĠáĬ£ áĬª
áĮĪ áįį
Ġáĭĵ áĭ±
ĠáĪ¨áĬ£ áĭ©
áĬĲ áĪµ
áĬ£ áĪĪáĪĽáĭĬ
ĠáĬĵ áīķáįĭ
áĭ² áĭ®
Ġáĭķ áĮ¡
áī´ áĬĵ
ĠáĪĿáĭį áĪ³
áīĲáīµ áĪī
ĠNe ws
ĠáĭĺáĭŃáĪķ áĮĭáĭĬ
Ġáīĺ áĪįáĭĵ
áĭ³ áĪī
ĠáĬŃáīµ áĪ°áĪŃáĪķ
ĠáĬŃáĬķ áĪŃáĬ¥áĭ®
áĮĪáĪįáĮį áĪİáīµ
ĠáĬ¥áĬķáĬ¨ áĪĪáĭī
ĠáĬ¢áĬķ áĭ±
áĪĿáĪħ áĪ®
áĪŃ áīĤ
ĠáĬŃ áĮĪáĪįáĮ½
áĭĺ áĭŀ
Ġáĭļ áĬ£áĬŃáĪį
ĠáįĪ áī³áĭĬ
ĠáĮĪáĭĽ áĬ»
ĠáĬ¢áĭ¨ áĪ©áĪ³áĪĮáĪĿ
ĠáĮĥ áĪįáī£
ĠáĪĺáĬĲ áī£áī¥áĪ®
Ġáī¥ áīĽáĬķáīĭ
ĠáįĪ áĬķ
ĠáįĪ áĮłáĪ¨
áĮ£ áīµ
ĠáĬķáĬ£ áĬ»áīµáĬ©áĪĿ
Ġáī°áīĲ áĪĺáĮł
ĠáįįáĪŃ áĭµ
Ġáĭįáĭµ áīĢáīµ
ĠáĬ£áĭ³ áĪ«áĪ½
ĠáĪĿáīµáĬ¥áĪµáĪ³ áĪŃ
ĠáĬķáĭĺáĪį áĬ£áĪĪáĪĿ
ĠáĬ£ áīłáĭ¨
áĬ¥ áĬ©áĪĿ
ĠáĭŃ áĮĪáī¥áĪ®
ĠáĭŃ áĮįáĪĪáĮ½
áĮ» áĮ¸áĪŃ
ĠáĭĿáī° áī£áĪħ
ĠáĮ¸ áī£
áĮĵ áĭĵáĭĿ
áĪĥáĭ° áĪ«áĭĬ
áĪ¨ áįī
ĠáĬ¢ áĬ«
áĪ³ áīµáĬķ
ĠáĭĿáįĪ áĮłáĪ¨
ĠáĬ¥áĭĿ áĬĴ
ĠáĮĢáĬĲ áĪ«áĪį
ĠáĭĿ áĪ¸
ĠáĭĿ áĪ°áĪĿáĭķ
áį¡ *
ĠáĬ¥áĬķ áĮįáĪĬ
áĬŃ áĭ®
áĪ® áĪľ
áĪŃáĬ¨ áī¦
ĠáĬµ áĪĭáī¶áĪĿ
áĮ½áĪķ áįĪáīµ
ĠáĬ£áĪķáĭĭ áī±
ĠáĭķáĬķ áīħ
ĠáĮį áĪĪ
ĠáĭĪ áĪµ
ĠáĮİ áĬĴ
áįįáĪŃ áĭ²
Ġáī¥áĭķ áĭµáĪĺ
3 1
l o
ĠáĪĺ áĪ®
áĭµ áĭ³áĬ¥
ĠáĬŃáīµ áĪĿ
v e
ĠáĬķ áĭ¨
ĠáĭŃ áįĪáĪįáĮ¦
áĬ© áĪį
ĠáĬ¥áĬķáī° áīµ
ĠáĬĵáī¥ áĬ£
áĪĺáĪŃ áĪķ
áįħ áĬķ
ĠáĬ£áī£ áĬ»
áī°áĪĵ áĪ³áĪµ
ĠáĭĿáī°áįĪ áĮ¥áĪ¨
ĠáĬ£áĭŃáĬ¨áĬ£ áĪīáĬķ
áĪį áĮ¥
ĠáĬ£áī¥ áĭŃ
ĠáĮį áĮīáĭŃ
áĭĺ áįį
Ġáī¥áĪĿ áĬ½
ĠáĬ¥áĪµ áĪįáĪĿáĬĵ
Ġáī°áĪ° áĭĬ
Ġ9 0
Ġáĭ°áĮĪ áįįáī²
áįĸ áĪĪáī²áĬ«
Ġáįĵ áĪŃ
Ġáī¥áĪĺáĪ° áĪ¨áī±
ĠáĮ¥áĭĳ áĭŃ
ĠáĭķáĪŃ áīĤ
Ġáī°áĮłáīĢ áĪĿáī²
Ġar ticle
ĠáĭĿ áĪħáī¦
ĠáĪĵ áĭĺ
áĮł áĪ©
ĠáĪĽ áĭŃáĬķ
ĠáĭĿáī° áĪĺáĪµ
ĠáĪ¶ áĪĽ
ĠáĬĲáīłáĪŃ áĬĵ
ĠáĭĺáĮĭ áĮ¥
áĬ¬ áīµ
ĠáįķáĪ¨áĪ² áĭ°áĬķáīµ
áĪĪ áįĪ
Ġáī¥ áĪ¨áīµ
ĠáĬŃ áĭĭ
ĠáĬŃ áĪ°áĪŃ
Ġáī Ĥ
áĮł áīĢ
ĠáĬĲáĮĪ áĪ©
ĠáĮįáĪį áĮĭ
áĪµ áįĸáĪŃáīµ
áī£ áĭįáĭ«áĬķ
Ġáīµ áĪ«
ĠáĭĺáĭŃ áī²
ĠáĮ¥ áĪįáĭ«áĬķ
ĠáĪį áī¦áĬĵ
áĪŃáĬĵ áĭ®
Ġáĭ® áĬĵáĪµ
ĠáĪĺáĭĿ áĪĻ
áĮ¥áĪĿ áīµ
Ġáĭ¨áĭµáĪįáĭ¨ áĬ«
Ġáī¥áĮĢ áĬ«
ĠáĬĲ áĬĵ
áĪŃáĪĿ áĭ«áĪµ
áĪŃ áįį
áī° áĮĤ
ĠáĭĿ áĪµáĪĿ
áĪĥ áĬĲ
áįħ áĪķ
Ġáĭ³ áĬ£
áĪŃáĬ« áĭ®
áĬŃáīµ áĪªáĬŃ
ĠáĬķáĪĿáįį áī³áĪķ
áĭķáī¥ áĭ«
ĠáĭĺáĪŃáĬ¥ áĪµáī³
ĠáĬ£ áĪŀ
áĬĲ áī±áĬķ
áĭµ áī¥
áĪķ áĭĽ
ĠáĭŃ áĪŃáĬł
Ġáĭį áĮį
Ġáĭļ áĭĽáĪ¨áī¥
ĠáįĪ áĮ¢
ĠáĪ½ áĬ®áĪŃ
ĠáĬ¥áīµ áĬ¸áĭįáĬķ
ĠáĪŀ áĭ«áĭĬ
áįħ áĪŃ
ĠáĪĽáĭķ áīłáĪį
ĠáĬķáĭ° áĪĵáĪŃ
ĠáĭŃáĪķ áī¥áĪŃ
ĠáĮįáĪŃ áĪĿ
áĬķ áī³áĭŃ
ĠáĬ£ áĪĿáĪŃ
ĠáĬ¥ áĪĿáĬķ
Ġáĭ¨ áĪĺáĪįáĬŃáīµ
ĠáĪĿáĪŃ áĬ»áī¥
ĠáĮĪáĪĬ áĬ£áī¶áĪĿ
ĠáĮŃ áī¥
áĬ«áĭŃ áĭ±
ĠáĮ¸áĪİ áīµáĬķ
ĠáĭĿ áĪ½
Ġáī¥ áĮĲáĭŃáī³
ĠáĬ¨ áĭ±
áĪ« áīķ
áĪ³ áĪ°áĪį
ĠáĬķáĬ£ áĪĿáĬķ
ĠáĮĮ áĪ®áĪĿ
Ġáī¥áĬ¥ áī°
ĠáĬķáĮĪ áĪ¨áĬĴ
Ġáī¥áĭį áĪķáĭ±
ĠáĪĵáĪ¨áĪµ áī¶áīµ
Ġ ti
áĮ ®
ĠáĬķ áįĪáĪįáĮ¦
áĪĽ áī±
áĪĵ áįĪ
áĬŃ áĪįáĬĵ
áĮĲ áĭŃáī³áĭŃ
ĠáĬ¤áĪŃáīµáĪ« áĬķ
ĠáĬķáĬĲ áī¢áĭŃ
ĠáĪµáĮĭ áĭĬ
ĠáĬŃáĪħáĪį áĭİáĪĿ
ĠáĮİáĪ¨ áī£áī¥
ĠáĮŃáĬķáīĢ áīµ
ĠáĬŃ áĭĵ
áĭ° áĪ°
áĮ¥ áĪ©
ĠáĬŃáĬķ áĬ¨áĭŃáĭµ
Ġáĭľ áĭ°áĬķáīķ
ĠáĬĲáī¥ áĪµáĬ»
ĠáĪĿáĬĵáĪį áī£áĪ½
áĪĵáĪĪ áįĪ
ĠáĪĽáī´ áĭİáĪµ
ĠáĬķáĪĿáĭĥ áĬķ
Ġáī¥áĪĻ áĪīáĬ¥
Ġáīħáĭ³ áĪ´
ĠáĬ¥ áĪĺ
Ġáī° áĪĲ
ĠáĬĵ áīµ
áĭĪ áī²
Ġáĭ° áĬº
ĠáĬ¥áĪŀ áĬ¸
áĬ° áĬĳ
Ġáīģ áĪŃ
ĠáĪ« áĪħ
Ġáī¥áĮį áĪį
Ġáī¥áĭĪ áĮįáĭĴ
ĠáĬŃáĬ¸ áĭīáĬķ
Ġáī°áī£áĭķ áī³áĭŃ
ĠáĬ£áĭŃáĬ°áĬķ áĬ©áĬķ
ĠáĭŃ áīĲ
áī± áī¥
ĠáĮ¸ áĪįáĭ©
ĠáĬª áĪİ
ĠáĬķáĪµ áĪ«áĪķ
ĠáĬķáĪĵ áīĤ
áīłáĬ£ áĬĵ
ĠáĬķáĪ° áīłáĭŃ
áįį áĬ©áĪĿ
ĠáĮį áĬ¥áĭĿ
Ġáīµ áī¥áĪİ
ĠáĮ¥ áĪ«
ĠáĬ£áĭŃáīµ áįįáĪ«áĪħ
Ġáĭ³ áĭŃ
Ġáī¥áĬ£ áĬ»
ĠáĪĨ áī´
ĠáĪ® áĪĽ
ĠáĬķáĮ½ áī£
Ġáī¥áĭ° áĪĵáĬķ
ĠáĬ»áĪį áĬ¦áīµ
ĠáĮįáĭµ áī¥
ĠáĮĪáĭĿ áĬ¡
Ġ w
áĬ¥ áĪĺáĬķ
áįĭ áĭķ
áĭĽáĪ¨ áīłáĪī
Ġáī¦ áĪŃáĭµ
Ġáĭ® áĬĵ
Ġáī¥áĭĿáī° áĬ»áĬ¥áĪĪ
ĠáīµáĪĿ áĬĴ
Ġáī°áĪĺáĪĬ áĪ°
Ġáīµáī¥ áĭĵáīµ
ĠáĪĽáĪĪ áī°áĭŃ
áĪį áĪ²
áĭį áĭĲ
áĮį áī¥áĪŃ
áįĪ áĮ¸áĪĺ
ĠáĮį áĮŃáīµ
Ġáĭĵ áĭ°áĭŃ
áĪ© áīµ
ĠáĬĲáī¥ áĪ²
ĠáĪĿáĮ½ áĪĵáįį
ĠáįĮ áĭ°áĪ«
Ġáī°áĮłáĬķ áīĢ
ĠáĬ£áĪĿáĪĵ áĪ«
ĠáĬ£áĪĿáī£áĪ³ áĭ°áĪŃ
ĠáįħáĪķ áįĪáīµ
ĠáĪĺáĮłáĬķáīĢáīķ áī³
áĪµ áįĪ
ĠáĬŃ áīłáĮ½áĪķ
Ġáĭĺ áĭµáĪį
Ġáĭĵ áĬķáĭ²
áĮ¥ áĭĴ
Ġáĭļ áĪĿáĪįáĬ¨áīµ
ĠáĭĿáī° áĮ¸
ĠáĭĪáĮ»áĬ¢ áī³áīµ
ĠáĪŃáĬ¢ áī¶
ĠáĮ¥áĪĿ áīĢáīµ
Ġáī°áīĲáĪļ áĮ¡
ĠáĬķáĪĺáĮĢáĪĺáĪŃ áĭ«
Ġáĭĺ áĪŃáĬ£
ĠáĬ¥áĬķ áĭ¶
ĠáĬ£áĭŃ áįĪáĪĪ
áĮ¥ áĪŃáĬķ
ĠáĪĥ áĪĪ
áį§ +
áĪĺáĪµ áĪĪáĬĴ
áĮħ áĬķ
ĠáĬ£áĭį áĪ®áįĵ
ĠáĮ£ áĭķ
ĠáĪħáĭĿáī¥ áĬ»
ĠáĬ£áĪķáĭĭ áīµáĬķ
ĠáĬķ áĭĭ
Ġáī¥ áĪĺáĪµ
Ġáī¥ áĬ¨áĪĺáĭŃ
áĪĺ áĪĪ
ĠáĪĵ áĪª
áĪ³ áĬĲ
Ġáĭĵ áĮ½
áĪ½ áī³
áĪħáĪį áĭİáĪĿ
áĪĵáĭ° áĪŃ
ĠáĭķáĪĪ áī³áĭĬ
Ġ a
ĠáĪĺ áįĪ
áĮĪ áĮ¥
áĪħ áĬĵáīµáĬķ
ĠáĪķ áĭ°
Ġáĭ° áĮĭ
ĠáĮĪ áĮ»áīµ
ĠáĪį áĭ°
ĠáĪļ áĭĽáĬķ
áĮħ áĪĿáĪ©
ĠáĬķáĭĵ áĬ¹áĪĿ
ĠáĬ£áĭĿ áĪĽ
ĠáĬ£áīķ áĪĵ
ĠáĪŃáĪĳ áĪµ
âĢº âĢº
ĠáĭķáĪ½ áĬĲáīµ
Ġ J
áĭŃ áī¥
ĠáĭŃ áī¥áĪİ
ĠáĬ¨áĭŃ áĭĪ
ĠáĬŃáįį áĪįáī³áīµ
ĠáĭįáĪ½ áĮ¥
ĠáĭĿáĬ¸ áĭ±
ĠáĭĿáī°áĭĪ áĪĪáĭµ
ĠáĬķáĪħáĭĿ áī¡
ĠáĬķáĪĿáĪŃ áĬ£áĭŃ
áĪ¨ áĭ¨
áĪ¨ áĭ®
áĪĵ áĬķáī²
ĠáĪ° áĬĳáĭŃ
Ġáĭ° áīłáĬĵ
ĠáĪŃ áĪµ
ĠáĪĺáĪµ áĪĪáĬĴ
áī¥áĪª áĬ«
áĪ°áĭŃ áĮ£áĬķ
áĭįáĮ½ áĬ¦
ĠáĭµáĪ« áĪĽ
áĬ£ áĭµ
áĪ¨ áĮ¸
áĪ« áĪ¨áī¥
áĪĵ áĪ³áī¥
ĠáĬ¥áĬĵ áīłáĪįáĬĵ
Ġáī°áĭĵ áĭĬ
ĠáĪ°áĪļ áĬĵ
an d
ĠáĬ£áĭŃáĬĲáīłáĪ® áĪĿáĬķ
ĠáĮ¸áī¥áĮ» áī£áīµ
Ġáī¥ áī³
áĬ¥ áĪ°áĭ«áīµ
áĭį áĭĭ
áĪ° áĪ°
áĭĺ áĬ«
áĭĺ áĮ½
ĠáĬŃáĬķ áĭĽáĪ¨áī¥
ĠáĮ¸ áĪį
ĠáĪĥáĮĪ áĪ«áīµáĬķ
ĠáĬ¢áīµáĭ®áĮµ áĭ«áĬķ
ĠáĬ£áĭŃáįĪ áĪĪáĮ¥
Ġáī°áĪ°áĪĿ áĭ©
ĠâĨ Ĳ
ĠáĮįáįį áĭĴ
ĠáĮłáĭį áīĳ
ĠáĭĿáįĪáĮł áĪ®
áĪŃ áĪĽ
áĮį áīłáĪ¨
Ġáīµ áĪµ
ĠáĭĿáīł áĪĭ
ĠáĬ° áĭŃáĬĵ
ĠáĪĿáĪĿ áĮ»áĬ¥
ĠáĬķáī¥ áĭĻáĪķ
Ġáī¥áĮ½ áī¡áīķ
ĠáĭįáĮ½áĬ¢ áī±
áĬķ áĬŃ
ĠáĭŃ áĭ°áĪį
Ġáĭ° áįĬ
ĠáĬ¥áīµ áĮĪáī¥áĪ®
ĠáĬłáĭŃ áīµ
áĪĺáĪĵ áĪĭáĪį
ĠáĬ¥áĬ© áĭ«áīµ
Ġ ;
ĠáĪĿ áĬŃ
ĠáĪµ áĪķ
áĪĥ áĪĪ
ĠáĪĿáĪµ áĭĿ
ĠáĪĽ áĪ«
ĠáĮ¸ áĪĬ
ĠáĬª áĮĪáī¥áĪŃ
ĠáĬķáĪĿ áĮ¥
ĠáĭĿáĮĪ áĭ°áĭ°
ĠáĮĪáĭŃ áĪŃáĬ«
áĬŃáĪį áī²
áĪµáĭķ áĪŃ
Ġáīłáĭ° áĪįáĬ«
ĠáīµáĪ½ áĭĵáī°
ĠáĪ°áĪĽáĬ¥ áī³áīµ
áĬĲ áĮĪ
ĠáĬŃ áĪĿáĪį
áĪĺ áĪİáĪĿ
ĠáĬĵ áīµáĬ©áĪĿ
ĠáĬ¥áĬķ áĮĪáī¥áĪ®
ĠáĭĪ áĬ¨
Ġáīħ áī¥
ĠáĬŃáīµ áĬ¨áįį
ĠáĬ£áĬķ áī¥
Ġáī¥áĪĺ áĮĢáĪĺáĪŃ
ĠáĪĺáĭµ áĪ¨
Ġáī¥áĪ° áĪª
ĠáĪĺáĭĺ áĬĵ
áĪįáĭĪ áĮ¥
áī° áĬĴ
ĠáĭĿ áĬ¨
ĠáĭŃ áĪģ
áĭ¨ áīµáĬķ
áĭĺ áĭĻ
ĠáĪ³ áĭŃáĬķ
Ġ4 1
ĠáĭįáĪ½ áĮłáĭŃ
áĪŃáĪķ áīķ
ĠáĪĲ áĭ°
ĠáĬ£áĭŃáĬ®áĬķ áĬ«áĬķ
Ġáī¥áĭĿáīłáĪĪ áĮ¸
ĠáĬŃáĪ¨ áĪĿáī²
ĠáĬ£áĭĪáĬķ áī³áĭĬ
ĠáĬ¢áĬķáĭ± áĪµáīµáĪª
áĪī áīĥ
Ġáĭ¨ áĪĽáĬķ
Ġáĭį áĮ¥áĬķ
áįħ áĬ¡
Ġáī¥áįį áĪīáĭŃ
ĠáĪĿáĪį áĬª
ĠáīµáĪŃ áĮķáĪĿ
ĠáĪµáĬ¥ áĪįáī³áīµ
ĠáĪĺ áīħ
áĪ¨ áĮ¹
áĬ¹ áĭİáĬķ
áīĲ áĪī
ĠáĬŃáĬķ áĭķ
áĬł áĭŃáī²
ĠáĪĿáĭµ áĪĭ
ĠáĭĿáĭĢ áĬĲáīµ
ĠáĪĺáĪĬ áĬ¡
Ġáįĥ áĭķ
Ġáī¥áĪĽáĭķ áĪ¨
Ġáī°áĪŀáĬŃ áĪ®
áĪĿ áĪ³
áĪį áĭī
áĪĪ áīµáĬķ
ĠáĬŃ áĮ¸
ĠáĬŃ áī¥áĪİ
ĠáĪĵ áĮį
áįĥ áĪĬ
áī´ áĬ¹áĪĿ
ĠáĭĿáĭĵ áĭŃ
ĠáĬ£áĭµ áĮĬ
áĮįáĮĭ áĪŃ
áĮ»áĭĪ áī±
ĠáĬķáįī áĭķ
áĬ£ áĬķáĬķ
ĠáĬĲ áĭĿ
ĠáĭŃ áįĪáīµ
áĭ« áĪĿ
áĭļ áĪĻ
Ġáĭµ áĪīáĭį
áĭ³ áīµáĬķ
ĠáĬ£áĭŃ áĪµ
Ġáįį áĮ¥áĪ¨
ĠáĭĿáī° áįĪáĪįáĭ¨
ĠáīĢ áī²
ĠáĬª áīµ
ĠáĭĿáīł áĮ½áĪķ
Ġáī£áĭķ áĪĭ
áīłáĮ½ áĪĸ
ĠáĭĿáĭĪáĪµ áĭµ
Ġáī¥ áĪĦáĪŃ
ĠáĪĺ áĮĪáĭµ
áĮĪ áĪ«áĭĬ
áįĪ áĮ¥áĪŃ
áĭĭ áĪª
áĭĭ áĭįáĭ«áĬķ
áī¦ áĪĿáĬķ
ĠáīĢ áĪŃáĬĴ
ĠáĬ® áĪĪ
Ġáīĥ áĪįáĬ«
ĠáĪĿáĭµ áĪĭáĭŃ
ĠáĮŃ áįįáĪ«
ĠáĭĪáĪ² áĭ¶áĪĿ
ĠáĭĿáī°áĪĵ áī°
áĪµáĪŃ áĭĵáīµ
ĠáĪļáĬ¥ áīµáĬķ
Ġáī¥áĭµáĪĨ áī³áīµ
ĠáīłáĮ½ áĪĲ
o p
áĭŃ áĪĭ
ĠáĬ£ áĬŃ
áĪĭ áĪħ
áĬ½ áī¥áĪ®
áĬ¸ áĪµ
áĭĭ áĬķáĬķ
áĮł áīħáĪµ
ĠáĬ«áĪį áĬ¦áīµáĬķ
áĮĲ áĭµ
ĠáĮĵ áĪĪáĭŃ
ĠáĭŃáīķ áĪ¨áī³
ĠáĪķáĭ« áĭĭáĭŃ
ĠáĪµáĪ« áĪĵáīµ
áĪķ áĪī
áĪĽ áĬ¥
áĪĥ áĭµáĪĿ
Ġáįį áĪĪáĮ¥
Ġáīħ áīµáĪĪáīµ
áĪ«áĭŃ áĬķ
ĠáĪĺáĮ½ áĬĵáĭķ
ĠáĪ« áĭķ
Ġáī¥áĪ© áĬ½
ĠáĮĨ áĬķ
áĪį áĪĿáĬķ
áĭį áĭį
áīħ áĬ»
ĠáĬł áĪ¨
ĠáĪĿáĪ³ áĬ¹áĪĿ
Ġáįĭ áī¥áĪªáĬ«
áĪĿáī£ áĪ²
ĠáĪĵáĪ¨áĪµ áī³áĭŃ
ĠáīµáĬķáĪ£ áĬ¤
áĬĵ áĭį
ĠáĬ¥áĭ µ
ĠáĬ£áī¥ áĪª
áĬ½ áĪª
ĠáĭĪ áĪĵáĭ°
ĠáĭĪ áĬ¨áĪįáī²
Ġáĭį áĭĴáĪī
áĭ± áī¥
ĠáĭĿáĬĲáīłáĪ¨ áĬĴ
ĠáĬĲáįį áĪ°áĭŃ
ĠáĪ°áĪĭáĪĿ áī³
ĠáĮĪáĮ½ áĬ«
ĠáĬ£áĬ½ áī¥áĪ®
ĠáĬ£áĭĺ áĪ«áĪŃáī£
Ġáī°áĪĺáĪį áĪ±
u b
ĠáĬ£ áĮłáīĵ
ĠáĬĲ áįĥ
ĠáĬ» áĪħáĬĵáīµ
ĠáĬłáī¥ áī²
ĠáĬķáĪħ áĭŃáĭĪ
ĠáĪ°áī¥áĬ£ áĭ«
ĠáĪįáĪĿ áĪĿáĭµ
ĠáĪ°áĭŃ áįĬ
ĠA TV
Ġáĭĺáįį áīĢ
Ġáĭĺ áĬ«
áĪħ áĪª
ĠáĬĵáī¥ áī¶áĪĿ
ĠáĬª áĪĺáĮ½áĬ¥
ĠáĪļ áĭµáĭ«
ĠáĬ£áĪµ áĪĽáīµ
ĠáĭĿáįĪ áī±
áĪ¨ áĪĻ
áĬ¸ áĬ£
Ġáĭ° áĭĬ
ĠáĬŃáīµ áĪĵ
áīĨ áīµ
áĪģ áĬķ
ĠáĪ¸ áĪĪáĪį
ĠáĬ¥áĭļáĬ£ áī°áĬķ
Ġáī°áĬ£ áĪĿáĪŃ
ĠáĬŃáĪŃ áĬł
ĠáĮ£ áĪįáĭ«áĬķ
ĠáįįáĪįáĮł áīµáĬķ
Ġáĭ°áīģ áĬķ
Ġ Y
áĪª áī±
ĠáĬŃáīµ áĭµ
ĠáĬŃáĬķ áĪĿáĪĪáĪµ
Ġáī£ áĭ¶
áĪĳ áįį
Ġáĭľ áĪĽ
ĠáĬ£áī£ áĬ»áīµáĬ©áĪĿ
ĠáĪĿáĪŃ áĬ¢áīµ
ĠáĪĵáĪĪ áįĭ
áĪ«áĬ¥ áĭ¨
ĠáĬķ áĪĺáĪµ
áĪĵ áĭµáĪķ
ĠáĪ° áĪ¨áĮĪ
áĪħ áĭĿ
Ġáī¤ áī³
ĠáĭĿáīł áĪĪáīµ
Ġáī£áĪħáĪŃ áĭŃ
áī ¬
Ġáī¥ áīķáĬķ
áĭįáĬķ áĬķ
áĪĥ áĪĥ
ĠáĬ£áĪİ áĬ¹áĪĿ
ĠáĪĿáĬ¥ áĪĺáĬĵáĬķ
ĠáĪĿáįį áĪį
ĠáĪĺáĪ¨áĮĭáĮĪ áĮº
Ġ @
áĪŃ áī£áĭķáī°
Ġáī¥ áĭĭ
Ġáįį áĬķ
áīĢ áĪ³áīĲ
ĠáĮī áĪį
áĮĪáĪį áĬ«áĬķ
ĠáĪ³ áĬķ
áĬ£áīµ áĬĵ
ĠáĪĿáĪĿ áĪµ
ĠáĬ£áīķ áĪª
ĠáĪĺáīł áīĨ
áĪĥáĭŃ áĪĽáĬĸ
ĠáĪ°áĭ² áĪħáĬ¤
Ġáįįáīĵáĭ° áĬĽ
áīł áĭµ
áįį áĬ¥
ĠáĭŃ áĬŃáĬ¥áĪį
ĠáĬŃáīµ áĭĽáĪ¨áī¥
áįĭ áįĬ
ĠáĮ½ áĪĭáĪį
ĠáĬ¤ áĪµ
áĪ¨áĬ½ áīłáĪī
ĠáĮĪáĭŃ áĪŃáĬĵ
ĠáĪĿáĭį áĭ³
Ġáī´ áĪĮ
ĠáĭĿáīłáĪįáĬ« áĭ®
ĠáĪ ģ
ĠáĪĺ áī°áĬ«
áĪĺ áĮ»
Ġáī° áĭĺáĪ«
áĪ® áĪŀ
áĪµáĭķ áī¦
ĠáĪĻáĪ´ áĬķ
Ġáĭ³áĮį áĪĺ
ĠáĮŃáĪŃ áĪĸ
áĭ² áĬķ
áī¥áĪŃ áĪĥáĬķ
áĪµáī² áī«áĪį
Ġáī£áĪħ áĪįáĬķ
ĠáĪĭ áĭŃ
ĠáĪĭ áĭķ
ĠáĮĪáīłáĪŃ áĬ©áĪĿ
Ġáĭ©áĬĴáī¨ áĪŃáĪµáī²
ĠáĭŃáĮįáī¥ áĬ¦
ĠáĪķáĮ» áĬĵáīµ
ĠáĬ®áĪ®áĬĵ áī«áĭŃáĪ¨áĪµ
áĪĿ áī¥
áīł áĭŃáĬĳ
áĬ£ áĭŃáĬķ
áĪ¨ áĭ³
áĪ¨ áī¦
Ġáī° áĭĺáĭŃ
áĭĿ áĬ«
Ġáĭµ áĪķáĬķ
Ġáīµ áĭĪ
ĠáĪĥ áĪ¨áĪŃ
Ġáī¤áīµ áĬĵ
áĪħáĪį áĭī
Ġáī°áīĲ áĪĽ
ĠáĬ¨áĪĿáĭĺáĭŃ áĬ®áĬĲ
ĠáīħáĪŃ áĮº
ĠáĬķáĭĤ áĪī
Ġáī¥áĭįáĪĳ áĭ±
ĠáĬ£áĭŃáĬŃáĪĵáĭµ áĮĪáĪįáĬ«áĬķ
Ġáĭ ª
ĠáĮĪ áĭ°áī¥
Ġáĭ¨ áĭµáĪį
ĠáĬª áĭ±
ĠáĬ£áĪĿáĪĭáĬ½ áĬ©áĪĿ
ĠáĬł áĪĪáĭİ
Ġáī¥áĪĿ áĭµ
ĠáĭĪáĪĪ áĭµ
ĠáĭĺáĭŃáĬ® áĬĳ
ĠáĬ´ áĬķáĬ«
ĠáĬ£ áĪĵáīµáĬķ
ĠáĭĿáī° áĮĪáīłáĪ¨
áīĵ áīķ
ĠáĬķáī¥ áĭĺáĪİ
ĠáĮŃ áī¡áĮ¥
ĠáĬ£áĪľ áĪªáĬ«áĬķ
Ġáī¥áĭĵ áī¢
ĠáĪħáĪĭ áĭĪ
Ġáįįáīĥ áĭµ
ĠáĬŃ áĬ½áĬ¥áĪį
áĪ« áĭµ
ĠáĬ£áĭŃ áīĢ
ĠáĪħ áĮį
ĠáĭĺáĭŃ áĬ¨
ĠáĪµáĮĭ áī¥
ĠáĬ£áĭĴ áĬķáīµ
áĪŃ áĬ©
ĠáĭĿ áĪĵáīµáīµ
ĠáĬ¨ áĪŃ
Ġáĭµ áĪĵáĬķ
Ġáĭĵ áīĲáĬķ
Ġáīµ áįħ
Ġáīł áī°áĬķ
ĠáĭĿáī° áĪ¨áĬ½áīł
ĠáĬª áĭį
Ġáī¥áĪµ áĪĺáĭŃ
ĠáĬķáĭĪ áĭ±
áĪĽáĪĿ áĭĳ
Ġáī¥áĭķ áĪĪáīµ
ĠáĪĺáĪ¸ áįĪáĬĴ
ĠâĨ Ĵ
Ġáī¥áĪĥáĬķ áĭ°áīłáīµ
ĠáĪĿáĪħáĪŃ áī²
áīµ áĪį
áĪŃ áĬ½
ĠáĬķ áīĢ
áĪĵ áįī
ĠáĬ£áĭŃ áī¥áĪįáĬķ
Ġáīł áĪŃáīµ
Ġáĭļ áĮįáī¥
ĠáĭĵáĪĺ áīµáĬķ
áĪĭáīµ áĬĴ
ĠáĪ¨ áī¡áĭķ
áīĨ áī¥áĬķ
Ġáī°áĭĪ áĪ°
áīª áĭ¥áĬķ
ĠáįĪáĪĬ áĮł
Ġáī¥áĬ½ áī¥áĪª
ĠáĬŃáĬ¢ áĪĭ
ĠáīĢáĭŃ áĭ²
áĭĵáĪĺ áī±
ĠáĭĿáĭĵáĭŃ áĬĲáī±
Ġáī° áĮİ
ĠáĭŃ áĬ«
Ġáĭĵ áĭ¶áĪĿ
ĠáīĥáĪį áĪµáĬĵ
áĮ¸áĬķ áĪĳ
ĠáĬĲáįįáĪµ áĭĪáĬ¨áįį
ĠáįĭáĭŃ áĬĵáĬķ
ĠáĮĥáįĵ áĬķ
áī° áĬ½
áĭµ áĪĪ
áĪĵ áīĲ
áīķ áĬ©áĪĿ
Ġáĭļ áĭ°áĪĬ
ĠáįĢ áĪĵáĭŃ
ĠáĭįáĪ³ áĬĲáī³áīµ
ĠáĬ£áĭļ áĬĵ
ĠáīµáĬ¹ áĪ¨áīµ
áī° áĭį
áĪ¨ áĬº
áĭį áĭĸ
áĭĿ áĬĲáīµ
Ġáīµ áĪ¨áĬŃáī¥
ĠáĮ¸ áĪĭáĬ¥áī²
áĮ£ áĭŃ
ĠáĬ£áĪµáī° áī¥
áĪĿáĬĲ áĮĪáĪŃ
ĠáĪĺáĪŃáĮĪ áĮº
ĠáĪĺ áĭ²
ĠáĭŃ áĪĿáĪµ
ĠáĪĺáĪį áĪ±
ĠáĮĪáĭĽ áĭŃ
Ġáĭ°áĪŃ áĮĬ
ĠáĪ½áĮį áĪ«áīµ
áī¥áĪĬ áĬŃ
áĬĵ áĮ½
Ġáīħ áĪ³
áĮĢ áĪŃ
áĮĪáĭĿ áĬ¡
ĠáĪĪáĭį áĮ¥áī³áīµ
ĠáĪ¶ áĪĽáĪį
ĠáĮ« áįį
ĠáīµáĮįáĪ« áĭĭáĭŃ
B C
ĠáĪĺ áĭį
ĠáĬĵ áĮ½
ĠáĭŃ áĬ£áĬ½
Ġáīµ áĮĪáĪįáĮ½
Ġáĭ¨ áĮĭáĮ¥
ĠáĬŃáĬķ áĪ¨áĬŃáī¥
ĠáĬ¤ áĪ¨áīµ
ĠáĪİ áĪĿ
ĠáĬķáĭĵ áĬ»áīµáĬ©áĪĿ
ĠáĮ½áī¡áīķ áĬķ
ĠáĬ£áĪŃ áĬ£áĭ«
ĠáĬ¨áĪĽ áĬ»
ĠáĪļáĬ¢ áī³áĭĬáīµ
ĠáĭľáĮį áĬĲáīµ
áĪĿ áĪķ
áĭ° áĪĭáīµ
Ġáĭĺ áīłáĪī
áĭĵ áīł
Ġáĭ° áĪ¨
ĠáīĢ áĪ¨áī¥
ĠáĪĪ áĪļ
ĠáĪĥáĮĪ áĪ«
Ġ4 6
ĠáĬĲáĮĪ áĪ¨
áĪĥáĬķ áĮ½
ĠáĮĪáĬķáĭĺ áī£áĭĬ
áī°áĪĵ áī£
ĠáĪ¥ áĪįáĮ£áĬķ
ĠT ag
Ġáī°áĪĽáĪĤ áĪ¨
o o
áĬķ áī°áĪŃ
ĠáĬ£ áĬºáĪī
Ġáĭ° áī¡
ĠáĭĿáī° áĭį
ĠáĬķáĪĿ áĪį
ĠáĬŃáįį áĪĪáĮ¥
ĠáĬ£áĭŃáī° áīĲ
ĠáĪĻ áĪµ
ĠáĬŃáĪħáĪį áĭĪáĬ«
ĠáĪĺáĭĵáĪµ áĬ¨áĪŃ
ĠáĬ£áĭĴáĬķ áī¶áĪĿ
ĠáĬ£áĭįáĪµáīµáĪ« áĪįáĭ«
ĠáĬ£ áĪĵáīµ
ĠáĭĿ áīħ
áĮĪ áĪĭ
Ġáī° áĬ¾
Ġáĭĵ áīłáĭŃ
áīµáĬķ áĪµáĬ¥
ĠáĬŃáīµ áĬ¨
ĠáĬŃáĬķ áĪ°áĪŃáĪķ
ĠáĬ£áĭŃáīµ áĪ¨áĪµ
Ġáī°áĪĺ áĭĿáĮĬ
ĠáĭĿáĬ£ áī°áĭĪ
ĠáĪĺáĮº áĬ¥áĬ«
ĠáĬķáĬł áĪĿáĪĭáĬ½
Ġ li
áĪį áī³
ĠáĬķ áĬŃáĪŃáĪµáī¶áĪµ
Ġáī° áĬł
áĭĿ áĭİ
ĠáĪĺáĬķ áĮĲ
ĠáīĢ áĭ²
ĠáĭĿáīł áĪİáĪĿ
ĠáĭįáĪ½ áĮ¡
áĮ¸áĬķ áĪĲ
ĠáĪ°áĪª áĪĳ
ĠáĭĿáī°áĭĭ áĪħáīł
Ġáĭ°áīħ áĬĵ
ĠáĪĺáĬķáĮįáĪµáīµ áī³áīµ
áī° áī£áĭķ
ĠáĪĿ áĭŃáĭŃ
Ġáĭĺ áĮĪáĭµ
áĮ¥ áĭİ
ĠáĬķáĪĿ áĮ½
ĠáĬ¤ áįĮ
ĠáĬ£áĭŃáīµ áĪ¨áĪµáĭķ
ĠáĭĿáĪĵ áĪ°
ĠáĬ£áīµ áĭ¨
áĪĥáīł áĬĵ
ðŁ ĺ
ĠáĪ³áĪį áĪķ
ĠáĪĭáĭķáĪĪ áĭİáīµ
ĠáīµáĭĬ áī°áĪŃ
áī² áĬ¨
áĮł áĪį
ĠáĬ£áĪĪ áĬ©
ĠáĪŃ áĭµ
ĠáĪļ áĬ¢áī³áĭĬ
ĠáĬ¸áĪĿ áī²
ĠáĬ£áĪµ áįĬ
ĠáĬķáĪĺ áĪĭáĬ¥
áĭ´ áĪ«
Ġáī¥áįģ áĭķ
ĠáĬ¥ áī±
ĠáĪĿ áįħ
áĭ¨ áĪĿ
ĠáīĢ áĭĭáĪļ
áĪ¨áĬ½ áī¦áĪĿ
ĠáīłáĪĪ áĪµ
ĠáĬ¨áĪİ áĬ»
áĬ¨áĭįáĬķ áĬķ
ĠáĪĵáĪ³ áī£
ĠáĬķáĪĿáĪŃáĮįáĮĭ áĮ½
ĠáĮį áĭ³áĪĿ
áĭ¨ áĬ©áĪĿ
áĭ¨ áĪĪáĭŃ
áĬĳ áĬ¤áĪį
Ġáĭ¨ áįįáīħ
ĠáĪĺáĬķ áĮĪ
Ġáĭļ áĬĲ
áĬł áĪŃ
ĠáĬł áĭļ
ĠáĬķáĪĿ áĪīáĬ¥
Ġáī¥áĪĵ áĬķáī²
ĠáĬ½áĬķ áĭ°áĭŃ
ĠáĮ¸áĬĴ áĪĲ
ĠáĪ¨áĬº áī¥áĬĵ
ĠáĬĵáī£ áĬĵ
ĠáĬķáĬº áĭµ
ĠáĪĺáĬ« áĭŃáĬķ
ĠáĭĿáĪĥáīł áĬĵ
ĠáĬķáĪĿáī¥ áĮ»áĪķ
Ġ v
Ġáĭĺ áīµ
ĠáĬĲ áĬĵáī¥
ĠáĮį áĪªáĬ½
ĠáĬ£áĭŃ áĮį
Ġáĭĵ áĭŃáĬĳ
áĮĭ áĪª
áī± áĪŃ
ĠáĭĿáī° áĭ³áĪĪáĭĪ
Ġáīħ áĪįáĮ¡áįį
ĠáĭĿáīł áĪĥáĪī
áĪįáĬ« áĭĬ
Ġáĭľ áįįáīħ
áĭ³áĬķ áīµ
Ġáī¥áĪį áĪ½
Ġáī¥ áĪ¸
ĠáĬ¨ áĪµ
áĮ¥ áĬ«
Ġáĭķ áĮį
áīµáĭ® áĮµáĭ«
ĠáĮīáĮħáĪĪ áī³áīµ
ĠáĪ¨áĬ£ áĬ¹
Ġáĭ¨áĪĽ áĬĲ
áĪĿ áĬĳ
áĪŃ áĪŃ
Ġáĭĺ áĬ«áĭ¨
áīĢ áī¥
Ġáī¥áĪĿ áĮ¥
Ġáĭľ áī¥áĪį
áī¥áĪ« áĭįáĭ«áĬķ
ĠáĮĪáīł áĬĵáīµ
m ent
ĠáĬ£ áī¤
áĪ« áĬķáĬķ
áĬ½ áīµ
áįĪ áīķ
Ġáĭĵ áĪĽ
Ġáĭĵ áĭ«
áĬ¨ áī±
áĮ¸ áĪĭ
ĠáĭĿáī° áĭĺáĪŃ
Ġáĭķ áĪµáĪ«
ĠáīĢ áĮ¥
ĠáĬ¥áĪĿ áīłáĬ£
ĠáĬ¥áīµ áĭ°áĪĬ
áįĢ áīµ
ĠáĭŃáĪķ áĪ¸
ĠáĭĿáĮĪáīłáĪŃ áĭİ
áĪ¨áĮĭáĮĪ áĮ½
ĠáĮįáĪįáĮĭ áĪİáīµ
ĠáĬ£ áĬ¸
ĠáĬŃ áĮ¸áĬķáĪķ
áĪĽ áĪĽáĭķ
Ġáĭĺ áĭµáĪįáĭ®áĪĿ
ĠáĭŃ áĮĪáĪįáĮ¹
ĠáĬ¢ áĭ¶áĪĿ
Ġáĭµ áĮĭáįį
áĮ¥ áīłáī¥
Ġáī¥áĪĿ áĪĥáī¥
ĠáĭĺáĪĪáĭİ áĬķ
áĮ¨ áĬķ
ĠáĬķáĮ½ áī¥
ĠáĭŃáĪĺáĪµ áĪĪáĬ«
ĠáĪĿáĪĿáĪķ áĭ«áĪ½
ĠáĬŃáĭ³ áĭįáĬķ
Ġáī°áĪ°áĪļ áĭĳáĬĴ
Ġáī°áīĲáī² áĪİáĪĿ
ĠáĬķ áĮĭ
Ġáī¥ áī£
ĠáĪĿ áĮŃ
ĠáĪ° áĭ°
ĠáĪµ áĬĴ
ĠáĮį áĭĻ
áĭ³ áĬ¢
áĬ© áĭİáĬķ
ĠáĬ¸ áĪ¨áĬķ
Ġáĭļ áĮĪáī¥áĪ®
ĠáĮĪáĪĬ áĪĭ
ĠáĬ£áĮĭ áĬķ
Ġáįįáīĵ áĭ±
Ġáī¥áīĲ áĭ³áĪĿáĬĲáīµ
ĠáĭĿáī°áįĪ áĪĪáĭ¨
Ġáī¥áĮ¸ áĮĭ
ĠáĭĿáĪĺáĪµ áĪĪáĬĴ
áĬķ áīĽ
ĠáĬķ áĬ¡
áĭµ áĬĲáīµ
áĭ³ áĪĽáĭŃ
ĠáĬª áīĲáīµ
ĠáĪĿáĭĥ áĬķáĬĵ
ĠáĪĵáīłáĪ¬áī³ áĬķ
ĠáĬ£áĮĭáĮ£áĪļ áī³áīµ
ĠáĬ¥áĬķáĮįáĪĬáĭĿ áĬĽ
ĠáĪĪáī£ áĪĿ
ĠáĭŃ áĮĪáī¥áĪ¨
ĠáĬ¥áĬķ áĪµ
Ġáį ī
ĠáĬª áī¥áĪĥáĪį
áĬ¤ áĪĭáĭįáĭ«áĬķ
ĠáĬ£áĬķ áīł
ĠáĭĿáĭĪ áĪĪ
ĠáĪĺáĭ° áīłáĪŃ
ĠáĬķáī¥ áĮ»
ĠáĪĿáīķ áī£áĪį
ĠáĪĵáī° áī¶
ĠáĭŃáĬĲ áĮįáĪ¨áĬĵ
Ġáī¥áĮĪ áĭĽáĬ¥
ĠáĪµáĪįáĮ£ áĬĳ
ĠáĬķ áĪ¨áĬŃáī¥
áįį áĪµ
áĮĪ áĪ±
ĠáĬ£áĭŃ áĪ¨
Ġáīł áĭ¨
Ġáĭļ áĪĺáĪµáĪį
ĠáĬ¤ áĪĪ
ĠáĬ¥áīµ áĮĪáī¥áĪŃ
ĠáĬ¨áĪĿáĭļ áĬ¦áĪĿ
ĠáĪĺáĭµ áĬĥ
ĠáĬ¥áĪĿáĬĲáīµ áĬĵ
ĠáĭĿáĪĪ áĬ£áĬ¸
ĠáĪĦ áĬķ
áĮłáĪ« áĮ¥áĪŃ
Ġáī¥áĬ¢ áĭµ
áĪŃ áĭĿáĪŃ
áīł áĪ«áĭĬ
ĠáĬŃ áĪ°áĪĿáĭķ
áĬ£ áĬ¹
Ġáī° áĭĽáĪ¨áīł
ĠáĭŃ áī£
ĠáĬ¢ áĪįáĬª
áĭ® áĪĥáĬķáĪµ
ĠáįĪ áĪĪáĮ¥
ĠáĬ¦ áĪªáīµ
áĬķ áĬª
ĠáĬ£ áĪĺáĬķ
ĠáĪĿ áĪ©
áĭĪ áĪ¨
ĠáĬ£áĭŃ áįĭáĪį
Ġáĭĵ áĪ¨
ĠáĬ¸ áī£áī¢
ĠáĭĢ áĭŃáĬĸáĪĿ
ĠáĬŃáĪħ áīłáĬ«
Ġáī¥áĪĺáĬķ áįĪ
ĠáĬ£áĪķáĭĭ áīµáĬĵ
ĠáĭĪáĮº áĬ¦áĪĿ
ĠáįĮ áĪµáī¡áĬŃ
ĠáĬ£áĪµáĭĴ áī¡
ĠáĬŃáĬŃáĬŃ áĬŃáĬŃ
ĠáĪĺáī°áĬ« áĬ¥áī³
áĭŃ áĪµ
áĭµ áīģ
Ġáĭ° áĬĵ
ĠáĬ© áĪį
ĠáĬª áĮĪáī¥áĪ©
ĠáĮ½ áĪŃáĮį
ĠáĬ£áĭŃáīµ áĪµ
áĮĢ áĭį
ĠáĬķáĭĵ áĬº
áĪĿáĪŃ áī²
áĭħ áĪª
Ġáī°áĮĪ áĭ³
Ġáī°áĮł áīĤ
ĠáĬ£áĭŃáĬĲáīłáĪ¨ áĬķáĬķ
Ġáī°áĭĵ áĭĺ
ĠáĭĿáĮł áīĲ
ĠáĪĵáī² áī±
Ġáĭ¨áĪĽ áĬĵáĭŃ
Ġáī°áĬ½ áĪĬ
Ġáī°áĮĵ áĭĴ
áĪĬ áĬ»
áīħ áī²
ĠáĮł áī£áĭŃ
ĠáĬķáĭĵ áĬ£
ĠáĮĪáĭĽ áĭįáī²
Ġáĭ°áĮĬ áĪĺ
áĬ£áĪĿáĬķ áĬķ
Ġáī¥áĬ½ áĪįáī°
ĠáĬ£ áĮłáĬķ
ĠáĬķ áĬŃáĬķ
Ġáī ¸
ĠáĭŃ áĮĪáĪį
ĠáĭŃ áī¥áĪĭ
áĪĻ áīµ
Ġáī£ áĬ¥áī³
áĮĮ áĮĭ
ĠáĬ£áīĲáĭ² áĪĺ
ĠáĬ£áĭŃáĪ° áĪĽáĭķ
ĠáĮĭáĭľáĮł áĬĽáī³áīµ
ĠáĪķáĮ½ áĪ¨áīµ
áī¥ áĬ»
Ġáī¥ áīģ
ĠáĬŃ áī¥áĪĥáĪį
áī£ áĪĭáīµ
áĭ° áī£
áĪ³ áĪ°áĪŃ
áĭĭ áĪį
ĠáĪµáĪĪ áī²
ĠáĮĲ áĭ°áĬĵ
ĠáĪĺáĪŃ áĮĪáĪĿ
ĠáĬ£áĪľ áĬķ
ĠáĭĿáĮį áīłáĬ¦
ĠáĬ´ áĬķáĬĵ
áĮ ¶
ĠáĬ£ áįķ
áĪ¨ áĪ¨
áĭĵ áī±
ĠáĪµ áĪĽ
ĠáĪĥ áĭ²
áĪ¨áĬ½ áī¥áĭİ
ĠáĪĿáĭĥáĬĳ áĬķ
ĠáĬ¢áĬķ áī¨
ĠáĮ¨ áĭį
ĠáĬ¥áĭĭ áĭŃ
Ġáī°áĪįáĬ¥ áĬ¾
ĠáĬķ áįĭ
Ġáī Ħ
áĪĵ áīħ
áĬŃ áĭĳ
áĬŃ áĭĴ
Ġáīł áĭ²
ĠáĬł áĭ¨
Ġáī¥áĭĿ áĮįáī£áĬ¥
ĠáĬ£áĭ¨ áĬĸáīµ
Ġáī°áĭ³ áĪįáĭ©
ĠáĭŃáĬ¹ áĬĳ
ay s
ĠáĭŃáĪģ áĭ³áĬķ
ĠáĬ£ áĪ«
Ġáī¥ áĬł
ĠáĭŃ áĪ½
ĠáĬ¢ áĪįáĭİ
ĠáĬ¤ áĪĮ
ĠáĬ£áĭ¨ áĭµáĪįáĬķ
Ġ5 00
ĠáĬ£áĭĴ áĬķáī±
áĬ«áĭŃ áĭ¶
ĠáĪ¬ áĭµáĭ®
4 0
k i
ĠáĭĿ áĭĽáĪ¨áī¡
áĬ¥ áĪŀ
áĭ° áīĤ
ĠáĮį áĪ©áĪĿ
áĬĴ áĭ«
ĠáĮĪ áįħ
áĮĢ áĬķ
áĪ¨áĬ¸ áī¡
ĠáĪ© áī£
ĠáĪĺ áĭµáĪķáĬķ
ĠáĪĿ áĬĵ
Ġáī° áįĥ
ĠáĪĵ áĪ¨áĮį
ĠáĮĪ áĮ¢
Ġáĭķ áĪĽ
áīĥ áī¥
Ġáī¥áĪĿ áĭķ
áĪŃáĭµ áĬ¡
ĠáĬ¢áīµáĭ®áĮµáĭ« áĭįáĭ«áĬķ
ĠáĬ£áįĪ áĪĭáĪĭáĭŃ
áīłáĭĿ áĪĳ
ĠáĭĿáĪĺáĪį áĬ¦
áĬķáĪ³ áī¶áĪĿ
áĪŃ áĬ¹áĪĿ
Ġáĭĺ áĬĲ
áīĲ áĭ°
Ġáī¥áĪĿ áĭĿ
ĠáĬ£áĪĺ áĪªáĬ«áĬķ
Ġáī°áĭĪ áĬ¨
áįĪáĪŃ áĭµ
áĭ´ áĮį
ĠáĬĲáī¥ áĪ°áĭŃ
áĮ½áīł áĭ®
áĬ¥áīµ áī³áĭį
ĠáĬŃáĬ¢ áĪĭáī³áīµ
ĠáĬ£áĭįáĮº áĬ¡
ĠáĮ½áī¥ áīķáī²
ĠáĪµáĭĳ áĭ²
ĠáĭĿ áĪĿáĪŃ
ĠáĪĿ áĪĵáĭĿ
Ġáĭĺ áĬª
ĠáĪĵ áīłáĪ¨
ĠáĭĺáĪĪ áĭĵ
ĠáĬ£áĬķ áĮ»
áĬĵáĭŃ áīµ
ĠáĭĿáĬ¾áĬĲ áĪī
ĠáĭĿáĬ£ áī±
ĠáįĢ áĬĴ
áįįáīµ áĬĳ
ĠáĪĺáįħ áĬĵáĭķáī²
ĠáĬķáĮ½áī£ áĪĴáī±
ĠáĬķ áĪŃáĬ¥áĭ®
Ġáī¥ áįħ
áĭµ áĪİ
ĠáĭŃ áĪĵáĪį
ĠáĬ¨áĪĿ áĭĽ
áĬ¨ áīł
Ġáĭį áĪ±áĬķ
ĠáĬĶ áĪŃáĬ©áĪĿ
áĮ½áĬķ áĭķ
ĠáĮ¨ áĬĵ
Ġáĭĵáīķ áĪĿ
áĪŃ áĭ©
áīł áī²
ĠáĬŃ áīĲ
ĠáĬ¨ áī£áī¥
ĠáĬ£áī¥ áĬĲáī³áīµ
Ġáĭµ áĪŃáī¥
ĠáĪķ áī°áīµ
Ġáĭļ áĮ½
ĠáĪĿáĮħ áĪĽ
Ġ on
áĮ Ħ
áĬ£ áĬĳ
ĠáĪĥ áīł
ĠáĬº áĭµ
Ġ4 7
Ġáĭ² áĮįáĪª
áĬĵáĪį áĭµ
Ġ h
ĠáĭĿ áĪĽ
ĠáĬ¨ áĪķ
ĠáĬ¢ áĭµáĬĵ
ĠáĪµ áī³
áĬ© áĪµ
áĬ¸ áĭ±
áĭĺ áĪĺáĬķ
ĠáĪħ áĪŀáīµ
áĭĻ áĬĴ
áī´ áĭİáĪµ
Ġáī¥áĭµ áĪĿ
ĠáĬł áī²
ĠáĬķáĪĿáĮį áĪĭáĮ½
ĠáĪĿáĪħáĪĭ áĭİáĪĿ
E A
áĪ© áĪī
ĠáĪķ áĮħ
Ġáĭ° áĪĪáĭ¨
ĠáĮĬ áĪįáĭ«
ĠáĮĵ áĬĵ
ĠáĬ½áīµ áĮĪáī¥áĪŃ
ĠáĭĿáĪĵáĪĪ áįĭ
áĬħ áĬķ
Ġáī¥áĪķ áī³áĭĬ
ĠáĬķáĪŃáĬ¥ áĪµáĬ»
Ġáĭ³áĪķ áĪ®áīµ
ĠáĬķáĪĿáĭµ áĪĵáĬķ
ĠáĪĺáĮĵ áĪ°
³ áį
áĬķ áĬ»
ĠáĭĿ áįĭ
ĠáĭĿ áĮįáĪĪáĮ½
ĠáĪ° áĪīáĪµ
áĪª áĮ¹
ĠáĭĿáī° áĬĲ
ĠáĬ® áĪŃáĪµ
áīĵ áĭµ
áĪ¬ áĪĿ
áĪ¶ áĪŃ
ĠáĪ¨ áĪµ
Ġáĭľ áĪĲáĮķ
Ġáī¥áĪį áĮ½
Ġáī¢ áĪ®
ĠáĪ» áīķ
ĠáĬķáĮ¸ áĪĬ
ĠáĬ£ áĮł
áĭį áĪĪ
Ġáĭĺ áĮĪáĪįáĮįáĪį
áĭ« áĬ¥
áĮ¥ áĬķáīĢ
áĭ² áĪµ
ĠáĬ© áĬĲ
Ġáī¥áĪĿ áĪīáĬ¡
áĬ³ áĭķ
áĮĪáĪįáĮį áĪİ
ĠáĪĬ áī£
ĠáĮ¥áĬķ áī³áĭĬ
Ġáī°áĭĺ áĬŃáĪ®
ĠáĭŃáĬŃ áĬ£áĪį
Ġ $
áĬĵ áī³áīµ
Ġáī¥ áĭ¨
áĮĪ áīłáĪ©
áĭļ áĬķ
ĠáĪ° áĪĻ
áĮ» áĬķ
ĠáĭĿáī° áĪĪ
ĠáĬķáĪĿ áĪĥáī¥
áĬ£áī¥ áī²
áĬ£áĭŃ áīµ
áįĥ áĪŃ
áĮ½áĪį áĭ©
ĠáĬŃáĬĲ áī¥áĪ©
áīł áĮ¥
ĠáĬ¨ áĭ³
áĭķ áī³
áĪĽ áĪĺáĬķ
áĭĵ áīłáĭ¨
áĭĪ áī±
áĮĭ áĮĪáĪŃ
Ġáī¤ áī¶áĪĿ
ĠáĪ°áĪļ áĭĳ
ĠáĭĺáĪĺ áĬĵáīµ
at e
ĠáįĪáĭį áĪ²
ĠáĪ Ķ
áīµ áĭ®áĬķ
áĬŃ áĭİáĬķ
ĠáĭĪ áįĤ
Ġáĭĵ áĪłáĪŃ
ĠáĭĿáĭĪ áĭ°
Ġáįįáīµ áĪĵáĭĬ
ĠáįĪáĪĬ áĮ¡
ĠáĪĿáĪįáĬŃ áī³
Ġáī°áĪ°áĪļ áĭĳ
ĠáĪĵáīħ áī³áīµ
áī¥áĪŃáĪĥ áĪĿ
áĪį áįĬ
áĪµ áĮ¢
ĠáĭĿ áī¥áĪĭ
ĠáĬ¨ áĪĽáĭŃ
Ġáĭ° áĪŃáī¥
ĠáĬ¥áĬķáī° áĪĭáĭŃ
Ġáĭļ áĭ°áĪįáĭ©
ĠáĬ£áĪŃ áĪĴ
ĠáĪĵáĭŃ áĪįáĬķ
Ġáī¢ áĪįáĭ®áĬķ
Ġáī¥áīµ áĪķáīµáĬĵ
Ġáīģáįħ áĪª
ĠáĮįáī¥áĮ» áĭįáĭ«áĬķ
áī¥ áĬ¦
ĠáĪµ áĭķ
ĠáĪķ áĪįáĪĿ
ĠáĪĿáĪµ áĮįáĮĭáĪŃ
ĠáĪĺáĬķ áĮĪáĭµáī³áīµ
ĠáĪĺáĬķ áĭ°áīķ
áįĪáĪįáĮ¥ áĭİ
ĠáĭĿáĪŃ áĭĿ
ĠáĭķáĬķ áĭĪáīµ
ĠáĪķáĬŃáĪĿáĬĵ áĭĬ
áĪ¨áĮĭáĮĪ áĮ¸
ĠáĬ¤áĪį áĪ³áĬ¥
Ġáī¥áĭĽáĭķáī¥ áĬ¡
u r
áĪĿ áĮ½áĬ£
ĠáĬŃ áĪ«
ĠáĭŃ áī£áĪŃ
ĠáĪµ áĬŃáįį
Ġáīł áĮĢáīµ
áĪ² áĪ±
ĠáĪĥáĮĪáĪŃ áĬ«
ĠáĬĲáĮĪ áĪ®
ĠáĬ£áĪĺ áĪį
ĠáĮ¾ áī³
ĠáĬ¥áĬķáīµ áĬ¸áĭįáĬķ
ĠáĪĺáĪĿ áĪĥ
ĠáĬķáĬ© áĪİáĪĿ
áī¥ áĬ¥
áĭŃ áĪī
áĬĵ áĪī
áīł áī³áīµ
ĠáĭĿ áīĨ
Ġáī° áī°áĪĵ
ĠáĬ£áĭŃ áĭ°
áĮ» áĪ¨
ĠáĭĿáī° áīĵ
áĮ¦ áĬķ
ĠáĪµáĪŃ áĪĴáīµ
Ġáī°áįĪ áī²
ĠáĭįáĪī áĭ³áīµ
ĠáĬ£áĬķáīłáī¥ áī²
Ġ y
áĪŃ áĪ«áī¥
ĠáĬķ áĪ¨áĬ½áī¦
ĠáĬŃ áĪµáī°
ĠáĭĪ áįĪ
áĬ¨ áĪĭ
ĠáĬª áĪ°
ĠáĬķáĭĵ áī³áī¶áĪĿ
áĪĭáĪĪ áĪ±
ĠáĬ£áĮĪ áī£
ĠáĪķáĪĽ áīħ
Ġáī¥áī° áĬ£
áĮ¥áĭķ áĪĿ
ĠáįĪáĮ» áĪļ
¸ ı
ï ¸ı
áĮį áĪ¥
áĬ½ áĪį
ĠáĬŃáįį áīµáĬķ
áĬ¥áĭĽ áĭĿ
áĬ¨áĪĿ áĬ¡
ĠáĬŃáĬ¸ áĭ±
ĠáĬĲáĭį áĪª
ĠáĪħáĪįáĭį áĬĵ
ĠáĪĺáĬķáĬ¥áĪ° áĭ«áīµáĬķ
Ġ Ã
ĠáĬ£ áĪ®áĬķáĬķ
áī° áĪ«
Ġáī¥ áĪ°áī¥
áĪĽ áĭŃáĬķ
Ġáīµ áĪĺ
áīķ áĪĽ
áĬ¢ áĪİáĪĿ
ĠáĬķáĪĿ áĬŃáĪįáĬ»áĪį
ĠáĪļ áĭĽ
áĪŃáĭ« áĪĿáĬķ
ĠáĪĺáĪŃ áĬ£áĭ«
áįķ áĭ©
ĠáĪĺáĪĪ áĬŃáĭĴ
Ġáīª áĭĽ
áĪķáĮįáĭĺ áĬ©áĪĿ
ĠáĭķáĮ½ áįĬ
ĠáĬ¥ áĪįáĪį
áĬĵ áĮį
ĠáĭŃ áĭ°
ĠáĪµ áĮīáĪĿ
ĠáĮį áīłáĪ¨
ĠáĬ© áĪĭ
ĠáĭĿáĭĵ áĪĪáĪĺ
ĠáĮ¸áĬĴ áĪĵ
Ġáī¥áīµ áĮįáĪŃáĬĽ
Ġáĭ³áĪķ áĪ¨
Ġáī°áī³áĪĴ áĭĻ
ĠáĪµáīµáĪ« áī°áĮĤ
ĠáĬ£áĭŃáī°áĪŃ áįįáĬķ
ĠáĪĺáĪ® áĪŃ
ĠáįĵáĪŃ áĪĭáĪĽ
Ŀ ¤
ĠáĭĿ áįĭáĬķ
ĠáĭĿ áĪķáĮįáĭĿ
ĠáĬ¤ áĪ¨áĭŃ
ĠáĬ¨áĭŃ áĬ¨áĭįáĬķ
ĠáĭĵáĭŃ áĬĲáĭŃ
ĠáĭµáĪĿ áĮ½
ĠáĬķáĬ¸ áĪĿ
ĠáĬ¨áĭį áĪĴ
ê¬ ĥ
ĠáĭĪáĬª áĪį
áĬĲ áĮĪáĪŃ
ĠáĬŃ áīĲáĪŃáī¥
ĠáĬ¨ áĮĭáĮ¥áĪĿ
áĪ« áįį
ĠáĭĪ áĪĥáī¢
ĠáĪĥ áĭĭáĪħ
ĠáĬŃáĬķ áįĪáĪįáĮ¥
ĠáĮ½ áĪĴáįī
ĠáĪ³ áĪ«
áĭĽáĪ¨ áī¥áĬķ
áĬ£áīµ áĭį
ĠáĬ° áĭŃáĬĲ
áīģ áĪį
Ġáī°áĪĵ áī³áī²
ĠáĭĪáĪ² áĬĳ
ĠáĪķáĪĻ áĪĽáīµ
ĠáĬķ áĭµáĪķ
ĠáĪĺ áĮĢáĪĺ
áĪĵ áĪĭ
ĠáĪ° áĬ£áĬķ
Ġáīµ áĬĲ
Ġáĭ° áĬł
áī³áĭŃ áĬķ
ĠáĬķáĪ± áĭįáĬķ
ĠáĬ£áĭŃáīµ áīłáĪį
ĠáĪĺáĮ½ áĪĶáīµ
ĠáĬ£áĭŃáĬĲ áīłáĪ©áĬķ
áĬķáīĢ áĪ³
ĠáĬ£áīł áĪ³
ĠáĬ¥áĬķáĭµ áĪķáĪª
ĠáĭįáĪĳ áĪµ
ĠáĭŃáĬ¸ áĭ±
ĠáĮįáĭļ áĬ¡
ĠáĬķáĮ½áī¥ áĪĴáī±
3 5
e b
áī¥ áĭĿ
ĠáĬ£ áīħ
áī° áī¶
áĬĵ áĭĬáīµ
ĠáĪĺ áĮİ
áĭµ áĬĲ
áĭµ áī³áīµ
áĭĵ áĪĺáīµ
Ġáĭµ áĬ¹áĪĿ
ĠáĬ¨áĪĿ áĭĻáĭŃ
áĬ¸ áĪī
áĬ¾ áĬĲáīµ
áīĥ áĪķ
áĪĳ áĪį
áĪ¨áĬ½ áīłáĬķ
ĠáįĬ áĭ°áĪĭáīµ
ĠáĮĪáĭ² áįī
Ġáī°áĪ³ áī²
ĠáįįáĮ» áĪĺáī³áīµ
ĠáĮ ¦
áĪĪ áĬĽ
áīł áĮ½áĪĳ
ĠáĭĿ áĬ«áĭ¨
ĠáĭĿ áįĢáĬķ
ĠáĬķ áĮĪáĪŃ
ĠáĪĺ áĬł
áĮį áīłáĪ©
Ġáī° áįĪáĪį
áĭĿ áĭ°áĬķáīµ
ĠáĬ£áĭŃ áīħ
ĠáīĢ áĪĪ
áĮįáĭ° áĭµ
ĠáĬ£áĪŃ áī£áĭķ
ĠáĬ¥áĬķáĬ¨ áĪĭ
ĠáĮ¥áĪŃ áĮ£
ĠáĬķáĭµáĬ» áī³áīµ
áĪĵáĭ¨ áĪ½
áį ĳ
Ġáĭĺ áĬ¥
áĭ³ áĭįáĭ«áĬķ
ĠáĬ© áĪĭáī¶áĪĿ
ĠáĭĵáĪĺ áī±
ĠáĪĿáĪ³ áĬº
ĠáĬŃáĪħ áī¡
ĠáĪĿáĮį áĪĭ
ĠáĭĿáĭį áĭķáĪį
áīĭáĪŃ áĮ½
ĠáĪĵáĭĪ áĪįáī²
ĠáĭĿáĭĵáīł áĬ¹áĭİáĬķ
ĠáĭĿáī°áĭĪáĪĪáĭµ áĬ©áĭİ
Ġáī°áĮĪáĭ³ áĪµáĬĲáīµ
t e
áĪĽ áĪķ
ĠáĮį áĪī
áĬ© áĪĭ
ĠáĪħ áĪīáĭį
ĠáĪĵáĭį áĬĵ
Ġáī² áīª
ĠáĪĺáĬķáĮįáĪ¥ áī²
ĠáĬ«áī¶áĪĬ áĬ«
áĪį áĮĭáĪį
áĮĪ áĪ«áīµ
ĠáĬĲ áĮº
Ġáĭµ áĪĭáĭŃ
ĠáĬ¨áĪĿ áĮ½áĬ¥
áĬĴ áĬĳ
ĠáĬł áī¦
áī£áĪŃ áĬķ
ĠáĪŀ áĮĪáĪµ
áĮħ áĪĿ
ĠáĪµáĪŃ áĪĵáīµ
ĠáĬ£áĭ¨ áĭµáĪį
áīģ áĪŃ
ĠáĬŃáĪĿ áĪĪáĪ±
áĪĵáĭµ áĮĪ
ĠáĬŃ áĪĭ
áĪħ áĭ²
áīĳ áĬķ
Ġáī°áĪĵ áī²
ĠáĪĿáĮ½ áī£áĭŃ
ĠáĪĿáĪµáĬŃáĪŃ áĬĲáīµ
Ġáī°áĬ½ áĪĪ
Ġ K
Ġ 00
ĠáĬŃ áī¥áĪĪáĬ«
áĪĺ áĪĺ
áĮĪ áĭĽ
Ġáīħ áĭĭ
ĠáĮįáĭľ áĬĵ
ĠáĬ£áī¦ áĬ¦áĪĿ
Ġáī¥áĪį áĭĴ
áĭµáĪįáĭ¨ áĬ«
Ġáĭ°áĮĬ áĪĻ
ĠáĭŃáĭĿ áĬ¨áĪŃ
ĠáĪķáĭŃáĭĪ áīµáĬķ
Ġáĭ°áĪ´ áīµ
ĠáĬ£áĭŃáīµáĪ¨áĪµ áĭĳ
áīµ áĬĲáīµ
áĬ£ áī³áīµ
áĮį áĪķ
áĭĭ áĪĭ
Ġáĭķ áĪĭáĭĬ
ĠáĮ¸ áĪĬáĪĿ
ĠáĬ¥áī° áĮ»áĪķáįĪ
ĠáĪĺáĮº áĬł
Ġáī°áĭĵ áĭļ
ĠáĮĪáĭ² áįįáĬ«
áĪĪ áĭª
ĠáĭĿ áĮĢáĪĺáĪŃ
áĭį áĪĥáĬķáĪµ
Ġáĭĵ áĭ°
áĪħ áĭ®
áĪħ áĭĿáī¢
Ġáī¥áĭĿ áĪŃáĭĿáĪŃ
ĠáĮł áĪĺáī°
ĠáĪĿáĬ¥ áĪĽáĬķ
ĠáīĲ áĪ¨áī£
Ġáįįáīµ áĪķ
Ġáī¥áīµ áĭķ
ĠáĪ» áĭķáī¥áĭ«
áĬµ áĪŃ
áĪĿáĪĪ áĪ±
ĠáĬ£áĭĪ áĭ³áīµ
ĠáĪĺáįįáīµ áĪķ
Ġáī°áīĲáī¢ áĪī
áīµáĬķáĪµ áĬ¡
Ã ¤
áīł áĪ«áĬķ
áĬ¥ áĭ³
áĭĿ áĬŃ
áĭĺ áĪ®
áĭ¶ áĪµ
ĠáĬ¥áĮįáĭļ áĬ£
Ġ5 5
áĪ¥ áĬ¥
ĠáĭĿáīĲ áĪŃáī¥
áī¨ áĪŃ
ĠáĭĿáī°áĭĪ áĪ°
ĠáĪĿáĪģ áĪŃ
ĠáĭĿáīĳ áĮ¸áĪ©
3 2
áī° áĪĺ
áĪµ áī´áĪŃ
ĠáĬķ áįĪáĪŃ
áĮ½ áĪĻ
ĠáĪķ áī³áĪĿ
Ġáī¥áĪµ áĮĭ
ĠáĬ¢áĬķáī°áĪŃ áĬĶáīµ
ĠáĭŃáĮįáī¥ áĬ£áĬĵ
Ġáī¥áĪĦ áĪ«áĭĬ
Ġáī¥áĮ¹ áĬ£áĬķ
Ġáĭĵáĭĭ áī°
Ġáĭ Ķ
Ġáĭĺ áĪħ
ĠáĭŃ áĭĢáĬĳ
áīĢ áĪī
ĠáįĪ áĮł
ĠáĬ¤ áĪŃáĪĿáĭ«áĪµ
áĮİ áĬķ
áīłáĪį áĮ½
Ġáĭ² áĬº
ĠáĮĢáĪļ áĪŃáĬ«
ĠáĬ½áĬķ áĮĪáī¥áĪŃ
ĠáĬŃáĪħáĪį áĭī
ĠáĬ®áĪĿ áįĴ
áĪĺáĪĵ áĭ¨
ĠáĭĿáĭķ áĭµáĪļ
ĠáĬķáĪĺáĮĢáĪĺáĪŃ áī³
áī¥ áĭķ
ĠáĬķ áĪ°áĪŃáĪķ
áĪĺ áĬķáī²
áĮį áĪ³
Ġáī° áīĽ
áĪ° áĪ¨
áĭ³ áĪİ
Ġáīµ áĭįáĪį
áĪ® áĬĴ
Ġáĭį áĪ°áĭµ
ĠáīĢ áĪ¨
áĭĥ áĬķ
ĠáĮĢáĪļ áĪŃáĬĵ
ĠáĪĺáī¥áĭĽ áĪķáī²
Ġáī¥áīĲ áĬķáĭ±
ĠáĪĺáĪ³ áĪŃáĪķ
ĠáĪī áīĥáĪµ
ĠáĪ°áĪĿ áĭĲ
ĠáĭĺáĪį áĬ£áĪĪáĪĿ
ĠáĪĺáĪĿáĪħ áĪ«áĬķ
Ġáī¥ áĮ¥áĬķ
Ġáĭĺ áĭĭ
ĠáĭŃ áĬ£áĪĿáĬĳ
ĠáĬ£áĭŃ áĪŃ
Ġáĭ¨ áĮĪáĪįáĮįáĪį
ĠáĭĿáī° áĪ°áĪŃáĪĲ
áī¥áĪŃ áĪħ
ĠáĭĪáĭŃ áĭįáĬķ
áĪµáī² áĭ«
Ġáīħáĭ±áĪµ áĬķ
ĠáĪħáĭ« áĭĭáĬķ
ĠáĬ¥áĮį áĭĿ
ĠáĬ£áĮĪáĪįáĮįáĪİ áī³áīµ
ĠáĮĪáĬķ áĪ¸áĪį
ĠáĭĮ áī¥
ĠáĪŀáī£áĭŃ áĪį
ĠáĬķ áĬ¹áĬķ
áĬ« áĭ«
ĠáĪĵ áĮĲ
ĠáĪĵ áĪĭáĭĬ
áĭ³ áĮį
áī¢ áĪī
ĠáĮĪ áĪ¨áī¥
ĠáĮ¥ áī¥
ĠáīĢ áĭ°
ĠáĬ½ áĮĪáī¥áĪŃ
áĪĥáīł áĬ©áĪĿ
ĠáĭĿáĬĵ áĪĿ
áĪĺ áĭ°
Ġáĭĺ áĪĲ
Ġáĭĺ áįįáĪŃ
Ġáį Ĳ
áī¥áĪŃ áīµ
áĮī áĪį
ĠáĬ¥áīµ áīķ
ĠáĬŃáįį áĮłáĪŃ
ĠáĮ» áĭķáĪŃ
áĭ°áĪĪ áĬ¹
ĠáĪ°áĪļ áĭķáĬĵ
Ġáī¥áĭį áĪ½
ĠáĭĺáĭŃáī¥áĪį áĬ«
ĠáĭĺáĭµáĪįáĭ¨ áĬ«
ĠáĭŃáĮįáīłáĪ¨ áĪįáĬĵ
ĠáĬķ áĬŃáĪįáī°
Ġáī¥ áĪ±
áĪĺ áī³
áįį áĮłáĪŃ
áĮ½ áīłáīµ
Ġáīµ áĪĳ
ĠáĬ¥áĬķáī° áĬ£
ĠáĬŃáīµ áĪŃ
ĠáĬ® áĭŃáĬĲáĬķ
ĠáĮįáĭľ áĬ¡
ĠáĬ¤ áĪ¨
ĠáĪĺáĮº áĬ£
ĠáįĪáī° áĭį
Ġáĭŀáī£ áī³áīµ
ĠáĪĺáĪĵ áĪĺáĭµ
ĠáĭĿáĭ°áĪĪ áĭ®
ĠáĪĿáĪģ áĪ«áīµ
ĠáĬ£áĮĭáĬķ áĬķáī²
ĠáĭĵáĪłáĪŃ áī°
Ġ ]
ĠáĬ£áĭŃ áĮ¸
Ġáĭĵ áĪĭáĪĽ
áĬ¨ áī°
áį£ -
ĠáīĢ áĮ½áĪį
áįĭ áī±
ĠáĬ¨áĪĿáĭĿ áĭĪ
ĠáĬ¥áĬķáĬ¨ áĪĪáĬ¹
ĠáĬĲáī¥ áĪ°
Ġáī°áĭĭ áĪħáĭ¶
Ġáī¥áĬ½ áī¥áĪ¨áīµ
ĠáĬķ áĮįáĭļáĬ¡
ĠáĬ¨ áĪĽáĬķ
áĮį áĭ±
áĮį áĭľ
áĪ° áĪįáĬ«
áĬ» áĬº
Ġáīµ áĬķáī³
Ġáĭļ áĬ½áĬ¥áĪī
ĠáĬ® áĪĻáĬķ
áĪŃáĪµ áĭķ
ĠáĮĪáĬķáĭĺ áī¥áĬķ
áīĴ áĭ±
ĠáĪĺáĬķáĮįáĪµ áī±
ĠáĬ£áī¡ áĬ¡
ĠáĪįáĬ¢ áĬ¹
Ġáīµáįħ áī¢áīµ
áīµ áĪĿ
ĠáĪĿ áī¥áĪĭáĭķ
Ġáĭĺ áĪ¨
ĠáĪ° áĭį
ĠáĮĪ áĪ¨
ĠáĪĥ áĪį
Ġáī¥áĭĽáĭķáī£ áĭŃ
ĠáĬº áĭĪ
Ġáī¥áĪŃ áī³
ĠáĪ² áĪ¶
Ġáįĵ áĪµáįĸáĪŃáīµ
Ġáī¥áĪ° áĪĪáĪµáī°
on t
ĠáĮįáĭĿ áĭ«áĭĬ
ĠáĭŃáĬ¹ áĬĲ
ĠáĪĺáĮĵ áĭĵáĭĿáĭ«
áĪĿ áĬ¥
áĪ½ áĪ®
Ġáĭļ áĬ£áĪĿáĬĳ
Ġáī¥áĪĿ áĮ½
ĠáĬ¥áĮįáĭļ áĬ¦
ĠáĬķáĪ° áĪĭáĪĿ
áĪĵáĪµ áī¦
Ġáī°áĭ° áįĬ
ĠáĬ£áī² áĬ»
ww w
3 3
o l
áĮį áĪ®áĪĿ
ĠáĭŃ áĬ£áĪĿáĬķ
ĠáĬĵáĭŃ áĭŀáĪĿ
Ġáīł áīµáĪª
Ġáĭļ áĬķ
ĠáĮ¥ áĪį
áĭī áĭ«áĬķ
Ġáĭ¶ áĬĵáĪįáĭµ
áĪ´ áĬķ
ĠáĬ»áī¥ áĬ¡
ĠáĪĿáĪĿ áĪ«áĮ½
ĠáīĲ áĬķáĭ²
ĠáĪ± áĭ³
ĠáīµáĬķ áī¢
áĮįáĬķ áĬĲáīµ
ĠáĬ£áī° áĭī
ĠáīĢáĪįáĮ¢ áįįáĬ«
Ġáī£áĪŃ áĭķ
ĠáĬ£áĭ¨áĭµáĪįáĭ¨ áĬ«áĬķ
áĮ¸áī£áĪŃ áīķ
d e
áĪĪ áĪĬ
áĪĭ áĮ¦áĪµ
áĭ¨ áĮ¥
áīķ áĪĪ
ĠáĬŃáīµ áĪĵáīµáīµ
ĠáĭĪáĭŃ áĪį
Ġáī¥áĭĻ áĬĥáīµ
ĠáĪĺáĪŃ áĪĵ
ĠáĪĺáĭĪáĭ³áĬ¥áī³ áĬ¡
áĭħ áĬķ
ĠáĬ£áĭŃáĪĿ áī°
ĠáĬķáī³ áĪķáī²
áĪĺáĭĵáĪį áī±
i a
ĠáĬ¥ áĬ¨
ĠáĮ ²
ĠáĬŃ áĪĵáĪµáī¥
ĠáĪĵ áĬ«áĭŃ
ĠáĪµ áĪ¨
áĬ» áĪŃ
áĭ¨ áĭµ
Ġáīł áĮ»
Ġáīł áĭħáĪª
áĭ² áĭ±
áīĲ áĪį
Ġáĭķ áĪµ
ĠáĬ¥áĬĵ áĪĵ
ĠáĬķáĬ£ áĬĵ
áī£áī¥ áĪ«
Ġáī°áĪ° áĬª
áĪķáĪį áĭī
ĠáĪ± áīķ
ĠáĭĿáīĲ áĪŃ
ĠáĪĿáĭĿ áĮĪáī£
ĠáĭŃáĪĺáĪµ áĪĪáĬ©áĪĿ
ĠáĬķáĭĺáĪĪ áĭĵáĪĪáĪĿ
áĮ¥áīĢáĪĻ áĪī
ĠáĪĺáĬĵáįį áĪµáī²
Ġáī°áĮłáĬķáīĢ áīĳ
ĠáĬ¥ áĬ¹áĪĿ
áĬ¥ áĪ°
ĠáĬŃ áīĲáīµ
áĪ¨ áĭ©
áĪĭ áĪķáī³
áįį áĬ¡
Ġáī° áĪŀ
áĪ² áĪī
ĠáĬŃáīµ áĬĲ
Ġáĭķ áĪĭáĪĿ
áįĭ áĭĬ
ĠáĬª áĪĿ
ĠáĬ¥áīµ áĬĲáī¥áĪŃ
Ġáĭ³ áĪħ
Ġáĭ¶ áī£áīµ
Ġáĭŀ áī£áĭĬ
ĠáĪĺáĬ¨ áĪĭáĬ¸
ĠáĬ¥áĬķáī°áĪĥáĪį áĭ©
ĠáĪĬáī£ áĬĸáĪµ
ĠáĬķ áĭĽáĪ¨áī¥
Ġáī¥ áĮ½áĪĳáįį
ĠáĬŃ áĪĵáīµáīµ
Ġáī ¨
ĠáĬĵ áĭįáī²
ĠáĪĵ áĪĵ
ĠáĭŃ áĪį
ĠáĪµ áįĸáĪŃ
áĬ¡ áĭŃ
ĠáĬŃáīµ áĬ®áĬĳ
áĮĪáī¥ áĪª
ĠáĪĪ áĬķ
ĠáĭĿáĭĪ áĮ½áĬ¥
ĠáĭįáĪ½ áĮ¥áĬĵ
áĮ¥áīĢ áĪµ
Ġáīłáī¥ áĭĵáĪĺáī±
ĠáĪ¥ áĪ«áĪķ
Ġáī¥áĬ¸áĪĿ áĬ¡
ĠáĭĪáĬ¨ áįİáĪĿ
áĭŃ áĬĵáĬķ
ĠáĬ£ áĭ°áĬķ
ĠáĬ¨ áĬķáī¥
áĭį áĭ©
áĮį áī¦
ĠáĭŃ áĪ³
áįĪ áĮ¥áĪ®
áīĤ áīķ
ĠáĬ® áĬķáĬ«
ĠáįĪ áĭ°áĪ«
áĭµáĪķ áĬĲáĬĵ
Ġáī°áĪĵ áī³áīµ
ĠáĬ¥áĬķáĭ³ áīłáĪĪ
Ġáī¥áĭĵ áĭĪáīµ
áĮįáĪĬáĭĿ áĬĽ
ĠáĬ£áĪ¨ áĮĬáīµ
ĠáĪĵáĮĭ áĭŃ
ĠáĬ£áīĵ áĪįáī¦
ĠáįĸáĪİ áī²áĬ«áĭĬ
ĠáĪĨáī´ áĪį
ĠáĬ£ áĮ£
Ġáī¥ áĪ°áĭŃ
áĬ£ áĪ½áī±
Ġáĭĺ áĭĿ
Ġáĭĺ áĭ°áĬķ
ĠáĬ¢ áĬ©áĪĿ
Ġáĭ° áĪŀáĬŃáĪ«áĪµáĭ«áĭĬ
ĠáĮĪ áĪ©
ĠáĬŃáīµ áĪµ
ĠáĬ® áī³
ĠáĬ¤ áĪĿáī£áĪ²
ĠáĪ¨ áĮĬ
áĪľ áĪªáĬ«
áįĥ áĪķ
ĠáĭĪáĪ¨ áĭ°
ĠáĬ£áĭķ áĭĭáįį
ĠáĬĥ áĭŃáĪĬ
ĠáĬ®áĪĿ áĭ©áĬķ
ĠáĪĺáĮĪ áĭ±
ĠáĬ«áĪŃ áī³
o w
áĬķ áĭĵ
áĬĵ áĭ®áĬķ
áįį áĪĭáĮ¥
Ġáĭĺ áĪµáī°
Ġáĭļ áĪ°
ĠáĪĵáĭ° áĬ³
áĪ¸ áĭŃ
Ġáī°áĪĺ áĪĪáĪ±
Ġ4 9
ĠáĪ°áĪļ áĭĸáĪĿ
ĠáĪĿáīķ áĭ«áĪŃ
áĭĪáĪŃ áīĤ
Ġáī¥áĪī áĮ»áīµ
ĠáĭĿáĭ°áĪĪ áĭ¨
Ġp ost
ĠáĮ¸áĪĵáįį áī²
ĠáĪĿáĭŃáĭŃ áĮ¥
ĠáĬķ áĭĴ
ĠáĬ¨ áīķáĪŃáī¥
Ġáī° áĭĽáĪ¨áī¦áĪĿ
ĠáĪĵ áĪ³áĭĬ
áįĪ áĮ¥
Ġáīµ áĪķáīµ
ĠáĮ¸ áĪŃáįĬ
ĠáĬª áĬ¸áĭŃáĭµ
áĪĲ áĭµ
ĠáīħáĭµáĪļ áīµ
áĪ«áĬķ áĪµ
áįķ áĪ¨
Ġáī°áĪ¨ áĭ²áĬ¡
ĠáĪĿáĪħ áĭŀ
áīĿ áĮ¸áĪ©
ĠáĮīáĭµ áĪĪáīµ
ĠáĬ¢áĬķáī¨ áĪµáīµ
ĠáĬ¨ áīµ
ĠáĬĲ áĬĲ
áĪ° áĪİáĪĿ
áįĪ áĬ«
áĮ» áĬĵáīµ
ĠáĬ¥áĬķáī° áĪµ
ĠáĬ¨áĭŃ áĪĵ
ĠáĬķáĪµ áĪĪ
áĮ½áĬ¥ áĭİ
ĠáĬ£áįį áĭ°áĮĪ
áī¥áĪĪ áĪī
ĠáĮĪáĪĬ áįģ
Ġáī°áīĲ áĭŃáĪ©
áįĢ áĪĿ
ĠáĪĵáĭŃ áĪī
áĮŃ áĬĲáīķ
ĠáĪĺáįħ áĪĵáįį
ĠáĪŃáĪķ áīĢáīµ
ĠáĪ°áĪľ áĬĵáĭĬ
áĪ Ł
áĭŃ áĪ®áĪĿ
áī³ áĪĬ
Ġáīµ áĮĪáī¥áĪ®
ĠáĪķ áĪ±áĪĿ
Ġáīł áĪĭáĭķ
Ġáĭļ áĮĪáī¥áĪ©
Ġáĭķ áĮįáĪŃ
ĠáĪŃ áĬ£áĭ©
áīĸ áīµ
ĠáĮ¸áĬĴ áĪķáĬĵ
Ġáī°áĭĽ áĭļáĪĻ
ĠáĬ£áĬ½ áī¢
ĠáĭĿáī°áĭĪ áĪĪ
19 9
ĠáĭĤ áĪİáĪĿ
ĠáĬ£áĭĴáĬķ áī°áĭŃ
ĠáĬ£áĭŃáīµáįįáĪŃ áĪģ
ĠáĪĿáįįáĪį áĪĭáĭŃ
" áį¡
/ /
u s
áĬ Ĥ
ĠáĬ£ áĪĵ
ĠáĬķ áĭľ
ĠáĪĵ áĭµáĪķáĭµ
ĠáĪķ áĪ±
áĭ² áĪī
áĬł áĪĪáĪĿ
ĠáĪŃ áĮī
ĠáĭĿáĪĵ áĪµáī¥
ĠáĬķáĪ³ áī°áĬķ
Ġáī°áįĪ áĮ¢
ĠáĬ£áī¢ áĭŃ
ĠáĮįáī¥ áĪ«áĭĬ
Ġáī¥áĭĿáī° áįĪáĪĭáĪĪáĭ©
ĠáĬ«áī£ áī³áī¶áĪĿ
Ġáĭĺáįį áĮ¥áĪ¨áīµ
Ġáĭĺáīķ áĪ¨áī¥
ĠáĭŃ áĪ¨áĬŃáī¥
áĮĭ áīµ
ĠáĭĺáĭŃ áĬ¨áĭįáĬķ
ĠáĭĿáī° áĭĪáĪµáĭ°
áĮĪáĪŃ áĪĺáĬĴ
ĠáĮ¸ áĮ¥
ĠáĬª áī¥áĪį
ĠáĪŃ áī¥áĭĴ
ĠáĪ¨áĬº áī¦áĪĿ
ĠáĪĿáĪŃáĮ« áī³áīµ
ĠáĭŃáĮ½ áĭĭáĭķ
ĠáĬ®áĭŃáĬķ áĬĵ
ĠáĬ£áĬ«áĭŃ áĭ±
ĠáĭŃáīłáĪį áĮ½
Ġáīłáĭĵ áĪĭáīµ
ĠáĮ³áĮ³ áĪ³áīµ
áĪŃáī¶ áĭ¶
áĬ¥ áĪ½
áĪĺ áī±
áĪĭ áī³
ĠáĬĲ áĪħ
Ġáī° áĭĽáĪ¨áī¡
ĠáĭŃ áĪħáĪī
ĠáĭĪ áĪĪáĬķ
ĠáĬ½ áĬĲ
ĠáĭĪáĪĪ áĭ°áĭŃ
áĪ¨áĮĭ áĮĬ
Ġáī¥áĪ° áĪĽáĭŃ
ĠáĪĵáĪŃ áīłáĬĽ
Ġáī¥áĪĿáĬķ áī£áĪ©
ĠD e
ĠáĬ£áĭ´ áī³áīµ
Ġáĭĵáĭµ áī³áīµ
ĠáĬ¥áĬķáĬŃ áī¥áĪī
áĬ¥áĮįáĭļáĬ£áī¥ áĪĦáĪŃ
Ġáī¥ áĮĬ
Ġáī¥ áĪ¥
áĭµ áĬ¦
áįĪ áĪĭ
áĪª áĬ£
Ġáīµ áĭ°áĪį
Ġáīłáĭļ áĪĳ
Ġáī°áĮĪ áĪª
ĠáĬķáĮį áĪµáī²
ĠáįĬ áĪį
Ġáī°áĬ¸ áī²
ĠáĭŃáĭį áĪµáĬ½
ĠáĬ£áĬķáĪµ áīµáĬķ
> >
ĠáĬ¥ áĬ«
áĪĪ áī³áīµ
Ġáī¥ áīµáĬķ
Ġáī¥ áĬ¤
áĬ¥ áĬŃ
ĠáĪĺ áĪĲ
áĬ£ áĬ¥áĪĿáĪ®
áĪ« áī¶áĪĿ
ĠáĪĵ áĭļ
áĪĵ áĭļ
ĠáĬ£áĭŃ áĪģáĭ³
áĬ¸ áĬķ
ĠáĬ¥áĬķáī° áĪĵ
ĠáĭĿáī° áĮĪáĪįáĮ¸
áĪĻ áĬķáĬķ
ĠáĬª áĪµ
ĠáįĪ áĬĲáĭĪ
Ġáĭ³ áĭĬ
ĠáĪĿáĭį áĪħ
áīĿ áī£
ĠáĬ£áĭŃáĬŃ áĬ£
ĠáĬ£áīĲáĭ² áĪĿáĬ«
ĠáĪĺáĪĵ áĪª
ĠáĬķáĪĵáĭµáĪķ áĭµáĬĵ
ĠáįĸáĪĪ áī²áĬ¨
ĠáĬķáĪĿáĪĿáĪĭ áĪµ
ĠáĮłáīł áīĵ
v er
áīł áĪ¬áī³
ĠáĪĿ áĪįáĬ«áĭĬ
ĠáĬ¨ áĮĭáĮ¥
áĪĺ áĬ©áĪĿ
áĬŃ áĪī
áĮĭ áĮłáĪĺ
áĪĥ áĪĿ
áĮĵ áĪĿ
ĠáĬ¨áĪĿáĭĺ áĭ¨
ĠáĪĺáīķ áĭ°
ti n
ĠáīµáĮ½ áī¢
ĠáĭľáĮĭ áĮ¥
ĠB BC
ĠáĪº áĪķ
Ġáī°áĭĭáĪ³ áĬ¥áī²
ĠáĭĿáĪĪáĬ£áĬ¸ áĬĴ
áĪķ áĬ©áĪĿ
ĠáĮį áī¥áĪ©
ĠáĭĪ áĪ«áĪŃ
Ġáĭ° áĪįáĭ®áĪĿ
ĠáĮĪ áīłáĪ®
ĠáĪĽ áĬħ
ĠáĬŃáīµ áĬ£áī±
Ġáĭķ áĪ¨áįį
ĠáĭĵáĪĺ áĮ»
ĠáĭµáĪķáĪª áīµ
Ġáī¥áĪ° áįĬáĪĳ
ĠáįĪáĮº áĪĺ
ĠáĭĿáĪ¨áĬ£ áĭ¨
Ġáĭ°áīħ áĬ¹áĪĿ
ĠáĭĽáĭķáī£ áī³áīµ
ĠáĮįáĪĿ áī¢
ĠáĮĪáĭļ áįį
ĠáĬ¥ áĬĶ
áīł áĬª
Ġáī¥ áĬ«áĪįáĬ¥
ĠáĪĿ áĪ°
áĪ¨ áĭ«
áįĪ áĪİ
ĠáĭĿáī° áĮ»áĪķáįĪ
áĬĸ áĪĿáĬķ
áĬ£áī¥ áĬĲáīµ
áĪ°áĪŃ áĪĸ
ĠáĬ£áī¢ áĪĭ
âĢ ¢
ĠáĬ£áĪµáī° áĪĿáĪħáĪ®
ĠáĬ¨áī¥ áĭ²
ĠáĪĺáĭĭ áĬ¥áĪį
ĠáĭĿáĬķ áī£
Ġáī°áĪĭ áĭĴáĪī
ĠáĬ£áĮĨ áĬ»
áī¥ áī£áĭķ
ĠáĭĿ áĮ¥
áĭµ áĬł
áĪķ áĪŃ
ĠáĬĵ áĭĿ
ĠáĪµ áĭµáĪŃ
ĠáĬ¥áĬķáī° áĭĢ
ĠáĬ¥áĪĿ áĬĲáīµáĬķ
ĠáĬĲáįį áĪ°
ĠáĬķáĪĽ áĪķ
ĠáĭĿáī£ áĪĥáĪį
áĮ¥áĪķ áĪ±
ĠáĪĺáĬ¨áĪĭáĬ¸ áĪĬ
R E
Ġáī¥ áĪŀ
Ġáī ĭ
ĠáĬĵ áĭķáī¢
áĬ¨ áĪ²
ĠáĪĽ áĭĵáĪįáī²
Ġáĭį áĮº
ĠáĮ¸ áĭĵáīµ
ĠáįĪ áĪ¨áĪµ
ĠáĬķáĪĿ áīħ
ĠáĬ¤ áĪĬ
ĠáĪĪ áĬ£áĬ¸
ĠáĪŃáĬ¥ áĪµáĬ¹áĪĿ
ĠáĪĺáĪ° áĪī
ĠáĮł áĪĬ
áĪ» áī¥
ĠáĬ£áī¦ áĬķ
ĠáĪĿáĪ³ áĪķ
áĭ°áĪĪ áĭ¨
ĠáĪĺáĪµáī° áĬķ
ĠáĮ ¤
Ġáī¥ áī£áĪħ
áįĪ áĪĬ
áĮ½ áī¡áīķ
ĠáĮĪ áĮłáĪŃ
ĠáĮĪ áĮ¾áĪĿ
ĠáĭĿáī° áīĢ
áįĬ áĪį
áĪ» áĬķ
Ġáĭ°áĪŃ áĪĨ
ĠáĭĿáĮ¸ áĪį
Ġáī¥áĪ© áĪŃ
ĠáĭĿáĬ¸áīłáĪŃ áĬ©áĪĿ
áį ²áį
áĪĪ áĪŃ
ĠáĪĿ áīµáĬķ
ĠáĭŃ áĭĵ
ĠáĭĺáĭŃ áĭį
áīłáĪŃ áĬķ
áĬ¢ áĬĳ
áĭĳ áĭŃ
ĠáĬ¥áĬĵ áīłáĪįáĬ«
áĪĮ áĬķ
áĪ°áī¥ áĬķ
áĪŃáĬĵ áĭķ
ĠáĬ£áī¢ áĪįáĬĵ
Ġáī¥áĪį áī¢
ĠáĬ£áīĲ áĪļ
ĠáĪĺáĪ³ áįįáĬķáī²
ĠáĬ¸áĭŃ áīµ
ĠáĪ°áĪĽáĭķ áĬ©
áī° áĬĲ
ĠáĭĿ áĪħáĪī
ĠáĬķ áįįáĪŃ
Ġáĭĺ áĪĺáĪįáĬŃáīµ
Ġáī° áĪĮáįİáĬķ
ĠáĬ£áĭŃ áĬ¨áĭįáĬķáĬķ
áĬ© áĪİáĪĿ
Ġáįį áĪĪáĮ¡
Ġáīħ áĮ¥áĭĴ
áĬ¢ áĬĵ
áĮ£ áĬķáĬķ
ĠáĪ³ áī¥
ĠáĬŃáįį áĮ¸áĪĿ
Ġáīģ áĪĿáĬĲáĮĪáĪŃ
Ġáī°áĭĪ áĭ²áĬ¡
áĭķáĪį áĪį
ĠáĬ£áĪį áĭĴáĪī
ĠáĬķáĪħ áĮįáĭ°áįį
ĠáīµáĬ« áĪĭáīµáĬķ
ĠáĪĺáĪĪ áĪ±
ĠáĬ£áī°áĪĵ áĪķáĭĽ
ĠáĪ°áĪĭ áĪ³
ĠáĬ®áĪĿ áįķáĭ©
ĠáĮįáĪŃ áĪĽ
ĠáĪµáĪĿáĭĴ áī³áīµ
Ġo f
ĠáĬ¨ áĪįáī¢
áĪĭ áĪķ
áĪī áĭĭáīµ
Ġáī ĭáĬķ
ĠáĭŃ áĬ½áĬ¥áĪĭ
ĠáĬ¢ áĪįáĭİáĪĿ
áĮ½ áĪ©
ĠáĭĪ áīķ
áĭĺ áĬĽ
áĮ¸ áī£
áĪŀ áĬĵ
Ġáĭļ áĬ½
ĠáĬ¥áī° áĮłáīķ
ĠáĬ¥áĬĵ áĭĪáĪ°
ĠáĬ£áĬķ áĮĬ
Ġáī°áĭĪ áĭ²
Ġáī°áĪĽ áĪĥáĪ«áĭŃ
ĠáĬ¥áĬķáĭµ áĭĴ
ĠáĪĵáĪįáĭ® áīµ
ĠáĬ¥áĪĿáīłáĬ£ áĪŃáĬ¨áĪµ
á İ
ĠáĬ¥áĬķ áĬ³áĭķ
ĠáĭĪ áĮ¹
áĬ» áĬĳ
ĠáĭĺáĭŃ áĮį
ĠáĭĺáĭŃ áĬŃáĬ¥áĪī
Ġáĭļ áĪħáīłáĬĴ
áĭķáī£ áĪį
Ġáī¥áĪĿ áī¥
ĠáĬ¥áĪĿ áĬĲáī¶áĪĿ
áĮĪáĪį áĮĪáĪį
ĠáĪŀ áĬ£áī¥
ĠáĬ£áĬķ áĪµáīµáĭ®áĬķ
áīĨ áĬķ
ĠáĭĿáĭĪ áĪ¨
ĠáĬĲáįį áĪ±
ĠáĭŃáįį áĮ¸áĪĿ
Ġ200 7
ĠáĬķáĪĵáĭµáĪķ áĭµáĬ©áĪĿ
ĠáĮĪáĪĿ áĮĪáĪĿ
ĠáĪ°áĪ« áīĴ
ĠáĪĿáĬŃáīµ áī³áĪį
ĠáįĢáī¥ áįĥ
Ġáī¥ áĭľ
áĪĽ áĬĴ
ĠáĬĲ áĭĬ
Ġáĭ° áĪ«
áĮł áĪŃáĬĵ
Ġáĭļ áĮįáī£áĬ¥
ĠáĭĿáī° áĪĭáĭķáĪĪ
ĠáĬ¨áĪĿáĭĿ áĬ¾áĬĳ
ĠáĪĿáĪŃ áĬ®
ĠáĬ¥áĬķáĬ¨ áĪĪáĬĵ
ĠáĬ£áĪĽ áĬĴ
Ġáī¥áĪĺáĬķ áĮ½áĪŃ
áĪŃáĬŃ áĬĲáīµ
Ġáī°áĮłáīĴ áĪ±
Ġáī¥áįģ áĭĵáĬķ
ĠáĪ°áĪ¨áĮĪ áĪĭ
Ġáī°áīĲáĪĽ áĮ¦
ĠáĭĿ áĪŃáĬ¢
ĠáĬķ áĪ¸
Ġáī¥ áĭĵáĪįáī²
Ġáī¥ áĭµáĪķáĪŃ
áĪ° áĪ©
ĠáĪĥ áĭĭ
ĠáīĢ áĪ¨áĮ½
ĠáĬª áĬ¢
áįĬ áĪķ
áĪĺáĬķ áīłáĪŃ
ĠáĪ³ áĪļ
Ġáī°áĪĺ áĭ²
áĭĲ áĭŃ
ĠáĭĿáĪĺ áĮ»
ĠáĬ» áĪħáĬķ
ĠáĪĿáĪŃ áĭµáĭ³áĬ¥
áĬ° áĬĲ
ĠáĬŃáįį áīµ
ĠáĬķáĬ¹ áĪįáĬĵ
áĪįáĭĵ áĪĪ
ĠáĭĿáįį áĮłáĪŃ
Ġáĭ°áĪŃ áī¢
ĠáĬ¥áĭĿ áĬķ
ĠáĬ£áĪķáĭĭ áī°áĭŃ
ĠáīłáĮº áĪķáĬĵ
áĮĭáĮĪ áĪª
áīĲáĪŃ áī¡
Ġáĭ²áĭ« áī¥áĪİáĪµ
Ġáĭ«áĭķ áīĨáī¥
áĬĵáĭŃáīµ áĭµ
ĠáĪĥáĭĭáĪħ áĭį
ĠáĬŃ áĪµáĭķ
Ġáĭĵ áī£
ĠáĪµáĪĿ áĪ¨áīµ
ĠáĪĺáĭĪáĭ³áĬ¥áī³ áĬķ
Ġáī°áįĪ áĮ¸áĪĺ
ĠáĪĿáīµ áĬ¥áīµáī³áĭį
Ġáī¡ áĭĻáĪķ
ĠáĪ½áĪĽáĮįáĪĪ áī³áīµ
ĠáĪĵáĮĪ áĭĽáīµ
ĠáĭŃáĪµáĪĥ áīħ
áīµ áĭİ
ĠáĭĿ áĪŀ
áĭ¨ áĪİáĪĿ
ĠáĬķáĪ± áĪµ
ĠáĪ¨ áĭ²
ĠáĬ£áī¦ áī³áī¶áĪĿ
ĠáĪĺáĪŃ áĭĵáīµ
ĠáĪĺáĬķáĮİ áĬ¦áĪĿ
Ġáī°áĪ¨ áįį
ĠáĬ¥áĮį áĪ©
ĠáĪ°áĪª áĪĲ
Ġáĭ«áĬ¥ áīĨáī¥áĬķ
ĠáĪįáĬ¡ áĬ»áīµ
Ġáī¥áĭĪáĮĪ áĬĳ
ĠáĪ³áĭķáī¤ áĬĵáīµ
ĠáĪµáĭµáĪ«áī¤ áī³áīµ
ĠáĪĵáĮ¢ áĬ£
ĠáĪĿáīµáĬ¥ áĬ½
ĠáĬķ áĪŃáĬ¨áī¥
ĠáĪ° áĬĵ
Ġáīµ áīłáĪĥáĪį
áĬ¨ áĪ©
ĠáĪĺáĬķ áīĢ
áĬ® áī³áĭĬ
áĮº áĪŃ
áĪĴ áĭĻ
áĮĬ áĪ©
ĠáĬ¥áī° áįĪáĪįáĭ¨
Ġ3 00
ĠáĪĿáĪķ áĮĭáĭĿ
ĠáĬ«áī¥áĭļ áĬ¦áĪĿ
ĠáĬ£áĭŃáĬĲáīłáĪ¨ áīµáĬķ
ĠáĪŃáĬ¢ áĬ»
ĠáĭĪáĭ° áī¥
áĬ¨áī³áī° áĪį
ĠáĭļáĮĪáī¥áĪŃ áĭİ
ĠáĭĭáĬķ áĮ«
áī¥ áĪµ
ĠáĬŃ áĪŃáĬ¥áĭ®
áĬ£ áĬ¾
ĠáĪĿ áī¹
Ġáĭĺ áĮ½
ĠáĭŃ áīłáĭĿáĪķ
áĪĥ áĪµ
áĪĥ áĮĪáĪŃ
áī¡ áī²
ĠáĭĺáĭŃ áĪµ
ĠáĬª áĪķ
Ġáī¤ áī±áĬķ
ĠáĪ¨ áī¢
ĠáĬº áĭ³áĬķ
ĠáĭĪáĪĪ áĭ±
ĠáĬ£áĪĿ áĮ½áĬ¡
ĠáĬŃáĪħ áī¦
Ġáī¥áīµ áĬ½
ĠáĭŃáĪµ áĪĽáĭķ
ĠáįĪáĮº áĪŀáĪĿ
ĠáĬŃáĪ³ áĪ«
ĠáĬ¢áĪħáĭĪ áĭ°áĮį
ĠáĬ«áĪķ áĪ³
áĪµ áĬ©áĪĿ
ĠáĭĿ áĮĪáī¥áĪ¨
Ġáī¥ áĪĽáĭŃ
áĪķ áĮĬ
ĠáĪ° áĪ¨
Ġáĭµ áĪįáĭį
Ġáīł áĮ»áĪķ
áĮĭ áĬĴ
áĮ¸ áĬĵ
Ġáĭķ áĮ«
ĠáīĢ áĬĴ
ĠáīĢ áĪº
áĪĺáĪŃ áĭĵ
ĠáĪ¨ áī¥
áĭ°áĪį áĬ©áĪĿ
ĠáĬ° áĬķáĬ©
Ġáī¥áįį áĪŃ
Ġáī£áĪħ áĪįáĬĵ
Ġáī¥áĪħ áĭŃáĭĪ
ĠáĪĿáĬķáīħáĪµ áīĥáĪµ
áī³áī³ áĪĬ
áĬ¥áĮįáĭļáĬ£áī¥ áĪĶáĪŃ
áĪķ áĭ¶
ĠáĭŃ áĪ°áĪŃáĪĳ
ĠáĪķ áĪ©
Ġáĭķ áĮ¥
ĠáĮ½ áĭĭáĬ¥
áĮĬ áĪĻ
ĠáĪµáĪ«áĪķ áĬ«
ĠáĬķáĮĪ áĪ¨áĬĵ
ĠáĬ£áīĲáĭ² áĪĿáĬĵ
ĠáĪĺáĬ£ áĪµ
áĬŃáĪĪ áī³
ĠáīµáĪŃáĬ¢ áīµ
ĠáĪķáĪ° áī¡
áĬķ áīłáī¥
áī¥ áĭĻáĪķ
ĠáĬ£ áĪĽáĭķ
Ġáĭĺ áĭĪ
áĪª áĬ¹
áĭĭ áĭĬ
Ġáĭ¨ áīĲáĬķ
áīħ áĭ«
ĠáĭĿáĬĲ áĮĪáĪŃ
áĪĺáĭŃ áĪį
ĠáĮł áī£
ĠáĬ¦ áĪŃáī¶áĭ¶
ĠáĬķáĮĪ áĭĽ
Ġáįįáīĵ áĭµáĬ«
ĠáĪľ áīµáĪ®
áĮ¥áįį áĬ¦
áĪŃáĬ£ áĭ©
Ġáī°áĪĺáĪį áĬ¨áīµ
Ġáĭ°áĪĬ áĬ¹áĪĿ
áĪµáĪĪ áĭļ
Ġáĭ³áĪķ áĪ«áĭŃ
áĪĽáī´ áĭİáĪµ
ĠáĮĪáīłáĬĲ áĬĽ
ĠáĬ£áĭĭáĪį áĭµáĬķ
ĠáĬ¥ áĬĸ
ĠáĪĺ áįĭáĪŃ
ĠáĬ£áī¥ áĪĬ
ĠáĭŃ áįĪáĪĭáĪĪ
áĭ² áīĳ
áī¡ áĬ¡
ĠáĪĵáĭ° áĮĭáī³áīµ
ĠáĬĲáĮĪ áĪ®áĪĿ
áĮįáī¥ áĪ®
ĠáĭĪáĪĪ áĭµáĬĵ
ĠáĭĿáĬ½ áįĪáĪį
ĠáĬ£áī² áĬĵ
Ġáĭ´ áĪŀáĬŃáĪ«áĪ²
ĠáĮĴ áĭķáĭŀ
ĠáĮ½áĪŃáĮį áĭ«
áī¥ áĭĵáīµ
ĠáĬ¥ áįĪáĪįáĮ¦
áĬĵ áĭ®áĪĿ
ĠáĪµ áĪŀáĪĿ
Ġáĭĵ áĪĽáĭĬ
ĠáĭĺáĭŃ áī°áĪŃáįį
Ġáĭļ áĭĢáĬĳ
ĠáĭĿáī° áĪĺáĪį
áĪĻ áĪµ
ĠáĬŃáĬķ áĭ°
Ġáī¥áĭĽáĭķáī£ áĬ»
áĪŃáĬ¥ áĬķ
áĪŃáĬ¥ áĭ®áĬķ
ĠáĪ³ áĪĿáĬķ
ĠáĬ£áĭį áĪª
ĠáĪĿáįį áĮ»áĪĿ
ĠáįĸáĪĪáī²áĬ« áĭįáĬķ
áĬ«áĪį áĬ£áĭŃ
ĠáĪĬáīĥ áĭįáĬķáī²
Ġáĭ®áĬĵ áī³áĬķ
áĪĪ áĭĵáĪį
Ġáī¥ áĭµáĪķ
ĠáĪĺ áīĢ
ĠáĬŃ áĪ¨áĬł
ĠáĪĿ áĪĴ
ĠáĪĿ áĬ³áĬĳ
áįį áīķ
ĠáĮĪ áĭ³
áīłáĪŃ áĪħ
Ġáī¥áĪĿ áĬ»áĭµ
ĠáĬ£áī¥áĭļ áĬ£
ĠáĬ£áĭŃáīµ áĮįáīłáĪŃ
ĠáĪķáĮĤ áĭįáĬķ
ĠáĪļ áĬķ
ĠáĭĿáĪĺ áĪĥ
áī¥áĪ¨ áĬĵ
ĠáĬķáĪķáĬĵ áĭįáĬķ
áįĢ áĪŃ
ĠáĪĺáĭĵ áĪĻ
ĠáĪĥáĭŃáĪĽáĬĸ áī³áīµ
ĠáĪ¥ áĪŃ
ĠáĬ£áĪķáĭĭ áī°áĭ¨
áĭįáĭĵ áĪĬ
áĪµáī°áĬķ áīµáĬķ
ĠáĭŃáĮįáī£ áĭŃ
ðŁĩªðŁĩ· ðŁĩªðŁĩ·
ĠáĪĺáĪł áĪ¨áīµ
ĠáĭĵáīłáĭŃ áīµáĬķ
ĠáĭĿ áĪŃáĬ¨
ĠáĭĿ áĪĢ
áĪĺ áĪĪáĪµ
áĪ« áīħ
áĪİ áĪŀ
áĪİ áīµáĬķ
áĭĪ áĭ¨
áĭ³ áĪ°
ĠáĬ¥áĬķáī° áĬĲáīłáĪ¨
ĠáĪŃ áīµ
ĠáįĪ áĪµáī²áī«áĪį
áĮįáĭ° áĪµ
áĬŃáĬ¥ áĪįáĬķ
ĠáĬ®áĪĿ áĪ½áĬķ
ĠáĪĵáī² áī°
ĠáĬŃáĪŃáĪµáīµáĭ« áĬĵáĭĬ
ĠáĬķáĪĿáĪĿ áĪķ
ĠáĪĿáĪŃáĮįáĮĭ áĮ½
ĠáĪĿáĪĿáĪµ áĪ«áīµ
3 9
ĠáĬ¥ áī¥áĪĪáĬ«
ĠáĭĿ áįĪáĪį
ĠáĬ¨ áĭĭáĬ½áī¥áī²
áįį áĪİ
Ġáī ¬
ĠáĬĵ áī³
ĠáĮĪ áĮł
ĠáĭĺáĭŃ áīł
áĬ® áĪ°
áĪ°áĪŃ áĪĵ
áĪ°áī¥ áĬ½
ĠáĪ°áĪĪ áĪµáī²
ĠáĬ£áĬ¥ áĭĭáĪĿ
ĠáĭµáĪĿ áĮ¹
ĠáĭŃáĪĺ áĮ¹
ĠáĬ£áĪ¸ áĮĭáĪª
áĪŃ áĮĬ
ĠáĬķ áĪĺáĪį
Ġáī¥ áĬĥ
áĭµ áĬ»
áī£ áī£áĭŃ
áĭĺ áīµ
ĠáĭĺáĪĪ áĭĵáĪĪáĪĿ
ĠáĮ½ áĭĴ
ĠáĬ¤ áĪ³áĭį
áĪĲ áįį
ĠáĪ³ áĭŃáīµ
ĠáĮİ áĭŃáī³áĭŃ
ĠáĪĺáĭĪ áĭ³áĬ¥
ĠáĬ£áĪĿ áĪª
ĠáĬķáĭķ áĬ¦áĪĿ
ĠáĪĺáĪĪ áĪĪáĭª
Ġáī¥áĭķ áĪ«áĭŃ
ĠáīłáĪ¨ áĪ«
ĠáĭĿáĪ¨áĬ¸ áī¥
ĠáĮįáĭµ áĬĲáīµ
ĠáĭķáĬķáīħ áįĭáīµ
3 4
ĠáĬŃ áĭĽáĪ¨áī¡
áĬ£ áĪİáĪĿ
áĪĭ áĭĬáīµ
áĪ« áī¥áĬķ
ĠáĭŃ áī°áĪĵ
áĪĥ áĭ°áĪŃ
áĪ½ áĪ½
ĠáĪĺáĬķ áĪ½áĪ®
ĠáĪįáĭķáĪĬ áĬ¦áĪĿ
ĠáĬ£áĪµ áĪĺ
ĠáĪĺáĪŃ áĪĥ
Ġáī°áī£ áĪħáĪĪ
áĪ¨áī¥ áĪĵ
ĠáĪĺáĭĽ áĮįáī¥
áĪĿáĪĪ áĪµáĬķ
ĠáĪĺáĪµáĭĭ áĬ¥
Ġáĭ°áīħ áĬ»
ĠáĬ£áĭµáĪį áĭİ
áĪ ¢
áĬ« áĪī
ĠáĬ£áĭŃ áĮĪáīłáĪ¨
ĠáĭĪ áīķáī²
áĭĺ áī¦
Ġáīł áĭ¨áĬĵáĭŃ
áīĢ áĭŃ
Ġáī¥áĪĿ áĭµáĪª
ĠáĬĲáĭļ áĬ£
Ġáīħáĭµ áĪµáĬĵ
ĠáĪĿáĬ¥ áī³
ĠáĪµáĪŃ áĭĵáīµáĬķ
ĠáĭĪáĪĪ áĭ°
ĠáĪĿáįį áĪĭ
Ġáī¥áĪķ áĮĤ
ĠáĪĵáĭ« áĪĭáīµ
ĠáĪħáĪĭ áĭĮ
ĠáĪĵáĬ«áĭŃ áĪĿ
ĠáĭĿ áĬ¥áĭĿ
ĠáĬķ áĮ½áīł
ĠáĬķ áĪ°áĭŃáĮ£áĬķ
áĬĲ áīłáĪ®
ĠáĬŃ áĬ¨áĭįáĬķ
Ġáī° áĬ¨
ĠáĭŃ áĭĭ
áĮ½ áĭķáĪŃ
ĠáĪķ áĭµáĪķáĭµ
Ġáį Ķ
áīĲ áĪĪ
ĠáĮ¥ áĪĴ
áĪŃáĭ« áĪµ
ĠáĭĿáĪĺ áįħáĬ¥
áīłáĪĪ áĬĴ
áĪ°áĪĿ áĭĲ
Ġáįįáīķ áĪ©
áĪ°áĪŃáĪķ áĬķ
ĠáĭĿáĮ¸ áĪĵáįį
ĠáĬķáĪŃáĬ¥ áĪµáĬĵ
áĪĪáĭį áĮ¢
ĠáĬ£áĮĪáĪį áĮĬ
áĮłáĪ« áĮłáĪŃ
áĭ ¯
áĭŃ áī°
ĠáĬ£ áĪª
áĪĺ áĭĵáĪįáī²
ĠáĭŃ áĪĥáĪį
áĭĪ áī°
áĭĪ áĪĭ
ĠáĬ¥áĬķ áĪŃáĬ¥áĭ®
áĭĭ áĬ¥áī²
Ġáīł áīłáĭŃáĬĳ
áīĢ áĭµ
ĠáĪĪ áĬ¸
ĠáĬķáĪķ áī¶
ĠáĬĲáĮĪ áĪ«áīµáĬķ
áĪŃáĬ« áĬĴ
Ġ19 4
Ġáī¥áī° áĪµáįĭ
ĠáĬ£áĪĽ áĬĳáĬ¤áĪį
Ġáįħ áī£áĪķ
áĭįáĮ½ áĬ¡
Ġáī°áĪ³ áī³
Ġáī¥áĪĦ áĪ¨
Ġáī¥áĪĺáĪį áĬŃáĭĳ
ĠáĬ£áĭµáĪĭáĭŃ áĬĲáīµ
ĠáĪ°áĪļáĬĵ áĪŃ
áī¥ áĭĺáĭŃ
áĪį áĭ±
ĠáĭĿ áī¥áĪĪáĬ«
ĠáĬķ áĮĢ
Ġáĭ¨ áĭµáĪįáĭ®áĪĿ
Ġáįį áĪ¬
ĠáĬŃáĬķ áĬŃáĬ¥áĪį
ĠáĭĿáĬĲáīłáĪ¨ áĪī
áĭĲ áĬĽ
ĠáĪµáĪį áĬª
ĠáĬ¨áĪİ áĬ¹
Ġáī¥áĪĺáĬķ áĮįáĪµáī²
Ġáĭ¨áī¥áĪį áĬ©áĪĿáĬķ
Ġáĭ°áĬķ áīł
ĠáĭĿáĪĺáĪµ áĪī
ĠáĬĲáĮĭ áĭ¶
ĠáĬ¥áĪĿáī¥áĬ£ áĪŃ
ĠáĪŃáĬ¹ áĪµ
áĭ«áĬ¥ áīĨáī¥
ĠáĭĿ áĪŃáĬ¥áĭ®
ĠáĬķ áīĨ
ĠáĭŃ áī°
Ġáĭĵ áĮĭ
áī¢ áĭ«
ĠáīĢ áī¢
ĠáĪ°áĭĵ áī¥
Ġs ays
áĬ¨áĪĭáĬ¸ áĪį
ĠáįįáĮ¥áĪ¨ áī³áīµ
ĠáĮ² áĪĭáĮ¦áĪµ
Ġ in
ĠáĬ£ áĪ½
ĠáĭĿ áįĪáīµáĭİ
ĠáĬķ áĬ«
ĠáĬķ áī¢
ĠáĬķ áĬ«áĪįáĬ¥
ĠáĪĿ áĬŃáĭ«áĭµ
áįį áīķáĪª
áĭĵ áīķ
áĬ¹ áĬĳ
áĪĥ áĪĤ
ĠáĬĵáī¥ áĭĽ
Ġáĭį áĭ²áīµ
ĠáīĢ áī¥áĪª
ĠáĮĪáĪĪ áĮ¸
ĠáĭĢ áĭŃáĬĲ
ĠáĬ£áĭµ áĪĴ
Ġáī³áĪªáĬ½ áĬĵ
ĠáĬŃáĪĿ áĪħ
ĠáĬ£áĭķ áĪ©
Ġáĭĺáī° áĬ£
ĠáįĬáĪįáĪĿ áī³áīµ
ar t
ĠáĪ¨áī¥áĪĵ áī³áīµ
ĠðŁ Ļ
ĠáĪĿáĬŃáīµ áĪį
ĠáĭĪáĪĥáī¥ áī²
ĠáĭķáĮ¡ áīĵáīµ
áĪĥáĬĲ áĪĿ
áįĪ áīµáĬķ
ĠáĪ° áĪĺ
ĠáĪĥ áīłáĬĴ
áĪĺáĬķ áįĪáĪµ
Ġáīĥ áĪĪáĭŃ
ĠáĪİ áĪĿáĪµ
Ġáī¥áĭį áĪį
ĠáĬ£áĭĺ áĭĿ
ĠáĬ£áįĪ áįĥáįħ
ĠáĭµáĬ» áĪĿ
ĠáĪĵáī° áī³
ĠáĪĵáĪĬ áįİáĪĿ
ĠáĪĵáĪĿ áĪ³
ĠáĮİáĬķ áĮº
ĠáĬ£áĭŃáįįáīĢ áĭµáĬķ
ĠáĭĿ áĪĭ
ĠáĭĿ áĬŃ
ĠáĬķ áĮ
Ġáī¥ áĭī
ĠáĬŃ áĮĪáī¥áĪ«
ĠáĪĿ áīĳ
Ġáĭĺ áīĲ
áĭĿ áĪ«
áī¡ áĬĵ
áĮ¸ áĬĴ
áīĢ áĪŃáī¥
ĠáĬ¥áī° áĬ£
ĠáĬ£áĭŃáīµ áĬ½áĬ¥áĪīáĬķ
Ġáī°áīĲ áĪĺáĮ¡
ĠáĬķáīķ áĪĳ
ĠáĬ¥áĬķáī°áĭĿ áĬ¸áĭįáĬķ
ĠáĬķáĪĿáĪķ áĮĭáĭĿ
Ġáī¥áĮĪ áĬķáĭĺáī¥
ĠáĭļáĪķ áī¥áĪŃ
Ġáī¥áĪļ áĪįáĭ®áĬĵáīµ
ĠáĭķáĪµ áĪ«áĬķ
áī ĭáĬķ
áĬķ áĭħáĪī
áĪį áĪ³áĭŃ
áī° áĪįáī²
áĪĪ áĪĭ
áĪĪ áĪµáī²
áĬ£ áĪŃ
áĭį áĪİ
ĠáĬ£áĭŃ áĭį
Ġáīµ áĪĺáĮ½áĬ¥
áĮł áĪī
áīłáĪŃ áĬŃáīµ
áīĢ áĪ²
ĠáĪħáĭĿ áīħ
áīĵ áĭķ
ĠáĬ£áįį áīħ
ĠáĪĽáĭķ áĪŃáĬĲáīµ
áĭķáĬķ áīĢ
ĠáĬĲáįįáĪ² áĭĪáĬ¨áįį
Ġáĭī áĪ½
ĠáĪĽáĬ¥áĬ¨ áĪĭáīµ
áĭĺáĪ« áĪ¨áī¡
Ġáī¥áĬĲ áī¥
ĠáĪ¨áĬ¸ áīł
ĠáĪµáĭµ áĪ«áĭŃ
áĬķ áĪĿáĬķáī³áĭŃ
áĪµ áĬª
áĮĪ áĪĽ
áĬ¨ áĪ«
ĠáĬŃáīµ áįĪáĪįáĮ¡
Ġáĭķ áīĿáī£
áĬ¢ áĪįáĬ«
áĬª áĭ³áĬķ
áĮĢ áĪŃáĭ«
ĠáĬŃáįį áī³áĪķ
ĠáįĬ áĭ°áĪį
ĠáĬŃáĭį áĭķáĪį
ĠáĬŃáĪĺ áĭįáīµ
ĠáīĽ áĬķáīĽ
Ġáī¥áī°áĬ£ áĪĽáĬķáĬĲáīµ
, ,
ĠáĭĿ áĭĺáĪŃ
Ġáī¥ áĮĮáĮĭ
ĠáĬŃ áĮ¥
ĠáĬĲ áĪĺáĪµáĮįáĬķ
ĠáĭŃ áī¥áĪİáĪĿ
ĠáĭŃ áĪĿáĪįáĬ¨áīµ
ĠáĭŃ áĮłáįįáĬ¥
áįĪ áĮ¥áĪ¨
áĭĪ áĭ°
ĠáĭĪ áĮ»
Ġáīł áįĤ
áĭ® áĪĥ
ĠáĮĪ áĮ¸áĭŃ
áĮł áĭĵ
ĠáĬŃáīµ áĬŃ
ĠáĬ¥áĪĿ áĬĲ
áĪŃáĬ¥ áĭ¨áĬ«
ĠáĮĢ áĪĺáĪ¨áīµ
ĠáĪĿáĬķ áīħ
ĠáĬº áĮĪáī¥áĪŃ
Ġáįįáīķ áĪŃáĬ»
Ġáī°áįĪ áĪª
áĪ¨áįĪ áĬķ
ĠáĮ¥áĪŃ áĭĵáĬķ
áĭįáĪµ áī¦
ĠáĪĿáĮ¥ áįĭáĬ¥
ĠáĬķáĪĿáĪµ áĪ«áĪķ
áĮ¤ áĪ«
ĠáĬ£áĪįáĬ® áĪĭáĭĬ
ĠáĮ¥áĪŃáĮ£ áĪ¨
ĠáĭĿ áĭķáĭµ
ĠáĬķ áĪŃ
ĠáĬŃ áĪŃáĭµ
Ġáī° áĬª
áĭĪ áĮ¥
ĠáĮĪ áĪĽ
Ġáĭį áĪĴ
áīĥ áĭŃ
áĮī áĬķ
ĠáĪĿáĬ½ áī£áĪŃ
ĠáĪĺáĪ° áĪįáĬķ
ĠáĮł áįį
Ġ4 00
ĠáĬķáĬ¥ áīµ
ĠáĭĿáĮĪ áĭĿ
Ġáī£áĭķ áĪį
ĠáĮ½áĪĳ áįĪáĭŃ
Ġáīķ áĬĳáĭķ
áĬŃáĪŃáĪµ áīµáĭ«
ĠáĬĲáī¢ áĭ«áīµ
ĠáĮłáĪĪ áī£áīµ
Ġáī¥ áĮĪáĪĪ
áĭµ áĪĭ
ĠáĭŃ áĬ©áĬķ
áĮ½ áĪŀ
Ġáĭ¨ áĬĴ
Ġáĭļ áī°
ĠáĬŃáīµ áĪŃáĬ¥áĭ®
ĠáĪĺáĪį áĬ£
ĠáĬķáĬ£ áĪµáī³áīµ
ĠáĬ£áįį áīĤ
áĪ°áĪĿ áĭĸáĪĿ
Ġ6 5
áĪ¨áī¥ áĪķ
ĠáĭĿáĪķ áī¥áĪŃ
ĠáĬŃáĪĺ áĪĥáĪŃ
ĠáĮ½áĪķ áįįáī²
ĠáĪĺáĪ² áĪķ
áĪĺáĭĿ áĪĻáĪŃ
ĠáįĪáī² áĬĲ
ĠáĬķáĪĿáĪŃ áĭ³áĬ¥
Ġáī°áĮłáĬķ áīĢáīķ
ĠáĬķáĬ¥áĪµáĪ« áĬ¤áĪĭáĭįáĭ«áĬķ
ĠáĭķáĭµáĪļ áĬ¡
ĠáĪĽáĭķáĬ¨ áĬĵáīµ
ĠáīħáĬĳ áĭķáĬķ
Ġáī°áĭĪáĪ° áĬ½áī²
s e
áĪ¨ áĪĺ
ĠáĪµ áī°
áĬ» áĪª
áĬ» áĭįáĬķ
Ġáĭ° áĪĻ
ĠáĬ£áĪİ áĬ©áĪĿ
áĮº áĪī
ĠáĬĲáĭŃ áĪŃáĭİáĪĿ
áĮī áĭĵáĭĿ
ĠáĬķáĬ¥ áĪµáĬĲáīµ
Ġáī¥áĪį áĭĳ
ĠáĭĿáįĪ áĮ¥áĪŃ
Ġáī°áĬ¸ áĭ²
áĪŃáī² áĬķ
ĠáĪĵáĭ² áĪ©
áĪ°áĭµ áĭİ
ĠáĭĻ áĪŃ
ĠáĪĺáīł áĪĪáīµ
ĠáĪµáĬ¢ áĬĳ
Ġáī¥áĪ¨ áī³áĭĬ
Ã ¥
áĬķ áĬº
ĠáĪĿ áĪĵ
áĪ¨ áĬĽ
áĭ° áīµáĬķ
ĠáĪĵ áĪĽ
ĠáĪµ áīĵ
áĭ¨ áĪįáĬĵ
ĠáĪķ áĮ¹
ĠáĬŃáĬķ áĮ½áīł
ĠáĪ¨ áĬ£áĭŃáĭİ
ĠáĬ£áĬķ áī°
ĠáĪĺáĪµ áĪŃáĭķ
ĠáĪĺáĭĪ áĬ¨áĪ²
ĠáĬŃáĬķáĭµ áĬ¡
ĠáĭĺáĪķ áĪĪ
áĮ½áĬ£ áĪī
Ġáī£áĪķ áĪŃáĬķ
ĠáĬ¥áī°áĭĪ áĪ°áĬĲ
ĠáĬķáīĵ áĪį
ĠáĬŃáĬķáĭ³ áĬ¡áĪµ
Ġáī°áĬ¸áįĬ áī±
ĠáĪĺáįĭáĪŃ áīķ
u l
áĬĲ áĬĲ
áĪĺ áĭļ
áĪĽ áĭ²
áĬ« áĬĵ
áĭĬ áĬķ
áīħ áī¥
áĪŃáĪµ áĭĸ
áĮĢ áĪ«
ĠáĬķáĬ£ áĭ³áĪĿ
Ġáĭ¶ áĪŃ
ĠáīħáĭµáĪļ áĬ¦áĪĿ
áĪŃáĬ¨áī¥ áĬķ
ĠáĪĽáĪķ áĭ°áĪŃ
ĠáĬ£áĭį áĭ«áīµ
ĠáĪµáĪĪáĪĿáĬķáī³áĭŃ áĬ¨
ĠáīłáĪį áĭİáĪĿ
Ġáī¥áĪį áĮ«
áīłáĮ½ áĪĲ
ĠáĭĿáĭĪáĪ° áĭ°
áĭĽáĭĺ áĪĿ
Ġáī¥áĪ« áĭļ
ĠáĪĿáīµáĬ« áĬ½
áĬ¥ áĮįáĭļáĬłáī¥áĪĶáĪŃ
ĠáĪĺ áĪ¥
ĠáĬŃ áī£
áĭ« áĪİ
ĠáĪ° áĪĮ
áĮ£ áīł
ĠáĪ½ áĭµáĪ½áī°
áĬ³ áĬĵáīµ
ĠáĪĺáĬķáįĪ áĪµáĬķ
ĠáĬ£áĪį áĭ©
Ġáĭĵáī¥ áĭ©
áĪ¾ áĪĿ
ĠáĭĪáĪ° áĬ½
ĠáĭĵáĪĪáĪĿáĪĪ áĬ¸
ĠáĪĿáĭµáĪĭ áĭĭáīµ
ĠáīħáĪ³ áĬĲáīµ
áĮ ´
áĪĿ áĮ¥
áīł áĬ¦áĪĿ
áĬ£ áĪįáĬĵ
áĬ« áĭ®áĪĿ
ĠáĬ« áĪħáĬĵáīµáĬķ
Ġáīµ áĪĵáĪµáī¥
Ġáīħ áĭ²
ĠáĪĵáĭ° áĬķ
ĠáĮ½ áĪĭ
ĠáĬķáĪĿ áĭķáī£
áįĬ áĬŃ
ĠáĬ¥áī° áĪ°
ĠáĪ³ áĭĭ
Ġáĭ°áīĤ áĪ±
áīĨ áįį
ĠáĪĿáĪķ áĪ¨áī±
ĠáĬ£áĭŃáĬķ áĭ°áĪįáĬķ
áĪµáĪĿ áĭĵ
ĠáĮ¸áĮĭ áĪĿ
ĠáĬ£áīķ áĪªáī¡
áĮ¥áīĢáĪĿ áĪī
ĠáīłáĮ» áĪķáī²
Ġ ag
Ġáī° áīłáĪ«
áĪ° áĭ¶
Ġáĭµ áīĥ
áĭ³ áĭ°áĪŃ
Ġáīµ áĪį
ĠáĮĪ áĮ»
áĪĥ áĭ¨
áīłáĪŃ áĭİ
ĠáĮ¥ áĪªáīµ
ĠáĬŃáīµ áĪĺ
ĠáĭĪáĭŃ áĭĺáĪ®
ĠáĬ½ áī¥áĪª
ĠáĬĲáĭļ áĬ¦áĪĿ
ĠáĬ¥áĬĵ áĬ¸
ĠáĪĿáĬ¥ áĬķáīµ
áī¥áĪ¨ áĪĭ
áī°áĪĵ áĪĵáĭĺ
ĠáĬ£áĭŃáĬ° áĬĲáīµáĬķ
áĪķáīµ áĬ¡
ĠáĭľáĬĵ áī³áīµ
áĪĺáĭĿ áĮĪáīł
Ġs e
áĮĪáĪįáĮ¸ áĪī
ĠáĬ¤áįį áĪ¬áĪĿ
áīł áĪīáĬķ
ĠáĬŃ áĮİ
ĠáĬŃ áĪŃáĬ¥áĭ©
áī£ áĪķáī²
ĠáĪĵ áĭµáĪķ
áĪĵ áĪķ
ĠáĭŃ áĪ¨áĬł
áĪ° áĬ©áĪĿ
áĪ° áĪĪáĭŃ
ĠáĪ° áī£
ĠáĬ« áĪľ
ĠáĮį áĪ«
ĠáĬ£áĭŃ áĮĪáīłáĪŃ
Ġáīµ áĬ¾áĬĳ
ĠáĮĪ áĪª
áĪ°áĪŃ áĪĵáĪī
ĠáĪĿáĭµ áĪ«áĭĬ
ĠáĭĿáĮ¸ áĪĵ
ĠáĬ£áĪĿáĪĭ áĬ¹
ĠáĪŃáĬ¥áĭŃáī¶ áī³áīµ
ĠáįĪáĪ¨áĬķ áĪ³áĭŃ
ĠáĭŃáĪµáĪĿ áĭĵáĬĴ
ĠáīĲáĭ³ áĪĺáĭŃáī²
áī¥ áĭ©
ĠáĬ£áī¥ áĪ«
ĠáĭŃ áĪķáĮįáĭĿ
ĠáĬ¢ áīµ
áĭĵ áī³áĭĬ
ĠáĬ¨áĪĿ áĬ¥
áĪħ áĭŃáĭĪáīµ
áĮ¸ áĪįáĬ¥
ĠáīĢ áĭ°áĪĻ
ĠáĬ¥áĪĿ áī¥
áĭĴ áĬķ
ĠáĪĿáĪķ áĪĭáįį
ĠáĬķáĪĺ áĪĪáĪµ
ĠáĬķáĭĺ áĪĪáĭī
Ġáīłáī¥ áĪĺáĭĵáĪįáī±
ĠA ss
Ġáī¥áĮįáĪį áĮº
ĠáĭĿ áįĪáĪįáĮ¡
ĠáĬŃ áī¡
Ġáī º
áĬ½ áĪī
ĠáĪĵ áĮ»áĪŃ
ĠáĭŃ áĪħ
áįĪ áĬĲ
ĠáĪ° áĪĵ
ĠáĬ£áĭŃ áĪĤ
áĮ» áĭĬ
Ġáĭķ áĭįáīµ
ĠáĪį áīĵáĪķ
áīĤ áīµ
Ġáī£ áĮ½áĭķ
áĪĺáĪį áĬŃáī±
áī°áĪĵ áĪĵáĭĿ
ĠáĭĺáĭŃáīµ áĬ½áĬ¥áĪį
ĠáĪĺáĬ¨ áĪ«áĬķ
ĠáĭŃáĭĪ áĮ½áĬ¥
ĠáĮ¸áĪİ áī°
áĬ¥áĬ¨ áī¡
ĠáĮ½áī£ áīĲ
ĠáĭįáĪ«áĭŃ áĬĵ
] >
áĭµ áĪ«áīµ
áĪķ áĪĬ
ĠáĬĲ áī£
ĠáĬĲ áīłáĪ®áĪĿ
ĠáĭŃ áĮİ
ĠáĪµ áĮ³
ĠáĬ¥áĬķ áĬĲáī¥áĪŃ
áĭĺ áĪĿ
ĠáĭĺáĭŃ áįį
ĠáĭĿáī° áĪĽ
áĮ£ áĭ¨
ĠáĮł áįĪáĪŃ
Ġáĭ² áĬŃáī³
ĠáĬķáĪĺ áĮ½áĪĵáįį
ĠáįįáĪŃ áĪĤ
ĠáĬ£áĬ¥ áĭĽ
áĮĪáĭµ áįİ
ĠáĪ« áĬ¢
Ġáī¥áĪħ áĭĿáī¢
ĠáĬŃáĭį áĪ°áĭµ
ĠáįĪáĪĬ áĮ¥áĬĵ
ĠáĬ£áįĪ áĭŃ
Ġáī£áĬķ áĭ´áĪ«
ĠáĪĺáĪ¸ áĮ£
ĠáĪĵáįį áī°áĭŃ
áĮ»áĮ¸ áĪ®
áĬķáīĢáĪ³áīĲ áĪµ
a b
Ġ g
áĪĿ áĭ²
ĠáĬ£ áĮķ
ĠáĭĿ áī£áĬķ
Ġáī¥ áĪĺáĪŃ
ĠáĪĺ áĪ»
ĠáĬŃ áĪĪáī¥
áįį áĭ«
áĮį áĭ¶
áĭ° áĪĪáĭŃ
ĠáĬĲ áĪ®áĪĿ
ĠáĭŃ áĪ°áĪĿáĭķ
ĠáĬ¢ áĪļ
ĠáĭĺáĭŃ áįĪáĪįáĮ¡
ĠáīĢ áĪªáī¦áĪĿ
áĪ«áĭŃ áĪµáĮ¢
ĠáĬ½ áī¡áĪŃ
áĪ¬ áĪ½áĬķ
ĠáĬĲáĭŃáĪ© áĭİ
Ġáĭĭ áĪħáĭ®
Ġáĭ³ áĬĽ
ĠáĪĽáĪħ áĮ¸áĬķ
ĠáĪ«áĪħ áĭĭ
r it
ĠáĬ£ áĪ¶áĪŃ
áĮį áĪĲ
áĪī áĬĵ
áĪ° áī¡
ĠáĮį áīłáĪ®
áĭ³ áĪķ
Ġáĭļ áĪħáī¥
áĪĿáĪĭ áĬŃ
ĠáĬŃáīµ áĬ°áĬĳ
áĭĳ áīµ
áĪ¬ áĬķ
ĠáĬŃáĪŃáĪµ áī¶
áī¥áĪ¨ áī°
áįĥ áĪį
ĠáĮ¨ áĪ¨áī³
ĠáĪĺáĭĭ áī²
ĠáĮĭáĬķáī³ áī³áīµ
ĠáĪ¸áī¶ áī³áīµ
ĠáĬŃ áĬ¾áĬķ
áĪķ áĪµ
áįį áĪ½
áĪĽ áĬķáĬķ
áĭĽ áī°
ĠáĪĿáĪµ áĬĵáĭŃ
ĠáĬ£áĪĪ áĬª
ĠáĬŃáīµ áĮįáīłáĪŃ
ĠáĭĿáĬĲ áĮĪ
ĠáĪĿáĬ½ áĬĴ
ĠáĭįáĪ½ áĮ£
ĠáĬķáĪĺ áĭĵáĪįáī²
ĠáĮĵ áĬĸáīµ
ĠáĪĺáĬķáįĪ áĪ³
ĠáĭŃáĪķ áī¥áĪ©
ĠM O
ĠáĪĿáĭī áīµ
ĠáĬŃáĭ³ áĭįáĬķáī²
ĠáĭĺáĭŃáī¥áĪį áĬĵ
ĠáĮįáī¥áĪŃ áī³áīµ
ĠáĬ¥áĪĽ áĪĺ
Ġáī°áĮłáīĥ áĪļ
áįĸáĪĪáī²áĬ« áĭĬ
u e
áĭŃ áĪ¨
ĠáĬķ áī²
ĠáĬ£áĭŃ áĭĵ
áĪĬ áĭ©
ĠáĪķ áįĥ
áĮ¸ áĭµáīķ
áĪĻ áĭµ
áĭĪáīµ áī²
ĠáĬ¨áĪĿáĭĿ áĬ¸áĭįáĬķ
ĠáĬ£áī¦ áĬ£
ĠáĬ£áĮĪ áĪĭáĪį
ĠáĪ¸ áĬĲ
ĠáĬ¨áĪĿáĭĺ áĪĪáĭİáĪĿ
ĠáĬ£áĬ¥ áī°
Ġáī¥áĪµ áĪ©
ĠáĪĿáįį áī³áĬķ
áī¥áĪ« áīķ
ĠáĭķáĪĭáĪĽ áī³áīµ
ĠR EA
ĠáĭĿáĪ¨áĬ¸ áīł
ĠáĪĽáĪŃ áīĨáĪµ
ĠáĪķáĪĻ áĪĿ
ĠáĬªáĭ³ áĬĲ
ki p
Ġáī¥ áĬ¨
ĠáĭŃ áĪĲ
áĪ° áī°
áĬŃ áĪ«
Ġáĭ¨ áĭĺ
Ġáĭļ áĪĲ
Ġáĭļ áĭ°áĪį
ĠáĭĿáī° áĬķ
ĠáĬª áĬĲáī¥áĪŃ
ĠáĬķáĪµ áĬ«
ĠáĬ£áĭŃáīµ áĮ¨
ĠáĭĿáĪĵ áĪį
ĠáĪĿáĪķ áĪĭáĭį
Ġáĭī áĪĳ
ĠáĮĪáīłáĪŃ áī²
áĭķáĭµ áĮį
ĠáĪĺáĪĿáĪŃáĪĴ áī³áīµ
ĠáĭĿáī°áĬ£ áĪ³áĪ°
ĠáĪħáĬķ áįĢáīµ
áĪ ¼
ĠáĬŃ áī¥áĪĭ
Ġáĭĺ áĪĮ
Ġáīµ áĮĪáī¥áĪ©
ĠáĪį áī¥áĬķ
ĠáĬ£áĪİ áĭ¶
ĠáĪŀ áĪ«
Ġáī£áĭķ áĪįáĬ¹áĪĿ
ĠáĮĵ áĪĤ
Ġáī°áĪĵ áĮĲáĪ±
Ġáĭ© áĬĵáĭŃáīµáĭµ
ĠáĪ°áĭĵ áī¥áī²
ĠáĮķ áĭ³áĭ«áīµ
ĠáĪ¨áĬº áī¥áĬ«
Ġáī°áĮ¸ áĭĬ
ĠáĬķáĭĺáĪĪ áĬłáĪĪáĪĿ
áĪ«áĬ¥ áĭŃ
ĠáĪĺáĬ¸ áī°
ĠáĬ£áĬ½áī¥áĪ® áīµ
áīł áĮĥ
Ġáī¥ áīĥ
áĬ£ áĪĭ
áĪ¨ áįĬ
áįį áĪĭ
Ġáī° áĪ¨áĮĭáĮĬ
ĠáĪµ áĬķáĬ©
Ġáīµ áĭµ
Ġáī£ áĪħáĪį
ĠáĬ¥áī° áĭĽáĪ¨áī¦
áĪįáĬ« áĭ®
ĠáĭĿáĪĵ áĪ°áī¥
ĠáĪĽáĬ¥ áĪĪáĭ«
áįĪáĪŃ áĪģ
áįįáīµ áĪĴ
Ġáī¥áĮį áĭ²
ĠáĪĥáī¥ áī°
ĠáįĪáī° áĭįáī²
ĠáĮ¸áĮĭ áĪĽáĭŃ
ĠáĭĿáĪµ áĭķáī£
áĪĵáĭµ áĪ½
Ġáī¥áĬķ áĭ«áĪĿ
ĠáĪĵáĬķáĮİ áĪį
ĠáĭĿáī°áĮłáīķ áĪ°
Ġáī°áĬ£áĬª áī¦áĪĿ
ĠáĬ£áĮĪáī£ áī£áīµ
ĠáĬ£ áĭ©
ĠáĭĿ áĪ³
ĠáĬķ áĮ¡
Ġáī° áĮ½
áĪĵ áī¶
ĠáĬ¥áĭ© áĪŀ
ĠáĬ¥áĬķ áįĪáĪįáĮ¦
Ġáĭ¨ áĪĭáĬķ
áĮ£ áĮ¥
áįĪáĪį áĬ©áĪĿ
Ġáī¥áĪĵ áĮİáĪµ
áĭĽáĪ¨ áī£
áĮĵ áĬĲ
ĠáĪĽáĭķ áĭ¶
ĠáĬķáĮĪ áĪĬáĬ¦áĪĿ
áĮ³ áĭįáĪİáĪµ
áĮ¨ áĭŃáī²
ĠáĭĺáĭŃáĪĿ áĬ½
en na
Ġ200 6
ĠáįįáĪįáĪµ áįįáĬĵ
ĠáĭįáĪŃ áĭ°áīµ
Ġáĭ°áĭ¨ áīł
ĠáĬ£áĪĺáĪĵ áĭ³áĪª
áĮ¶ áĪµ
- ?
áī¥ áĭĭ
ĠáĬ¥ áĪĪ
áĪŃ áĮ½
Ġáī¥ áĭĤ
áĬ£ áĪİ
áĪĺ áĭ±
Ġáī° áī°áĪŃ
áįĪ áĪİáĪĿ
áĮĭ áĭŃ
áĬĴ áĬŃ
áĪŀ áĪµ
Ġáį ĳ
áīłáĭŃ áĭİ
áĪµáī° áī¥
Ġ20 00
ĠáĬ¨áī° áĮĪáĪįáĮįáĪī
ĠáĪĺáĪ° áĮĭáĮĪáĪª
ĠáĪĿáĬ¥ áĪĭáĭŃ
áĪĦ áĪį
ĠáĭĿáĬ¸ áĭ°
ĠáĪĤ áī¥áĬ«
ĠáĭĿáĪĿ áĪĪáĪµ
ĠáīµáĬķ áįĭáĪµ
áĪµáĬ« áĪķ
ĠáĮĪáĭĿ áĬ¦áĪĿ
ĠáĬŃáįĪ áĮ¥áĪŃ
ĠáĪķáĭµ áĮĪáīµ
b er
ĠáĬ¥ áĬ¸áĭŃáĭµ
áĪµ áįį
ĠáĬķ áī£áĪŃ
ĠáĬĲ áĭĻáĭŃ
áĭ« áĬĲ
áīħ áĪĿ
ĠáĬŃáīµ áĬŃáĬ¥áĪį
ĠáĬ¢áĪī áĬĵ
Ġáĭ³ áĪµ
áĪĮ áĬĵ
ĠáĬ£áįį áĮĭáĬĴ
ĠáĭĪáĭ² áīĳ
áĪĿáĪµ áĬŃáĪŃ
áĭĪáĬķ áĮĮ
Ġáī¥áīµ áī¥áĭĵáīµ
ĠáĪ¶ áįįáīµ
Ġáī¥áĭķ áĪĿ
ĠáĬ£áĭ² áĬ£
ĠáĪĿáīħ áĪĭáĪµ
ĠáĬ¤áĪį áĪ³
ĠáĬķáĪĿáĪµ áĪĽáĭķ
ĠáīĢáĪª áī£
3 7
ĠáĬ¥ áĮįáĪ¨
áī³ áĬķáĬķ
ĠáĬŃ áĪĵáĪį
ĠáĬŃ áĬ£áīµáĭī
ĠáĬŃ áĮ½áĪķáįį
ĠáĬ¥áĬķáī° áĬĲ
ĠáĬ½ áįĭáĪį
ĠáĬĲáĮĪáĪŃ áĭļ
áĪ¶ áĪĿáĬķ
ĠáĪĿáĬķ áĮŃáī³áīµ
ĠáĬ«áĪįáĬ¥ áĬķ
Ġáī¥áĪµ áĪĿáĬ«
Ġáĭķáĭµ áĪĺáĬķ
ĠáĪ³áĭķ áĪª
ĠáĪĺáĪĬ áĪ¶áĪĿ
ĠáįĪáĮº áĪĿáĬ«
ĠáĭĿáĪ¨áĬ£ áĭ®
ĠáĪĪáī£ áĪĽáīµ
' áį¢
ĠáĭĿ áĮĲ
ĠáĪĺ áĪķáīµáīµ
ĠáĬŃ áĪ¨áĬ½áī¦
ĠáĬŃ áĮįáĪĪáĮ½
áĭķ áĪ©
áĭĭ áī³
ĠáĪħ áĭµ
ĠáĮ¥ áĪ¨
ĠáĬŃáĬķ áī¥áĪİ
ĠáĬª áĬ½
Ġáī¥áĭĽáĭķáī£ áĬĵ
ĠáĬ¥áĬĵ áīłáĪįáĬ©
ĠáĬ£áĬķ áī±áĪĿ
áĪķáĮį áĭŀ
ĠáĬ¥áĬķáĬ¨ áĪĪáĬ»
Ġáī°áĭĭ áįĬ
áī³áī¶áĪĿ áĬķ
ĠáĪĵáī¢ áĪŃáĬ«
ĠáĬ¸áĭŃ áĭ±
ĠáĪ°áĪª áĪĸáĪĿ
áĪĵáĪĭáĪĪ áįį
ĠáĬ£áĪĺáĪµ áĮĬ
ĠY ou
ĠáĭķáĮį áīłáīµ
3 6
u m
ĠáĬ£ áī°áĬķ
áĪ« áī¶
ĠáĪµ áĭĵáīµ
ĠáĬ« áĪĪ
Ġáĭ° áĪĭáĭŃ
áĪ® áī³
áĮł áĬĳ
ĠáĪĥ áĪĪáĭĭ
ĠáįĪ áĭŃ
Ġáī¥áĪĿ áīħ
ĠáĪŃáĬ¥ áĪµ
ĠáĮİ áĪµ
ĠáĬ¨áĪĿáĭĺ áĭ¨áĪĪ
ĠáĪĥáī¥ áī³áĪĽáīµ
ĠáĭĿáĬĲáīłáĪŃ áĬ«
ĠáĬ£áī¥áĪŃáĪĥ áĪĿáĬķ
Ġáīµáĭķ áĮįáĪµáī²
ĠáīħáĭµáĪľ áĬĵ
ĠáĭĺáĭµáĪįáĭ¨ áĬĵ
ĠáĬªáĬ¸ áĭ±
ĠáĮ¢ áĪŀ
ĠáĬ¤áĪ¨áīµ áĪ«
ĠREA D
áī ¼
áĬķ áĬ£
áī¥ áĬª
áĭŃ áĬ«
ĠáĬŃ áĪĺáĪµáĪį
Ġáĭĺ áĮłáĪ«áĮ¥áĪŃ
ĠáĭŃ áĪŃáĭµ
ĠáĪµ áī´
ĠáĮį áĪħ
ĠáĭĪ áĬĲ
Ġáĭĵ áĪ°áī¥
ĠáĪķ áī¡áĬ¥
Ġáīł áĭĿ
ĠáĮĪ áĪŃ
ĠáĬŃáĬķ áĪ°
ĠáīĢ áīħáĭµáĪļ
ĠáĬ® áĪĮ
ĠáĪŃ áī£
áīĥ áīķ
áĪµáī° áĭŃ
ĠáĬ¥áĬĵ áĬĲ
áĪ¸ áĬķ
ĠáĮł áĪĺ
ĠáĪĺáĪĬ áĪ°
ĠáĭĿáĪµ áĪķ
ĠáĬķáĪĿáįį áĮ£áĪŃ
ĠáĬ£áĪįáĬ£ áĭĽáĪŃ
Ġáįĥáĭķ áĪª
Ġag o
ĠáĬ£ áĬ»
áĪĪ áĭĵáĪĪ
Ġáī¥ áĪĭáĭķ
ĠáĬŃ áī°áĪĵ
ĠáĪĿ áĪĿáĪį
Ġáĭµ áĪ©áīµ
áĭ© áįį
áĭ² áįį
ĠáĮĪ áĪĭ
ĠáĬŃáīµ áĭĪáĪµáĭµ
ĠáįĪ áĪĪáĮł
ĠáĬķáĪķ áĮĬ
ĠáĭĿáĬĲáīłáĪ¨ áĬķ
Ġáī¥áĪŃ áĮį
ĠáĬķáĭĿ áĭ«áĭ³
ĠáĭĪáĪŃ áīħáĬķ
Ġáī°áĪµáįĭ áĬķ
áĪ¨áĬŃáī¥ áĬķ
ĠáĬ«áĪįáĬ£áĭŃ áī²
ĠáĪĵáĪ³ áī¡
ĠáĮİáĭŃáī³ áĬĵ
Ġáī¥áīĢ áĮ¥áī³
Ġáī°áĬ£áĪ² áĪ®áĪĿ
ĠáĪĵáĭĭáĪŃáĭ« áĭĬ
ĠáĪĺáĭĺáĬĵ áĮįáĭĴ
ĠáĬ¤áįĮ áĪ¶áĬķ
áī¥ áĪĿ
áĪį áĬ©
ĠáĭĿ áĬ«
ĠáĬķ áĭ²
Ġáī¥ áīĿ
áĬ¥ áĭĺáĭĿ
Ġáī° áĭĽáĪ¨áī¦
ĠáĭŃ áĪĿáĪŃ
áĬ¸ áĪĿ
Ġáīł áĭŃáĬĵ
áī¡ áĬĴ
ĠáĬŃáīµ áĭĿ
ĠáĬ© áī£
áĬ¢ áī³áīµ
ĠáĪį áī£
ĠáĬª áĬĲ
áĪ«áĪķ áī²
Ġáĭ³ áĪŃ
áĪĤ áĭĪáīµ
ĠáĮİ áĪį
ĠáĮĪáĭĽ áĬ¥áī²
áĮĲ áĪį
áĮ½áĪķ áįİ
ĠáĬŃáĪħ áĬĲáīµ
Ġáĭī áĪ½áĮ¢
áĮ¥áīĥ áĮ¥
ĠáĬ£áĭĪ áĭ³áĭµ
ĠáīĵáĪį áĪ²
ĠáĭŃáĬķ áĮĪáĪŃ
ĠáĭĿáī¥ áĮĪáĪµ
Ġáĭĵáīħ áĪļ
Ġáī£áĬ¥ áĪ²
ĠáįĮáĭ°áĪ« áĪį
áĭŃ áĪĻ
ĠáĭĿ áĪħ
Ġáī¥ áĪ³
ĠáĬ¨ áĭĺ
áĭ° áĮĬ
ĠáĬ¨áĪĿ áĬ¥áī°
Ġáįį áĪµ
Ġáįį áĪŃáĭ«
ĠáĮ¥ áĭķ
ĠáĭĺáĪİ áĭī
áĪ» áĭķ
áĪĿáĪŃ áĪķ
ĠáĬķáĪĺ áī¥áĭĽ
ĠáĬĲáįį áĪµáĬ»
ĠáĪĿáĪį áĪµ
ĠáĭĽ áĮĬáĭµ
Ġáī¥áĭĿáī° áĪ¨áįĪ
ĠáĬ£áī£áĪį áĬĲáīµ
ĠáĪĿáĭķáī£áĪĪ áī³áīµ
ĠáĬ£áĪķáĪĬ áįĪ
ĠáīµáĬ¥ áĪĿáĪŃáī²
ĠáĬķáĪĿáĭĿ áĪ«áī¥
ĠáĭµáĪĴ áĪ©
ĠáĬ£áĮłáīĵ áīķáĪĽ
ĠMO RE
ĠáĬ¥ áĪķ
ĠáĬķ áĪ°áĬķ
Ġáī¥ áĪ®
ĠáĪĿ áĭ±áī¥
áĮ¥ áĬĲáīµ
áĬ¡ áĬĴ
ĠáĬ¥áĭļ áĬł
ĠáĬŃáĬķ áĭ®
ĠáĪį áĪ³áĬķ
Ġáĭľ áĭµáĪĬ
ĠáĬ¨áĪĿáĭĿ áĮįáī£áĬ¥
ĠáĪĥáĮĪáĪŃ áĬĵáĬķ
ĠáĭĿáĮĪ áĭ°
ĠáĪĿáĪķ áĭĿáĬĲáīµ
áĪĺáĪį áĪ²
ĠáĪĿáĮ½ áĭĭáīµ
ĠáĬ¨áĪĿáĭĺáĭŃ áī¥áĪī
ĠáĬ£áīķ áĪŃ
ĠáĬķáĮ½ áī£áĪķ
ĠáĬ£áĭĺ áĭĺ
ĠáīµáįĪáĪįáĮ¥ áĭ¶
ĠáĮĨ áĪŃ
ĠáĬ´ áĬķáĬ©áĪĿ
Ġáī°áĮłáĬķ áīĤ
ĠáįįáĮ»áĪľ áī³áīµ
ĠáīµáĭįáĪį áĭ²
ĠAss enna
áĪŃ áįİ
Ġáī¥ áĪĭ
ĠáĬŃ áĪ³áī°áįī
áĭ³ áĪļ
ĠáĭĿáī° áī£
ĠáĬŃáīµ áĪĿáĪĪáĪµ
ĠáĮ¸ áĪĭáĪĿ
áĭĻ áĬķ
ĠáĬª áĬĲáī¥áĪ©
áĬ¹áĪĿ áĭİ
Ġáĭ°áĬ£ áĪĿáīłáĪŃ
ĠáĬ£áĬ¥ áīµ
ĠáĪĭ áĪĿ
Ġáī¥áĬ¥ áĮįáĭļáĬ£áī¥
Ġáī°áĬ£ áĪļ
ĠáįĬ áĪĬ
ĠáĭĿáĪĿ áĪ«áĪķ
ĠáĭĪáĪ² áĬĲ
ĠáĪĥáī¥ áīµáĬķ
Ġáįħ áĪĳáįį
ĠáĬ¥áĬķáĬ¨áĪİ áĬĵ
ĠáĪĺáĬ£ áĭĿáĬķ
ĠáĮ¸áĪİ áī°áĭŃ
áĪĺáĪĵ áĪĭáĪĪ
Ġc ont
ĠáĬ£áīłáĪŃ áī²
Ġáī°áĬ£áĪ² áĪ©
ĠáĪ¨áīĽ áĪĴáī³áīµ
ĠáĪ»áīķ áĪİáīµ
ĠáĬķáĬ¸áĪĿ áĭļ
ĠáīłáĪĭáĭķ áĬ©áĪĿ
Ġáĭ³áĭĬ áīµáĬķ
ĠáĬķ áīłáĪ¨
áį¡ .
áĭµ áīĥáĬķ
ĠáĬ¨ áĪį
áĭķ áĪ®
Ġáī° áĬ«
ĠáĪ° áī´áĬ¹áĪĿ
ĠáĪµ áĬ½
áĬ¨ áĪī
áĬ¨ áĪ¨áĬĴ
áĪįáĬ« áīµ
áĪ¸ áī£
áĪ´ áĪİáĪĿ
ĠáĪĿáĪĿ áĭĿ
ĠáĬ½áīµ áįĪáĪįáĮ¥
ĠáĭĺáĪĭ áī¶
Ġáī°áĪĽ áĪħ
ĠáĪª áįĵ
áĭįáĭķ áĪİ
ĠáīłáĪŃ áĪĢ
áĬ¥áĬ¨ áī¥
ĠáĬķáĪ½ áĭĳ
Ġáīłáĭĵ áī²
ĠáĪĺáĭµáĪ¨ áĬ»áīµ
ĠáĭľáĪĲáĮķ áĪµ
ĠáĪĪáĬķ áĭ°áĬķ
áĬķ áĭ¶
ĠáĬ£ áĭµáĬĵ
áĪį áīĥ
áĪĪ áĬª
ĠáĭĿ áīĺ
áĭµ áĪ¶
áĭ« áĭĬáīµ
ĠáĬ¢ áĪĽ
áįĪ áī³áīµ
ĠáĬ£áĭŃ áĬ«
áīķ áīłáĪį
ĠáĪħ áĭĭ
áĮ¸ áĬ¦
áīħ áīķ
áĬª áĪ©
ĠáĬ¨áĭŃ áĭ³
ĠáĪĺáĪ° áĪİáĪĿ
ĠáĭĿáĪĺ áĪ¨áĮ½
ĠáĬ£áĭŃáī° áĪ¨áĬ½áīłáĬķ
Ġ5 1
ĠáĮĭ áĬĶáĬķ
ĠáĪĵáĪĪ áįĪ
Ġáī» áĪŃ
ĠáĬ£áīµáĪĴ áĭŀáĪĿ
ĠáĪĺáĮ¨áĪ¨ áĪ½áī³
Ġáĭ°áĬĵ áĮįáĪį
t er
áĭŃ áĪ«
áĪŃ áī³áīµ
áĪŃ áī£áĬķ
áĬĵ áī±
ĠáĬŃ áĬ¾
áĮĪ áīłáĪ®
áĬ© áĭİáĪĿ
áĪ² áĬ«
áĮ¸ áĪŀ
ĠáĭĺáĭŃ áĪŃ
Ġáĭļ áĭĿ
ĠáįĪ áīĲ
ĠáĮī áĭ«
ĠáĬ² áĪĭáī¶áĪĿ
ĠáĪĺáĭĵ áĪµáĬķ
Ġáī± áĪª
Ġáĭķáĭī áĪŃ
ĠáĭĿáĮĪáĪĪ áĮ½
Ġáī°áīłáĮĬ áĪ±
ĠáĭĿáĪĿáĪįáĬ¨ áī¶áĪĿ
Ġáī¥áĪĿáĮį áĪĭáĮ½
Ġ |
áĪį áĪķ
áĪĺ áĬĸ
áĪĺ áĪªáĬ«
áįį áī¶
áĭį áĭĸáĪĿ
áĭ° áī¡
ĠáĬ£áĭŃ áī¥
ĠáĬ£áĭŃ áįĪáĪįáĮ¦áĬķ
Ġáĭĵ áīĲ
Ġáīµ áĪ°
áīķ áĪĬ
áĭĺ áĪĭ
áĮĭ áĮł
ĠáĪĿáĪµ áĬ£áī¶áĪĿ
áĬĲáīµ áĬ«
Ġáĭļ áī¥
áĮ£ áĪĿ
Ġáī¥áĪĿ áĪħ
áĬĵáīµ áĬĵ
ĠáĭĿáĪĵ áĪįáįį
áĪĮ áĬŃ
... "
ĠáĭĿáĭĪ áĮ¹
Ġáī°áīĲ áīłáĪį
ĠáĪ°áĪĽ áĭĴ
áĪĢ áī¥
ĠáĭĿáĪµ áĪĻ
Ġáīµáĭķ áī¢áīµ
ĠáĪĵáī° áī°
ĠáĭĿáĪĿáĭµáĬĵ áī³áīµ
ĠáĪ¨áĪ² áĬ£áĬķ
ĠáĪĳ áĮ»
ĠáĪĺáĬ½ áĪ°áī¥
ĠáĬķáīħ áĭµáĪļáīµ
ĠáĪĻáĪµ áĪĬáĪĿ
áĬ ģ
ĠáĪ ¼
ĠáĭĿ áĮłáįįáĬ¡
Ġáī¥ áĮİ
ĠáĬ£áī¥ áĭª
áĪĺ áĭĽ
áĪĽ áī¶áĪĿ
ĠáĬĵ áįį
áĮ½ áĬ¦áĪĿ
ĠáĬ£áĭŃ áīµáĬķ
áĬŃ áī³áīµ
áĭĭ áī³áĭŃ
Ġáīł áĮ½áĪĳ
Ġáĭļ áĬ¸áĭŃáĭµ
áīħ áī£
áīħ áĪŃáī¥
áĬ® áĪ¨
ĠáĬŃáīµ áĮ½
ĠáĬ® áĬ¾
áįĪáĪį áĮłáĬķ
Ġáīĥ áĬķ
ĠáĪĪ áĪĺáĬķ
ĠáĪļ áĪįáĭ®áĬĵáīµ
ĠáĬ£áĪĪáĭī áĬĵ
Ġáī¥áĪµ áĬĲ
áĪįáĬ¥ áĬ½
áĭ´ áĪį
ĠáĬ¨áĪĪ áĭį
Ġáĭ°áīĢ áī£áīµ
ĠáĪ°áĪļ áĪŃ
ĠáĪħáĮ» áĬĵáīµáĬķ
ĠáĪĦ áĪ®
ĠáĬķáĮī áĪµáĬķ
ĠáĮįáĪį áĮ½
ĠáĬŃáĭķ áĭĪáīµ
ĠáĬŃáĬĲáĮįáĪ¨ áĬ«
3 8
i o
r a
ĠáĪĺ áĭŃ
áĬ½ áĬ«
Ġáĭµ áĬ¹
áĭĭ áīµáĬķ
Ġáīł áĭĵáĪĪ
Ġáĭ° áīł
ĠáĮĪ áī¥áĪŃ
ĠáĮĪ áĪĺáĭµ
Ġáĭ¨ áĮłáīĵáĪįáĪį
áĬ® áĪį
Ġáī£ áĮ¤áĪ«
Ġáīģ áĪµ
áįĪáīµ áĪĸ
ĠáĬĶ áĭĺáĪŃáĪĭáĬķáĭµ
Ġáī¥áĬ£ áĮĭ
ĠáĪĽáĬ¥ áĪ°áĪŃ
ĠáĪĿáĪį áĪĭáĭŃ
Ġáī°áĮĪ áĬķáĭļ
ĠáĭĿáĪ° áĭĵ
Ġáī°áĮł áīĲ
ĠáĬŃáĪŃ áĪµáī²áĭ«
ĠáįķáĪ¨ áĭļ
ĠáĪĺáĮ¸ áĭĭáĭķáī³
ĠáĭĽáĬķáī³ áī³áīµ
ĠáīħáĪŃ áĪº
Ġt he
ĠáĪħáĬķ áĮ¸áīµ
ĠáĪĽáĪķáīłáĪ« áĭįáĬķ
ĠáįĪáĪĪ áĮį
Ġáĭ ¬
áĪ¨ áĪ°
áĪĵ áĮ¥
ĠáĭŃ áĪĵáĪµáī¥
Ġáĭ¨ áĬ«
Ġáĭļ áī¥áĪī
ĠáĭĿáī° áĮĪáĪĪ
ĠáĭĿáī° áī¥áĪĥáĪĪ
ĠáĮĲ áĪ¨
ĠáĭĿáĭĢ áĬķáĬ©
ĠáĬŃáĬĲ áĪ±
ĠáĪĿáĮį áĪįáĮĭáĪį
ĠáįįáĪī áĭ«áīµ
Ġáĭĺáĭ¨ áĪİ
áĬµ áĪ®
ĠáĪļáĬĴ áĪµáī´áĪŃ
ĠáĮ¥áīķ áĪµáī³áīµ
ĠáĪĿáĭķáī£ áĭŃ
ĠáĭĿáī°áĪĵ áĪĭáĪĪ
ĠáĭĪáĪį áįĬ
ĠáĭĿáĬ£áī° áĭī
ĠáĬ£áĪįáĬ® áĪį
ĠáĪĺáĮ¨áĪ¨ áĪ»
ĠáĬ£áīłáĭ¨ áĬĵáĭŃ
Ġáī¥áīķáĬķ áĭķáĬĵ
Ã ¶
áĪĿ áĪĥ
ĠáĬ¥ áī¥áĪ«áĭįáĭ«áĬķ
ĠáĬķ áĬ¨áĭŃ
ĠáĬ¥áĬķ áĬĲ
ĠáĭĪ áĮ¥áĪª
Ġáīµ áĮ¥áĪķáĪ±
áĮ¸ áĪįáĬĵ
ĠáĬŃáīµ áĭĪáĮ½áĬ¥
ĠáĬŃáīµ áĮ¥áįįáĬ¡
ĠáīĢ áįĥáĪĬ
áĪŃáĬ¥ áĭ¨áĬĵ
áī¤ áī±
ĠáĮĪáĪĬ áĮ»
ĠáĬ¨áĪĿáĭĺáĭŃ áīµ
áĪŃáĮį áĪķ
Ġáī¥áĪ© áĪŃáĬķ
ĠáīµáįĪáĪįáĮ¥ áĭİ
ĠáĬŃáĭµ áīħáĪµ
Ġáī°áĪĺáĪµ áĪªáī±
ĠáĬ£áĭŃáĬĲáīłáĪŃ áĬ©áĬķ
ĠáĪŃáĭµ áĬ¢áīµ
ĠáĭĪáĭŃáĪį áĪŃáĬ¹áĪĿ
ĠáĬ£áįĪáįĥáįħ áĪĽ
Ġ ×
áĪ ĩ
ĠáĬ£ áĭĬ
ĠáĬ£ áįİáĪĿ
ĠáĮ Ħ
ĠáĬķ áīłáĪİ
ĠáĪĺ áī³
ĠáĬŃ áĬĵ
ĠáĬŃ áĪĽ
ĠáĪĿ áĪĪ
ĠáĮį áĪª
ĠáĬ¨áĪĿ áĬ£
áī¶ áĬŃ
ĠáĬĵáĭŃ áī°áĬķ
ĠáĪĿáĪŃ áĬ«
ĠáĭĪáĪŃ áĪķáĬķ
áĮĪáī¥áĪ¨ áĪİáĪĿ
ĠáĬĲáī¥ áĭ«áīµáĬķ
ĠáĭŃáĪµ áĪķ
áĭĺáĪ« áĪ¨
Ġáī°áĪª áĪŃ
ĠáĬ¨áįĬ áī±
ĠáĭķáĪ½ áĪ½
ĠáĪµáĭį áĬ£áīµ
Ġáī¥áĪ°áĭŃ áįĬ
ĠáįĢáī¥áįĥ áī¥
ĠáĬŃ áī¥áĪ©
áĪ¨ áĭ±
áĮĪ áĭŃ
áĪĵ áĪ³
áĪĵ áĪĭáĪį
ĠáĭŃ áĮ¥
áĪ° áĪĽáĭķ
áĭĵ áĮ½
áĬ¡ áĬĵ
Ġáīł áĪ¨áĭµ
áĮł áĮ¥
ĠáĬ¥áĬķáī° áĬ¾áĬĳ
ĠáĬŃáīµ áĪĺáĮ½áĬ¥
Ġáĭķ áĪŃáĬŃáĬĲáīµ
ĠáĬ¥áĪĿ áīłáĭŃ
ĠáĬ£áĭŃáīµ áĬ¹áĬĳ
ĠáīĨ áĪŃáīłáīµ
áĮĵ áĬķ
ĠáĪĿáĪħ áĬĵáĮ½
ĠáĪ°áĪļ áĭķ
ĠáĬŃáĪįáī² áĬ¤áĬķ
ĠáĬ£áīĲáĭ² áĪŀáĪĿ
ĠáĬ£áĭĪ áĭ³áīµáĬķ
ĠáĬ¥áĪ± áĪŃ
ĠI n
Ġáī¥áĪĦ áĪ«áīµ
ĠáĪĺáĪĿ áĭĺáĬĴ
ĠáĪĵáīħ áĬĲáīµ
Ġáī¥áīĵ áĪį
Ġáī°áĭĪáĪ² áĭ±
ĠáĮ¡ áī¥
ĠáĪĵáĮĬ áĭĻáĬĴ
Ġáī£áĭŃ áĭ°áĬķ
ĠáĮĪáĪĽ áĮįáĪĿ
ĠáĬŃ áĮ½áīł
áĬ£ áĪĪáĭŃ
áĪĺ áĮ£
ĠáĪķ áĪŃáĪ²
ĠáĪĿáĪµ áĬŃ
Ġ- -
ĠáĬ¤ áī½
áĮİ áĪį
ĠáĪĿáĬ½ áįĭáĪį
áĬŃáīµ áĪ®áĬĴ
ĠáĬ° áĬĳ
ĠáĬ¨áī£áī¢ áĬĵ
áįĸ áĪĬáĪµ
ĠáĭµáĪį áĭ±
ĠáĬ£áĭ³ áĪĿáĬķ
ĠS kip
ĠáĪĺáĪŃáĭĵ áĭĬ
Ġáī°áĬ½áĬ¥áĪİ áī³áīµ
ĠáĭĵáĪĿ áĭ²
Ġáįįáīĵáĭ° áĬĽáī³áīµ
ĠáĬ¢áĪħáĭĪ áĭ´áĮį
ĠáĬķáī¢ áī¢áĪ²
Ġcont ent
ĠáĬķ áĪ¨áī¥áĪĵ
ĠáĪĺ áĭįáĪµáī¦
ĠáĬ¨ áĮĪáĪįáĮįáĪį
áĮį áī¢
ĠáĪĵ áīĨáįį
ĠáĭŃ áĪ¨áĬ½áī¡
Ġáĭµ áĪīáĭĭáīµ
áĬ¨ áĭ¨
áĮĭ áĮį
ĠáĬ¥áĬķáī° áĪįáĭ©
ĠáĮ¸ áĭĵ
ĠáįĪ áīĥáĪŃ
áīĥ áĪĪáĪ±
ĠáĮĵ áĪ¶áīµ
ĠáĪĺáĭµ áĪĵ
Ġáī¥áĪķ áĪĽáĪĿ
Ġáī°áĬ» áĬ¢áĪī
áĪ³áīĲ áĭ©
ĠáĬĲáĮĭ áĭ³áĭŃ
ĠáĪĺáĬķáĮįáĪ¥ áī°
Ġ re
ĠáĬķ áĪļ
ĠáĪĿ áĪ¨
áĪ¨ áĬ¹
áĪķ áĭŀ
ĠáĬ£áĭŃ áĮ½
áĭ² áĮī
ĠáĮĪ áĭ°
ĠáĮĪ áĪŃáĬ«
ĠáįĪ áīµáĬķ
ĠáĭĿáīł áĪįáĭİ
áĮ¡ áī¥
ĠáĮł áĪļ
Ġáī¦ áīµáĬ¡
áĪ´ áīµ
ĠáĪĻ áĪī
Ġáīģ áĪĿ
ĠáĭĿáĬ£ áĪĺáĬķ
Ġáī¥áĬ£ áĪ½áĪĵáīµ
áĭĪáĪµ áĭ³
ĠáĪĵáĮĪáĭĿ áĬķ
Ġáĭĵáīķ áĪĿáĬĵ
Ġ200 5
ĠáĬ£áįįáĪªáīĥ áĭįáĭ«áĬķ
ĠáĬķáĮ¥ áįĪáīµ
ĠáĬŃáīķ áĭ¨áĪŃ
Ġáīį áĪ©áī¥
ĠáĪĿáĬķáīħáĪµáīĵ áĪ³áīµ
Ġáī¥áĪ½ áĬŃáĪĪáī³
ĠáĭĿáĪ°áĪŃ áĪĸ
Ġli ke
ĠáĭķáĮįáĪŃ áĮįáĪŃ
ĠáĬ£ áīĨ
ĠáĬ¥ áĪŃáĮĭ
áīł áĭĵáĪį
áĬ£ áĪįáī¦
áĪĭ áĬ½
áĭį áĬĲáīµáĬķ
áĪī áĬĴ
ĠáĬŃáĬķ áĪµ
ĠáĬ£áĪµ áĭķáī¥
áĮ¥áīĢ áĪĺáĪİáĪĿ
ĠáĬ£áĭµ áĪĵ
áĬ¥áīµ áĭİ
ĠáĬ£áīĢ áĪ«áĪŃáī£
ĠáĪĺáĮ»áĬ¥ áĬ©áĪĿ
Ġáī¥áĪķáĪį áįĬ
áĬķáī°áĪŃ áĬĲáīµ
áĮį áī²
áĪª áĬ¢
áīķ áī³
ĠáĪķ áī¥
ĠáĮ¸ áĮī
ĠáīĢ áĪį
áĪĺáĬķ áĬķ
áĪŃáĬ¥ áĭ©áĬķ
áĭĢ áĬĵ
áĭ³áĬ¥ áĬķ
áĮ¨ áĭį
áĮįáĪĿ áīµ
áĪ°áīµ áĭ©
ĠáĮ« áĪĽ
Ġáī¥áĮ¥ áīłáī¥
ĠáĭµáĬħ áĪª
Ġáī°áĭĵáĮ½ áĭ©
ĠáĬķáĪ°áīłáĭŃ áī±
R e
áĮ ¼
ĠáĪĿ áĬ¾áĬĲ
áĭµ áĪ¨
áĭµ áĪ©
áĭµ áīĤ
áĪĵ áĪĵ
áĪ° áĪ³
áĭ© áĭİ
ĠáĪĿáĪµ áīµáĬķ
Ġáį §
ĠáĬŃáīµ áĪ°
ĠáĬŃáĬķ áĬŃ
Ġáī°áĭĪ áįĭáĭŃ
Ġáī°áĬ¸ áĪ²
áī¥áĪ« áĪħ
Ġáĭ°áĪŃ áįįáī³áīµ
ĠáĬķáĪŃáĬ¥ áĪ°áĭŃ
ĠáĪµáī¥ áĪĵáīµ
Ġáĭ©áĬĴáī¨ áĪŃáĪµ
ĠáĪĤáī¡ áĬĵ
Ġáĭĵáĭµ áĭĭ
ĠáĪ¨áĬł áĭ¨
ĠáĭĿáįĪáīµ áĭĭ
ĠáĬķáĭ® áĪ´áįį
ĠáĪĺáĭĲ áīĢáĬĴ
áĮ»áĮ½ áĪ«
ĠáĪµáĭķ áĪ¨áīµ
ĠáĪĺáĮĢáĪĺ áĪªáĭ«
ĠðŁĻ Ĥ
ĠáĭĿ áĪµáī°
ĠáĭĿ áĪħáī¡
áĪĭ áī¶
áĮĪ áĪī
ĠáĭŃ áĬ¨áĬ£
ĠáĭŃ áĪŃáĬ¨áī£
Ġáĭ° áĪļ
áĪĻ áĭİ
ĠáīĢ áĭ«
ĠáĪĿáĭµ áĬķ
ĠáĬ£áĪµ áĪļ
ĠáĬ£áĪķ áĭĽáī¥
ĠáĪ² áĬĵ
Ġáī°áĪĽ áĪķ
ĠáĪµáĮĭ áĬķ
ĠáĬķáĪĿáįį áĮ»áĪĿ
Ġáĭ°áĪĬ áĬĵ
ĠáĪĪáīł áĭĭ
ĠáĬ£áįįáĬķáĮ« áĬķ
Ġáī¥áĮ¥áĬķ áīĥáīĲ
ĠáĬŃ áĭīáĬķ
áĬ£ áĭ°
áĭĿ áĪĵ
ĠáĭŃ áĬ£áī±
ĠáĬ¢ áī²
áĮ½ áĪ®
áĭĭ áī²
ĠáīĢ áĮ¸áĪĪ
áĮ£ áī¥
áĭµáĬĵ áĭ®
áĪįáĬ©áĪĿ áĬķ
áĪ¨áĬ£ áĭ¨
ĠáĪĿáīµ áĪķáĮį
ĠáĬ£áĭ° áī£áī£áĭŃ
Ġáĭ°áĪµ áī³
ĠáĬķáĮ¹ áĪĥáīµ
ĠáĮĪáĭ² áįįáĬĵ
ĠáĬ£áįĪ áĭĪáĪŃáīĤ
ĠáĪĺáĬ£ áĭĿ
ĠáĭĺáĭŃáī¥ áĪĪáĭŃ
Ġáī¥áīµáĬ½ áĬŃáĪį
áĭŃ áĬ¡
ĠáĬ£ áįħ
áīł áī³
Ġáī¥ áĭķáĪĬ
ĠáĪĿ áĬ¸
áĭķ áĬĲáīµ
ĠáĪĵ áįĤ
ĠáĭŃ áĭħáĬķ
áĬ» áĪµ
áĭĺ áĬ¨áĪŃ
ĠáĪķ áĪ°áĪĿ
Ġáĭ¨ áĮĭáĮ¥áĪĿ
áĬł áĬĴ
ĠáĮįáĬķ áĭĽ
ĠáįĪ áįĤ
áįħ áĬ¦
Ġáī°áĪĺ áĪĥáĪ«áĭŃ
áĭĽáĪ¨ áīłáĬĴ
áī¤ áī³áĭĬ
áįĢ áĪĺ
áĮ¸áĬķ áĭķ
ĠáīµáĮįáĪ«áĭŃ áĬķ
ĠáĪĿáĮ½ áĬĵáĪķ
Ġáĭ°áĮĬ áĪĿáĬĵ
áĭµáĪĿ áĮº
Ġáĭĵáīķ áĪĻ
ĠáĪĺáĪĭáĬ¥ áĬ½
ĠáĮ¥áĬķ áīĥáīĲ
áĬ¥áĪĿ áīłáĬ£áĪŃ
ĠáĬ£áĮ¸áī¢ áīĲ
ĠáĭĵáĪļ áīĿ
ĠáĪĿáĬ¥áĬķáī³ áĬĵ
ĠáįĪáĪĬáĮ¥ áĬ«
ĠáĮĪáīłáĬĲ áĬĽáī³áīµ
ĠáĬĥáĮ¢ áĬłáīµ
ĠáĬ¥áĬķáī°áĭĺ áĭ¨
ĠáĬ¢áĬķáī¨áĪµáīµ áĪĺáĬķáīµ
áĪĪ áĪģ
Ġáī¥ áĬ®
áĬ½ áĪ²
ĠáĭŃ áĪĥáĪī
áĭ« áĭįáĬķ
ĠáĪ° áī¡
áĭĪ áĪĿ
Ġáīµ áįĪáīµ
ĠáĪķ áī°áī±
Ġáīł áĬ¸
áĮĭ áĮĪáĭĿ
ĠáĬŃáīµ áĪ¨áĬ½áī¦
ĠáĬ£áĭŃáīµ áīķ
ĠáĪĿáĬ½ áĬ£áĪį
Ġáīħáĭ±áĪµ áĬĲáī¶áĪĿ
ĠáīµáĪĿáĪħáĪŃ áīµáī³áīµ
áĭĸ áĪĿáĬķ
ĠáĬ£áĪµ áĪ«
Ġáī¥áĬ¥ áĬ£
ĠáĬ¢áĪĪ áĭ®
áįģ áįħ
Ġáĭ°áĪ¨áĮĥ áī³áīµ
ĠáĪįáĪĿ áĭĵáī³áĭĬ
ĠáĬķáĪĺáĬķ áĬ¥áĪ°áĭ«áīµ
ĠáĮĪáĭ² áįĪ
Ġ199 1
ĠáĪĵáĮ¥ áĬ£áĬķ
ĠáįĪáĪ¨ áīĵáĬķ
Ġáī¥áĪĤ áĪį
ĠáĬ£áĭ¨áĭµáĪį áĭ®áĬķ
áīł áĪįáĬķ
áīł áĪİáĬķ
ĠáĬŃ áįĪáĪįáĮ¡
ĠáĬ¨ áĬĵ
Ġáĭ° áĮį
ĠáĭĺáĭŃ áī°áĪĵ
ĠáĬ¥áĪĿ áī¢
ĠáĬ¥áīµ áī¥áĪĥáĪį
ĠáĪĺáĪį áĪĵáĪµ
áĭĲ áĪŃ
áīµáĬ©áĪĿ áĬķ
ĠáĪĵáīł áĬķ
Ġáī°áĭĪ áĬ¨áĪµ
áīłáī¥ áĭ«
áįķ áĪ®
áĮ¥áįį áĬ£
ĠáĪĨ áĭŃ
ĠáĪ» áĪĤ
ĠáĭŃáĪĺáĪµ áĪī
Ġáī°áĪĿ áĪĥáĪ«áĭŃ
Ġáī¶ áĪĿ
ĠáĬ«áī¶áĪĬáĬ« áĭĬáīµ
áĭ Ħ
ĠáĬ£ áĮī
ĠáĭĿ áĮĪáĪį
ĠáĬ¨ áĭµáĬ©
áĪĽ áĮ¥
áĭĵ áĬ©áĪĿ
áĮ½ áĪĿáī²
áĭĪ áīµáĬķ
áĭĪ áĭ³áĬ¥áī³
áĭ³ áĭµáĪŃ
Ġáĭĵ áĪŃáĬŃ
Ġáīµ áĬª
áĮ¥ áī¥
ĠáĭĺáĭŃ áĭ°áĪĬ
Ġáįį áĮ¹
ĠáĮ½ áī¡
ĠáĬ£áĭŃáī° áĪ¨áĭµ
Ġáĭ² áĪŀáĬŃáĪ«
áĪ¨áĬķ áī¶áĪµ
áĬłáī¥ áĪĦáĪŃ
ĠáĬķáĮį áĭ³áĭĬ
ĠáĬ¢áĬķ áī°
Ġáįĵ áĪªáĪµ
ĠáĬ¥áĬķáī°áĭĺáĭŃ áĬ®áĬĲ
ĠáĪĿáĪħ áĪ®
ĠáįķáĪ® áĮįáĪ«
ĠáĬķáĪĺáĬķ áįĪ
áī³áĭį áĬĲáīµ
ĠáĭŃáĪĺáĪµ áĮĪáĬķ
Ġáī°áĮłáīĴ áĪĻ
ĠáĬķáīł áĭĵáĪį
ĠáĭįáĪ³áĬĶ áī³áīµ
ĠáĬ£áīĢ áĭ²
ĠáĬ£áĮĨ áĬ¹áĪĿ
ĠáĭĭáĪķ áĪµ
ĠáĭµáĪķáĬķ áĬĲáīµ
Ġy ou
ĠáĬŃáĪµáī° áīµ
áī° áī³
ĠáĬķ áĬ¸áĭŃáĭµ
ĠáĬŃ áĭĪáĪµáĭ±
áĪĺ áĮ¢
áĪĭ áī°áĭŃ
Ġáī° áĭ°áĪŃ
áĪĵ áįĬ
Ġáīł áĭŀáĪĿ
Ġáĭ¨ áĭį
áĮ» áĮ»
ĠáĬ¥áĬķáī° áīĲ
áĬł áĪĿáĬķ
Ġáī£ áĭµáĪĺ
ĠáĬķáĪµ áĭ°
ĠáĬ£áĭŃáīµ áĬ¥
ĠáĬķáĪķ áĮį
Ġáī¥áĬ£ áĬķ
ĠáĬ£áīµ áĭ«
ĠáĪĿáīµ áĭķáĪŃ
Ġáįĭ áĪµáĮĭ
áĬ½áĬķ áĭ«áī±
ĠáĪ°áĪļ áĭķáĬ«
Ġáīłáī¥ áĪĵáĭ°
ĠáĬķáī£áĭķ áĪĪáĭŃ
Ġáī°áĪ¨áĬº áī¦áĪĿ
ĠáĪĿáī¹ áĬ¥
Ġ www
ĠáĬķ áĮĬ
ĠáĬķ áĪĪáĭįáĮ¢
Ġáī¥ áĬ¨áĪĿáĭļ
ĠáĬ¨ áĭĭ
ĠáĭŃ áĪĺáĪį
ĠáĪµ áĪī
ĠáĬ« áĪĬ
ĠáĬ¥áĬķ áĮĢáĪ«
ĠáĬ£áĭŃ áįĪáĪŃ
áĮ¸ áĪİáĪĿ
Ġáĭļ áĪĺ
ĠáĬŃáīµ áī¥áĪī
Ġáĭķ áĭ±
ĠáĮ¸ áī¢áī¥
Ġáī£ áĪ®
ĠáĬª áĪħáĪī
áĪµáī° áĪ«áīµ
ĠáĬ£áĭŃáīµ áĬ¹áĬķ
ĠáĪĺáĪ° áĪĭáīµáĬķ
ĠáĬŃáįį áĮ½áĪĿ
áī¥áĪİ áĬķ
ĠáĭĪáĪĪ áĭ°áīµ
ĠáĬķáĭ° áīĨáĪĿ
ĠáĪĺáĪĪ áĬ¸áīµ
Ġáĭī áĪī
áĮ¥áįį áĬ¦áĪĿ
ĠáĭĺáĭŃáĪĿ áĪħ
ĠáĭĿáĪµ áĪ«áĪķ
ĠáĭįáĪįáīĢ áĪ°áī¥
áĮĪáĪįáĮ¸ áĪįáĬĵ
ĠáįĪáĪ¨áĬķ áĮĤ
ĠáĭĵáĬķáīĢ áĮ»áīµ
ĠáĪ³áĭķáī¤ áĬĳ
Ġt h
ĠáĭĦ áĬķáĬĵ
ĠáĬ«áī¶áĪĬ áĬŃ
ĠáĭķáĭµáĪļ áĬ¦áĪĿ
ĠáĪħáįĥ áĬĵáīµ
ĠáĪ«áĭķ áĭ²
Ġáī¥áĪįáĪ½ áĭįáĬĵ
ĠáĭĿ áįĢ
áĭį áĪī
áĭį áĬ«
áĪ° áĬĵáĭŃ
ĠáĬ¢ áĭĽ
áĭ® áĪĿáĬķ
áĪĥ áīµáĬķ
ĠáĪĽ áĭĵáĪį
ĠáĬ¥áĬķáī° áĬ®
Ġáĭļ áĬ¸
Ġáĭļ áįįáĮ¸áĪĿ
ĠáĬŃáĬķ áĭĪ
ĠáĪį áĪ³
ĠáĬª áĬĲáĮį
ĠáĬ¥áĬĵ áīĲ
ĠáĬ¥áīµ áĬĲ
áĬ£áīµ áĭĭ
ĠáĬłáī¥ áĬ¡
ĠáĬ£áĪĽ áĬ¢áīµ
Ġáī¥áĪķ áĭŃáĭĪáīµ
Ġ... "
ĠáĪĵáĭ² áĮį
áĬķáī¥ áī¦
ĠáĭĿáĪ¨áĬ¸ áī¥áĬĵáĭ®
ĠáīĢáĪįáĮ¢ áįĪ
ĠáĪĮ áĭĭáĭįáĭ«áĬķ
ĠáĪµáĭī áĬ£áīµ
ĠáĬ»áī£ áī³áī¶áĪĿ
ĠáĬ£áĪ¨áĮĭáĮĬ áĮ¹
ĠáĭĺáĮĭáĮł áĪŀ
ĠáĬ¥áĮĥ áĪĿ
ĠáĪŃáĬ¤ áĬ¹
ĠáĮŃáī¥ áĮ¢
Ġ or
ĠáĬķ áįħ
ĠáĬŃ áĮĪáĪįáĮ¾
áĪĺ áĪª
Ġáĭĺ áĪ³
Ġáī° áĪĥáĬķ
áįĪ áī²
Ġáĭ¨ áīķáĪŃáī¥
ĠáĪħ áĪŃ
Ġáĭļ áįĪáĪįáĮ¥
Ġáīħ áĬĲ
ĠáĬŃáĬķ áĭį
ĠáīĢ áĮ»áĪį
áīĵ áĪį
ĠáĬ«áĪį áĬłáĭŃáī²
ĠáĬķáĭĵ áĪ°áĪŃáī°
ĠáĬ£áĭŃáĬĲ áīłáĪ«áĬķ
Ġ7 5
ĠáĬ£áīµ áĪª
ĠáĮ¨ áĬ«áĬķ
ĠáĪĿáĮ½ áĪĭáĭŃ
ĠáĪĨ áĪĭáĬķáĭµ
ĠáĬķáĭį áĪĵáīµ
ĠáĮĪáĪĿ áĮĭ
Ġáī°áīĲáī¢ áĪİáĪĿ
Ġáī°áĪĽáĪĤ áĪŃáĬĵ
ĠáįįáĮ¡ áĪ«áīµ
ĠáĬ£áĭĽ áĭļ
ĠáĮłáīķ áĪĭáĪĭ
Ġáĭ²áįķáĪİáĪĽ áĪ²
ĠáĪĿáĭįáĪħ áĪĥáĭµ
áĭį áĪĴ
áĭķ áĬ¡
Ġáĭĵ áīĥ
áĪļ áĬ«áĬ¤áĪį
ĠáĪħ áĮįáĭ°
ĠáĭĿáī° áĮĭ
áī£áīµ áĬĵ
áĪĽáĭķ áī¥áĪį
áĭµáĪķ áĬĸ
áĭµáĪķ áĬĲáĬĴ
ĠáĬ¨áĪĿáĭĺ áĪĭ
ĠáĬ² áĬĲáī³áīµ
Ġáī¥áĪį áī¡
ĠáĭĿáīłáĪį áĬ©
Ġáī¥áĪĽ áĪĪáīµ
ĠáĬķáĬ¤ áĪŃáīµáĪ«
ĠáįįáĪ½áĬ½ áī³
ĠáĪĿáĪ¥ áĮ¢áĪŃ
áįįáĪįáĮł áīµ
ĠáĮİáĪ¨áī£áī¥ áī²
ĠáĬ Ģ
áĪµ áĬ¨
áĬĲ áĪį
ĠáĬ¨ áįį
áĪ² áīµ
ĠáīĢ áįĤ
ĠáĬŃáĪį áĪĭáīµ
áĭĲ áĭŃáī²
áĮįáī£ áĪ©
ĠáĬ©áĬĲáī³áīµ áĬķ
ĠáĬ£áĭ° áĭŃáĬķ
ĠáĬŃáĪµ áĪ«áĪķ
ĠáĪĵáī² áī¶áĪĿ
ĠáĪĺáĪ³áĪŃáĪĴ áī³áīµ
ĠáĬ£áĪĿáĮº áĬ¡
áĬ»áĬ¸ áĪª
ĠáĪĿáĮ½áĬķ áĬĵáĭķ
ĠáĪ¨áĪµ áĬĴ
Ġ âĢ¢
áĪĿ áĪ«
ĠáĭĿ áĮĢáĪĺ
ĠáĭĿ áĪĳáĪį
Ġáī¥ áĮĭ
áĮĪ áĪĻ
áĪĽ áĭĿ
áĭ° áĪįáĬĵ
ĠáĭĪ áĮ½áĭĵ
ĠáĮĪ áĪĥáĬĲáĪĿ
ĠáĪĥ áĪįáĭ©
Ġáį ª
ĠáĬª áĭĭ
ĠáĬł áĪĪáĭī
áĬ£áī¥ áĪĦáĪŃ
Ġáīĥ áĬĵ
Ġáĭľ áĭµáĪįáĭ¨áĬĵ
ĠáĬ¥áīµ áĭ°áĪįáĭ©
Ġáĭ² áĪŀáĬŃáĪ«áĪµáĭ«áĭĬ
ĠáĬķáĬ½ áĪįáī²
ĠáīĲ áĪįáĮ¢
ĠáĪ² áĬĸ
Ġáĭĵáī¥ áĭŃáĬķ
áįįáĪį áĮ¥
ĠáĬ£áĪµáī° áĭĭ
Ġáī°áĮ¸ áĪļ
ĠáĭĪáĪĪáĭ¶ áī³áīµ
áīłáĮ½ áĪĵ
ĠáĪĺáĪĽ áĪ¨
Ġáĭ°áĪ´ áī³áīµ
áĬ¥áĭĭ áĬĳ
â Ŀ¤
ĠáĬ£ áĮ»
áĪį áĭŃ
áĪµ áī¦
áĬĵ áĪĽ
ĠáĭĿ áĪ«
ĠáĭĿ áĭĽ
ĠáĭĿ áĬŃáĬ¥áĪį
Ġáī¥ áĭ°áĪĿ
ĠáĬŃ áĭĵáī¢
áĬ£ áī£
ĠáĬ¨ áī¥áĪį
áĪĺ áīµáĬķ
áĮĪ áĬķáĭĺáī¥
ĠáĪĿáĪµ áĪķ
ĠáĪĺáĬķ áĭ©
ĠáĬŃáĬķ áĮ½áĪĬ
áĬł áī±
ĠáĪ½ áĬ®
ĠáĭĿáīł áĮ½áĪĳ
áĭ³áĬ¥ áī²
ĠáĪµáĪĿ áĬ¦áĬķ
ĠáĬ£áĪŃ áĬª
Ġáī£áĪħ áī³
ĠáĬ¬ áĭµáĬ«
ĠáĮĲáĭŃáī³ áĬ¡
áĪĢ áĬķ
ĠáĪ°áĭĵ áīµáĬķ
ĠáĪĿáĮ½ áĪ«áĭŃ
ĠáĪĵáĪĪ áĭįáī²
Ġáī°áĮ» áĭĬ
ĠáĭŃáĮį áīłáĬ£áĬĵ
ĠáĮĪáĭ² áįİáĪĿ
áĪŃáĬ£ áĭ¨
ĠáĭĿáĭĿ áĬ¨áĪŃ
ĠáĪĽáĪĪ áī±
ĠáĭĭáĬķ áĬĲáīµ
ĠáĭĿáī°áĪĺáĪµ áĪ¨áī°
Ġáĭ°áī¡ áī£áĭĬ
Ġáĭĵáĭ« áĪ¹
Ġ k
ĠáĬ£ áĬ¥áī²
ĠáĬ¥ áĮįáĪŃ
ĠáĬ¥ áĪĽáĬķ
áĪŃ áī±
áĬ¥ áĭŀáĪĿ
áĪĭ áĪĿáĬķ
áĭķ áĪİ
ĠáĭŃ áĪŃáĬ¢
áĪ° áī£
Ġáĭ¨ áĪ¨áĭµáĬ¥
Ġáī¤ áīµáĬķ
áĪħáĪį áĭĭ
ĠáĪĺáĮį áī¥áĬķ
ĠáĪĿáĪį áĬ¥áī²
Ġáī¥áĭµ áĪĿáĪŃ
ĠáĭĿáĬĲáīłáĪ© áĬķ
Ġáī¥áĭĺ áĪĺáĬķ
ĠáĬŃáĪħáĪį áĭį
ĠáĬ£áĪŃáĬ¥ áĭ©
Ġáī°áĪĪ áĭĬ
ĠáĪĽáĬ¥áĬ¸ áĪĭáĭŃ
Ġáī¥áĮ¹ áĬ¥
Ġáīħáĭ³ áĪķ
áįįáĮ½ áĪŀ
áĭ°áĪįáĭ¨ áĬķáĬķ
ĠáĭįáĪ½áĮ¥ áĬ»
ĠáĭĿ áī¥áĪĭáĭķ
Ġáī¥ áĬ¹
áĬ£ áīłáĭŃ
áĮį áĪŃáĬķ
Ġáī° áįĢ
ĠáĪ° áĪĺáĪ¨
ĠáĪµ áĭ©áĪĿ
áĪħ áĪ«áĬķ
Ġáĭ¨ áĪŃáĬ¢
áĪ² áĭ«
ĠáĬŃáĬķ áĪ«áĬ¸áī¥
ĠáīĢ áĮ½áĪª
ĠáĬ¤ áĬķ
ĠáĬ¥áī° áĪĺ
Ġáī¤áīµ áīµáĪĿáĪħáĪŃáī²
ĠáĪĿáĭµ áĪŃ
Ġáī°áĪĺ áĭĽ
ĠáĪĿáĬ¥ áĬ«áī¥
ĠáīµáĪĿáĪħáĪŃ áī¶áĪĿ
ĠáīĨ áĪŃ
ĠáĪĿáĭį áĪ³áĬķ
Ġáī°áĪ¨ áįĪ
ĠáĪĬ áĮį
Ġáī¥áīĲ áĪ¨áī£
ĠáĪ°áĪļ áĭķáĬ©áĪĿ
ĠáĬķáĮ¥ áĭķáĬĵ
ĠáĭĪáĭµ áĬ»
áĪĺáĮ½ áĪĵáįį
ĠáĪ¨áĬºáīł áĭ®
Ġáī°áĪ°áĪª áĪĳ
ĠáĭĭáĪķ áĭļ
ĠáĪ°áĪĽáĬ¥ áī³áīµáĬĵ
ĠáīĢáĮ¥ áī³áĭĬ
ĠáĪµáĬŃáįį áī³
ĠáĬ£ áĪĽáĬķ
áĪŃ áĪ³
áĪĭ áĮį
áĪ« áī¡
áĭį áĬ¡
áĪ° áĪĪáīµ
áĭĵ áĭĺ
áĬ¨ áĬķ
áĭ® áĪŃáĬŃ
áĮł áĪĭ
ĠáĭĿáī° áĪ«áĬ¥áĭ¨
ĠáĪį áĪĽáĬĸ
ĠáĬł áī£
ĠáĬ½ áĮ¸áĭµáīķ
ĠáĬ¨áĭŃ áĬ®áĬĲ
ĠáĪĪ áĬ»áĭĬ
Ġáĭĭ áĬĴáĬķ
ĠáĪµáĪĿ áĪĿ
ĠáĪµáĪŃ áĪĸáĪĿ
Ġ5 3
Ġ19 5
áĭĺáĬķ áī±
ĠáĪĺáĪĬ áĪµáĬ«
ĠáĬ£áīł áĭį
ĠáĮ£ áī¥áĭ«
Ġáī» áĭŃáĬĵáĬķ
ĠáĬŃáĪĺ áĮ¹
ĠáĭĪáĭ« áĬĶ
ag e
ĠáĬ¥áī¥ áĪ«áĭŃáĪµáĮ¢
ĠáĭķáĪĭ áĪĽáĬķ
ĠáĪĿáĬķáī£ áĪ®áĪĿ
Ġáĭ°áĮĭ áįĬ
ĠáĬĲáĬĲ áĭĮ
ĠáĮ º
áĪĪ áįī
ĠáĬķ áīĥáĪĪáĪµ
áĬĲ áīĲ
áĬ¥ áĭ©
ĠáĪĺ áĬ»
áĪ¨ áĭŃáī²
ĠáĪµ áįį
ĠáĪµ áĭĵ
Ġáĭµ áĪĿáĪŃ
ĠáĮį áĭķáĭĿ
áĪĬ áĪİáĪĿ
ĠáĭĪ áĬł
áĬ¸ áĬĵ
áī¡ áĪī
Ġáįį áī±
ĠáĪį áĭĿáī¥
ĠáĭĺáĪĪ áĬ£áĪĪáĪĽáĭĬ
ĠáĭĿáīł áĪĥ
ĠáĪĪ áī¢
ĠáĪĿáĭµ áī¥
ĠáĬ¨áĪĿáĭĿ áĪĵ
Ġáĭķáĭµ áĪĺáĭŃ
ĠáĬķáĪ° áĪĽ
ĠáĬ£áīłáĭŃ áĬķ
ĠáĪĿáīħ áĭŃ
ĠáĬķáĪħáĭĿ áī¥áĬĵ
ĠáĬ¥áĬ© áī¥
áĬĲáįį áĪ²
ĠáĪĺáīłáīĨ áĪį
ĠáĪĿáĬķáīħ áĮ¥áīĥáĮ¥
; ;
áĪĿ áĭİáĪĿ
ĠáĭĿ áī¥áĪĪáĬĵ
Ġáī¥ áī»
áĮį áĪ«áĭŃ
ĠáĪµ áĭĭ
áĮ½ áĪ¨
ĠáĭĿáī° áĭ³
Ġáĭķ áĮī
ĠáĬŃáĬķ áĪŃáĭµáĬ¦
ĠáĬ¥áī° áĮ¸
ĠáĬ¥áĬĵ áĪĺáĪ°
ĠáĪĺáĪµ áīĢ
áī¤ áī°áĭŃ
áĮįáī£ áĪ¨
áĪĦ áĪĿ
áĭµáĬķ áĮį
Ġ. "
áĪ°áĪĿ áĭĵáĬĴ
ĠáĪĺáĭ° áīĢáĪ²
Ġáī°áĮĪ áĪ¨áĪĻ
Ġáī¥áĬ¸áĪĺáĭŃ áĬķ
ĠáĭĢ áĭŃáĬĵ
áĭĺáĬķ áīµ
áĪµáĪĿ áĭĳ
Ġáīķ áĭµ
ĠáĬ¹ áĬķ
ĠáĭŃáĪĿ áĪĪáĪµ
Ġáī°áĪ³ áĭĴ
ĠáĭķáĪĪ áī±
ĠáĬķáĬĲáįį áĪ°áĭŃ
Ġáī°áĪ«áĬ¥ áĭ®áĪĿ
áĪĺáĪĭáĪĪ áĪ±
ĠáĪĵáĪ² áīł
Ġáĭ¨áĪķ áĭĭáīµ
Ġáī°áĭĪáĪ² áĬĳ
Ġáĭ°áĮĭáĮĬ áĪĺ
ĠáĬŃáĪĪ áĭĵáĪį
ĠáĪĵáīłáĪ¨ áī³
áĭĪáĬķáĮĮ áĪį
áī° áĭĭáĭŃ
áįį áī±
áĮį áī¥áĪª
áĬ« áĭķ
áĪ³ áĬĶ
ĠáĭĪ áĬĵáĬĴ
áīķ áĭĳ
áī¡ áĭİ
ĠáĪħ áī¡áī¥
ĠáĬŃáīµ áĪ°áĪĿáĭķ
Ġáĭķ áĪĿáī£
ĠáĪĺáĪ° áĬĵ
áĪ» áĪį
áĭĢ áĬķ
ĠáĬ£áī£ áĮĬ
Ġáī¦áī³ áĬ¡
Ġáī°áĪ« áĬ¸
ĠáĬ£áĪĿáĪĭ áĬ¸
Ġáīµáĭķ áĭĿ
ĠáĬķáĪį áī¢
ĠáĪĺáĭĭ áĬ¥áĪĪ
ĠáĬŃáī¥áĪŃ áī³áīµ
ĠáĪļáĪĬ áĭ¨áĬķ
ĠáĭĪáī¥ áĪ³áĭŃáīµ
Ġáī¥áĪĺáĮĢáĪĺáĪŃ áī³
4 4
o c
áĬķ áĮ£
áīµ áĬĵáĬķ
ĠáĬ¥ áĪĻáĬķáĬķ
ĠáĬķ áĪ«áĬ¸áī¥
ĠáĬŃ áĪķáĮįáĭĿ
ĠáĬ¨ áĪ¨
ĠáĬĲ áĬĵáĭŃ
áĭĿ áĪķ
ĠáĬ¥áĬķ áĭ°áĪĬ
áĬŃ áĪķáī²
ĠáĬ¸ áī¢áĭµ
ĠáĬ£áĪĪ áĬº
ĠáĬŃáĬķ áĮ¥áīĢáĪĺáĪī
áīĤ áĭĳ
áĪĺáĪµ áĪī
áĪľ áīµáĬķ
ĠáĪĿáĬķ áĮ»
áī¤ áĬķ
ĠáĭĿáĪĺ áįĢ
ĠáĪĽáĪķ áī°áĪĿ
ĠáĮĵ áĪī
áī°áĪĵ áĪ³áĪµáī£
Ġáī°áĬ£ áĬ¨áī¡
ĠáĮ¾ áĪĺ
ĠáĭĿáĭį áĪµ
ĠáĪĿáĭķáĪ« áī£áĭĬ
ĠáĪĿáĭķáĪ« áī£áĭįáĭ«áĬķ
ĠáĪĿáĭĥáĬķ áĬ©áĪĿ
ĠáĪĺáĪĵ áĭĽ
áĪķáĮįáĭĺ áĬĴ
ĠáĪĦ áĭĭáĬķáĬķ
ĠáĭµáĪį áĭµáĪį
ĠC om
ĠáĪĵáĮº áĬķ
áīĥáĭĪ áĪĿ
ĠáĬķáĪĿáĬ¥ áī³áĭį
Ġáī¥áĪĿáīķ áĮ»áĪį
ĠáĮİáĭ°áĬĵ áī³áīµ
ĠáĪĺáįĤ áĬ¡
ĠáĭĺáĪĪáĭĵ áĪĪáĪĽáĭĬ
ĠáĪ°áĪĮ áĭ³
ĠáĬķ áīłáĪŃ
Ġáī¥ áĬŃáĪįáī°
ĠáĪĺ áī°áĪĵ
ĠáĬŃ áĪķáĮįáĭĻ
áĪ¨ áĭ²
áĪķ áĬĲáīµ
áįį áĪĴ
ĠáĭŃ áĮŃ
ĠáĭŃ áĮ¸áĪį
ĠáĬ¨áĪĿ áĬķ
ĠáĬ£áĭŃ áĬŃáĬķ
áĬ¸ áĬĴ
áĪ² áĪµ
ĠáĪħ áī¦
áĬ©áĪĿ áĬĴ
ĠáĭĺáĭŃ áĪĺ
áĮº áĪĳ
ĠáĬ£áĭŃáĬ® áĬĲ
ĠáĬ¥áīµ áĭ°áĪįáĭ®
ĠáĬ£áĭŃáīµ áĭ°áĪįáĭ¨áĬķáĬķ
ĠáĬº áī¥áĪĥáĪį
ĠáĭĿáĪĺ áĪ¨
ĠáĬ£áĭŃáī° áĬ£
ĠáĪµáĪĪáĭĿ áĬ¾áĬĳ
ĠáĭĿáĬ£ áĪĿáĬĳ
ĠáĬ¨áĪĿáĭĺ áĪĪáĬĵ
ĠáĬŃáĪħ áī¦áĪĿ
áĭķáĬķ áīħ
Ġáī¥áĭĺ áĪĪáĭİ
Ġáīķ áĭ±áĪ³áīµ
ĠáĮīáī£áĬ¤ áī³áīµ
ĠáĬ£áĬ¥áĪĿáĪ® áĭŃ
ĠáĪ°áīłáĭŃ áī°áĭŃ
ĠáĪ°áĪĿ áĭĶ
Ġáī¥áĪĿáĪŃ áĬ£áĭŃ
Ġáī°áĪĺáĭĿáĮĬ áī¡
áī¥ áī¦
áĪĭ áĪ°
Ġáī° áī¥
áĭ³ áĬ£
áĪĬ áĪ±
ĠáĪĽ áĪŃáĭ«áĪĿáĬķ
ĠáĬ¥áĬķáī° áĬķ
ĠáĬ¸ áī¶
Ġáį ©
ĠáĬŃáĬķ áĪ°áĪĿáĭķ
Ġáī£ áĭĵáĪį
ĠáĪŃ áĬ¡áĭŃ
ĠáĬ¨áĭŃ áĮ¸áĬķáĪĲ
ĠáĮĮ áī³
Ġáī³áĪªáĬ½ áĬķ
Ġáī°áĮĭ áĭµáĪİ
ĠáĭĺáĪĺ áĭµ
ĠáĭĿáĮį áīłáĪ¨áĪī
ĠáĪĿáĭķáī£ áĪĪáĬķ
ĠáĬŃáī¥ áĭ°áīµ
ĠáįĪáī°áĬĵ áī³áīµ
Ġáī¥áĪ½ áĪĿ
ĠáĭĵáĭĪ áī³áīµ
ĠáĭĿáĭķáĭµáĪļ áĬ¦áĪĿ
Ġáī¥áĬ½áī¥áĪ¨áīµ áĬ©áĪĿ
ĠáĬ®áĪĿáįķáĭ© áī°áĪŃ
Ġáī¥áĪ«áĭļ áĪį
áī ®
áī¥ áĮ¥
Ġáī° áĪ¨áĬ½áīł
ĠáĭŃ áĭĺ
áĭĵ áī°áĭŃ
ĠáĬ£áĭŃ áĮįáī¥
Ġáĭ° áĪį
ĠáĬ¥áĬķáī° áīłáĪįáĬĵ
ĠáĪĺáĬķ áĭ°
ĠáĮįáĬķ áĬ¨
áĪ» áīµ
áĪĥáĪį áī²
áīĴ áĪī
ĠáĪĿáįį áī³áĪķ
ĠáĬĲáī¥ áĪ¶áĪĿ
Ġáī°áĪĺáĪĬ áĪµáĬ«
ĠáĭĺáĭŃáĬķ áĬ½áĬ¥áĪį
ĠáĮįáĪŃ áĪĽáĭŃ
ĠáĮ¸áĪİ áīµáĬĵ
áįįáĪĪáĮ¥ áĬķ
Ġáī¥áīĵ áĪī
Ġáī°áĪįáĬ¥ áĬ®
ĠáĬŃáĪŃáĪµáī¶ áĪµáĬķ
u t
áĪĿ áĮ½
Ġáī¥ áĬ»
áĮį áĪŀ
áĪĵ áĪĿ
ĠáĭŃ áīĲáĪŃáī¥
ĠáĬ£áĭŃ áĮĪáī¥áĪŃáĬķ
áĭ¨ áĭ°
áĮł áĬĲ
ĠáĬ¥áĬĵ áīłáĪĪáīµ
áĪ´ áįįáĬķ
Ġáī¤áī° áĭŃáĬķ
áĪħáĪį áĭį
Ġáĭįáĭµ áī£áīµáĬķ
áĭ´ áĪµ
áĪĵáĪµ áī¥áĬķ
ĠáĭĿáĭį áĪ°áĭµ
áĪ¹ áĬ½
Ġáī°áĮ» áĪ¨
ĠáĭĿáĮĪáīłáĪŃ áĬŃáĭİ
ĠáĬķáĬĲáįį áĪµ
ĠáĪ°áįĬ áĪ©
Ġáĭ¨áĭµáĪįáĭ¨ áĬĴ
ĠáĬ£áĭįáĪµáīµáĪ« áĪĬáĭ«
ĠáĬ£ áĪĬ
ĠáĬ£ áĭ¶
ĠáĬķ áįĪáī±
áī³ áĬ¥
ĠáĬŃ áĭ°
áĪ° áĪ±
ĠáĬ¢ áĭļ
áĭ³ áĪ«
Ġáį ³áį
Ġáĭļ áīĿáĮ¸áĪ©
ĠáĮ¸ áĮķ
ĠáĮ¸ áĪĪáĭ¨
ĠáĬ¤ áĭ°áĬķ
áĪĭáīµ áĬ«
ĠáĬ¨áĪĿáĭĿ áĬĲáīłáĪ©
Ġáĭĭ áĭĽ
áĭĽáĪ¨ áī¢
ĠáĬ£áī¦ áĭŃáĬķ
ĠáĬķáĪĵ áĭ«áĪİ
ĠáĬ£áĪµ áī´áĪŃ
áĪħáĪį áĭĪáĬ©áĪĿ
Ġáįĵ áĪŃáĬŃ
áĮłáįį áĬ¥áĬķ
áĬķáīµ áĬĸ
ĠáĮįáĪŃ áĮŃáīµ
ĠáĬ«áĪŃ áĭ²
ĠáĬ£áĬ¨ áī£áī¢
ĠáĪĺáĪįáĬ¥áĬ½ áī±
ĠáĬ£áĭŃáīł áĪĪáĬķ
ĠáĬķáįī áĭĵáīµ
áī¥ áĬ«áĭ®
ĠáĬ£ áĮ»áī¥
áĬ¥ áĬ»
áī£ áī³áīµ
áĪĵ áĭµáĪŃ
ĠáĭŃ áĭķáĭµ
áĭļ áĬ¡
ĠáĬ¢ áĪľ
áįĪ áĪ½
áīķ áĭİ
áĭĻ áĭĿ
áĬº áĪ©
ĠáĪĿáĭµ áĪ¨áīł
ĠáĬ£áĭ¨ áĬķáīłáī¥
ĠáĬ£áĪķ áĭ²
ĠáĬķáĭ° áīħ
ĠáĭĿáĪĿ áĪħ
ĠáĪĺáĪĪ áĬ®áī³áĭĬ
ĠáĭĺáĭŃáĪĿ áĬ¥
ĠáĬ£áī°áĪĵ áĪ³áĪµ
ĠáĭįáĮ½ áĬ¢áī³áĭĬ
ĠáĭĺáĪŃ áĮĬ
ĠáĬŃáĮį áīłáĪ¨
ĠáĭĿáĪĥáī¥ áĭİ
ĠáĭµáĬħ áĬĲáīµ
Ġáī¥áĭĭ áĮĭ
ĠáĪ°áĪĻ áĬĵáĭĬ
ĠáĬ½áĮ¸áĭµáīķ áĭ¶
áī ¾
áĭŃ áĪķ
ĠáĬ£ áĬĵáī¥
áī° áĪįáĭİ
áĬĵ áĭįáĬķ
ĠáĬķ áīĥáĪį
ĠáĬķ áĭ«áĬ¥áīĨáī¥
áį¡ '
ĠáĬ¨ áĬ«áĭŃáĭµ
áĭķ áī¥áĪį
Ġáĭĺ áĬ½áĬ¥
ĠáĭŃ áĪħáĪįáĭİ
áĪĥ áĪŃáĬķ
áĪļ áĭ«
ĠáĭĺáĭŃ áĬ¥
ĠáĬ® áĪİ
ĠáĬķáĪµ áĪĿáĬ«
áĮħ áĪĿáĪ®
ĠáĪĿáĬķ áīķ
ĠáĬ£áĪĺ áĬĳ
ĠáĪĺáĪŃ áīł
ĠáĬ¨áĪĿáĭĺ áĪĪ
ĠáĬ¬ áįį
ĠáĭĭáĪĭ áĪµ
Ġáī°áĭĵ áĭ²
ĠáĭĿáĭį áĭ³áĬ¥
Ġáī´ áĪĮáįİáĬķ
er s
ĠáĬ£áĪŃáĬ¥ áĪµáīµ
ĠáĪĵáĭį áĬ»
ĠáĪ© áīµ
áĭįáĭķ áĪī
ĠáĮħ áĮįáĬķáĬĲáīµ
Ġáĭ°áĭŃ áī¡
Ġáĭ°áĭŃ áĬ°
ĠáĬĲáīĲ áįĮ
áĭŃ áī¡
ĠáĬķ áī¥áĪİ
ĠáĬŃ áĮłáįįáĬ¥
ĠáĬ£áī¥ áĭĻáĭŃ
Ġáī° áĮĮ
áĬŃ áĪª
Ġáīµ áī¥áĪĥáĪį
áĪħ áĭµ
áĪħ áĭİ
ĠáĪĺáĬķ áĬ¨
ĠáĮ¥ áĪ®áī³
ĠáĪŃ áĬ¸
áĬĸ áĬŃ
áĬ¤ áĪŃáīµáĪ«
ĠáĮī áĬķ
ĠáĬ¥áīµ áĭį
áĭŀ áĬķ
ĠáĬº áĭį
ĠáĬ£áįį áĬ«
áĪ°áĪĿ áĭķáĬķ
Ġáī°áĪµáįĭ áī³áīµ
ĠáĮĵ áĭŃáĪĭ
ĠáĪĺáĬķáĮİ áĭŃáĬķ
ĠáĬ¨áĬĲ áĬ£áĬķ
áī¥áĪ« áĪĤ
Ġ200 1
ĠáĬķáĭį áĮįáĬ¥
áĪ©áĪ³áĪĮ áĪĿáĬķ
áĭķáĪŃ áįį
áĭĪáĪŃ áĭ±
ĠáĬķáĮī áĪĨ
ĠáĬ®áĪļ áī°
ĠáĭĿáĪ¨áĬ£ áĭ©
ĠáĬ¨áī¥ áīħáĭķ
ĠáĬ£áĮ¸áī¢ áīķáĬ«
ĠáĮ¸áĪĭáĬ¥ áī±
ĠáĬ£áĭŃáįįáīĢ áĭ°
ĠáĭĪáī³ áĭ°
ĠáĮ»áĭķáĪŃ áī³áīµ
Ġáī¥áĪĿáī¥ áĮĭáĪµ
4 5
Ġ e
ĠáĪ ĭáĬķ
ĠáĬķ áĬª
ĠáĬķ áĮįáĭ°
ĠáĪĺ áĬŃ
ĠáĪĿ áĪĿáĪŃ
Ġáĭĺ áĪ¨áī¥
ĠáĪ° áĪĭáĪĽ
áĭĪ áĭµ
Ġáīł áīĴ
áĬĴ áīĳ
áĮ» áĭį
áĮ» áĪ¨áĪŃ
áįĭ áĬĸáĪµ
ĠáĬ¥áī° áĭĪáĪį
Ġáī¤áīµ áĬ«áĬķ
Ġáĭ³ áĬĴ
áĪĪáĭŃ áĭİ
ĠáĬº áĮĪáī¥áĪ©
áĮĥ áīµ
ĠáĬķáĬ¥ áī°
ĠáĪ¸ áįĭáī±
Ġáĭ® áĭįáĪĥáĬķáĪµ
áĪĽáĬķ áĪĿ
áįĤ áĪ©
ĠáĭĿáĪ° áĪ«áĪķ
ĠáĪ°áĪļ áĭĶ
Ġáįħ áĬķ
ĠáĪĺáĪª áĮ¹
ĠáĬ£áīķ áĪªáī¦áĪĿ
áĪ°áĭµ áĭµ
ĠáīłáĮº áĪĵ
ĠáĭµáĪį áĭĭáīµ
ĠáĬŃáĬķáĭµ áī²
ĠáĭĪáī° áĪĥáĭ°áĪŃ
áĮ¸áĪį áī³
ĠáĪĺáĭµáĪĥ áĬĴ
Ġáī°áĪĺáĪŃ áĭķ
ĠáĪĵáĭ³ áĪ½
ĠáįĪáĪ« áĭ²
Ġáī°áĭĵáĭĺ áī¥áī²
ĠáĮįáĪī áĮ½
f e
Ġ &
áī° áĬ©áĪĿ
ĠáĭĿ áĭ³
ĠáĬķ áĮ»
ĠáĬ¨ áĪ²
ĠáĪĵ áĭĿ
ĠáĬ¥áĭļ áĭįáĬķ
áī¦ áī³
ĠáĬ¥áĬķáī° áīłáĪĪ
ĠáĬ¥áĬķáī° áĭĦ
ĠáĮ¥ áĪŃáĬĵ
ĠáĬŃáīµ áī¥áĪİ
ĠáĬ® áĭµ
ĠáĬŃáĪį áī°áĬķ
áĪ¨áĬ½ áī¥
ĠáĮĲ áĬķáĬº
Ġáī¥áĬ£ áī¦
ĠáįĬ áĪįáĪļ
áĪ½áĬķ áĮį
áĪĵáĭµ áĮį
ĠáĪĵáĭĬ áĪ±
ĠáĮīáĭµ áĮĵáĭµ
ĠáĮįáĭ° áįį
ĠáĬŃáī¥áĪŃ áī²
ĠáĪµáĪįáĮ£ áĬķáĬķ
ĠáĭĿáĪ°áĪĽáĭķ áĬ©áĪĿáĭİ
ĠáĪĺáĮ¥ áī£áĪķáī²
ĠáĭŃáĪµáĪĥ áīħáĬķ
ĠáīģáĮ½ áĮ½áĪŃ
ĠáĬķáĭµáĪķ áĬĲáīµ
Ġáĭ²áĬŃáī³ áī¶
ĠáĬ¥ áĪĺáīµ
áī° áĪŃáĬķ
áīł áīł
áīł áī±
ĠáĬŃ áįĪáĪįáĮ¦
áĪ° áĪįáĬ©áĪĿ
áĮ½ áĪ®áĪĿ
ĠáĬ£áĭŃ áĬ¹áĬķ
ĠáĭĪ áĮ½
ĠáĪķ áīµ
ĠáĮĪ áī£
Ġáī£ áĮĢáīµ
ĠáĪ½ áĪķáĬķ
áĪŃáĪµ áĬķ
áĪĤ áĪī
áĮĵ áĪļ
Ġáī°áĪ° áĭ²
ĠáĬ¨áĪĪ áĬ¹áĪĿ
Ġáī°áĭĭ áĮĭ
ĠáĪĿáĭĿ áĪŃáĪ«áī¥
ĠáĬ£áī° áĬ£
Ġáī¥áĪ°áĬķ áīłáīµ
ĠáĬ£áĭĺ áĭįáī²
ĠáĪ°áīłáĭŃ áī±áĬķ
ĠáĪĤáĭĪáīµ áĬĵ
áĪĺáĪµáĮį áĬĳ
ĠáĬĲáĬķ áĪĵáĭµáĪķ
ĠáĭĺáĭŃáĬ® áĭŃáĬĳ
ĠáĪĺáī¥áĭĽáĪķ áīµáĬĵ
ĠáĬŃáĭįáĬķ áĬĲáīµ
ĠáĬ¥áĬĵáĭĪáĪ° áĬ¸
ĠáĪĿáīµáĬ¥áĬ½ áĬ»áī¥
ĠáĪ¶áįįáīµ áĭĮ
Ġáī¥áĪŃáĮį áįħ
ĠáīµáĭķáĭĿ áī¥áī²
t t
ĠáĬķ áĪŀ
ĠáĬŃ áĪĿáĪŃ
áĬ£ áī¦áĭŃ
ĠáĪĿ áĭĵáĪįáī²
ĠáĪĿ áĪ¨áĮ½
áĭķ áī³áīµ
áĭ° áĬł
áĭ° áĪįáĬ«
Ġáī° áĮįáĪ³
ĠáĪĵ áĪ¸
ĠáĭŃ áĪħáīłáĬĵ
áĭĵ áī£áī¥
áĭ³ áįį
Ġáĭ° áĪĽáĪµ
ĠáĮĪ áīłáĪį
Ġáĭį áįī
Ġáĭļ áįįáĪĪáĮ¥
ĠáĮ¸ áĮĭáī³áīµ
ĠáĬª áĪķáĮįáĭĺáĬ«
ĠáĮ½ áĭ©áįį
Ġáĭľ áĪŃáĬ¢
ĠáĪĿáĬ½ áĪŃáĬķ
ĠáĬķáĪķ áĪ°áī¥
ĠáĪµáĪŃ áĬĵáĭŃ
Ġáĭ² áĪ²
ĠáįįáĪį áĭŃáī²
ĠáĪĭ áī£áĬķ
áĪķáĪį áĪĭáįį
Ġáī¢ áĪ«
ĠáĭŃáĭĪ áĪĥáī¥
ĠáĭµáĬķ áīĤ
áĪ°áĪĿáĭĳ áĬķ
it y
ĠáĭįáĪħ áĭ°áīµ
ĠáīµáĬ½ áĬŃáĪį
ĠáĬķáĪĿáĭķ áĭĭáīµ
ĠáĬĲáī¦ áĬ¡
Ġ> >
ĠáīłáĪĥ áĪĭáĭŃ
ĠáĪįáĭķáĪĮ áĬĵ
ĠáĬ¤áĪĮ áĬŃáīµáĪªáĬŃ
áĪĪ áĭ±
ĠáĭĿ áĮŃ
ĠáĬ¨ áĬ«
ĠáĬĲ áĭĵ
ĠáĪĵ áī³áī²
áĪĵ áĭ®
ĠáĬ« áĪ³
ĠáĬ£áĭŃ áĮ¸áĬķ
áīķ áĮ½áĪį
áĮł áĪŃáĬķ
áĪĿáĪĭ áĬ¸áĭŃ
ĠáĬķáĪĿ áĪħáĬĵ
ĠáĬķáĪĿ áĬŃáĭ«áĭµ
ĠáĬ¥áīµ áĪĺáĮ½áĬ¥
ĠáĬĲáĭŃáĪ© áĬĵ
ĠáĪ³ áĪķáĪį
ĠáĬķáĬ£ áī¥áĪŃáĪĥáĪĿ
ĠáīµáĪĿáĪħáĪŃ áī±
Ġ5 4
Ġáī³áĪª áĬ¹
áĪķáĮį áĭĽ
ĠáĪħáĮįáĭ°áįį áĬķ
ĠáĬ¢áĬķ áĭ³
ĠáĪľ áĪĭáī³áīµ
áĪĺáĪµáĮį áĬĲáĬ©áĪĿ
Ġáĭĺáĭ³ áĮįáĪĿ
ĠáĮ¸áĭĪáī³ áī³áīµ
Ġáī°áĬķáĪµ áĬ¥
Ġáī°áĬķáĪµ áĬ¡
ĠáĭĿáīłáĮ½ áĪĲ
ĠáĬ£áīĭ áĪª
ĠáĬ£áĭŃáĪ¨áĬ¸áī¥ áĬ©áĬķ
ĠáĭŃáĬ« áĬ£áĪį
ĠáĪķáĮħ áĪµ
Ġáī°áĪĵáī³áīµ áĬĲáīµ
ĠáĪĿáĭµáĪ¨áīł áĭ³
áĬ ŀ
áĪŃ áī³
ĠáĭĿ áīµáĬķ
ĠáĭĿ áĪħáĪįáĭİ
ĠáĬ¨ áįįáĪŃ
áĪĽ áĬ¢áīµ
áĮį áĪµáīµ
áĮ½ áī£áĪķ
ĠáĪķ áįįáĪ¨áīµ
áĪ² áĪİáĪĿ
ĠáĭĿáī° áĪŃáįį
ĠáĪ°áī¥ áĭĵ
Ġáĭķ áīĳ
ĠáĭĺáĪİ áĭİáĪĿ
áįĪáĪį áī²
áīĨ áĪŃ
ĠáĬ£áĭŃáī° áĪ«áĬ¥
ĠáĭĿáĭĪ áĪŃáĭµ
áĪµáĬĵ áĭ®
ĠáĬĲáī¥ áĪµ
ĠáĭĪáĪ² áĭµáĬ«
áĬĥ áĬķ
ĠáĭĿáĪĥ áī¦áĪĿ
ĠáĬŃáĬ¸ áįįáĪį
ĠáĮ¥áīł áīłáĬĽáī³áīµ
ĠáĬķáĬĲáī¥ áĪ°áĭŃ
ĠáĭķáĭµáĪľ áĬ»
áĪį áĭĵáĪį
áī³ áĬĴ
Ġáī¥ áĭ°áĮĪ
áĬ£ áī¶
áĭį áĪĭ
Ġáĭĺ áĪ°áĬķ
ĠáĪĵ áīĴ
ĠáĪĵ áī¥áī²
áįĪ áĮłáĪ¨
ĠáĬ£áĭŃ áĬ½áĬ¥áĪīáĬķ
áĪĥ áī£
áĬ¤ áįį
áīĵ áĪµ
Ġáī¥áĪĿ áĮ¥áīĥáĪĿ
ĠáĬ©áĪī áĬ¹áĪĿ
Ġáĭľ áĪķáĭĿáĬķ
ĠáĭĿáĪĵ áĭ°
áīĨ áĪĿáĬķ
áĮĲ áĭĵáĭĿ
Ġ5 2
ĠáĭĿáĬ£ áĭĺáĭŀ
Ġáįķ áĪ¨áĪµ
áįĪáĪŃ áĪķ
Ġáī¥áĪĺ áĮłáĬĳ
Ġáĭķáĭµ áĪĪáĬĽ
ĠáĭĪáĪĪ áĭ¶áĪĿ
áĭµáĪįáĭ¨ áĬĴ
ĠáĮŃ áīĨ
ĠáĭĪáĪ² áĭ°
áĪĢ áĪį
ĠáīĪ áĪ¨áĬķáī¶áĪµ
Ġáĭĺáī° áĬ®áĪ¨
ĠáĪµáĬ¥ áĪĪ
ĠáĪµáĬ¥ áĬĲáīµ
Ġáīª áĭ²áĭ®
ĠáįĪáĪĬ áĮ¦áĪĿ
áĭįáĮ½ áĬ£áĬ©áĪĿ
ĠáĪĿáĪµáĮ¢ áĪ«áĭĬ
ĠáĪĿáĪµáĮĭ áĬĵáĬķ
ĠáĬķáĬ¥áĪ½áī¶ áĭŃ
Ġáī°áĭĭáĪĤ áī¥áĭİ
áĪ°áĪĿáĭĸ áĬķ
áĬĿ áĬĲáīµ
Ġáī°áīĢ áī¢
ĠáĪĺáĪ«áĬ¸áī¢ áī³áīµ
ĠáĪĿáĬŃáĬķ áĭ«áīµ
ĠáĪĤáĭĪ áī°áĭŃ
áĬĲáīłáĪŃ áĬ©
ĠáĬ£áįįáĮĭáĬĴ áĪµáī³áĬķ
Ù Ħ
ĠáĬ£ áĪĭáīµáĬĴ
ĠáĭĿ áĪ¨áĬŃáī¥
ĠáĭĿ áĮ¨
ĠáĬķ áĮł
ĠáĬķ áĮįáī¥
Ġáī¥ áī´
ĠáĬŃ áĪķáĭĿ
áĮĪ áĭ°áĭ°
Ġáī° áĪ¨áī£
áĬ« áĭįáĬķ
ĠáĭŃ áĪĿáĪį
ĠáĪµ áĪĭáĪ´
Ġáīµ áĪª
áĮĭ áĮĭ
ĠáĮĪ áī¢
ĠáĮĪ áĮ¸
áī¡ áĬ«
ĠáĬŃáīµ áįĪáĪįáĮ¦
Ġáī£ áĪķáī²
ĠáĪĺáĭĵáĪį áī±
ĠáĪ¨ áīĤáīķ
Ġáī¥áĪĵ áĪ³áī¥
áįħ áĪī
Ġáįķ áĪª
áįĸ áĪĬ
ĠáĪ» áĭµ
áī¸ áĭį
ĠáĭĿáĮ¸áĬķ áĪķ
ĠáĭįáĪįáīĢ áĪ°áī£áīµ
Ġáĭ¨áĭµáĪįáĭ¨ áĬ©áĪĿ
Ġáī¶ áĪĽáĪµ
Ġáįİ áī¶
áĪĺáĮł áĭŃáīķ
ĠáĬ£áĭ´ áĬ»áĬķ
ĠáĭĪáĪĭáĭ² áīµ
ĠáĬ£áĪĽáĪ«áĮº áī³áīµ
ĠáĪĺáĪ²áĪī áĬĴ
ĠáĪŃáĬ¥áĭ¨ áĭ®
ĠáįķáĪ¬ áĭļ
id en
ĠáĪĬáīĥ áĬĲ
ĠáĬ¥áĬķáī°áĭ°áĪĬ áĬ»
Ġáī°áĭĪáĬ¨ áĪ±
ĠáĪµáĮ³ áĬĽ
áĪĿ áĭ«
ĠáĬ£ áĭī
ĠáĬ¥ áĪ³áīµ
ĠáĬ¥ áĬ£áĪĿáĬķ
áĪĪ áĪĻ
ĠáĬķ áīģ
ĠáĬ¨ áīłáĪ³
áĪķ áĭį
ĠáĭŃ áĪĵáĪįáįį
áįĪ áĮł
áĭ³ áĮĭ
Ġáīł áĮ¥
Ġáĭ° áĭĪáĪį
áī¡ áĬ£áīµ
áĪŀ áī°áĬķ
ĠáĭĿáī° áĪ¸
áīĲ áĬĵ
ĠáĪį áĪĽ
ĠáīĢ áĪĬ
áĭľ áĬĵ
ĠáĬ¥áĪĿ áīł
áĪµáī° áĪĽ
Ġáĭľ áĮĪáĪŃáĪĿ
áĪŃáĬ« áĬķ
ĠáĪĵáĭµ áĬĲáīµáĬķ
Ġáĭįáĭµ áī£áĭĬ
ĠáĬ£áī¢ áĪįáĬ©áĪĿ
ĠáĬ«áī¥áĭļ áĬ£áī¶áĪĿ
ĠáĭĪáĬ¨áįį áĬ©áĪĿ
Ġáĭĺáī° áĪµáįĪ
Ġáī´ áĪĪ
ĠáĬ£áī°áĪĵ áĪ³áĪ²
áĪĿáĪĪ áĪ±áĬķ
ĠáĭĪáĪ° áĭ°
ĠáĪµáĭī áĬ¥
ĠáĮ³áĮ³ áĪµ
ĠáĬ£áĬ¥áĮĭ áĪ©
ĠáĪĽáĭķáĬ¨ áĬķ
ĠáĪ³áĭŃáĬķ áĪµ
b e
áĪĿ áĬĸ
ĠáĪĺ áĮłáĭŃ
ĠáĬŃ áĮĪ
áĪĺ áĭĲ
áĪķ áī°áīµ
áĭį áĪĲ
ĠáĬĲ áĮ¸
Ġáī° áĭĿ
Ġáī° áĭĲ
ĠáĭŃ áĮłáīķ
ĠáĬ¢ áĪį
áįĪ áĪĭáĪį
Ġáĭµ áĪĭáĭ©
ĠáĬŃáīµ áĪŃáĬ¥áĭ©
áĪĺáĪµ áĪİ
ĠáĪµáĪ«áĪķ áĬĵ
ĠáĬŃáįį áĬ£áīµ
ĠáĬ£áĪĺ áĪĪ
áī¥áĪĪ áĪį
ĠáĭĿáĬ¸ áīłáĭ°
ĠáĬłáĭŃ áĬŃ
ĠáĬ£áĪ° áĪ«áĪŃ
áįĴ áĬŃ
ĠáĬŃáĬ¢ áĪİáĪĿ
ĠáĪķáī¥áĪ¨áī°áĪ°áī¥ áĬĵ
Ġ199 0
Ġáĭ¨áĪĽ áĬĲáĭŃáī²
ĠáĮ½áĪĿ áī¥áĪį
ĠáĪĿáīģ áĮ½áĮ»áĪŃ
ĠáĬ£áĭĴáĬķáīµ áĬ»
ĠáĬķáĮ ´áĮ¥áĪ®áĪµ
ĠáĬ®áĬ¾ áī¥
ĠáĪĺáĭµáĪĵ áĬĴáīµ
- "
ĠáĪ £
ĠáĬķ áĮĪáī¥áĪ®
áĪ« áī°áĭŃ
áĭĿ áĮĪáī¡
áĭ¨ áĭį
áĮĭ áĬĵ
áĪĥ áĪ«
Ġáĭ¨ áī°
ĠáĭĺáĭŃ áĪĿáĪµ
ĠáĭĿáī° áĮĢáĪĺáĪ¨
áĪĿáĪĭ áĬ¥
ĠáīĢ áĮ½áĪİ
ĠáĬ£áī£ áĪĭáī±
ĠáĬĲáī¥ áĪµáĬĵ
ĠáĬŃáĪħ áīłáĬ©áĪĿ
Ġáĭ°áĮĪ áįįáĬķ
áĪķáĪį áįī
ĠáĪ¨áĬº áī£
ĠáĬ¥áĭĿ áĮĬ
ĠáīµáĪķ áī°
ĠáĭĺáĪĿ áĮ½áĬ¦
ĠáĭįáĪĭ áĭµáĬ«
ĠáĪįáĭķ áĪĪáĭŃ
ĠáĭĿáĪĿáĪįáĬ¨ áī¶
ĠáĬ½áįį áĪĬ
ĠáĪŃáĪµ áī±
Ġ] ]>
áīµ áĪŃáĭ«
áĪĪ áīł
ĠáĪĿ áĬµ
áĭµ áĪī
ĠáĬ£áī¥ áĭŀáĪĿ
ĠáĬ¢ áĭ³
ĠáĬ¥áĬķ áīµáĬķ
ĠáĬ¥áĬķ áī¥áĪİ
ĠáĬ£áĭŃ áĭµ
Ġáīł áĭŃáĬĸáĪĿ
Ġáĭ° áĪĺ
Ġáĭķ áĪį
Ġáĭķ áī¡
ĠáĬŃáĪį áĬ©áĪį
áĪŃáĬ¥ áĭ¨áĬĴ
ĠáĮĢ áī¥áĪĥ
ĠáĬ¦ áī£
ĠáĪĿáĪĿ áĭķáī£áĪį
ĠáĪĺáĬķáĮİ áĬĵ
Ġáīķ áĬķ
Ġáī°áīĵ áĪĭ
ĠáĬķáīķ áĪĵáīµ
ĠáĭĺáĪķ áĪĪáįį
Ġáĭ°áī¥áĭ³ áī¥
ĠáĪ°áīł áĪµáĪįáĮ£áĬķ
ĠáįįáĪ«áĬķ áĬŃ
ĠáīĬ áĮ½áĪª
Ġáī¥áĭĵáī¢ áĬ¡
l in
Ġáĭ ĸ
áīł áįħ
ĠáĬ¥áĭ ª
ĠáĬķ áīłáĪ©
áĪ« áĬĵ
áĭķ áĭİáĪĿ
áĪ³ áī³áīµ
áĮ½ áĭ®áĬķ
áĪĥ áĪĥáĪī
ĠáĬ¥áĬķáī° áĬ®áĭŃáĬĳ
ĠáĪĥ áĬĴ
Ġáĭį áĭ²
áĪĻ áīķ
ĠáĪį áĪĽáĭµ
ĠáĬ¥áī° áĬ¸
ĠáĬ¥áī° áĭ³áĪĪáĭĪ
ĠáĪ¸ áĪŃáįĬ
ĠáĬ£áĬ¥ áĪĽáĬķ
ĠáīĲ áĪĬáĪį
ĠáĪĿáīµ áī¥áī£áĭķ
áĪĢ áĪŃ
ĠáĬ£áĪľáĪªáĬ« áĭĬ
ĠáĭĿáī°áĭĪ áĪįáĭ°
Ġáīį áĮłáī£áĭĬ
Ġáī°áĪĺáĪĬ áĪ³
ĠáįĮ áĭ´
ĠáĪļáĬ¥ áī³áĭĬ
Ġáĭ¨áĪĪ áĭīáĬķ
ĠáĬķáĪĿáīķ áĪ«áī¥
Ġáĭįáĭ³ áīł
ĠáĬ»áī£ áĬ»áīµáĬ©áĪĿ
ĠáĪĺáĪĵáĭĻ áīµ
ĠáĬķáĬĵ áĮ½áĬĲáīµ
ĠáĭĪáĮ»áĬ¥ áī°áĬĽáī³áīµ
áī¥áĪŃáīµ áĭķ
ĠáĪ¨áĭ² áĬ¤áīµ
Ġáī°áĮ½ áĪĴáįī
áĪŃ áĪĵ
áĬĵ áĭĪ
ĠáĬķ áĮŃ
ĠáĪĺ áĪĺáĪįáĬ¨
ĠáĬŃ áĪ³áī°áįį
ĠáĪĿ áĭĵáĪį
Ġáĭĵ áīłáĭ¨
áĭĭ áĮ¥
Ġáį ²áį
áīłáĪ¨ áĬķ
ĠáĬĲáĭŃ áĪŃáĬ«
ĠáĪĺáĭĵáĪį áīµ
ĠáĪ¨ áĭļáĬķ
Ġáĭľ áĪĺáĪįáĬŃáīµ
Ġáĭĭ áĮĭáī³áīµ
Ġáī¥áĭĿ áĭĢáĬĲ
áĪĮ áī³áīµ
ĠáĬķáĪķ áĬĵáĬķ
áĪĽáĭķ áĬķ
ĠáĪĽáĪķ áĪĭ
ĠáĪ°áĪĪ áĪĽáĭĬ
ĠáĪĺáī¥ áĮ½
ĠáīµáĪŃ áįĬ
Ġáĭ°áĪŃ áĮį
ĠáĭĿáī°áĬ£ áĪ³áĪ°áĪŃ
ĠáĪĽáĪŃ áī³
ĠáĭŃáįĪ áĮ¥áĪŃ
ĠáįĪáĪĭ áĪļ
ĠáĪĺáĮ»áĪĿáĭµ áīµáĬ»
ĠáĬ¥áĬĵáĪĥ áĪĪáĭĪ
ĠáĬŃáĬĲáĮįáĪ¨ áĬ©áĪĿ
áĬ£áĭĿ áĭ«áĬķ
ĠáĪĽáĪķáīłáĪ« áīµáĬķ
áĪµáĬ«áĪķ áĬŃáĪķ
6 0
ĠáĬ¥ áĪĺáĬĳ
áī° áī²
áĬ£ áĬĵáĬķ
áįį áī³áĪķ
ĠáĬĲ áĭ¨áĬĵáĭŃ
ĠáĭŃ áĪħáī¡
áĭ« áī¶áĪĿ
áĪ³ áĭŃáĬķ
áĪĬ áĪĻ
áĬŃ áĪ³
ĠáĪĥ áĪ°áĪµ
ĠáĭĿáī° áĪ¨áĬ¸áīł
ĠáĬķáĪĿ áĪħ
áĪģ áĭµáĬķ
Ġáī¥áĪµ áĪĻ
Ġáī°áĬ£ áĪĽáĬķáĬĲáīµ
ĠáĭĺáĭŃáī° áīĲ
áĬķáī¥ áī¡
ĠáĬ£áĭļ áĭĻ
ĠáĬ£áĭŃáĬ¨áĬ£ áĪĪáīµáĬķ
Ġáī¥áīķ áĮ½áīłáīµ
ĠáĬ£áĭĺ áĭŀáĪĿ
ĠáīĢáĮº áĪİáĪĿ
ĠáĪĺáĮ» áĭĪáī²
Ġáī¥áĮ¾ áīµ
ĠáĬ£áĪļ áĬĳ
ĠðŁ ĺ
ĠáĪĿáī£ áĪī
áĮ¥áĬķáīĢ áīķ
ĠáĪµáĮīáĪĿ áīµáī³áīµ
ĠáīĢáĮ½áĪį áĭİ
5 00
áĪį áĭ°áīµ
áī³ áĭķ
Ġáī¥ áĭħ
ĠáĬ¨ áĭĪ
áįį áįį
Ġáĭĺ áĮ¥
Ġáĭĺ áī°áĬķ
Ġáī° áīµ
ĠáĪĽ áĪŃáī²áĬķ
áĪ½ áĬ¨
Ġáįį áīģ
ĠáĪµáĪĪ áĭ«
ĠáĬª áī¥áĪī
ĠáĭĿáĪĺ áĪ°
Ġáĭ² áĮĤ
Ġáī£áĭķ áĪĭáī¶áĪĿ
ĠáĬ£áĪŃ áĬ¢
ĠáĮ» áĪĽ
áĪĵáĪµ áīłáĪī
ĠáĪ³áĭķ áĪµ
áĬ¥áīµ áĭī
áĬ£áĪĿ áĬĳáĬķ
áĪĥáĭ° áĪ«áīµ
ĠáĭĿáĪĵáĭĺ áīµ
ĠáĪ¹ áĪĿ
ĠáĪµáĬ¢ áĬĲ
ĠáĭĵáĪĮ áī³áīµ
ĠáĬ®áĪĪ áĮħ
ĠáĭķáĪĭáĪĿ áĬ¡
ĠáĭĵáĮĭ áĪĺ
Re ad
o s
Ġ j
áī¥ áīķ
áĪĿ áĭĭ
ĠáĬ£ áī¤áĪį
ĠáĬķ áĮ¥áīĢáĪĺáĪī
ĠáĪĺ áī¥áĪį
ĠáĬ¨ áĪ°
áĮĪ áĬĲ
áĪĽ áīµáĬĵ
Ġáĭĺ áĭįáĮ½áĬ¦
ĠáĭŃ áĪĭ
áĮ¥ áīĭ
ĠáĪķ áĪĺáĪ¨áīµ
ĠáĮĪ áĪŃáĬĵ
ĠáĪħ áĭµáĬ¥
ĠáĭĺáĭŃ áĮ½
ĠáĬ© áĪŃáĬĵáĭķ
áĬ¾áĬĲ áĬķ
áī°áĬķ áĬķ
ĠáĬº áĪĺáĮ½áĬ¥
Ġ6 00
ĠáĬ½áīµ áĮĪáī¥áĪ®
ĠáĪĿáĭį áī³áīµ
áĮ½áĪķ áįī
ĠáĭĿáįĪ áĪĪáĮ¥
ĠáĬķáĭ° áīģ
ĠáĬķáĬ¸ áī°
ĠáĬķáĬŃ áĬ¸áĭįáĬķ
ĠáĬŃáĪĺ áįħáĬ¥
ĠáĬŃáĪĺ áĪĵáĭ¨áĪ½
ĠáĬ£áĬ¥áĪĿáĪ® áĬ£áĭĬ
Ġáī¥áĬ¢ áĬķáī°áĪŃáĬĲáīµ
Ġáī¥áĭĪáĮĪ áĬĵ
Ġáī¥áīĳ áĭĵáīµ
Ġáī¥áĪĽ áĪķ
ĠáĮ½áī¥ áīķ
Ġáī¥áĬ¥áĬķ áĮįáĪĬáĭĿáĬĽ
ĠáĬķáĪĿáīµ áĮįáī£áĪŃ
ĠáĭķáĪĽ áĪĽáīµ
Ġ and
ĠáĭĿ áĮĭ
áĪĺ áĭĵáĬ«
áįį áĪ©
áĭ° áĬ¦
Ġáī° áĮĪáī¥áĪ¨
Ġáī° áĬķáīĢáĪ³
ĠáĮį áĪĭáĭĬ
áĬŃ áĬ½
ĠáĬ«áī¥ áĭĺáĬķ
áĮĭ áĬķáĬķ
ĠáĪħ áĭĪ
ĠáĪħ áĭ³áĪ°
áĮ» áĭĪáĪŃ
ĠáĪĥ áĭ°
Ġáĭļ áįĪáīµ
ĠáĬŃáĬķ áĪĿ
ĠáĬŃáĬķ áĪĵáĪµáī¥
ĠáĬ¨áĭŃ áĬĲ
ĠáĬ¨áĪĿáĭĿ áĬ¸
áĪĸ áĬķ
Ġáĭįáĭµ áĭµáĪ«áīµ
Ġáī¥áĪµ áĪ«áĪķ
Ġ9 9
ĠáĭķáĪĭáĪĽ áĬĵ
ĠáĪĵáĪ³ áīłáĭŃ
áĪĥáīł áĬĴ
ĠáĬ£áĬ½ áī¥áĪŃ
áĬ¥áĭļ áĬ£
Ġáī°áĮ» áī¥áĬ¦
áįĪáĪĪ áĮ¡
ĠáĪĽáĬ¥áĬ¨ áĪİáĪĿ
áĪĽáĪį áĬ¡
ĠáĪĺáĬ« áīłáī¥áĭ«
ĠáīµáĬ½ áĬŃáĪĪ
Ġáī¥áĪĥ áĮĪáĪŃ
ĠáĪĥáĪį áĪĥáĪį
áĪĿáĬ¥ áĬķáī²
) :
Ġ 000
áī¥ áĭĻáĪĵáīµ
áĪµ áĪ¨
áĪĪ áī£
ĠáĭĿ áĭī
ĠáĪĺ áĬª
áĭķ áīµ
áĮį áĭĳ
áĭ° áĬ©áĪĿ
Ġáī° áĪĮ
ĠáĬ¢ áī¥áĪ«áĪĤ
áī¶ áī³áīµ
Ġáĭļ áī¥áĪİ
ĠáĭĿáī° áĮłáīĲ
ĠáĬŃáīµ áĪħáī¥
ĠáīĢ áĪĭáĭŃ
ĠáĪħáĭĿ áīł
Ġáī¥áĭĻ áĪĵáĬķ
Ġáī¥áĪĵ áĪ¶áīµ
Ġáī¥áĭĻáĪķ áĬĲáīµ
ĠáĪĺáĪį áĬł
ĠáĪµáĪĿ áĭĳáĬĴ
ĠáĪķáī¶ áī³áīµáĬķ
ĠáĪĻ áīĲáīµ
áī¥áĪĪ áĬª
Ġáĭ® áĬ£áī¥
ĠáĪĤ áī¥áĭİáĪĿ
áīĿ áĮ¸áĪŃ
áĮłáįį áĬł
Ġáĭĵáīķ áĪĬ
ĠáĪĿáĮįáī£áĪŃ áĬķ
ĠáĪįáĪĿ áĭĵáīµáĬķ
Ġáī¥áĮ½ áĬĳáĭķ
ĠáĪĵáĮ¥ áĬ¥
áĬĲáĮįáĪ¨ áĬĴ
ĠáĮİáĬķ áįĤ
ĠáĪĺáī£áĬ¥ áī³
ĠáĮ½áĪĴ áįĪ
ĠáĮģ áī£
áĮ¥áīł áī£áĭĬ
áİ ĵ
ĠáĬ£áĪĺáĪĪ áĬ»áĬ½
Ø §
áī¥ áĭ¨
áĪĪ áĪĺáĬķ
ĠáĬķ áĪįáĪĿ
ĠáĬķ áįķáĪ¨
áĬ¥ áĭİáĪĿ
ĠáĪĿ áīłáĪŃ
áĪ¨ áĪĿáī²
áįį áĬĵáĬķ
áĬ½ áĬĵ
ĠáĭŃ áĬ£
ĠáĬĵáĭŃ áĮĢáĪŃáĭ«
áĭ² áĪ½
ĠáĬ¥áĬķáī° áĪ°
Ġáĭĭ áĪ½áĬķáĮį
Ġáī°áĪĺ áĪ³áĪ°
ĠáĮł áĪĿ
ĠáĭĵáĭŃ áĬĲ
ĠáĪµáĪĪáĭĿ áĭĢáĬĲ
áĪµáįĭ áĪķ
áĮĵ áĪį
Ġáī°áīĲ áĪĺáĮ¥
ĠáĬ£áĭŃáĬĲ áī¥áĪŃáĬķ
áĪĺáĪį áĪ¶
Ġáī°áĪ° áĬĵ
Ġáī¥áĬ¥ áĭĭ
ĠáĪ« áĭµáĭ®
ĠáĬ¢áĬķ áĪ¹
ĠáĮŃ áĬķáīĤ
ĠáĬŃáĭĪ áĪĥáī¥
ĠáĬŃáĭĪ áĪŃáĭµ
ĠáĬ¥áĬķáī°áĬ¾ áĬķáĬ«
or t
ĠC on
ĠáĭĿáĮįáī¥ áĬ¦áĪĿ
ĠáĭĺáĪį áĬ£áĪĪáĪĽáĭĬ
ĠáĮįáĪį áĮº
ĠáįĪáī² áĬĳ
ĠáīħáĬķ áĭķáĬĵ
ĠáĪķáĭŃáĭĪ áī±
ĠáĪ°áī¥áĬ¡ áīµáĬķ
áĪįáĮł áįĪ
áī°áĬķáĪµ áĬ¦
áĭŃ áĪĿ
Ġáī¥ áĪİ
ĠáĬŃ áĬ¨
áĬ£ áĭļ
áįį áĬĲáīµ
Ġáĭĺ áĮĪáĪį
Ġáĭĺ áĪ¨áĮĭáĮįáĮ½
ĠáĭŃ áĮł
Ġáīł áĪįáĬ«
ĠáĭĺáĭŃ áĬ½áĬ¥áĪį
ĠáĬ¸ áĪĪáĬ¹
ĠáĪį áĮį
áĬ¤ áĪįáĬķ
ĠáĬ½ áĭ³
ĠáĮĪáĪĬ áĮ½áĭİ
ĠáĬĲáįį áĪ³áīµ
áĪĭáĬķ áĭµáĬķ
ĠáįĢ áĭĪáī³
ĠáĮŃ áĬ«
ĠáįķáĪ® áįĮ
ĠáĪħáĭĿáī¥ áĬĵáĬķ
Ġáīį áĮ¥áĭĵ
áĮįáĬĵ áĪĪáĬķ
ĠáĭĿáĮĪáīłáĪŃ áĬ«áĭ®
ĠáĬ¡ áĮĭáĬķáĭ³
ĠáĬķáĮ¸ áĪĭáĬ¥
ĠáĬ£áĭŃáĪ¨áĬ¸ áīłáĬķ
ĠáĭĺáĭŃáĪķ áĪ°áī¥
ĠáĪµáĬ¢ áĬĸáĪĿ
Ġáīĸ áĪįáĭĵ
Ġáī¥áĪĿáĪį áĬ¡
ĠáĬĲáĬķáĪķáĭµáĪķ áĭ¶áĪĿ
ĠáĮ¢áĪŀ áī´áĭİáĪµ
I S
áīł áĭ®áĪĿ
áīł áī³áĭĬ
ĠáĬķ áĮ³áĭįáĪİáĪµ
ĠáĬŃ áĭĽ
áĭķ áĭĺ
ĠáĪĵ áĪ¶
áĭĿ áĭ©
ĠáĭŃ áĪŀáī±
áĪª áī¥áĬĵ
ĠáĬ¥áĬķ áĪ¨áĬ½áī¦
Ġáīł áīµ
áĮ¸ áĪŃáī²
áĪ½ áĬ«
Ġáĭį áĪ¨áĭµ
Ġáĭļ áĪŃáĬł
ĠáĪ°áī¥ áĬłáĭŃ
ĠáĬŃáĬķ áįĪáĪįáĮ¦
ĠáĬŃáĬķ áĪĵáīµáīµ
ĠáįĪ áĪį
ĠáĬ¨áĭŃ áĪħáĪī
ĠáĬŃáĪį áĪįáĬĵ
ĠáĪļ áĭµ
ĠáĮĪáĭŃ áĪŃáĭİ
ĠáĮĬáĭľ áĬ¡
Ġáī°áĭĭ áĪµ
ĠáĪĺáĮº áĬ¥áĬĵ
ĠáĭĿáĪŃ áĬ¤
ĠáĬķáĭį áĪ°áĭµ
Ġáĭĳ áīħáī£
ĠáĪĺáĮ¸ áīµ
ĠáĬ¤áĭįáĪ®áĮ³ áĬķ
ĠáĪĴáĭĿ áĭİ
áĮĪáīłáĪŃ áĬ«
Ġáĭĵáĭµ áĬ»
áĬ¨áī³áī° áĪī
ĠáĪħáĪį áīĤáīµ
ĠáĬ¥áī°áĭĪ áĪįáĭ°
ĠáĪĺáī£áĬ¥ áī³áĭĬ
ĠáĭĵáĭĪ áīµáĬķ
ĠáĮłáīĴ áĪ±
ĠáĭŃáĪĿáĪħ áĪ¨áĬĵ
ĠáĪĥáĪĪ áĭĭáīµ
áīł áī¡
áĬ£ áĬ¥
áĮį áīłáĪª
áĭ° áĪĵáĬķ
Ġáĭĺ áįĪáĪŃ
Ġáīµ áĬ£áĪĿáĬķ
áĬ¨ áĪİ
áĭĽ áī¥áĬķ
ĠáĪħ áįģáįħ
Ġáĭļ áīµáĬķáĪµáĬ¡
ĠáĭĿáī° áĪ°áĪŃ
áĪĦ áīµ
ĠáĪĻ áĪģ
áĭµáĪķ áĬķáĬķ
Ġáĭħ áĪĭáī¶áĪĿ
ĠáĪĬ áĬķáĬŃ
áĬ¬ áĪ½áĬķ
ĠáĪĺáĮĭ áĪ¨áĮĥ
ĠáĭĿáĮĪáīłáĪŃ áĬĵáĭ®
ĠáĭįáĪķ áĮħ
´áĮ¥áĪ® áĪµáĬķ
áĪªáĭ« áĪĿ
ĠáĮ¸áĪĵ áįĪ
Ġáĭ± áĪŃ
ĠáĮįáĮ¥áĪĿ áī³áīµ
ĠáĪħáĭį áĬ¨áīµ
áĪĥáĭŃáĪĽáĬĸ áīµ
ĠáĪĺáĪĿáĪĥ áĪª
ĠáĬ£áĮĪáĪĭáĪį áĮ»
áĭ°áĮĬ áĪĿ
ĠáĬķ áĪĲ
ĠáĬķ áĮ½áĪį
Ġáī¥ áīĥáĪį
áįį áĪĲ
Ġáī° áĮ¸áĬķ
ĠáĪĵ áīģ
ĠáĬ« áĬĵ
Ġ" -
Ġáĭ° áĪĪáĬ¹
ĠáĮĪ áī¥áĪ©
ĠáĪ°áī¥ áĪ²
Ġáĭķ áĮ¹
ĠáĬŃáĬķ áĬ£áī±
ĠáĬ® áĬĲáīµ
áĬĵáīµ áĬ«
ĠáĪĺáĪį áĪµáī³áīµ
áī°áĬķ áĪµáĬ¥
ĠáĬ£áĭŃáī° áĪ¨áįĪáĬķ
Ġáī¤áī° áĪ°
ĠáĭįáĪ½ áĮ¥áĬķ
ĠáĪĵáĭŃ áĪįáĬ»
áĮŃ áĭĭ
áĮĪáĭµ áįį
ĠáĮĲáĭŃáī³ áĭ¨
ĠáĬ¢áīµáĭ®áĮµ áĭ«áĭĬ
Ġ15 0
ĠáĪĺáĭĿ áĮĪáīł
ĠáĪĺáĪįáĬ¥ áĬŃáī²
áĮįáĪĪ áįħ
áĪħáī¥ áĭİ
áīĽ áĪĿ
Ġáī°áĪĪ áįİáĬķ
ĠáĪµáīķ áī³
Ġáī¥áĮ¥ áĪľáīµ
áĪĭáįį áĬĲáīµ
ĠáĪŃáĮįáĮ¸ áĬĽáī³áīµ
Ġáī°áĭĺáĪŃ áĮĬáĪĳ
ĠáĭĿáī°áĭĪáĪ° áĬĳ
a p
áĬķ áĪĿ
ĠáĬ£ áĬķáī²
ĠáĪĺ áĭķáĪĪ
ĠáĬŃ áĪ¸
áĭµ áįį
áĪĺ áĪĻ
áĮĪ áī£áī¥
áĭķ áĪ½
áĪĽ áĪĽ
Ġáĭį áĪħáīł
Ġáĭļ áĪħáĪī
ĠáĭĿáī° áĪĽáĪħ
áīłáĪŃ áĭ«
áīĢ áĭįáī³
ĠáĬŃáĬķ áĬ¨
ĠáĬ£áĪĿáĪĭáĬ½ áĪ²
áĪĭáĭŃ áīµ
ĠáĬ£áī¦ áĪĵáĮİ
ĠáĬķáĪķáĬĵ áĪµ
Ġáĭ® áĪĲ
ĠáĪ« áĪĦáĪį
áĪķáĪį áĭİ
Ġáĭ°áīĢ áĭ¨
ĠáĬłáĭŃ áī°
ĠáĭķáĪĭáĪĽ áĬ¡
ĠáĬ£áĪľáĪªáĬ« áĭįáĭ«áĬķ
ĠáĬĥ áĮ¥
ĠáĬ£áįįáĪªáīĥ áĬķ
ĠáĬŃáĭį áĪµ
ĠáĭįáĪī áĭµáĬ«
ĠáĭĵáĪĪ áī£
ĠáĬłáĬķ áī°
Ġáīĸ áĪįáĭĳ
ĠáįķáĪ¬ áĭļáĭ°áĬķáīµ
ĠáĪĿáĪ½ áīµ
ĠáįĪáĪ¨ áĪ°
Ġáī°áĭĺáĪŃ áĭļ
ĠáīµáĪ« áįĬáĬŃ
ĠáĬ¥áĬķáĪµ áĪ³áĬķ
ĠáĬķáįĪáĪŃ áĬ¦áĬķ
n d
â Ī
Ġ âĢº
áī¥ áĪĶáĪŃ
áīµ áĪĿáĪħáĪŃ
ĠáĬ£ áĭķáĬĵ
Ġáī¥ áĭ¨áĪ±áĪµ
áĪĺ áĭįáīµáĬķ
áĭį áĭ«
Ġáī° áĪĥáĭµ
áĪĵ áīłáĪ¬áī³
ĠáĬ¢ áĭ°
áįĪ áĮłáĪŃ
ĠáĬ£áĭŃ áįĪáĪįáĮ¥
Ġáĭļ áīłáĪįáĮ½
ĠáĬŃáĬķ áĪĺáĪĥáĪŃ
ĠáįĪ áī°áĬķ
áĪĪáĬķ áīµ
ĠáĬµ áĬĲáīµ
ĠáĪķáī¶ áĬķ
Ġáī°áĪµáįĭ áĬĵ
Ġáī°áĬ£ áĭļ
Ġáī¥áĭĵ áĪĪáĪĿ
ĠáĬ£áĬ½ áĪĬáĪį
ĠáĪĥáĭŃáĪĽáĬĸ áīµáĬķ
ĠáĬķáĪĺáĬķ áįĪáĪµ
ĠáįĪáĮº áĪĿáĬĵ
ĠáĭŃáĭį áĭķáĪį
áĪĪáĭĪ áĮł
ĠáĪĦ áĭĭáĬķ
áĭįáĭķ áĭİ
ĠáĮ¥áīł áī£áĭĬ
ĠáĭĿáī°áĭĭ áĪħáī¦
ĠáīħáĬķ áĭ«áīµ
áįĢáĬķ áĪķ
ĠáĮ¥áĪĿ áĭ¨áīµ
ĠáĭŃáī¥ áĮ»áĪķ
ĠáĬķáĪĿáĪĿáĪķ áĭ«áĪ½
ĠáĬ¥ áĬĵáĬķ
áĪĪ áĭĵ
áī³ áĪŃ
ĠáĪĿ áĮķ
ĠáĪĿ áĮ¥áīĥ
áĪĵ áĬĳ
áįĪ áī³
Ġáĭµ áĪĪáĭ©
ĠáĬ£áĭŃ áįį
áĬŃ áĪ³áī¥
áĬ¡ áīµ
ĠáĭĺáĭŃ áįįáīµ
Ġáĭļ áĮį
ĠáĬª áĭĢáĬĲ
ĠáĮ½ áĮį
ĠáĬł áĪĪáĬ¹
áīĥ áĭįáĭ«áĬķ
ĠáĬĲáĮĪáĪŃ áĭİ
ĠáĪ³ áĬķáī²
ĠáĬķáĬ£ áī³áī¶áĪĿ
ĠáĪµáĪŃ áĭĵ
ĠáĬ£áĬ« áĪĭáīµáĬĵ
áĬ«áī¥ áī²
ĠáĬķáĭ° áĮĪ
áįįáīħ áĪ®áĪĿ
áĪ¨áĭµ áĬ¦
ĠáĪķáĭŃáĭĪáīµ áĬ«
ĠáĭĪáīµ áĪĥáĭ°áĪ«áĭĬ
ĠáĭŃáĪµ áĪĺáĭĵáĬĴ
ĠáĬ£áĭŃáĬ¨áĬ£ áĪįáĬĵáĬķ
ĠáĭĿáĬ¾ áĬķáĬ«
ĠáĬ£áĭŃáĬª áĬ¸áĭįáĬķáĬķ
ĠáĬķáįĪ áĮ£áĪª
ĠáĬ£áĬ¥áĭ³ áĭī
ĠáĬķáĭĤ áĪİáĪĿ
ĠáĭĵáĪĮ áī³áĭĬ
Ġáī¥áĪĿáīµ áĪķáī¥áī£áĪŃ
ĠáīłáĪĥ áĪĬ
ĠáĪ¨áīĽ áĪĴ
ĠáĭĵáĪĽ áĮº
ĠáĬ£áĬķáīł áĮ£
ĠáĬ£áĮłáĬķ áīĤ
Ġáīĭ áĪķ
áĭķáĬķáīĢ áįį
ĠáĬ¥áĪĿáī¥ áĬłáĪŃ
ĠáĪĺáĪĺáĪįáĬ¨ áī²
4 2
ĠáĬ£ áįĢ
áī° áĪİáĪĿ
Ġáī¥ áĬ©
ĠáĬŃ áĪŃáĭµáĬ¦
ĠáĬŃ áĪĿáĪįáĪµ
ĠáĬ¨ áĬķáī²
ĠáĬĵ áĪħáĪª
ĠáĪĵ áĪī
ĠáĭŃ áĭĽ
ĠáĭŃ áĪŃáĬ£
áĪª áĬĵ
ĠáĭĪ áįĬ
ĠáĪķ áĪĿ
áĭĭ áĭŃáĬķ
áĭĭ áĮħ
Ġáīł áĭĿáĪĴ
ĠáĮĪ áī£áĪŃ
Ġáĭļ áīĲáĪŃáī¥
áīĲ áĬĴ
áĬ¢ áĬķ
áĮ£ áĪķ
áĮĬ áĭ±
áĬº áĭµ
áĪĺáĬķ áĮįáĪµ
áĪŃáĬ¥ áĭ¨
ĠáĬ¨áĪĿáĭĿ áĬ½áĬ¥áĪī
ĠáĮł áĪŃ
ĠáĭĿáĬĲáīłáĪ¨ áĬĵ
ĠáīĢáĭ³ áĪĺ
ĠáĪĺáĭĵ áĪŃáĮį
re a
ĠáīµáĬķ áī°áĬĵ
Ġáī¥áĭį áĪįáīĢ
Ġáī´ áĬŃáĬĴ
Ġáī°áĭ° áĮĭ
ĠáĬķáĪŃáĬ¥ áĪ¶áĪĿ
ĠáĬ£áĬ¥áĪĿáĪ® áĬĵ
ĠáĪĺáīĲ áĪĺáĮ¢
áĭįáĮ½ áĬ¦áĪĿ
ĠáĬķáīµ áĪĿáĪħáĪŃáī²
ĠáĭĴ áĪ«áīķ
ĠáĭĿáĪĺáĪŃ áĪķ
ĠáĮĭáĭľáĮ£ áī³áīµ
ĠáĭĿáī°áīł áĮĪáĪ°
áĬŃáĪ² áĬ®
Ġáī¥áī¥áĪŃ áī±áĭķ
ĠáĪĿáĪµáī³ áįį
Ġáī¥áĮ»áĭŃ áĬ«
ĠáĬķáĪĥáĮĪáĪŃ áĬĵ
ĠáĬ£áĭŃáįĪáĪĪáĮ¥ áĬ©áĬķ
áĭµáĬĲ áĮ»áĪŃ
Ġáĭ¨áīĲáĬķ áĭ¨áĪĪáĭŃ
Ġáĭ°áĪĽáĪµ áīĨ
ĠáĬ¦áī£ áĪĽ
áĮ¥áīĭ áĮ¥
ĠáĬķ áĬĸ
ĠáĪĺ áī£
áĭĿ áĪŃáĬĵ
áĭĿ áĬŃáĪŃ
áĭ« áĪµáĬķ
ĠáĬ¢ áĪµ
ĠáĪ° áī¡áĬķ
ĠáĬ« áī¢
ĠáĬ£áĭŃ áĪĥ
áĮ¥ áįī
áĭĺ áĬĲ
ĠáĭĺáĪİ áĬĵáĭ®
Ġáī¥áĪĵ áĮĲáĪµ
ĠáĬ£áĭŃáīµ áīłáĪī
ĠáĪµáĪĪáĭļ áĪħ
áī¤ áī³áīµ
áĭ°áĬķ áī³áĭĬ
ĠáĪĵáīł áĪ¬
áī£áĭŃ áī¶
áī³áĬķ áĭ«
Ġáĭĵáī¥ áĭ±
áĭµáĪįáĭ¨ áĬ©áĪĿ
ĠáĭĿáĭį áĪĪáĭµ
áĭ°áĪįáĭ© áĬķ
ĠáĬŃáĬ¢ áĪĪ
ĠáĬ£áĬ¥áĭ³ áĭİáĪĿ
ĠáĬ£áĪ¨áĮĭ áĭįáĭ«áĬķ
ĠáĭĵáĭŃáĬķ áĬ»
ĠáĪĿáĪ¥ áĮ¢
ĠáĬ£áī¤ áĪ´áĪİáĪĿ
áĮĢáĬķ áĪ²
Ġ i
ĠáĬ£ áĭĺáĬķ
áī° áĭī
áĪĪ áī±
áĬĵ áĬĵ
ĠáĬķ áĪĵáīµáīµ
ĠáĬŃ áĪµáĪĿ
áĪĭ áĭ²
áĪ« áĭ©
áĮĪ áĪĲ
áĭį áĪ®áĮ³
ĠáĭŃ áīłáĮ½áĪķ
Ġáĭĵ áĮº
ĠáĪķ áĭįáĬĲáīµ
Ġáĭ° áĪĿáĬķ
áĪ½ áĪĿ
áĪĻ áĭĿ
áįĪáĪį áĬĵ
áĬ¤ áĪµ
áīĵ áĭķáī²
áĭŃáĬķ áĬĵ
ĠáĬ¥áīµ áī¥áĪİ
áīĭ áĪ¨
ĠáĪ¸ áīĥ
áĬ£áĬķ áĪµáīµáĭ®áĬķ
ĠáįĬ áĬķ
Ġáī¢ áĪĬ
ĠáĬ£áĭ² áĬ¡áĬķ
áĮįáĬĵ áĬ¸
ĠáĮĭáĭľ áĮ£áĭĬ
ĠáĮ¥áĪŃ áĮ¥áĪŃ
ĠáĬķáĪĥ áĮĪáĪ«áĭĬ
ĠáĪµáĪĿáĭĴ áī³áĭĬ
Ġáĭĺáīķ áĪ¨áī¦
ĠáįĪáĪĭ áĪĽáĭŃ
Ġáĭįáĭ³ áĪ°
ĠáĪĭáĭŃ áĬŃ
ĠáĪĺáĭĵáĪĻ áīĿ
Ġáī¥áĭĤ áĪī
áĪį áĪĦáĪĿ
áĪĪ áĬ½
áīł áĬ¹
ĠáĬķ áĬ»
áĪ¨ áīĳ
áĭį áī°áĪŃ
Ġáĭĺ áĬĵ
ĠáĬĲ áĭ²
ĠáĭŃ áī°áĬ£
áĪ° áīµáĬķ
áĭĵ áī°áĬķ
Ġáĭµ áĬ³áĬķ
Ġáĭµ áĬ³áĬĵáīµ
Ġáīµ áĮ½áīł
Ġáĭļ áĪħáī¦
ĠáĮ¥ áĭŃáīµ
ĠáĬŃáīµ áĮħáĪĿáĪŃ
áīĥ áĭµ
ĠáĭĿáĬĲ áĮįáĪ¨
ĠáĮįáĭľ áĬ»
ĠáĬ¤ áĪĿ
ĠáĬ¥áĮįáĭļ áĬłáī¥áĪĦáĪŃ
Ġáĭľ áĭµáĪįáĭ®áĪĿ
Ġáĭĭ áĪįáī³
áīłáĪį áĭĸ
áĪ¨áĬ¸ áī¥
áĭ´ áĬķ
ĠáįĢ áĪĭáĬ¢
ĠáĪ°áĪį áįĪ
ĠáĬŃáĭĪ áĮ¹
áĬµ áĪİáĪĿ
ĠáĭĿáĭĵáīłáĭ¨ áīµ
ĠáĭĿáī°áĭĭ áĪħáī¦áĪĿ
ĠáĬķáĪħáĭĿ áīłáĭŃ
Ġáī°áī£áĭķ áīµáĭ®áĬķ
ĠáĬ¨áĪĽ áĬĵ
ĠáĪĺáĪŃáĮĪ áĮ½
ĠáĭįáĮį áĬ¥áĬķ
áīµ áĭ«áīµ
ĠáĭĿ áĪĽáĭķ
ĠáĭĿ áĮłáīķ
Ġáī¥ áī³áĪķ
áĮį áĪ«áīµ
Ġáĭĺ áĬŃáĪ®
áĪ° áĪįáĬĵ
ĠáĪ° áĪ¨áīµ
Ġáĭĵ áĮ¸
áĬ¨ áĪĺ
Ġáīł áĬķáĮ»áĪ©
Ġáĭ° áĪĺáĬĵ
ĠáĭĺáĭŃ áĪŃáĬł
áĭ± áĬĴ
ĠáĭĪáĭŃ áĬķáĬķ
ĠáĮįáĭľ áĭŃ
ĠáĬ¥áĬĵ áĭĵáīłáĭ¨
ĠáĬķáĪµ áĪĻ
áī¥áĪ¨ áĬ«
Ġáĭ® áĪ´áįįáĬķ
ĠáĪĿáįį áī³
ĠáĬ£áĭµ áĪĤ
ĠáĬ¨áī£áī¢ áĬ»
ĠáĪĵáĪ³áī¥ áĬķ
Ġáī¥áĭĵ áīķ
áī°áĭĪ áĪ³áĬº
ĠáĪ» áĪĿ
ĠáĭĪáĬķ áīłáĪŃ
ĠáīĢáĮº áĪįáĬĵ
Ġs iden
ĠáĬ¨áįĬ áĪī
ĠáĬķáĬ¢ áīµáĭ®áĮµáĭ«
ĠáĪ¨áĪ² áĭĸáĪĿ
ĠáĬķáĬĲáī¥ áĪ±
áĪĺáĪµáĮįáĬķ áĭİ
Ġáĭĺáįįáīħ áĪ®
ĠáĬŃáĪĺáĪŃ áĪķ
áĪĿáĪŃáĭĵ áĭī
ĠáĪħáĭį áĪĵáīµ
áĭ³áĭ° áĪŃáī²
ĠáīħáĬĳ áĭĵáīµ
ĠáĬĵáĬ¥ áĪ½áī±
ĠáĪħáĭĿáīħ áĭ«áĪµ
8 0
áĪĿ áĮ½áĬ¡
áĪŃ áĭŃ
ĠáĭĿ áĮĵ
Ġáī¥ áĮłáīķ
ĠáĬŃ áĪ³áĭµ
ĠáĪĿ áĪĵáĪ¸
áĭµ áĪ®
áĪī áīĥáĪµ
áĬ½ áĪŃ
ĠáĭŃ áĪ¨
ĠáĬ£áĭŃ áĭĪáĪ°
áĪħ áīłáĪī
ĠáĭĺáĭŃ áīĢ
ĠáĭĺáĭŃ áĮįáī¥
ĠáĪĥ áĪª
ĠáĪµáĪĪ áĭĻáĭŃ
áīĲ áĭįáĪĿ
ĠáĬŃáĬķ áĮ½
ĠáĬŃáĬķ áĮħáĪĿáĪŃ
ĠáĮ½ áĪĭáīµ
áįĪáĪį áĮ¢
ĠáĭĿáīł áįħ
áĮİ áīµ
áĮİ áĪ±
áĪĨ áĬķ
ĠáĬķáĬ£ áī£
ĠáĬķáĬ£ áĬ«
áĪ°áī¥ áĬĵ
ĠáĬ£áĭŃáī° áĭĵ
ĠáĪĻ áĭĥáĬĳ
ĠáĭĿáĬ¸ áĭ¶
ĠáĪĿáĪį áĭįáĭĭ
áĪĭáĪį áĭ©
ĠáĬ£áĭ° áī³áīµ
Ġáįįáīµ áĪĵ
ĠáĬ¾ áĭŃáĬĸáĪĿ
ĠáĬķáĪµáĬ»áīµáĬ©áĪĿ áĭįáĬķ
ĠáĭĿáī°áįĪ áĮłáĪ¨
Ġáī´ áĪĽ
Ġáī°áĪª áįĭ
ĠáĬ£áĪ³ áĪįáĮ¦
ĠáĪĺáĭķ áĪ¨áįĬ
ĠáĪĤáĭĪ áī¶áĪĿ
ĠáĬ£áĭŃáĮĪáīłáĪ¨ áĬķ
c e
áĬ ĺ
ĠáĬ£ áĬº
ĠáĬ¥ áĪµáī²
áī° áĪ°
áĪµ áī±
áĪµ áīµáĬķ
ĠáĬŃ áīłáĪįáĭķ
áĬ£ áĭįáĬķ
ĠáĪĿ áĪ¸
áĭµ áĪ®áĪµ
ĠáĬĵ áī³áī¶áĪĿ
áĪ° áĪ«
áĪª áĬ¦áĪĿ
áĬ¦ áĪįáĬķ
áĪ½ áī°áĬķ
ĠáĬ¸ áĭ±
áĬ½áĬ¥ áĪĪáĪī
ĠáĬŃáĬķ áĬ¥
áĬ¢ áĪįáĬĵ
ĠáĮ¸ áĮĬ
ĠáīĢ áĭįáĭĴ
áĬ¤ áįĮ
Ġáĭľ áĭµáĪįáĭ®
ĠáĪļ áĭ²áĭ«
ĠáĪĺáĪµ áĪĺ
ĠáĬķáĪµáĬ» áĬ¸
áĪĿáĪį áĬ¾
ĠáĪĻ áĮĭ
ĠáĪĵáīł áĪ«áĭĬ
ĠáĭĿáĬ¸ áĬ£
ĠáĬ»áī¥ áĭļ
ĠáĭĢ áĬĳ
áĬ«áī¥ áĭļ
Ġáī°áĮĭ áĮį
áĮįáĪĿ áī¶
áĭķáĪĪ áĪī
áīķáĪŃ áīłáĪįáĬ©áĪĿ
ĠáīĢáĪįáĮ¢ áįİáĪĿ
ĠáĭĿáĮ½ áĭĭáĭķ
ĠáįĪáī² áĬĸáĪĿ
ĠáĬŃáĮį áīłáĪ¨áĪī
ĠáĭįáĪŃ áĪ»
ĠáĭĿáīĸ áĪĺ
ĠáĪĺáĭĵáĪŃ áįİ
ĠáĬ¤áĪĪ áĬŃáīµáĪªáĬŃ
ĠáĪĺáĪŃáĪĵ áī£
ĠáĭĿ áĭįáĬķ
Ġáī¥ áĬŃ
áĬ¥ áĪĿáĬĲáīµ
ĠáĬŃ áĮŃ
ĠáĪĿ áĭ°áĪĪáĬ¹
áī£ áĪ«
áĪĵ áĬ©áĪĿ
ĠáĪ° áĬĴ
ĠáĬ£áĭŃ áĪŃáĭµ
Ġáīµ áĪ°áĪĿáĭķ
áĪħ áĭ°
ĠáĪķ áįħ
ĠáĪĥ áīłáĬĵ
Ġáĭļ áĭĪáĮ½áĬ¥
ĠáĭĿáī° áĪ°áĬĲ
Ġáīħ áĮ«
áī¥áĪį áĬĵ
ĠáĮ½ áĭįáĮ½
áī¥áĪŃ áī²
áįī áĬĵ
ĠáĬ¥áī° áĪĺáĪµ
ĠáĪİ áĮ¥
ĠáĭĿáĪĵ áĮ¸áĪ¨
ĠáĬķáĭĵ áīłáĭŃáī²
ĠáĮİ áĪŃ
áįĥ áįĢ
ĠáĭĿáĬ£ áĭĺáĭĿ
ĠáĭŃáī¥áĪį áĭİ
ĠáĪĿáĪį áĬ£áīµ
Ġáī°áįĪ áīĴáĭ±
áĪŃáĭµ áĬ¥áĭİ
ĠáīĲ áĬķ
ĠáĬķáĪħ áī¢
ĠáĬķáĮį áĭµ
Ġáī°áĮł áĪĿ
Ġ12 0
Ġáī¢ áĭĿ
áĪĵáĪŃ áĬĽ
ĠáĬ¥áĬķáī°áĬ¾ áĭŃáĬĸáĪĿ
ĠáĬŃáīķ áįħáĪį
19 7
ĠáĪķáĪį áįį
áĬ£áĪį áĭ®
ĠáĭĿáĮĪáīłáĪŃ áĬ«
Ġáī¥áĪŃáĪĥ áĬķáĬķ
Ġáī°áī³áĪĴ áĭŀáĪĿ
ĠáĬ£áįįáĪĬ áĮ¦áĪĿ
ĠáĭĵáĪĽáĭĬ áĪį
áī¥ áĪķ
áī° áī¥
ĠáĬŃ áĪ°áĪĿáĭĳ
ĠáĬ£áī¥ áĭĺáĭŃ
áĭķ áĭĻ
Ġáĭĺ áīħ
ĠáĬĲ áĭĭ
Ġáī° áĬ¹
áĪĵ áĪ¨
áįĪ áĬ©áĪĿ
ĠáĮį áĭ±
áĪĥ áĬĵ
áĬĳ áĭµ
Ġáĭļ áĭĢáĬĲ
ĠáĬŃáīµ áĪĺáĪĥáĪŃ
ĠáĬł áĪį
ĠáĬķáĪĿ áĮ¥áīĥáĪµ
ĠáĪ½ áīłáĪ«
áįī áīµ
ĠáĬŃáĪį áī´áĬĵ
Ġáĭľ áī¥áĪī
ĠáĪĥáĮĪ áĪ«áĭįáĭ«áĬķ
ĠáĬ¨áĪĿáĭļ áĬ£
ĠáĬ¥áĪµ áĪĽ
áī¤ áĮ¥
ĠáĬķáĪµáĬ» áĪµ
áĭµáĪķ áĬĸáĪĿ
ĠáĬķáĪĺ áĪĥáĪŃ
ĠáĪĿáĭį áĪĭáĭµ
ĠáĮŃ áĪ«
Ġáĭĺáĭ¨ áĭµáĪĬ
ĠáĭĵáĪ°áĪŃáī° áī³áīµ
ĠáĬŃáĪķ áĭ°áīµ
ĠáĬĵáī£ áī³áī¶áĪĿ
ĠáĪ°áīłáĭŃ áīµáĬ»
ĠáĭŃáĬ¸ áĭīáĬķ
ĠáĬ£áĭŃáįĪ áī±áĬķ
áĪµáĪĪ áĭĻáĭŃ
ĠáĬķáĪĿáĪµ áĬŃáĪŃ
ĠáĪ¨áĪ² áĬ¥
ĠáĪĺáĭķ áīĨ
ĠáĪµáĬķ áĬŃáĪįáĬĵ
Ġáī¥áĪĿáĪį áĬ£áīµ
ĠáĬŃáīµáĬ¨áįį áĪį
ĠáĮįáĪħ áĪ°áīµ
ĠáĬ£áĭĪáĭ³áĭµ áī£
Ġáī°áĪĺáĪ³áĪ° áĪįáī²
áĪµ áĭ«áĬķ
ĠáĭĿ áĮłáĪĺ
ĠáĬķ áĬ¤áĪį
ĠáĬŃ áīĨ
ĠáĬŃ áĪµáĭķáī¥
ĠáĬŃ áĮħáĪĺáĪŃ
áĬ£ áĪįáĬķ
ĠáĬ¨ áĬķáī¥áī¥
áįį áĬĸ
Ġáĭĺ áī¤áī³áĭĬ
áĭĪ áĪ³
ĠáĬ£áĭŃ áįĪáīµ
ĠáĬ£áĭŃ áĪħáī¥áĬķ
áĪĬ áĭķ
Ġáĭĵ áĭ³
Ġáīµ áī¥áĪĪáĬĴ
Ġáīł áĪįáĬĵ
Ġáĭ° áĭª
Ġáĭ° áĪŀáĬŃáĪ«
Ġáĭį áĭĳáĭŃ
Ġáĭļ áĬ¨áĬ£
ĠáĬŃáīµ áĬ«
ĠáĪĵáĭ° áĪĵáĭ°
ĠáĬŃáĬķ áĪķáĮįáĭĺáĬ©áĪĿ
áĬ¢ áĪ³
ĠáĬ£áĪİ áĭİáĪĿ
áĮ£ áĪ«
ĠáĬ«áĪį áĬ£áĭŃáĬķ
ĠáĬĲáĮĪáĪŃ áĬķ
ĠáĬ¥áīµ áĬ¸
ĠáĬ¥áĭĭáĬķ áĭļ
Ġáī³ áĬŃáĪ²
ĠáĬ£áĪµ áĪĭáĪĿ
áĪ°áĪĿ áĭĵáĬ«
áī´ áĬķ
ĠáĪ°áĪĪ áĪĻáĬķ
ĠáĬķáĮį áĭľ
ĠáĬķáĮį áĭľáĬ¡
Ġáī°áĮł áĪ«
áĪ¨áĭµ áĬ¡
áĭĭáĬķ áĭ³
ĠáĬ¥áĪĿáīłáĬ£áĪŃ áĪ²
ĠáĪĺáĭĽ áĭĺ
ĠáĪ¥ áĪŃáĭĵáīµ
ĠáĪµáĪĪáĭĺ áĭ¨
ĠáĪµáĪĪáĭĺ áĪĪáĭİ
ĠáĭķáĪĪ áī³áīµ
ĠáĭĪáĭµ áĪ°áī¥
ĠáĮ« áĬ«
ĠáĬķáĪĿáĪĿ áĮ»áĬ¥
ĠáĬ£áĮį áĪ«áī¥
áĪ¨áĮĭáĮį áĮ¹
ĠáĭŃáĬ¥ áĪĺáĬķ
ĠáĬ£áĬ¥áĭ³áĭį áĬ«
ĠáĪŃáĬ½ áĪ°áīµ
Ġáī¥áĪĺáĬķáįĪ áĪ³áĭĬ
Ġáī¥ áĪķáī²
ĠáĬ¨ áĭµáĪĬ
áī£ áĪįáĬķ
áįį áĪŃáĬĵ
ĠáĬ¥áĭ© áĪĿ
áĭ« áī¥
ĠáĪ° áĭĲ
áĭĪ áĭŃáī²
áĬŃ áĪ®áĬķ
Ġáĭ° áĪĪ
ĠáĪĿáĪµ áĪį
ĠáĪĺáĬķ áĬĲáī±
ĠáĭĿáī° áĮ»áĪķ
ĠáĬ® áĬĳ
áĪĳ áĪŃ
áįİ áĪŃ
ĠáĬķáĪĵ áĮ¥
ĠáĬ¨áĪĿáĭĺ áĪĪáĭĭ
ĠáĬ¦ áĪ®
áįģ áĪĿ
áĪįáĭĵ áĭµ
Ġáįĵ áīµáĪŃáĭ«
ĠáĪ°áī¥áĬ£ áĭįáĬĲáīµ
ĠáĪ°áĭŃ áĮ£áĬķáĬķ
ĠáĪĺáĪ« áĬ½áī¥
ĠáĭĿáĭ°áĪĪ áĬ¹
ĠáĪµáī¥ áĬ¨
ĠáĬ£áĬ«áĭŃ áĭ¶áĪĿ
Ġáī¥áĪĿáĬķ áī£áĪŃ
ĠáĭĪáĮį áĭĴ
Ġáī°áĭĪáĪĬ áĭ°
ĠáĪĵáĮ¢ áĬ£áīµáĬķ
ĠáĬ©áī£áĬķ áĭ«áī³áīµ
Ġáī°áĭĽáĪ¨áī¥ áī²
Ġáī°áĬ¸áī³áī° áĪįáī²
ĠáĬķáĪĿáĮ¥ áįĭáĬ¥
ĠáĬķáĪħáĭŃáĭĪ áī°áĭŃ
ĠáĪħáĮį áĭ²áįį
ĠáĬ£áĮł áĪĽáĪĿ
ĠáĬ¥áĮįáĭļáĬ£ áĬłáī¥áĪĶáĪŃ
ĠáĪªáįĵ áī¥áĪĬáĬŃ
ĠáīµáĬ½áĬŃáĪĪ áĬĽ
áĬķ áĬ£áī¥áĬĲáīµ
ĠáĭĿ áĬĥ
ĠáĬŃ áĪķáĮįáĭĺáĬ«
ĠáĬŃ áĬ¾áĬĵ
ĠáĪĿ áĮ¥áĬķ
áĪ¨ áīłáīµ
áĪĺ áĪķáīµáīµ
áĭį áī¶
Ġáĭĺ áĮĪáĭµáĪµ
ĠáĬĵ áįĥ
ĠáĭŃ áįħ
ĠáĬ£áĭŃ áĬ¬
áĬŃ áĪ³áĭķ
ĠáĬ«áī¥ áĭĿ
áĮł áīµ
ĠáĭĺáĭŃ áįĪ
áĪ½ áĪķ
Ġ1 000
áĭĳ áīķ
ĠáĪ½ áĪĻ
ĠáĪĺáĪį áĪµ
ĠáĬķáĭĿ áī°áĭĪáĪ°áĬĲ
ĠáĬ¨áĪĿáĭĺ áĪĪáĭį
áĮŃ áĪ®
áĭ«áĪµ áįĸ
Ġáī°áĮł áīĲáĪĿ
áįįáĪŃ áĪħ
ĠáĪĺáĪĪ áĪĪáĭŃ
ĠáĪĿáĭĿ áĬ«áĪŃ
ĠáĬ¢áĭµ áĬ©áĪĿ
áī¥áĪĵ áīĤ
ĠáĬ®áĬķ áĬ©áĪĿ
ĠáĬ®áĬķ áįĪáĪ¨áĬķ
ĠáĮħ áī¡áī²
ĠáįĪáĪŃ áĪģ
áĪĺáĭĿ áĮĪáī¡
Ġáĭĺáī¥ áĮ½áĪķ
ĠáĬķáĭĳ áĬ¡
Ġáī°áīĲáĪļ áĮ¦áĪĿ
ĠáĪĺáĪ¬ áīµáĬķ
áīłáĪµ áĪ¨áĬ©áĪĿ
ĠáĪĥáĬĵ áĮº
Ġáī¥áĪĺáĮĢáĪĺáĪŃ áĭ«
ĠáĪ±áĭ³ áĬķáĬķ
ĠáĭķáĮ¥ áīĤ
Ġáī°áĪĥáĭµ áĪ¶
áī° áĪ«áīµ
ĠáĬķ áĪ²
áĬĲ áĭ©
ĠáĬŃ áīĢ
ĠáĬŃ áĮ¥áīĢáĪĿ
ĠáĬŃ áī°áĪŃáįį
áĪ« áįħ
áĮĪ áĪĬ
Ġáĭĺ áīĥáĪį
ĠáĬĵ áĭĵ
áĪ° áĭį
ĠáĭĪ áĪ°áĬĲ
áĮł áĬĴ
ĠáĮ¥ áī¡áīķ
áīĢ áīµáĬķ
ĠáĬł áĭ°
ĠáĬł áĭŃáĬķ
ĠáĭĪáĭŃ áĪĪ
Ġáī¤áīµ áĮ½áĪķáįĪáīµ
ĠáĬ¨áĪĿáĭĿ áīłáĪī
ĠáĪ³ áĪķáī²
Ġáī¥áĭĿ áĭĪ
Ġáĭ°áīĤ áīħ
ĠáĪµáĪŃ áīĤ
ĠáĪĿáĪĿ áĪ«áĪķ
Ġáī°áĪ° áĪĬ
ĠáĭŃáĪµ áĪ«áĪķ
ĠáĮ¸áĮĭ áĬķ
Ġáī¥áĭķ áī±áī¥
ĠáĪª áįĸáĪŃáīµ
áĭĶ áĬķ
ĠáĬŃáī³ áīłáī³áīµ
ĠáĭĿáĭ°áĪĪ áĬ»áĭ®
ĠáĪĵáĪĬ áįĭ
Ġáī¥áĮ¾ áī±
ĠáīħáĭµáĪľ áĬ¹áĪĿ
ĠáĬ£áĭ´ áĬ»
ĠáĪķáĭŃáĭĪ áī°áĭŃ
áĬĵáĪķ áĬ©
Ġáī°áĪĺáĪŃ áĭĵ
ĠáĪĵáī°áīµ áĭİ
ĠáĭŃáĪĥáī¥ áĬ©áĪĿ
tin ue
áīµ áĬ»áĬķ
ĠáĬ¥ áĪĵáĪµáī¥
áĪį áĭ¨áĬķ
ĠáĭĿ áĪĿáĬķ
ĠáĬķ áĪĽáĬķáĪĿ
áĭµ áĪĻ
ĠáĬ£áī¥ áĭ«
Ġáī° áĪį
Ġáī° áĬŃáĬĸáĪİáĮĤ
ĠáĭŃ áĪĵáĪµáī¡
áī¶ áĭŃ
áĬŃ áĪįáĬķ
áĮ¸ áĪĺáĪī
áĪŀ áĪĿáĬķ
Ġáĭļ áī¥áĪĭáĭķ
áīĢ áĪ³
ĠáīĢ áĪ¨áīł
ĠáĭĺáĪİ áĬ©áĪĿ
ĠáĬł áĪĿ
ĠáĬ¥áīµ áĭĪ
áĬ£áīµ áĭİ
áĪµáīµ áĭįáĭĵáĪį
ĠáĭĿáĪĺ áĮ½áĬ¡
Ġáĭ® áĪĵ
ĠáĮīáĭ³áĭŃ áĬĵ
ĠáĪĺáĬķáįĪ áĪ±
ĠáĪĥáī¥ áĭİ
Ġáīłáī¥ áĬ¥áĭĭáĬĳ
ĠáĬ£áĭļ áĭ®áĪĿ
ĠáĬ£áĪķáĭĭ áī°áĭŃáĬķ
ĠáĪĺáĮĭ áī£áĬ¥
ĠáĪĴáĭĿ áĬĵáĭ®
ĠáĭĺáĪĪáĭį áĭİ
ĠáĭŃáī¥áĪĪ áĬ«
Ġ199 8
Ġáįİ áĪŃáĪĿ
ĠáįĸáĪĪ áī²áĬ«áĬķ
áīĢáĪ³áīĲ áĪµ
Ġáī¥áĭ¨ áĪĽ
Ġáī¥áĪŃáī³ áĭĲ
ĠáĮ¥áĪį áĪĺáīµ
4 3
i e
áĬķ áī³áĬķ
áĪĿ áī³áīµ
áīł áīħáĭķ
ĠáĬ¥áĭ ĥ
ĠáĬķ áīĥ
ĠáĬķ áĪŃáĬ£
áī£ áĪī
áįį áĬĵáĭ®
áĮĪ áĪ«
Ġáī° áīĨ
Ġáī° áĪĭáĬ¢
ĠáĬ¥áĬķ áĪĥ
ĠáĬ¥áī² áĬłáĬķ
áĮĭ áĪ©
Ġáĭ° áĪĮ
Ġáĭ¨ áĪ±
Ġáĭ¨ áĪ©áĪ³áĪĮáĪĿáĬķ
Ġáįį áĪĭ
ĠáĬ£áĪİ áĭĭ
áĭī áīµ
ĠáĬł áīł
ĠáĬ¥áĪĿ áĬĲáī±
áĬĽ áī³áīµáĬķ
ĠáĬ¨áĭŃ áĬ¨
ĠáĬķáĬ£ áĮĪáĪįáĮįáĪİáīµ
Ġáī³ áĭķáĪĬ
ĠáĬ¥áĪµ áĪĺ
Ġáī¥áĪŃ áī±
ĠáĮĮ áĪ«
ĠáĮĪáĪĬ áĬłáĬķ
áĮĪáĪĿ áĮĭáĪĿ
ĠáĬ£áĬ¥ áĮĭáĪŃ
ĠáĪĿáīµ áĮįáī£áĪŃ
ĠáĬ£áīķ áĪĳ
ĠáĭŃáĮį áĪĺáīµ
ĠáĬ£áĭŃáĬ®áĬķ áĬĵáĬķ
áĪĭáĪĬ áĬĵ
Ġáī°áĪ¸ áĭŃ
ĠáīħáĬķ áĬ¢
ĠáĬ£áĪħáĮī áĪŃ
Ġáīĺ áĪįáĭĳ
ĠáĭĿáĪĺáĪį áĬł
ĠáĬ£áĭŃáĭ°áĪĪ áĭ¨áĬķ
ĠáĪĺáīµáĬ¨ áĪĭáīµ
ĠáĭļáĪĿ áī£áī¥
ĠáįĸáĪĪáī²áĬ¨ áĬĽáī³áīµ
o t
ĠáĬ£ áīĿ
ĠáĬ¥ áĬ¨áĪĪ
áĪµ áĪĺáĪ«
ĠáĭĿ áĭŃ
áįį áĭ©
Ġáĭĺ áī°áĪĵáĪ³áĪµ
áĪİ áĬĵ
áĬ« áĪĿ
Ġáĭµ áĪĪ
ĠáĬ¨áĪĿ áī°
Ġáīµ áĪ¨áĬ½áī¦
áĭ¨ áĪ©
áĭĽ áĭĬ
Ġáĭ° áĪĪáĭ©
Ġáĭķ áĪįáĭĭ
ĠáĬ® áĬĵ
ĠáįĪ áī³áĭį
áīĵ áĭĬ
áĪŃáīµ áĪ«áĭįáĭ«áĬķ
ĠáĬķáĬ£ áī¦áĭŃ
ĠáĭĿáĬ¾áĬĲ áĬķ
ĠáĪĺáĪµ áĪŃ
ĠáĬº áįįáĮ¸áĪĿ
ĠáĬķáĪķáĬĵ áĬ¸
ĠáĪĵáĪ³áī¥ áĬ«
ĠáĪĵáĭ² áĬ¦áĪĿ
ĠáĪĵáĪ³ áī£áīµáĬķ
áĪ¨áĬ½áī¡ áĬķ
áĬĵáī¥ áī²
ĠáīĨáĪįáĭĳ áĬķ
ĠáĭĿáĮį áĪĺáīµ
ĠáĬķáĮī áĭ³áĭŃ
áĬĲáĮį áĪ®áĪĿ
ĠáĪįáĭķ áĪįáĬĵ
ĠáĭĿáĪ°áĪŃ áĪĵ
un g
Ġáī°áĭĵáĭĬ áī±
áĮįáĪ¥ áī²
Ġáī°áĪ¨áĮĭáĮĬ áĮ¹
ĠáĪ²áĬĸ áĭ¶áĪµ
ĠáĭĿ áĪķáĮįáĭĻ
ĠáĬķ áĪ°áĪĿáĭķ
Ġáī¥ áĭŃáĬķ
ĠáĪĿ áĬ»áĬķ
ĠáĬ¨ áĭµáĪķáĬķ
áĪ¨ áĬ»
Ġáĭĺ áī°áĪĵ
Ġáī° áĪ»
ĠáĪµ áįĵ
áĭ³ áĪ´
ĠáĬ£áĭŃ áįįáĪĪáĮ¥áĬķ
áĬŃ áĪŀ
Ġáĭĵ áįĭáĪŃ
Ġáĭ¨ áĪµ
ĠáĭĺáĭŃ áįĪáĪįáĮ¦
ĠáĬ¥áĬķáī° áĬ¸
Ġáĭļ áĮ¸áĪį
áĭī áĪŃ
Ġáī£ áī£
áĪ¬ áĭµ
ĠáĪŀ áĭŃáī³
áįħ áī²
Ġáī¥áĭĿ áĪĪáĭĵáĪĪ
ĠáĮł áī¢
ĠáĬ¥áĪµ áĪĭáĪĽáĭĬ
Ġáĭ°áīĤ áĪ°áī£áīµ
áĭª áĭ±
Ġáĭ°áĬ£ áĪµ
áĮĪáī¥áĪ® áĬķ
ĠáĪ² áĪĿ
ĠáįįáĪī áĮ£áīµ
ĠáĭĿáįį áīµáĬķ
ĠáĭĺáĭŃáĪĿ áįįáĪĭáĮ¥
áĪĺáĪ° áĪĪ
ĠáĮīáĭķáĭŀ áĬĵ
ĠáĬ¥áĬķáĭµ áĭ¨
áĪĥáĭµ áĪĻ
Ġáī°áĪĽáĪĤ áĪ©
Ġáīĳ áĮ½áĪª
áĪķáĭĭ áī±
ĠáĪĺáĮ»áĪĿáĭµ áī²
áĪĺáĪĵáĪĭáĪį áįį
Ġáī¥áĭµáĪĿ áĮº
ĠáĬ¥áĬķáī°áĭĢ áĭŃáĬĳ
ĠáĪ³áĪĿáĬķ áī³áīµ
ĠáĪĿáīµáĪķáĮį áĮĭáĭĿ
ĠCom ment
áĪ ı
ĠáĬ¥ áĪĭ
ĠáĬ¥ áĪĺáĪµáĪĪáĬĴ
áĬĵ áĭ«
ĠáĭĿ áĮįáī£
ĠáĭĿ áĭĽáĪ¨áī¦
Ġáī¥ áī¤áīµ
áĬ£ áī²
áĭµ áĭĭ
áĪ« áĭª
áĮį áĭİ
áĮį áĭľáĬ¡
Ġáī° áīĭ
ĠáĭŃ áĮĪáīłáĪŃ
ĠáĪµ áĪİ
ĠáĬ£áĭŃ áĪĿáĪįáĬ¨
áĪ© áī£áīµ
áĭĺ áĪĺ
ĠáĪķ áĮķ
áĪĥ áĭ®
Ġáĭį áīħáĭ«
ĠáĬ¨áĭŃ áĪĺáĪµ
áĮĪáī¥ áĪ¨áĬķ
Ġáĭľ áī¥
ĠáĬ£áĭŃáīµ áĪĿ
áįħ áĬł
ĠáĬķáĬ£ áĬķ
áī¤ áīµáĬ«
áīłáĪĪ áĬĵ
áĪĺáĪį áĪµ
Ġáī¥áĪĺ áĭĵáĪį
ĠáĪ°áĪĽ áĪŃáĭ«
ĠáĬ£áĪĿáĪĭ áĬ¾áĪĿ
ĠáĭĪáĭ« áĬĵáĭŃ
ĠáĬ®áĭŃáĬķ áĬ©áĪĿ
ĠáĬ£áĭ´ áĬĵ
ĠáĬķáĬĲáī¥ áĪµáĬ»
ĠáĮįáĪĿ áī£áĪŃ
ĠáĬķáĮİ áĭŃáī³
áī°áī£áĭķ áīµáĭ®
ĠáĬ¨áĬķáī² áī£
Ġáī°áĭ°áĮĭ áĮĭáĪļ
" !
i on
ĠáĭĿ áįħ
ĠáĪĺ áįįáĪ¨
áī£ áī±
áĪ« áī²
áĭķ áĭĪáīµ
áĭ° áĪ©
áĪī áĭķ
Ġáĭĺ áĬ«áĭŃáĭµ
ĠáĭŃ áĮĪáĪįáĮ¾
áĬŃ áī¡
áĬŃ áĪĮ
áĭĽ áĪķ
áĭĺ áĬ¨
ĠáĪĥ áĬķáīĢ
Ġáĭļ áĭĵáī¢
Ġáīħ áĭ«
Ġáĭķ áĪ¨
ĠáĮ¸ áĭĭáĭķáī³
ĠáīĢ áĮł
áįĬ áī±
ĠáĪŀ áĪ³
ĠáĬķáĭĵ áĬ»áĬķ
áĬĲáī³áīµ áĬķ
ĠáīµáĪĿáĪħáĪŃ áī³áĭĬ
ĠáīĨ áĪĭáĪķáī³
Ġáĭ® áĪĿ
ĠáĬ£áĭį áĮ½áĬ£
áĪĭáĬ¥ áī³
ĠáĪĿáįį áĪ«áĪµ
ĠáĭĿáįĪ áī°
ĠáĪ°áĪĽ áĭ«áīµáĬķ
ĠáĪĿáĮ½ áĭĭáĭķ
ĠáĪĺáĪª áĮ¸
ĠáįķáĪ¨ áĭĿáĭ°áĬķáīµ
ĠáĮ½áĬķ áĬ©áĪŃ
ĠáĭĪáĮº áĬł
áĪµáī³ áįį
ĠáĬķáĬ»áĪį áĬ£áĭŃ
ĠáĪĵáī° áī¶áĪĿ
ĠáĭĿáĪ¨áĬ¸ áī¦
ĠáĪĿáĪĿáĪĭ áĬ¥
Ġáī¥áīĢ áĪĬáĪī
ĠáĪĿáĮħáĪĽ áĪ©
ĠáĭĪáįĪ áĭ«
ĠáĭĪáĮ» áĬ¥áĬķ
ĠáĬ¥áĬĵáĪĺáĪ° áĮįáĬĵáĪĪáĬķ
Ġáī¥ áĬ»áĪį
ĠáĬ¨ áĮ½áĬķ
áĪĽ áĪŃáĬŃ
Ġáĭĺ áīłáĪŃ
Ġáĭĺ áīķáĪŃáī¥
ĠáĪ° áĮĪ
ĠáĪµ áĮįáĪŃ
áĪ³ áĭįáĭ«áĬķáĬķ
ĠáĮį áĪ²
ĠáĬ£áĭŃ áĬ£áĪĿáĬķáĬķ
Ġáĭĵ áīĤ
áĭĭ áĭķáī²
áĭ® áīµ
Ġáĭ¨ áĬ½áĬ¥
áĪ² áī¡
áĬ¾ áĬĴ
ĠáĬŃáĬķ áĪħáī¥
áįĭ áīĲ
ĠáĬ¤ áĪª
ĠáĬ¤ áĪªáīµ
áĭĴ áĬķáīµ
Ġáĭĭ áĬĴ
ĠáĪŃáĬ¥ áĭ«
ĠáĬķáĪ³ áĪįáĪ³áĭŃ
ĠáĬķáĭĿ áĬĲáīłáĪ¨
ĠáĪĺáī¥ áĭĿ
ĠáĪĿáįį áĪŃ
ĠáĪĺáĭĵ áĭĿ
ĠáĬ£áĪĽ áĬ»áĪª
Ġáįĭ áĪ²áĬ«
ĠáĮ¸áĮĪáĪĿ áĬĵ
ĠáĭĺáĭŃáĪĿ áĭĥ
ĠáĪĵáĭ² áĮī
áīłáĪĭ áĪ¸
ĠáĭĪáĮº áĬ£
Ġáīµáĭķ áĭĿáī¥
Ġáįİ áĪŃ
ĠáĪ¾ áĪŀáĬķáī°
ĠáīłáĪĬ áĪķ
ĠáĪĮ áĪĭ
ĠáĮ¸áĭĬ áĭĸáĪĿ
Ġáī¥áĮ» áĭ©
ĠáĮ¸áĪĭáĬ¥ áīµáĬĵ
Ġáī°áĮĵ áĭĵáĭĿ
ĠáĪĤáĭĪ áī±
ĠáĪĿáĮįáī£ áĪ©
ha i
ĠáĪĪáĪĿ áĪĪáĪĿ
ĠáįĭáĭŃáĬĵáĬķ áĪµ
ĠáĬĵáĮ½ áĬĲáīµáĬķ
Ġáīłáĭ¨ áĬĲ
ĠáĪĿáĬ½áĬĴ áĭ«áī±
áī¡áĬ« áĭµáĬĲáĮ»áĪŃ
s p
ĠáĭĿ áĪ°áĪĿáĭĸ
ĠáĬķ áĪ¥
áī³ áĬĵ
ĠáĪĺ áįĥ
ĠáĪĺ áĪ¨áī¥
ĠáĬŃ áĭĪáĪµáĭ°
áĬ£ áĪĺáĬķ
ĠáĬĲ áī£áĪŃ
áĬ« áĪĭ
ĠáĪĵ áĪ°áī¥áĬ©
áĪĵ áĭį
Ġáĭµ áĪĭ
ĠáĬ« áĪ«
ĠáĬ£áĭŃ áĪŃáĪµ
áĬ» áĬĴ
Ġáīµ áĪ¨áĬ½áī¡
áĮĭ áĮįáī£
áĪ² áĬ¡
ĠáĪĥ áĪĿ
ĠáĬ¥áī° áĭĺáĪŃ
áĪĨ áĪįáĪĿ
Ġáī¥áĪĵ áĮĪáĭĿ
áĮĢ áĪĺáĪ©
ĠáĬ¨áī° áĬķáī¥áī¥
ĠáĬķáĪµáĬ» áĭįáĬķ
Ġ5 6
ĠáĮĲ áĭŃ
Ġáĭ® áĪŃáĬŃ
ĠáĪĤ áī¥áĭİ
ĠáĪĽáĭķ áīĢáī¥
Ġáī¥áĭĺ áĪ¨áī£
ĠáĬķáĬ¹ áĪĭáīµáĬĵ
ĠáĪĵáĪĭ áīĳ
ĠáĮ¸áĬĴ áĭĳ
ĠĠ ĠĠ
ĠáĪĥáī¥ áī³
ĠáĪĿáĮ½ áĬ£áīµ
Ġ200 3
ĠáĬłáĪĿáĪĭáĬ½ áĬĵ
ĠáĪĵáĮ¢áĬ£áīµ áĬĵ
ĠáīłáĮº áĪĸáĪĿ
Ġáī°áĪĺáĪį áĬ¨áī±
Ġáĭĺáī¥ áĭĲáĬĽ
ĠáĪĺáĭĺ áĬ»áĬ¸áĪª
ĠáĬ£áĮĪáĪįáĮįáĪİ áīµáĬķ
ĠáĭĺáĭŃáĬĲ áīłáĪ®
ĠáĬ£áīĥ áĪĬ
ĠáĭĺáĭŃáĬ¨áĬ£ áĪĪ
ĠáĪĵáĪļ áĪĻ
ĠáĬ£áĭŃáįĭ áĪīáĬķ
ĠáĬķáī¥áĪ¨ áīµáĬķ
ĠáĪ¶áĪĽ áĪįáĭ«
ĠáĮ½áĪĭ áĪİáīµ
ĠáĭµáĬ¹ áĪĽáīµ
ĠáĪħáī¦ áī¥áĪĭ
ĠáĬ£ áī¤áīµ
ĠáĬ¥ áĪ°
ĠáĬ¥ áĪĺáĬķ
ĠáĬ¥ áĪ¾
ĠáĭĿ áĪħáīłáĬĵ
ĠáĬŃ áīłáĪįáĭĳ
áĭµ áĭ®áĪĿ
áĪķ áĭĭáīµ
áĪĭ áĮ¢
Ġáĭĺ áĮ½áĬķ
áĭ« áī°áĭŃ
Ġáĭĵ áĭµáĬķ
áĭĺ áįįáī²
Ġáĭ¨ áĭĭ
ĠáĪĺáĬķ áĮ½áĪŃ
ĠáĭĿáī° áĪĺáĪ¨
ĠáĬ© áī¡áĪŃ
ĠáĮ¸ áīł
áįħ áĪª
Ġáī¥áĭĿ áīĲ
ĠáĬ£áįį áīĥ
áĪµáīµ áĪŃáĭ«
ĠáĮİ áĭµáĬĴ
áĬŃáī¥ áĪª
ĠáĬķáĭĿ áĪĺáĮ½áĬ¥
Ġáī°áĭĪ áĮ¢
áĪħáĪį áĭĪ
Ġáī°áĪĵ áī£
ĠáĪĤ áī¥áĬĵ
ĠáĬ¬ áĬķ
ĠáĬķáĮį áĭµáĬķ
áĮĪáī¥áĪ¨ áĬ«
ĠáĪĵáĪĭ áĭį
ĠáĪĥáī¥ áĭİáĪĿ
ĠáĭĺáĭŃáīµ áįĪáĪįáĮ¦
ĠáĪĵáĪŃ áīłáĬĽáī³áīµ
Ġáī°áĪĺáĪĬ áĪµáĬĵ
ĠáĭįáĪķ áĪµ
ĠáĪŃáĬ¢ áĬĵáĭ®
ĠáĪĺáĭĺ áĬ¨áĪŃ
ĠáįĭáĭŃ áĭ³
ĠáĪ¶áĪŃáĭ« áĭįáĭ«áĬķ
ĠáĪļáĪµ áĭ®
Ġáĭ°áĭµáĪķáĪª áĬ¡
ĠáĬ¥áĬķáī°áĪĥ áĪĪáĭĪ
ĠáĪķáįĥ áĬķ
Ġáī¥áĭķáĪĿ áīĨáīµ
Ġor g
ĠáĪ³áĬķáī² áĪĿ
ĠáĬ¥ áĪº
áī° áĪ¨
ĠáĬŃ áī£áĪŃ
ĠáĬŃ áĮ¥áīĢáĪĺáĪī
ĠáĪĿ áĬĴ
ĠáĬ¨ áīł
ĠáĬ£áī¥ áĭĺ
áĪĺ áĪĥáĪ®
áĪķ áĪ²
áĮĪ áĪ®áĪĿ
Ġáĭĺ áī£
ĠáĭŃ áĪ¨áĬ£
ĠáĬ£áĭŃ áĪŃáĬ¨áī¥áĬķ
Ġáĭ° áĪª
ĠáĬ¥áĭļ áĬ¤áĬķ
ĠáĪĽ áĪµ
áĬ¦ áī³áīµ
Ġáįį áĪĪ
Ġáĭļ áĪ°áĪĿáĭķ
ĠáĭĿáī° áĭ°
ĠáįĪ áįĥ
ĠáĭĿáīł áĪįáĬĵ
ĠáĬķáĪµ áĪĽáĭķ
ĠáĪĪ áĭī
ĠáĬµ áĪĭáīµáĬ©áĪĿ
ĠáĪĺáĮ½ áĪĵ
áī°áĬķ áĬ¨
ĠáĬķáĪķ áĮĤ
ĠáĭĪáĭ² áĪ°áī¥
Ġáī¥áĬ¸ áĬķáī±
ĠáĬ² áĪĪáĬķ
áīµáĬ« áĬ¥
ĠáĮŃ áĬķ
ĠáĭĿáīĲ áĮ¸áĪĪ
ĠáĬķáĭµ áįĬ
ĠáĬ¤áĭį áĪ®áįĵ
ĠáĭĵáĪŃ áĬ©
ĠáĬ®áĪļ áĪ½
ĠáĭĿáĮįáī¥ áĬ£áĬĵ
ĠáĬ£áĪ¨áĮĭ áĭĬ
ĠáĬķáĪĿáĭį áĮ»áĬ¥
ĠáĬ£áĮį áĬ£áĭĿáĭ«áĬķ
áĪĵáĪĪ áįī
ĠáĪĺáĭķ áīĪ
Ġáĭįáĭķ áĪİ
ĠáĭĪáĬĲ áĬķáī²
ĠáĬ£áĭŃáī°áĪ«áĬ¥ áĭ¨áĬķ
Ġáī¥áĮłáīķ áĪĭáĪĭ
ĠáĪĺáĭķáīĨ áī¢
t r
Ġ st
áĬķ áĭİ
ĠáĭĿ áĮłáįįáĬ¥
ĠáĬŃ áĭī
ĠáĬŃ áĬ£áĪĿáĬķ
áĪ¨ áīĲ
áī£ áī³
ĠáĪ° áĪĽáĬķ
áĮ½ áĮ½áĪŃ
áĮ¥ áīķ
Ġáį «
áĭ± áĪĪáĭŃ
áįĭ áĮ¥
ĠáĬ¤ áĮĢáĬķáĪ²
ĠáĬ£áĭŃáī° áįĪáĪįáĮłáĬķ
Ġ5 7
Ġáī°áĭĪ áĭ³áĭ°áĪŃáī²
ĠáĭĿáĬ£ áĪĺáĬĲ
ĠáĪĿáĪķ áĪ¨áīµáĬķ
ĠáĭĿáĭĢ áĬķáĬĵ
áĭµáĬ« áĭ®
áĬ«áĭ¨ áĭ±
Ġáī°áĭĽ áĪ«
ĠáĬ¨áĪĿáĭĺáĭŃ áī°
ĠáĬŃáĪħáĪį áĭĭ
ĠáĬŃáĭĪ áĪŃ
ĠáĬ£áĪĺáĪªáĬ« áĭįáĭ«áĬķ
ĠáĬķáĬ¸ áĭŃáīµ
Ġ200 4
ĠáīµáĪĿ áĬŃáĪķáī²
Ġáī°áĭ° áĪª
ĠáĬŃáĮĪáī¥áĪŃ áĭİ
Ġáī¥áĪĽ áĬ¥
áī¥áĭĵ áĪĿ
ĠáĭŃáĪµáĪĿ áĭĵáĬ«
Ġáī¥áĪĵáĬķ áĪ³áĬ¥
ĠáĭĺáĮ¸ áĮįáĪĿ
Ġn e
Ġáī¥áĪĥáĬķ áīĢáĭįáī³
ĠáĪĵáĪįáĭ® áīµáĬķ
Ġáī¥áĪķáĪį áĪļ
ĠáĬ£áĪŃáī£áĭķ áī°áĬķ
Ġáī¥áĭµáĪķáĪŃ áĭļ
ĠáĪĺáĭĪáĭ³áĬ¥ áīµáĬ¡
ĠáĮįáĬķáĭĽ áīł
ĠáĪĺáĮłáĭŃ áīķ
ĠáįķáĪ®áįĮ áĪ°áĪŃ
h t
áĬĵ áĪķáĬĵ
ĠáĬķ áĭ¶
ĠáĪĺ áĮī
áĮĪ áĪĺ
ĠáĪĵ áĭĭ
ĠáĭŃ áĮ¥áīĢáĪĻ
ĠáĪ° áī²
ĠáĬ¨áĪĿ áĭŃ
áĭ¨ áĭ®
áĭĺ áĬ©áĪĿ
áĪ® áĪĽ
Ġáĭ¨ áĭµ
áĬ©áĪĿ áĭİáĬķ
áĭ± áĪŃ
ĠáĮ¥ áĬķáī³
ĠáĬŃáĬķ áĮį
ĠáĬŃáĬķ áĮ¥áīĢáĪĿ
ĠáĭĪáĭŃ áĭµáĪĽ
áĮĬ áĪ±
ĠáĪħáĭĿ áī¦áĪĿ
áįī áĬĴ
ĠáĬ¨áĭŃ áįĪáĪĪáĮ¥
Ġáī°áĪĺ áĪĭáĪĪáĪ±
ĠáĪĺáĪį áĬ¨áįį
áĮħ áĪĽáĪŃ
ĠáĬ£áįį áīĢ
ĠáĪµáĪŃ áĪĵ
Ġáī¥áĬ£ áįį
ĠáĭĿáīłáĪĪ áįĢ
áĪŃáĪķ áĬķ
ĠáĪĭ áī²áĬķ
ĠáįĢ áĪ¨
ĠáĪĿáĭį áĪ«áĭµ
áĬķáī³ áĪį
Ġáįĵ áĬª
ĠáĬ£áĪ° áĪįáĮ£
ĠáĬĥ áĭŃ
ĠáĬ£áĪĪáĭį áĭİ
ĠáĪĵáĭį áĬ«
Ġáī¥áĬ½ áĭ«áīµ
ĠáĭĿáĮį áīłáĬ£áĬĵ
ĠáĮĥ áĬķáĭ³
ĠáĪĽáĬ¥áĬ¨ áĪįáĬ©áĪĿ
Ġáī°áĪ³ áĬ¢áĬĳ
Ġáī¥áĪĿáĭĥ áĬĸáĪĿ
Ġáī¶ áĬķ
áĭĪáĮ½áĬ¥ áĬķ
Ġáī°áĪĭ áĭĴ
áĭ°áĪ¨ áĪ½áĬķ
ĠáĮ½áĪĿ áĭĭ
Ġáī¥áĭļ áĪĿáĪįáĬ¨áīµ
ĠáĭŃáĪĺáĪŃ áĪķ
ĠáĬ£áĭ¨áĭµáĪįáĭ¨ áĬĵáĬķ
ĠáĪħáĬķáĮ» áī³áīµ
ĠáĪ°áĪ«áĭĬ áīµáĬķ
ĠáīµáĬ¥áĭĽáĭĽ áīµáĬ«
ĠáįķáĪĭ áĬĶáīµ
ĠáĬªáīĲáīµ áĪįáĭİ
ĠáīĭáĬķ áīĭáĬķ
ĠáĬ¢áĬķáĭ³ áĪµáīµáĪª
ĠáĬ¢áĬķáĪ¹ áĪ«áĬķáĪµ
Ġáī³áĭķáĪĬ áĪĿ
ĠáĬ Ĥ
áĬķ áĪµáīµáĭ®
ĠáĬ¥ áĭŃ
áīł áĪĪáĬķ
ĠáĬķ áĮ¥áįį
áĬĲ áī°áĬķ
ĠáĪĿ áĬĵáĭ³
áĪĺ áĪĥáĪ©
áįį áīĵáĭµ
áĮį áĪĽ
Ġáĭĺ áĪµáĪĿáĭķ
ĠáĬĲ áĬķáī¥áī¥
áĪĵ áĪĴ
áĪ° áĪ«áĪķ
áĭ³ áĬĵ
ĠáĬ£áĭŃ áĮĪáĭ°
áĪħ áĪħ
áĭ¨ áĭ©
áĬĳ áĪµ
Ġáĭį áĪ»
ĠáĭĿáī° áĬ»áĭ¨
áīħ áīħ
áīĢ áĪ°
áĬ® áĬĵ
ĠáĬ® áĪĪáĪį
ĠáĮ½ áĪĵáįį
áĭĳ áĪĿ
áĮ¢ áĪŀ
áįĥ áīµ
ĠáīĨ áĪª
ĠáĬ¦ áĪİáĪĿ
Ġ6 6
ĠáĪĴ áĪ³áī¥
áĬŃáĬķ áĭ°áĭŃ
ĠáĬķáĬĲ áĮĢáĭį
ĠáĬ£áĮĪáĭ³ áĪµ
Ġáī°áĬ¸ áī³áī³áĪĬ
ĠáĭķáĬķ áī£áī£
ĠáĮ¥áĬķ áīģ
ĠáĮ¥áĪŃ áĭĵ
Ġáī¥áĪĿáĪµ áĮ¢áĪŃ
ĠáĪ¹ áĭµáĪ½áī°
ĠáĬłáĬķ áī³áĭŃ
ĠáĪħáĪį áĭĬ
ĠáĬ£áįįáĪĬ áĮ£
ub e
ĠáĬ¦áĪŃáī¶áĭ¶ áĬŃáĪµ
k k
áĪŃ áĬĵáĬķ
ĠáĬŃ áīĳ
ĠáĪĿ áĪī
áĪĺ áĪ«áĬķ
áĮ½ áĪĵáĬĵ
Ġáīµ áĮįáī£áĪ¨
áĮ¥ áĭĲ
áĭĭ áī±
ĠáĪĽ áĪµáĬŃ
Ġáĭį áĪµáī°
Ġáĭļ áĪŃáĬ¨áī¡
ĠáĭĿáī° áĪ³áī°áįī
ĠáĬŃáīµ áĬ¥
Ġáĭķ áĭį
áĭľ áĪĽ
áĪŃáĪµ áĭĭ
áĪĺáĪŃ áĮ¹
áĪľ áĪĮáĬŃ
áįĪáīµ áĪĲ
Ġáī¥áįį áīķ
Ġáī¥áī° áįĪáĮ¥áĪ®
ĠáĬ½áĬķ áĬĲáī¥áĪŃ
Ġáī¥áĭĵ áī¥
ĠáĭĿáįį áĮ½áĪĿ
ĠáĬŃáĭĪ áĪĥáī¦
ĠáĬŃáĭį áĪµáĬ½
ĠáĪĿáĭķáĪ« áįĭáīµ
Ġáī°áĬĲ áĮĬ
ĠáĮ½áĭµ áīħáĬķ
ĠáĭĺáĪķ áįįáĪŃ
ĠáĪµáĪĿáĪĿáĭķ áĬĲáīµ
ĠáĭĿáī¥ áĬ¢
áĬŃáī¶ áĪŃ
ĠáĪħáĬķ áįĥ
ĠáĬŃáĬŃáĬŃ áĬŃ
ĠáĭĿáĬ¸áīłáĪŃ áĬ«
Ġáĭ¨áĭķ áĪ©áĬ½
ĠáĬ£áĮ¥áįĬ áĬ¡
ĠáĮķáĭµ áĮĵáĭµ
ĠáĮįáĪĪ áĮ½
ĠáĭĵáĪ¨ áī¥áĬķ
ĠáĭĿáįĢáĬķ áĪĲ
ĠáĪĿáĪĿáĪį áĪĭáĪµ
ĠáĪ¶áįįáīµáĭĮ áĪŃ
ĠáĪĺáĭĽáĭĺ áĪļ
s c
áĬķ áĪķ
áīµ áĪī
áĪµ áĪ©
ĠáĭĿ áĮįáĭ°
áĬ¥ áĬª
ĠáĪĿ áĬ³
ĠáĪĿ áĪ»
áĪ© áĪµ
áĬ¸ áĬ«
áĪĥ áĪįáĬķ
áĮ¸ áī¡
áĮł áĪĪ
ĠáĬ¥áĬķáī° áĪĺ
áīĢ áĪĪ
ĠáĬŃáīµ áĮ¥áīĢáĪĿ
áĭī áĭķ
áįĭ áĪķáī²
ĠáĬ¥áī° áĪĵ
ĠáĬ£áĭŃáīµ áĭį
áĭĽáĪ¨ áīłáĬĵ
áĪĤ áĬķ
áīĨ áĪį
ĠáĬ» áī£áĭŃ
ĠáĬķáĭĿ áīłáĪĪ
ĠáĮĲ áĭµáĬĴ
ĠáīĨ áĬķ
ĠáĬ£áĮĪáĭ³ áĪµáĬķ
ĠáĬķáĮĪ áĪ©
áīłáĭ¨ áĬĵ
Ġáĭ°áĮĬ áĪĿáĬ«
ĠáĬ£áįįáĪªáīĥ áĭĬ
ĠáĭĿáĭµ áĮį
Ġáī¥áĮ¥ áĭŃáīµ
Ġáī¥áĪŃáĪĥ áĬĳ
ĠáĪĺáĪĽ áĪħáĪ«áĬķ
ĠáĪĥáĬķáĭ° áīłáī³áĭĬ
Ġáī°áīĲáī² áĪī
ĠáĭĺáĬ« áĪŃáĭ«áĪµ
Ġáī£áĬ¥áī³ áī³áīµ
Ġáī¥áīµáĭķ áĮįáĪµáī²
ĠáĬ«áĪĪ áĬ¦áīµ
ĠáĬ®áĪĮ áĮħ
áĪŃ áĬŃáĬķ
ĠáĭĿ áĮħáĪĺáĪŃ
ĠáĬŃ áĮ»áĭĪáīµ
áĪĺ áĬĵáĭĬ
áĮĪ áĪª
áĭ° áĪĪáĬķ
ĠáĭŃ áĮĲ
ĠáĭŃ áĪķáĮįáĭĺáĬĵ
ĠáĬ¢ áī³
Ġáīµ áĮħáĪĿáĪŃ
áĪħ áĬĲáīµ
áĭ¨ áĪį
ĠáĮĪ áĪį
ĠáĮĪ áįĬáĪķ
Ġáĭļ áĬ£áĪĿáĬķ
áĮĪáĪŃ áĪĿáĬķ
áĪ«áīµ áĬĴ
ĠáĭĵáĪĺ áĮ½áĬķ
Ġáī¥áĪĿ áĪįáĬ¥
ĠáĬ¥áī° áī£áĪħáĪĪ
ĠáĪŀ áĪ«áĪį
ĠáĬķáĭĵ áĪĺáī³
áĮĲ áĮķ
ĠáĬĲáįį áĪµáĬĵ
áĮŃ áĬķ
ĠáĭĽ áĭļ
ĠáĮĭ áĪħáĭ²
ĠáĬķáĮĪ áĪ®áĪĿ
ĠáĮįáī¥ áĮ½áĬķ
ĠáĭĺáĪĭ áīĴ
Ġáī¥áĪħ áĭĿ
ĠáĬ«áī£ áĬ¹áĪĿ
Ġáī°áĮ» áĭĭáī³áĭŃ
ĠáĬķáĮ½ áĪħáĬĵ
ĠáĬķáĭĺáĪĪ áĭİ
ĠáĭĿáĭ° áĭ¨
áĭķáī¥ áĭ®
ĠáĪ¨áĬ¸ áī¡
ĠáĭŃáĪĵ áī±
ed ia
ĠáĬ£áĪķáĪĬ áįİáĪĿ
ĠáĬ£áĭŃáĬ°áĬķ áĬĵáĬķ
ĠáīłáĭŃáĬķ áĬĵ
ĠáĭĿáĪĿáĪįáĬ¨ áī±
ĠáĬŃáĬ¥áĪĪ áīµáĬķ
ĠáĭŃáĮ½áīł áĭ©
ĠáĪĥáī¡ áĬĴ
ĠáĪªáĬ¢ áī¶
áĭ«áĪµáįĸ áĪ«
* +
áĪĪ áĬĵáĬķ
áĪĪ áĭįáī²
ĠáĭĿ áĪĿáĪį
Ġáī¥ áĮĥ
áĬ£ áī±áĬķ
áĮĪ áĬĳ
Ġáī° áįįáīħ
ĠáĪ° áĬ£
ĠáĪ° áĭ°áĭµ
áĪª áĬ®
áĭĪ áĭ°áĬķ
Ġáīµ áįĪáī±
Ġáĭ° áĪĺáĭŃ
ĠáĪħ áĮĤ
ĠáĭĺáĭŃ áĭĵ
ĠáĭĺáĭŃ áĪ¨áĬ£
áĪ½ áī±áĬķ
Ġáĭį áĭ°áī£
ĠáĬŃáīµ áįįáĮ½áĪĿ
áĬ¢ áī±
ĠáĭĿáĬĲ áī¥áĪ¨áĪī
ĠáĪķáĮĤ áĬ¸
ĠáĬ¨áĪĿáĭĿ áī¥áĪį
ĠáĬµ áĬĲ
ĠáĬ£áĭŃáī° áĪĺáĪį
ĠáĪĵáīł áĪ»
ĠáĮĪáĬķáĭĺ áī¡
ĠáĬ¬ áī¥
ĠáĭµáĪĿ áĮ»
ĠáĭĭáĪĭ áĬ³
ĠáĭĿáĪ° áĬ£áĬĲ
ĠáĬ£áĮĪáĭ³áĪ² áīµ
áĪįáĭĵ áĪī
ĠáĪĵáī¢ áĪ¨áĬķ
Ġáī¥áĪķ áī¡áĬ¥
ĠáĬ¥áĬķáī°áĬ¾ áĭŃáĬĵ
ĠáĬķáĪ°áī¥ áĬ£áĭ«
ĠáĪĺáīĲ áīłáĪĬ
ĠáĭĿáĮį áīłáĪ¨
Ġáī°áĪª áįİáĪĿ
ĠáĬķáī£áĭķ áĪİáĪĿ
ĠáĭĿáĪĺáĪŃ áĪĸ
ĠáĪķáĮī áĪµáī²
Ġáĭĺáįįáīħ áĪŃ
ĠáĭĪáĪ°áĬķ áĬ©
ĠáĬ£áĪĥ áĭĿ
ĠáĬķáī³ áĪªáĬ½
ĠáĭŃáĪķáĪ¸ áĬĴ
Ġáīłáĭ¨ áĬĲáĭŃáī²
ĠáĬ£áĭŃáĪģáĭ³ áĭĬ
ĠáĪŃáīµ áĭĵáĭĬ
ĠáĬķáīĨ áĪįáĭĳ
ĠáĮ¥áĪŃáĬĵ áįĪ
\ "
i st
ĠáĬ¥ áįİ
áĪį áĪįáī²
áī° áĪª
áĪµ áī¶
ĠáĪĺ áįĥáĬ¢
ĠáĬ¨ áĬ½
áĪĺ áīħ
ĠáĭŃ áĪŃáĬ¥áĭ®
Ġáīµ áīħ
Ġáĭ° áĪĥ
ĠáĪĿáĪµ áĭĵáī¥
Ġáĭ¨ áī¥áĪī
Ġáĭį áĮ¥
Ġáĭļ áĪĵ
Ġáĭļ áĭĪáĪµáĭµ
ĠáĬŃáīµ áĪ³áī°áįį
ĠáĬ© áĪŃ
ĠáĪį áī£áĭĬ
Ġáī£ áĪĭ
ĠáĬ¥áī° áĭĽáĪ¨áī¥
ĠáĪĿáĭµ áīĥ
ĠáĪŀ áī°áĪŃ
ĠáĬķáĪĵ áĮºáĪŃ
ĠáĬŃáįį áĪį
Ġáī¥áĭĺáĭŃ áī°
ĠáĪµáĪĪáĭĿ áĬ¾
ĠáĭµáĪĿ áĮ¾áĪĿ
ĠáĪĺáĭĵ áĪĭ
ĠáĬ£áĪĽ áĬ¸
Ġ18 8
ĠáīĪ áĮ¥áīĭáĮ¥
ĠáĭŃáįį áĮłáĪŃ
ĠáĪĺáī¥áĭĽáĪķáīµ áĬłáĬķ
ĠáĪĵáĪĭáįį áĬĲáīµáĬķ
.... ..
ĠáĬ£áĬ¥áĪĿáĪ® áĬ»
ĠáĪĢ áī¦
áĪĿáĪįáĬ¨ áī¶
ĠáĭĺáĪŃ áĮĬáĪĳ
Ġáīµáĭ°áĪĬ áĭ¶
ĠáĬ£áĭŃáĪ¨áĬ¸ áīł
ĠáĪĵáĪ² áī¡
he re
ĠáĪĺáī¥áĭĽáĪķ áī°áĬķ
Ġáĭ°áĮĭáĮĬ áĪĻ
Ġáī¥áĪĤ áĭĪáīµ
Ġáī°áīĥ áĭįáĪŀ
ĠáĬĲáĬĵ áī¶áĪĿ
ĠáĪĺáī¥áĭĽáĪķáī² áĬ¡
ĠáĪĺáĭĽáĮįáī¥ áī²
ĠáĬķáĮ¡ áįį
ĠáĪĿáĪµáĪķ áĪĵáī¥
ĠáĪĺáĪµáĪĺ áĪ«áīµ
áĪĪ áĬ¸
ĠáĬŃ áīłáĪŃ
ĠáĪĿ áĮ¥áĪŃ
ĠáĬ£áī¥ áĪ«áĪĿ
Ġáĭĺ áīĳ
áĬ½ áĪĭ
áĪĬ áĪķ
áĬŃ áĪ®áĪĿ
Ġáīµ áĬŃáĬ¥áĪį
Ġáīł áīłáĭŃ
Ġáīł áĭ°áĪī
Ġáīł áĬ¥áĬķáī°
ĠáĪĽ áĬĵ
Ġáĭį áĬŃáĪįáĬĵ
ĠáĬ¨áĭŃ áī°áĪĵ
ĠáĬ¥áĬĵ áī°áĪĵ
ĠáĪĿáĭĥ áĬĲáĬķ
ĠáĬ£áĭ¨ áĪµáī°
ĠáĭĿáĭį áĪĥáī¥
ĠáĪĵáĭ² áĬ¡
áĬ£áĬĲ áĪµ
ĠáĬķáĬ¸ áĬķáī±
ĠáĬķáĮ½ áī¡áīķ
ĠáĪħáĭ« áī£áīµ
ĠáĪĺáĭĵáĪµ áĬ¨
ĠáĭĿáĪ¨áĬ£ áĬĵáĭ®
ĠáĭĺáĭŃáĬķ áī¡áĪŃ
ĠáĭľáĮĭáī³áīµ áĬĵ
áĪĿáĪįáĬ¨ áī¶áĪĿ
ĠáĬ¸áī° áĭįáĮ½áĬ£áĬ©áĪĿ
áĮ½áĭķ áĬĸ
ĠáĬ£áĭ¨áĭµáĪįáĭ¨ áĬ©áĪĿáĬķ
ê¬ Ĥ
ĠáĪĺáī° áĮįáīłáĪª
ĠáĬ£áĪĺáĪĪáĬ»áĬ½ áī³
o d
áĪĿ áĮįáī£áĪŃ
ĠáĬ£ áĪ°áĬķ
ĠáĬķ áĮķ
áĬ¥ áĭĬ
ĠáĬŃ áĪ¨áĪĿ
áī£ áīł
ĠáĭŃ áĪĪ
ĠáĭŃ áīĳ
áĮ½ áĮ»
Ġáĭĵ áĪŀ
Ġáīµ áĪŃáĬ¥áĭ®
ĠáĪĿáĪµ áī³áĭŃ
Ġáĭ¨ áĪ«áĬ½
ĠáĪį áīł
áĪĳ áīķ
áĮ¢ áĭĳ
ĠáĭĿáīł áĪįáĬĵáĭ®
áĪ¬ áĬ»
ĠáĪĪ áī¥áĭĴ
áĬ³ áĪŃ
ĠáĪĿáĭµ áĪĿ
ĠáĪ³ áī£
ĠáĪĥáĮĪ áĪ«áĭĬáīµ
áĭ°áĪį áĭŃáĭİ
ĠáĬķáĪĵ áĪĻáĪ½áī°
Ġáĭ¨áĪ±áĪµ áĬķ
áĮĲ áĪ°
Ġáī¥áĬ£ áĬĵ
ĠáĬ£áĪŃ áī²
áĬĶ áĪŃ
Ġ7 2
ĠáĬ¥áĬķáĭ³ áīłáĪī
ĠáĮĭ áĪį
ĠáĮĭ áĪ«
áĮ¥áīĢ áĪĺ
ĠáĪĿáĭķ áīĥáī¥
ĠáĬķáĮĪ áĮ½
ĠáĪĺáĭĿ áĬĲáīµ
áĮ¥áĪĿ áī³
áĮįáĪ¨ áĪ½áĬķ
ĠáĭĺáĭŃáīµ áįĪáĪįáĮ¥
ĠáĬŃáĪħáĪį áĭĪáĬ©áĪĿ
ĠáĪļáĬĴ áĪµáī°áĪ«áīµ
ĠáĬķáĮ¥ áīķ
ĠáĬŃáĪĺ áĪĥáĪ©
áĭķáĪŃ áįİ
áĪĺáĭĿ áĮĪáī¥
ĠáĭľáĮĭ áĮ¥áĪĿ
ĠáĭŃáĭĿ áĬŃáĪŃ
ĠáĪ¨áĬ¸ áī¥áĬ©
Ġáīªáĭµáĭ® áī³áīµ
ĠáĭĴ áĪ«
ĠáĭĪáĪį áĭ±
ĠáĬŃáīł áĮ½áĪĳ
ĠáĮłáĭį áīķ
ĠáĬ¥áī°áĭĭ áĪħáīł
ĠáīµáĬķáī³ áĬĲ
Ġáĭ¨áĬ« áī²áīµ
ĠCon tinue
Ġáī¥áĪĿáĪįáĬ¥ áī³
i m
áĪĿ áĪĽáĭķ
áĪµ áĪī
ĠáĭĿ áĭµáĪŃ
ĠáĬķ áįģ
áĬĲ áĪĽ
ĠáĬŃ áĪĿáĪŃáĭĸ
ĠáĪĿ áĮ¥áīĥáĪµ
áĪķ áĭļ
áĮĪ áī¢
áĮĪ áĪ®
áĭļ áĭ«
ĠáĬ¥áĬķ áĮĪáī¥áĪŃ
ĠáĬ£áĭŃ áĭķ
áīķ áĭķ
áĭĺ áĭĭ
áĬĳ áĭĵáīµ
Ġáĭ¨ áĬ½
ĠáĭĺáĭŃ áĮ¸
áĪŀ áĪŃ
ĠáĬŃáĬķ áĪĵ
ĠáĬŃáĬķ áĪŃáĭ³áĬ¥
áĮī áĭµ
ĠáĬ¥áĬĵ áĮ¸
ĠáĬ£áĬķ áī£áī¢
ĠáĬº áĪķ
ĠáĭĿáĪĺ áĪ³áĪ°áĪį
ĠáĪ¸ áĮ¥
Ġáī°áīĲ áīłáĪī
ĠáĬ£áĪŃ áĭĳáīµ
Ġáįįáīķ áĭ²
ĠáĪĿáįį áĪ«áĭŃ
áĬħ áĪŃ
re na
ĠáĮŃ áĭĭ
ĠáĪĺáĪ³ áĪįáĪį
áĭĿáĬķ áĮĭáĭķ
ĠáĪ© áĪ²áĭ«
ĠáĬķáĮ¹ áĪŃáĬķ
ĠáĪĢ áī¦áĪĿ
ĠáĬ£áĮ½ áĭĭ
ĠE rit
ĠáĬŃáī¥ áĪ®áĪĿ
ĠáĬ£áĭŃáįĪ áī°
áĭ°áĮį áĪŀ
áĬĲáĮįáĪ¨ áĬĵ
Ġáī°áĬķáĪ² áĬ¦áĪĿ
ĠáĬ£áī¦áī³áīµ áĬ©áĪĿ
ĠáĪĺáĪĺ áĪĭáĬ¥áī³
Ġ198 0
Ġáī¥áĭįáĪĳ áĭµ
ĠáĮŃáīĨ áĬĵ
ĠáĪĺáĭķáĪĪ áī¢
ĠáĪĿáĪįáĭįáĭĭ áĮ¥
áĪĿ áĮ½áĬ¦
ĠáĭĿ áĪ°áĪĿáĭĳ
Ġáī¥ áĭ²
ĠáĪĺ áįį
ĠáĬŃ áĮ¥áīĢáĪĻ
ĠáĬ¨ áĪĲ
áī£ áĪĬ
áĪķ áĪ«áĭŃ
áĪķ áĮĭáĭĬ
áĬ½ áĪ©
áĪ° áīł
áĬŃ áĭ©
ĠáĮĪ áĪµ
Ġáĭ¨ áĬ«áĭŃáĭµ
ĠáĪµáĪĪ áĪĿ
ĠáĬ¸ áĭ¨
Ġáĭļ áĪµáĭķáī¡
áīħ áĭ±áĪµ
Ġáĭķ áĪ±
ĠáĬŃáĬķ áĪ¨áĬ½áī¦
áĮĪáĪŃ áĪĺáĬ«
ĠáīĢ áĪŃ
ĠáĬķáĪĿ áĪĿáĪµ
ĠáĪĥáĮĪáĪŃ áĬ©áĪĿ
Ġáī°áĪĺ áĪįáĬª
Ġáī³ áĪĪáĬķáīµ
áĮĲ áĪĿ
áī£áī¥ áĪĭ
áī¥áĬĵ áĪī
Ġáī¥áĬ¸ áįĬáĪį
ĠáĪĿáīµ áĪŃ
áĪįáĪĿ áĬĸ
ĠáĭŃáįį áīµáĬķ
ĠáĬłáĪİ áĬ¹áĪĿ
ĠáĬŃáīķ áīłáĪį
ĠáĭĺáĭŃáĬ° áĭŃáĬĳ
ĠáĪĺáīĲ áĮ¸áĪįáī³
ĠáĭķáĬķ áĮ¨áĭŃáī²
ĠáīłáĪ¨ áĬ¨áīµ
ĠáĬ¥áĬķáĭµ áĭ«
ĠáĪĿáĪµáĮĭ áĬĵáĭŃ
ĠáĮĪáīłáĪŃ áĬ©
Ġ199 4
ĠáĭĺáĭŃáĬ® áĬĲáīµ
ĠáĬ«áĪŃ áī±áĪĿ
áĬ¨áī³áī° áĪİ
áīħáĭµ áĪľ
ĠáįĢáĬĴ áĪĳ
ĠáĭĿáĬĲáĮĪáĪŃ áĬ©áĬ¹áĪĿ
) .
i al
áį ª
áĬķ áĬ®
ĠáĬ£ áĭįáĬķ
ĠáĬ£ áĮĵ
áĪµ áĭ©
áīł áĪ«áīµ
ĠáĭĿ áĪĺáĬķ
ĠáĬŃ áĭĢáĬĳ
áī£ áī¶áĪĿ
Ġáĭĺ áĬķáī¥áī¥
ĠáĭŃ áĪħáī¦áĪĿ
áĭļ áĬ¦áĪĿ
ĠáĬ¢ áĪ®
ĠáĬ« áįĴ
ĠáĬ¨áĪĿ áĬ¥áĬķ
ĠáĬ£áĭŃ áĪ°áĪŃáĪķáĬķ
áĬ¸ áĪĺ
Ġáĭ° áī¥áĪª
áĬĳ áĬĴ
áĪ½ áĬĵáĪį
áīłáĪŃ áĬĵ
ĠáĮ¥ áĭĴ
ĠáīĢ áĪ²
ĠáĭĪáĭŃ áĬķ
ĠáĬķáĪĿ áīģ
ĠáĪ¨ áĬ½áĪ²
ĠáĬ¥áīµ áĪĿ
ĠáĬ¥áīµ áĬ¸áĭŃáĭµ
Ġáĭ°áīĤ áĬ£áĬķáĪµáīµáĭ®
ĠáĬķáĭĿ áĭĢáĬĲ
ĠáĭĿáĭĪ áĪŃ
áĮłáĬķ áīħ
áĪįáĬ¥ áĬ¨
ĠáĪĿáįį áĮ£
ĠáĬŃáĪħ áīłáĬĵ
ĠáĬķáĪ° áĬĵáĭŃ
ĠáįĪáī° áĬĲáī³áīµ
ĠáĪľ áī°áĪŃ
áĪĵáĭµ áĮİ
ĠáĮ£ áĪįáīĥ
ĠáĪĺáĮ¸ áĭįáĭĴ
ĠáĪĵáĭį áĪ²
ĠN o
ĠáĪĦ áĬĸáĬŃ
áĬ©áĭİ áĪĿáĬķ
ĠáĮĪáĭ² áĪĿ
ĠáĪ°áĪª áĪķáĬĵ
ĠáĭĿáĮĪáīłáĪ¨ áī¶
áĪĺáĮ¸ áĬ«
ĠáĬķáĬ£áī¦ áĬ¡
ĠáĪĺáįĪ áĮ¸áĪĿ
ĠáĪĵáĮį áĭĺáĬĴ
ĠáĬ¥áĮįáĭĿ áĬ£áī¥áĪĦáĪŃ
ĠáĭĮáī¥ áĪ³áĭŃáīµ
Ġáĭ³áĪħ áĪ³áĪµ
Ġáī±áĪª áĭĿáĪĿ
áį ©
áĬķ áĬ¥
áĪį áĬŃáĪį
áī° áĭĵ
áīł áĪ°
ĠáĬķ áĮĲ
ĠáĬķ áĮ¥áīĢáĪĿ
áĬĲ áĭį
áĬ¥ áĭĻáĭŃ
áĭµ áĮĪáīµ
áĮį áī¡
ĠáĬĲ áĮį
ĠáĭŃ áĪĽ
áĭĪ áĪĪáĭµ
ĠáĪķ áĪµáī¥
Ġáĭ¨ áĪĿáĮ½áĬ¥
ĠáĪĽ áĪĽ
ĠáĪĥ áī£
Ġáįį áĬĸ
Ġáĭļ áĪĺáĮ¹
ĠáĮ½ áĭķáĬĲáīµ
ĠáĬ¥áī° áĮĪáĪįáĮ¸
ĠáĪĪ áĬ£
ĠáĬ£áĭŃáīµ áĮįáīłáĪ©
ĠáĭĿáĪĵ áĭĻ
ĠáĬķáĬ£ áī£áĪĭáīµ
ĠáĪİáĪļ áĭįáĬķ
ĠáĮł áĭĬ
ĠáĬķáĪķ áĭŃáĭĪáīµ
ĠáĭĿáĪĺ áĭ°
áĬŃáī¥ áī¥
ĠáĪĿáĪķ áĪĭ
ĠáĬ¨áĪĿáĭĺ áĪĪáĬ«
Ġáī¥áĪĺ áĭ°áī¥
áĬ£áĬķ áī³
ĠáĬ¢áĬķ áī´
Ġáĭ« áĬ¢
ĠáĮ¨ áĪª
ĠáīµáĬķ áįĭ
ĠáĭĿáĪĪ áĬ£áĬ½
ĠáĭµáĪķ áĬĲáīµáĬķ
Ġ200 2
ĠáĬ£áī° áĬ²
ĠáĬ£áĭļ áĬ»
áĬ«áĭŃ áĭ³
ĠáĭĪáĮº áĬ¥áĬ«
al l
ĠáĮįáĪį áįĤ
ĠáĪĤáī¡ áĬĴ
ĠáĮįáĮ¥ áĪĽáīµ
ĠáįĴ áĬĸ
áĬ¥áĬķáī° áĬ¾áĬĲ
Ġáī°áĬ¸áī³áī° áĪī
ĠáĬ£áĬ¸ áĪĪ
ĠáĪĵáĮĲ áĪµáĬķ
áĪĵáĪķ áįĭ
ĠáĬ«áĪľ áĪ«
ĠáĬ£áĭ¨áĬķáīłáī¥ áĬ©áĪĿáĬķ
h an
ĠáĬ£ áĬ®
áĪĪ áĬ»áĭĬ
áīł áĭļ
áī² áĬ¦áĪĿ
áī² áīŃ
ĠáĭĿ áĪ¨áĬ½áī¦
ĠáĭĿ áĮĪáĪįáĮ¹
ĠáĬķ áī°áĪĵ
áī£ áĮ½
ĠáĬĲ áĭ²áĬ¡
áįĪ áĬł
ĠáĬ¥áĬķ áĭ°
áĮ¸ áĪ®
ĠáĭĺáĭŃ áī¥áĪīáĬķ
áĪŀ áī±áĬķ
ĠáĪĺáĬķ áīłáĪ¨
Ġáĭļ áĬ¨áĬ£áĪį
ĠáĭĿáī° áīĸ
áĬ¢ áĪĪ
ĠáīĢ áĪĭ
ĠáĪŃ áĮīáĪĿ
ĠáĪŃ áĪħáĪ«
ĠáĬĲáĭŃ áĪŃáĬ©áĪĿ
ĠáĬķáĪĿ áĬŃáīµ
ĠáĪ½ áĮī
ĠáĬ£áĬĲ áĮºáĪ©
áĪĵáīµ áīµáĬķ
áĮİ áĬĴ
ĠáĬ¥áĬĵ áĭĪ
ĠáĬķáĪµ áĪŃáĭĵáīµ
áĭµáĪķ áĬĵ
Ġ5 8
Ġáī°áĭĪ áĭ³
ĠáĬ£áĪķ áĪī
ĠáĬ¨áĪĿáĭĺ áĭµáĪĬ
ĠáĪµáĪį áī²
ĠáĪĿáįį áĬķ
ĠáĭĿáĪ° áĪĽáĪĽáĭķ
ĠáĬ£áĭ° áĬĵ
ĠáĪĵáī¢ áĪ«
Ġáī°áĭĽ áĪĽáĭ²
ĠáĮ¥áīķ áĪįáĪįáī²
ĠáĪĺáĪ°áĪ¨ áī³áĭįáĭ«áĬķ
áīĪ áĪį
ĠáĭĪáĭ° áīĲ
ĠáĭĺáĬķ áĮĬ
ĠáĭĿáĬ¸áįį áĬ¥
ĠáĭĪáĮį áĪĲ
áįĲ áĪŃ
ĠáĭĬ áĬª
Ġáĭĺáīł áĬĲ
Ġd e
ĠáīµáĬ¥áĭĽáĭĽ áī±
ĠáĮķáĭµ áĬ£áīµ
ĠáĬķáĭĪáĪĪ áĭ²
ĠáĭįáĮį áĬ£áīµ
Ġáīħáī¥ áĪĬáīµ
áĪĺáĪĵáĭ¨ áĪ¸
Ġáī°áĪĺáĭ² áī¡
ĠáĮĨáĪŃ áĮħ
ĠáĪ»áĭµ áĪ»áĭŃ
f t
áī° áĪĭ
áĪ¨ áĪ©
áĬ« áĪļ
ĠáĪµ áĭ«
áĮ½ áĪįáĬķ
áĭĪ áĪ±
ĠáĬ£áĭŃ áĪĿáĪĪáĪ±áĬķ
Ġáīµ áĪħáī¥
ĠáĬĵáĭŃ áĭĿáĮĬ
ĠáĬŃáīµ áĭĵ
ĠáĬŃáīµ áĮ¥
Ġáī¥áĭĽáĭķáī£ áĬ¹áĪĿ
áĮİ áĪĺ
áĪĲ áĭ³áĪ«
ĠáĪĪ áĪĽ
ĠáĬ£áĭŃáīµ áīĿ
Ġáī°áĪĺ áĪĭáĪĬ
ĠáĪĵáĭŃ áĪįáĬĵ
ĠáĮĢáĪļ áĪ¨áĬķ
Ġáī¥áĬ¥ áĪĿ
ĠáĬķáĮį áĪµáĬĲáīµ
áĪķáīµ áĬ¦áĪĿ
ĠáĭĿáĪŃ áĬ£
ĠáĪ°áĭĵ áī±
ĠáĭĿáĪĪ áĬ£áĬ¾
áĪĵáĪŃ áĪŃ
ĠáĪĵáĪ³ áī¦áĪĿ
en d
ĠáĬŃáĪµ áĪķ
áĭ°áĬ£ áĬĴ
ĠáĭĿáīłáĪĪáĮ¸ áīµ
Ġ199 3
ĠáīłáĪĪáīµ áĬĴ
ĠáĪķáĭŃáĭĪ áī¶áĪĿ
Ġáī°áįĪáĮ¥áĪ® áĬ£áĭĬ
ĠáĪĵáĪ° áĬ»
ĠáĬķáĭįáĪī áĭµ
ĠáĬ¥áĬ¨ áĭ®áĪĿ
ĠáĮİáĪµ áĮĵáĪµ
ĠáįĵáīµáĪŃáĭ« áĪŃáĬŃ
N A
ĠáĬķ áĭĽ
Ġáī° áĭ°áĬĵ
áĭĿ áĭĿ
áĭĵ áĪĭ
áĭĪ áĮĢ
Ġáĭĵ áĪ¶
áĬ» áĬĵ
áĪħ áĮī
áī¢ áī¡
áĭ² áĬ¦áĪĿ
ĠáĭĺáĭŃ áįĪáĪĪáĮ¥
ĠáĬĵáī¥ áī°áĬķ
Ġáīħ áĮ½áĪį
Ġáĭķ áĭĻáĭĿ
ĠáĬŃáĬķ áĪĺáĭįáīµ
ĠáĮ¸ áĪĿ
ĠáĪį áĬ¥
ĠáīĢ áī³áĪĬ
ĠáĬª áĬĸ
ĠáĬ£áĬĲ áī£áī¥áĪ«
ĠáĪŀ áī°áīµ
ĠáĭĿáĪĵ áĭĿ
ĠáĬĲáĮĪ áĪ«
áĪŃáĬĵ áįį
ĠáĬ° áĬķáĬ«
ĠáĬ£áĭį áĮ½áĬ¥
áĬŃáĪį áĬ»
ĠáĭĿáĭĢ áĬĵ
ĠáĭĿáĭĢ áĬķáĬ«
ĠáĬ£áĬ¥ áīµáĭ©
Ġáįįáīķ áĪ¨áĭŃ
áĪĭáĬ¥ áĬ¨
Ġáĭħ áĪīáĬķ
ĠáĪĽáĭķ áĪŃ
Ġáī°áĮĭ áĮĬ
Ġáī°áĬ¸ áĪįáĬª
ĠáĭĿáįį áĪĪ
ĠáĬ¥áĬķáīµ áīµ
ĠáĭĿáĬ¾ áĬķ
ĠáĬ¸áĭŃ áī°
ĠáĬ¸áī°áĪĽ áī³áīµ
ĠáĪĤáĭĪáīµ áĬ«
ĠS t
ĠáĮĪáīłáĪŃ áĬĵ
Ġáī¥áĮ¸ áĪİáīµáĬķ
áīµáĪŃ áĮī
ĠáĮ½áĪĿ áĬ¢
ĠáĬķáĬ½áĬķ áĭ°áĭŃ
ĠáĬķáĪĿáĬķ áī£áĪŃ
Ġáī°áĪĺáĪĪáĪµ áĬ©
Ġáī¥áī¥áĪŃ áĬª
ĠáĭĵáĭŃáĬķ áĬĵ
ĠáĪµáīĵ áĭŃáĬķ
Ġáī°áĮĮ áĪ©
ĠáĬ¥áī°áĭĪáĪį áĭ±
" +
ĠáĭĿ áįĪáĪįáĮ£
Ġáī¥ áĪĲ
Ġáī¥ áĮĵ
ĠáĬŃ áĪª
áĬ£ áī°áĬķ
áĭµ áĭİáĪĿ
áĭį áĭİáĪĿ
Ġáĭĺ áĮį
Ġáĭĺ áīĢ
Ġáĭĺ áĮī
ĠáĭŃ áīłáĪįáĭķ
ĠáĬ¢ áĬ½áĬķ
ĠáĬ£áĭŃ áĪŀáī°
áĭ© áĪŃ
Ġáĭ¨ áįįáĪŃ
áīħ áĪ±
áĬ® áĬĲáīµ
ĠáĬŃáīµ áīĢ
ĠáĭĺáĪĪ áĬº
áĭ¶ áĬ¸
Ġáī¤ áĭĽ
ĠáĭĿáĪĵ áĮĪ
ĠáĪĺáĪį áĪµáĬķ
Ġáī³ áĬĴ
ĠáĬ¥áĪµ áĭ«
ĠáĬ£áī£ áī³áī¶áĪĿ
ĠáĪĿáĪŃ áĮ¥
ĠáĬķáĬ¥ áĪĿáĬĲáīµ
ĠáĪĿáĪķ áĮ½áĬķ
Ġáī£áĭķ áĭ³áĭĬ
ĠáĬ£áĭį áįĤ
ĠáĬ£áĪŃ áĪĽ
Ġáī°áįĪ áĪĭáĮ¥
ĠáĬ£áĪĿ áĮ½áĬ£
Ġáīķ áĭµáĪĿ
ĠáĬ¥áĬĵáī° áīĲ
ĠáĪĵáĪĻ áĪ½áī°áĬķ
áĪ¨áĪĿ áī³
áĪįáĭį áĮ¦
áĪĵáĭµ áĪ©
ĠáĪįáĭĳ áĪĭáĭĬ
ĠáĬ£áĭŃáĬŃ áĪħáĪīáĬķ
ĠáĭĿáĮł áīħáĪĿ
ĠáĭŃáĬ¸ áī¥
ĠáĭŃáĭĿ áĬ¨áĪ¨áĬĴ
ĠáĪĺáĬķáĬĲáīµ áĬ«
Ġáī°áĮłáīĴ áĪĿáĬ«
áīłáĪįáĬ« áĭ®
ĠáĬ»áĪį áĬłáĭŃáī²
áī°áĬ£ áĪĽáĪĿáĬķ
ĠáĬ£áĪķáĪĬ áįįáĬ«
ĠáīģáĮłáī£ áĭįáĬķ
Ġáī¥áĪĽáĭķ áĭ¶
ĠáĬ£áĭįáī¶ áī¡
ĠáĬķáĭįáĪī áĭµáĬ«
ĠáĭĿáĪĿáĪŃ áĬ®áĪµ
ĠáĭĿáĬ«áĭ¨ áĭ°áĪī
ĠáĪķáĪ± áĪŃ
ĠáĭĿáĬķáī£ áĪĪ
ĠáĪĵáĮ¢áĬ£ áī°áĭŃ
ĠáĪ°áĪĪáĪµáī² áĬ¦áĪĿ
ĠáĭĿáī°áĬ£áĪ³áĪ° áĪ¨
ĠáĭµáĪįáĭ± áĪį
Ġáī¥áĬ¥áĭĭ áĬĳ
ĠáĬ®áĬķáįĪáĪ¨áĬķ áĪµ
4 1
áĪŃ áĭ«áĬķ
áīł áĬ¸
áī² áĬŃ
ĠáĬķ áĪ¶
ĠáĬķ áĬĥ
ĠáĪµ áĪĿáĬķ
ĠáĬ£áĭŃ áĮł
ĠáĭĪ áīĴ
Ġáīµ áĪĵáīµáīµ
áĭĺ áīłáĬķ
ĠáĪķ áĭį
áĪĥ áī¥áĬķ
áĪĻ áĬ¡
áĪĿáĪĭ áĭĬ
áīĲ áĪİ
ĠáĪ°áī¥ áĬĲáī±
ĠáĬŃáĬķ áĪĿáĪį
ĠáĬ® áĬķáĮį
ĠáįĪ áĮłáĪ«
Ġáī¤ áī³áīµ
Ġáī¥áĪĿ áĪī
áĪĵáīµ áī±
ĠáĬ¥áī° áĪĭáĭķáĪĪ
ĠáĪ¨ áĭ³áĬ¢
ĠáĬ¥áīµ áĪķ
ĠáĪİ áĪĿáĬķ
Ġáĭĭ áĬ¥
ĠáĮł áīħ
áĪ°áī¥ áĬ£áĭŃ
ĠáĬ£áī£ áĬº
ĠáĭĿáĪĺ áĭįáīµ
áĬ° áĪ°
áīµáĬĵ áĭ®
áī¥áĪ¨ áĬĴ
áĪĿáĪį áĮ¥
ĠáĪĻ áĬ»áĬĳ
ĠáĬ£áĪĺ áĭĿáĮĬ
ĠáĪĿáĪį áĭķ
ĠáĪĿáĪį áĭĵáĪį
áī°áīµ áī²
ĠáĬĥ áĪĻáĪ½áī°
ĠáĬķáĭį áĭµ
ĠáĭĿáĪµ áĪĽ
Ġáī¡ áĭĻáĪĵáīµ
or y
ĠáĪ¨áĬ£ áĭ®
ĠáĮ»áĭķ áĪŃáĬķ
ĠáĭĺáĪŃ áĭļ
ĠáĪķáĭĿ áī¡
áīĥáĭĪ áĪŀ
ĠáĪĿáĬķáī£áī¥ áĬķ
ĠáĬ£áĪ» áĭħ
ĠáĬ£áī¥áĪª áĪģ
Ġáī°áī°áĪĵ áĪĴáĭĻ
ĠáĬķáįįáĪŃ áĭ±
Ġáī¥áįįáĪŃ áĪĤ
ĠáĪĵáįĤ áĪŃ
áįĪáĪ½ áĬ¡
ĠáĬ¥ áĪŃáĬ¢
áĪŃ áĪµáī°
Ġáī¥ áĬ«
Ġáī¥ áĭ¶
ĠáĪĺ áĭ³áĪŃ
ĠáĪĿ áĬŃáī¥
áĪĺ áĭ«áĭ¨
áĭķ áĭ²
Ġáĭĺ áĬ¢
Ġáĭĺ áĬ¥áī±
áĪĵ áĬĲ
áĭ« áĭķ
áĭ³ áĭį
ĠáĭĪ áĭ³áĬ¥
áĭ© áĪī
Ġáīµ áĪħ
Ġáīł áĪĥáĪįáī²
áĪ± áĬĴ
ĠáĪĽ áĭĵáĪµ
ĠáĭĺáĭŃ áĪ¨áĬ¸
ĠáĬ¸ áĭįáĪĴ
Ġáĭļ áĪĿáĪħáĪŃ
áīħ áĭµáĬķ
ĠáĬŃáīµ áĮį
ĠáĬŃáīµ áĪŃáĭµáĬ¦
ĠáĮ¸ áĪĪáĪĿáī²
áįĭ áĪĭáĪĪ
ĠáĬĲáĭļ áĬ£áī¶áĪĿ
ĠáĬ£áĭŃáīµ áĮ¸
ĠáĪ³ áĮ¹áĬķ
ĠáĪĿáĬķ áĭĿáĪŃáĬĵ
ĠáĪĺáĪµ áĬĸ
Ġáĭ¶ áĪµ
ĠáīłáĪĪ áĬĵ
Ġáī³áĪª áĬ»
ĠáĬĲáī¥ áĭŃ
ĠáĬķáĭķ áĬ¡áĬķ
ĠáĬķáĭħ áĪĪáĬķ
áĮįáĪĬ áĭĺáĬĽ
ĠáĪŃáĬ¢ áĬ¹áĪĿ
ĠáĬ£áīµáĪĴ áĭĺ
ĠáĪŃáĪķ áĪ«
ĠáĭĿáĪĥáī¥ áĬ«áĬĴ
ĠáĪµáĭ°áī°áĬĽ áī³áīµáĬķ
ĠáĭĺáĪ« áĬ½áī¥
ĠáĬ£áĭŃáįĭ áĪįáĬķ
áĪĽáĪª áĬĸ
ĠáĬ£áī¥áĪª áĪĨáĪĿ
ĠáĬ£áĪµáī°áī¥ áĪħáĪį
ĠáĪĥáĭĭ áĪģ
ĠáĬ¥áĪŃáĮĭ áĬķ
ĠáĪ°áĪįáįĪ áĬĽáī³áīµ
ĠáĬ£áĪ°áĪįáĮ£ áĬĴ
áī¥ áĮĢ
ĠáĬ£ áīłáĪ«
ĠáĬ£ áĮ¥áĪŃ
áĪį áĭķáĪĬ
ĠáĭĿ áī¥áĪİáĪĿ
áĬĲ áĬª
ĠáĬŃ áĪµáī³áīµ
áįį áĪĬ
ĠáĬĲ áįĬ
Ġáī° áĪ½áĬ¨
ĠáĭŃ áĮĭ
ĠáĭŃ áĪħáī¦
áĮ½ áī¥
áĮ½ áĪħ
áĭĪ áĪ¶
ĠáĬ¥áĬķ áī¥áĪį
áĪħ áĪµáĪµ
áī¢ áĬĵ
áĪĥ áĪħ
áīĢ áĬĽ
ĠáĬŃáĬķ áĪĿáĪĥáĪŃ
ĠáįĪ áĪįáĪ²
áĪ«áĪķ áĬķ
ĠáĬ¥áĬĵ áĪĺáĪµ
áĪĶ áĬķ
ĠáĪĽáĪĪáīµ áĬĵ
ĠáĪĿáĬ¥ áĭĽáĭĿ
áįĥ áĪĿ
Ġáīģ áĪįáĭķ
ĠáĬ£áĪĪáĭī áĬĴ
ĠáĬ¦ áĪ®áĪŀ
ĠáĬ£áĪŃ áī£
Ġáī¥áįį áĪįáĮł
áĮ« áĭį
Ġáĭħ áĪĭ
ĠáĬ£áĭµ áĪĪáĭ¨
ĠáĮįáī¥ áĪ®áĪĿ
áĬ¼ áī£
Ġáī°áīĵ áĭĭáĪļ
Ġáī°áīĵ áĪĪáĪµáī²
ĠáĪµáĮĭ áĭŃ
ĠáĭŃáįį áīĢ
Ġáī¥áĪħ áĮ¹áĮ½
ĠáĭŃáĪĿ áĮ»áĬ¥
ĠáĬ£áĪµáī° áĭįáĭĵáĪį
ĠáĭĿáīķ áįħáĪį
ĠáīµáĪĽ áĪįáĬķ
ĠáĪĺáĪ°áĪ¨ áī±
ĠáĭĿáĮį áīłáĬ¦áĪĿ
ĠáĬ£áī² áĬ¹áĪĿ
áĭįáĪµ áĬ½
áĬ¨áĭŃ áĭµáĬķ
ĠáĬŃáĬ½ áĭįáĬķ
ĠáĭĴ áĪĭ
Ġáī°áĪ°áĪĿ áĭĵáĬĴ
Ġáī°áĭĭáĪĤáī¡ áĬĵ
ĠáĪĺáī¥áĭĽáĪķ áī±
ĠáĪĿáīģ áĪ«áĮ½
ĠáĭĦáĬķáĬ« áĪµ
ĠáĮ¸áĬķ áĪĳ
áĪµáī°áĭįáĭķ áĪİ
ĠáĬ£áĬħ áĭĭ
ĠáĮīáĪį áīłáīµ
ĠáĮ¨áĬĵ áįįáĪŃ
ĠáĭĿáĪŃáĭĿ áĪ«áīµ
ĠáĪļáĭĽ áĬĵáĭĬ
ĠáįĪáĭ°áĪ« áĪĭáĭĬ
ĠáĬĵáĭĿ áĪ¬áīµ
áĬŃáīµáĪ®áĬĴ áĬ«áĭĬ
ĠáĭĵáĪŃáĬŃ áĬ»
ĠáĬķáĪµáĭ° áī°áĬĽáī³áīµ
Ġáĭķáĭ± áĪĽáīµ
ĠComment s
g e
á Ģ
áī¥ áĪ®áĪĿ
áĭŃ áĬ£áĬŃáĪį
áĪį áĬ¡
ĠáĭĿ áĮĪáĪŃáĪĺáĬĴ
ĠáĬķ áĬ«áĪįáĬ£áĭŃ
áĬĲ áĪ°áīµ
ĠáĪĺ áĭįáĭĵáĪĬ
ĠáĬ£áī¥ áīĤáĭĳ
áĪ¨ áī³áīµ
áįį áĮ¹áĪĿ
áĪĵ áī°
ĠáĭŃ áĬĵ
ĠáĭŃ áĪµáĭķáī¥
ĠáĪ° áīµ
ĠáĪµ áī¶áĬŃ
ĠáĭĪ áĮĬ
ĠáĪĿáĪµ áĪĪ
Ġáĭ¨ áĮ¸áĮį
áĪ± áĪŃ
ĠáĬŃáīµ áĮ¥áīĢáĪĺáĪī
áįĭ áĪĬ
Ġáī£ áĪ¨
áĭľ áĬķ
áĬª áĪµ
Ġáį¡ -
áĪĲ áĪī
Ġáĭľ áĬĵáĬķ
áĪŃáĬ¥ áĭ¨áĬ©áĪĿ
ĠáĪĿáĬķ áĮĭáĪŃ
ĠáĭĿáĪĺ áĮ½áĬł
ĠáĪµáĪĿ áĭķáĭİ
ĠáĬķáĪĵ áĮ¢áĬ£áīµ
ĠáĭŃáĬ¹áĬķ áĪĿáīłáĪŃ
ĠáĬķáĪ³ áĬķ
ĠáĬ¥áĭļáĬ£ áĪµ
ĠáĬ£áĬ¥ áĭĽáĬķ
ĠáĬ½áīµ áīħ
áĪŃáĭµ áĬ¦áĪĿ
ĠáĬķáĪħ áī¥
ĠáĬ¨áī£áī¢ áĬ¡
Ġáī¥áĪį áĪĵáīµ
Ġáī¥áĪį áĭķáĪĬ
ĠáĪĿáĮį áĬķ
ĠáĭĪáĪ¨ áīĢáīµ
áĮ¥áĪĿ áīķ
áĬ¥áĭļ áĬ£áī¶áĪĿ
ĠáĪ¥ áĭµáĪ«
ĠáĬŃáīķ áĭŃáĪŃ
Ġáīį áĪŃáī£áĬķ
ĠáĪĿáĪµáĮ¢ áĪ«áīµ
ĠáĮįáĭĿ áĬ£áī°
ĠáĭŃáįĪáĪįáĮ¥ áĭİ
ĠáĬ£áĬ¥áĭ³ áĭĪáĭŃ
áĮįáĪį áĮĭáĪį
ĠáĬķáĪĿáĪķ áĪĭáĭį
ĠáĮįáĭ³ áĪĽáĭĬ
áĬĲáĮį áĪ®
ĠáįķáĪ¬ áĭĿ
ĠáĭŃáīħ áĪ¨
áĪĺáĪĭ áĬº
ĠáĭĿáī°áĮłáīķ áĪ±
Ġáī°áĬ£áĬª áī¡
ĠáĪ²áīª áĪĭáĭĬ
Ġáī°áĪ«áĬº áī¥áĬĵ
ĠáįĨ áĪ³
ĠáĭĿáĪĺáĮ»áĬ¥ áĬ©
ĠáĬ£áĭµáĪĽ áĭĴ
áĭįáĭĲ áĭŃáī²
ĠáĬ¥áī°áĮłáīķ áĪ°
ĠáĮĲáĪ¨ áī£áī¥
ĠáĬ¢áī¥áĪ«áĪĤ áĪĿ
ĠáĪĺáĮĭáī£áĬ¥ áĭ«
Ġáī¥ áĮĪáĪĿáĮĭáĪĿ
ĠáĬŃ áįĪáĪŃ
ĠáĬŃ áĪ¨áĮĭáĮĪáĮ½
áĬ£ áĪ°áĪŃ
áĭµ áĬĳ
ĠáĬ¨ áĭµáĪįáĭ¨áĬĵ
ĠáĬĲ áī¡áĬ«áĭµáĬĲáĮ»áĪŃ
áĪ° áĪĪáĪµáī°
áĮ½ áĪĵ
ĠáĮį áĪĬ
áĭ¨ áĭŃáĬķ
áĪĥ áĪ®áĬķ
ĠáĭĺáĭŃ áĮĪáīłáĪ¨
Ġáĭį áĮ»áĬ¥
ĠáĬŃáīµ áĪĵáĪµáī¥
ĠáĬŃáĬķ áĪķáĮįáĭĺáĬ«
ĠáĮ¸ áĪŃ
áīłáĪ¨ áīµ
áĪĭáīµ áĭ«
ĠáĪĪ áĪĿáĬķ
áįħ áĪĿ
áĪĵáįį áĪŃ
ĠáĪĺáĮ½ áĬł
ĠáĬķáĪķ áī¥áĪŃ
áĭ°áĬķ áĮİ
Ġáĭ² áĭĽ
Ġáī¥áįį áīĵ
ĠáĬŃáĬĲ áĮįáĪŃ
Ġáī°áĭĭ áĪķáĭ¶
áĪİáĬķ áīĦ
ĠáĪ» áĭįáĭĲáĭŃáī²
ĠáĬ¥áĬķáīµ áĪŃáįİ
ĠáĮ¸áĮĭ áĭŃ
ĠáĬ£áī° áĬ¹
Ġáī°áĬĲ áĮº
áīłáĭĿ áĪĲ
áīłáĮ½áĪķ áĬķ
Ġáī³áĪķ áīµáĬķ
ĠáĭĿáī°áĪ¨ áįĭ
ĠáĪ°áĪĽáĭķ áī²
ĠáĪĨáĪµáįĴ áī³
ĠáĮ¸áĪĭáĬ¥ áī°áĭŃ
ĠáĭĿáĪĥáīł áĬĴ
ĠáĪ¬áĪ³ áī³áīµ
ĠáĬ«áĪķ áĪ³áĭŃ
ĠáĬĲáĬĵ áī±
ĠáĭĺáĭµáĪį áĭ©
ĠáĪµáĪķ áī°áīµ
ĠáĭĿáīĲáĪŃ áī¡
ĠáĬĲáĭĬ áĪķáĬķ
ĠáĪĿáĪĴ áĪŃ
ĠáĬ£áĭŃáīµáĮ¨ áĬĲáīĳ
âĪ ¶
ĠáĪķáįħ áĪ¨áīµ
ĠáĪĺáĪįáĬ¨áįį áī²
u d
ĠáĬ£ áĭĲ
áī° áĪµ
áĬĲ áĭŃáī³
Ġáī¥ áĪĮáĬķ
ĠáĬ¨ áī¥áī²
áĪ¨ áĪįáĬ«
áĮĪ áĭĽáĬ¥
áĭķ áĪĿ
áĪ³ áĬª
áĮ½ áĬ¢áīµ
ĠáĬ£áĭŃ áĪĢ
áĬŃ áĪĿáĭİ
ĠáĭĺáĭŃ áĮłáīħáĪĿ
ĠáĬŃáīµ áĪķáĭĿ
ĠáīĢ áīµ
ĠáīĢ áĮ¥áī³
ĠáīĢ áĪĪáī¥
áĭ¶ áĬ«áĭŃ
ĠáĬł áī³
áĮ£ áĪį
Ġáī¥áĪĿ áĪĵáĭĿ
Ġáī¥áĭĽ áīµ
áĪµáī° áĭį
ĠáĪĿáĬ½ áįĭáīµ
áĭĽáĪ¨ áīłáĬķ
ĠáĬ£áī¦ áĬ»áĬķ
ĠáīµáĪĿáĪħáĪŃ áī°áĭŃ
ĠáĮİ áīłáĭĿ
áī¥áĪ¨ áĬ©áĪĿ
ĠáĬķáĭĿ áĬĲáīłáĪ©
ĠáĪĺáĬķáįĪ áĪ°áĭŃ
ĠáĪĤ áĬķ
ĠáīĲ áĭ°áĪĿ
ĠáĮĭ áĪħ
ĠáĪĿáĮį áĬĵáĬķ
áĪĢ áīµ
ĠáĬ¥áĬĵáī° áī£áĪħáĪĪ
ĠáĭĿáī°áįĪ áĮłáĪŃáĬĵ
ĠáĪ¥ áĪĭáĪ´
ĠáĭŃáĮį áīłáĪ¨áĪī
ĠáĪĺáĪ°áĪ¨ áī³áīµ
ĠáĭĺáĬķ áīłáī¥
ĠáĭĿáĬķ áĮĪáĪŃ
ĠáĭĿáįĪáĪįáĮ¦ áĪĿ
áī°áĬ£ áĪĽáĪĺáĬķ
ĠáĪ¨áĬł áĬ¹
ĠáĬ¨áĭį áĮ½áĬ¥
ĠáĬ£áĬķáī¢ áīł
áīĭáĪŃ áĮ¾
ĠáĬķáīłáĭŃ áĬĲáĭŃ
Ġáī°áĮ£ áīł
ĠáĬŃáĮĪáī¥áĪ¨ áĪįáĬ«
áĭĺáįį áĮ¥áĪ¨áīµ
ĠáĪķáĮ¹ áĭ«áīµ
I D
áī¥ áĬĵáĬķ
ĠáĬ¥ áĪĺáĮ½áĬ¥
áĬĲ áĪª
Ġáī¥ áĮ¥áĪĿ
ĠáĬŃ áĮĪáĪį
áĬ£ áĪįáĬ«
ĠáĪĿ áī¥áĪŃ
Ġáĭĺ áĪµáĬ«áĪķáĬŃáĪķ
ĠáĬ¢ áĪĺáĭŃáĪį
ĠáĭĪ áĭ¨
ĠáĭĪ áĬ¢
Ġáĭĵ áĬķáĭ°
ĠáĪķ áĭµáĪķ
ĠáĪķ áĪ¹áĬ½
Ġáīł áĪ°áĪĭ
ĠáĮĪ áĪĺáĪį
áĪĥ áĪ¨
Ġáĭ¨ áĪĺáĪµáĮįáĬķ
áĮ» áĮº
ĠáĭĺáĭŃ áįįáĪĪáĮ¥
áīµáĬķ áĬŃ
Ġáĭļ áįĪáĪŃ
ĠáĮ½ áĮįáĭķ
áĮ£ áįį
ĠáĬ¤ áĭ¶áĪĿ
ĠáĮī áĮħ
Ġáī¥áĭĽáĭķáī£ áĭļ
ĠáĬ¥áĭ« áī¶áĪĿ
ĠáĬķáĬ£ áĬ¥áĪĿáĪ®
ĠáĬ£áī¦ áĬ¡áĬķ
áĮĲ áĭµáĬ£
áĮ¾ áĪĻ
Ġáī¥áĬ£ áĪĽáĬ¢áīµ
áĪĥáĬķ áĪµáĬķ
áĪ°áĬķ áīłáīµ
ĠáĪĵáĭŃ áĪį
ĠáĪĵáĭŃ áĪĪáĭŃ
áĪĥáī¥ áĬ©áĪĿ
ĠáĬķáī¥ áĭĻ
ĠáĪĿáįį áīĥáĪŃ
ĠáĪĺáĮº áĬ¤
áī³áĪķ áĭĺ
ĠáĮĪáĮ½ áĬĵ
áĪįáĭį áĮ¥
ĠáĭĪáĭ° áĭ¨
ĠáĪĵáĭµáĬĲáīµ áĬĵ
Ġ199 7
ĠáĬ£áĪ¨áĮĭ áĮįáĮ½
ĠáĭĵáĪļ áīķ
ĠáĬ¥áĪĿáĬķ áī¶
áĪĽáĬ¥ áĪ°áĪŃáī²
ĠáĭĺáĬ«áĭ¨ áĭ¶
áīłáĮĥ áĬ»
ĠáĭķáĪĿáī£ áī£
ĠáįķáĪ¬áĭļ áĭ³áĬķáīµ
ĠáĬ¦áĪİáĪĿ áįĴáĬŃ
áĬķ áĬ£áĪĿáĪĭáĬ½
áĪŃ áĬŃáī¥
áī³ áī¶
ĠáĬŃ áīĥ
ĠáĪĿ áīį
ĠáĬ¨ áĭķ
ĠáĬ£áī¥ áĪŃ
Ġáĭĺ áĬ¥áī°
ĠáĬĲ áĭ³
ĠáĬĲ áī¦áĭŃ
áĭļ áīµ
Ġáĭµ áĬł
ĠáĬ« áĪĭ
ĠáĭĪ áĪ°áĭµáĭİ
Ġáīµ áĬ©
Ġ" "
áĪĥ áĬĴ
ĠáĪĥ áĪİ
áĭ± áĬĵ
Ġáĭļ áįĪáī±
ĠáĬŃáīµ áĬĲáī¥áĪ©
áįĭ áī³áīµ
ĠáĬª áĭĽáĪ¨áī¥
áĭľ áĮł
ĠáĬ¨áĭŃ áĮ¸
ĠáĬ¥áī° áĪĺáĪŃ
ĠáĬŃáĪį áĭį
áĪĵáįį áĪŃáĬķ
ĠáĪĿáĬ¥ áĬķáī³áĭŃ
ĠáīµáĪĿáĪħáĪŃ áīµ
áĪĽáīµ áĬ¥
ĠáĪ¸ áĪĿ
ĠáĬķáĪĺ áĭĵáĪį
ĠáĬ£áĪĿ áĮ½áĬ¥áĭİ
ĠáīłáĪį áĬ©áĭİ
Ġáī¥áĮį áĪħáĭ¶
Ġáī°áĭĵ áĭĽ
Ġáĭ°áĭį áĪį
Ġáī¥áĪķ áĮ½áĪŃ
ĠáĬķáĬ£áĪĿáĪĭáĬ½ áĬķ
ĠáĭĿáĭį áĪ°áĬķ
ĠáĭĿáĮ¸ áĪįáĬ¥
ĠáĬ¥áĭĭ áĬ¥
ĠáĬ£áī° áĭĵáī£áī¥
ĠáĭĿáīķ áĪĺáĮ¡
ĠA r
ĠáĬķáĭĺáĪĪ áĭİáĪĿ
áĪĿáĪħ áĪ©
ĠE R
áĮłáĪ« áĮ¥áĪŃáĬķ
Ġáĭ¨áī¥ áĪĪáĬķáĬķ
ĠáĬ£áĮĪáĪįáĮįáĪİ áī±
ĠáĬ£áĮĭáĮ¢áĪĻ áĬ«
áįįáĪķ áįĭáĪķ
ĠáĬķáīłáĭŃ áĬĸáĪĿ
áĭµáĮį áįį
ĠáĪĺáĮ¥ áīĵáĭķáī²
Ġáī°áĪ«áĬº áī¦áĪĿ
ĠáĭĿáĮłáįį áĬł
ĠáĭļáĪµ áĭ°áĭ±
ĠáĪĭáĭķ áĪĭáĭŃ
ĠáĬ£áĪĺáĬķ áĭĿáĪ«
ĠáĬ£áįķ áĪĬ
ĠáĪĿáīµáĭķáĪŃ áĪ«áĭŃ
Ġáī°áĮįáĪ³ áĮ½
ĠáĪµáĪĪáĪĿ áī³áĭŃ
ĠáĪĺáĭ³áĪŃ áĮįáī²
Ġ {
Ġáī¥ áī£áĭķ
ĠáĬŃ áĬ«
áĬ£ áĪĬ
áĮĪ áĪĿáĬķ
Ġáĭĺ áĬ«áĭ¨áĭµ
ĠáĬĵ áįĬ
ĠáĪĵ áĮ¸áĪŃáī²
áĪ° áĬķáĬķ
ĠáĪµ áĮķáĪĿ
Ġáĭµ áīĤ
áĮ½ áĭĭáĭķ
ĠáĬ« áĭŃ
ĠáĬ£áĭŃ áĪģáĭµáĬķ
ĠáĮĪ áĭ«
ĠáĬ¥áĬķáī° áĬ½
ĠáĬ¥áĬķáī° áĬ®áĬĲ
ĠáĪĥ áĭ²áĪĻ
Ġáīħ áįįáĪŃáĬĵ
ĠáĮ¸ áĮįáĭĴ
ĠáĬķáĪĿ áĪĵáĭĿ
ĠáĬ¥áĬĵ áĪĺ
ĠáĪĪ áĭĭáĪħ
ĠáĬ¨áĪĿáĭĿ áĪĺ
ĠáĪĺáĮ½ áĪĶ
áĪĤ áĭ±
áī¤ áīµáĬķ
áīĭ áĪ¨áĮ½
ĠáĮİ áĭŃáīµ
ĠáĬķáĭĿ áĪŃáĬ¨áī¡
Ġáīģ áĪŃáĪ²
Ġ5 9
ĠáĭĿáĭĪ áĪĥáī¦
áĪĸ áĪĿáĬķ
Ġáī¥áĬ¥ áĮįáĭļáĬłáī¥áĪĶáĪŃ
ĠáĬ¥áĪĿáĬĲáīµ áĬ«
Ġáī°áĭĭ áĪĴ
áĪ¨áĭµ áĬ£áĬĵ
ĠáĬ¥áĬķáīµ áĬ¾áĬķ
Ġáī¥áĭį áĪ½áĮ¢
ĠáĪ½áĭĪ áĭ°
ĠáĪĺáĮĭ áīłáĪŃáĭ«
áįĪáĪµ áĪµ
ĠáĪĺáī¥áĭĽáĪķ áī¶áĪĿ
ĠáĮİáĪ¨ áī¤áīµ
Ġáī°áĭĽáĪª áī£
ĠáĪĿáī£ áĪįáĬķ
ĠáĬĲáĬķáĪķáĭµáĪķ áĭµáĬĵ
áī°áī£áī¥ áĭķ
oo k
áī°áī£áĭķ áīµáĭ®áĬķ
ĠDe hai
ĠáĬ£áĭĺáĭĿ áī²
ĠáĪĥáĪįáĪĥáĪį áī³
7 0
l a
áī¥ áĪ«áīµ
ĠáĬ¥ áĬĲáī¥áĪŃ
ĠáĭĿ áī¥áĪĪáĬĴ
ĠáĬķ áĭŃ
áĪķ áĮ¸
áĭ° áĪ±
Ġáĭĺ áĪ»
Ġáī° áĮĪáĪĿ
Ġáī° áĮ½áĭķáĬĸ
áīķ áĪī
áī¢ áĪ®áĪĿ
áĭįáĬķ áīµ
Ġáĭ¨ áĮĪáĪįáĮįáĪī
áĮ¸ áĬ«
ĠáĭĺáĭŃ áĭķ
ĠáĪĥ áĪĮ
áīĢ áĪ±
ĠáĪ°áī¥ áĬł
áī¥áĪŃ áī³áīµ
áįĪáĪį áĬ«
ĠáĬ¥áĪĿ áĬĲáī°áĭŃ
áĪµáī² áĬŃ
áĭĴ áĬķáī²
ĠáĬ©áĪī áĬĵ
ĠáĬ¥áĬĵ áĮĪáīłáĪ¨
Ġáī¥áĪĵ áĪ³
ĠáĪŀ áĭ«áī³áīµ
áĪ¸ áī£áī¥
ĠáĭĿáĪĵ áīĸ
Ġáī°áĪĺ áĪĭáĪĪ
ĠáĬº áī¥áĪİáĪĿ
Ġáī°áĭĪ áĬª
ĠáĪĺáĭ° áī¥áĬĵ
ĠáĪĿáĪĿ áĪįáĬ«áīµ
áĮĪáĭµ áĭµ
ĠáĭĺáĭŃáī° áĭĪ
Ġáĭ°áĮĪ áī³áīµ
ðŁ Ļ
ĠáĭŃáĪĿ áĪĪáĪ±
ĠáĭŃáĮ½ áĭįáĭķ
áīłáĪĭ áĭķ
ar y
ĠáĪĵáī° áī±
áĬ¸áĭŃ áĭµáĬķ
Ġáī¥áĪĿáĪµ áĪĽáĭķ
ĠáĬŃáĭĿ áĬŃáĪŃ
ĠáīłáĪĬ áĭĳ
ĠáĭĿáĪ¨ áĪĵáīĲ
ĠáĪº áĬķ
Ġáī¥áĪĿáĭį áĪ³áĭµ
Ġáī¥áĮī áĭ³áĭŃ
ĠáĪĵáī¥ áī°áĭŃ
ĠáĬ£áĭŃáĬ£ áĪĺáĬķ
ĠáĪµáĪļ áĭĴ
ĠáĬ¥áĭµ áĪªáĪµ
Ġáī¥áĪįáĮ½ áī²
ĠáĬŃáĬķáĭ° áĭ¨áĬĵáĭŃ
ĠáĭĿáĪŃáĬ¨ áīłáĪī
ĠáĬķáĪĿáĪħáĬĵ áĮ½
i r
n g
áį «
áĬķ áĭĿ
ĠáĮ °
áīł áī¶áĪĿ
áĬĲ áĭ®
ĠáĬ¨ áīłáĪŃ
ĠáĬ¨ áīķáĪŃáī¡
áĪ¨ áĬª
áī£ áĮ¥
áĪ« áĮį
áĪ« áĪļ
áĮį áĪ±
Ġáĭĺ áĪĭáīµáĬĵ
ĠáĬĲ áīķ
Ġáī° áĪ¨áĬ½áī¦
ĠáĭŃ áįĪáĪŃ
áĪ° áĬĵáĪį
ĠáĬ¢ áĪĿ
áĮ½ áĪĭ
ĠáĬ£áĭŃ áĪ¸
ĠáĬ£áĭŃ áĮįáĭ°
Ġáīł áĭĺáĬķ
Ġáĭ° áīĨáĪĿáĬķ
ĠáĪħ áīłáĭŃ
Ġáĭį áĪ¸áī£
ĠáĭĿáī° áīµ
ĠáĭĿáī° áī°
ĠáĬŃáīµ áĮ½áīł
áĭī áĪŀ
ĠáĬª áĮłáįįáĬ¡
ĠáĬł áĪµ
ĠáĬ¥áī° áĬĲ
ĠáĬ¥áĬĵ áĪ¨áĬ£
Ġáī¥áĪĵ áįĪáĪ½áĬ¡
áĬ£áĭŃ áįĭ
Ġáĭĭ áĪŃ
ĠáĬķáĬ£ áĪŃáī£áĭķáī°
áĭ°áĪį áĭ®áĪĿ
ĠáĬ£áĪĺ áĮĭáĮįáī£
ĠáĪ¸ áĭī
ĠáīĨ áįĢ
ĠáīĨ áĪ®áĬķ
áįĢ áĪ©
ĠáĬ£áĪŃ áĪķ
ĠáĬĲáįį áĪµáĬķ
ĠáĪĿáįį áĪĭáĭŃ
ĠáīµáĮį áĪ¨
áĭ°áĪĿ áĪĿ
Ġáĭķáĭ® áĬ¡
ĠáĭĿáīłáĭĿ áĪĵ
Ġáī°áĬĲ áī¢áĪ©
ĠáĪĺáĪ°áĪ¨ áī°
áĪĿáĪħ áĪ®áĪĿ
ĠáĭŃáĮ½ áĪĬ
ĠáīłáĮº áĪĲ
ĠáĮħ áĪĽ
ĠáīĢáĮº áĪĪ
ĠáįĪáĪª áĪ±
Ġáī°áĪĪ áīªáĭ¥áĬķ
ĠáĬ£áīµáĪĴ áĭĽ
ĠáĭĿáīłáĪį áĬ©áĬ»
ĠáĭĺáĪŃ áĬ¡
Ġáī°áĮłáīĴ áĪŀáĪĿ
Ġáī¥áī¥áĪŃ áĪĥáĬķ
ĠáĭµáĪĻ áīķ
ĠáĪĺáīħ áĭ°áĪµ
ĠáĭĺáĬ¥ áī°áĭĪ
Ġáī¥áĬĥ áĮ¢áĬ£áīµ
Ġáī°áĭĪáįĭáĭŃ áĬĲáīµ
ĠáĬ£áĪĿáĪĭáĬ¸ áĭŃáĬķ
ĠáĭĭáĪ½áĬķáĮį áī°áĬķ
ĠáĬ£áĭķáĬĵ áĭĬ
Ġáī¥áī³áĪķ áĮĵáĪµ
áĪŃ áĬ¡
ĠáĮ ©
áĬ£ áįį
áĭµ áĬ£áīµ
áĪĭ áī¡
áĭ° áīħ
Ġáĭĺ áįĪ
ĠáĪĵ áĪĺ
áĪĵ áĬ¤
áĭ³ áī¥
áĭ³ áĬ¡
Ġáĭĵ áĪĪáĪĽ
áĪħ áĪµ
Ġáĭ° áĪĽ
áĪ® áī¢
Ġáĭļ áĪĺáĪŃ
áīłáĪŃ áĬ«
ĠáĬŃáīµ áīķ
ĠáĬŃáīµ áĮĪáī¥áĪª
ĠáĬ¥áĬķáī³áĭŃ áĬĲáīµ
ĠáĪ½ áī¶
áĪ¸ áĬĴ
ĠáĪ³ áĬķáĭ±
áĬ£áĭŃ áīª
ĠáĬµ áĪįáĬĵ
ĠáĮł áīĲ
ĠáĪµáĪ«áĪķ áĬ©áĪĿ
áĬ° áĪµ
ĠáīµáĪĿáĪħáĪŃ áī°
ĠáĬ£áĭ¨ áĬĲáĭŃáī²
ĠáĪĺáĪŃ áĭµáĬ¥
ĠáĭĿáĬ£ áĬ½áĪī
ĠáĬ£áĪĪáĭī áĭİ
ĠáĪķáĪĽ áĪĿáĬķ
Ġ8 00
ĠáĭĪáĪĪ áĭµáĬķ
ĠáĬ£áĪĿ áĪĬ
Ġáĭĵáī¥ áĭ°áĪĭ
ĠáĬ¨áī£áī¢ áĬ£áĬķ
Ġáī°áĭĵ áĭĺáī¥
ĠáĪµáĮĭ áĬ¡
ĠáĮ¥áĭķáĬĵ áĬ»
Ġáĭĺáī° áī£áī¥
ĠáĪ© áĪµáĭ«áĬķ
ĠáĮ½áĬķ áī¥áĪį
ĠáĬ£áĭĺ áĬ»áĬº
áĭĵáī¥ áĭ©
ĠáįįáĪįáĪµ áĮ¤
áįĪáī° áĬĲ
ĠáĭĺáĭŃáĪķ áĮĭ
ĠáĪĵáĪĿ áĪ»áĭŃ
ĠáĪĽáĪį áīµ
ĠáĭĿáī°áī£áĪħ áĪĪáīµ
ĠáĪĭáĭķ áĪįáĬķ
áĭįáĪİ áĪµáĬķ
ĠáįĪáĭŃ áĪµáī¡áĬŃ
ĠáĪĦáĪ® áĭµáĪµ
ĠáīĢáĮ»áĪį áĬĲáīµ
ĠáĭĺáĪ¨áī¥ áĬ¡
ĠáĪĺáĭĺáĬ¨áĪŃ áī³
ĠáįįáĬĸ áī°
" ?
a id
ĠáĬ£ áīļ
ĠáĭĿ áĬ£áīµáĭī
ĠáĬķ áĭī
ĠáĬŃ áī¥áĪİáĪĿ
ĠáĬ¨ áīłáĪ®
áĭį áĪĽ
áĭį áĮħ
áĪĽ áĪ«
Ġáī ļ
ĠáĬĲ áĭī
ĠáĪĵ áĪį
áĭĿ áĭİáĪĿ
ĠáĭŃ áĬ¾áĬķ
áĭ« áĭį
áĭĵ áī¶
áĮ½ áĭĭ
áĭĪ áĪ©
ĠáĬ£áĭŃ áĭ°áĪįáĭ©áĬķ
áĬŃ áĪİ
ĠáĭĪ áįĥáĬ¥
áĪħ áĮį
áĭ¨ áĪĭ
áĪ± áĬĵáīµ
áī¦ áī³áīµ
ĠáĬ¥áĬķáī° áĪ¨áĬº
ĠáĬ© áĬķáī³áĪį
Ġáĭľ áĪ®
ĠáĪĺáĪ° áĪĪ
ĠáĬ¥áĮįáĭļáĬ£áī¥ áĪĦ
ĠáĬķáĪĵ áĭį
áīłáĪĪ áī¶
ĠáĭĿáĭĪ áĭ°áīĲ
ĠáĬ£áĪĺ áīµ
Ġáī£áĭķ áĪĭáīµáĬ©áĪĿ
ĠáįįáĪŃ áĭµáĬķ
ĠáĪ°áĪĪ áĭļ
ĠáĬ¬ áĮĭáĮ¥
ĠáĭĺáĪĪáĭī áĬķ
ĠáĬ£áĪĿ áĮ½áĬ¥
ĠáĬ£áĮĭ áĮł
ĠáĬķáī¥ áĬ¡
ĠáĬķáĬĲ áĮĪáĪ«áīµ
ĠáĮĭ áĬĵ
ĠáĬŃáĪĿ áĪĪ
ĠáĪĺáĪĬ áĬ£
ĠáĬ£áĬ½ áĪ±áĪĿ
áĬ¬ áĪį
ĠáĪŃáĬ¥áĭŃáī¶ áĬķ
ĠáĭĿáĪ¨áĬ¸ áī¡
ĠáĬķáĮ¥áįĪ áī³áīµáĬķ
ĠáĬķáĪĵáĭµáĪķ áĭ±
Ġáĭ´ áĬķ
ĠáĪŃáĪķ áīĲáīµ
ĠáĭĿáĭĪáĪµ áĭ¶
Ġáĭ®áĪĥ áĬĵ
Ġáī¥áĪĿáīķ áĪ«áī¥
ĠáīµáĪ½ áĭĵáī°áĬķ
ĠáĭĺáĭŃáĬ¨áĬ£ áĪī
ĠáĬĴáĭį áĭ®áĪŃáĬŃ
ĠáĮłáĬķ áīģ
áįĥáįħ áĪ«
ĠáĭĵáĮ½ áĪļ
Ġáī¥áĪ¸ áĬĲáĬ½
ĠáĭĪáįĤ áĬ¡
ĠáĭįáĮº áĬ¢áīµ
ĠáĪĺáĪµáĭĭáĬ¥ áīµáĬķ
ĠáĭŃáĬ¨áĬ£ áĪİ
ĠáĬ£áĮłáĪĽáĪĿ áī³
ĠáĬ£áĭŃáĪŀáī° áīµáĬķ
áī¥ áĮĪáĪµ
ĠáĬ£ áĪĺáĪµáĮįáĬĲáĬ«
áĪį áĬ£
ĠáĮ ´áĮ¥áĪ®áĪµáĬķ
ĠáĬŃ áĮ½áĬķ
ĠáĪĿ áĪ«
áĪĽ áī³
Ġáĭĺ áĪ¸
Ġáĭĺ áĪŃáĮį
ĠáĬĲ áĬ£áĪ½áī±
ĠáĪĵ áī¦
ĠáĭŃ áĭµáĪŃ
Ġáĭµ áĮįáĪµ
ĠáĬ« áĪĮ
áĭ³ áĪĿáĬķ
ĠáĬ¥áĬķ áīłáĬ£áĪŃ
áĬŃ áĬĵ
Ġáīµ áīłáĪį
áĬ¨ áĬł
áĬ¹ áĪµ
áĪĥ áĪªáīµ
áĪĥ áĪĪáĭĪ
áĪ½ áĪŃ
Ġáįį áĬĵáĬķ
Ġáįį áįĥ
ĠáĭĿáī° áĬĲáĮįáĪ¨
ĠáĭĿáī° áī°áĪĵáĪĵáĭĺ
áī¥áĪį áĬ«
ĠáĬŃáīµ áīµáĪį
Ġáĭķ áĮ£áĬķ
Ġáī¥áĭĻ áĪĥáĬķ
ĠáĬ¥áĬĵ áĭĵ
ĠáĬ£áĭŃáīµ áĪŃ
ĠáĬ£áĬķ áĭµ
Ġáī³ áĭ°áĪ°
ĠáĭĿáĭĪ áĪĵáĭ°
ĠáĬ¦ áĬķ
ĠáĬ£áĪį áĮĢ
Ġáĭĵáī¥ áĭ¨
ĠáĬķáĮĪ áĪ©áĬĴ
ĠáĬķáĭ° áīħáĬ»
ĠáĭĪáĪ² áĭ³
ĠáĪĪáĭį áĮ¥áĬķ
ĠáĪĺáĪĪ áĬ®áīµ
Ġáīķ áīµáĪĪáīµ
ĠáĪĵáĭ« áĪįáĬķ
ĠáĬ£áĭķ áĬĳáĭµ
ĠáĪ® áĪĿ
áĮĴ áĪĻ
ĠáĬ£áĪµáī° áĭį
Ġáī¥áī¥ áĭĻáĪĵáīµ
ĠáĪĺáĬĵ áī¥áĪŃ
ĠáĭĺáĪĿ áĮ½áĬ¥
ĠáĭĺáĬķ áĮ¸áī£áĪŃáīķ
áĮĪáĭ³ áĪµáĬĲáīµ
ĠáĬŃáĪĺáĪŃ áĮ½
ĠáĪ½áĪĿ áĭĵ
Ġáī¥áĭĿáīłáĪĪ áįĢ
ĠáĬĥáĮ¢ áĬł
ĠáĭįáĮ¹ áĭķ
ĠáĬķáĮĵ áĪį
ĠáįįáĬķ áįīáĬķ
ĠáĪĿáĭįáĭ³ áīķ
Ġáī°áįĪáĮ¢ áĪ®áĪĿ
Ġáĭ¨áĪ«áĬ½ áīłáĬĵ
p p
áīµ áīµ
ĠáĬ¥ áĪĪáĭŃ
ĠáĬķ áī¡
áĬĲ áīħ
Ġáī¥ áĪĶ
ĠáĪĺ áīĳ
ĠáĬ¨ áĪ³
áĪķ áĬ»
áĪĭ áĪµáĬķ
áĪĽ áĪĪáīµ
áĭ° áĪª
Ġáĭĺ áĪ¨áĮĭáĮį
Ġáī° áĭŃ
ĠáĬĵ áĪķáĪ²
áĭ« áĬ»
áĭ« áĭįáĭ«áĬķ
ĠáĭĪ áĬ»
Ġ" [
áī¢ áĪİáĪĿ
ĠáĬ¥áĬķáī° áĪĪáĬ¹
áĪ½ áĬĵ
Ġáĭķ áī±áī¥
áĬł áĪī
áĮ¢ áįĭáĬĸáĪµ
ĠáĬ¨áĭŃ áĭµ
Ġáĭľ áĬĵáĭĬ
áĮĢ áĪĿáĪŃ
ĠáĪĺáĪį áĪĵ
ĠáĬķáĪĵ áĭī
ĠáĪµáĪŃ áĪĲáĭŃ
áĬķáĭĺ áī¡
áĪĺáĪį áĪ±
áįĢ áĪī
ĠáįįáĪį áįįáĪį
Ġáī¥áĪµ áĪŃáĭĵáīµ
áĮ¥áīĢ áĪĺáĪĭ
Ġáī°áĮł áĬĵ
ĠáĬķáĭķ áĭĺáī¥
áīĿ áĪ©áī¥
ĠáĪĺáĪĭáĬ¥ áĬŃáī²
ĠáĮ½áĪķ áįĪ
ĠáĪĿáĭĥáĬķ áĬª
ĠáĭŃáĪĺ áĪĪáĪµ
ĠáĬĴ áīĨ
áĭĵáĭŃ áĬĲáī±
áĬ² áĬĵáīµ
ĠáĬ£áĪķáĭĭáīµ áĬĵáĬķ
ĠáĭŃáĭĿ áĪ¨áī¥
áĭĵáī¥ áī±
áĮįáĭµ áįį
ĠáĪ°áĪĽáĭķ áī³áīµ
ĠáĪµáĮį áĮįáĪŃ
ĠáĭµáĪĮ áīµáĬķ
Ġáĭ²áĪŀáĬŃáĪ«áĪ² áĭ«áĭĬ
ĠáĬķáīĵ áĪĪáĭŃ
áĪĿáĪŃáĭĵ áĭį
Ġáĭ°áīł áĪ³áĭŃ
ĠáĭīáĪī áĭµ
ĠáĪ³áĭķáĪµ áĭĴáīµ
" >
ĠáĬ£ áįĵ
ĠáĭĿ áĮ¥áīĢáĪĻ
ĠáĭĿ áīĥáĪĪáĪµ
Ġáī¥ áĮħ
ĠáĪĺ áĪĥáĬķ
áĪ¨ áĬŃáī°áĪŃ
áĭį áĭŃ
Ġáĭĺ áĪĺáĪį
Ġáĭĺ áĬŃáĪ©
ĠáĭŃ áĪµáĭķ
ĠáĭŃ áīĲáīµ
Ġáĭµ áĭ¨áĬķ
áĮ½ áī²
áĭ¨ áĪĽ
Ġáĭ¨ áĪĲáĮķ
áĪ² áĬķ
áĮł áīĥ
Ġáĭį áĭķáĪĬ
ĠáĭĿáī° áĬ»
áīĲ áĬ«
ĠáĮ¥ áĪ©
áĭĻ áĬĵ
ĠáĬª áĪŃáĬ¢
ĠáĮ½ áĪĽ
ĠáĬ¥áĬĵ áĬ¾áĬĲ
ĠáĬ¥áīµ áī¥áĪī
ĠáĬ¨áī° áĪĺáĪįáĬŃáīµ
ĠáĪĺáĪµ áīµáĭ«áīµ
ĠáĭĪáĭ² áĬ¡
ĠáĪĻ áī³áĬķ
ĠáĪĻ áĪĲáĭ³áĪ«
ĠáĪĺáĪŃ áĪļ
ĠáĬ¨áī°áĪĽ áī³áīµáĬķ
ĠáīĢáĭ³ áĪĽáĭŃáĬķ
ĠáĪĤ áī£
áĬĶ áĪį
Ġáī°áĪ° áĪİáĬķáīĦ
áĮĮ áī³
ĠáĪĺáĭĵ áĮ¹
ĠáĬ½áĬķ áĪ¨áĬŃáī¥
Ġáĭī áĭµ
ĠáĪµáĭ° áīµáĬķ
ĠáįĪáī° áĭįáīµ
ĠáĭĺáĪ¨áī£ áĬ¡
ĠáĭĿáīķ áĪĺáĮ¥
Ġáī¥áĭ° áīĤ
Ġáī¥áĪĿáĭĥ áĬĵ
ĠáĬķáĮī áĪ°
ĠáĭįáĪķ áĪµáĬĵ
ĠáĪĵáī° áī²
ĠáĭĪáĪ° áĬķáī²
ĠáĭĿáĬ£áī° áĭİ
ĠáīµáĬ¸ áįįáĪį
Ġáī£áĬķáĬŃ áī³áīµ
ĠáĬ«áĬķ áĪ°áĪŃ
Ġáīģáįħ áįħáĪŃ
ĠáīĽáĬķáīĭ áī³áīµ
ĠáĬ«áĪĿ áįĵ
ĠáĮ£áĭķ áĪļ
ĠáĬ£áĭŃáĮį áĭµáĬķ
Ġáī°áįĪáĪį áĭ©
ĠáĭīáĪĳ áĭ³áīµ
Ġáī¢áĭĿ áĬĲáĪµ
7 7
D F
q u
áį ³áį
áī¥ áĪĪáĭŃ
áī¥ áĪĥáĪī
áĪµ áĬĲ
ĠáĬŃ áī°áĬķ
ĠáĬŃ áĮ»áĭĪ
ĠáĬŃ áĮ¸áĬķáĪĳ
áĪĺ áĬĵáīµ
áįį áĪĭáĭŃ
Ġáĭĺ áĪµáĪĿ
Ġáĭĺ áĬķáīĢ
Ġáī° áĬŃ
ĠáĭŃ áĪĿáĪħáĪŃ
áĪĬ áĪĳ
áĬŃ áĪĻ
áĬŃ áĪ½áĬķ
áĪħ áī²
áĮ¥ áĪļ
Ġáīł áī°
ĠáĪĽ áĪ½
ĠáĭĿáī° áĪŃ
ĠáĭĿáī° áĮ¨
ĠáĬŃáīµ áĪ°áĪĿáĭĳ
ĠáĬŃáīµ áĪĺáĪŃáĮ½
Ġáĭķ áĭ°áĬĵ
Ġáī£ áĬĴ
áĭ«áīµ áĬĵ
ĠáĬ½ áĮĪáī¥áĪ®
ĠáĪħáĭĿáī¢ áĭįáĬķ
ĠáĬ¥áīµ áįĪáīµáĭİ
ĠáĬ£áĬķ áīĢ
áĪ¸ áĪī
áĭĢ áĬĸ
ĠáĮĪáĭĽ áĭį
ĠáĪĺáĪŃ áįįáĬ¥
ĠáĮĬ áĭ´
ĠáįįáĪŃ áĭ±
ĠáĪĵáĭŃ áĪİáĪĿ
ĠáĮĵ áĪĭ
ĠáĮĵ áĪįáĬ«
Ġáī°áĪĵ áĬķ
áĪķáĪį áĭĭ
Ġáī¢ áĪī
ĠáĭĺáĪĺ áĬĳ
Ġáī¥áĭĪ áĭ±
ĠáĬ£áĭķ áĮ½áĪĿ
ĠáĬ¨áĭŃáī° áĪ¨áįī
ĠáĪ°áĬķ áĪ°áĪĪáīµ
ĠáįĪáĮº áĪĽ
ĠáĭĿáĪķ áĪ°áī¥
ĠáĬŃáįī áĬ¥áĬķ
ĠáĪĴáĭĿ áĬ©áĪĿ
ĠáĬķáĪĿáĪķ áī³áīµ
Ġáī¥áĪĿáĬķ áī£
ĠáĬķáĪĿáĭį áĪ³áĭµ
Ġáī¥áĭĪáĮĪ áĬĸáĪĿ
Ġáī¥áĬĵ áī°áĭŃ
ĠáĪµáĭĬ áĭµáĬķ
ĠáĬŃáīµáīħ áĮ½áĪį
ĠáĪĿáīģ áĪŃ
Ġáī°áīłáĮĬ áĪ¶áĪĿ
ĠáĮ¸áĬķ áĪĲ
Ġáīłáĭ³ áĪĤ
ĠáĪĺáĮĪáĭµ áĬ»
ĠáĭĿáī°áĭį áĪĥáīł
ĠáĬ¥áīµáĮĪáī¥áĪŃ áĭİ
ĠáĪ¥áĪŃ áĭĵáī°
Ġáī°áĬ£áĪļ áĬĳ
Ġáī°áĬ¸áĪ² áī±
ĠáīħáįįáĪŃáĬĵ áĪĨáĪĿ
ĠáĪ¸áĭī áĭĵáī°
a k
ĠáĬ£ áĮ½áĬķ
ĠáĬ¥ áīķ
ĠáĬ¥ áĪįáĪĿ
áĪµ áĪĽáĭķ
áĪµ áī³áīµáĬķ
ĠáĭĿ áĪµáĭķ
ĠáĬķ áįĪáīµ
Ġáī¥ áĪķáīµ
áĬ¥ áĬĴ
ĠáĪĿ áīĿ
ĠáĪĿ áĪŁ
áĪ« áĭĿ
áįį áĭķ
Ġáĭĺ áĬķáī¥
ĠáĬĲ áīµ
áĬ« áĭ®áĬķ
ĠáĭŃ áĪĻáīµ
Ġáīµ áīµ
áĪ© áĪŃ
ĠáĪķ áĬķáĮ»
áĭ² áĪŀáĪµ
áī¦ áĪŀ
ĠáĪĺáĬķ áĬĲáī¶áĪĿ
ĠáĬŃáīµ áĪ¨áĬ½
ĠáĬŃáīµ áĮ¸áĬķáĪķ
Ġáĭķ áĮ¸
ĠáĬŃáĬķ áĭĪáĮ½áĬ¥
áĬł áĭ®
ĠáĪ½ áįįáī³
ĠáĪŀ áīµáĬĵ
ĠáĬ¨áĪĿáĭĿ áĮĪáī¥áĪ©
Ġáī³ áĬķ
Ġáīħáĭ± áĪ³
ĠáĪĿáĬķ áĮ»áĪį
áĭª áĪ©
ĠáĭĿáĭĪ áĭĵáĪĪ
ĠáĭĿáĮĪ áīłáĪ«
Ġáī°áī£ áĪª
áīµáĬ« áĪį
áĪįáĭĵ áĪĪáĪĿ
áīª áĭµáĭ®
ĠáĬ£áīł áĪİ
ĠáĬ£áĭķ áĪª
ĠáĮķ áĬķáĭ²
ĠáĬķáĭĪ áĭ°áĭŃ
ĠáĬ£áĭŃáĬ®áĬķ áĬ©áĪĿáĬķ
ĠáĬ¥áĬķáĪµáĪ³ áī³áīµáĬķ
ĠáĪµáĪĪáĭĺáĭŃ áĬ®áĬĲ
ĠáĬĲáī¢ áĭ«áīµáĬķ
Ġ0 3
ĠáĬ£áĮĭáĮ¢ áĪĿáĭİ
áĭĵáī¥ áĭª
ĠáĪķáĮį áī³áīµáĬķ
ĠáĭķáĪŃ áĭ²
ĠáĪĺáĬ« áĬĲ
ĠáįķáĪ¬ áĭĿáĭ°áĬķáīµ
ĠáĭļáĭĪ áĪĥáī¥
ĠáĭļáĪµáĪĿ áĭĵáĬĴ
ĠáĭŃáī£ áĪ¨áĬ½
áĪ¸áĭŃ áĮ¥
ĠáĪĺáĪĪáĪ± áĪī
ĠáĬ«áĪĬ áįİ
áĪĿ áĪī
ĠáĬ¥ áĮ½
ĠáĬ¥ áįĪáĪįáĮ¦áĪĿ
ĠáĭĿ áĮ½áĪķ
ĠáĭĿ áĪķáĭĿ
ĠáĭĿ áĪ¨áĬ½áī¡
ĠáĭĿ áĮ¥áīĢáĪĺáĪī
áĬĲ áīłáĪ«
Ġáī¥ áĪĪáĭį
ĠáĪĺ áĪ¨áĮĥ
ĠáĬ¨ áĬ¥áīµ
áĪĺ áīĳ
áĪĺ áĮ¦
áĪĽ áĪĽáīµ
Ġáĭĺ áĬł
ĠáĪĵ áĬª
ĠáĭŃ áĬ¥áī²
ĠáĭŃ áĪ¨áĬ£áĭ©
ĠáĭŃ áįįáīµáĬĳ
áĪ° áī£áīµáĬķ
ĠáĪ° áĪĵáīķ
áĭĪ áĭŃáĬķ
áĬŃ áĪĭ
Ġáīµ áĭĵ
Ġáīł áĪŃáī²
áĭ® áī¥
ĠáĬ¥áĬķáī° áĪĪáĭī
Ġáįį áĪªáĬ£
Ġáį ĭáĬķ
ĠáĬŃáīµ áĪħáĪī
ĠáĬŃáīµ áĭµáĪķáĬĳ
áĭĳ áĪį
áĭĳ áĬĵ
ĠáĬł áĪĭáĪħ
áĮİ áĭµ
ĠáĬ£áĭŃáīµ áįį
áĮ¡ áĪŃ
áīłáĪį áī²
ĠáĬ£áī¦ áī³áī±
ĠáĮİ áĭ³
ĠáĮİ áĬĲáĮ½
ĠáĪµáĪĪáĭĿ áĬĲáīłáĪ©
ĠáĪĿáĪķ áĬķ
ĠáįįáĪŃ áĪĵáīµ
Ġáī¥áĪµ áĬ¥
ĠáĬ¢áĬķ áĭ¶
ĠáĮŃ áĪķ
Ġáī°áĭĵ áĮ¢
áĬķáĪµ áĬº
Ġáī¥áīĲ áĪĬáĪį
ĠáĪĺáĪĬ áĪ³
ĠáĬķáĭĪ áĮ»áĬ¢
ĠáĮ¸áī¥ áĪĴ
ĠáĭĿáĮĪáīłáĪ¨ áīµ
ĠáĭĺáĪĿ áĪ©áĪī
áĬ¥áĭĿ áĭĿ
ĠáĬĵáī¥áĪ« áĬĵ
ĠáĭŃáĬ½ áįĪáĪį
ĠáĬ£áĪ¸ áĬķáĭ³
ĠáĮĢáĬĲ áĪ«
Ġáįįáīĳ áĪ«áīµ
Ġáī°áī°áĪĵ áĪĴ
ĠáĬ®áĪĿáįĴ áī°áĪŃ
ĠáĪµáįĸáĪŃ áī³áĭĬ
áĬŃáĪŃáĪµáīµáĭ« áĬĵáīµ
Ã¥ n
ĠáĬķáĪĿáĭķáī£ áĭŃ
ĠáĪĿáīħáĭŃ áĭ«áĪŃ
4 8
áī° áī¶áĪĿ
ĠáĬķ áĪĦ
ĠáĬŃ áīĥáĪĪáĪµ
ĠáĬŃ áĮĪáĭĿáĬ¥
áĬ£ áĬĲáĬķ
ĠáĪĿ áĮ¹
ĠáĬ¨ áĭ°áīµ
áī£ áĪµáĬķ
áĪĭ áĪĽáĭŃ
áĪĽ áĭĵ
Ġáĭĺ áĮłáīĵ
áĭ« áĬĵ
ĠáĬ£áĭŃ áĪĲ
áĬŃ áĬķáĬķ
ĠáĭĪ áĪİ
áĬ¨ áĪĻ
áĮĭ áĬĶ
Ġáĭļ áĭķ
ĠáīĢ áĮ¸
ĠáĪŃ áī¥
ĠáĬł áĪĺáĪµáĮįáĬĲáĬ«
ĠáĬł áīłáĪµáĪ¨áĬ©áĪĿ
ĠáįĪ áīĥ
ĠáĬĲáĭŃ áĪŃáĭĭ
áĬº áĭ±
áĪĲ áĪŃ
áĪ¬ áĭ³
ĠáĬ¸áĪĿ áĭĻáĭŃ
áĭ°áĪį áĭŃ
ĠáĬ£áĭŃáī° áĪĵ
Ġáī°áĭĪ áĪµ
ĠáĬ½áīµ áįĪáĪįáĮ¡
áĮ»áĬ¥ áĬ«
ĠáĭŃáīķ áĪĺáĮ¡
ĠáĭĿáĪĪ áĬł
Ġáĭ°áĮĬ áĪŀáĪĿ
áĬķáĮį áĭķ
ĠáĪįáĪĿ áĭµáī³áīµ
ĠáĬķáĭį áĪį
ĠáĬķáĪŃáĬ¥ áĪµáĬ¹áĪĿ
ĠáĪĦ áĪĪáĬķ
ĠáĭĿáīłáĪį áĮ½
Ġáī³áĪķ áĮĵáĪµ
áĮĪáīłáĪŃ áĬ©
ĠáĮłáįĬ áĬ¦áĪĿ
áĪĺáĬĲ áĪī
ĠáĭĻáĪŃáĭ« áĬĵ
ĠáįķáĪ®áĮĢáĬŃáīµ áī³áīµ
ĠáĭŃáĭµ áĮį
ĠáĪĥáĭĭáĪŃáĭ« áīµáĬķ
ĠáĭĺáĭµáĪįáĭ¨ áĬĴ
ĠáĪµáĬķ áĮŃáĪ®
ĠáĪĵáī°áīµ áī²
ĠáīĢáĬķ áĭ©
Ġn o
as s
ĠáĭįáĮ¹ áĭĵáīµ
ĠáĪµáīħ áĭ«áīµ
ĠáĬ£áĭŃáĪ¨ áĪ³áĭķ
ĠáĪĺáĬķáīĢ áĪĬ
ĠáīłáįĤ áĪĳ
Ġáī¥áĪįáĭĳ áĪį
ĠáĬ¤áĪįáĪ³ áī¤áĮ¥
ĠáĪµáĪĿáĪĿ áĭĵáīµ
ĠáĪħáĭĪ áĪĵáīµáĬķ
ĠáĪĵáīłáĪ¬ áī³áīµ
áĬĵ áīłáĭŃ
áīł áĬĲ
ĠáĭĿ áī¥áĪĪáĬ©áĪĿ
ĠáĬķ áĬ¼
áĬĲ áĮ¸
ĠáĬŃ áĪ°áĪĿáĭĸ
ĠáĬŃ áĪĥáĭµáĪĿ
áĬ£ áĪĪáĬķ
ĠáĪĿ áĬŃáįį
ĠáĬ¨ áĮ¥áįįáĬ¥
ĠáĭŃ áĭĪáĪµáĭ±
áĪ° áĪİ
ĠáĪ° áĭ°áĭ°
ĠáĪµ áĭ¨
ĠáĬ¨áĪĿ áī°áĬķ
ĠáĬ¥áĬķ áĪ°áĪ³
ĠáĬ£áĭŃ áĪĺáĪ¨
áĬ¸ áī³áī°
ĠáĪĽ áĪŃáĬŃ
Ġáįį áĭĪáĪ³
ĠáĭĿáī° áįĪáĪįáĮł
ĠáĬŃáĬķ áĭĪáĪµáĭµ
áĬ¢ áĪ³áĭŃáĭ«áĪµ
ĠáĬ¥áĪĿ áĬĲáī³áīµ
ĠáĮī áĮįáĪį
ĠáĬŃáĪį áĪĭáĭĬ
ĠáĬ¥áīµ áĬ½áĬ¥áĪī
áĪľ áĭ³
áĬķáĬķ áĬĵ
ĠáĬ¤áĪŃáīµ áĪ«áĭĬáīµ
ĠáĬ£áĭĿ áĭ¨áĬķ
ĠáĬ£áĬ« áĭŃáĭµ
ĠáĬķáĪĺ áĮ»
Ġáī¥áįį áīħ
Ġ7 00
áĭĪáĪµ áĭµáĬķ
áĪĿáĪµ áĪŃáīµ
ĠáĬ¢áĬķ áĮĤ
ĠáĬķáĭķ áĭµáĪĿ
Ġáĭĺáĭ¨ áĪįáī¦
áĬķáĪµ áĪĵ
Ġáī¥áĭĵ áĪ°áĪŃáī°
20 10
Ġáī¥áĪħ áĮįáĭ°áįį
ĠáĬ£áī° áī£áī¥
Ġáī°áĮ» áĭĭáĪŃ
ĠáĭĿáĬ¾ áĬķáĬ©
Ġ* *
ĠT op
ĠáĬ®áĬķ áĮİ
ĠáĭĵáĪŃ áĪ°
Ġáĭĺáįį áĪŃáĪķ
ĠáĭĿáĭµ áĮįáįį
ĠáĭĿáĭ°áĪĪ áĬ»
ĠáĬķáĪį áīłáĭŃ
áĬ² áĪī
Ġáī¥áĬ¢ áĭ±
ĠáĭķáĪŃ áīħáĬķ
Ġáī¥áīĢ áĭ³áĪĿáĬĲáīµ
ĠáĬ£áĬ¨ áĬ£áī¥
ĠáĪµáĪįáĮ£ áĬĸáĪĿ
ĠáĬķáĬ£áĭŃ áĪģáĭµ
ĠáĮ½áī¥ áīħáī²
ĠáĬķáĪµáĭµáĪ« áī¤áīµ
ĠáĭĿáīĳ áĮ¸áĪŃ
Ġáī°áĪµ áĭĵáĬķ
ĠáĭŃáĭ°áĪį áĭ¨áĬĵ
ĠáĬ£áĬķáī¥ áī¡
ĠáĮĨáĬķ áĪ°áĬķ
ĠáĭŃáĮĪáī¥áĪ¨ áĬĵ
ĠáĬŃáĬŃáĬŃáĬŃáĬŃ áĬŃáĬŃ
ate g
Ġáĭ³áĪķáĪ¨ áĭĭáĭŃ
ĠáĭµáĪĿáĮ½ áĬ»
ĠáĪ°áĬĵ áĭŃáĬķ
ĠáĮĪáī¥áĪŃ áĬ¤áĪį
ĠáĬ£áĭŃáī°áĬ£ áĭĺáĭĿ
áĮĭáĬķáĬķ áīµ
Ġáī°áĪĮ áįİ
áĭŃ áīħ
áī° áĬ¦áĪĿ
ĠáĭĿ áīĥ
ĠáĭĿ áĭ°áĪŃ
ĠáĭĿ áĪ°áĪŃáĪĲ
ĠáĭĿ áĪħáī£
Ġáī¥ áĪ³áĪį
áĬ¥ áĪī
ĠáĪĺ áīĥ
ĠáĪĺ áĪ¶
ĠáĬŃ áĮĭ
ĠáĬŃ áĭ°áĪĬ
ĠáĬŃ áĪ¨áĬ½áī£
ĠáĬ¨ áĬ«áĭŃáĭ±
áįį áĪŃáĪµ
áĭ° áĭį
áĭ° áĭŃáĬķ
Ġáĭĺ áĬŃ
Ġáī° áĮĪáĪį
ĠáĭŃ áĪ¸
áĭ« áĭ¨áĪŃ
ĠáĪ° áĮĪáĭ±
ĠáĪµ áĪĽáīµ
áĭĪ áĭ³
áĭ³ áĭĬáīµ
Ġáīµ áĭ°
áĪħ áĭĽáī¥
áĭ¨ áĭŃáī²
áĬ¸ áĪĪ
Ġáĭ° áĮĭáĭĬ
ĠáĮĪ áĭ³áĭŃ
áĪĥ áĪĭ
ĠáĪĿáĪµ áĪįáĪĿáĬĵ
ĠáĭĿáī° áĪ³áī°
ĠáĬŃáīµ áĪĿáĪĥáĪŃ
ĠáĬª áĪħáĪįáĭĪáĬĵ
ĠáĮįáĭľ áĭ«áīµ
ĠáĬ¨áĭŃ áįĪ
ĠáĬ¥áĮįáĭļ áī¥áĪĶáĪŃ
ĠáĬ¨áĪĿáĭĿ áĪķ
Ġáī¥áĭĿ áĪĵáĪ¸
áĪŃáĭ« áĭĬ
áĬ° áĭŃáĬĳ
ĠáĪĿáĬ½áĬķ áĭ«
ĠáĬ£áĭ¨ áĮłáĪ«áĮ¥áĪŃáĬķ
ĠáĬ£áĪĺ áĬĲ
ĠáĭĿáīłáĪĪ áĬĵ
ĠáĬ£áĭį áĭ²
ĠáįĢ áĮ¥áī³
ĠáĬ£áĭŃáĬķ áĪķ
ĠáĭĺáĭŃáī° áĮ¸áīł
ĠáĭĿáĪ° áĭĵáīł
ĠáĬ¥áĭĪ áĬķ
20 12
ĠáĪĨ áĪ´
ĠáīłáĪī áĬĴ
ĠáĬŃáīķ áĭŃáĪ®
ĠáĬ£áī° áĭĪáīµ
Ġáī°áĪĺáĪį áĬŃáīµ
ĠáĬ£áĪ¨ áĭ²áĬ¡
ĠáĮĪáīłáĪ¨ áīµ
Ġáī¥áĮ¾ áī°áĭŃ
ĠáīłáĪ¨áĬ¸ áīµáĬķ
Ġáī¥áīĢ áĮ»áĪĬ
ĠáĮĢáĬĲ áī«
ĠáĪĿáĪŃáĮįáĮĭ áįħ
áĭĽáĭĺ áĪĺ
ĠáĬ¢áĭ® áī¥
ĠáĪ²áīª áĪį
Ġáĭ°áĭ¨ áī¡
ĠáĪįáĭķáĪĮ áĬ»
ĠáĪĵáĮİ áĪµáĬķ
Ġáī°áĪ°áĪĽáĪļ áĭĸáĪĿ
ĠáĭķáĪĿ áĪª
áī¥áĪ¨áī° áĪ°áī¥
Ġáī°áĭĭáįĬ áĪ®áĪĿ
ĠáĪ¼ áĪŃ
ĠáĮ½áĭįáĮ½ áĭĭáĭŃ
áĬķ áĪĺ
áīµ áĬ¦áĪĿ
áĪŃ áĭ¨áīµ
ĠáĬķ áĪ«
ĠáĬķ áĬŃáĪįáī²
áĬĲ áī°
ĠáĬŃ áĭµáĪķáĬķ
áĮį áĭµáĬķ
Ġáī° áĭĥ
áĭĪ áĬķáĬķ
ĠáĮį áĪģáĭµ
áīķ áĭįáĪĿ
ĠáĪķ áīĸ
ĠáĪķ áĭ°áĪŃ
ĠáĮĪ áī£áĪª
ĠáĪĽ áĪĭ
ĠáĪĥ áĮĵ
áĪĻ áĪĭ
áĪĻ áĬ»
ĠáīĢ áĪĪáĪĿ
áĭī áī³áīµ
ĠáĬª áĮĪáī¥áĪ®
ĠáĬł áĪĪáĬĵ
áĮ¢ áĮ¡
ĠáĪĪ áĭĬ
ĠáĬ£áĬķ áįĥáĪŃ
Ġáĭ³ áī³
ĠáĮł áĪĺáīµ
ĠáĭĿáĭĪ áĪ°áĭµ
ĠáĪĿáĪķ áī£áĪŃ
ĠáīłáĪį áĬŃáĭİ
ĠáĮ¸áĬĴ áĪķáĬ«
áĮįáĪ¨ áĭŃ
ĠáĭĿáīĲ áĪ¨áī¡
ĠáĪĺáĮįáĪĪáĮº áī³áīµ
Ġáĭĵáīķ áĪŀáĪĿ
ĠáĬ¥áĬķáī°áĬ¾ áĬķáĬ©
ĠáĬķáĭį áĪįáīĢ
áįįáĪį áĮ¦
Ġáĭĳ áįį
Ġ25 0
áĬ¬ áĪ«
ĠáĭŃáĮį áīłáĬ¦
ĠáĪĺáĪĵ áĭĽáĭŃ
ĠáĭŃáĮ½ áĭķáĪŃ
ĠáĭįáĪī áĭ³
ĠáĭĤ áĪĭáī¶áĪĿ
áĪĪáĭ¨ áĪī
ĠáĬķáī£áĭķ áĪįáĬ»
ĠáĮ¸áĪĭáĬ¢ áĬĵ
ĠáĭĿáī°áīĲ áĪĺáĮł
áįĪáī° áĪįáĬ©áĪĿ
ĠáĪĽáĪħ áĪ°áĭŃáī²
ĠáĬ£áĪļ áĬķáĬ«
ĠáĬŃáĮį áĭĻ
ĠáĭŃáĮįáīłáĪ¨ áĪİáĪĿ
ĠáĭĺáĭŃáī¥ áĪĪáĬķ
ĠáĬķáīĳ áĮ½
Ġáī¥áĮŃ áī¡áĮ¥
ĠáĭŃáĪĥáī¥ áĬ«
ĠáĭĺáĪ¨ áī£áĭŃ
ĠáĭĺáĭŃáĪĿáĪħ áĪĭáĭį
ĠáĮ¸áĮķ áĪª
Ġáī°áĬ¹ áĪ²
Ġ vi
áī¥ áĬĲáīµ
áĭŃ áĬĴ
ĠáĬ¥ áĪ°áĪŃáĪķ
ĠáĮ ´
áīł áĮł
áī³ áĪª
ĠáĪĺ áĭķáĪŃáįİ
ĠáĬŃ áĪ®
áĪ¨ áĪ±
áĪķ áĪĽáĪĿ
Ġáĭĺ áī¥áĪİ
Ġáĭĺ áĮłáīĵáĪįáĪį
ĠáĬĲ áĭĵáĭŃ
ĠáĪĵ áįĬ
ĠáĪĵ áĪĭáĪį
ĠáĭŃ áĮ¥áĭĵ
ĠáĭŃ áĮ»áĭĪáīµ
ĠáĪ° áįĪáĪ©
ĠáĬ£áĭŃ áī¥áĪīáĬķ
áĭĭ áĭķáĬĵ
Ġáĭļ áĪĺáĭįáīµ
ĠáĬŃáĬķ áĬ¨áįį
áĬł áĮĭáĬķáĬķáīµ
ĠáĪŃ áĬ¸áī¥
áīĥ áĪĭáīµ
ĠáĭĿáĬĲ áĬ£
ĠáĭĿáĬĲ áĬ£áĪ°
ĠáĪ½ áĪ¨
Ġáĭľ áĮłáīĵáĪįáĪį
ĠáĬ¥áīµ áĪ¨áĬ½áī¦
áįħ áī³áīµ
ĠáĬ£áĬķ áĪµáīµ
ĠáĪĺáĪµ áĬ®áīµ
Ġáĭ¶ áĬ¾áĬķ
áī¤ áĪĭ
ĠáĭĿáĭĪ áĭ°áĭŃ
ĠáĪµáĪĪáĭĿ áĬ¾áĬĲáīµ
ĠáĬ¨áĪĿáĭĺ áĪİáĬķ
ĠáĭĿáīłáĪĪ áī¶
áįĢ áĪ¨
áĮłáĬķ áīĢáīķ
Ġáĭįáĭµ áī¥áĬĵ
Ġáī°áĪ° áĬĴ
ĠáĬ£áĭŃáĬ° áĬĵáĬķ
ĠáĪĿáĭį áĭĵáĪį
ĠáĪĿáĮį áĭĽáĬ¥
ĠáĬ¾ áĭŃáĬĵ
Ġáī°áīł áĪĭ
ĠáĭĺáĪĺáĬķ áĬĵ
ĠáĭĿáĬĲáīłáĪŃ áĬ©áĪĿ
ĠáĬ¨áĪĿáĭĺáĪİ áĬĵ
ĠáĭŃáĮ½ áĭķáĪ©
ĠáĭĿáīłáĪį áĭķ
ĠáĮ« áĭį
áĪĺáĪĵ áĭµáĪŃ
áĭĪáĪį áĭ²
ĠáĭµáĬ½ áĪĺáīµ
Ġáī°áĭĪáĪĬ áĭ³
ĠáĪķáĭĿ áīł
ĠáĬ£áĪĽáĪ« áįĤ
ĠáīµáĪŃáĮī áĪĿáĬķ
Ġáįĥ áĭįáĭĴáīµ
ĠáĪĺáĪĽ áĪħáĪŃ
ĠáĪĿáĪħáĪĭ áĭĪáĭŃ
ĠáĭµáĪĮ áī³áīµ
ĠáĬķáīłáĭŃ áĬķáĬ»
ĠáĬ£áĭŃáĭ°áĪĪ áĬ¹áĬķ
ĠáĬ£áĭµáĪĽ áĪ³áĭĬ
ĠáĪĿáĪµáīµáĭįáĭĵáĪį áĬķ
Ġáī¥áĮĲáĭŃáī³ áĬĵ
ĠáĭĿáĮłáīĲ áĪµ
Ġáī¥áĮĬ áĭľ
ĠáīĢáįĤ áĪī
ĠáĬķáįķáĪ¨ áĭļáĭ°áĬķáīµ
áĮĭáĬĶ áĬķáĬķáĬĵ
1 00
e ar
áĬķ áĪĵáĭµáĪķ
áĪį áĮĭ
áĬ¥ áĬ½
ĠáĬŃ áĮĪáĪįáĮ¹
ĠáĪĿ áĬ¢áī³áĭĬ
áī£ áĭįáĬķ
áĪĽ áĬĵ
Ġáĭĺ áĭ°áĬķáīķ
ĠáĬĲ áĮłáĪĭ
ĠáĪĵ áĪ¨
ĠáĭŃ áĭ³
ĠáĭŃ áĪķáĮįáĭĻ
ĠáĬ£áĭŃ áĪŃáĬ£
ĠáĭĪ áĪ½
áĭĽ áĪŃáĬķ
Ġáīł áĪ¨áĬ½
Ġáĭ° áĭ°
áĭ² áĬĵ
ĠáĪĿáĪµ áĪįáī³áīµ
Ġáĭ¨ áĬ¥
Ġáĭ¨ áĪĺáĪµáĮįáĬĲáĬ«
áĮ¸ áįį
Ġáįį áĪª
ĠáĭĿáī° áĮ¸áīł
ĠáĬŃáīµ áī£áīµ
ĠáĬł áĪĭ
áīĥ áĬķáĬķ
ĠáĭĿáīł áĪĪáĬķ
ĠáĬ¥áĬĵ áĮłáĪĺ
ĠáĪĺáĪµ áĪª
ĠáīĥáĪį áĬªáĭ³áĬķ
ĠáĮĪáĭĽ áĬķ
Ġáīģ áĪį
áĮĵ áĭĵáĭĻ
ĠáĮĵ áĪĪáĬķ
Ġáī¥áĪµ áĪ©áĭķ
ĠáĮĪáĬķáĭĺáī¥ áĬ«
áĪįáĬ¥ áĭİ
ĠáįĢ áĮĭ
Ġáī¥áĬ¥ áĮįáĪª
ĠáĪĽáĭŃ áĬŃáĪ®
áĪĺáĮ½áĬ¥ áĬķ
ĠáĬķáĭķ áĪĪáīµ
ĠáĭĪáĪ¨ áĭ±
ĠáĬłáĭŃ áįĪáĮłáĪŃ
áĭ°áĪŃ áĭĿ
ĠáĭĺáĪĺ áī°
ĠáĪĿáĭĿ áĪŃáĮĭáĪķ
ĠáĬķáĭį áĪķ
ĠáĭĿáĪŃáĬ¨áī¥ áĭİáĪĿ
áĭ°áĮĪ áĪī
Ġáī°áĮ» áĭĪáīµáī²
ĠáĪħáĭĿáī¥ áī³áīµáĬķ
ĠáīłáĮĥ áĬ©áĪĿ
ĠáĬ£áĭŃáĪĺáĪµ áĪīáĬķ
ĠáĬ¡ áĬķ
ĠáĭµáĬķ áĬ³
ĠáĪ°áĪĭ áĪ³áĬķ
Ġáī°áĭĭáĪĤ áī¥áĭİáĪĿ
ĠáĪ¨áĬ¸ áī¦
ĠáĭŃáĮįáī¥ áĬ¦áĪĿ
ĠáĬĲáĮĬ áĪ®áĪĿ
ĠáĪĺáĪ«áĬ¸ áī¥áī²
ĠáĬ£áīĢ áī£áī¥áĪĭ
Ġáĭķáĭī áī³áīµ
ĠáĪļáĪµ áĮ¥áĪŃ
Ġáĭ²áįķáĪİáĪĽ áĪµáĭ«áĭĬ
ĠáĭĿáī°áĪĺáĪŃ áĬ®áĪ°
áĮ¸áĬĵáĬķ áĭķ
ĠáĮ£áĭķ áĪ³
áīłáĭµ áī²
ĠáĭļáĮįáī¥ áĬ¦
ĠáĬ¥áĬĶ áĬ¹
ĠáĪĿáĪįáĭķ áĭĵáĪį
ĠáĬłáĭŃáįĪáĮłáĪŃ áĬ©áĭİáĪĿáĬķ
] áį¢
áī¥ áĬł
ĠáĪĺ áĮķ
ĠáĬ¨ áĪ¨áĮĭáĮįáĮ½
áĪĽ áĮ½
áĭ° áĭ®
áĭ° áĪīáĬķ
ĠáĬĲ áĪŃ
Ġáī° áĬº
áĭĪ áĪİáĪĿ
ĠáĬ£áĭŃ áī¥áĪĪ
Ġáīµ áĭĪáĮ½áĬ¥
áĪ© áĭİ
áĬ¨ áī°áĪĽ
áĭĽ áĪŃáī¥
ĠáĪķ áīĳ
áĭ® áĬĵ
áĭ® áĬĵáīµ
Ġáĭļ áĪĿáĪŃ
Ġáĭļ áĬ£áī±
ĠáĭĿáī° áĪ«áĬ¥
Ġáīħ áĪįáĭį
Ġáĭķ áĪ¸áĪį
ĠáīĢ áīħáĭµáĪľ
ĠáĬª áĬ¾áĬĳ
ĠáĬª áĮłáįįáĬ¥
ĠáĮ½ áĮĪ
ĠáĮ½ áįī
ĠáĬ½ áĬ¥
ĠáĬ£áĬĲ áĮº
ĠáĪ¨ áįĪáĪ¨áĬķ
ĠáĬ¨áĪĿáĭĿ áĮĪáĪĪ
áĪ¸ áī±
Ġáĭĭ áĮįáĬ¡
ĠáĮĪáĭĽ áĬ¹áĪĿ
ĠáĬķáĬ¥ áĬķáĪµ
ĠáĮĬ áĪįáĭĵáĭµ
áĪħáĪį áĭĪáĪī
ĠáĪĺáĭĪ áĭ³áĭµáĪŃ
ĠáĪĿáĮį áĪĿ
ĠáĬ£áĪĽ áĪĵ
Ġáī°áĪ« áĬ¸áī¥
áĭµáĪĿ áĮ½
áĪĵáĪį áįİ
Ġáĭĳ áĪĺáĪŃ
ĠáĭĿáĪµ áĪĽáĭķ
ĠáĪĺáĪµáĭĭ áĬ¥áīµ
ĠáĮ¥áĬķ áī³áĭĬáīµ
ĠáĪĺáĪ² áĪįáĭİ
ĠáĭĿáĮł áĪįáī¥
ĠáĮ¸áĪĵ áĭŃáĬķ
ĠáĭµáĪŃ áīĤ
ĠáĭĿáĪ°áĪĽáĭķ áĬĵáĭ®
ĠáĬ£áĭµáĪĭáĭŃ áĬĲáī±
ĠáĬ£áĪĺáĪįáĬª áī¶áĪĿ
Ġáī°áĪĥ áĬĴ
ĠáĬķáĬ¥áĪµ áĬĲáī±
ĠáĪĥáĭ² áĪŀáĪĿ
ĠáĪĺáī¥áĭĽáĪķáī² áĬ¦áĪĿ
ĠáĬķáĪĺáĬķáįĪ áĪ³áĭĬ
ĠáĪķáĮķ áĪµáī²
ĠáīĢáĮł áĪįáĭ«
A T
n ing
p s
u st
ĠáĬ£ áĪĲ
ĠáĬ£ áĮĪáĭ²
áī° áĪĥ
áī° áī¡
áĬĲ áĭī
Ġáī¥ áĮ«
ĠáĬŃ áĮĪáī¥áĪ¨áĪī
áĬ£ áĬ«áĬķ
áĬ£ áĪľáĬķ
ĠáĬ¨ áĬ«áī¥
áĪķ áĭĻ
ĠáĬĲ áĪĵ
ĠáĭŃ áī¥áĭĽ
áĭ« áĬ¦
ĠáĪµ áĪµ
áĪª áĪķáĬĲáīµ
áĪ³ áįĭáĮ¥
áĪĬ áĬ¹áĪĿ
ĠáĭĪ áĭµáĬķ
ĠáĪĽ áĭĵ
ĠáĬ¥áĬķáī° áīłáĪī
ĠáĮ¥ áĪľáīµáĬķ
ĠáĪ°áī¥ áĬĵ
áĮĪáĪŃ áī²
ĠáĮ¸ áĭĭáĭķ
ĠáīĢ áĮ£áĭŃ
ĠáĬª áĪ©
ĠáĬł áĭį
ĠáĬķáĪĿ áĪµáī³áįį
áĬº áīµ
ĠáĬ¨áĭŃ áĪ°
ĠáĬ¨áĭŃ áīĢ
ĠáĬķáĪµ áĪª
ĠáĪķáĮĤ áĪµ
ĠáĬ¨áĪĿáĭĿ áīłáĪİ
Ġáī°áĪĺ áĪ²
Ġáī³ áī¦
ĠáĬ£áĭĿ áĪĽáĭµ
ĠáĬŃáįį áĪī
ĠáĬ¬ áĭµáĬ©áĪĿ
ĠáĭĿáįĪ áĮ¸áĪŀ
áīłáĬ£ áĬ«
ĠáĬ¢áĬķ áĮįáĪĬáĭĿ
áĮ¥áīĥ áĭķ
áĮįáĪĿ áĮįáĪĿ
Ġáĭĵáīķ áĪĿáĬķ
ĠáĪĺáĪ³ áįįáĬķ
áĪĺáĭµ áĪħáĬķ
ðŁ ¤
ĠáĮ£ áĪĬ
áĪ°áĪŃáĪĳ áĬķ
or m
ĠáĮĪáīłáĪŃ áĬ«
ĠáĪĺáĮĪ áĭµáĬķ
áĮĪáīłáĪŃ áĬĵ
ĠáĭŃáĮįáī¥ áĬ£áĬ«
ĠáĬķáĬ¨ áī³áī°
ĠáĬ¥áĬķáĮĮ áĪ«áĬķ
áĪįáĭķ áĪİ
ĠáĬ£áĭŃáĬ°áĬķ áĬ«áĬķ
ĠáĭĿáĭĪáĪ° áĭ¶
ĠáĪ°áĪ«áĪķáī°áĬĽ áī³áīµáĬķ
ĠáĪĵáĭĪ áĭŃáĬķ
ĠáĪĺáĪĺ áĪĬáĪ±
ĠáĬķáĪĿáĬ¥ áĪĭáĭŃ
em ber
áĬ£áĭĿ áĭ©
ĠáĪħáįĥ áĬķ
Ġáĭ³áĭŃ áĪ¬
Ġáĭ³áĭŃ áĪ¨áĬŃáī°áĪŃ
ĠáĭŃáĬ£áĬ½ áĪĪáĬĴ
áĪ¢ áĬ¡
ĠáĬ¢áĬķáī° áĪŃáĬĵ
ĠáĬ¥áī°áĪĺáĪµ áĪ¨áī°
Ġáĭįáīħáĭ« áĬĸáĪµ
Ġáī°áįĪáĪĭáĮ¥ áĬĲáīµ
áĪĿ áĪ³áĪĮ
ĠáĬ¥ áįĪáīµáĭİ
áĪŃ áĪŀ
áĪŃ áĪĵáĪī
áĬĲ áĮįáĪŃ
Ġáī¥ áĮ½áĬķ
ĠáĬŃ áī±áĪŃ
ĠáĬ£áī¥ áĬ¦áĪĿ
Ġáī° áĬĵáĭĬ
áĬ½ áĭİáĪĿ
ĠáĪĵ áĮ¹áĪŃ
ĠáĭŃ áīłáĪī
áįĪ áįįáī²
áĮ½ áĮį
áĭ³ áĪħ
Ġáīµ áĮī
áĭĺ áī¡
Ġáĭ° áĪİ
áĬ¦ áĬķáĬķ
áĭ± áĭİ
ĠáĮ¥ áĪķ
ĠáĮ½ áĭĳáīķ
Ġáī¤ áĬķ
ĠáĪ½ áĬķ
áīłáĭŃ áĬķ
ĠáĪĪ áĭĭ
ĠáĬ¥áīµ áĪŃáĬ¥áĭ®
Ġáī°áĪĺ áĬ²
ĠáĬķáĭĵ áĭ²
áĮįáī£ áī¡
ĠáĬ£áĭŃáī° áĬ»áĬ¥
áĪģ áĪį
áĪħáĪį áĭİáĬķ
áĪĺáĪį áĪ°
ĠáīĢáĭ³ áĭµáĪĿ
áĮĪáĭĿ áĬ£
áĭħ áĪĿ
áĪĿáĬĵ áĭ®
Ġáī¥áĬ¥ áīµ
ĠáĪ² áĭĴ
ĠáīµáĬ« áĪĭáĭĬ
áĮ»áĬ¥ áĬ©
ĠáĭĪáĪ² áĭµáĬĵ
áĬĵáĪį áĭ¶
ĠáĬŃáĪĿ áĭĿ
ĠáĭĿáĪĪ áĭĵáĪį
ĠáĭĿáĭį áĬŃáĪį
ĠáĪ¶ áīŃ
ĠáĪĺáĪ¨ áĮ¸
ĠáĬŃáĪµ áĪ¨
ĠáĬ£áĭĺ áĪ«
ĠáīłáĮº áĪķ
ad io
Ġáĭ°áĬķ áĮĴ
Ġ0 5
ĠáĭĿáĪĺáĪŃ áĪĳ
ĠáĪ½áĮį áĪŃáĬĵ
áĪµáĪķ áīķ
ĠáĪµáĭī áĪŃ
Ġáī¥áĬ¥áĬķ áĮįáĪĬáĭĺáĬĽ
ĠáĬķáĬ¥áĪµ áĬĲáī°áĭŃ
Ġáī¥áĪĿáįį áĮ£áĪŃ
áĮ¨áĬķ áīķ
ĠáĬ¨áī£áī¥ áī³áīµ
ĠáīµáĬķáī¢ áī³áīµ
Ġáī°áĪŀ áĬ©áĪ®
áĬ¥áĪ½ áī¶
Ġáįĳ áī²áĬķ
Ġáī¥áĬ¥áĮįáĭļáĬ£áī¥ áĪĶáĪŃ
ĠáįķáĪ®áĮįáĪ« áĪĽáīµ
ĠáĬ¥áĪĿáīł áĬłáĪŃ
× Ļ
áĬķ áĮīáĪµ
áī¥ áīħ
ĠáĬ£ áī¶áĪĿ
ĠáĬ¥ áīµáĬķ
áĪį áĭĲ
áĪĪ áĪİáĪĿ
áīł áĬłáĬĵ
ĠáĭĿ áįįáīµáĬĳ
ĠáĬķ áįįáīµáĪĴ
Ġáī¥ áĪ«áĬ¥áĭŃ
áĬ¥ áī¶
ĠáĪĺ áĪ½
ĠáĪĺ áįĪáĬķ
ĠáĬŃ áĪ«áĬ¸áī¡
áĮĪ áĮº
áĭį áĭ®
ĠáĭŃ áįĪáīµáĭİ
áĭ« áįį
áĬ¨ áĬĵáĬ¸
áĭĺ áĭŀáĪĿ
ĠáĪķ áĭ°áĮį
ĠáĪĿáĪµ áĭĺáĭŃ
áĮ¸ áĪİáīµ
ĠáĭĺáĭŃ áĪĿáĬķ
ĠáĬ¥áĬķáī° áīłáĪįáĬ«
ĠáĬ¥áĬķáī° áīłáĪįáĬ©
Ġáĭļ áī°áĪĵáĪĵáĭĿ
ĠáĬŃáīµ áīµ
áĬ¢ áīµáĭ®áĮµáĭ«
áĭĻ áĬħ
ĠáįĪ áĪ³áĪ²
ĠáįĪ áīĴáĭ±
ĠáĬķáĪĿ áĮħáĪĽáĪŃ
áĭ«áĬķ áĬķ
ĠáĪħáĭĿ áī¡áĬķ
Ġáĭľ áĭķ
áĪŃáĬ¨ áīłáĪī
ĠáĪ³ áĬ¦áĪįáĬķ
ĠáĬ¨áī° áĪĺ
ĠáĪµáĪĿ áĭĵáĬĴ
ĠáĬķáĭĿ áīĲ
ĠáĪ¸ áĭį
ĠáĪĿáĪķ áĭ³áĪµ
áįĪáĪĭáĪĪ áĭ«
ĠáĬķáĪĺ áīłáĪį
ĠáĪ² áĬĲáĪĽ
áĮ¥áīĢ áĪĽ
ĠáĪĿáĭķ áī¡áĪį
Ġáī°áĮł áĪļ
ĠáīµáĪŃ áĮķ
ĠáĪĿáīµ áĪĭáĪį
ĠáĬ£áĭŃáĬĲáīłáĪ¨ áĬĵáĬķ
áīłáĭ¨ áĬĵáĭŃ
ĠáĬ¥áĬķáī°áĭĺáĭŃ áĬŃ
ĠáĭĺáĪĺ áĪĵáĪĭáĪĪ
ĠáĪħáĭŃáĭĪ áī³
ĠáĪħáĭĿáī¥ áĬ¹áĪĿ
ĠáĬ£áĪµáī° áĪŃ
ĠáĬ£áĪµáī° áĬķáīµáĬĸ
ĠáĮĢáĪŃáĪĺáĬķ áĬķ
ĠáĭĿáĪķ áī¥áĪ©
ĠáĪª áĮĭ
áĪ¨áĬ½áī¦ áĬķ
Ġáī°áĮ¸ áĮĬ
ĠáĭķáĬķ áĬŃ
ĠáĭĿáĭ° áįį
ĠáĪŃáĬ¥áĪ² áĬ¡
ĠáįĪáĪª áĪķáĬ«
áĮĪáĪµ áĭİ
ĠáĭĿáīłáĪį áĬŃáĭİ
ĠáĭŃáĮįáī¥ áĬłáĬĵ
ĠáĬķáĪĽ áĪŃáĭ«áĪĿ
áĮłáīħ áĪĿáĬķ
ĠáĬŃáīµáīħ áīłáĪį
Ġáī¥áĪĿáĪķ áĪ³áī¥
ĠáĮ»áĭµ áīħ
ĠáĬ£áĭŃáĬ°áĬķ áĬ©áĪĿáĬķ
Ġáī°áĭĽáĪª áīł
ĠáĪĵáĭ³ áĪŃáĬķ
ĠáĬªáĭ³ áĬĲáĭŃ
ĠáĪĺáĮ»áĬ¥ áĬ©
ĠáĬķáĪĿáĪĿáĪĭ áĬ¥
ĠáĭĿáĮ½áīł áĭ®
ĠáĬ¥áĬķáĭ² áĬ»
ĠáįĢáī¥ áįĤ
Ġáįįáīĳ áĪŃ
áĪ¨áĭ³ áĭ³áĬ¥
ĠáĭŃáĮĪáĪį áįģ
ĠáĮĲáĭ°áĬĵ áī³áīµ
ĠáĮ¸áĮ¥ áī³áĬķ
Ġáī°áīłáĪ« áīłáĪ¨
ĠáĭĿáĮ¸áĪĵ áįİ
ĠáĬ¨áĪĿáĬ¥ áĭįáĬķ
ĠáĬ£áĬĵáī¥ áĪµ
áĪĺáĬķáĮįáĪµ áī³áĭĬ
áīµ áĪĪ
áĪµ áĪĬ
ĠáĭĿ áĪŃáĬ¨áī¦
ĠáĪĺ áĮĲ
ĠáĬŃ áĪī
ĠáĬŃ áįĪáĪį
ĠáĬŃ áĮĪáĭĿáĬ¡
ĠáĬ¨ áĭķáĪį
ĠáĬ¨ áĬĵáįį
áĪ¨ áĭ³áĬ¥
áī£ áĪ«áīµ
áī£ áī£áĭķ
áĪĺ áīĲ
áĭį áĭĵáĬĴ
áĬ« áĪķ
ĠáĭŃ áĮ¥áīĢáĪĿ
ĠáĭŃ áĮ¸áĬķáĪķ
ĠáĭŃ áĬŃáĬ¥áĪī
ĠáĭŃ áĪĥáīłáĬĵ
áĪ° áĪª
áĪ° áĬĳ
áĭļ áĭĻ
ĠáĪ° áĭįáĬĲáīµ
áĭĵ áī¶áĪĿ
áĭ³ áĮįáĪĿ
áĬ¨ áīµáĬķ
áĬ© áĪĽ
áĭĽ áĭķ
ĠáĪķ áĭ±áĪŃ
Ġáīł áĪŃáĬĵ
áī¡ áĬĲ
ĠáĭĺáĭŃ áīµáĬķ
ĠáĬ¥áĬķáī° áĪĪáĬ«
ĠáĬ¸ áĪĭ
áĭ± áĪ³áĬķ
ĠáĮ¥ áīĥ
áĬ® áĬķáĬķ
ĠáĬŃáīµ áĬ¸áĭįáĬķ
ĠáĬŃáīµ áĪĿáĪį
áĬł áĬ«
ĠáĮ½ áĮĮ
ĠáĮ½ áįįáĪĴ
ĠáĬł áĪĿáĪĭáĬŃ
ĠáĮįáĬĵ áĭŃ
ĠáĬ¥áī° áĪ¸
ĠáĬ¥áĮįáĭļ áĬ¥
Ġáī¥áĪĵ áĭµáĬĲáīµ
ĠáĬ¥áīµ áĪħáī¦
ĠáĬ£áĭŃáīµ áĪ¸
ĠáĬ£áĬ« áĭ«
áīłáĪĪ áĬ«
áĮĪáĪįáĮį áĪįáĬķ
Ġáī°áĭĪ áĬ¨áĪįáī²
ĠáĬ¥áĭļáĬ£ áĬķ
ĠáĪĿáĪķ áĭĿ
ĠáĭĪáĪŃ áĬĤ
ĠáĬ£áĪŃ áĪ°áĬĵáĪį
ĠáĬķáĪĺ áĪ°áĪį
Ġ8 5
áīłáī¥ áī²
áĪĵáĭ° áĪŃáī²
ĠáĭĿáĪ° áĪĺ
áĪķáĭĿ áī¶
ĠáĪĿáĮį áī¥áĬķ
Ġáĭ© áĪ®
áĮ¥áĪĿ áī¶
Ġáī¥áĪķ áī¥áĪ¨áīµ
ĠáĭĿáĪĪ áĪĺáĬķ
Ġáī°áīł áĮºáĪĳ
áįįáĪ« áĪµ
ĠáĬ£áĪķáĭĭ áī¶áĪĿ
áīĪ áĮ»áĮ¸áĪ®
ĠáĬ£áĭĪ áĪį
ĠáĭŃáĭĪ áĭµáīķ
áĭµáĪįáĭ® áĪĿáĬķ
Ġáī³áĪķ áī°áĭĭáĭŃ
ĠáīħáĪŃ áĭĵáīµ
áįįáĪª áīĥ
is h
ĠáĬ£áĪī áĪĭ
ĠáĮ¥áĪĿ áĪ¨áīµ
ĠáĭĿáĮĪáĪĪ áĮ¾
ĠáĭĭáĪķ áĭ²
Ġáī°áĪŃáĬ¥áĭ® áī³áīµ
áīĲáĪĿ áĮ¥
200 9
ĠáĬ³ áĪķ
ĠáĪĿáĪĿáĪķáĭ³ áĪ«áīµ
áįĪáĪŃáĪħ áĭİ
ĠáĬ£áĪĵáīµ áĬĵáĬķ
ĠáĪĺáĭµáĬĥ áĬĴ
Ġáī°áįĪáī² áĬĳ
ĠáĭŃáĬ¹áĬĲ áĪįáĬ«
Ġáī¨ áĪŃ
ĠáĬ½áĬĲ áĪ±
ĠáĭĿáĬ¥áĭĿ áĭĺáĬ«
Ġáī¥áĭįáĪį áīĤ
Ġáī¥áĭī áĪĳ
ĠáĭĭáĪħáĭ® áī³áīµ
Ġáĭĺáī°áĪµáįĪ áĭİ
Ġáī°áĭĭáĪµ áĬ¦
4 6
áĬķ áĮ¥
ĠáĬ£ áīĺ
áĪį áīĤ
ĠáĮ µ
áĪĪ áĪįáĬķ
áīł áĬķáĬķ
ĠáĬķ áĭ°áĪįáĭ®
ĠáĪĺ áĬ¥
ĠáĬŃ áĪĿáĬķ
áĭµ áĪ°áĬ«
áī£ áĭĿ
áĪĺ áĪĪáĭŃ
áįį áĪŃáĬķ
áĭķ áĪª
Ġáĭĺ áĭįáĮ½
Ġáī ¼
ĠáĬĲ áīķáĪŃáī¥
Ġáī° áĭ°áĪįáĭ©
áĬ½ áī³
ĠáĪĵ áĪĿáĭµ
ĠáĪµ áĬĴáīµ
áĮ½ áĪ«
ĠáĮį áĭµáĪį
áĭ³ áĭµáĬĵ
Ġáĭ¨ áĪ°
Ġáĭ¨ áĭįáĪŃ
ĠáĪĽ áĪ½áĬķ
Ġáįį áĮ¥áĬĲáīµ
Ġáĭį áĪ°
Ġáĭļ áĭĽáĪ¨áī¡
ĠáĬª áĮįáīłáĪŃ
áĭĵáĪį áĬĵ
ĠáįĪ áĪĪáĮ¡
ĠáĬ¤ áĪĽ
áĪĺáĪµ áĮĪáĬķ
áĪįáĬ« áĪį
ĠáĪ¨ áĬª
Ġáī¥áĪĵ áĮ¢áĬ£áīµ
áĪŃáĬ¨ áīµ
ĠáĪĿáĭµ áīĥáĪµ
ĠáĬ¨áī° áĬķ
ĠáĪļ áĪµáī°áĪŃ
ĠáĬ¥áĪµ áĪĭáĪĿ
ĠáĮĪáĭŃ áĪ¨áĬķ
ĠáĬĲáįį áīħ
ĠáĪĿáĪį áĭĭáĮ¥
ĠáĬķáĭĺ áĪĺáĬĵáīµ
ĠáīĲ áīµáĪª
ĠáĭĢ áĬĲáīµ
ĠáĬ¨áī£áī¢ áĬ¦áĪĿ
ĠáĪľ áĪª
ĠáĪĿáĭĿ áĭĽáĪĿ
ĠáĬ¨áĪĿáĭĺáĭŃ áĬĲáīłáĪ¨
Ġáī¥áīµ áĪª
ĠáīĪ áĪŃáīłáīµ
ĠáĪĿáīķ áĪĽáĮ¥
ĠáįĪáĪĬ áĬ»
áīłáĪįáĬĵ áĬķ
Ġáī°áĪ«áĬ¥ áĭ¨
Ġáįİ áĪŃáī¶
ĠáĪĵáĪĬ áįįáĬĵ
ĠáĮĪáĭĿ áĬ£
áĮ¸áĮį áī¡
Ġd ag
Ġáĭįáĭ³ áĪ´
Ġáī°áĭį áĪħáī¦
ĠáĪļáĬ¢ áī²
Ġáī°áĪĵáī¢ áĬ¡
ĠáĬķáĪĺáĪį áĬ¨áīµ
ĠáĬķáīłáĪ¨ áĬ¸áīµ
ĠáĮ¸áĮī áĪª
ĠáĪĺáī¥áĪį áĭķ
ĠáĬ®áĪļáĪ½ áĬĲáĪŃ
áĪĿ áĬ¡
ĠáĬ£ áĪĴ
áĪį áī¡
áĪµ áĭµáĪ«
ĠáĭĿ áįĥ
ĠáĭĿ áĮĪáĪįáĮ¾
áĬ£ áī°áĭĪ
áĪķ áī³áīµ
áĪ« áĬŃ
Ġáī° áĬ²
áĭ« áĭµ
ĠáĬ¢ áĭŃ
ĠáĬ¢ áĪİ
áĭĵ áĪ©
ĠáĬ£áĭŃ áĪĵáĭµáĮĪ
ĠáĭĪ áĮ¸áīµ
Ġáīµ áĬ£áī±
ĠáĪĿáĪµ áĬķ
áĬĳ áįį
Ġáĭ¨ áĬ¥áīµ
ĠáĪĥ áĪ³
ĠáĪĥ áĪĽáĬķ
Ġáĭļ áĪ½
áī¥áĪį áĭĳ
áĬ¾ áĬĸ
ĠáĬŃáĬķ áīĥáĪĪáĪµ
áĬ¢ áĪĭ
áĮĪáĪŃ áĬķ
ĠáĮ¸ áĪļ
ĠáīĢ áĭ²áĪĻ
ĠáĬª áĬķáĮį
ĠáĬł áĭµ
ĠáįĪ áĪº
áĬ³ áĪµ
ĠáĮĢ áĮįáĬĵ
ĠáĪĺáĪ° áĪįáĬ«
áĪ» áĭį
ĠáĬķáĭĵ áĬ£áī¶áĪĿ
ĠáĬº áĪ°
ĠáĬº áī¥áĪį
ĠáĬķáĪķ áĭĿáī¢
ĠáĬ» áĬ£
áĪŃáĬĵ áĭ®áĪĿ
ĠáĬ¦ áĭ²
ĠáĬ¥áĮįáĭļáĬ£áī¥áĪĶáĪŃ áĬķ
Ġáī¥áĪĺ áĮłáĬķ
ĠáĭĿáĪĵáĪĪ áįĪáīµ
ĠáįĢ áĭĭáī³
ĠáĬ£áĭµ áĪħáī¦
áĪĵáĭ° áĪ¨
áĭķáĬķ áī¶
Ġáī¥áĭĺ áĪĪáĭī
áīłáĭ¨ áĬ«
Ġáįĭ áĪŃáĪĽ
ĠáĪ°áĪį áįį
ĠáĪŃáĬŃáī¥ áĬķ
ĠáĬ£áĭķ áĪļ
ĠáĪ® áīłáĪŃáīµ
ĠáĬ¥áĬķáī°áĬ¾ áĭŃáĬķáĬ«
ĠáĬ«áī£ áĬº
ĠáĬŃáĭį áĭ³áĬ¥
19 8
ĠáĭŃáĪĺáĪµ áĪİáĪĿ
ĠáĪĺáĮ»áĬ¢ áĬĵ
áĬ¨áĪŃ áĬ©
ĠáĪĺáĪ² áĪįáĭİáĪĿ
ĠC O
ĠáĪĵáī² áīµáĬ«
ĠáĬķáĪħáĭĿ áī¥áĬ»
ĠáĬ¨áĪĽ áĬ¹áĪĿ
ĠáĪĵáĪĬ áįĪ
ĠáįĪáī² áĬĵ
ĠáĭįáĪĭ áĭµáĬ©áĪĿ
ĠáįĪáĪĭ áĪµáįĭ
ĠáĬ£áĭįáĮº áĬ¥áĬ«
ĠáĭĪáĪĬ áĭµ
áĪµáĬŃ áĪ«áĭŃ
ĠáĪķáĮĭ áĭįáĬĲáīµ
ĠáĬĵáĬ¥ áĭ³
ĠáĮ¸áĪį áĪĽáīµáĬķ
ĠáĬ¥áĬķáĪµ áĪ³áīµ
ĠáĬ©áĬĲ áī³áī±
ĠáĭĺáīķáĪ¨áī¥ áĭİ
áĬ£áĬ¥áĪĿáĪ® áĬ£áĭĬ
ĠáĪ°áĪ¨ áīķáī²
ĠáĪĺáĪ¥ áĭĭáĭķáī²
ĠáĬ¢áĪĽ áĪ«áīµ
ĠáĬ£áĭµáĪĵ áĬĸáĪĿ
Ġáĭ®áĪĲ áĬķáĪµ
/ áį¢
a ch
o b
ĠáĬ£ áĭµáĪķáĬķ
áĪį áĬ»áīµáĬ©áĪĿ
áĪŃ áĭĳ
ĠáĬķ áĬ®
ĠáĬŃ áĮī
ĠáĬŃ áīĲáĪŃáī¡
áĬ£ áĭ®áĪĿ
ĠáĬĲ áĪ«
ĠáĬĵ áĪħáĬĵ
áĭĿ áĪĽ
ĠáĭŃ áĪŃáĬ¥áĭ©
áĪ° áī£áĭĬ
ĠáĪ° áīłáĪŃ
áĭĵ áī³
ĠáĪµ áĮĴ
ĠáĪµ áīĥáĭŃ
áĪ³ áĪĻ
áĮ½ áĪĸ
áĭĪ áĬª
ĠáĮį áĭ±áĪ³áīµ
ĠáĬ¥áĬķ áĪĢ
ĠáĬ£áĭŃ áĪĵáĪ°
ĠáĭĪ áĪ«
ĠáĭĪ áĭ¶áĪĿ
ĠáĭĪ áįĪáĪ«
Ġáĭĵ áĭĺ
Ġáīµ áįį
Ġáīµ áĭĪáĪµáĭµ
áĭ¨ áĬķáĬķ
áĬ¨ áī£
áĮ¥ áĪ«
ĠáĪķ áĪµ
áĮĭ áī¢
ĠáĪħ áĬķáĭ³
Ġáįį áįģáĪĿ
ĠáĬ¸ áĪĪáĬĵ
Ġáĭļ áĬ«áĭ¨áĭµ
áīłáĪŃ áĮį
ĠáĬŃáīµ áĪķáĮįáĭĿ
ĠáĬŃáīµ áĪĺáĪĭáĪĪáĪµ
ĠáĮ½ áĭĵáĪŃ
ĠáĭĿáĬĲ áĭįáĪĲ
Ġáī¥áĪĿ áĮ¥áīĥáĪµ
áĪĪáĪĿ áī³
áĪµáī² áĬķ
ĠáĬ¨áĪĿáĭĿ áīķ
ĠáĭĿáĪĵ áĪµáī¡
ĠáĬķáĬ£ áĪľáĪªáĬ«
ĠáĪĿáĬ¥ áĬķáī³áĬķ
ĠáĬ¥áĪµ áīµáĬķ
ĠáĬ» áĪħáĬĵáīµáĬķ
áĪŃáĬĵ áĭĵáīµ
áĮĥ áĬķ
ĠáĬ£áĪµ áĪĽáī¶áĪĿ
ĠáĬ° áĬĲáīµ
áī°áĪŃ áįįáĬķ
ĠáĬ¨áī°áĪĽ áĬķ
áĪĺáĪį áĬ¦
ĠáĬ¬ áĪļ
ĠáĬ£áĪĿ áĪ²
ĠáĭĿáĬ½áĬ¥áĪį áĬķ
ĠáĪĺáĪĪ áĬ½áī²
ĠáĬ£áĭ° áĭ³
Ġáī¥áĪķ áĮĭáĭĬ
ĠáīĪ áĮ¸áĪ«
áĭįáīµ áĪŃ
áĮłáĪŃ áĭķ
Ġáī°áĬĲ áĮĬáĪ©
ĠáĮīáĭµ áĪĪáī³áīµ
áĮłáĪ« áĮłáĪŃáĬķ
Ġáī°áĪ«áĬ¥ áĭ®
it e
ĠáĭĿáĭĿ áĪ¨áī¥
Ġáĭķáī¥ áĭ¨áīµáĬķ
ĠáĪĺáĪĭ áĮįáī¦
ĠáīłáĪŃ áĪĬáĬķ
ĠáĪĺáĭµáĪĥ áĬĶ
ĠáīµáĭĿ áĬŃáĪŃ
Ġáī°áĪĺáĪª áĮ¹
ĠáĪĵáĪ° áīł
ĠáĭŃáĮįáĭ° áĭ±
ĠáĬĵáīµ áĬª
Ġáī¥áī£ áĪħáĪŃ
ĠáĪµáĬķáĬ© áĪĭáĬķ
ĠáĬ£áĪµáĪ« áĪĴ
[...]
