<unk>
<s>
</s>
<pad>
<mask>
!
"
#
$
%
&
'
(
)
*
+
,
-
.
/
0
1
2
3
4
5
6
7
8
9
:
;
<
=
>
?
@
A
B
C
D
E
F
G
H
I
J
K
L
M
N
O
P
Q
R
S
T
U
V
W
X
Y
Z
[
\
]
^
_
`
a
b
c
d
e
f
g
h
i
j
k
l
m
n
o
p
q
r
s
t
u
v
w
x
y
z
{
|
}
~
¡
¢
£
¤
¥
¦
§
¨
©
ª
«
¬
®
¯
°
±
²
³
´
µ
¶
·
¸
¹
º
»
¼
½
¾
¿
Â
Ã
Ä
Å
Æ
Ç
È
É
Ê
Ë
Ì
Í
Î
Ï
Ð
Ñ
Ò
Ó
Ô
Õ
Ö
×
Ø
Ù
Ú
Û
Ü
Þ
ß
à
á
â
ã
ä
å
æ
ç
è
é
ê
ë
ì
í
ï
ð
Ġ
Ģ
ģ
Ĥ
ĥ
Ħ
ħ
Ĩ
ĩ
Ī
ī
Ĭ
ĭ
Į
į
İ
ı
Ĳ
ĳ
Ĵ
ĵ
Ķ
ķ
ĸ
Ĺ
ĺ
Ļ
ļ
Ľ
ľ
Ŀ
ŀ
Ł
ł
Ń
áĪ
áĬ
áĭ
áī
áĮ
ĠáĬ
Ġáĭ
ĠáĪ
áĬķ
áį
Ġáī
áīµ
áĭį
áĪĿ
áĪŃ
áĪį
Ġáĭ¨
ĠáĬ¥
ĠáĬł
áĪĪ
Ġáīł
áĪµ
áį¢
áī½
ĠáĮ
áĪĺ
áĭŃ
áĬĵ
áī°
áĬķáĭ
áĭ«
áĮĪ
ĠáĪĺ
áĪĭ
áĬĲ
ĠáĬĲ
áĮį
áĪħ
áĪ¨
ĠáĭŃ
áī¥
áīł
áĭ°
áĪ«
áī³
áĪĽ
áĭµ
ĠáĬ¨
ĠáĪĪ
áĪļ
áĮ¥
áĪī
Ġáį
áĪ°
áĭİ
áī£
ĠáĬ¥áĬķáĭ
áĬŃ
ĠáĬĲáĭį
áĮł
áīĢ
áĪģ
Ġáī°
Ġáĭ«
áīħ
áĬł
ĠáĭĪ
áī¸
áĪ³
áĪĨ
áĬ¨
áĭĪ
áĭļ
áįį
áĬĽ
ĠáĪĽ
áĪª
áĬ¥
áī¸áĭį
ĠáĪµ
áĮ£
áįĪ
ĠáĪĿ
Ġáĭ¨áĪļ
ĠáĬ¥áĬĵ
áĭİáī½
áĮĭ
áĭ¨
áĬ«
áĭĭ
áĭ³
Ġáī¥
Ġáĭį
Ġáį¢
áī±
áī¶
ĠáĪĭ
ĠáĪ°
ĠáĬ¥áĬķáĭ°
áĪ±
áĪ©
áĬĿ
áĪ®
ĠáĮį
ĠáĪĭáĭŃ
áīĥ
áĬķáĭµ
ĠáĪģ
áĭļáĪħ
áĬĲáīµ
áĬĶ
Ġáĭ¨áī°
áī»
áĪµáĮ¥
áĬĸ
ĠáĬłáĭŃ
áĪİ
áĭĿ
áĬĳ
áĬķáĪĿ
Ġáīµ
Ġáĭ°
Ġ"
ĠáĭįáĪµáĮ¥
ĠáĭŃáĪħ
áĮĪáĪŃ
áĭľ
áĪŀ
áĪĪáĭį
áī½áĬķ
ĠáĮ¥
ĠáĪį
Ĭáĭľ
áĪ½
áĪĪáĪĿ
áĭĬ
ĠáīĢ
áīłáĪŃ
áį¤
ĠáĭĪáĭ°
ĠáĮĬáĭľ
áīłáīµ
ĠáĬ¥áĬķ
áĭĺ
ĠáĮįáĬķ
ĠáĬ¥áĬķáĭ²
Ġáī£
ĠáĪĪáĪĺ
áĮħ
áĪĨáĬķ
ĠáĪµáĪĪ
ĠáĬłáĪµ
áį£
ĠáīłáĪĺ
áĪ»
Ġáį£
áĪªáĭ«
áĬ©
áĮĢ
áĭįáĬķ
áįĭ
áī¶áī½
ĠáĮĭ
áĪĪáĪģ
áĭĽ
Ġáĭĵ
ĠáĪ²
áĪĭáĪį
..
ĠáĬłáĪĪ
áĭ²
áī¡
ĠáĪĬ
ĠáĪģáĪī
áĮī
ĠáĪĪáĪĽ
ĠáĬŃ
ĠáĬĲáĮĪáĪŃ
áĪĮ
Ġ1
áĪĻ
áĪĨáĬĲ
áĪ¬
Ġáĭµ
Ġáĭ¨áĪĺ
áĪĪáīµ
áī¢
ĠáīłáĬł
ĠáĬĲáīłáĪŃ
ĠáĮĪ
áĮ¨
ĠáĮĭáĪŃ
áĭĻ
áĭĭáĪį
áĪŃáĪµ
áįĬ
Ġáĭĺ
Ġáī³
ĠáĬłáĬķáĭµ
áīģ
áīĨ
Ġáį¡
ĠáĪĨ
ĠáīłáĬ¥
Ġáīłáī°
Ġ2
áĮ½
ĠáĬłáĪį
Ġ(
áĮĥ
áī½áĪģ
áĭ®
áī¹
áī°áĬĽ
áĭĵ
ĠáĪĺáĬķ
Ġáĭ¨áĬł
âĢ
áĭ©
áĮ«
Ġáĭ¨áĬ¥
áĮŃ
áĬķáī°
áĪľ
áĪµáīµ
áįĪáĪį
áĪĥ
áī²
áĭ±
ĠáĬĵ
áĬĵáĪį
Ġáĭ¨áĪĿ
ĠáĭĪáĭŃ
Ġáī¤
ĠáĭŃáī½
áīĤ
ĠáĬ¥áĬĶ
áĪĨáĬĳ
áīµáĬķ
áĭķ
áĪĬ
áĪĦ
áĭ°áĪŃ
áĮ£áĪĿ
áī¤
áĪĶ
ĠáĬ¥áĬĲ
Ġáįį
áĮ¡
áĪĪáĬķ
ĠáĬ«
áĮİ
Ġáī¢
áĭµáĪŃ
ĠáĪ³
ĠáīłáĮ£áĪĿ
áĪģáĬķ
ĠáĮł
ĠáĪ°áĭį
ĠáīłáĬ
áĭ°áĪ¨
áĪ¥
áī¦
Ġáĭ¨áĪļáĭ«
áī´
áĬłáī¥
áĬĺ
áĭµáĪ¨
ĠáĬłáĭŃáĭ°
Ġ-
Ġáĭ¨áĪĽ
ĠáĮī
áĮįáĭļ
ĠáĪĿáĬķ
ĠáĬ¥áĭ¨
áĬ®
áĭļáĭ«
Ġáī¥áĭĻ
áīłáĪ¨
ĠáįĪ
áĪŃáĪ±
Ġáīħ
áĮįáĭļáĬłáī¥
ĠáĬ¢
ĠáĬłáĬķáĭ
áĪĶáĪŃ
ĠáĭĪáĭŃáĪĿ
áĪ«áīµ
áĪµáī°
Ġáī¥áī»
ĠáĬ¥áĪµ
áĮįáĭļáĬłáī¥áĪĶáĪŃ
ĠáĪķ
áĬķáĭ«
áĪĿáĬķ
áī¸áĭįáĬķ
áĮĪáī£
áĪĭáĭŃ
ĠáĬĵáī¸áĭį
ĠáĪħ
áĪ®áī½
ĠáĭŃáĪħáĬķ
áĮĢáĪĺ
áīĭ
ĠáĬ¥áĬķáĭ³
ĠáĪĮ
áĭįáĪĿ
´áīµ
ĠáīłáĭļáĪħ
áĪĭáĪī
áĬŀ
áĪķ
ĠáĬ¥áĬķáĭ°áĪļ
ĠáīłáĪĽ
ĠáĪĺáĪį
ĠáĪ°áĭİáī½
áĪ¨áīµ
ĠáĬķ
Ġáĭ°áĮį
áĬĴ
ĠáĪ¥
áĪ¨áĮĥ
áĪ¸
áĮĨ
áį¥
áī³áĪį
áĪĺáĪĪ
ĠáĭĵáĪĺ
ĠáĪĿáĬŃ
Ġáĭ°áĮįáĪŀ
áĪİáī½
áĪł
áĪŃáīµ
áĮĪáĭµ
áĪ²
áĭ¬
áīµáĪĿ
ĠáĬ¨áĬ¥
áĪĽáĪª
ĠáĬ¥áĭ«
ĭáĪĭ
ĠáĬłáĭŃáĭ°áĪĪáĪĿ
áĭ¶
áįī
Ġáĭ«áĪĪ
...
áĪĲ
áĪĭáī¸áĭį
âĢ¹
áīħáĪŃ
áĬĻ
áĬķáĮį
áĬ¤
ĠáĬ¨áī°
ĠáĬłáĮĪ
áĭ«áĬķ
áī±áĬķ
áĭµáĪ¨áĮį
áĪ´
áĪ°áī¥
áĪįáĪĿ
Ġáĭĭ
ĠáīłáĪļ
áĬ³
áĪŃáĪµáĭİ
áĮĤ
Ġáĭ«áĪĪáĭį
ĠáĬłáĪģáĬķ
ĠáĪĻ
ĠáĪļ
ĠáĬ¥áĬĽ
ĠáĪĢ
ĠáĪĺáĪµ
áĮ»
áĬª
Ġáīģ
ĠáĭŃáī½áĪĭáĪį
áĭ¨áīµ
áĪ¶
ĠáīłáĬĭáĪĭ
Ġáī½
áĪĺáĪµ
áįĥ
ĠáīĢáĬķ
áĭŃáĭĪ
áĪĺáĪį
áĬ¨áĪį
áī£áīµ
ĠáĪĿáĬŃáĬķáĭ«
áĮłáīĢ
ĠáĮīáĭ³
áĭİáī½áĬķ
áĬĲáĭį
áī³áīµ
ĠáĭĿ
áĪĺáĬķ
áī·
Ġáī£áĪĪ
ĠáĬłáĪĿ
Ġ3
Ġ.
Ġáĭ«áĪµ
áĬ¨áī°
áĬĶáī³
00
ĠáĪĽáĬķ
ĠáĪĪáĬ¥
Ġáĭķ
âĢº
Ġáī¦
ĠáĬŃáįį
áĮĬ
áĮĢáĪĺáĪªáĭ«
áĮ¸
áĬĸáĪŃ
ĠáĬĲáĮĪ
áīħáĪĿ
ĠáĪģáĬĶáī³
ĠáĪĿáĪŃ
áĬĽáĪį
áįİ
ĠáĬłáĬķ
áĮįáĪŃ
ĠáĪĽáĪĪáīµ
Ġáī¤áīµ
áĪīáĪĿ
áįĬáīµ
ĠáĬłáĪĭ
áĪ¨áĭį
ĠáĬ¥áĬķáĭ´áīµ
áīĦ
ĠáĭŃáī½áĪĭáĪī
áĭ²áĪµ
áįħ
ĠáĬ¥áĪŃ
ĠáĪĿáĬķáĪĿ
áĬĵáīµ
áĭ«áĭį
áĪīáīµ
ĠáĮĢ
áī¼
ĠáĬłáī¥
ĠáĬ¨áĬł
áĪ«áĪį
ĠáĬłáĪµáī°
áĭ´
áĮĪáĬĵ
áĪĭáīµ
Ġáīĥ
áĬĽáĭį
áĪ°áĪĽ
áĬĺáīµ
ĠáĬ¥áĬķáĭ²áĪħ
ĠáĮ¨
ĠáĬ¥áĮįáĭļáĬłáī¥áĪĶáĪŃ
áĪªáĬ«
ĠáīłáĪĭáĭŃ
áĬķáĭ³
ĠáĬłáĬ«
áĪµáī³
áĪĺáĮ£
áĪĺáĪŃ
áĪ³áĭŃ
áĬŀáī½
áĮĵ
áĪħáĬķ
áīĢáĪŃ
áī±áĪĿ
áĪ«áĭĬ
ĠáĪµáĪĪáĭļáĪħ
áĪĪáĭ«
áĪ¨áĪµ
áįĸ
ĠáĪĺáĬķáĮĪáĭµ
áĬ¢
ĠáĪĺáĮł
ĠáĬ¨áįį
ĠáĪ«
ĠáĬ¨áĪĺ
áĪ°áĭį
ĠáĮ¥áĪ©
áī£áī¸áĭį
ĠáĪŀ
ĠáĭŃáĪĨ
Ġáī¦áī³
áį¡
ĠáĬ¥áĭį
áĪĢ
ĠáĪ¥áĪ«
áĪĪáī½
áĮ¨áĪĽáĪª
áī¢áĭ«
áĮ¤
ĠáĪĨáĬĸ
áīłáĪ©
áĮįáī£
ĠáĬ¥áĪ±
Ġ20
ĠáĪģáĪīáĪĿ
áĭī
áĪįáīħ
ĠáĭĽ
ĠáĪĮáĪĭ
ĠáĬ¥áĪµáĬ¨
ĠáĬłáĬķáī°
ĠáĬłáĭį
ĠáĬ¥áĬĲáĭļáĪħ
ĠáĬłáĪī
ĠáĪ³áĭŃ
ĠáĭĵáĪĺáīµ
áī¥áĪŃ
áĭĿáī¥
áįĪáĪįáĮĭ
ĠáĬłáĪĺ
áĭĪáīħ
áĬĲáīłáĪ¨
áĭ«áĪµ
áĮĨáī½
ĠáĬłáĬķáĭ³
áī£áĪį
áĮłáīĥ
áĪħáĪį
áįķ
ĠáĪĺáĬ«
ĠáīĨ
Ġáĭ¨áīł
áĪ°áĪ«
áĬ¨áīµ
Ġáįķ
áĪĪáĪħ
ĠáĬ¨áĭļáĪħ
áĪĿáĪ®
áĮ¨áĪ¨
ĠáĭŃáĪĨáĬĵáĪį
ĠáĪĺáĬķáĮį
áĭĪáĪ°
áĪĭáī½áĪģ
ĠáĬ®
Ġáĭ³
ĠáĪĥ
áī¦áī½
ĠáĭµáĪŃ
áĭİáī¹
ĠáĬĥ
ĠâĢ¹
áĭŃáĭĪáīµ
Ġáĭ¨áĪĨáĬĲ
áĮ¥áĪŃ
áĮ£áīµ
áĬŃáīµ
ĠáĬ¥áĬķáĬ³
ĠáīłáīĢ
áī³áĭį
ĠáĬłáĭµáĪŃ
ĠáĬ¥áĬķáĭ²áĪģ
ĠáĬ¨áĪĨáĬĲ
Ġ4
ĠáĭĽáĪ¬
ĠáĪĪáĬł
ĠáĪĽáĭµáĪ¨áĮį
áĬķáĭĺ
áĮįáĬĺáīµ
áĭŃáĪį
áĭŀ
Ġáī¥áĪİ
áĪĿáĪħ
áīłáĪį
áĬķáĭ±
áĭ«áīĦ
áĮĮ
áĮ¦
ĠáīłáįĬáīµ
ĠáĭĵáĭŃ
Ġáĭ°áĪ¨áĮĥ
áĭİáĬķ
áī°áĭį
áĪ£
Ġ5
áī·áĪį
ĠáĪįáĮħ
áĪĿáĪŃ
áĪĭáĬŃ
ĠáĬ¥áĭ¨áī°
ĠáĬłáīµ
áĭĵáīµ
Ġáĭ¨áĪĪáĪĿ
ĠáĪĺáĬ«áĬ¨áĪį
ĠáĬ¨áĭļáĭ«
áįĢ
ĠáĬłáĪĽ
áĮĪáĭį
áĪ·
áįįáīµ
ĠáĪĨáĬĲ
ĠáįĬ
ĠáĬ¥áĪŃáĪ±
ĠáĪĺáĪĨáĬĳ
áĮįáī¥
áĬķáĪµ
ĠáĭµáĪ¨áĪµ
Ġáĭ«áĪį
áįĵ
áĮ¨áĪ¨áĪ»
áī½áĪį
áĪ¨áĮĭ
áįĪáĪĪ
Ġáĭ¨áĭĪ
ĠáĮ¥áĭ«áīĦ
áĪļáĭ«
áĬĵáĮĪ
áīµáĭ®
áĬŃáĪį
áĪ¨áĭ³
áĮłáĪŃ
áĪįáĮį
ĠáĬłáĭ²áĪµ
áĬķáīµ
áĪĦáĭµ
áĮµ
áī³áĭĬ
áĪĪáĮł
ĠáĭŃáĪħáĬķáĬķ
ĠáĬłáī£
áī£áī¢
áĪı
Ġáĭ¨áīµ
ĠáĪĺáĪ¨áĮĥ
áĪŃáĮį
Ġáī°áĪĺ
áĬĸáī½
áĪ³áīµ
ĠáĭĺáĬķáĭµ
ĠáĪµáĪĿ
áĪŃáĭµ
áĬĽáĭįáĪĿ
ĠáĪĺáĪĨáĬķ
áĮįáĪį
ĠáĮ£
áĮģ
ĠáĬ¥áĮħ
áĬķáĬķ
áīµáĭ®áĮµ
ĠáĮīáĭ³áĭŃ
áĪ±áĪµ
ĠáĬ¤
áĬķáĭĺáī¥
ĠáĪģáĪĪáīµ
Ġáĭ«áĪħáĪį
Ġáī¤áī°
ĠáĮİ
áĭµáĬķ
ĠáĬłáĪµáįĪ
ĠáĬ¥áĬķáĮĤ
ĠáĬ¥áĭļáĪħ
áĪİáīµ
áĪµáįĭ
ĠáĬłáĬķáĭ±
re
áĪĿáĬĵ
áĮįáĪ«
ĠáĭŃáĪĦ
áĭ¨áĪ±áĪµ
áī³áī¸áĭį
áī¶áī½áĬķ
áĪĽáīµ
ĠáĪģáĪĪ
áĮĪáĬĺ
áĪªáĬŃ
ĠáĭŃáĮĪ
áĪ°áĮł
ĠáĭŃáĮł
áĬĲáī±
ĠáīĥáĪį
áĪµáĪ«
áĭİáīµ
ĠáĪĿáĬŃáĬķáĭ«áīµ
Ġáĭ¨áĪĽáĭŃ
áĪĭáĮĬ
áĭĵáĪĪáĪĿ
ĠáīłáĪŃ
ĠáĬ¥áĬķáĭ°áĪĨáĬĲ
áīĢáīµ
ĠáĮ½
áĪľáĪªáĬ«
áĪ±áĬķ
áĭĪáĮ£
ĠáĬłáĪĪáĭį
Ġáīłáĭ¨
ĠáĬ¨áįįáī°áĬĽ
ĠáĭĵáĪĪáĪĿ
áĮĬáĭľ
ĠáīµáĬķ
áī¤áīµ
áīĥáĪį
ĠC
ĠáĪŃ
áĬ¬
áī¸áĭĭáĪį
áĪ¨áī¥
áĮłáīĢáĪĿ
Ġáī°áīĢ
áī³áī½áĬķ
áĬ©áĪį
áĪ³áī¥
ĠáĭĪáīħ
áĮĪáĬĻ
ĠáĬĲáĬĿ
áĪ³áĪĮ
ĠáīłáĪĿ
ĠM
ĠâĢ¹âĢ¹
ĠáĪĽáĪµ
áĬĲáĪ³
áĮĪáĬĿ
áĮĪáĪĪ
ĠáĪ¨
áīĢáĭį
áĪŀáī½
ĠáĪĲ
ĠáĪĪáĪĿáĬķ
áĭĺáĮĭ
ĠáĬłáĭ«
ĠáĬłáĮĪáĪįáĮį
áīµáĭ®áĮµáĭ«
ĠáĬ¥áĬķáĭµ
ĠáĪµáĪ«
Ġáī¡
áĭŃáīµ
Ġáĭ¨áĬ¢
ĠáĮĮ
áĭ°áĭį
áĪĪáĭ«áĭ©
Ġ'
ĠáĭŃáĪĺáĪµ
áĬĵáĭį
ĠáĬłáĪµáįĪáĪĭáĮĬ
Ġáįĵ
áĪ¯
áĪĽáĪŃ
ĠáĬĲáĮĪáĪ®áī½
ĠáĪįáĮĨáī½
ĠáīµáĪĿáĪħ
Ġáī½áĮįáĪŃ
ĠáįķáĪ®
ĠáĭįáĮ¤
ĠáĬ¥áĬĵáĪĿ
áĬĿáĬĲáīµ
ĠáĬ¥áĬķáĬ³áĬķ
áī°áĪŃ
áĭĪáĪµ
ĠáĪĻáĪī
áĮ£áĬķ
ĠáĬłáĪ³
áĮ½áĪĲ
ĠáĬ¥áĪŃáĪµáĭİ
or
áī½áĪĭ
áīĢáĮ¥
ĠáĭŃáĪħáĪĿ
áĭĪáĭ³
ĠáĪ½
áĪ³áĪ³áĭŃ
Ġáĭ¨áĪĺáĮĢáĪĺáĪªáĭ«
áĪ¨áĬķ
ĠáĬ¥áĬĵáĬķáī°
ĠáĪµáĪį
áĭĭáī³
áĪµáī°áĬĽ
áĭ°áĬķ
ĠáĪĺáī°
ĠáĬ¥áĬķáĭ²áĪģáĪĿ
áĭ²áĭ«
áĭ¨áĪŃ
áĬ¤áĪį
Ġáį¤
Ġáĭ¨áī³
áĮª
ĠáĪĬáĭ«
áĮłáĬĵ
ĠáĬłáĬķáĭ³áĬķáĭµ
Ġáĭľ
ĠáĬłáīĢ
áĪģáĪīáĪĿ
áįĮ
ĠáĪĺáĪĨáĬĳáĬķ
áĬķáĭ¶
ĠáĪĺáĮį
áĭ°áĪŃáĮĭ
ĠáĪĮáĪİáī½
ĠáĬłáĪĪáīłáīµ
áĬ«áĪĿ
áĬ¨áĪŃ
áĮįáĪĿ
ĠáĪĬáĪĨáĬķ
ĠáĬ©
ĠáĪĤ
ĠáĬŃáįįáĪį
ĠáĭĵáĪĺáī³áīµ
áĭ°áīµ
Ġáĭ¨áĪĿáīµ
ĠáĪĺáī¥
áĪĤ
Ġáįĸ
áĬĭ
áĭ°áĪĿ
Ġáĭ¨áĪļáĭ«áĪµ
Ġáĭ¨áĪĪ
ĠáĮŃ
áīĤáĭ«
ĠáĬłáĪģ
áĮĪáĬķ
áįĴ
Ġ6
áĪŃáĪµáī²
ĠáīłáĪĻ
Ġ201
áĭ¶áī½
áĪŁ
áĬĿáĪĿ
ĠáĪ´
ĠáīłáĮ¥
áĪłáĪ«
áĪĺáĪ¨
ĠáĪ²áĪĨáĬķ
áĪŀáĬŃ
áĪĪáĭŃ
áĮłáīł
ĠáĪįáĭ©
ĠáĭĭáĮĭ
Ġáĭ¨áĭį
ĠáĬ¨áĪļ
ĠáĪĺáĪ°
Ġáĭ¨áĬĲ
áĪ«áī¸áĭį
Ġáĭ«áĪī
ĠáīłáĬłáĬķáĭµ
ĠáīłáĬ¥áĪŃáĮį
áī»áī½áĬķ
ĠáĬłáĭ°
áĮĪáĪį
ĠáĬ¥áĬķáĭ²áĭ«
ĠáĪµáĪŃ
âĢºâĢº
áīłáī¥
ĠáĭĪáīħáīµ
áī½áĪįáĪĿ
Ġáīłáīµ
áĬķáĭ°
áĪĭáĭį
Ġáīħáĭ±
áīª
Ġáĭ¨áīĢ
áĬĥ
áĮ¢
áĪªáĭİáī½
ĠáĭŃáĪ°
áī»áĪį
áĪ©áīµ
áĪĭáĪĿ
ĠáĪĪáĪĿ
Ġáĭ¨áīłáĪĪáĮł
áĪ©áĬķ
ĠáĬłáĪģáĬķáĪĿ
ĠáĬ¢áĭ¨áĪ±áĪµ
áĮįáīł
¾áī½
Ġáī°áĪµáįĭ
áĬ¦
Ġáĭ²
Ġáīłáĭļáĭ«
ĠáĭĪáĪŃ
áĬ¨áĪ«
áĬĲáĭļáĪħ
Ġ7
áĮłáĪ«
ĠáĮ¨áĭĭáī³
áĮ¹
áįĪáĭį
áī°áĭĭáĪį
ĠáĭŃáĪģáĬķ
áĪ¥áĪ«
áĭ®áī½
Ġ8
áĬ¨áī³
ĠáĪĿáĪµ
áĭ°áĪ¨áĮĪ
ĠáĬ¨áī°áĪĽ
ĠáĬ¥áĬĲáĪ±
áįĪáĪįáĮī
Ġáįĭ
Ġáī¥áĪŃ
ĠáĬ¥áĭµ
Ġáĭ¨áĪĿáĬķ
ĠáĮĢáĪĿáĪ®
ĠA
áī¥áĬķ
ĠáĭŃáĮĪáī£
áīµáĬĵ
Ġáĭķáĭµ
Ġáĭ¨áĪħ
ĠáĭĵáĭŃáĬĲáīµ
áĮ£áĪį
áĪĿáĬĲáīµ
Ġáīłáįį
on
ĠáīĢáĪĭáĪį
ĠáĪĪáĭļáĪħ
ĠáĮĪáĬķáĭĺáī¥
ĠáĪĺáĮ¥
Ġ10
áĪĺáĭį
áĬķáĭ³áĬķáĭ±
áĪĭáīħ
in
Ġáĭ¨áĪµ
ĠáīµáĪĿáĪħáĪŃáīµ
áĪģáĬĳ
ĠáĬłáĪįáī°
Ġáī°áĮ¨áĪĽáĪª
Ġáĭ¨áĪ°
áĬ«áī³
áĬ¸
Ġáī¥áĭ¬
áī³áĭĪ
áĪ½áĬķ
áīĢáĪĺ
áī¥áĬĿ
Ġáĭ¨áĬ¥áĪŃáĪµáĭİ
ĠáĮĮáī³
áĬĵáĬķáī°
áīłáĭį
áĪĪáī²
Ġáīłáī³
áĭĽáīµ
ĠáīłáĬ¢
áĪĭáĪĽ
Ġáīłáī°áĮ¨áĪĽáĪª
áĪĨáĬķáĪĿ
ĠáĬłáĪĿáĪĭáĬŃ
áĭ¥
ĠáīłáĪĮ
ĠáĪĺáĪŃ
ĠáĪł
áīĤáīµ
Ġáĭ¨áĪ«
ĠáĬ¥áĮħáĮį
áĬĵáĮĪáĪŃ
ĠáĬ¦
ĠáĬĲáīłáĪ¨
áĪ»áĪĪ
Ġáĭ¶
ĠáĭĪáĬķáĭµ
áĭ²áĪħ
áĪ¥áīµ
áĪĪáĬĽ
ĠáĭĺáĪĺáĬķ
Ġáī°áĮįáī£
er
ĠáĪ¶
áī»áī¸áĭį
ĠáĪĺáĮłáĬķ
áĬĲáĮĪ
ĠáĬłáĭµ
Ġáĭ¨áĪļáĪį
áīº
áĬĲáĮĭ
ĠáīµáĪįáīħ
áĬĲáĪ±
ĠáīłáĪĻáĪī
áĬĹ
ĠáīµáĬŃ
áĪıáĪį
áĭ²áĭ®
áĪĪáĭĭáĪį
ĠáĪĺáĪĪ
Ġáĭ«áĭį
áĪ³áī¸áĭį
ĠáĪĿáĬŃáĬķáĭ«áī±áĪĿ
áĪĭáĪĪ
áį¡-
áĮĦ
ĠáĪĽáĪħ
20
ĠáĪįáī¥
Ġáĭ¨áĮĪ
áĬ¨áįį
áĮįáĬĵ
ĠáĪĪáĭį
ĠáīłáĪ°
ĠáĪĺáĮ½áĪĲ
áī¨
áĬ©áīµ
áī¤áī°
Ġ/
áĭ®áĬķ
ĠáĬ«áĪį
áĭ³áĬķ
Ġ19
áĪĺáĪ°
Ġáĭ¨áĬ¥áĮįáĭļáĬłáī¥áĪĶáĪŃ
ĠáĮĵ
áĮ«áĭĪ
áĮłáīµ
ĠáīłáĪµ
Ġáīħáĭ±áĪµ
ĠáĬ¥áĬķáĮį
áī£áĬķáĭ«
Ġáīłáĭį
áĪŃáĭĿ
ĠáĪģáĪīáĬķáĪĿ
áĮ®
áĪįáĬķ
áī¥áĪ¨
ĠáĪĪáĪļ
ĠáĬłáĮĭ
Ġáĭ¨áĮį
Ġáĭ¨áī£
Ġáĭ¨áĪķ
ĠáīłáĬ¥áĪŃáĮįáĮ¥
::
ĠáīłáĬ©áĪį
ĠáīµáĬķáĪ½
ĠáĮ¸
ĠáĬ¨áĪĽ
Ġáī°áī¥
áįĪáĪŃ
ĠáĬłáĮĪáĪŃ
ĠP
áĪįáįį
ĠáĬłáĭ³
áĮįáīłáĪªáĭ«
ĠáĬª
Ġ9
áĬ¨áĪĭ
ĠáĪĪáĪĽáĭµáĪ¨áĮį
ĠáĬ¥áĭįáĬĲ
áĭĪáĭ°
áĬķáīĢ
áĭ¨áĭį
ĠáĪĦ
Ġáī½áĮį
áĪĺáĪ«
áĪĪáī²áĬ«
áĬĵáī¸áĭį
Ġáī³áĪªáĬŃ
ĠáīģáĮ¥áĪŃ
ĠáĬ¨áī£
ĠáĭµáĬķ
Ġáĭ©
ĠáĪĪáī°
áĪĭáĮİ
Ġáĭ«áĪĪáĭįáĬķ
ĠáĪĺáĪł
ĠáĬłáĪŃ
áĪ°áĮ¥
ĠáīłáĪķ
ĠáĭĭáĬĵ
ĠáĪĪáĪĽáĮįáĬĺáīµ
ĠáīłáĪ«
áī¥áĭĻ
ĠáĪģáĪį
áĪĥáĪį
ĠáĬ¥áĬķáĭ°áĮĪáĬĵ
áĬŃáĪŃ
ĠáĬłáĪĽáĪ«
áĭĿáī¡
áī½áĬķáĬķ
Ġáī°áĪĺáĪ³áĪ³áĭŃ
ĠáĪĺáĪįáĬ«áĪĿ
áĪ¨áĮ¥
áī½áĬĭ
áįĭáīµ
ĠáĪĽáĮįáĬĺáīµ
áĭ°áĪ¨áĮį
ĠáĬłáĭŃáĬĲáīµ
áĪ®áī½áĬķ
áĪŃáĭ«
áĮ¥áĬĲáīµ
ĠáĪµáĪĪáĪĨáĬĲ
áį¦
ĠáĭŃáĭĺ
ĠáĭµáĪĿ
ĠáĬķáĮį
ĠáĪĿáĬķáĭµ
áī³áĭŃ
áĭ³áĪį
Ġáĭ¨áĪļáĪĪáĭį
ĠáĭĻ
áī½áĪī
ĠáĬłáĬ«áī£áī¢
áĬ¨áī±
ĠáĪĨáĭŃ
ĠáĭµáĪŃáĮħ
áĭįáĪį
áĪĪáĪĺ
ĠáĬ¥áĬĲáĪŃáĪ±
áĬħ
áĪ°áī£
ĠáīłáĬ¥áĭį
Ġáī£áĪħ
ĠáĪ²áĭ«
ĠáĪµáīµ
ĠáĬ¥áĬĶáĪĿ
áĮĪáĪ«
Ġáī¢áĪĨáĬķ
áĪĺáĪĪáĪµ
ĠáĬ¥áĬķáĭ³áĪĪ
Ġáī°áįĪ
Ġáīª
Ġáĭ¨áī°áĪĪáĭ«áĭ©
áĪ¨áĪĿ
ĠáĪµáĪľ
ĠáĮįáĬķáĬĻ
ĠáĪ´áīµ
áĮłáī¥
áĬ¨áĪ°
ĠáīµáĪŃ
ĠáĪ°áĭĵáīµ
ĠáĬłáĮĪáĪįáĮįáĪİáīµ
Ġáīĭ
áĮĪáī¥
Ġáĭ«áĪ³
áįĪáĪµ
ĠáĭŃáĪĭáĪį
ĠáĪĺáī°áĮįáīłáĪªáĭ«
áĬŃáĪµ
ĠáĬĲáįĥ
ĠáįįáĪĭáĮİ
áĪĿáĬķáīµ
áĭĭáĪĪáĪģ
áĭ°áĪŃáĮį
áĮłáīĥáĪļ
ĠáĪĿáĪŃáĮ«
ĠáĪ³áĭŃáĪĨáĬķ
áĪĺáĬĵ
ct
ĠáĪĨáĬĸáĪĿ
ĠáĬ¥áĭįáĬĲáīµ
ĠáįįáīħáĪŃ
Ġáĭ¨áĬĲáīłáĪ¨
áĮĪáĬĽ
Ġáī¥áĪĪáĭį
áĬĸáĪ©
ĠáĮ¥áīħáĪĿ
áĪ°áĮ¡
ĠáįĬáīµ
áĭµáĪŀ
áīħáĭµ
áĪ¹
Ġáī°áĪĺáĪį
áĪĳ
ĠáĬĲáīłáĪ©
áĪĽáĭŃ
áįįáĪ«
ĠáĬ¥áĬķáīħ
áī¹áĬķ
áĪµáĪĽ
ĠáĪĺáīĢ
ĠS
áįĪáĪįáĮį
ĠáĮĵáĭ°
áĬķáīĭ
ĠáĪĺáĪĺ
ĠáĪķáĭŃáĭĪáīµ
ĠáĬ©áī£áĬķáĭ«
Ġáīłáī°áĪĪáĭŃ
Ġáī°áĮĪ
ĠáīĢáĬĵáīµ
ĠáĬ¥áĬķáĭ°áī°
áīĥáīµ
áī°áĬŀáī½
áī½áĬķáĪĿ
áĪ¨áĮĭáĮĪ
áĪįáĬŃ
áĪŃáī²
ĠáĬłáīħ
áĪµáī¥
ĠáĮįáī¥
áĭ°áĪ¨áĮī
áĪ«áĪī
Ġáīłáĭ°
Ġáĭ°áĬķ
ĠáīłáĪŃáĬ«áī³
áĬķáĬĽáĭįáĪĿ
ĠáĬłáĪĭáī¸áĭį
ĠáĪĺáĭį
áĪ°áī¡
ĠáĬłáī¥áĭĽ
ĠáīłáĪį
Ġ...
áĪµáĬķ
Ġáī´
áĮĪáī¡
áįĸáĪŃáīµ
áī°áīµ
áĮłáĪ©
áĪĺáīµ
ĠáĪµáī¥
ĠáĮįáĪĿ
ĠáĪĺáĬķáĮįáĪµáīµ
áĪ£áĪªáĭ«
áĪĪáĭįáĪĿ
áĭ«áĪį
ĠáĪĽáĪ³
áī¥áĪ¨áīµ
áĭ°áĪŃáĮī
ĠMe
ĠáĬ¥áĪŃáĮį
áĪ»áĪ»
ĠáĪĺáĭ°
ĠáĬĲáĬķ
ĠáīłáĭĵáĪĪáĪĿ
áī°áĬĽáĭį
áĬĵáĭĪ
ĠáĪĺáĬķáĮĪ
ĠáĭŃáī»
ĠáĮłáīħ
áĪĪáĪĽ
ĠáĪĿáĭµáĪŃ
áĮłáĭŃ
ĠáĬĸ
ĠáĭĿáĮį
ĠáĬ¥áĬķáĭ³áĭŃ
ĠáĮ¦
Ġáĭįáĭµ
ĠáĪĺáĮ½áĪĲáįį
Ġáīłáī°áĮ¨áĪĽáĪªáĪĿ
Ġáĭ¨áĪį
áĭŃáĬķ
Ġ?
ĠáįĪáīĥ
Ġáĭ°áĪµ
áĮ¥áĪ®
áĪĺáĭµ
ĠáĪĽáĬķáĪĿ
áĭŃáĬĵ
Ġáīłáĭĵ
áĪģáĪĪ
ĠáĪ¸
áĭ°áĮį
ĠáĮ£áī¢áĭ«
ĠáĬ¨áĭļáĭ«áĪĿ
ĠáĬ¨áĪĮ
áĪĺáĪĪáĬ¨áī°
ĠáĪª
ĠáĬĵáīµ
ĠáĭŃáĪįáīħ
ĠáĪľ
ĠáĬĥáĭŃáĪį
áĪĬáĭ®áĬķ
ĠáĭŃáī»áĪĭáĪį
Ġáī°áīĭ
ĠáĪĽáĪµáī°
áĮĢáīµ
Ġáī°áĪĽáĪª
ĠCor
áĬķáĭ¶áī½
áĬłáīµ
áĪħáĪĿ
áī£áĭŃ
áĮłáīĥáĪĭáĭŃ
ĠáĬłáįį
áĪĿáĮĥ
áĮħáĪĿ
ĠáĮĪáĬĵ
ĠáĭŃáĮĪáī£áĪį
áĪº
áīłáīĥ
áĭ«áĭĿ
ĠáĪĿáĬĵáĪį
áĪŃáĬĲáīµ
st
áĪĭáįĬ
áĮłáįĭ
áīłáīµáĬķ
áĬķáĬ«
Ġáī°áĮł
áĪ¨áĭµ
Ġáī³áĪĭáīħ
Ġáĭ¨áĬ¥áĬĶ
ĠáĪ²áĪį
áĪŃáĪµáī¶
rect
Ġáĭ¨áī°áĪ»áĪĪ
ĠáĭŃáįĪáĪįáĮĭ
Ġáįİ
Ġáī£áĪį
áī°áĬķ
ĠáĬ¥áī£
áĪ¶áī½
áĪŃáĪµáī²áĭ«áĬķ
ĠáįĢ
áīĢáĪĿ
ĠáĪĿáĪŃáĮ¥
áĬ¨áī¥
ĠáīħáĪŃ
áĪ¨áĭĭáĪį
ĠáĪķáĭĿáī¥
áĮĢáĪĺáĪŃ
ĠáĪħáĭĿáī¥
ĠáĬķáĮī
ĠCorrect
áĭĮ
Ġáĭ¨áįĪ
ĠáĪµáĬķ
áĭĽáĪ¬
áĪ³áĪį
áī³áī¸áĭįáĬķ
ĠáĭŃáīĢ
Ġáĭ¨áĪĮ
Ġáīħáĭµ
ĠáĬłáĬ«áĪį
ĠáĪĺáĭĿ
áĪģáīµ
áĪģáĪĪáīµ
ĠáĬłáĪįáĬĲáīłáĪ¨
le
ĠáĬ¥áĪ«
ĠáĮĪáĮ½
ĠáĪĺáĪ£áĪªáĭ«
ĠáĪĺáĪįáĪµ
áĭįáĭ«áĬķ
áĮłáĪ¨
Ġ[
ĠáĭĿáĪŃáĭĿ
ĠáĮįáĬķáĬĻáĬĲáīµ
an
ĠáĬłáīł
áĭįáīĥ
ĠáĬłáīĢáįį
ĠáĬłáĪĪáĪĺ
áĪĭáĭĬ
áĬķáĮįáĭµ
áīłáĭ«
áĬĳáĬķ
ĠáĪ¦
áĪħáĬĵ
áĪĻáĭ«
áĪµáīĥ
áĪµáī³áĭĪ
ĠáĪ¥áĪŃ
ĠáīĭáĬķáīĭ
ĠáīłáĬĲ
ĠáĪĺáī¼
áĭ«áĬķáĪµ
áĪīáĬķ
ĠáīłáĪĺáĪĨáĬĳ
áĪ«áĪ½
ĠáĪįáĬŃ
ĠáĪĺáĪ³
Ġáī°áĮłáīĥáĪļ
ĠáĬłáĪĪáĬĿ
áĮłáĭį
áĮĪáīµ
Ġáĭ¨áī°áĭĪáĪ°
áĮłáĬĽ
áĮĭáīµ
ĠáĮįáĪį
áĬ«áīµ
ĠáīłáĭĪ
áī½áĭį
ĠáĪĽáĭ¨áīµ
ĠáĬ¨áī£áĭµ
áĭŃáī³
ĠáĭįáĮŃ
áĪĪáĭ¨
áīłáĪ«áĭĬ
ĠáĪĪáĪĽáĪµ
ĠáĭµáĮĭ
áĪ¯áĪį
áĮłáīĢáĪĻ
áĭĭáĬķ
ĠáĪĺáĪĿ
ĠáĪĺáĬķáĮįáĪ¥áīµ
áī§
ĠáĪĺáĮ£
áĬ¨áĬĵáĭĪ
ĠáĪĺáĭµáĪ¨
Ġ!
áĪ®áįĵ
áĬĲáĪµ
ĠáĪĺáī³
áįīáīµ
ĠáĬ¥áĪŃáĪĿáĮĥ
áĮİáī½
Ġ15
áĪĨáĬĵ
ĠáĭĪáĬķ
áī³áĪĽ
Ġáĭ¨áĪ°áĭį
áĬĲáĪŃáĪ±
ĠáīµáĬ©
ĠáĬ¥áĬĲáĭļáĪħáĬķ
ĠáĬ¥áĭ«áĬķáĭ³áĬķáĭ±
áĪ¬áīµ
19
Ġáĭ«áĪįáī°
áĪįáīģ
ĠáīµáĬŃáĬŃ
áĪįáĬĿ
ar
áĪĭáĪ½
ĠáĬłáĪľáĪªáĬ«
ĠáĪ´áī¶áī½
ĠáĪĽáĭĪáīħ
ĠáĬłáĪµáĭ°
áīµáĪĿáĪħ
áĭµáĪĿ
Ġáĭ¨áĭĺ
Ġáĭ¨áĬ¥áĬĽ
Ġáĭ¨áĮ¥
ĠáĬłáĭŃáī½áĪįáĪĿ
áīĨáĪĿ
ĠáĮ¥áīĤáīµ
áĪĽáĪį
ĠáĭĪáĮ£
áĭ«áĭĺ
áīłáĬĽ
ĠáĭĻáĪªáĭ«
áīłáīħ
áīĨáĮ£
Ġ12
Ġáī¢áĭ«áĬķáĪµ
ĠáīłáĮį
Ġáī°áĬĵ
áĬªáĬĵ
áĬĲáĮį
áī£áĪĪ
ĠáĬ¥áĬķáĭ°áĪĿ
áĪŃáĪµáī¶áĪµ
ĠáĭŃáĪĨáĬķ
áī¨áĪŃ
Ġi
áĭİáī³áĪį
ĠáīĢáĮ¥
ĠáĬłáĮį
áĪµáīĥáĪ´
Ġáĭ®
ĠáĪĺáĪłáĪ¨áīµ
áĪ°áĭµ
ĠáĬ¥áĬ®
áĮĢáĪĿ
áĬ«áĪį
áĬ¥áĬĶ
Ġáī°áĮ«
ĠáīłáĪħ
áĬķáĬŃ
áĪ³áĬĶ
áī½áĪģáĬķ
ĠáĬŃáĪį
áĭĪáĪĪ
áī¥áĪ«
áĮĪáĬĲ
áįİáī½
Ġáĭ¨áĭļáĪħ
ĠáīłáīħáĪŃ
ĠáĭŃáįĪ
áĪªáī±
at
ĠáĬĲáĮ»
ĠáĬ¥áĪ·
áĪŀáīµ
ĠáĬłáĪµáī°áĭ«
Ġáī°áī¥áĪİ
áĪĪáĬĽáĪį
ĠáĭŃáī³
Ġáĭ«áĪĭáī¸áĭį
ĠT
ĠáīłáĬłáĪģáĬĳ
ĠáĬ¥áĪŃáĪ±áĪĿ
áĭ³áīµ
áĪŃáĬŃ
ĠáĪĿáĮįáī¥
ĠáĬłáĪ°
ĠáĪĽáĭķ
ĠáīłáĪĽáĪĪáīµ
ĠáĪº
ĠáĭľáĬĵ
áĮ¡áīµ
Ġ200
Ġáīłáī³áī½
áī´áĬķ
áĪĬáĭĿ
ĠáĭŃáīłáĪį
áĪ°áĪŃ
Ġáĭ«áĬķ
Ġáĭ¨áįį
Ġáĭ¨áĪĨáĬĳ
áī¾áī½
áĮłáĪį
ĠáĬ¥áĪµáĬª
ĠáĪĢáĮĪáĪŃ
áīĥáĪī
áĬŀáī¹
Ġâ
ĠáĭĲ
ĠáĮ¤
ĠáĪĺáįįáīµ
áīħáĪ¨áī¥
ĠáĪĺáĮįáĪĪ
áĬŃáĪĿáĬĵ
Ġáĭ¨áī°áįĪ
áĬ®áĬĸ
ĠáĪĽáĬķáĬĽáĭįáĪĿ
ĠáĪļáĬĴ
Ġáĭ¨áĪĪáĭįáĪĿ
ĠáĬ«áĪĪ
ĠN
Ġ11
Ġáī£áĭŃ
áĭĭáīĤ
ĠáĭŃáĬĸ
ĠáĬ¥áĬķáīħáĪµáīĥáĪ´
áĪĥáĬķ
ĠáįķáĪ®áĮįáĪ«
ĠáĪµáĪĪáĪļ
áĮĮáī³
ĠáĪĪáĭįáĮ¥
áĮĭáĪ«
ĠáĬĲáĮ¥
ĠáĬłáĮ¥
ĠáĪģáĪįáĮĬáĭľ
ĠáĪįáĮĨ
ĠáĭŃáĪĺáĪµáĪĭáĪį
Ġáī¡áĭµáĬķ
áįĪáĪ«
ĠáįĵáĪŃáī²
ĠáĭĺáĪŃ
ĠáĬ¥áĭļáĭ«
ĠáįįáĪĭáĮİáīµ
Ġ18
ĠáĬłáĭ°áĮĭ
ou
áīĤáīĥ
ĠáĭĪáĭ³
ĠáīłáĪĺáĮ¨áĪ¨áĪ»
ĠáĪĪáĪĺáĪµ
áīĥáĪĪáĪģ
áīµáĪĿáĪħáĪŃáīµ
Ġáĭ¨áĭ°
áĪİáī½áĬķ
áĮĪáĪĽ
áĬķáĬĵ
ĠáĭµáĮĭáįį
ĠáĮ«
ĠáĭŃáĮĪáĬĽáĪį
Ġáĭ¨áįĸ
áĪİáĮĤ
ĠáĬłáĪĺáīµ
ĠáĪĿáĬĵáĪįáī£áīµ
áĪįáĮ£
ĠáĪĺáĮ¨áĪ¨áĪ»
ĠáĭįáĮ¤áīµ
áīłáĪĭ
áī½áĪĪáĭį
ĠáīłáĭŃ
Ġáĭ«áĪĭ
Ġáīªáĭ²áĭ®
áĬĲáī¶áī½
áīłáī³áĪį
ĠáĬ¢áīµáĭ®áĮµáĭ«
ĠáĮīáĭŀ
áĭŃáĪĽ
áĭĪáĮ¥
áĪĺáĪįáĬ¨áīµ
áĪ°áĮłáĭį
ĠáĪĽáĪĪ
ĠáĪŃáĭķ
Ġáī¢áĪĨáĬķáĪĿ
ĠáĬłáĭ«áĪµ
áĪ³áī°
ĠáīµáĬŃáĬŃáĪĪáĬĽ
áĪ°áīł
áĭ«áīµ
ĠI
Ġáĭ¨áĬŃ
ĠáĪĤáĭ°áīµ
ĠáĪĺáĮĢáĪĺáĪªáĭ«
ĠW
ĠáĪĺáī¥áīµ
ĠáĮ½áĪĳ
ĠáĪµáĪľáīµ
áĪ°áĬķ
Ġáī¥áīµ
áīłáīµáĪĿ
áĮłáĭ¨
ĠáĭįáĪ³áĬĶ
áĪ²áī²
ĠáĭŃáĪĺáĪį
ĠáĭŃáīħáĪŃ
ĠáĬ¥áĪĿáĬĲáīµ
ĠáīłáĪ¨
ĠáĪĪáĪĿáĪ³áĪĮ
Ġáī°áĭ°
áĮĪáĭ°
ĠE
ĠáĬ³
áĪµáĪ«áĬ¤áĪį
áĭŃáĪĽáĬĸ
ĠáĬ¥áī£áĬŃ
áĮĭáĪª
ĠáĭŃáĬĸáĪŃ
áĬ¨áĪĪ
ĠáĮ¥áīħ
en
ĠáīłáĪĮáĪĭ
ĠáĬ¥áĬķáĭ³áĪį
ĠáīłáīµáĬŃ
áĪĭáīĢ
áī£áĪī
áĬĹáĪį
áīĭáīĭ
Ġáĭ«áĪµáįĪáĪįáĮĭ
áĬĴáī¨áĪŃ
áĬłáĪį
ĠáĪĪáĬ¥áĬĶ
Ġáĭ«áĭ°áĪŃáĮĭ
Ġáĭ°áīĤáīĥ
áī³áĭİáī½
ĠáĬ¨áĪĿ
áĮĪáĬĺáĭį
áįĪáĪįáĮĪ
....
ĠáĬ¥áĬķáĭ°áĭļáĪħ
ĠG
áįĪáĪĪáĮį
ĠáĮłáīĥ
Ġáī»
ĠáĮįáĪĿáĮĪáĪĽ
áĮ«áĭĪáīµ
ĠáīłáīĤ
Ġ14
ĠáĬĲáĪħ
áĬĴáī¨áĪŃáĪ²áī²
ĠáĭŃáĭĪ
ĠáĬłáĪĪáī£áī¸áĭį
ĠáĪ°áĪĭáĪĿ
ĠáĭĺáĪĺ
áĪĪáĬĿ
áĮĪáĭĽ
ĠáĮĪáī¥
áĪ°áĪ©
ĠáĪĺáįį
ĠáīłáĪĺáĮĢáĪĺáĪªáĭ«
ĠáĮłáīĥáĪļ
Ġáĭ¨áĬķáĮįáĭµ
Ġáīłáīł
om
ĠáĬ¥áĪµáĬ«
ĠáīĢáĪŃ
ĠáĭĵáĪĭáĪĽ
ĠáĪĺáĮłáīĢáĪĿ
áĭ³áĪŃ
ĠáĪļáĪĬáĭ®áĬķ
áīģáĪĿ
áī¶áī¹
ĠáĭĿáĪŃáĭĿáĪŃ
ĠáĪ³áĪĿáĬķáīµ
ĠáīłáĪ½
áĪ«áĬķ
áĭļáĪģ
ĠáīłáĪĺáī¶
ĠáĮįáĭµ
ĠáįĸáĪĬ
ĠáīłáīĢáĪĭáĪī
ĠáīłáĪĺáĪµ
ĠáīĢáĭ°áĪĿ
ĠáĬ¥áįĪáĪįáĮĭ
áĬ®áī½
ĠáĪĽáĪµáī³áĭĪ
Ġáįİáī¶
Ġáī°áĭĪ
ĠáĭĪáĪ¨
ĠáĪĺáĬĲ
áĬĲáīµáĬķ
áĬķáīħ
ĠáĬ¥áĬķáĭ°áĪļáĭ«
ĠáĪĺáĭµ
áī¸áĭįáĪĿ
ĠáĪĺáĬķáįĪáĪµ
áĪ«áĪ²
áĪ¨áĮĭáĮį
Ġáĭ¨áĪļáĬ¨áī°
ĠáīłáĬŃ
áĭ³áĭ°áĪŃ
áĭ°áĪ¨áĮĪáĭį
áĬ¨áįĪ
ĠáĪĿáĬŃáĪŃ
áī»áĪĪáĪģ
áĪĻáĬķ
áĬ«áĪĦ
ĠáĬłáĭĿ
ĠáĬłáĮįáĬĿ
áĪ³áĭĬ
áīĢáĪ¨
áĪ°áīµ
áĬĸáĪ¨áĭį
áī¡áĪŃ
áĮĪáĪĿ
áĭ«áĭĬ
áįģ
ĠáĪĿáĪį
áĪ¾
ĠáĮīáĭ³áĭ®áī½
áĪĭáĪŃ
áī¥áīµ
ĠáĬłáī³
áĭ«áĬĶ
áĮłáīłáīħ
it
Ġáī¥áĪĪáĭĭáĪį
Ġ13
ĠáĬłáĪįáĬĲáīłáĪ¨áĪĿ
ĠáĪĢáĮĪ
áī½áĪĭáĪĪáĬķ
áī¦áīµ
áĮīáĪĿ
áĬŃáĬĸ
áīĢáĬĳ
Ġáī°áīĥ
ĠáĭŃáĪĺ
Ġáĭ¨áĪĺáĮ¨áĪ¨áĪ»
áīĢáīħ
ĠáĪµáĪĭ
ĠáĪĿáĪ³áĪĮ
ĠáĬ¥áĬĲáĪĨ
áĮ¥áī³
ĠáĬ¥áĬķáī½áĪĭáĪĪáĬķ
ĠáĪĺáĬĸáĪŃ
000
ĠáĬ¥áįĪáĪįáĮĭáĪĪáĪģ
ĠB
ĠáĪ©
ĠáĪµáĪħ
Ġáĭ¨áĪĻ
ĠáĪĺáĮįáĪĪáĮ«
ĠáĬłáĬŃ
áĪĽáĬķ
áĪĭáī½áĬķáĪĿ
áĮ£áĪļ
áĮ¹áĪĿ
áĮ®áī½
ĠáīłáĪĨáĬĲ
Ġáĭ¨áĪļáī½áĪį
ĠáĬłáĪĺáĪ°
ĠáĬĲáįį
ĠáĬłáĮĪáĪįáĮįáĪİ
Ġáĭ¨áī¥
áĬķáĭĽ
ĠáĪĺáĪĺáĪªáĭ«
Ġ30
áĭ±áīµ
áīĢáĪĺáĮ¥
áįĬáĭ«
ro
áĪµáī±
ĠáĪ±
Ġáĭ¨áĪŀ
ĠáĪįáĪĿ
Ġáī³áĭ²áĭ«
ĠáĬłáĪ¸
áĭĽáĭĿ
áīĢáĪµ
áĮ©
ic
">
áĬĲáįį
Ġáī¥áĪĪáĬķ
ĠáīģáĮ¥
ĠáįķáĪ®áĮĢ
áĭ°áĪŃáĪµ
Ġáĭ¨áĬ«
ĠáĬ¥áĪŃáĪµ
áīĢáīł
áĬķáĭ²
ĠáĪĪáĪĽáĪ³
áī«
áĭĺáĬķ
ĠáĬ¨áĭĪ
áĬķáĭ±áĪµáīµ
Ġáī°áĮ«áĭĭ
Ġáĭĺáĭ´
áĭ°áĪį
áĪ¨áī°
ĠáīµáĬ©áĪ¨áīµ
Ġáĭ¨áĭĵáĪĪáĪĿ
áĭ«áĪĪáĪģ
Ġáī°áĪ«
ĠáįĪáīĥáĭµ
áĭ¬áĬķ
ĠáĬłáįĪ
ĠáĬłáĭİ
áĭļáīĥ
Ġáī°áĬĵáĮį
Ġáĭ¨áĪļáīĨ
áĪĪáĪį
áĪĿáĪĭáĬŃ
áĬ¨áįĭ
Ġáī°áĭ°áĪŃ
ĠáĬĳ
ĠáĪķáĮį
áĬ®áĬĸáĪļ
ĠR
áįĪáĪĪáĮī
ĠáįķáĪ¬
ĠáĪĺáĪµáĮłáīµ
ĠáĭįáĪĥ
áĪ´áīµ
ĠáĪ«áĪµ
ĠF
áĮ§
áī£áĪĪáĭį
ĠáĬłáĭµáĪŃáĮİ
ĠáĬłáĭŃáĭ°áĪīáĪĿ
áĭįáĪ®áįĵ
áįĪáĮ¸
Ġáĭ¨áĮįáĪį
Ġáĭ¨áĪĺáĮĢáĪĺáĪªáĭ«áĭį
ĠáĬ¥áĪĿ
Ġáĭ«áĬķáĬķ
ĠáĬłáĪĭáĭį
áĪ©áĪĿ
áī°áĬĵ
ĠáĮĪáĪį
Ġáĭ°áĪŃ
áĬ¾
áĬĲáīłáĪŃ
áĭ£
áī¤áī±
áĬŃáĬĸáĪİáĮĤ
ĠáĭµáĪŃáĮħáīµ
Ġáĭ«áĭµáĪŃ
áĪįáĮ£áĬķ
Ġáĭ«áĪīáīµ
Ġáī½áĪİ
oo
ĠáĪµáįįáĪ«
ĠáīłáĬ¥áĮįáĭļáĬłáī¥áĪĶáĪŃ
áīģáīµ
áĭĬáīµ
ĠáĪĺáĪ¥
áĪĺáĮ£áĪį
áī¥áĭİáīµ
áĭĭáīµ
áĮłáĬķ
áĬķáĬ«áĪ«
Ġáĭ¨áī°áĪĺ
ĠáĪĺáĪª
áĮĵáĪį
áī½áĬĭáĪį
áĭĺáĪŃ
ĠáĭŃáĪĺáĪįáĬ¨áī±
ĠáĪĺáĪ³áĪªáĭ«
ĠáĬłáĬĲ
Ġ+
áĬķáīĢáĪ³
ĠáĬłáī¶
ĠáĪĽáĭį
áĪ°áī¦áī½
ĠáĪ®
ĠáĪĺáĪįáĬ©
ĠáĬłáĭ³áĭ²áĪµ
Ġáī£áĪĪáĭį
ĠáĮ¤áĬĵ
áī°áĬĵáĪį
áĪĭáĬķ
ĠáĪĪáĪĺáīĢ
Ġ_
ĠáĬŃáįįáĭ«
Ġáī°áĪĽáĪªáĭİáī½
ĠáĬłáī£áīµ
al
áĮłáīħ
ĠáĬłáĪĽáĬ«
ĠáĭŃáĪĺáĪµáĪĪáĬĽáĪį
ĠáĪĿáĪĭáĪ½
áī»áī¸áĭįáĬķ
ĠáĭĪáĮ¥
áĬķáĮįáĪµáīµ
áĪįáĪħ
ĠáīłáĮįáĪį
ĠáĪĪáĪĺáĮį
ĠáĬ£
ĠáĭŃáīłáĪįáĮ¥
ĠáĮ¥áĪ«áīµ
Ġáĭ¨áĪļáĪ°áĮ¡
áĪ°áĮ£
ĠáĬłáĭ«áĭį
áĪĬáīµ
ĠáĮĨ
áī³áī½áĪģ
Ġáĭ°áĪħáĬķ
ĠáīłáįįáĮ¥áĬĲáīµ
áĭķáĪ«
áĭ³áī³
áĮ£áĪª
áĬ©áĪĿ
ĠáĪĿáĬķáĭµáĬķ
ĠáĭķáĭµáĪľ
ĠáīłáĮŃ
ĠáįįáĪŃáĭµ
áĪĪáįį
áįĪáĪįáĮįáĪĿ
Ġáĭ¶áĪĭáĪŃ
áĪĽáĪĽ
áĪ¨áĭ³áīµ
ĠáĬ³áĪµ
Ġ*
Ġ16
áĭ²áĭ«áĭį
ĠáĮįáĪĪ
ĠáĬ¥áĭįáĬĲáī°áĬĽ
áĮŃáĪŃ
ĠáĭĪáĭŃáĪµ
ĠáīłáĪµáī°
ĠáĪĪáĬ¥áĪŃáĪµáĭİ
Ġc
ĠáīłáĭļáĪħáĪĿ
Ġáī£áĪĪáĪĻáĭ«
Ġáī¤áī±
ĠáĬ¥áĬĽáĪĿ
Ġáĭ¨áĪĺáĪµ
ĠáĪĪáĭĺ
ĠáĬ¨áĬłáĬķáĭµ
ĠáīłáīµáĬŃáĬŃáĪį
Ġáīłáī¥
Ġáīłáī°áĪĺáĪĪáĬ¨áī°
áīłáĪ©áīµ
áĪľáĬķ
áĭ«áĬķáĭ³áĬķáĭ±
Ġáīłáī°áĪĺ
áĪ¨áĮĭáĮĪáĮ¥
ĠáĬ¥áĪŃáĮįáĮłáĬĽ
ĠáĮĪáĭ°
Ġáĭ¨áĬłáĪľáĪªáĬ«
ĠáĬłáĪ«áīµ
Ġáĭ¨áī°áĪĪáĭ¨
ĠáĬ¥áĪ±áĬķ
ĠáĪģáĪĪáī±áĪĿ
Ġáīµáĭķ
áĮĭáĭŃ
áĪŃáĪĿ
ĠáĬĲáĮĪáĪ®áī½áĬķ
ĠD
ĠáĭŃáĪ°áĪĽ
ĠáīĨáĭŃ
áĬ¨áī°áĪĽ
áĭ³áĪļ
ĠáĬłáĪĽáĪ«áĮŃ
áĪĿáįĴ
ĠáĪµáĪĪáĪĨáĬĲáĪĿ
áĮ¥áĪĿ
ĠáīłáĪĽáĬķáĬĽáĭįáĪĿ
áĭ·
ĠáĭŃáįĪáĪįáĮĭáĪī
Ġáīłáĭ¨áīĢáĬĳ
ĠáĬ¨áĪ°
ĠáĪ¦áĪµáīµ
Ġáī½áĮįáĪ®áī½
ĠáĮĵáĭ°áĬĽ
áĭ¨áĪĿ
ĠáĬĲáĭįáĬĵ
Ġ17
Ġáĭ¨áĪĺáĮ£
áĪŃáī£
áĮįáĬĵáĪĪáĪģ
ĠáĪĨáĬĲáĭį
áĪ¡
Ġáĭ¨áĪĨáĬĲáĭį
ĠáĬ¥áĬķáĭµáīµ
ĠáīħáĭµáĪļáĭ«
ĠáĬ¥áĬĶáĬķ
Ġáĭ©áĬĴáī¨áĪŃáĪ²áī²
áĭ¨áĪģ
ĠáĬ¢áĬķ
áīĢáĭµ
ĠáĬ¥áĬķáĮįáĭ²áĪħ
áĪĺáĪĿ
ĠáĬĥáĮ¢
ĠáĬłáĪĪáī¥áĬķ
ĠáīłáĮĪ
th
ĠáĭĪáĮª
áī£áĭĬ
ĠáĬłáīħáĪŃ
ĠáĬłáĪµáī¸
áĪŃáĪµáī²áĭ«
Ġáīłáī£
áĬķáĭ±áĪµáīµáĪª
ĠáĪĺáĬªáĬĵ
ĠáĬłáĪĭáĭįáīħáĪĿ
áīłáĬŀáī½
ĠáĭįáĭŃ
Ġáī°áĭĪáĭ³
ĠáĮłáĬķáĬ«áĪ«
áī»áĪĪ
áįĪáīµ
áīĭáĪį
áĬĲáĮĭáĮĪáĪŃ
áĬ¨áĭį
ĠáĬłáĬķáĭ°
áĭ²áĪ±
ĠH
ĠáĪĺáĪĭ
áĪĺáĮ¡
ĠáĪĪáĪĮ
áĮ£áĪī
Ġáĭ¨áĪļáįĪáĪįáĮī
áĪĭáĪĪáĪĿ
áī¡áī¥
Ġáī¤áī¶áī½
Ġáĭ¨áĪ¥áĪ«
Ġáĭ¨áįĸáĪĪáī²áĬ«
Ġáĭ¨áīĨ
ĠáĬłáĪĪáĬķ
áĭ°áĪŃáĮĪ
áĪĭáĪħ
áĪ¦
Ġ24
Ġáī°áĪ°
ĠáĬŃáĪŃáĪµáī²áĭ«áĬķ
áĮĪáĪ¨
ĠáĬ¥áĬķáĭ´
Ġáīłáĭµ
áĭįáĪµ
ĠáĪįáĬķ
ĠáĬłáĪµáī°áĭ«áĭ¨áīµ
áĪ³áī¸áĭįáĬķ
ĠáĬ¥áĪµáĬ«áĪģáĬķ
Ġáĭ«áĪµáįĪáĪįáĮĭáĪį
10
ĠáīłáĪģáĪīáĪĿ
áĪĺáĮ¥
áĪ¨áĭ±
Ġáī°áĮįáī£áĪŃ
ĠáĬłáĪīáīµ
ĠáĮ¥áĭ«áīĦáĭİáī½
Ġáĭ¨áĮİ
ĠáĮĭáĭľ
ĠáĪĺáĪįáĬ¥
áĬ¬áīµ
áįĭáĪį
áĭĪáĭµ
ĠáĬĲáĭī
áĮħáīµ
Ġáīłáĭ°áĬķ
Ġáī¡áĭµ
áĬ«áĬ¨
ĠáĭŃáĪ°áĮ£áĪį
ĠáĪµáĪŃáĭĵáīµ
ĠáĪµáī¥áĪ°áī£
áĪİáĪµ
ĠáĬĸáĪ®
Ġáī°áĮ½
ĠáĪĮáĪĭáĭį
ĠáĭĿáĪĿ
ĠáĮįáĪ«
es
ĠáīłáĬ¥áĭįáĬĲáī±
áī£áī¥
ĠáĬłáĪĺáĪ°áĮįáĬĵáĪĪáĪģ
Ġáĭ¨áĪļáĮĪáī£
áĪĺáī±
áĪµáĪŃ
ĠáĪ°áĭİáī½áĬķ
áī¦áī½áĬķ
ĠáĪĿáĪŃáīµ
áĮĪáĪªáī±
Ġáĭ«áĮį
ĠáĬŃáĪįáĪį
ĠáĪ°áĪŃ
Ġáī°áĬ¨áī³
ĠáĮ½áĪĳáįį
áĪ«áĭį
áīħáĬĵ
Ġáī°áĪµáĪĽ
áĭ°áĮĪ
Ġ25
áĮ¥áĪ¨áīµ
áĮĭáĪį
ĠáĪĺáīħ
áĭįáĪįáĭµ
áĪ´áī¶áī½
ĠáĪºáĪħ
Ġáīµáī½áĪĭ
áĬĵáīĤ
Ġáĭ¨áĬĲáīłáĪ¨áĭį
ĠáīµáĪįáīģ
Ġáĭ¨áĪĿáī³
áī¥áĭĽ
ĠáĭŃáī£
ĠáĭĪáĪĭ
áĭ«áĭĻ
áĮĭáĬĵ
áĬ¨áįįáī°áĬĽ
áĮ£áĭŃ
áī½áĪīáĪĿ
áīģáĪŃ
Ġáĭ«áĪµáī°
ĠáĭŃáīĨ
ĠáĪĺáĪĦáĭµ
Ġáī¶
áĪĵ
Ġáĭ«áĭµáĪŃáĮī
ĠáįĪáĮ£áĬķ
Ġáĭ¨áĪļáī³
ĠáĪĺáĪµáĪĺáĪŃ
ĠáĬłáī£áĪĭáīµ
ĠL
Ġáī¥áī¸
ĠáĭŃáĬĵáĮĪ
áĮ¥áįį
áĬĲáī±áĬķ
áĬķáĭ´
Ġáīłáī°áĪĺáĪ³áĪ³áĭŃ
ĠáĬ¥áĬĲáĪ±áĬķ
ĠáĪĪáĪģáĪīáĪĿ
ĠáīłáĪĿáĭµáĪŃ
ĠáĬłáīħáĪĿ
Ġáĭ¨áĪĿáĬĵ
ĠáĮ¦áĪŃáĬĲáīµ
ĠáĪįáīµ
ĠáĪĪáĪ«
ĠáĭĪáĮĪ
ĠáĪ»
áĪĸ
áĪµáī¡
áĭ°áĪ¨áĪ°
áĪĭáī¸áĭįáĪĿ
ĠáĪĺáĬķáĮĪáĭ¶áī½
ĠáĪ°áĮ¥
áĬ«áī£áī¢
ĠáĬŃáĪŃáĪµáī¶áĪµ
ĠáĪģáĪĭáī½áĬķáĪĿ
áĪ´áĬķ
ĠáĪĺáĪ°áĪ¨áīµ
áīħáĪŃáī¥
áĮĭáĪļ
ĠáĬłáĪĿáĪµáīµ
ĠáĬłáĭŃáĪĺáĪµ
ĠáĪļáĬĴáĪµáīµ
ĠáĪĺáĪĪáĭ«
Ġáĭ°áĪµáī³
ĠáĮ¨áĪĿáĪ®
áĪµáĬĵ
áĭ°áĮĭ
áĬ¨áī³áī°
Ġáī¤áī°áĪ°áī¥
Ġáĭ¨áĬ®
ĠáĬķáĮįáĭµ
áĪŃáĪĥ
ĠáĬ¨áĪį
ĠáĭĿáīħ
ĠáĪħáĭŃáĭĪáīµ
ĠáĪµáĪįáĬŃ
ĠáĬŃáī¥áĪŃ
ĠáĭŃáĪĭáĪī
ĠáĪ°áĭĵ
ĠáĪĢáĪ³áī¥
áĪ³áī½
áĬĽáĪī
ĠáĮįáĪįáĮ½
ĠáĬłáīłáī£
áī³áĬķ
áĪĥáĪĪáĪģ
ĠáĪĺáī¶
ĠáĪ°áī¥
ĠáĬłáī¥áĭĽáĬĽ
ĠáĬŃáįī
áĪ«áĪŃ
áĮłáĪĭ
ĠáīłáĪĽáĭµáĪ¨áĮį
áĭ°áĪŃáĮĪáĭį
áĪ»áĪ»áĪį
áĪĭáĬķáĭµ
áĭĪáĪŃ
áĭĸ
am
ĠáĬ¥áĬĲáĪŃáĪ±áĪĿ
ĠáĪ²áĪī
ĠáĮĪáīłáĭ«
ĠáĬ¨áĪĭáĭŃ
áĭĿáĬĵ
ĠáĬłáĭįáīĥáĪĪáĪģ
áįĸáĪŃ
Ġáĭ¨áī¤áī°
áĮ¤áĬĵ
ĠáĪĺáĬŃ
áĪĿáĪ¨
ĠáīłáĮī
ĠáĬ¥áī½áĪĭ
ĠáĪĺáĭĭ
ĠáĪłáĪ«
ĠáĬ¥áĬķáĭ°áĪĽ
áĬªáĭ«
ĠáīłáĪĺáĪĨáĬĳáĪĿ
ĠáĪĺáĪįáĬŃ
áī¡áīµ
Ġáī°áĪ³
ĠáĬłáī£áĪį
ĠáĮ¥áĪ¨áīµ
ĠáĪĺáĮ¥áįİ
áĬķáīĥ
Ġáĭ¨áĬ¤
áįĪáĬķ
áįĪáĪįáĮĪáĭį
áīĢáĪį
ĠáĬĥáĪĭáįĬ
ĠáĬłáĮĭáĮ£áĪļ
ĠáĭĿáĮįáĮģ
áĬ¨áī£
áī¡áĬķ
ĠáĪĺáĮ»
ĠáĬ¥áĮįáĭļáĬłáī¥áĪĶáĪŃáĬķ
ĠáĪĪáĪĽáĭĪáīħ
áĬķáĮī
ĠáĮįáĬķáī£
ĠáīłáĪĺáĬķ
ĠáĪĺáĪįáĭķ
ĠáĬĥáĭŃ
áīĢáĭ°
ĠáĪĺáĮĪ
Ġáĭ¨áĬ¥áĪŃáĪµáĭİáĬķ
áīłáĪ¨áĪ°áī¥
áĮįáĬķ
Ġáīłáīħ
áĪªáīµ
áĬ¸áĭį
ĠáĬŃáĪµáī°
áĬ¨áī°áĪį
Ġáĭ¨áĬ¢áīµáĭ®áĮµáĭ«
áĪĦáĪŃ
ĠáīłáīħáĪŃáī¡
ĠáĪķáĭĿ
ĠáĪĿáĪŃáī¶áī½
áĬĲáīł
ĠáĬ¨áĮ¥
ĠáĬ¥áĭ«áĪĪ
ĠáīłáĬ¥áĭįáĬĲáīµ
Ġáīłáī°áĪĪáĭŃáĪĿ
áīĢáĪŃáī¥
ĠáĪ°áĪĽ
ĠáĬ¥áī½áĪĭáĪĪáĪģ
ĠáĪĪáĪĽáĭ¨áīµ
ĠáĭŃáīł
ĠáĭĪáĭ²áĭ«áĭį
ĠáĬŃáįįáĪİáī½
ĠáĪĪáĪĺáĪĨáĬķ
áĪĬáĭ«
áĬķáī°áĪŃ
ĠáĪĨáĬĹáĪį
áĮ¦áī½
ĠáĪ¶áĪµáīµ
ĠáĪ«áĪ±
ĠáĪķáĭĿáī¡
ac
Ġáĭ¨áĪĢ
ĠáĪĿáĬķáĭµáĬĲáĭį
áĪĪáĮĭ
áīĢáĮ¥áĪĪáĭį
áĪĺáĬĳ
ĠáĭĪáĪµ
áĬĵáĪī
ĠáĬ¥áĬĵáīµ
áĮ¥áĪ¨
ĠáįĮ
áįĶ
áĬ¨áĪĭáĬ¨
ag
ĠáīµáĪŃáĮīáĪĿ
Ġáĭ¨áīĢáĪ¨
Ġáī¥áĭĻáĭįáĬķ
Ġáī±
áī½áĬĭáĪĪáĪģ
Ġáī°áĭĭ
áĪĻáīµ
Ġáĭ¨áĬłáĭ¨áĪŃ
Ġ<
Ġáī°áĬĲ
Ġáĭ´
áĪĨáĬĲáĭį
áĬ¥áĪĿáĪ®
ex
Ġáĭ³áĪŃ
áĪ·áĪį
áĭ«áī¸áĭį
ĠáįķáĪ®áĮįáĪ«áĪĿ
Ġáĭ°áĪµáī°áĬĽ
ĠáīłáĪĢ
ĠáĬłáĪµáĭ°áĪ³áī½
ĠáĮįáĪĿáĮĪáĪĽáĭİáī½
ĠáīµáĬŃáĬŃáĪį
ĠáĬłáĭ°áĪŃáĮĭ
ĠáĬłáīĭ
one
áĪ³áĬķ
ĠáĬłáĪµáī¸áĮĭáĪª
ĠáīłáĬ¥áĪŃáĪ±
ĠáĬłáĭ¨áĪŃ
áĮłáīłáīĢ
áĭĪáĮ¡
áĭķáĬĸ
ĠáĪļáĭ²áĭ«
áĪĽáĪ½
áĪĦáĭ±
Ġáīłáĭ°áĬķáī¥
ĠáĪĺáįįáīµáĪĦ
áīµáĪŃ
ĠáĭĪáĪ«áīµ
áĪĶáĪ«áĭĬ
áĭµáĪµáīµ
Ġáĭ¨áĪļáĪĪáĭįáĬķ
áĪ«áĪĪáĪģ
ĠáĪģáĬĶáī³áĭİáī½
12
ĠáĭķáĭµáĪį
Ġáĭ¨áīµáĪĿáĪħáĪŃáīµ
ĠáīłáĬ¥áĬĶ
ĠáĬķáĮīáĪ¥
Ġáĭ«áĭ°áĪŃáĮĭáĪį
ĠáĬ¨áĬ¥áĪŃáĪ±
ĠáĪĺáĬĸ
áĭµáĪ¨áĪµ
áĪįáĭµ
ĠáīłáĬłáĮłáīĥáĪĭáĭŃ
ĠáĪ°áĪ«
15
ĠáĮīáĭ³áīµ
ĠáīĢáĭµáĪŀ
ĠáĪŀáīµ
ĠáįĸáĪĪáī²áĬ«
áĪ¨áįį
Ġ0
áĪ»áĪį
ĠáīłáĮİ
ĠáĬ¥áĬķáĭ°áĪĽáĭŃ
ĠáĪĿáĪįáĬŃáīµ
ĠáįįáĮ¥áĬĲáīµ
áĭ³áĪĿ
áĭ¢
áĬĶáīµ
ĠáįĪáĮ½
ĠáĬĲáĭĭ
áĮĪáĪ«áī½áĬķ
Ġáī°áĮĪáī¢
et
áįı
áĪīáīµáĬķ
áī³áĪĿ
áĪ°áĪĽáĭŃ
ĠáĪµáĪħáī°áīµ
ĠáįįáĮ¹áĪĿ
ĠáĭĪáĮ£áīµ
ĠáĬłáĪįáī»
ĠáīµáĪ«
áĮ¨áĬĲ
áĪ¬áĬķ
ĠáĭµáĪĿáįħ
Ġáīłáī°áĪĪáĭ«áĭ©
ĠáĭŃáĭĪáĪµ
Ġáī¥áĪŃáĪĥáĬķ
ĠáĭįáĮ¤áī³áĪĽ
ĠáįĭáĭŃ
áĪŀáĬ¨áĪŃ
Ġáĭ¨áĪļáįĪ
ĠáĭŃáĭŀ
áĪĺáĪĪáĬ¨áīµ
ĠáįĪáī°áĬĵ
áĪĤáī¥
Ġáī³áĭįáīĥ
ĠáĬ¨áĬ¥áĬĶ
áĭĭáī¸áĭįáĬķ
ĠáĪĪáĪĺáįį
áĪ¨áĮħáĪĿ
ĠáĪĽáĪħáīłáĪ«áĭĬ
áĪĪáĭįáĬķ
Ġáĭ°áĮĭ
ĠáĪģáĪĪáī°áĬĽ
Ġ100
ĠáĮĥ
Ġáĭ¨áĬłáĬķáĭµ
áĭĭáĪĪáĬķ
áĪĮáĬŃáīµ
áīŃ
áī³áĭ°
Ġáĭ¨áĭŃ
Ġáīłáīĥ
ĠáĬłáĪµáī³áĭį
Ġáī°áĮĭ
ĠáĪģáĪĪáī±
ĠáĬłáĭŃáī½áĪīáĪĿ
áĪ«áī½áĬķ
ĠáīłáįĪ
áįĬáī±
ĠáīłáĭįáĪµ
ĠáĭµáĪŃáĮĬ
áĭ«áĭŃ
ĠáĮ¥áĬĵáīµ
Ġáĭ¨áĪļáĮĪáĬĻ
áįįáĪªáĬ«
ĠáĬłáĮłáīĥáĪĭáĭŃ
áĪ¨áī±
Ġáĭ¨áĭĭ
ĠáĮłáī¥
áī¥áĪ¨áī°
áĮĢáĪį
ĠáĬ¨áī³
áĭ¨áĪ©
áĪªáĭį
áĬŀáī½áĬķ
áĭ¨áĬķ
áĪĽáī¸áĭį
áĪŀáĬŃáĪ«áĪ²
ĠáĭĪáĮĪáĬķ
áĪĸáĭĭ
Ġáīłáĭĺ
áĪ°áĪį
ĠáĬłáĭ°áĪŃáĮĭáĪĪáĪģ
áĮ£áĮ«
Ġáĭ°áī¥
ĠáĪįáĭ©áĬĲáīµ
Ġáĭ¨áī°áĬĲáĪ³
ĠáĪĺáĬķáĮįáĪ¥
Ġáī½áĪİáī³
Ġáī¦áī³áĭİáī½
Ġáĭ¨áĮī
áĮłáĬĿáĬĲáīµ
Ġáī´áĬŃáĬĸáĪİáĮĤ
ĠáĬłáĪĪáī¥áĭİáīµ
ĠáĪ°áĪĿ
áĪ«áĪĪáĬķ
áĭŃáĪħ
ĠáīłáĪģáĪĪ
áĪ¨áī³áĭĬ
áĮĪáĪ©
ĠáīłáĮŃáĪ«áĪ½
áĪµáĪĿ
ĠáĮ¥áĪŃ
ĠáĬ¥áĪ±áĪĿ
ĠáĪĿáĬŃáĬķáĭ«áī¶áī½
Ġ21
Ġáĭ±
áĭĪáĪ°áĬĲ
áĪĺáĬĲ
ĠáĭĪáĬķáĭ¶áī½
áĮĬáĭľáĭį
áĪ®áįķ
ĠáĭĪáĭ²áĪħ
Ġáī£áĪĪáįĪáĭį
áīłáĪ¨áī³
ĠáĬ¥áĪµáĪ«
áĭ³áĬķáīµ
áĬ¨áĪ¨
ĠÂ
ĠáĬ¥áĭµáĪį
áĬĵáĭŃáīµ
áĮĵáĭĿ
Ġáĭ¨áĭįáĮŃ
ĠáĬ¥áĮįáĪŃ
áī³áĪĪáĪģ
ĠáĮĪáī¢
áĭŃáĪĽáĬĸáīµ
ĠáĬ¥áĬķáĭ²áĪĨáĬķ
Ġáĭ¨áĪļáĪĨáĬĳ
ĠáįįáĪ¬
Ġáĭ°áĪħáĬĵ
áĬĵáĬķ
Ġáī£áĪķ
áĭĺáĮĭáĮħ
Ġáī°áĮłáīĥáĪļáĭİáī½
id
ĠáĬłáĪįáįİ
áī¥áī»
áī¶áī»áī½áĬķ
ĠáĪĪáĪį
Ġáĭ¨áĪļáĪ°áĮ¡áĭĭáī¸áĭįáĬķ
áĮĭáĭĬ
áĬĽáĭįáĬķáĪĿ
Ġ22
ĠáĪ°áĬĲ
Ġáĭ¨áĪĿáĪŃ
ĠáīłáĪ«áĪ±
ĠáĬłáĭŃáĭ°áĪį
Ġáĭ¨áĪļáī½áĪī
ĠáĬ«áĪŃ
ĠáĬ¬
ĠáĪĪáĪĺáĮĢáĪĺáĪªáĭ«
Ġáĭ¨áĪļáĪĨáĬķ
ĠáĬłáĭĭ
ĠáĬ¥áĪŃáĭ³áī³
ĠáĮ³
ĠáĬ¨áĪĨáĬĳ
áĪµáĬŃ
Ġáīłáī¥áĭĻ
Ġáĭ«áĮįáĬĻ
ĠáĭŃáĮłáĭŃ
ĠáīĥáĪĭáīµ
ĠáīłáīĢáĮ¥áī³
áī£áĪĪáĪģ
ĠáĬłáĭµáĪ«
áĪĭáĪĪáĪģ
áĬķáĮįáĪĬáĭĿ
áĪ³áī½áĬķ
ĠáĬłáĪµáī°áĭĭ
ĠáĭŃáĪ¨áĭ³
Ġáī³áĪĭ
ĠáĪķáĭŃáĭĪ
ĠáĬĲáĮ¥áī¥
ĠáĪĺáĪ¬áīµ
ĠáĭŃáĮĢáĪĿ
ĠáĪģáĪĮ
ĠáĪįáĪĽáīµ
ĠáīłáĬ¥áĬĽ
Ġáī¥áĪį
áĭĲ
áįĬáĭİáī½
áī¸áĭī
ĠáĪĺáĮĭ
ĠáĬłáĭŃáī»
áĭĿáĪĿ
áĭĪáĮĪáĭµ
áĭ¨áīħ
Ġáĭ¨áĪµáĪ«
áĮŃáīµ
ĠáĮīáĭ³áĭ©
ĠáĬ¨áĪĮáĪİáī½
11
ĠâĢºâĢº
áĪĺáĬĵáĭĬ
Ġáĭ¨áĪĥ
Ġáĭ¨áĭµáĪŃ
ĠáĪĿáĭµ
ĠáĪĥáĪ³áī¥
áĪĭáĬ«
áĭĪáīħáī±
ĠáĭŃáīĢáĮ¥
ĠáīłáĪļáĭ«
áĪ¨áĬķáĪ³áĭŃ
ĠáĭŃáī³áĭĪ
ĠáĬķáī¥áĪ¨áīµ
ĠáĬłáĬķáīĢ
áĭĺáĮĭáĮĢ
Ġáī³áĭĭáīĤ
ĠáĬ®áĪļ
áĪ½áĬ¨áĪŃ
áĭ±áĬķ
Ġáĭ°áĪ¨
Ġ23
ĠáĬ¨áĬ¥áĬĲáĭļáĪħ
áĬ¨áĪĭáĬ¨áĪį
áī¢áīµ
áĪµáī¶
Ġáĭ¨áī°áīĢ
áīłáĪµ
áĪŃáĪĺáĬķ
ĠáĭŃáĭĺáīµ
áĪİáī¹
Ġáĭ¨áī¤áīµ
ĠáĮĪáī£
áĪ½áīµ
ĠáĪĺáīĨ
Ġáīłáĭĭ
áī³áī½áĬķáĬķ
áĭĺáĭį
áĪ¾áī½
áīĢáĬķ
ay
áĬķáĮįáĭ²áĪħ
ad
ĠáĬłáĪĺáĪĪ
ĠáĪĻáĭļáīĥ
áĪĲáĬķáĪµ
áĪĮáīµ
ĠáīĨáĬķ
áī³áĪī
Ġáĭ¨áĬ¦
ĠáĪĽáĬħ
ĠáĬłáĪĭáĪħ
ĠáĭŃáĪĦáĬķ
Ġáĭ¨áĪ½
áĪ«áī½áĪģ
ĠáĮ¨áĭĭáī³áĭİáī½
áĬ¨áĬĵáĭĪáĬķ
Ġáĭ¨áī°áĭĪáĪ°áĬĲ
Ġáĭ¨áĪļáĭ«áĪ³
ĠáīµáĭįáĪįáĭµ
Ġáĭ¨áīħ
ĠáĬłáĭŃáĪĨáĬķáĪĿ
áįįáĬķ
áĪĺáĪĪáĪ±
ĠáīłáĪĿáĬķ
áīĭáīĭáĪĿ
áĬĵáĮĪáĪ©
ĠáĪ¥áĪŃáĭĵáīµ
Ġáĭ¨áĬĥ
ĠáĬ¨áĬ¥áĬĵáĬķáī°
ĠáĬłáīħáĮ£áĮ«
ĠáĬ¥áĪħ
ĠáĪĪáĪĿáĬķáĭµ
ĠáĮħ
áĭŃáĪĿ
as
áĪµáī´
áĬķáĭĿ
áĪĺáĪ©
Ġ>
ĠáĭŃáĪĺáĮ£áĪį
áĮįáī£áĪŃ
ĠáĭŃáįĪáĪįáĮĭáĪį
ext
Ġáĭ¨áĭĪáĭ°
ĠáīłáĪĺáĮłáīĢáĪĿ
Ġáĭ¨áī°áĪĪáĪĺ
ĠáĬłáĮĪáĬĺ
21
áĮĬáĭ«
áĪĻáĪŃ
ĠáĪĪáĬ¥áĬĽ
Ġáī°áĬ¨
áĬĵáĭŃáīµáĭµ
ĠáĪ«áĪ±áĬķ
Ġáĭ«áĪĪáīłáīµ
ĠáĪĪáĪµ
ĠáīłáĬłáĪľáĪªáĬ«
áĪŁáĪį
áĪŀáĪĭ
ĠáĪµáĮ¦
Ġáī°áĪ¸
ĠáĪĽáĪµáī³áĭĪáīĤáĭ«
áĪıáī¸áĭį
áĭ³áĪī
áĮĲ
áĭĪáīĢ
áĬĸáĪ¨
ĠáĪĪáĪħ
ĠáĬłáĪĪáĪĿ
ĠáĭĪáĭ°áįĬáīµ
ĠáīµáĪĿáĪħáĪŃ
áĮ¨áīµ
ĠáĬ¨áĬĲ
áĭµáīħ
áĬĴáīµ
ĠáĪĻáĬ¨áĪ«
áĭ«áĮŃ
ĠáīłáĪļáĪį
áĭİáī¹áĬķ
áĪłáĪ©
ĠáĬłáĮĪáĪ®áī½
ĠáĪĺáĭįáĪ°áĭµ
áįįáīµáĭĮ
Ġ50
ĠáīµáĬ¥
ĠáĪµáĪĿáĪĿáĬĲáīµ
ĠáīłáĬ¢áīµáĭ®áĮµáĭ«
Ġáĭ¨áĮĪáĬķáĭĺáī¥
ĠáĪļáĪµáīµ
ĠáĭŃáīħáĪŃáī³
ĠáĪĺáĬ¨áĪ«
Ġp
áĮłáī£
Ġáī°áĮįáī£áĪ«áĭĬ
ĠáĬŃáī¥
áī½áĪĿ
ĠáĪĿáĭķáĪ«
áĬĲáĪ°
áĬŃáī°áĪŃ
áĪĿáĪĿ
ĠáĬłáĬķáĭ²
áĭ°áĪ«
ĠáĭŃáĮĪáĬĽáĪī
Ġáįħ
18
ĠáĬ¥áĬķáĭµáĬķ
áĪµáī°áĬ«
ĠáĬŃáĪŃáĪµáī²áĭ«
áĭįáĬĵ
Ġáĭ¨áī°áĪ»
ĠáĪĿáĬķáĮŃ
áĬŃáĪ²
ĠáĭĽáĪ¬áĪĿ
ĠáĬłáī¥áĪ®
Ġáĭ«áĪĭáī¸áĭįáĬķ
Ġáĭ¨áĬ¥áĮįáĭļáĬłáī¥áĪĶáĪŃáĬķ
áĪµáī²
áī¥áĪħ
ĠáĭįáĮª
Ġáĭ¨áĪļáīĨáĮłáĪ©
ĠáĪµáī´
ĠáĪĺáįĪ
ĠáĪħáĭŃáĭĪ
ĠáīłáĪµáī°áīĢáĪŃ
ĠáĭįáĭŃáĭŃáīµ
ĠáĪĽáĮį
ed
áĬłáĭŃ
áĬ¨áĬķ
ĠáĬłáĬķáīº
Ġáī¥áĪıáĪį
ĠáĪĺáī¼áĪĿ
ĠáĬłáĭŃáī»áĪįáĪĿ
ĠáīģáĪŃ
ĠáīĨáĬķáĮĨ
Ġáĭ¨áī´
Ġáī¥áĪĭ
ĠáīłáĬ¥áĬĲáĭļáĪħ
áĬ©áĬĿ
ĠáĬłáĭµáĪŃáĮĪ
ĠáĬ¥áĬĽáĬķ
áĪĪáĮ¥
ĠáīłáĪ°áĭį
ĠáĪĽáĬķáĬĽáĭįáĬķáĪĿ
Ġáī¢áĭ«
ĠáĬłáĪµáī°áĭ³áĭ°áĪŃ
áī¾
áĪĪáĪ½
ĠáįĴ
ĠáĬ¥áĬ©áĪį
ĠĠ
ĠáĬłáįįáĪªáĬ«
áĮłáĬĿ
Ġáĭ¨áī°áĭĪáĪ°áĬĳ
ĠáĬłáĭŃáĮĪáī£
ĠáĬ¨áĪģáĪīáĪĿ
ĠáĬ¥áĬĲáĭļáĭ«
ĠáĪĿáĪįáĬŃ
áĭ³áī¤
áĬ¨áĪĭáĬ¨áĭ«
ĠáĬ¥áĬķáĪµ
Ġ)
áĪĭáĪĭ
áĪĲáĭŃ
áĪĪáĬĿáĪĿ
áĬķáĬĲáīµ
Ġáī£áĪĪáī¤áīµ
áī»áĭŃáĬĵ
ĠáĮīáī£
ĠáĪĺáĮłáīłáīħ
áĪģáįį
áįīáĬķ
áĬŃáĪŃáĪµáī²áĭ«áĬķ
ĠáĬ¨áĭį
ĠáĬ¨áĪµ
Ġáī¥áĭĽáīµ
ĠáĪĪáĭĪ
ĠáĬ¨áĬ¥áĬĽ
ĠáĪĪáĬłáĬķáĭµ
ĠáĪįáĮģ
Ġáĭ«áĭįáīĥáĪį
Ġáī°áĬķ
ĠáĮ¥áĪª
Ġáī°áĪŀáĬŃ
áĭ©áīµ
Ġáĭ¨áĭµ
ĠáĬłáĬĲáĪµáī°áĬĽ
áĪ³áĪ°áī¥
áįĪáĪĪáĮĪ
ĠiP
Ġáĭ³áĭĬáīµ
ĠáĪĺáĪ¸
ĠáīłáĭĿ
ĠáĪ½áĪį
Ġáī°áĭĪáĭ³áĮħ
Ġáĭ«áĭįáīĥáĪī
ĠáĪī
Ġáĭ¨áĭķ
ĠáĬ¥áĬķáĭ°áĪĮ
áī£áī¸áĭĭáĪį
ĠáĪĢáī¥
Ġáĭŀ
áĪģáĪī
Ġs
Ġáī°áĪµáĪĽáĪļ
áĭĺáĮĪ
Ġáī³áĪª
Ġáī«
Ġáĭ¨áĬĲáīłáĪ©
áīĢáĭĭáĪį
ĠáĭľáĮİáī½
áĪĭáī½áĬķ
ĠáĪĿáĪŃáĪĺáĪ«
áĪħáĪŃ
áĬ£
áĬķáī£
áĪĪáĭĭ
ĠáĮ¥áīłáī¥
ĠáĬłáĬĵ
ĠáĬ¥áĪµáī²
áĭ³áĮħ
ĠáĪĺáĭµáĪ¨áĬŃ
áĬĲáĬĽ
ĠáĭŃáĮłáī¥
ĠáĪµáī³
áĬĵáĮĪáĪ¨
ĠáĪĪáĭļáĪħáĪĿ
Ġm
ĠáīłáĭĵáĪį
ĠáĪĪáĪĽáĬķ
ing
ĠáĪĦáĭ°
áĬ¨áĪĽ
áĪįáĪµ
áĬŃáī¶
áī§áĪį
áĭ«áĪī
áĬĲáĪ£
áĬķáĮ«
áĪµáī¡áĬŃ
áĭ³áĬĵ
ĠáįĪáĪį
áĭ°áĪ°
áĪ³áĬ«
ĠáĬłáĪ«
ĠáĪ°áįĬ
ĠáĪĪáĪĺáĪµáĮłáīµ
ĠáīłáĬ¥áĪŃáĪµáĭİ
ĠáįĪáĮ½áĪŀ
ĠáĬ¨áīł
áįķáĪ®
áī£áī½áĪģ
áĮ¾
ĠO
áĪŃáī¶
ĠáĬ©áī£áĬķáĭ«áĭİáī½
áĭİáī»áī½áĬķ
ĠáĭĪáĪ°
ĠáĪ³áĪĿáĬķ
ĠáĬ¥áĬķáĭ°áĪļáī½áĪį
ĠáĪĺáĪĨ
Ġáĭ°áĪħáĬķáĬĲáīµ
áīµáĪµ
áī³áĪ¨
áĭ°áĬĽ
14
ĠáĭĪáĭ²áĭ«áĭįáĬĳ
ĠáĪĽáĮ¥
áĪ²áĭ«
13
Ġáĭ¨áĬĶ
ĠáĪĺáĬĵáĮĪáĪŃ
áĪĪáīħ
Ġáĭ¨áįĢ
ĠáĬłáĮĪáĪį
ĠáīłáĪ½áī³
áĬ«áĪª
ĠáĬ¥áĬķáĭ°áĪĿáīµ
áī³áĪĪáĬķ
áĭĳ
ĠáĪĺáĪĨáĬĵ
áī·áĬķ
Ġáĭ¨áī°áī£
áĪĪáĪģáĪĿ
áīĨáĮ£áĮłáĪŃ
áĪģáĭµ
ĠáīĢáĮł
Ġáī°áĪŀáĬŃáĪ®
áĪ¨áĬĽ
ĠáĪĺáĮ½
áĭ¨áĪ©áĪ³áĪĮ
áĪ³áĬĿ
áĪ³áĪī
ĠáĪ°áī£áīµ
Ġáĭķáĭį
ĠáĪĽáĪŃ
ĠáĮįáī¥áĪŃ
ĠáĮīáĭµ
Ġáĭ¨áĪĽáĭ«
ĠáĬ¢áĬķáĭ±áĪµáīµáĪª
áįĢáĪĿ
ĠáĭŃáįĭ
áĪ³áī½áĪģ
áī»áī½áĪģ
áĮłáĪ¨áĭį
áĬĵáĭĬ
áīĢáĭµáĪŀ
ĠáĬ¨áĬ¥áĬĲáĪŃáĪ±
ĠáĪĺáĪµáĪ«áīµ
ĠáīģáĪįáįį
Ġf
ĠáĭŃáĪĨáĬĵáĪī
Ġáĭ¨áĮ¤áĬĵ
ĠáĬ¥áĭĪáĭ³
ĠáĬłáĭ°áĪ¨áĮĪ
ĠáĪĽáīħáĪ¨áī¥
áĬŃáī¥
ĠáĮįáĭ´
áĭ«áīĤ
ĠáĪ°áĭŃ
ĠáīłáĬ¨áįįáī°áĬĽ
Ġ#
ĠáĪĪáĭĺáĪĭáĪĪáĪĿ
áĪ®áĬķ
ĠáĭĭáĬĵáĭį
Ġáī°áīĢáī£áĭŃ
Ġáĭ¨áĪĺáĪµáĪĺáĪŃ
Ġáĭķáīĥ
200
Ġáįįáīµ
Ġáī²
áĪĺáĪĪáĬ¨áī±
ĠáĭĪáĭ«áĬĶ
áĮīáīµ
áĮĪáĬĵáĬĺáīµ
áĪ¸áīµ
áĪĿáĮ£áīµ
ĠáĬłáĪ¨
ĠáĬ¥áĭŃáī³
áī¿
is
áĬĳáĪĿ
áĬķáĭ¶áī¹
áĪĪáīłáīµ
áĬķáīĥáīĦ
el
Ġáĭ¨áĬ¥áĪµáĪ«áĬ¤áĪį
ĠáīłáĭĪáīħáī±
áĭįáīĥáĪĪáĬķ
ĠáĭŃáĬ
áĮ¾áī½
Ġ26
Ġáī°áĮ½áĭķáĬĸ
áĬĲáĮĪáĪŃ
áī¸áĭĭáĪĪáĪģ
áĪµáīµáĬĵ
áĪ¸áĬĲáįį
ĠáĪµáĬķáīµ
ĠáĪĺáĬĲáĪ»
ĠáĭŃáī°
áĪĪáī¥
áĬĭáĪĭ
áĪĪáīĢ
áĬłáĬķáĭµ
Ġáĭ¨áĪĪáīłáīµáĪĿ
ĠáĬłáĪµáĭ°áĬĵáīĤ
áĬ«áĪĦáĭµ
Ġáī°áīĭáĪĽáīµ
ĠáĪĺáĪįáĬ¥áĬŃáīµ
ĠáīłáĪķáĭŃáĭĪáīµ
ĠáįķáĪ®áĮĢáĬŃáīµ
ĠáĪĽáĪ°áī¥
Ġáĭ¨áīħáĪŃáī¥
Ġáĭ¨áīģ
Ġáĭ°áĪĿ
áĪ«áĭĬáīµ
Ġáĭ°áīĤáīĥáĭİáī½
ĠáĪĽáĪ¨
ĠáĪĺáĬķáįĪ
áĬķáī²
áĮįáĭ³
Ġáĭ¨áĪĨáĬĲáĭįáĬķ
ĠáĪĽáī³
áĪ¨áįįáīµ
áĪĭáĪĪáįį
ĠáĬ«áĪįáĪĨáĬĲ
ĠáĪĪáĮ¥
áĬĵáĪĪáĪģ
áĭ°áĪµ
áĬķáĮįáĪ¥áīµ
áĪŀáĬķ
ĠáĬłáĬķáī°áĪĿ
áĪĺáĬĿ
ĠáĪĬáĭ«áĪµ
ĠáĬ¥áĬķáĭ°áĪļáī»áĪį
ĠáĪĺáįįáīµáĪĶ
áĮĢáĪĺáĪ¨
áĮ§áĪį
áĭŁ
Ġáī¥áĭĻáĪĿ
áĪĪáĪĿáĬķ
ĠáĭŃáĭį
Ġáĭ«áĪĿ
áĭ«áĭ«áĭĺ
áĬĲáīłáĪ©
Ġáĭ¨áī°áĪ°
ĠáĪĢáĪ³
áĪµáī°áĭĭ
ĠáĪļáĬĵ
áĪ¥áĪŃ
ĠáĪĪáĪĽáĪĪáīµ
ĠáĮłáĭ¨
ĠáĭµáĪŃáĮħáī¶áī½
ĠáīłáĪ³
ĠáīłáĪĥ
Ġáĭ¨áĭ©
Ġáĭ«áĭ°áĪŃáĮĪ
ĠáĬłáĭŃáĭ°áĪĪáĪģáĪĿ
ĠáĬ¥áĬķáĭ²áĭ«áĭįáĪĿ
ĠáĬŃáįįáĪĪ
áī£áī¸áĭįáĬķ
Ġáĭ¨áĪĺáĬķ
áĪĽáĪī
áĭĺáĮĭáĮĢáīµ
ĠáĬłáĭŃáīĢáĪŃ
Ġáĭī
áĬĵáĮĪáĪ¨áĭį
áīĥáĭĪ
ĠáĭĿáīħáī°áĬĽ
áĮįáĭļáĬłáī¥áĪĦáĪŃ
ĠáĬłáĮłáīĥ
ĠáĮłáĭŃ
ĠáīłáĪĮáĪİáī½
Ġáĭ«áīĢáĪŃ
ĠáĪħáĮį
áĬķáĪ°
Ġáĭ¨áĪļáĭ«áĭį
áĬķáĭ°áĪŃ
ĠáīłáĪĺáĮ¨áĪ¨áĪ»áĪĿ
ĠáĬłáĬ«áĪĭáīµ
ĠáĬ¥áĮį
ĠáĬłáĮł
áĮ«áĬķ
ĠáĪªáįĸáĪŃáīµ
ĠáĮ¥áīłáīĥ
áĬŃáī±
áĪµáįĴ
Ġáĭ¨áĮįáī¥
áĭ°áĭµ
Ġáī£áĪĪáįīáīµ
Ġáī¥áĪĶáĪ«áĭĬ
ĠáĭŃáĪµ
16
ĠU
áĬĴáĭ«
ĠáĪ¨áĮĪáĭµ
hone
ĠáĭŃáī£áĪĭáĪį
ĠáĪģáĪīáĬķ
Ġáīłáīģ
ĠáĭįáĪµ
ĠáĬłáĮĪáĪįáĮįáĪİáī¶áī½
ĠáĪĺáĪĿáĪ¨áĮ¥
áĪ³áĪµ
ĠáĬłáĭİáĬķ
áĪ±áīµ
áĪ«áĬĴ
áĪŃáīħ
ĠáĬłáĪħ
Ġ40
ĠáĬ¨áĭļáĪħáĪĿ
ĠáĪĺáĪįáĪ¶
áĮİáī¥
áįıáĪį
ĠáĬ«áĪī
Ġáī°áĬĵáĮįáĪ¨áĭĭáĪį
ĠáĪĪáĪķ
ĠáĭµáĪĿáĮ½
ĠáīħáĬķ
Ġáĭ°áī¥áĭ³áī¤
áĭįáĪİáĪµ
ĠáįĬáĪįáĪĿ
ĠáĪĿáĪµáĮĭáĬĵ
áĬłáĭ´
Ġáī£áĪĪáī¤
).
ĠáīłáĮ¥áĪ©
ĠáĪ¶áįįáīµáĭĮ
ĠáĬ¨áĬ¥áĬķáĮįáĭ²áĪħ
ĠáĬĭáĪĭ
ĠáĬłáĬķáĭ´
áĬĸáĪŃáĪĿ
áĮ¦áĪŃ
áĪ°áī¦
ĠáĬĽ
Ġáī³áĭį
17
ĠV
áĬ¥áĬĽ
ĠáīłáĪ«áĪµ
Ġáĭ«áĮĪáĬĽ
ĠáĬ¥áĭµáĪľ
30
Ġáĭ¨áĪħáĭĿáī¥
ĠáĬłáĭĪ
Ġd
Ġáī£áĪħáĪª
ĠáĬĴ
ĠáīłáĬ¥áĮħ
ĠáĮĢáĪĺáĪŃ
áĭĪáĪĵ
ĠáĪŃáĭķáĪµ
ĠáĬ¨áĭĽ
ĠáĬłáĭ²áĪ±
áĮłáĭŃáīħ
áĮ«áĭį
áĮĪáī£áīµ
áī£áīµáĪĿ
Ġáĭ¨áįĮ
ĠáĬłáĭµáĪŃáĮĪáĭį
áĪµáīłáĭį
áĮĪáĬķáī£áīµ
ĠáĬ¥áĬĵáĭįáīĥáĪĪáĬķ
ĠáĬłáĭ°áĪ¨
ĠáĬĲáĮĭ
áĪłáĪ¨áī°
áĭĺáĭĿ
ĠáĮĢáĪĺáĪ¨
áĭĽáĪ¬áĭį
áĮ£áĭ©
áĮĪáī£áĭį
Ġáī¥áĭĻáĭİáī½
ĠáīłáĪĽáĪµ
Ġáĭ«áĪµáįĪáĪįáĮĪ
ĠáĪ°áĪĽáĭŃ
ĠáĪĺáĭ°áīłáĬĽ
ĠáĪģáĪĪáī°áĬĽáĭį
ĠáĮĬáĭľáĭį
áĮłáĬĵáīĢ
ĠáĪĺáĪ¥áĪ«áīµ
áĪĬáĬŃ
Ġáĭ¨áĮįáĭµ
Ġáī¥áĪĪáĪħ
áįĥáĬĵáīµ
áĪįáīłáīµ
Ġáī°áĮ¨
ĠáĬłáĬķáĭµáĪĿ
ĠáĮ¥áīĥáīµ
áĭĪáĪ°áĬķ
ĠáĬłáĭ«áĭįáīħáĪĿ
ĠáĪ¬
ĠáĪĤáĭ°
ĠáĭŃáĬĸáĪ«áĪį
ĠáĪİ
áĮĢáĪĿáĪŃ
áĮ£áī¸áĭį
áĭ°áī¥
ĠáĭĪáĪ³áĬĿ
ĠáĬŃáīµ
áĬ«áĬ¨áīµ
áĪ³áĭį
ĠáĪĺáĭ³
áī£áī£
ĠáĪµáĪŃáĭĵ
Ġáĭ«áĪīáīµáĬķ
áįĪáĪ¨
áīĨáī½
ĠáĬ¨áī°áĪŀáī½
áĭķáĪį
ĠáīłáĮįáĪįáĮ½
ĠáĪģáĪĮáĪĿ
ĠáĭĪáĮ£áī¶áī½
Ġáĭ¨áĪĪáĬĿáĪĿ
Ġáīµáī½áĪĭáĪĪáĪħ
áĬĸáĪ«áī¸áĭį
áĭĽáĪį
ĠáĬªáĭ³áĬķ
ĠáĮłáĪĭ
áĪģáĭ³
áĬĵáįĬ
áĭįáĭį
áĪµáĪĬ
áĬłáĬķáī°
ĠáĪħáĭĿáī¡
nd
ĠáĪ¨áĮħáĪĿ
ĠáīłáīĢáĬķ
áĪ±áĪĿ
ĠáĬ¥áĬĲáĪ±áĪĿ
Ġáīłáī¤áīµ
ĠáĬ¥áĬķáĭ°áĪĨáĬĳ
ĠáĬłáĪĪáī¥áĬĿ
áĬķáī°áĪŃáĬĶáīµ
áĮīáĪŃ
áĪĺáĮ£áĭį
Ġ28
ĠáĮ¡
ĠáĭįáĪĤáī¥
ĠáĬłáĪ³áĪį
Ġáīłáĭ©
áĬļ
áĬĲáī³áī¸áĭį
Ġáĭ¨áĪļáĮł
áī¼áĬķ
ĠáĪĽáĪµáĪ¨áĮĥ
áĪªáĪµ
ĠáĮ¨áĪ¨
ĠáĪĬáīĢ
ĠáĬŃáįįáīµ
ĠáīłáĪļáīĢáĮ¥áĪĪáĭį
ĠáĬłáĪįáī½áĪįáĪĿ
áĬŃáī¶áī½
áĬĵáĭ³
ĠáīĢáĪ¨
ĠáĪĬáĪĨáĬĳ
ĠáĪĪáĪĺáĮłáīĢáĪĿ
ĠáĪħáĭĿ
áĪ«áī¢
ĠáĬłáĬķáĭ²áīµ
áĭ¥áĬķ
Ġáīłáī¤áī°
áĮ¡áĬķ
áĭ³áĪª
áĭĺáĪĿ
áĭ·áĪį
ĠáīłáĪģáĪĪáīµ
ĠáĬłáĭ¨
Ġáĭ«áĪĪáĬķ
áĬķáĭ³áĬķáĭµ
áĮłáĭ¨áīħ
ĠáĪįáĪĿáĭµ
áĮĪáĪįáĮį
ĠáĪĺáĪĿáĪħ
áĬłáĭĬ
ðŁ
Ġáĭ¨áĬ¥áĪŃáĪ±
ĠáĪĽáĪħáīłáĪ¨áĪ°áī¥
ĠáĭĺáĪĺáĬĵáĭĬ
ĠáįķáĪ¬áĭļ
ĠáĬ¥áĪĺ
ĠáĬ¥áĭ«áĪī
áįĪáĮ¸áĪĿ
ĠáĬłáĪĪáī½
ĠáīĢáĪĪáĪĿ
Ġáĭ¨áĭ³
Ġáī°áĬ¨áīµ
áĬķáįĥ
áĮ£áĭį
ĠáĮĬáĭľáĪĿ
áĪĦáĭ³
áĮĪáĪ«áĪļ
ĠáĪ°áĭĵáī³áīµ
op
Ġáī¸
ĠáĮ»
ĠáĪĪáĪĺáĭį
ĠáĬłáī¥áĪ¨áĭį
ĠáĮ¥áĬĵ
áĬ¨áĪĿ
ĠáĭŃáĪĺáĪĪ
Ġáĭ°áĮįáĪŀáĪĿ
gle
áĪĪáĬĽáĭį
áĮ½áĪĲáįį
Ġáĭ¨áĪļáĪĨáĬĲáĭį
áĪ«áĭŃ
ĠáĪĺáĮłáĭ¨áīħ
Ġ$
ĠáĬ¥áĬĵáĭ°áĪŃáĮĭ
áĮĪáĬĵáĬĿ
áĪŃáĪ»
ĠáīģáĮ¥áĮ¥áĪŃ
Ġáĭ¨áĪļáī£áĪį
áĬ¨áĪ°áīµ
áĪ¨áĮĪ
Ġáĭ¨áĮĭáĪ«
Ġáĭ¨áĪĿáĮįáī¥
ĠáĭŃáĪŀáĬŃ
Ġáĭ¨áįĵ
áĪĪáĬĵáĪį
ĠáįįáĪĪáĮĭ
áī¥áĪį
áĪĮáīª
ĠáĬ¥áĭįáīĢáīµ
ĠáīłáĬ«
ĠáįĸáĪĬáĪ²
áĪŃáĪ½
áĭĭáĭķ
ĠáĮłáīħáĪĭáĭŃ
áĪĽáĪ«
ĠáĬ«áĪįáī°
Ġáĭ¨áĪļáĪĺ
áĮĪáĬĵáĬĽ
áĮ¨áĪĺáĪŃ
áĬľ
áĪĺáĪįáĬ¨
áĭİáīµáĪĿ
ĠáĪĿáĬĵ
ĠáĭĪáī³áĭ°
áĮĪáĪĪáĮį
ĠáĪĪáĬ¥áĬĵáĬķáī°
áĪĮáĬŃáīµáĪªáĬŃ
ĠáĭŃáĭ°áĪ¨
áĭĽáī¥
ĠáĬ¨áĬ¢
ĠáĬ¥áĭµáĮĪáīµ
áĬķáĭĽáī¤
Ġáĭ«áĮĪáĬĽáĪī
áįĭáĬķ
ĠáĬłáĮŃáĪŃ
áĮįáĪ©
áĮĨáī¹
Ġáĭ¨áĪļáĭĪ
Ġáĭ¨áĪļáī½áĪĪáĭį
ol
áĪ¨áĮį
áĭĪáĪµáĭµ
áĭĽáĭį
Ġáĭ¨áĮ¨
áī°áĪħ
Ġt
ĠáĬłáĭįáĪ®áįķ
ĠáĬłáĪµáĮĪáĪ«áĪļ
ĠáĭŃáī³áĭ«áĪį
áĭķáīĨ
il
ĠáįĬáĪį
ĠáĬ¨áĬ¥áĮįáĭļáĬłáī¥áĪĶáĪŃ
ĠáĪµáĮ¦áī³
ĠáĭĪáĮĪáĬĸáī½
ĠáīłáĬĥ
ĠáĪµáĬ¬
áĭĭáĭĪ
áĬķáī³
ĠáĬ¥áī£áĬŃáĭİáĬķ
oogle
ĠáĪĿáĪ½áīµ
ĠáĬ¥áĪ³áīµ
ĠáĬ¥áĬķáĭ°áĬĲáīłáĪŃ
ĠáĭŃáĭĪáĭ³
ĠáĪĪáī¥áĭĻ
áĪĺáĪ°áĮįáĬĵ
ĠáĬłáĭŃáĪĺáĪµáĪĪáĬĿáĪĿ
áĭµáĪľ
ĠáĬ¥áĪŃáĮįáĮ¥
Ġáī£áĪªáĭ«
ĠáīłáĪĭ
ĠáĬĲáī½
ĠáĬłáĪ³áĭŃ
Ġáī°áīĢáī£áĭŃáĬĲáīµ
ĠáĪµáĪĪáĭļáĪħáĪĿ
áī¬
Ġáīłáī°áī»áĪĪ
Ġáī¢áĪ®
ĠáĭµáĪį
ĠáĬ¨áĬłáĬķáī°
áĬĵáĬĿ
ĠáĭĿáĮįáĮħáīµ
áĭ¨áĪ©áĪ³áĪĮáĪĿ
ĠáĪ²áī£áĪį
áĭİáī½áĪĿ
Ġáī³áĪĽ
ĠáĬ¥áĭĪáĭ³áĪĪáĪģ
ĠáĪĲáĪ³áī¥
áĪ°áĪµ
ĠáĪµáĭµáĪµáīµ
Ġ27
áī¥áĪªáĬ«
Ġáĭ°áĪ¨áĮĥáĭİáī½
ĠáĪŀáĭ´
Ġáĭ¨áĪ¶
ion
ĠáīłáĬ®
áĬ¨áīłáĪŃ
Ġ2020
ĠáĭŃáĬĸáĪŃáī¥
ĠáĬ¢áĬ®áĬĸáĪļ
áĪĪáĭ«áĭ¨
ĠáĪĺáĪĽáĪŃ
áĪĭáī¸áĭĭáĪį
Ġáīłáĭķ
áĪŀáī½áĬķ
ĠáīłáĭŃáįĭ
Ġáĭ«áĪ³áĭ«áĪį
ĠáĪįáĮĦ
áĬłáī¸áĭį
áĮ¥áĬķ
Ġáĭ¨áĬłáĭįáĪ®áįĵ
ĠáĭįáĬĥ
áĪģáĪĿ
ĠáĬłáī¥áĭĽáĬŀáī¹
ĠáĬ¥áĬĵáĭ°áĪŃáĮĭáĪĪáĬķ
ĠáĬ¨áįĪáĪĪáĮī
ch
áīĢáĬĿ
ĠáĪĺáĮĪáĪĪ
ĠáĪĪáĪ°
áĬ¥áĮįáĭļáĬłáī¥áĪĶáĪŃ
áĮ¨áĪĿ
áĪĽáĪ©
ĠáĬłáĭŃáīĢáĪŃáĪĿ
ĠáĪĺáĭĽ
ĠáĪ¥áĮĭ
ĠáĪĽáĪĺáĬķ
Ġáĭ¨áĪ«áĪµ
ĠáĭŃáĪ»
ĠáįĪáĪŃ
Ġáī°áĮĪáĬĿ
Ġáĭ°áĬķáīłáĬŀáī½
ĠáĭĪáĭµ
Ġáĭ³áĪŃáī»
áĪĺáĭĭáĪį
ĠáĪµáĪĭáĪį
ĠáĪĺáĪ£áĪªáĭ«áĭİáī½
ĠáĬ¥áĬķáĭ°áĪĿáĬķ
ĠáĬ¥áĭ¨áĪ°áĪ«
ĠáĬłáĪµáī°áĪ³áĪ°áī¥
ĠáĪļáĬĴáĪµáīµáĪŃ
áĬ«áī£áī¢áĭį
áĬŃáĪ®
Ġáĭ¨áĬłáĪĿáĪĭáĬŃ
áĭ¨áĬł
ĠáīłáĬ¥áĪŃáĮįáĮłáĬĿáĬĲáīµ
Ġáĭ¨áĭįáĪĥ
ĠáĪĽáĬķáīłáī¥
áĬ¨áĪ¨áĪĿ
ĠáĪĨáī´
áĬĲáīłáĪ¨áĭį
ĠáĬłáĪµáī£áĪĪáĪģ
ĠáīłáĬłáī¥áĭĽ
Ġáīłáĭļáĭ«áĬķ
ĠáĬ¥áĬķáĮįáĪĬáĭĿ
ĠáĬ¥áĮįáĭļáĬłáī¥áĪĶáĪŃáĪĿ
áĬĵáĪ½
ĠiPhone
ĠáĮĪáīł
Ġáĭ¨áĭĵ
áĪµáĪĪ
Ġáī¥áĬķ
ĠáĬłáĪĺáĪĪáĬ«áĬ¨áīµ
ĠáĬłáĬķáĭ±áĬķ
ĠáīµáĪĭ
áīĨáĭŃ
áīłáĪĪ
Ġáī°áĮ«áĭĭáī¾áī½
áĬĴáĬŃ
áīłáīĥáĪį
Ġáĭİ
ow
ĠáĪĺáĮ«áĭĪáīµ
ĠáĮŃáĪĿáĪŃ
ĠáĪĪáĬ¥áĮįáĭļáĬłáī¥áĪĶáĪŃ
Ġáĭ¨áĪĭáī¸áĭįáĪĿ
áĪĽáĪ¨
áĪµáī°áĪŃ
áĪĽáĭĬ
ĠáĬłáĪĺáī³áīµ
ĠáĪĪáĪĺáĪĨáĬĳ
ĠáĬĥáĮ¢áĬłáīµ
áĭ¶áī½áĬķ
ĠáĮ¦áĪŃ
ĠáĪµáĪĪáī°
ĠáĮįáĬķáī£áī³
ĠáĪĻáĪ´
áĮĪáĬĵáĬĻ
áĮįáĪĿáīµ
ĠáĪĺáįįáĮłáĪŃ
ĠáĬ¥áĬķáĭ°áĪļáī½áĪī
ĠáĮ³áĭįáĪİáĪµ
áĪ³áĪ°
ĠáĪµáĪĻ
ĠáĬĵáī½áĪģ
ĠáĪ¥áĬĲ
áĬ¥áĬķáĭ°
áīĥáĪ½
ĠáĪĺáĪĺáĪĪáĪµ
ĠáĪĪáĬ¢
áįįáĪį
áĭµáįį
ĠáĪµáĪĪáĪĺ
ĠáīłáįĬ
ĠáĪĿáīµ
áĪ¦áĪµáīµ
ĠáīłáĬ¤
áī£áĪ¨
Ġáĭ¨áĪļáĮĪáĬĿ
Ġáĭ³áĮįáĪĿ
ĠáĭĪáĪĪ
ĠáĬ¥áĬķáĭ°áĪĨáĬķ
ĠáĬĳáĪ®
Ġáĭ¨áĬ¥áĬĽáĬķ
áĮĪáĪĪáĮ¸
áīłáĪī
Ġáī°áīĭáĪĿ
áĪĿáĪ¨áīµ
áĭ¨áī°
ĠáĪµáĭ°
ĠáĬłáĪµáī°áĭ³
áĪµáī°áĬĽáĭį
Ġáĭ¨áĪļáĭ«áĪµáī½áĪį
Ġáī°áĪ°áĮ¥
ĠáĮ¸áĪİáīµ
ĠáĭĿáĬĵ
ĠáĭĭáĪµáīµáĬĵ
ĠáĪ°áĪĭ
Ġáĭ¨áĭ°áĬķ
ĠáĮįáĭľ
ĠáĭŃáĪł
ĠáĭŃáĪ¸
áīªáĭ²áĭ®
ĠáĪĭáĪĪ
ĠáĮĪáĪĪ
áĪ¼
áĬĳáīµ
ĠáĮĦ
ĠáĬłáĭµáĪŃáĮĵáĪį
Ġáĭ¨áįĭ
ĠáĮ¥áīģáĪŃ
ĠáĬłáĪ»
áĭĿáĮĪáī£
áĭĪáĪ¨
ĠáīĢáĮ£áĭŃ
áĭįáĪŀ
ĠáĪĬáĬĸáĪŃ
ĠáĪĺáĭµáĪĥ
áī°áĬ®
áĮĢáĪ«
Ġáĭ¨áīĢáĭµáĪŀ
ĠáīłáīħáĪŃáī¥
Ġáĭ¨áĪ«áĪ±
áĪĽáĪªáĭİáī½
áīĥáī¸áĭį
Ġáĭ¨áī°áĭĪáĪĪ
áĬ¥áĬĵ
Ġb
ĠáĭĪáĬķáĮĮ
ĠáĪĿáī¹
ĠáĪĽáĬŃ
áįĲ
ĠáĬłáĮĪáĪ«áīµ
áĭĭáĪļ
ĠáĭĺáĪŃáįį
áīµáĪį
ĠáĮİáĬķ
ĠáĬķáĮīáĪ¡
Ġáī³áĪµ
ĠáĬ«áĪĪáĭį
áĬ¤áĪµ
áĪ°áĪ«áĭį
Ġáī°áīĢáĪĿ
Ġw
áīłáĪ³
ĠáĪĪáĪĽáĬķáĬĽáĭįáĪĿ
Ġáīłáĭ³
áĪĺáī»
Ġáĭ«áĪ¨áĮĭáĮį
áĬĵáĭŃ
ĠáĬłáī¥áĭĽáĬĽáĭİáī¹
Ġáĭ«áĪįáĪĨáĬĲ
Ġáīłáĭ¨áīµ
ĠáĬłáĪµáī°áĭ«áĭ¨
áĮłáĬĲ
ĠáĪŀáī°
áĪĪáĭĪáĮ¥
áĮįáĪ¬
ĠáĬ¥áĪµáĪ«áĬ¤áĪį
ia
ĠáĪĺáĪ¨
áī£áĪŃ
ĠáĮīáī£áĬ¤
áĭķáīĨáī¥
Ġáī½áĮįáĪ©
ĠáĪĺáĮ»áĪķ
Ġáĭ«áĭ°áĪŃáĮĪáĭĭáĪį
ĠáĮ¥áĪĭ
ĠáīµáĮįáĪį
ĠáĪįáī¥áĪµ
áĪĺáĪµáĪį
Ġáĭ¨áĪĪáī¥
ĠáĬĲáĭİáīµ
ĠáĬķáĮįáĮįáĪŃ
ĠáĬłáĬķáĭ³áĬķáĭ¶áī¹
áĪµáīµáĪ«
Ġáĭ«áĬĶ
ĠáĬłáĪįáī»áĪį
ĠáĬ¥áīħáĭµ
áĪ³áī¢
Ġáī»áĭŃáĬĵ
Ġáī°áĪ³áīµ
áĭĪáĪĵáīµ
Ġáĭ¨áĬĥáĭŃáĪį
Ġáī£áĪħáĪį
ĠáįĪáĮ£áĪª
ĠáĭįáĭµáĭµáĪŃ
ĠáĪĽáĮ£
ĠáĭŃáī³áĭĪáīĥáĪį
ĠY
áĬĿáĬķ
Ġáĭ¨áĪĿáĪŃáīµ
áĬ¨áĪ©
áĪĺáĪ¨áī¥
ĠáĮłáįį
áĪ°áĭĭáĪį
ĠáĭŃáĮĢáĪĿáĪ«áĪį
ĠáĭŃáĪģáĬķáĬĵ
ĠáĪµáī´áīµáĪµ
ĠáĬ¤áĪį
Ġáī¥áīĥáīµ
Ġáĭ¨áĪļáĭ«áĭ°áĪŃáĮī
ĠáĭŃáĭĪáĪµáĭ³áĪį
áĪĺáĭĿ
áĭĽáĬķ
áĪķáĭĽáī¥
ĠáĪĮáĪĬáīµ
ĠáīłáīĢáĪŃ
ĠáīłáĭµáĬķ
áĪĺáĪ°áĮįáĬĵáĪĪáĬķ
áĬķáĭ³áĬķáĭ³
ĠáĬ¨áĪģáĪĪáīµ
ĠÂ·
áī¤áĬķ
áĪĭáĪµ
ĠáĭķáĪĪáīµ
áī£áĭŃáĪį
ĠáīłáĬ¢áĭ¨áĪ±áĪµ
áĬ¨áī³áī°áĪį
un
áĪĿáįķ
ĠáĬłáĭįáī³áĪ¨
áī¥áīħ
ĠáĬ¨áĭ¨áīµ
Ġáĭ¨áĪ°áĪĽ
Ġáĭ«áĮĪáĬĺ
ĠáĮįáĪįáįħ
áĪ°áĪĪ
ĠáĪĨáĬĵ
ĠáĪĺáĪįáĭķáĬŃáīµ
...]
áĭ°áĪ¨áĮīáīµ
áĭŃáĬĲ
ĠáĬłáĬ«áī£áī¢áĭİáī½
Ġáī£áĬķáĬŃ
ĠáĪµáĪįáĮ£áĬķ
ĠáĪĽáĪµáī³áĭĪáĪ»
áĪįáīĥ
ĠáĪ¶áįįáīµáĭĮáĪŃ
Ġáī°áĪį
áĪ³áīģ
ĠáĬ«áĪŃáĭµ
ĠáĬĥáĪĭáįĬáĬĲáīµ
áĬĲáĭļáĭ«
áĬĲáĮĪáĪ©
ĠáĪĪáĪ¨áĮħáĪĿ
ĠáĪħáī¥áĪ¨áīµ
áĪĭáĪĽáĭĬ
áĪĽáĮį
Ġáī£áĪī
áĬ¨áī£áī¢
50
áĪŁáĪĭ
áĬĵáĬķáīµ
áĪĨáĬĳáĪĿ
ĠáĪĿáĪŃáĪĿáĪŃ
ĠáĬ¥áĬķáĭ³áĪĪáĭį
ĠáĪĽáĭķáĬ¨áĪį
Ġ[...]
áĮĪáĬĻáīµ
ĠáĬ¥áĬĵáĪĺáĪ°áĮįáĬĵáĪĪáĬķ
áĭ³áī¸áĭį
ĠáĭŃáĬ¸
vi
Ġáī£áĪħáĪªáĭ«
ĠáĬłáĭµáĪ«áĪ»
áĭµáĪ©
Ġáĭ¨áĮĮáī³
áĭ³áĭį
áĪĥáīµ
áĮĪáĪĺ
ĠáĪĪáĪĿáĬķáĭµáĬķ
áīĢáĪŃáī¡
ĠáĪĿáĬŀ
Ġáĭ¨áī°áĪ³
áī£áĪĪáĬķ
ĠáĪįáĮĥ
ĠáīłáĬ¥áĭ«áĬķáĭ³áĬķáĭ±
áĪŃáĪĽ
ĠáĬłáĬķáī¥
ĠáĮłáĭĭáīµ
Ġáī³áĭŃ
Ġáĭ¨áĪĺáĬķáĮįáĪµáīµ
áīĢáīłáĪį
Ġáĭ¨áĭ°áĪ¨
áī°áĪĿ
áįķáĪ¬
áĪ°áĪĻ
áĬ«áĭŃ
Ġ29
áĬĺáĭį
áīłáĭĭáĪį
áĬ«áī°
ĠáĭŃáĬĵáĮĪáĪ«áĪį
áĪ¨áĪ³
áĪĺáĪįáĬ¨áī»
áĮ³
áĪĮáīªáĭ¥áĬķ
ĠáĪ°áĪĪ
áĪĺáĪĪáĬŃ
ĠáĪĺáĪĨáĬĵáī¸áĭįáĬķ
Ġ....
Ġáĭ¨áĪķáĭŃáĭĪáīµ
ĠáĬłáīĭáĪĿ
Ġáĭ¨áįįáīħáĪŃ
li
áĪµáī³áĬķ
ĠáīĢáĭŃ
ĠáĪĺáĪ¨áĮĥáĭİáī½
áĪ«áĮŃ
:-
ĠáĪįáī³
áĪĭáī½áĪģáĪĿ
Ġáī°áĭĺ
ĠáĪµáĪĪáĪĽ
22
ĠáĪ°áĮł
áĬķáīłáīµ
ĠáĬłáĪ°áĪ«
ĠáĮįáĬķáĭĽáī¤
áĪĽáĪĽáĬĿ
áĪ¯áī¸áĭį
áĪľáĪį
ĠáĪ¥áĪ«áĭİáī½
Ġh
áī³áĪĪáī½
ĠáĭĪáĭŃáĬķáĪĿ
ĠáĬĲáīłáĪ¨áī½
ĠáĪ¹
áĬ¨áī°áĪĪáĭį
Ġáĭ®áĪĲáĬķáĪµ
ĠáĪĪáĪĺáĮĢáĪĺáĪŃ
ĠáĪĽáĬĲáĭį
ĠáĬłáĭĺ
áī»áĪĪáĭį
ĠáĪĺáįħ
áĪ¨áĮĭáĮĪáĮ«
ĠáīłáĭļáĪģ
ĠáĬ¥áĬķáĭ³áīµ
Ġáĭ«áĪµáįĪáĪįáĮį
ĠáĭµáĬķáīħ
ĠáĬłáĪ¸áĬĵáįĬ
ĠáīłáĮ¨
áįįáĬĵ
áīłáī°
ĠáĬłáĪµáīĢáĭµáĪŀ
áīģáĬķ
Ġáĭ¨áī±
ĠáĮĢáĪĿ
ĠáĬłáĪįáī»áĪĪáĪĿ
áĪĪáī±
áī£áī¸áĭįáĪĿ
áĭĺáĮĭáĮģ
Ġáĭ¨áī¡
ĠáĬ¥áĬķáĭĪ
Ġáĭķáīħáĭµ
ĠáĪĺáĪªáĭİáī½
ĠáĭĪáĬķáĮĢáĪį
ĠáĭŃáĪĸáĭĭ
áĪĭáī¸áĭįáĬķ
áĪ¨áĪĿáīµ
ĠáĬłáĭįáĪ®áįĵ
ĠáĬłáī³áĭį
áĬķáīĢáĪ³áīĥáĪ½
ĠáīĢáĭµáĪŀáĭį
Ġáī°áĮłáīħ
ĠáĬłáĪĽáĬ«áĬĿáĬĲáīµ
áĪĭáĪĪáĬķ
ĠáĬłáĪĽáĪ«áĮ®áī½
ĠáĭµáĪŃáĪ»
ĠáĭįáĮ¤áī¶áī½
áįĬáĭį
ĠáĬ¥áīĥ
Ġáĭ¨áĪ¥
áĮįáĪĪ
Ġáī°áįĪáĮ¥áĪ®
ĠáĬŃáĪµáī°áīµ
ĠK
áĪµáī¶áī½
áįĵáĬķ
áĭĪáĮį
Ġáīłáĭļáĭ«áĪĿ
ĠáĬ¢áĭ®
áĭµáĬĵ
áĮīáĬķ
Ġáĭ«áĮĭ
áĪĬáĬķ
áī£áī½áĬķ
ĠáĪĪáĪĮáĪİáī½
ĠáĭĪáĪ¬
Ġáī°áĪ«áĪ«
ĠáĭŃáĬ¼
ĠáĮĬáĭľáĭ«áīµ
áĪĿáĪµáīµ
ĠáĪĨáĪµáįĴ
áĭ«áĪĿ
áĭ³áĪľ
ost
ĠáĪµáĪªáīµ
áĬ¨áīł
áĬ©áīłáīµ
ĠáĪ¥áĪįáĮ£áĬķ
ĠáīłáĬ¥áĬĵáĬķáī°
áĮłáĪªáĭ«
ĠáĪ³áĪĿáĬķáī³áīµ
Ġáĭ¨áĪļáĬ¨áī°áĪīáīµáĬķ
Ġáī¥áī¸áĬĽáĭį
Ġáĭ¨áĬłáī£
ĠáĪŃáĭķáĪ°
ĠGoogle
ĠáĪĺáĬķáĮįáĪµ
áįĬáĬŃ
áĪŃáĬķ
ĠáĬĲáĮĪáĪ©
ĠáĪĺáĪµáįĪáĪŃ
Ġáī°áīĨ
Ġáĭ¨áĪĺáĮ¨áĪ¨áĪ»áĭį
áĭĪáĮ£áĪį
áĬ«áĪĦáĭ°
áĬŃáī°
Ġáī°áĭ°áĪŃáĮİ
ĠáīµáĭĿ
áĪŃáĭ«áĪĿ
áĪ®áī¹
áīłáĪŃáĬ«áī³
áĭĪáīģ
ĠáīģáĪĿ
ĠáĪĺáĮįáī£áīµ
ĠáĪĽáĭµáĪ¨
ĠáĪĽáĪ¨áĮĭáĮĪáĮ¥
ĠáĪĿáĪįáĬŃáī¶áī½
áĬķáĭĪ
Ġ199
Ġáĭ¨áī°áĪĺáĪłáĪ¨áī°
áĪ¸áĬķ
Ġcom
ĠáĪĿáĪµáĬŃáĪŃ
ĠáĬ¨áĪ«
Ġáī°áīĢáī¥
áĮĢáĪŃáĪĺáĬķ
ĠáĬĥáĮ¢áĬł
ĠáĬ®áĪĿáįĴ
Ġáĭ¨áĮ¸
áĬĸáī½áĬķ
ĠáīħáĭµáĪĺ
Ġáīłáī°áįĪ
ĠáĬ«áĪĭ
áīĨáĭ¨áīµ
áĮ»áįį
ĠáīłáĭįáĪµáĮ¡
ĠáĪĺáĮįáĭĽáīµ
áĮĪáĬĲáĭĺ
Ġáĭ¨áĪļáī°
ĠáĬ¥áĬķáĭ°áĪĺ
ĠáįĸáĪĬáĪµ
áĪ°áĮ£áī¸áĭį
áĪĿáĪ¨áĮ¡
áĮħáĬĲáīµ
ĠáĪįáĪĽ
Ġáī³áĭįáīĥáĪĪáĪħ
ĠáīłáĭĻ
Ġáĭ¨áĮł
Ġáī°áĮ«áĭĭáī½
áĭĪáĪ«
Ġáĭ¨áĪĭ
ĠáĪĬáįĪ
Ġáĭ«áĭ°áĪ¨áĮĪ
ĠáĬłáĭŃáįĪ
ĠáĪĢáī¥áīµ
ĠáĭĪáĪĭáĮĨáī½
Ġáī°áĮłáĭ«áīĤ
áĮĭáĭį
áĮłáĬĵáīĢáīħ
áĪŃáĭ±
áĮĪáĮį
ĠáĪĪáĪĽáĪ¨áĮĭáĮĪáĮ¥
áĪħáīłáĪ«áĭĬ
pp
ĠáĬ¥áĭ¨áĮ¨
ĠáĬ¥áĭįáĬĲáī³
áĬĵáįį
ĠáĮįáĭ´áī³
áĪ«áī¸áĭįáĬķ
ĠáīłáĮĭáĪ«
ĠáĪ³áĪĪ
Ġáī¥áī¸áĬĽ
áĪĻáĬĵ
ĠáĬłáĬ¥áĪĿáĪ®
ĠáĪĪáĪĺáĪŃ
áĭ«áĭįáīģ
ĠáīłáĮ½
Ġáī°áĭ°áĪŃáĮĵáĪį
ĠáĬłáī¤áī±
ĠáĪĺáĮĢáĪĺáĪŃ
áĭ´áīµ
um
áĭĭáĪĿ
Ġáĭ¨áīµáĬĽáĭį
áĮįáĪ«áĭŃ
ĠáĬ¨áĬ¥áĬĲáĪ±
ĠáĮĤ
Ġáī°áĬ¨áī³áī³áĭŃ
áĬ©áĬķ
áī£áĭį
Ġáĭ¨áĪĲ
ĠáĬłáĭµáĪŃáĮĮ
ĠáĬĲáįįáĪµ
áĭĪáĮ£áĭį
áĭĭáī³áĭį
ĠáĬ¨áīĢ
ĠáĬ¨áĪħ
áĪµáī³áĭĪáĪµ
ĠáīłáĭµáĪŃ
ĠáĬłáĮłáīĥáīĢáĪĿ
áĪĢáĪį
ĠáĬłáĮ£
ĠáĬłáĬķáī°áĬķ
us
ĠáįĭáĭŃáĪį
ve
Ġáĭ«áīĢáĪŃáī£áĪį
ĠáĬ¨áįĪ
áĮįáī£áī¥
áīĢáĪ³
áĬłáĬķ
áĪ³áī½áĬķáĬķ
áįĨ
ub
ĠáĪĪáĭŃ
ĠáĮįáī¥áĭŃáīµ
áĪĺáĬķáīµ
Ġáĭ¨áĬ¨áī°áĪĽ
áĮĵáĮĵ
áĪ»áĭį
ĠáĭŃáĪĿáĪ¨áĮ¡
ĠáīłáĪķáĭŃáĭĪ
áĬķáĪµáįĸáĪŃáīµ
ĠáĪħáĪĺáĪĿ
Ġáī£áĬķ
áīĢáįį
ĠáīłáĪĺáĪĭáĭį
ĠáĬłáĪįáįĪáĪįáĮįáĪĿ
ĠáĪĽáĪĪáīµáĪĿ
ĠáĪĽáĬķáĬĲáīµ
ĠáĪĺáĪ«
ĠáĪĺáĪµáĬŃ
ĠáĪľáĭ³
ĠáīłáĬłáĭįáĪ®áįĵ
áĭµáĪ®
ĠáĬ¨áĪķ
ĠáīĢáĮ¥áĪİ
ĠáĭŃáĮłáīĢ
ĠáĪĽáĭ³
áĮ«áĬĳ
áĬķáĪ°áĪŃ
ĠáĬĲáįĥáĬĲáīµ
ĠáĬ¢áīµáĭ®áĮµ
áĬĲáĬķ
áįĪáĭĭáĪį
Ġáī¥áĪİáĮį
áīħáĬķ
áĮĢáĪĺáĪ©
áĬ¹
áī½áĪģáĪĿ
áĭ°áĮĭáĮĭáĪļ
áĬ½
ĠáĭŃáĪłáĪ«áĪį
ĠáĬ¨áĬ¥áĪŃáĪµáĭİ
ĠáĬ¥áĬķáĭ°áĪļáĪĨáĬķ
áĬķáĮįáĪĬáĭĿáĬĽ
áĪĽáĪĺáĬķ
áī»áĪī
áĮłáĭĭáĪį
ĠáĭŃáĬ¸áĭį
ĠáĬłáĭŃáĮĪáī£áĪĿ
áĪĺáĬĽ
áĭ«áĭįáĭ«áĬķ
áĪįáĬ®
áĮ¿
áĭĪáĭ«
áĬ³áĭŃ
ĠáĪĿáĮį
Ġáīłáī°áĪ»áĪĪ
áĪ¨áĪ±
ous
ĠáĪĺáĮ¡
ĠáĪĪáĪĻ
áĮłáī¥áīħ
ĠáĪ³áĭ«
áĭ°áĪŃáĪ±
áĬĲáī³áī½áĬķ
ĠáĪĨáĬķ
áĭĭáĪŃáĭ«
áĮĪáĭ±
áĪĦáĭ°
Ġa
áĭ«áĭİáī½
ĠáĭµáĪŃáĮĬáīµ
Ġ,
Ġáī°áĮĪáĪį
ĠáĬłáĪĿáĬĵáĪĪáĪģ
ĠáīµáĬ¥áĭĽáĭĿ
´áĮ¥áĪ®
ĠáīłáĪĺáĪĨáĬķ
áĪĬáĪµ
ĠáĪĺáĪ³áĪªáĭ«áĭİáī½
ĠáīħáĪ¬
Ġáĭ¨áī°áĪĺáĪ°
ĠáĪĪáĪĺáįįáĮłáĪŃ
Ġáī¢áĬĸáĪŃ
ĠáĬłáĮĢ
ĠáĪĪáĪĺáĪ¨áĭ³áīµ
áĪµáī°áĬ«áĬ¨áĪį
áī±áīµ
ĠáĬ¥áĪŃáĪ·
áĮĵáĭ°
áįĭáĪī
ĠáĪĪáĪĺáĪµáĪ«áīµ
Ġáī¡áĭµáĬĸáī½
ĠáĭŃáĮĪáĪį
áĮ¥áĪ©
Ġáī¤áī°áĬŃáĪŃáĪµáī²áĭ«áĬķ
Ġáī£áĪĪáĪĻáĭ«áĭİáī½
ĠáĬłáĪĭáīµ
ĠáīłáĪļáĮĪáī£
áĪŃáįį
ĠáĬłáĬķáī½áĪįáĪĿ
ĠIn
áĪĭáĪ³
ĠáīłáīµáĬķ
Ġáĭ¨áĪĽáĬķ
áĪ¨áįĪ
áī¢áĭ«áĭį
áīĭáĪ¨áĮ¥
áĪĽáĭį
ĠáĬłáī£áī´
áĮ¸áĪį
ĠáĪµáĪ«áĭİáī½
Ġáĭ¨áī°áĪĪáĪĺáĭ°
Ġáī£áĪĪáĪµ
ĠáĬ¥áĬķáĭ³áĪī
áĪ³áĪĪáĪģ
áĪĪáī³áĪį
Ġáī°áĬ¨áīµáĪİ
ĠáĭĵáĪĺáī±
ĠáĪļáĬĴáĪµáī´
ĠáĮįáĪĿáīµ
Ġáĭ¨áĭĪáĮ£
ĠáīłáĪŀ
ĠáĮĪáĪįáĮ¸
ĠáĬłáĬķáĮ»
áĮ¥áĪį
áĪ¨áĪ»
áī¨áĪµáīµ
áĮĪáĬĿáĪĿ
Ġáīłáī°áĭ°áĮĭáĮĭáĪļ
Ġáĭ¨áĮ½
ĠáĪĥáĪ³
ĠáĪĺáĬ¨áĪĭáĬ¨áĭ«
áĪ´áįį
ĠáĬ¨áīµ
Ġáĭ¨áī°áī£áĪĪáĭį
ĠáĬłáī¥áĪ¨áĬķ
ĠáįĪáĪĪ
Ġáĭ«áĬķáī¥
Ġáĭ«áĬ«áīµ
áĭ®áī½áĬķ
ĠáĭĺáĮĪáī£
ri
áĬłáĪĪáĪģ
áĪĿáĬķáĪĿ
áĮĪáĪįáĮįáĪİáīµ
ĠáĮ¤áĬĵáĪĽ
ĠáīģáĪ³áīģ
ĠáĪłáĪ«áī°áĬŀáī½
ĠáĪ½áĪįáĪĽáīµ
áĪ³áĪ½
áĭįáĬĲáīµ
Ġáī£áĪķáĪŃ
ĠX
áī¢áĭŃ
áĪĭáī½áĬĭáĪĪáĪģ
áī½áĪīáīµ
24
áĪĺáĪĪáĪ°
ĠáĬ¥áĬķáįĪáĪįáĮĭ
ĠáĪĽáĪ¨áįĬáĭ«
ĠáĮĵáĭ°áĬŀáī½
áĪĭáīĤ
ĠáĪĪáĪĺáĪĿ
ĠáĪĽáĪ«
ĠáĬłáĪµáī°áĪĽáĪĽáĬĿ
ĠNext
ĠáĪĪáĪĽáĪµáī°
ĠáĪµáĪĽ
ĠáĪµáĬ¬áīµ
áīĥáĭŃ
áĮ¨áĪĿáĪŃ
ĠáĬŃáĪĪ
ĠáĪĺáĪµáĪĽáīµ
ĠáĬ¨áī¤áī°
ĠáĬ¥áĬķáĭ³áĪĪáīłáīµ
ĠáĪĪáĪĺáĮłáīłáīħ
ĠáĪĺáĬĸáĪªáĭ«
áīłáĬł
áĬĲáĭĭáĪį
25
áĪİáĬķ
Ġáī¡áĬĵ
Ġáĭ¨áĪļáĪī
Ġáĭ¨áĬ¢áĬ®áĬĸáĪļ
áĭ¥áĪĿ
ĠáĬħ
ĠáĪĺáĬķáįĪáĪ³áĭĬ
áįĭáĪµ
áĬ®áīµ
áīĥáĪĪáĬķ
ĠáĬĲáĮ¥áī¦áī½
áĪħáĬĲáīµ
áĮĪáĭĻ
ĠáīµáĬĵáĬķáīµ
ĠáĭŃáĮłáīłáīĥáĪį
áĬŃáĪĿ
²áį
ent
Ġáī°áĬĲáĪ³
ĠáĮ¥áĬķáĬ«
áĪŁáĪĭáīµ
Ġáīłáī°áĭ«áĭ«áĭĺ
áĬłáĪģáĬķ
áĭŃáī±
áĮĭáī¸áĭį
ĠáĪĿáĬĵáĪįáī£áīµáĪĿ
ĠáĮ¥áīħáĪŀáī½
áįĪáĪ©
áĬĲáĭįáĬķ
Ġáĭįáī¥
ĠáīłáĮĢáīµ
áĭ°áī£
ĠáĭĺáĪĺáī»
ĠáĭŃáĮłáīĢáĪĻ
Ġáĭ¨áī¤áī°áĪ°áī¥
ĠáĮįáĭĽáīµ
áĭĭáĭķáīµ
ĠáĬłáĪĺáĪį
ĠáĮįáĪĪáĪ°áī¥
Ġáįĭáī¥áĪªáĬ«
Ġáĭ¨áĪģáĪĪ
ĠáĬ¥áĬķáįĪáĪįáĮĭáĪĪáĬķ
ĠáĪĺáĪ¨áĭ³áīµ
Ġáī³áĪªáĬ«
Ġáī£áīµ
áĭ°áĭĭáĪį
Ġáī°áĪŃ
Ġáī°áįħ
ĠáĬ¥áĪ«áĪµ
áĪŃáĪĥáīµ
Ġáīłáįĸ
áĪ«áĪĿ
ĠáīłáĪ¶
ĠáīĢáĬĵ
áĬ¥áĬĵáĬķáī°
áĭĭáī¸áĭį
Ġáīłáī°áīĥ
ĠáĭŃáīĢáĮ¥áĪĭáĪį
áĮģáĬķ
ĠáīłáįįáīħáĪŃ
ĠáĬ¥áĬķáĪĺáĪįáĬ¨áīµ
ĠáīłáĬłáĭ²áĪµ
áĪ¸áĮ¥
ĠáĬ¥áĬķáĮħ
áĭīáĬķ
ĠáĬĲáīłáĪ¨áĭį
ĠáĬķáĭµáįį
ĠáīħáĮ½
ĠáĪĻáĪµáĪĬ
ĠáīłáĪħáĭŃáĭĪáīµ
Ġáĭ¨áĪļáĪĨáĬĳáīµ
ĠáĪĽáĪ¨áĮĭáĮĪáĮ«
áĭ°áĪ©
ĠáĪĪáĪĺáĭµáĪ¨áĪµ
ĠáĪĺáīĢáīłáĪį
Ġáĭ¨áĪļáįĪáĪįáĮīáīµáĬķ
Ġáĭ¨áĭĽáĪ¬
ĠáĬĲáĭĭáĪªáĭİáī½
ĠáįķáĪ¬áĭĿ
ĠáĭŃáĬķ
ĠáĪĿáĪħ
ĠáĭµáĬķáĮĭ
áĬĲáĬ«
ĠáĬłáĪĪáīĥ
Ġáĭ¨áĪ°áĮł
Ġáĭ¨áĬłáįįáĪªáĬ«
ĠáĭŃáĪ»áĪĭáĪį
Ġáī£áī¡áĪŃ
áįĥáĬķ
ĠáĪŀáĬŃ
ĠáįĵáĪŃáī²áĭİáī½
ĠáĬ¨áĮ¥áīĤáīµ
ĠáĭĺáĮį
áī²áĬŃ
ĠáīłáĬłáī¥áĭĽáĬĽáĭį
áĬ¨áįĬ
áī¶áī»áī¸áĭį
áĬĶáĬķ
ĠáĪħáĪį
ĠáĬ¥áĬķáĮįáĭ³
Ġáĭ¨áī°áĪ°áĮł
áĭĶ
áĮ»áįĪ
ĠáīĨáĭŃáī·áĪį
ĠáĬłáĪĿáĪĭáĬ«
áīħáĭ±
ĠáĪ°áĪ«áī°áĬŀáī½
áĬĸáĪµ
ĠáĪ°áī£
Ġáįįáīħ
áĪĽáĮįáĪĮ
Ġáĭ«áĭ¨
áĪĭáįĬáĬĲáīµ
ĠáĬĲáĮĭáĭ´
ĠáĭŃáĮłáĭŃáīĥáĪį
Ġáĭ¨áĬ¥áĮįáĪŃ
áĮĢáĪĺáĪ¨áĭį
ĠáĪµáĬ¬áī³áĪĽ
áĪ²áī¥
áĮ»áĮ¸
Ġáĭ°áĪĺ
áī¥áĪ¨áī°áĪ°áī¡
áĭ°áīł
áĮłáĪĿ
áĭĿáĬķ
áī½áĪģáīµ
áĪ®áīµ
ĠáĬłáīħáĪ«áī¢
ĠáīħáĮ£áīµ
ĠáĭŃáĪģáĬĳ
áĬ¥áĪŃáĪ±
ĠáĬ¥áĬķáĭ³áĭ«
ĠáĪĺáĬķáĮįáĪµáī³áīµ
áĬĲáīłáī¥
áĭ³áĭ©
Ġáĭ¨áĪķáĭĿáī¥
ĠáīłáĬ¥áĪ±
ĠáĮłáī£
áīĢáĬĵ
áĪŃáĪ·
ot
áĬ¨áīłáĪ¨
ĠáĬ¥áĬķáĭ°áĪļáĭ«áĪµ
áįĪáĪįáĮĪáĭįáĬķ
ĠáĭĺáĭŃáīµ
ĠáĬłáĬķáīĢáĮ½
ĠáĪĪáīµ
Ġáĭ¨áĭ«áĭĺ
áĪ«áī´
ĠáĪĪáĪĺáĪĦáĭµ
ĠáĬłáĪĿáĪ«
ĠáĮĪáĬķáĭĺ
ĠáĬłáĪĺáĪ«
ĠáīłáĪī
ĠPre
ĠáīłáĪ¥áĪ«
ĠáīłáĪĿáĪŃ
ĠAnd
áĬłáĭ´áĮį
Ġáĭ¨áĮĪáī£
ĠáĬ¨áĬŃ
ĠáĮ¥áīĤ
ĠáĬłáĪĪáĪĽ
Ġáĭ¨áī£áĪħáĪŃ
ĠáĪĪáī¤áī°
ĠáĮłáĪĭáīµ
Ġáĭ¨áĪĭáīĢ
ĠáĪĽáĭ«
ĠáĪĽáī¥
ĠáĭŃáĪį
áĪ°áĪĽáĭį
ĠáĮİáĭ³áĬĵ
ĠáĪĺáĮįáī¢áĭ«
áĮ¿áĪį
ĠáīłáĪŃáĮį
ĠáĬ¥áĪº
Ġáĭ°áĬķáīł
Ġáį¥
ĠáīµáĭķáĭĽáĭĿ
áĪµáĪ«áīħ
ĠáĪ¥áĪŃáĭĵ
ĠáĭŃáĭ°áĪ¨áĮĭáĪį
ĠáĪĺáīģ
Ġ2018
ĠáĭŃáĬĵáĮĪáĪ«áĪī
ĠáĪµáĪĪáĪĿ
Ġáĭ¨áįĬ
Ġáĭ«áĬķáī¥áī¡
ĠáĭĽáįį
ĠáĬłáĭįáī¶
ĠáĬłáĪĺáĮ£
áĭĿáīĥ
Ġáĭ¨áĪĮáĪĪáĭį
áĬĲáī´
áĪĭáīµáĬķ
Ġáĭ¨áī£áī¡áĪŃ
ĠáĪĺáĭįáĮ£áīµ
ĠáĬ¥áĬķáīħáĪįáįį
ĠáīłáĪĿáīµ
áĬĲáī¥
ĠáĪĽáĪ³áĭ«
ĠáĬķáĮ¹
áĪĺáĪĪáĬ¨áī°áĭį
ĠáĬĲáĮŃ
Ġáĭ¨áĮĭ
roid
Ġáī¤áī°áĪ°áī¦áī½
áĪµáī°áĭį
ĠáĬłáĭµáĪŃáĮį
ĠáīĨáĭŃáī³
áĬªáĪĿ
áĪµáī³áĭį
áĭ³áĭŃ
áĪĺáĪĪáĬ¨
ĠáīłáĬĲáįĥ
áĮĭáī¢
ĠáīłáĪĲ
áĬ¨áī°áĪī
Ġ2017
Ġáĭ¨áīłáĪĭáĭŃ
ĠáĮİáĪį
áĪ¨áĬĿ
áĪªáĭ«áĭį
áĬ³áĬķ
áĭĪáĪį
ĠáĪĭáĭŃáĪĿ
ore
ĠáīłáĬ¨áī°áĪĽ
ĠáĭŃáĭĺáĭį
Ġáĭ«áĪµáī³áĭį
ĠáĮįáĬķáī¦áīµ
áĭ«áĭįáīħ
ĠáĬ¥áĬķáĭ°áĭļáĭ«
ĠáĮīáī¥áĬĿ
áīĢáĮ¥áĪį
áĪĿáĬķáī±
ĠáĪĺáĮĪáĪĪáĮ«
áĪ°áī¢áĭ«
áĪĮáĬķ
áĬķáīĢáīµ
áĪĪáĪµ
áĪ¨áĭĿ
Ġáĭ¶áĬŃáī°áĪŃ
Ġáĭ¨áĪĿáĪµ
áĮįáī£áī£áīµ
áĬ³áī¸áĭį
ĠRe
áĭŃáĪ¨áĪµ
ĠáĪĺáĪĪáĪµ
ĠáīłáĪĺáīĢ
ĠJ
Ġáīłáī¦
ĠáĪĺáįĪáĪĪáĮį
ĠáĮ£áī¢áĭ«áĭİáī½
ĠáīłáĭĽ
Ġáĭ¨áĮ¦áĪŃ
Ġáĭ«áĭ°áĪ¨
áĬ¤áĪĿ
ĠáīłáĪĺáĪµáĪĺáĪŃ
ĠáĭµáĪ¨
ĠáĪĪáĪĺáĪŃáĭ³áīµ
ĠðŁ
Ġáĭ¨áĪĽáĪµ
Ġáĭ¨áī°áĮłáīĢ
ĠáĮįáĪĪáĪ°áī¦áī½
ĠáĭĪáĬķáĭµáĪŀ
áĬ©áī£áĬķáĭ«
ĠáĬ¨áĪļáĭ«
áī¶áī¹áĬķ
áĭİáī»áī¸áĭį
áīłáĭĽ
áī²áīµ
ĠáĪ³áĭŃáĬķáĪµ
ĠáĭĺáĭŃ
áĬ«áĭĬ
ĠáĬłáī¥áĭĽáĬĽáĭįáĬķ
ĠáīħáĪŃáī¥
áĮįáĪª
áĪĺáĮ£áĪī
--
Ġáī°áĭ«áĭŃ
áįİáī½áĬķ
áĪ¥áĪ«áīµ
áĪµáĪĽáĪĽ
ĠáĬłáĭĽ
ĠáĬłáĪĿáī£
ĠáĬłáī¥áĭĽáĬĽáĭį
ĠáĪĽáĪĺáĪįáĬ¨áī»
áĬĲáįĥ
Ġáĭ¨áĭ²
áĪĨáĬĵáī¸áĭį
Ġáĭ¨áĬłáĪģáĬĳ
áĪ»áĮĪáĪŃ
ĠáĬ¥áĭ¨áĮ¨áĪĺáĪ¨
áĮ¢áĪŃ
ĠáĬ¥áĬķáĭ³áĪįáĪĨáĬĲ
áįģáĪĿ
Ġáĭ¨áī°áĮłáīłáīĢ
ĠáĬ¥áĪŃáĪ±áĬķ
Ġáĭ¨áĪļáĭ«áĭ°áĪŃáĮį
Ġáĭ¨áĪ³
ĠáĬ¥áĪį
ĠáĪĺáĮ»áĪķáįįáīµ
Ġáī£áĪĪáĪĺ
ĠáĪĿáĭķáĪ«áįį
áĭĵáĭĬ
Ġ2019
áĭ©áĪĿ
áĮĪáĬĵáĬĺ
Ġáĭ«áĪµáįĪáĪįáĮįáĭİáī³áĪį
Ġáĭ¨áĬķ
áįįáĪ¨áīµ
ĠáĪĺáī°áĮįáīłáĪªáĭ«áĭİáī½
ĠáĪĪáĭĪáĭ°
áĬĲáīĥ
Ġáĭ«áĪ°
ĠáīłáĬ¦
Ġáĭ¨áĪ©
ĠáĪĪáĪ°áĭį
áĬ¨áĪ°áī°
ĠáĪĺáĭµáĬĥ
ĠáĮ¥áīĥ
áĬ¥áĪµ
Ġáī°áĬ«
ĠáĬłáĬķáĭ³áĬķáĭ´
ĠáĪµáĮĭáīµ
ĠáĪµáĪįáĮłáĬĵ
áĪ®áĭį
Ġ31
ĠáĪĺáĪįáĬł
ĠáįķáĪ¬áĭļáĭ³áĬķáīµ
ĠáĬłáĪįáī£
Ġáĭ«áĪĪáįĪ
Ġáī°áĮįáī£áĪ«áīµ
áĮįáī£áī¡
ĠáĬłáīĥ
áĬĸáī¹
áĮªáĭį
áĪ½áĪĿ
ĠáĭĵáĭŃáĬĲáī±
áĭ¨áĪļ
áĮłáĪĺ
ĠáĬ¥áī£áĬŃáĭİ
áĪ«áĪĪáī½
ĠáĪĿáĭĿáĮĪáī£
áĬĵáĮĭ
Ġ2016
áĪ®áĪŀ
Ġáī°áĪ³áīµáįİ
Ġáĭ¨áī°áīĢáĪĺ
áĪ¶áī½áĬķ
ĠáĭĪáĪ¨áīĢáīµ
Ġáĭ°áĪŀ
áĬ«áī¤
ĠáīłáĮįáī¥
ĠáĬ¥áĪĭáĪĪáĪģ
Ġáĭ¨áī°áĪĺáĪ¨
Ġáĭ¨áĬ¥áĬĶáĬķ
ĠáĪĪáĪĽáīħáĪ¨áī¥
áĮĪáĭĿ
ĠáīĥáĪĪ
ĠáīłáĪº
ĠáīłáĪĽáĬķ
áĮ£áĬĿ
ĠáĬłáįĪáįĥ
ĠáĪĪáĬĶ
áī£áĮŃ
Ġ</
Ġáĭ¨áĬłáĬ«áĪį
áĮİáĭ³
áĬĲáī°áĬĽ
ĠáĬ¨áĬķ
áĭ¨áĪĺ
ĠáĪĺáĪĪáĭĪáĮ¥
áĬŀáī»áī½áĬķ
Ġáĭ°áĪ¨áĪ°
ĠáĪµáĪħáī°
ĠáĪĺáĭ«áĭĿ
áĪĪáī½áĪĿ
áī¸áīµ
áĭĭáĪŃ
ĠáīĢáĭµáĪŀáĭįáĬĳ
áĭĿáĮį
ĠáĮįáĪĽáĪ½
ĠáĪĬáĬĸáĪ¨áĭį
ĠáĭŃáĪĦáĬķáĬķ
ĠáĪĪáĪĺáĬĵáĮĪáĪŃ
áįįáĪ¬
Ġáĭ¨áĮĬáĭľ
ĠáĬłáĪĽáĬ«áĭŃ
áĭĬáī°áĪŃ
ĠáĬ¥áĬķáĬŃáī¥
Ġáĭ¨áĪļáĮĪáĪŃ
áĭĪáĪ°áĭµ
Ġáĭ³áĮį
áĪĿáĪ©
áĬĵáī±
ĠáĬłáĭ°áĮĪáĬĽ
ĠAndroid
ĠáĪĢáĮĪáĪ«áīµ
ĠáĬłáĬķáī£áī¢
áĮİáī¥áĬĺáīµ
ĠáĭĪáĭĺ
áī¥áī¥áĪŃ
Ġáĭ¨áĪļáī£áĪĪáĭį
áĪĳáįį
ĠáĪĨáĬĳ
ĠáĪĺáĭĺ
Ġáī£áĪħáĪŃ
áĪĬáĭ«áĬķ
ĠáīłáĬłáĬķáī°
Ġáī¥áĪ©
ĠáĭŃáĪĪáĬĽáĪį
Ġáĭ¨áīµáĪĿ
ĠáĭŃáĪįáīģ
ur
áĬ¡
áĮ»áĬĵáīµ
Ġáĭ¨áī¦
áĮĪáĪµ
ĠáĪĪáĪĺáĬ¨áĪĭáĬ¨áĪį
Ġáĭ¨áĪĺáĪ¨áĮĥ
ĠáĭŃáĪī
ĠáĪħáĮĪ
ĠáĬłáĪĪáĭİáīµ
áĪĤáĭµ
ĠáĮĪáĮ¾áī½
ĠáĬ¨áĪ°áĭį
ĠáĬĲáīłáĪŃáĬ©
ĠáĭŃáĪĺáĪµáĪį
ĠáĪķáĮĪ
ĠáĮ¥áĬķáĬ«áĪ¬
ĠáĪ³áĪį
ĠáĪĺáĭ³áĪ¨áĪ»
áĪĻáĪĿ
ĠáĪĺáĪĭáĬ¥
ĠáĪĿáĪµáĪį
ĠáīłáĬĲáĮĪ
áĮĤáī³áĪį
áĪĺáĪįáĪµ
ĠáĪĿáĪ¥
Ġ32
áĬ«áĬķ
Ġáĭ¨áĪĿáĭµáĪŃ
ĠáĮ½áĪģáįį
áĮ¢áĬłáīµ
áī¥áĪ¨áī°áĪ°áī¥
Ġáī°áĭį
ĠáĬ¥áĬĵáĬķáī°áĪĿ
áĪŃáĪ³
áĮŃáĪ©
ĠáĪªáįĸáĪŃ
ĠáĪļáĬĴáĪµáī´áĪŃ
ĠáĬłáĭįáĮ¥
ers
ĠáīĢáĪŃáī¶
vious
ĠáīĭáĬķáīĭáĭİáī½
ĠáĪħáĬŃáĪĿáĬĵ
áī°áĬ©
áĭİáī³áĪĪáĬķ
ĠáĬ¥áĭ¨áĪĨáĬĲ
Ġáĭ¨áĮ£
ĠáĭĪáĬķáĮĮáĪį
Ġ60
ĠáĭĵáĭŃáĬĲáī¶áī½
áĪµáī¸
ĠáĬłáĬķáĮ»áĪŃ
áĪĭáĭĬáĬĲáīµ
ĠáĪĺáĪłáĪ¨áī³áĭĬ
ĠPrevious
ĠáĬ¥áĪµáĪŃ
ĠáĪĪáĮĪ
eb
ĠáĪĪáĭļáĭ«
áĮĪáĪįáĮĪáĪį
ĠáĪĺáĪ°áĪ¨áī³áĭĬ
ĠáīłáĪ©
Ġáĭ°áīĢ
ĠáĪĪáī¥
Ġáĭ¨áĬ¥áĪ±
ĠáĮ«áĪĽ
ĠáīĢáĪĪ
ĠáĮĨáĪ®
ĠâĨ
áīłáĪ«
áī£áīłáĪŃ
áĭĵáĪĺáī±
áĮĢáĪŃáī£
ĠáĬ®áĪļáī´
áĪłáĪ«áĭį
áĮłáĪĪ
ĠáĭĪáĬķáĭµáĪĿ
Ġáĭ¨áĪļáĬ¨áī°áĪīáīµ
ĠáĬ¨áĮĬáĭľ
áĭ°áĬĲ
Ġáĭ°áī¡áī¥
Ġáĭ«áĮĪ
áĮ¥áįĭáīµ
áĪ»áĪĪáĪģ
áĭİáĪµ
ĠáĮĪáī¥áī¶
ĠáīłáĭĽáĪ¬áĭį
ĠáĮĪáĪįáĮ¸áĭĭáĪį
ĠáĪĪáĬ«
Ġáĭ¨áĬĲáīłáĪ¨áĭįáĬķ
ĠáĮĬ
áĭįáī°áĪŃ
ĠáĬłáĮĪáĪįáĮĭ
ĠáĬłáĭ«áĭįáīģáĪĿ
áĪ³áī°áįį
OS
ĠáĬłáĪĿáĪĭ
ĠáĬ¨áī¶
áĪµáįĭáīµ
ĠáĬłáĮĢáĬķáĭ³
Ġáī°áĪ½áĬ¨áĪŃ
ĠáīłáįĮ
áĪµáī°áĭ³
ĠáĬ¨áĭĭ
ĠáĪĪáĪĽáĭį
Ġáĭ²áĭĽ
ĠáĮ´áĮ¥áĪ®
áĬ¤áĪįáĪĿ
Ġáī¥áĪĦ
ĠáĮĭáĭľáĮ£
áĪĤáĭ±
ĠáĪµáīµáĪ«áī´
ĠáĪĪáįį
áĪ¨áĬĵáĪį
ĠáīłáĭµáĮĭáĪļ
áĭŁáĪį
ĠáīłáĪ¥
ĠáĬłáĪµáīĢáĭµ
ĠáĪ«áĪ³áī¸áĭįáĬķ
Ġáīłáįĵ
ĠáįĪáĮ¥
ĠáĬłáĭŃáĬĸáĪŃáĪĿ
áīĨáīµ
ĠáĬ¨áī¥
Ġáī¦áĪŃáĭµ
ĠáĬ¥áĬĵáī´
ĠáīłáĬĲáĮ»
ĠáīłáĪĺáĪµáĮłáīµ
ĠáĬłáĭ²
ĠáĬ¨áī¤áīµ
Ġáĭ³áĭŃ
ĠáĮ¥áĬķ
ĠáĬŃáĪŃ
ĠáĭŃáĮ¨áĪĿ
áĭĺáĪ¨
ĠáĬłáĪĺáĪ«áĪŃ
ĠáĪĺáĭµáĪ¨áĪµ
ĠáĬ¨áĮİ
Ġáĭ¨áĪļáĮĪáĬĺáĭį
ĠáĪ£
Ġáĭ°áĪŃáĪ¶
áĬĽáĪĪáĪģ
ĠáĮĪáĭ°áĪĽ
áĪĽáĪµ
ĠáĬŃáĪµáī°áī¶áī½
áĬķáĪ²
ĠáĪĽáĪ»áĪ»
ĠáĬ¥áĬķáĭµáī³
23
áĭķáĪĿáĪ®
áĬĵáīĢ
ĠáīłáĪĽáĭŃ
áĬĲáĪŃ
áĪ½áĬĳ
Ġáĭ¨áĪļáĬĸáĪ©
ĠáĬłáĪĭáĪĽ
ĠáĪĪáĪĺáĬŃ
áĪħáĬķáĬĲáīµ
ĠáĬķáĮ¥áĪ¨
áī³áī½
ĠáĬłáĭįáĪ®áįķáĪĭáĬķ
áĮłáĬķáīĢ
Ġáĭ¨áī£áĪĪ
Ġáĭ°áĮĭáĮį
ĠáĬłáĭĭáĮħ
ĠáĪĽáĪŃáĭ«áĪĿ
Ġáįįáīĥ
ĠáĬŃáī¥áĭ°áīµ
ĠáĮ¥áįĭáīµ
ĠáįĪáīĥáĭ°áĬĽ
ĠáĬłáĬķáĭµáĬĲáīµ
áī£áī¢áĭ«
ĠáĪĽáĪ°
áĪŃáĪĭáĪĽ
áĬĲáĪĿ
Ġáĭ¨áīµáĪ«
ĠáĭŃáĬĲ
ĠáĮ¥áĪįáīħ
Ġáĭ¨áĪ«áĪ±áĬķ
ĠáĪµáĬĵ
áĭĪáĪ°áĬĳ
Ġáī°áĪ°áĪĽ
ĠáĭŃáĪĦáĭ³áĪį
áī²áĬķ
ĠáĬ¨áī¥áĭĻ
áĪµáī°áĭĭáĪį
áī¥áĪµ
ĠáĪĺáīĥ
ĠáĬ¨áĪĺáĪµ
áĪªáĭĿáĪĿ
áĪ¨áīł
ĠáĪĺáī¥áī¶áī½
ĠáĭĪáĭĺáī°
Ġáī¥áī³
ĠáĪµáīµáĪ«áī´áĮĤ
ĠáīłáĪµáĪ«
áīłáĭĿ
áĬĵáī¸áĭįáĪĿ
Ġáī°áĬĲáĪµ
áīħáĪį
Ġáī¶áĪİ
ĠáĪŃáīĢáīµ
Ġáĭ¨áĬłáĭį
ĠáĭĪáĭ°áĭļáĪħ
ĠáĪĪáĪĺáĬĸáĪŃ
áĭµáĪŃáĮį
áĬĽáĭįáĬķ
ĠáĪįáĬĵ
ĠáĬ¨áĪģáĪī
ĠáĪĪáīĢ
ĠáįĪáĮĪáĮį
áĪľáīµ
Ġáī¤áī°áĪ°áī¦
áĪ¨áĮĭáĮĭ
áĪĬáĬĵ
ĠáĭľáĮĭ
Ġáī°áĮĵ
Ġáīłáī°áĮįáī£áĪŃ
ĠáĪĺáĪ¨áī¥
ĠáĭĪáīħáī³áĭĬ
ĠáĬ®áĬķ
ĠáĭŃáĪŀáĬŃáĪ©
ĠáĬ¨áĬ¥áĪ±
ĠáĭŃáĮį
ĠáĪķáĭĿáī¦áī½
Ġáĭ¨áīĢáĪ¨áīł
ĠáĬłáĬķáįĥ
ĠáīĢáĮ£áĭ©
ĠáĪĪáĪĽáĪ»áĪ»áĪį
áĪľáĭŃáĪį
ĠáĪĺáĪĺáĪįáĬ¨áīµ
Ġáĭ¨áĬ¨áįĭ
Ġáĭ¨áĮīáĭŀ
Ġáī³áĪĽáĬĿ
Ġáĭ¨áĬĳ
ĠáĪĪáĬłáĬķáī°
áĬŃáĪįáĪī
ĠáĪĥáĭŃáĪĽáĬĸ
ĠáĭŃáĬĸáĪ«áĪī
áĪĮáĮħ
ĠáĪ°áĬĲáĭµ
Ġáĭ´áĪŀáĬŃáĪ«áĪ²
ĠáĬłáĬķáĭ°áĬĽáĭį
ĠáĬĲáīł
áĭ©áĬķ
ĠáĮĪáĮ½áī³
ĠáĪĪáĪĺáįįáī³áīµ
ĠáĪĨáĪµáįĴáī³áĪį
Ġáī¥áī»áĭįáĬķ
ĠáĬłáĭ¨áĪģ
áĮĪáĪĪáĮįáĪį
áĬ«áĪĦáĭ°áĭį
áī£áīł
áįįáĪŃ
ĠáĪķáĬŃáĪĿáĬĵ
áĭ³áĪ´
Ġáĭ¨áĪĿáĪŃáĮ«
ĠáīłáĪĺáī°
Ġáĭįáīłáīµ
ĠáĪĺáĮ¥áī¶
ĠáĭŃáĪħáĬķáĬķáĪĿ
ĠáĪĥáĭŃáĪĽáĬĸáīµ
ĠáĪ°áĭįáĬķ
he
os
Ġáĭ¨áĪķáĮį
ĠáĬ¡
ĠáĬ¥áĪŃáĪĿáĮĥáĭİáī½
áĭ±áĪĿ
ĠáĬłáĮłáĮĪáī¥
áĪĽáĮŃ
áĮ½áĬĵ
áī³áĭĪáīĢ
áĭĭáĪĪáĪħ
Ġáĭ¨áĭľ
ĠáīµáĪĨáĬĵ
ĠáĬłáĪĪáĪĺáĪĨáĬĳ
Ġáĭ¨áĪ²
Ġáĭ¨áĬĽ
ĠáĪĺáĪŀáĬ¨áĪŃ
ĠáĪĪáĪĽáĬķáīłáī¥
áĪªáī±áĬķ
áĭ°áī½
ĠáĬłáĪłáĪ«
ĠáĭŃáĪŀ
ĠáĬłáī£áī£áĪį
áī³áĬĿ
ĠáĪ«áĪµáĪħáĬķ
ĠáĮ¥áĮĪáĬĵ
áĬłáĪĿ
áĬŃáĪįáīµ
áĪ¨áĮł
áīĪ
Ġáī£áĭ¶
ĠáĬłáĬķáĭ³áĬķáĭ¶áī½
áĪĿáĪĮ
áĬķáĮįáĪ¥
áĭ®áī¹
Ġáĭ¨áĪļáĪ°áĮ¥
ĠáīĢáĬĿ
ĠáĬĶ
áįĪáĮłáĪŃ
ĠáĬ¾
áĪľáĪ«
áįķáĪį
áĬĵáĮĪáĪ©áīµ
ĠáĪĪáīł
ĠáĪĪáĪĺáĮįáĭĽáīµ
ĠáĬ¨áĮį
ĠáĬ¥áĭ«áĬķáĭ³áĬķáĭ³
áĬ©áīµáĬķ
Ġáī°áĪĺáĪ«
ĠáīłáĪ°áĪĭáĪĿ
ĠáĬ¥áĬķáĭ°áĭļáĪģ
Ġáĭ³áĬķ
áī£áĪª
Ġ2013
áįĪáĮ½
áĪĪáĬķáĪĿ
áĪĭáĮŃ
áįĭáī¸áĭį
ĠáĬłáĬķáĭµáĬķ
Ġáī³áī½
áĭ³áĮĬ
áĪ³áī°áįī
Ġáĭ«áĭ°áĪ¨áĮĪáĭį
ĠáĪµáĮĭ
áĪ»áĪ½
ĠáĭŃáĪ°áĪ«áĪį
Ġ80
ĠáįĪáĪ¨áĬķáĪ³áĭŃ
Ġáĭ¨áĪł
ĠáĪĪáĪĺáĪĺáĪĪáĪµ
áĮ£áī±
Ġáĭ¨áĪīáĪĿ
ĠáĮ¨áĪĪáĪĽ
áīłáĬ¥
Ġáĭ¨áĬĲáīłáĪ©áīµ
áĬĲáī³
Ġáĭ¨áĪļáīĢ
Ġáĭ°áĬ«
ĠáĪ¾
ĠáīłáĮĭ
of
áĬ¦áĪį
ĠáĪ½áĪĽáĮįáĪĮ
ĠáĬ©áī£áĬķáĭ«áĭį
ĠáĪĥáĭŃ
Ġáī°áĪĺáĪįáĪ¶
ĠáĬłáĪ®
áĭ«áĪĪáĬķ
ĠáĬ¤áĪĿ
áĬ¨áĬĿ
ĠáĬĲáĮį
Ġáīłáĭ°áĪµáī³
ĠáĪ²áĪĺáĮ£
Ġáĭ¨áīªáĭ²áĭ®
ĠáīłáĭįáĮŃ
Ġáį²áį
ĠáĪĪáĭįáĮ¦áī½
ĠáīµáĪŃáįį
áī£áī±
Ġáī°áīĥáĭįáĪŀ
áī¥áĪ©
ĠáĪĿáĬŃáĪ®áī½
ĠáįĪáĮłáĪ«
áĭĺáĮĭáĮĥ
ĠáĬ¥áĬķáĮįáĪĬáĭĿáĬĽ
áĭ´áĪ«áĪį
áĮłáīĢáĪĻáīłáīµ
áĪĺáī³áīµ
ĠáīłáĬłáĮįáī£áī¡
áĮ¨áĬĲáīħ
áĪªáĬķ
ĠáĪĬáī³
ĠáĪĺáĪµáĬ¨áĪ¨áĪĿ
ĠáĪĺáĪµáĪİ
Ġth
áīłáĪįáĮ¥
ĠáĬ¥áĭįáĬķ
ĠáĬłáĭĺáĮĭáĮħ
ome
áĮħáī±
ĠáĪĪáĪĺáĮįáī£áīµ
Ġáĭ¨áĪ°áī¥
áĪ®áĬĵ
ĠáĭµáĬķáĮĭáĭŃ
Ġáĭ¨áī°áĮ£
ĠáĬ¥áĮįáĭļáĬłáī¥áĪĦáĪŃ
ĠáĪĪáĪĺáīĢáĬĲáĪµ
Ġáĭ¨áĮŃ
ĠáĪ³áīµ
Ġáī°áĪ³áī³
ĠáĪĿáĪģ
ĠáĬ®áĪŃ
Ġáĭ¨áī°áī£áīłáĪ©áīµ
áī¤áĪį
áĭĪáĪ©
ĠáĬ¨áĪĺáĮĢáĪĺáĪªáĭ«
Ġáĭ¨áĪļáĭ°áĪ¨áĮį
Ġáīłáĭ¨áĭĵáĪĺáī±
ĠáĪĺáĬŃáįĪáĪį
áĬ«áĪļ
ĠáĬ¥áĪµáĬŃ
áĪįáĮ£áĬĵáīµ
ĠáīłáĬłáĬķáĭ³áĬķáĭµ
ĠáīµáĬŃáĬŃáĪĪáĬĽáĭįáĬķ
ĠáĬŃáĪµ
ĠáĪĨáĬľ
Ġáĭ¨áĪ¸
Ġáĭ¨áī°áĭĭ
áī°áĬĿáĬĲáīµ
ĠáĪĪáĬ¥áĭ«áĬķáĭ³áĬķáĭ±
ĠáĭŃáĪ°áĮ£áĪī
áĬ¾áĬķ
ĠáĬłáĭµáĪŃáĮĪáĭĭáĪį
Ġáĭ¨áī°áĭ°áĪ¨áĮĪ
áĪ¨áĮ¡
ĠáīłáĬĭáĪĭáĪĿ
áĮłáĬŀáī½
áĮ´
Ġ33
áĮ£áĮ¥
ram
áĭ°áĪ°áīµ
Ġáĭĺáĭ´áĭİáī½
áī¡áĪĿ
áīħáĪ¨
ĠáĭĪáĭ°áĪļ
ĠáĬłáĪµáīĢáĪĿ
Ġáĭ«áĭµ
ĠáĭįáĪŃ
áĬķáĭİ
Ġáĭ¨áĪļáĮĪáī£áĭį
Ġáĭ°áĪ«áĪ²
áĪ³áĭŃáĭ«áĪµ
ĠáĪĨáī´áĪį
ind
ĠáĮ©
áĭŀáī½
ĠáīłáĪ°áĪĽáĭŃ
Ġáĭ«áĬĲáĪ°
ĠáĭŃáĪ°áĪĽáĬĽáĪį
ĠáīłáĬķ
Ġáĭ¨áĪĺáĬªáĬĵ
Ġáīłáĭ°áī¡áī¥
Ġáīłáĭ°áĪ¨
áĮĪáīł
áĬĵáĮį
ĠáĪĽáĭŃ
áĬ¨áįĪáĪį
Ġáī³áĪĭáĪĭáīħ
ĠáĪĽáī¥áĪ«
ĠáĭįáĪį
Ġáī°áīĥáĭĭáĪļ
ĠáĬłáī¥áĭŃ
Ġ36
ĠáĪįáĮ¥áįį
Ġáĭ¨áĪĺáĮ¡
ĠáīłáīĢáĮ£áĭŃ
áĪ®áĪĿ
áĮĭáī½áĪģ
áĬ®áĬĸáĪļáĭ«
ĠáĬ¥áĬķáĮĢáĪ«
ĠáĭĪáĬķáĭµáĪŀáī½
ĠáĪĻáīĢáīµ
Ġáĭ¨áĪļáĭĪáĪµ
ĠáĬ¥áĬķáĬŃáī¥áĬ«áī¤
ĠáĪµáĪĿáĬķáīµ
ĠáĪĪáĪļáĭ«
ĠáĬłáĬ«áĪĦáĭµ
áĮłáĮ£
Ġáī°áĪĪáĭĭ
Ġáī¥áĭµáĪŃ
áĪĺáĮ£áĪĿ
ĠáīĢáĪµ
ĠáĪĺáĪµáįĪáĪŃáī¶áī½
ĠáīłáĪĺáĬ«áĬ¨
ĠáīłáĬ¥áĪµáĪ«áĬ¤áĪį
Ġáīłáĭ¨áīµáĬĽáĭįáĪĿ
áĪĭáĪĪáī½
ĠáĬłáĮįáī£áī¥
áįĭáĮŃ
ĠáĮ¥áĪŃáĮ¥áĪŃ
áĬ³áĪŃ
thi
áĪĿáĭµ
ĠáĭĪáĭ´áīµ
ĠáĪĽáĪħáīłáĪŃ
áĪ³áī±
ĠáĪħáĮĭáĭĬ
Ġáī°áĪĪáĭŃ
Ġáĭ²áĭ«
ĠáĬ¨áĭĵ
ĠáĬ¨áįĬ
áĪĪáīµáĪĿ
ĠáĪµáįĸáĪŃáīµ
ĠáīĢáĭ³áĪļ
ĠáīłáĬ¥áĬĲáĪŃáĪ±
ĠáĪĪáĪĺáīĢáīłáĪį
Ġáĭ¨áī°áįĪáĮ¥áĪ®
ĠáīłáĮ¸
áĪįáĬ©
Ġáī°áī¥áĪıáĪį
Ġáī³áĭįáīĥáĪĭáī½áĪģ
Ġáĭ¨áįķáĪ®
ĠáĪĿáĪķ
ĠáĬłáĪįáī»áĪįáĬ©áĪĿ
áĬķáĭĽáĪ¬
Ġáĭ¨áĪļáĪīáīµ
ĠáĬ¥áī£áĬŃáĪħ
ĠáĭŃáĬĸáĪŃáīłáī³áĪį
Ġáĭ¨áĪ°áĪ«
ĠáĪĻáĭ«
Ġáī°áī£áĪĪ
Ġáĭ¨áĪļáĪĺáĪµ
Ġ^
ĠáĬ¨áĭĺ
Ġáĭ¨áī°áĮĭ
Ġáīłáī´
áĭĪáĭĿ
Ġáĭ«áĪįáĪĨáĬĳ
Ġáī°áĭŃ
Ġáĭ¨áĪĺáĮĢáĪĺáĪªáĭ«áĭįáĬķ
Ġáĭ¨áĪķáĬŃáĪĿáĬĵ
áĬ¥áĬĸ
Ġáĭ¨áīģáĪĽáĪŃ
40
ĠáĪĺáīĢáĮłáĪį
Ġáĭ«áĭ°áĪŃáĮĭáĪī
ĠáĭĺáĪĭáīĤ
áįĶáĬķ
Ġ=
ĠáĪµáĪĪáĬĲáīłáĪŃ
Ġáĭ¨áĪļáĪĺáĮ£
em
ĠáĮįáī¥áĪ¨
ĠáĪħáĪįáĪĿ
Ġáĭµáī¥
ĠáĪĪáĪģáĪĪ
ĠáĬłáĭŃáī³
ĠáĭŃáĭŃ
ĠáĮįáĭĻ
áĪŃáĪ¶
áĪĪáĭµ
ĠáĮ¥áĬķáīĥáīĦ
Ġáī°áĭĺáĮĭáĮħ
áĪĥáĭĬ
Ġáĭ¨áī½
Ġáĭ¨áįĪáĮłáĪ«
ĠáĮĪáĬķ
áįįáĭ«
ĠáĪĽáĪµáīĢáĪĺáĮ¥
ĠáīłáīµáĪĿáĪħáĪŃáīµ
ĠáĪĺáĬ«áĬ¨
áĭĪáĪĪáĭµ
..."
ĠáĪĤáĪ³áī¥
and
áĪ«áĪ¨áī¥
Ġáī°áĮłáĬĵ
áī½áīµ
Ġ35
ĠáĬ¨áĬłáĪģáĬķ
ĠáĬ¥áĭ¨áī³
ĠáīłáįįáĮ¹áĪĿ
Ġ2021
áī³áĭĪáīĢáĭį
ĠáīħáĪŃáĮ¸
áĪĪáĭįáĮ¥
ĠáĪ«áĪµáĬķ
áĮłáīłáīģ
Ġáī£áĪħáĪªáĭ«áīµ
ĠáīłáĬłáĪĪáĪĿ
áĪĺáĪµáĮĪáĬķ
áĭĸáĬķ
áĪ¬áĭį
ĠáĭŃáĪ¨áĭ³áĪį
Ġáĭ°áĬķáī¥
ĠáįĭáĭŃáĪİáī½
áĪĺáĭĺ
áĬķáīĢáĪ³áīĢ
ew
áīĥáĬķ
ĠáĭŃáĮłáīłáīħ
ĠáĪļáĪĬ
Ġáįİáī¶áĭİáī½
ĠáĪĪáĬŃ
Ġáīłáī°áīĥáĪ«áĬĴ
ĠáĬ¢áĭ¨áĪ±áĪµáĪĿ
ĠáĪĪáĬ¥áĪŃáĪ±
áĪĺáī½
áįĥáįį
áĮĵáĭĻ
ĠáĪĺáĪĪáĪ°
ĠáĪµáī¥áĪµáī¥
ĠáĪĺáĪĲ
ĠáĮłáīħáĪĭáĪĭ
ut
Ġáī°áįĪáĮ¥
ĠáĬĢ
Ġáĭİáī¹
Ġáī¥áīħ
Ġáĭ¨áĪĺáĮ£áĭį
áĬĸáĪªáĭ«
áīĤáĬĿ
ĠáĬ¥áĬķáĪµáĪ³áīµ
ĠáĬ¤áĪµ
ook
ĠáĪŀáĭ´áĪį
ĠáĪĽáĪ½áĬķ
áĪ«áīµáĬķ
áĪµáī°áĪĿ
áĬ¨áĪĭáĭĬ
áĪ«áĪµ
ĠáĬłáĭĭáīĤ
ĠáĬ¨áĭ°
áį¤+
ĠáĪĺáī¥áĪĭáīµ
áĪ¨áī³
ĠáīħáĪ¬áī³
áĭ°áĪŃáĮīáīµ
Ġáĭ¨áĪģáĪīáĪĿ
áĭ°áĪªáĭ«
ĠáĮ®
ĠáĮĢáĪŃáĪĺáĬķ
ĠáĭĪáĬķáĭĿ
ĠáįįáĪ«
áĮĵáĭ´
áĪµáī¥áĪµáī¥
Ġáī¢áĪĬáĭ®áĬķ
áĪĺáĪŃáĪĺáĪŃ
áī£áĬķ
áĭįáīĢáĭį
ĠáĮ¸áĪĲ
Ġáĭ«áĪĪáĪĿ
Ġáĭ¨áĬ¤áĪĮáĬŃáīµáĪªáĬŃ
áĭ«áī½áĬķ
ĠáĮįáĮ¥
áĪĥáĭµ
Ġáīħáĭ³áĪľ
ĠáĬłáĪīáĬĿ
Ġáĭ¨áĬłáĪĪáĪĿ
ĠáĬ¥áĪģáĭµ
ĠáĭĪáĪŃáīħ
ĠáĪ°áĪįáįį
ĠáĬ¨áĮĪ
ĠáĪĪáĪģáĪĪáīµ
ĠáĪĺáĪįáĬ«
ĠáĪĺáī»áĪį
ĠáĭŃáĪĪáĭ«
Ġáĭ¨áī»áĭŃáĬĵ
áĭŃáĭĿ
áĪ°áī¥áĪ°áī¥
ĠáīłáĬłáĭį
áĪįáĮłáĬĵ
ĠáĬ¥áĭįáīħáĬĵ
áĭµáĪį
Ġáĭķáīĥáĭİáī½
ĠáĪĺáĪĭáĭį
Ġáĭ°áĪŃáĪ·áĪį
áĬ¨áĪī
ĠáĬ«áĪħ
ĠáĭĬ
áĪ¨áĬķáĮĵáĭ´
Ġáī¥áĪŃáī±
ĠáĬ¨áĪĺáĮłáĬķ
áĭµáī¥
Ġáīłáĭ¨áĬł
áĬĲáĪħ
ĠáĪĺáīĢáĬĲáĪµ
ĠáĬ¥áĬķáĭ²áĪħáĪĿ
ĠáĮįáĮŃáīµ
áĮ»áĪļ
ĠáĭĿáĬĵáī¥
Ġáĭ¨áĪļáĬĸáĪŃ
ĠáĪĺáĪĿáĮ£áīµ
ĠáĬłáĭĿáĪĽ
áĮĭáĪ«áīµ
ĠáĭĭáĬķáĮ«
áĪħáĬłáĭ´áĮį
ĠáĬ¥áĬķáĭ²áĪĨáĬĳ
Ġáī¥áĪ«
áīĢáĭĿ
áĪ£áĬ¤
Ġáĭ¨áĪĺáī°
ĠáĬłáĬķáįĥáĪŃ
ĠáĪĽáĭįáĪ¨áĭµ
áĪĪáī²áĬ¨
ĠáīłáĬłáĬķ
Ġ2015
ĠáĮīáĭ³áĭ©áĬķ
ĠáīłáĮ£
ĠáĪĢáĮĪáĪ®áī½
áĭŃáĬĵáĬķáĪµ
ĠáīģáĮŃ
áĬĵáī½áĬķ
ĠáĬŃáĪŃáĪµáī²áĭ«áĬĸáī½
ĠáĮ¥áįĭ
Ġáĭ¨áĪĪáĬķáĪĿ
áĮĭáĮ¥
áī´áĭİáĪµ
ĠáīµáįĪáĪįáĮĭ
áĬ«áī½áĪģ
Ġáī°áĪĿ
Ġáĭ¨áī°áĪ°áĪ«
text
áĪŀáī±
Ġáĭ«áĭĺ
ĠáĭŃáĬĲáĮį
ĠáĬłáīħáĪŃáī¦áīµ
ĠáĭŃáĪħáĬķáĬĳ
ĠáĬłáĭ³áĪĿ
Ġáĭ¨áī°áīĥ
áĬ®áĬĸáĪļáĭ«áĭĬ
ĠáĬłáįĪáįĥáįĢáĪĿ
Ġáī°áĪĺáĪįáĬŃ
áĮĪáĬĽáĪĪáĬķ
Ġáĭ¨áĪħáĭŃáĭĪáīµ
Ġáī´áĬŃ
ĠáĬ¥áĬķáĭ°áĬĲáīłáĪ¨
ĠáĬłáĮĪáĪįáĮĭáĭŃ
áĪĪáĭĪ
ĠáīłáĪ«áĪ³áī¸áĭį
ĠáĮĭáī¥áī»
ĠáĬĲáīłáĪŃáĬĵ
áĪįáĬŃáīµ
ĠáĬłáĪ°áĪ«áĪŃ
ĠáĮĪáĭ°áī¥
ĠáĬĲáĮłáĪĭ
ĠáīĢáĭįáĪµ
ĠáĪĺáĭĿáĪĻáĪŃ
áĮłáįī
áĪ°áĪ«áĪĿ
ĠáĬłáĬķáĭ°áĬĽ
ĠáĭŃáĭ°áĮį
ĠáĬ¥áī¥
ĠáĪĪáĪĽáĪ³áĭ¨áīµ
ĠáĪĽáĬ¥
Ġáīį
áĭµáĭ«
áĪĿáĬĳ
ĠáĬ¥áĮ¥áĪ¨áīµ
áĪ¨áĮĭáĮĪáĮł
ĠáĬ¥áĮĪáĭĽ
ĠáĭįáĪµáī¥áĪµáī¥
Ġáĭ¨áī³áĭĪáīĢ
ĠáĬ¥áĬķáīħáĪµáīĥáĪ´áĭİáī½
Ġáĭ°áĪħáĬķáĬĲáī±
ĠáĬ¢áĬķáī¨áĪµáīµ
ĠáĬ¨áī³áī½
áīĢáīłáĪī
ĠáĬłáĪĭáĮĪáĬĺ
áĮ¥áĮ¥áĪŃ
ĠáīĢáĮłáĪ®
Ġáĭ¨áĬłáĭŃ
ĠáīłáĪĤ
Ġáĭ¨áĪĨ
ĠáĬłáĮĪáĬĵáĬĿ
Ġáĭ¨áī¢
ĠáĬ¥áĪ·áĬķ
ĠáĪ°áĪį
ĠáĭĪáĬķáĮĢ
áīĢáĭįáĬķ
áįĪáĪĪáĮĪáĭį
ĠáĪĺáĭĽáĪĻáĪŃ
Ġáī¥áĪĭáī½áĪģ
ĠáīłáĪ¨áĬ¨áīµ
Ġáī½áĮįáĪ©áĬķ
art
ĠáĪĿáĬĲáĭį
ĠáīµáĬĵáĬķ
Ġáīłáīħáĭµ
áĮ»áĪľ
Ġáĭ¨áĪĺáĬķáĮįáĪ¥áīµ
áĬĭáī¸áĭį
áĮ¦áĪŃáĬĲáīµ
Ġáĭ«áĪµáįĪáĪįáĮĪáĬĵáĪį
áĪĺáĭ±
ĠáĬłáĪīáĬķ
ĠáĬłáĪįáĮĪáī£
ĠáĪļáĪµ
ĠáĪµáĪĪáĬ¥
ĠáĪĥáĮĪáĪŃ
26
áĭ°áīłáĬĽ
ĠáĬłáĪįáī»áĪīáĪĿ
áī±áĬķáĪĿ
Ġ2012
áĪĭáĪįáīħ
ĠáīłáĬĶ
Ġáī°áĬĵáĮįáĪ¯áĪį
áĭ°áĮĪáįį
áĬķáĮīáĪ¡
ĠáīłáĬ¥áĪŃáĪµ
ĠáīłáĪĺáĬķáįĪáĪµ
ĠáĭĪáĪ°áĬķ
áĪ°áī¥áĬ©
Ġáī¥áĭĻáĭİáī¹
Ġáīħáĭ±áĪ³áĬķ
ĠáĪĤáĭµ
áĬĲáī³áī¸áĭįáĬķ
Ġ90
Ġáĭ¨áĪĻáĭļáīĥ
ĠáĬłáĭ°áĪ¨áĮį
Ġáĭ¨áĬ¥áĬķ
ĠáĭŃáĬĸáĪŃáī¥áĬĵáĪį
ĠáĬ¨áĬĲáĭļáĪħ
ĠáĪ°áĭŃáĮ£áĬķ
áĮĪáĬĲáī£
áĬŃáĪī
ĠáĭĪáĮ¥áī¶
ĠáĪĮáĪİáī½áĬķ
áĬ¸áĬĿ
ĠáĬķáī¥áĪ¨
ĠáĮ£áįĭáĮŃ
ĠáĬłáĭ«áĪµáįĪáĪįáĮįáĪĿ
áĮįáĬĲáīµ
Ġáī£áĪĪáĪ¥
ĠáĬĲáĪ½
áĬ®áĪį
áĪŃáĭĿáĪŃ
ĠáĭŃáįĪáĪįáĮī
ĠáĪ²áĪĨáĬĳ
áįĥáĪļ
ĠáĪĪáĬ¥áĬĲáĪ±
Ġáĭ«áĬ«áīµáī³áĪį
áīµáĬķáĬĵ
Ġáĭ¨áĭµáĪĿ
ĠáĪĪáĮĬáĭľáĭį
ĠáĪ¥áĪ«áĭį
ĠáīłáĮ¥áĬķáīĥáīĦ
áĮĪáĮ¥
ĠáĭĵáĪĪáĪĿáĬķ
ĠáīłáīĨ
ĠáĬłáĭ°áĪ¨áĮī
28
áĬĲáĮįáĪŃ
ĠáīłáĪ°áĪĽ
ĠáĪ³áĬķ
ĠáĭŃáĭĪáĭµ
ĠáĪĽáĪ½
ĠáĭŃáĭ°
Ġáīłáĭ²
Ġáĭ¨áĪļáĪ°áĪ«
áĪĺáĪĪáĬ¨áī³
ĠáĪĽáīĨáĪĿ
áīĢáĮ¥áĪīáīµ
ĠáĬĥáĭŃáĪĪáĬĽ
áĭĪáĭ°áĭį
áĭ³áĪĪáĬķ
ĠáĭŃáīĢáīł
ĠáĭĵáĭŃáĬķ
Ġáĭ¨áĪ´áī¶áī½
ĠáĬłáĪµáī°áĭĭáĮ½
ĠáĪĺáĬ¨áī°áĪį
áĬĲáįĪ
ĠáĭįáĪµáĮ¥áĪĿ
Ġáĭ«áĪ¨áĮĭáĮįáĮ¡
ab
Ġáĭ¨áĪļáĪ°
ĠáĪĪáįĬáīµ
ĠáĭŃáīłáĪī
ĠáīłáĪĺáĪį
Ġ&
áįĪáĪŃáīµ
áĬĵáĭįáĭ«áĬķ
áĪµáĬ®
Ġáĭ¨áĬłáĮĪáĪŃ
ĠáĪĺáĭµáĪĥáĬĴáīµ
ĠáĮįáĭĽ
áĭ²áīµ
Ġáĭ¨áĪĽáĭŃáī³
ĠáĬ¥áĪµáĬ¨áĪļ
ĠáĪļáĬĴáĪµáīµáĪ©
ĠáĬ¥áĪ·áĪĿ
áĬ¨áĪ°áī±
áĮĩ
ĠáīłáįĢ
áĭĪáīµáĪŃ
áįª
áĬ¨áī°áĪīáīµ
áĬ«áĬ¨áĪį
ĠáĬłáĮįáĬĿáī·áĪį
ĠáĪĪáĪĢ
Ġáĭ¨áĭ°áĪĿ
Ġáī¥áĪ¨áīµ
áĪ¨áĬŀáī½
ĠáĪĪáĪĮáĪĭ
Ġn
áĭĺáĬĽ
áī°áĬŀáī½áĬķ
ĠáĮłáī£áīĤ
ĠáĭŃáĮ«áĬĳ
ĠáĬ¥áĬķáĭ²áĬĸáĪŃ
ĠáīłáĪºáĭİáī½
ĠáĪĪáĪĽáĪµáĭĪáĮĪáĭµ
áī¢áĭį
ĠáĪĺáĮĵáĭĿ
áĪ«áĭİáī½
ĠáĮ£áĪįáīĥ
ĠáĬ¥áĭįáĬĲáī±áĬķ
ĠáĬ¥áĮ¥áįį
Ġin
áĬ«áĪªáĭİáī½
ĠáĪµáĪĪáĪĮ
ĠáĪµáĪĭáĪĪ
ĠáĪ³áĪĻ
ĠáĪĢáĪ³áī¦áī½
ĠáĬ¥áĬķáĭ°áĪļáĮĪáī£
ir
Ġáīłáī°áĪĪáĭ¨
áĮ¨áĪ¨áī³
Ġáī°áĪĺáĪįáĬ¨áīµ
ĠáīłáĮĮáī³
Ġáĭ«áĮĪáĪĪáĮį
ĠáĬłáĭµáĪŃáĮĪáĬķ
ĠáīłáĭĭáĬĵ
ĠáĬłáĭİáĬķáī³áĭĬ
áĬĸáĪ©áīµ
ĠáĪĺáĪ¨áĮĥáĭİáī½áĬķ
ĠáĬ¨áĮįáĪĿáīµ
áĭ°áĭ°
ĠáĮłáĪŃ
áĬķáĮįáĪį
ĠáĪĽáĭįáĮ£áīµ
Ġáī¥áĪŃáĪĥ
áĭŃáīħ
áĬ¨áĬĵáĭį
ĠáĭĪáĪ¨áĪŃáĪ½
áī¥áĭİ
áī°áĪ½
áī°áĮ¨áĪĽáĪª
ĠáĬ¨áĪĺáī¼
Ġáĭ¨áĬ¢áĭ¨áĪ±áĪµ
áīĢáĪĺáĮ«
áĮİáīł
ĠáīłáĬłáĬķáĭµáĬĲáīµ
áĮ¢áĬł
áįİáĪŃ
ĠáĪłáĪŃ
áīłáĪĪáĭļáĭ«
ĠáĮ¸áĪİ
Ġáĭ©áĬĵáĭŃáīµáĭµ
ĠáĬłáĬ«áĪĭáĭĬ
áīĢáĪ¨áīł
§áĪ¨
áĬķáī°áĬķ
áīĥáĭĪáĪĿ
stag
Ġáĭ¨áĭ°áĪ¨áĪ°
áĪħáĬķáĪĿ
áĮĢáĪĺáĪŃáĭ«
ĠáĬĽáĭį
áĭ«áĭ£
ĠáĭŃáĮ«áĭĪ
ĠáīĢáĮ¥áī°áĬĽ
ĠáĬłáĬĵáĭį
áĪĭáīĢáĪį
áĭķáĪĪáīµ
áĭ°áĪ°áī±
ĠáĪĮáĪĭáĭįáĬķ
Ġáĭ«áīĢ
áĪµáīµáĪ«áĪĬáĭ«
ĠáĬłáĪµáī°áĪĽáĪª
ĠáįķáĪ¬áĭĿáĭ³áĬķáīµ
ĠáĮ¾
ation
áĬķáĭ²áĪħ
Ġáī°áĪ°áī¥
ĠáĭĪáĪį
ĠáĪĽáīĨ
Ġáĭ¨áĪļáĮĪáĪį
áĭĪáĪĥáīµ
ĠáĪ°áĭįáĭ¬
áĭŃáĪħáĬķ
ĠáĬłáĭ°áĪ«
áĬķáīĢáĪ³áīĢáĪµ
áĬĲáīłáĪ¨áīłáīµ
Ġáĭ¨áĪļáĭ«áĭ°áĪŃáĮĪáĭį
áĪĪáĪŃ
ĠáĮĪáįħ
ĠáĬ¥áĪĭáī½áĬĭáĪĪáĪģ
ĠáīłáĪ²
ĠáĬ¨áĪ°áĪĽáĭŃ
stagram
áĪ«áĪª
áĭ°áĭ±
áĪ·áĬķ
ĠáĪĺáĬ®
ĠáĪ°áĭįáĬĲáīµ
ĠáĭĪáĭ²áĭ«
áĪµáįĪ
ĠáĬ¨áĮįáī¥
ĠáĬ®áĭµ
ĠYou
áĪĥáī¥
ĠáĪĪáī³
áĭĽáĪī
ĠáĪĮáĪİáī¹
áĮĵáĮĵáĭ£
ĠáĪĺáĪµáĪĺ
ĠáīłáĮł
Ġáĭ¨áĭĪáĬķ
ĠáīłáĮ¥áīĤáīµ
áī³áĭĪáīģ
áĬĲáĮĪáĪ¨
áįķáĪª
ĠáīłáĬłáĬ«áī£áī¢áĭį
ĠáĪĨáĬĲáĬķ
áĬŃáĬķ
ĠáĭĪáĭ°áĬĭáĪĭ
ĠáĮĪáĭ¢
Ġáĭ³áĭŃáĪ¬
áĪĭáī½áĬĭáĪį
áīłáĪĺ
Ġáĭ¨áī°áĪ°áĮłáĭį
áīªáĭµ
ÙĦ
áīĤáĭ«áĭİáī½
áĭ®áĪĲáĬķáĪµ
Ġáĭ«áĪĺáĪĪáĬŃ
ĠáįķáĪ®áĮĢáĬŃáī¶áī½
ĠáįįáĪŃáĪĥáīµ
ĠáĪĪáĭĵ
ĠáīłáīłáĬ©
Ġáĭ¨áĬ¥áĭį
Ġáĭ¨áĮĪáĬĵ
áī¶áĬķ
áĪŃáĮħ
ĠáīµáĮį
áĭİáī½áĬĵ
ĠáĮĢáĪŃáī£
Ġáī³áĪªáĬ«áĭĬ
ĠáįķáĪ®áĮįáĪ«áĪŀáī½
ĠáĬłáĪµáĪŃ
ĠáīĭáĪļ
áĬŃáĬŃ
ĠáĭŃáĬ¨áįį
ĠáīµáĪŃáĮī
áīĭáĪļ
Ġáī°áĬķáīĢáĪ³áīĥáĪ½
ĠáīłáĪĺáĭį
ĠáįįáĪĭáĮİáī¶áī½
Ġáī°áĮ£
ĠáĪĽáĭĺáĮĭáĮĢáīµ
áĪĪáĪħáĪĿ
áį¤"
áĭ°áīħ
Ġáĭ«áĬĲáĪ³
ĠáĮ«áĬĵ
ĠáĭŃáĪ°áĮł
ĠáĭŃáĪħáī½
ĠáĬłáĭĪáĮ£
áĬĿáīµ
ĠáīµáĪį
ĠáĪĺáĬķáĪµ
ĠáĭĿáĪŃáĭ«
ĠáĭĪáĭ³áĮħ
áĪŃáĮ¥
áĭ´áĬķ
ĠáĪĪáī°áĭĪáĪ°áĬĲ
ĠáĭĪáĭ³áĮĦ
áī¦áĬĵ
áĮĨáī¼
27
ĠáĬłáĪĺáĪµ
áī¸áĭĭáĪĪáĬķ
Ġáĭ¨áī°áĪŀáĪĭ
ĠáĭĻáĪŃ
áĪ¨áĬ¨
ĠáĪĽáĪĪáī´
ĠáĪĬáĪ¨áĭ³
ĠáĮ¥áĬĵáī¶áī½
ĠáīĢáĬĳáĬķ
áī½áīłáīµ
Ġáī°áĬĵáĮĪáĪ¨
Ġáĭ²áĮįáĪª
Ġáĭ¨áī£áĬķáĬŃ
Ġáĭ°áĬ«áĪĽ
áĭ°áĪĪ
Ġáĭ«áĪµáī½
Ġáĭ¨áī¥áĭĻ
ĠáįĮáĪµáī¡áĬŃ
Ġáīłáĭ¨áĮĬáĭľáĭį
ĠáīłáĮĬáĭľ
Ġáī°áĭĪáĪµ
ĠáĬłáĪ¨áĮĭáĮį
Ġáī³áĪĭáīģ
áī¤áī´
áĪķáĪŃ
ĠáĪĽáĮ£áīµ
áĪĭáī±
ĠáĪįáĮ¥
ĠáĬ¥áĬķáĭ²áĭ«áĮĪáĬĻ
áĮłáĪ«áĪį
thiop
ĠáĬ«áĪ³
ĠáĬłáĭįáĪ«
ĠáĪĺáĬĵ
áĭµáĬĳ
áī¥áĮ¥
Ġáĭ¨áĪłáĪ«
áĭŃáĭµ
Ġáĭ¨áĬłáĭ²áĪµ
ĠáĬĲáĭįáĬķ
ĠáĪµáĬĲ
ul
ĠáĪµáĪŀáī½
ĠáĭŃáĪĿ
ĠáĪµáĪĿáĪĿ
ĠáĪĽáĭįáĪ«áīµ
ĠáĬłáĪĪáĪħ
ĠáīłáĬ¥áĮħáĮī
ĠáĪĥáĮĪ
ĠáĪĽáĪµáĮĪáī£áīµ
ĠáĬ¢áĪ³áĭŃáĭ«áĪµ
ĠáĬŃáĪįáĪİáī½
ĠáĪģáĬķ
ĠáĬ¨áįĭ
Ġáĭ²áĭĽáĭŃáĬķ
ĠáĪĺáĬª
ĠáĪĪáĪĽáĪ³áĬ«áīµ
ter
ĠáĭŃáĭ°áĪŃ
áĭķáĪĿ
áĬĵáī¸áĭįáĬķ
ĠáĬłáĪıáī¸áĭį
ĠáĪļáĪµáĮ¥
ĠáĪĲáĪ³
áĪ¨áĭ°
oc
Ġáīłáī°áĭĪáĪ°áĬĲ
ĠáĪĽáī¥áĪ«áĪªáĭ«
ĠáĬłáĬķáĪµáī¶
áĪµáī¸áĬ³áĭŃ
ĠáĬłáĪįáĮĭ
ĠáĪĪáĪĺáĮĪáĬķáī£áīµ
Ġáĭ¨áĪĺáĪį
áĬķáĭĭ
áīłáĬķ
ĠáĪĪáĪ«áĪµ
áī¹áĪĿ
Ġáĭ¨áĬ¥áĬĲáĭļáĪħ
Ġâĺ
áĭ®áīµ
áĭĿáīĥáĭĽ
ĠâĢº
áĬĲáī¶áī½áĬķ
ĠáĬ¢áīµáĭ®áĮµáĭ«áĭĬ
ĠáĬłáĭŃáĪĺáĪµáĪįáĪĿ
ĠáĬĴáĭį
ĠáīłáĪĿáĬķáĪĿ
ĠáĪĺáīĢáĭ¨áĪŃ
ĠáīłáĬ¥áĪ³áīµ
ĠáĬłáĪ°áĪįáĮ£
áĪ«áĪ«
ĠáĭŃáĪĪ
ĠáĪ°áĬķ
ĠáĪ°áĪĭáĪĽáĭĬ
áĪµáĬŃáĪĮáīµ
Ġáĭ¨áī°áĮĪáĬĺ
ĠáĪ°áĮª
Ġáīµáĭį
áĬĿáī³
áĭĪáĮ£áīµ
ĠáĪįáĭįáĭį
ĠáĬ¨áĪĨáĬķ
ĠáĪ¦áĪµáī°áĬĽ
áĪ°áĮ¥áĪĿ
Ġáĭ¨áĬłáĪĿ
áĪŃáĪĥáĪĿ
ĠáĮįáĪ©áĪĿ
áĬ«áĪ½
áīłáĪ»
áī¡áĪį
ĠáīłáĪŃáĪµ
Ġáĭ¨áĪĺáĪ°
ĠáīłáĬ¥áĮįáĪŃ
Ġáĭ¨áĪħáĬŃáĪĿáĬĵ
ĠáĪĺáĮ¨áĪĺáĪŃ
ĠáĪµáĪĪáĪĽáĭŃ
ĠáĪĺáĮ¸
áĬĲáĭĺ
Ġáĭ«áĪĿáĬĵ
ĠáĬłáī£áī±
áĪĭáĭįáĭ«áĬķ
áĪİáĪĿ
ĠáĪ½áĭ«áĮŃ
Ġáĭ¨áī°áĪŁáĪĭ
ĠáĪĪáĬĲáĮĪáĪ©
ĠáĪĪáĪĺáī°
ĠáĪĪáĬłáī¥
áĭµáĮį
áįĪáĬĲ
áĪĺáĪµáĪ¨áīµ
ĠáĪĨáĬĲáĭĭáĪį
ĠáĬłáĪµáī°áĭ«áĭ¨áī¶áī½
Ġáĭ¨áĪĿáĬķáī½áĪĪáĭį
ĠáĬ¥áĬķáĪµáĪ³
ĠáĬ«áĪľáĪ«
áįİáī¶
ĠáĪ°áĬłáīµ
Ġáĭ¨áĭĪáĭ°áįĬáīµ
ĠáĪĪáĪĽáĪ³áĭ°áĮį
ĠáīłáĪĺáĮį
Ġáĭ¨áĬłáīµ
Ġáīłáī°áįĪáĮ¥áĪ®
áĪĪáĪĽáī½áĬķ
Ġáĭ¨áĪĻáīĢáīµ
áĮĪáįį
Ġ70
áĬĳáĪŃ
ube
ĠáĬ¨áĪĻ
ĠáĬķáĮĪ
ĠáĮĢáĮįáĬĵ
ĠáĪŃáĭĿ
ĠáįķáĪĭ
ĠPost
ĠáĬŃáĪŃáĬŃáĪŃ
ĠáīłáĪĺáĬķáĮĪáĭµ
ĠáĮįáĭĻáįį
áĭĴ
Ġáĭ¨áĭĪáĭ«áĬĶ
Ġáī°áĬŃ
ĠáīĨáĪ»áĪ»
ĠáīłáĪģáĪĪáī±áĪĿ
ĠáĬłáĪīáī³áĭĬ
Ġáĭ¨áĮįáī¥áĪŃ
Ġáĭ¨áĭļáĪħáĬķ
ĠáĪĪáī£
Ġ2014
ĠáĪĪáĭĪáĭ°áįĬáī±
áĪİáĮį
áĮłáĭŃáīģ
Ġáīłáĭ°áĪį
ĠáĪĽáĪµáĭĪáĮĪáĭµ
ĠáĪĺáĪŃáĪĥ
ĠáĮĵáĭ°áĬŀ
ĠáĪĺáĪĭáĬŃ
ĠáĮīáĪŃáĪ»
áĪĪáĪĺáĭ°áĭį
Ġáĭ¨áĪļáĪ°áĪĽ
ĠáĬłáĬŃáī¥
Ġáĭ¨áĪĨáĬĳáīµ
Ġáĭ¨áīłáĪ¨
áĮ£áĪ¬
áĮłáĬĵáīĢáīĢ
Ġáĭ¨áĬłáĪµáī°
Ġáīªáĭ²áĭ®áĭİáī½
ĠáĭŃáĮįáī£
Ġáĭ¨áī°áĪ»áĪĪáĭį
áĪµáĪį
ĠáĪĪáĭ°
ĠáĬłáĪµáī°áĬĵáĮĭ
ĠáĮŃáĬķáīħ
ĠáīłáĪĺáĪł
ĠPl
ĠáĪĺáĮ»áįį
Ġáĭ¨áĭ°áĪħáĬķáĬĲáīµ
ĠáĮįáįĬáīµ
áĪŃáĮĭ
ĠáĪĿáĭµáĪŃáĬķ
ĠáĬĲáĭĭáĪª
áĪ°áĬĿ
ĠáĬ¥áĬĶáĬĵ
áĮĪáĪ¨áĬĿ
áĬŃáĪŃáĪµáī²áĭ«
áĭĭáĪŃáĭ«áīµ
ĠáĪµáĭ°áī°áĬŀáī½
áĪ«áī±
Ġáĭ¨áĪĤ
Ġáĭ¨áĪµáįĸáĪŃáīµ
áĮ«áĭĪáī»
ĠáĬłáĪįáĬĲáīłáĪ©
áĬķáĭ°áĬķ
ĠáĪ°áĮ¥áī¶
ĠáĬ¥áĭ¨áīĢ
ĠáĬ¢áĬ®áĬĸáĪļáĭ«áĭĬ
áĪĭáĮħ
Ġáĭ¨áĪĽáīµ
ĠáĮ¸áĮĭ
ĠáīłáĪļáĭ«áĪµ
áĭ°áī±
ĠáĭįáĪ»
Ġáĭ¨áĪļáĪ°áĮłáĭį
ĠáĪĥáĭŃáĪį
áĭ°áĪī
Ġáĭ¨áĪļáī½áĪīáīµ
ĠáīłáĮīáĮīáīµ
ĠáĮłáĮħ
ĠáĭĺáĮłáĬĿ
áĪ¯áĭĬ
áĪĮáĬŃáīµáĪ®
ĠáĬłáĭĿáĪĽáĪļáĭ«
ĠáĪĪáĪĽáĪĿáĮ£áīµ
ĠáĬłáĬķáĭ³áī½
ĠáīłáĬłáĮŃáĪ©
Ġáīµáī½áĪĭáĪĭáī½áĪģ
ĠáĮīáī¥áĬĿáīµ
ĠáīłáĪŃáĮįáĮ¥
áįĪáī³
Ġáĭĺáĭį
ĠáĪĺáĭĿáĬĵ
ĠáĪĽáĪĪáįį
áĬ¨áĪĺ
áī¥áĪĬáĬŃ
áĭĭáĮŃ
Ġáĭ¨áĬłáĮĪáĪįáĮįáĪİáīµ
ĠáĭĺáĭŃáī¤
ĠáĪĺáĪĨáĬĵáī¸áĭį
áĮłáĮ¥
ĠáīłáĭĵáĪĺáīµ
ĠáĭŃáĬĸáĪ¨áĭĭáĪį
ĠáĬłáĭŃáī°
áĪĪáĪĿáĭ¶
áĭįáĬķáīµ
áĭĪáĪ°áĭ°
áĬµ
ĠáĬ¨áĭįáĮŃ
Ġáĭ¨áĭµáĬķ
Ġáī°áĮłáĪŃ
Ġáĭ«áĪĿáĬĵáĪī
ĠáĪŀáī°áĪŃ
Ġáĭ¨áĭļáĭ«
ĠáīłáĪĨáĬĳ
áĭ¨áĬ¥
Ġáĭ¨áĭĪáĭŃáĬķ
ĠáĬłáĭµáĪŃáĮī
Ġg
Ġáī¥áīģ
áĮĪáĬĻáĪĿ
áĪ¶áĪµáīµ
áĪįáīĢáīµ
Ġáĭ¨áĪļáĪĺáĮ£áĭį
ĠáĬ¥áĪ«áĪ±áĬķ
Ġáĭ¨áĪĺáĪ¬áīµ
Ġ198
áīĢáĭįáĪĿ
ss
áĬ«áĭ®áī½
áĭĽáĪĽ
áĮłáīģ
Ġáĭ¨áĪļáĪ¸
ĠáĪĭáĪĪáĪĺ
áĪŃáĪµáīµáĬĵ
áĮłáĪī
áĪĲáĪ´
ĠáĬłáĭŃáĭĪ
áīłáĪ¨áĪ°áī¡
áĬĲáīµáĬĵ
Ġáĭ¨áĪĽáĪħ
Ġáī£áĪĪáīłáīµ
ĠáīłáĪµáįĭáīµ
im
ĠáĬ¥áĬķáĭµáĬĵ
áįĭáĪª
ĠáĪ½áĪįáĪĽ
Ġáī°áīĨáĮ£
áĮłáĪ«áĭį
áĪ¬áĪ½áĬķ
Ġáĭ¨áĪļáĭ«áĪ³áĭŃ
ĠáĬłáĪķáĭĽáī¥
ĠáĪ¥áĪ«áĭįáĬķ
áĬ©áĪµ
ĠáīłáĬłáĮĪáĪªáī±
Ġáī¤áī±áĬķ
ĠáĪ²áĭ«áĪµ
ĠáĬ¥áĬķáĭ°áĪĮáĪĪ
Ġáĭ¨áĪħáĮį
áĮłáĪ©áīµ
ĠáĬ¨áĪĺáī¼áĭįáĪĿ
Ġáĭ¨áī°áĭĺáĮĭáĮĢ
Ġáĭ¨áī°áĪĪáĭ«áĭ¨
áĮ»áĪį
"áį¢
ĠáīłáīĥáĪį
ĠáīłáĪĨ
ĠáĮĢáĪĺáĪ©
áĪ¨áĬ«
áĭĪáĪ°áĭ±
Ġáĭ¨áĬłáĬ«áī£áī¢
Ġáĭ¨áī°áĪ¸
áĭĪáĭ³áĭ°áĪŃ
ĠáĭĪáĭ°áĭļáĭ«
áīĨáĪĽ
ĠáĬłáĪµáĪĺáĪį
áĮłáĭ¨áīģ
ĠáĪĽáĪµáĮłáĬķáīĢ
áĮĥáįĵáĬķ
ĠáĬ¥áĪŃáĪµáĭİáĬķ
ĠáĬŃáĪħ
áĬŃáĪ©
ĠáĪĺáī°áĮįáīłáĪªáĭ«áĭį
ĠáĮĭáĭľáĮłáĬĽ
áĮ®áī½áĬķ
ĠáĭĿáĮįáĮħ
ĠáīłáīµáĬŃáĬŃ
ĠáĪĪáĬ¥áĬĲáĪŃáĪ±
ĠáīłáĬĲáĮĪáĪ«áī½áĬķ
ĠáĪķáĬķáįĥ
ĠáįįáĪŃ
Ġáī°áĬ³
áĪ°áĬĵ
áīĢáī½
ĠáĬ¢áĭ«
áĮĪáī£áī¸áĭį
ĠáĮįáĮ¥áĪĿ
áĮ½áįį
ĠáĪģáĪĪáī±áĬķáĪĿ
áĪĿáīłáĪŃ
áįįáĮłáĪŃ
Ġáĭ®áĪ´áįį
áĪ¸áĪ«
ĠáĬłáĮ¥áī¥
áĪŃáĭ³áī³
áĪıáīµ
ĠáĭĭáĬĲáĬĽ
ĠáĭŃáĪĺáĮ£áĪī
ĠáĪģáĬĶáī³áĭį
ĠáĬłáĪĪáĪĺáĪĨáĬĳáĬķ
ĠáĪĿáĪŃáī¶áī½áĬķ
áįķáĪİ
ĠáĪĺáĪ¥áĭĭáĭķáīµ
áĮĪáĪĭ
ĠáĬķáīģ
Ġáĭ¨áĪ±
Ġáĭ¨áĪ°áĪĭáĪĿ
ĠáĭŃáĮ¥
Ġáĭ³áĬķáĬ¤áĪį
Ġáį³
áĪļáĬĴ
áĬĢ
ĠáĮ©áĬ¸
ĠáĮĲ
ĠáįĶ
ĠáīłáĬłáĪĽ
ĠáĬłáĪµáī°áĭĭáĮ½áĬ¦
ĠáĬ¥áĪŃáĪ»
ĠáĬ¥áĪ³áī¸áĭį
Ġáĭ¨áĪĻáĭ«
Ġáĭ¨áĪ´áīµ
áĮ£áĭĬ
ows
Ġáĭ°áĬķáīłáĬĽ
áĪ¨áĬŃ
ĠáĬ¥áĬķáĭ°áĪļáĪ°áĪ«
ak
ĠáĭŃáĭĪáĭ³áĪį
ĠáĪĺáīĨáĭ¨áīµ
ĠáĪĪáĪĿáĬķáĭµáĬĲáĭį
ĠáĭŃáĭĪáīģ
ĠáīłáĬłáĮŃáĪŃ
ĠáĪĺáĮ½áĪĶ
Ġáĭ«áĭ°áĪ¨áĮį
Ġáĭ«áĭķáīĨáī¥
ĠáĬ¨áĪŀ
ĠáĭĪáĬª
áĮİáīµ
Ġ34
ĠáįĢáĪĲáĭŃ
áĭŃáĭŃáīµ
áĭ¨áĬĿ
ĠáĪĦáĭ¶
áĬĵáī½áĪģ
áĬķáĭ®
ĠáĭįáĪ¸áīµ
ĠáīłáĬŃáĪŃáĪµáī¶áĪµ
ĠáĭĮ
ĠáĬ¨áĪģáĪĪ
áĪĽáĭįáĭ«áĬķ
áĮĭáĮĪáī¥
ĠáĪĪáĭ¨áīµ
ĠáĪĪáĪĺáĭįáĪ°áĭµ
ĠáĬĲáī¢áĭ«
Ġáĭ¨áĬłáĪĭáĪħ
áĪĽáī½áĬķ
ĠáĬłáĮłáĬĵ
Ġáĭ¨áī°áĭĪ
ĠáĮ¥áīł
ĠáĭµáĪŃáĭµáĪŃ
Ġ37
ĠáĪĺáĪįáĬłáĬŃ
áĪ³áĪ«
ĠáĪķáĭ«áĭį
áĪ«áī¶áī½
áĭ«áĭķáīĨáī¥
ĠáĪĪáĪĺáĬķ
ĠáīłáĬłáĭ¨áĪŃ
áĪ¨áī¡
áī¨áĪŃáĪµáī²
ĠáįĸáĪĪáī²áĬ¨
Ġáī¥áĪĶáĪŃ
áĬĲáīħ
áĭĺáĪŃáĪĭáĬķáĭµ
áĭŃáĬĲáĪĺáĪ¨áī¥
áįĭáĭį
áī»áī½áĬķáĬķ
áįĭáĪŃ
ĠáįĪáĪ«
áĪĭáĬ©
ĠáĭŃáĭĪáĮ£áĪį
Ġáī°áĭ°áĪ«áĪ½
áĮĵáĭµ
Ġáī£áĪħáĪĭáĭĬ
Ġáīłáĭļáĭ«áĭį
áįįáĪ©
Ġáīµáī¥áī¥áĪŃ
ĠáĪĽáĮįáĬĽ
áĬķáīº
ĠáĪĺáĮłáĮ¥
ĠáĬ¥áĭĽ
ĠáįķáĪ®áįĮ
ĠáĮłáīĢ
áĭ³áī½áĪģ
áī¥áĪŃáĪĥáĬķ
áĬŃáĪįáĪį
ĠáīĢáĮ¥áĪıáĪį
ĠáĪĽáĪ³áĭ¨áīµ
ĠáĬ¨áĪĢ
Ġáĭ¨áĬ¥áĬĲáĪ±
ĠáĪįáī¤
áĮłáī¥áīģ
ĠáĪĺáĮ¨
áīĢáĪĺáĮ¡
Ġáī°áī¥áĪĪáĭį
áĭ°áĪŃáĮįáĪĿ
ĠáĪĺáīħáĭ°áĪµ
áĭįáĪī
áĬ¥áĭŃ
ĠáĪĪáĪĻáĪī
ĠáĬ¥áĪ¨áįįáīµ
ĠáĪĽáĪ¸áĬĲáįį
áĪįáīł
ĠáĪĪáĪĺáĪĪ
Ġáĭ©áĬĴ
áĬłáĪįáĬĵ
áĭĺáĭĺ
ĠáĭĪáĬķáĭµáĪľ
ĠáĪ°áĬĶ
ĠáĬ¥áīħ
ĠáįįáĮ»áĪľ
ĠiOS
ĠáĪĺáĬķáĮĪáĭ±
ĠáĭĪáī³áĭ°áĪ«áĭĬ
áĮĪáĪĪáįĢ
ĠáĬłáĭŃáĭ°áĪĪáĬķáĪĿ
áĪ«áī¸áĭįáĪĿ
Ġáī£áĪ»áĮĪáĪŃ
ĠáĬłáĪ³áĪįáįİ
Ġáīłáī»áĭŃáĬĵ
áĬ¨áī³áī³áĭŃ
áī°áĬ®áĪŃ
ĠáĪ©áīħ
ĠáīłáĪľ
áī¾áīµ
ĠáīłáĪĺáĪŃ
ĠáīłáĪĺáī£áĪį
:,
60
Ġáĭ¨áĪįáī¥
áĬķáĭ°áĭļáĪħ
áĮİáī½áĬķ
áĬĲáĮĭáĮį
ĠáĭŃáĪįáīģáĬķáĪĿ
áĭĺáĮĪáīł
áī¥áĪ®áī½
ĠáīĨáĪŃ
ĠáĪĺáĪĥáĪį
áĭ°áĪ«áĪį
ĠáĬ¥áĬķáĭ°áĪļáĬ¨áī°áĪĪáĭį
Ġáĭ¨áī°áĪ³áĪ³áī°
ĠáĬ¥áĭ«áĬķáĭ³áĬķáĭ±áĬķ
Ġáī°áī°
áĭ¨áĭįáĬķ
ĠáīłáĬ©
Ġáĭ«áĪĪáī¥áĬķ
Ġáĭ¨áĪįáĪĽáīµ
áĪ¨áĭ³áĭį
ĠáĬ®áĪĮáĮħ
ĠáīłáĬłáįįáĪªáĬ«
Ġáĭ«áĪĪáī£áī¸áĭį
Ġáĭ¨áĪĺáĮ½áĪĲáįį
ĠáĪĿáĬķáĮ®áī½
ĠáĭŃáĮłáīħ
ig
áĪļáĬķ
ĠáĪĿáĪµáĪ«áīħ
Ġáĭ¨áĪĺáĪŃ
ĠáĪĮáĪĭáĬĽáĭį
ĠáĪĺáĮĪáĬĵáĬĺáīµ
Ġáĭ«áĪĪáĪĿáĬķáĪĿ
ĠInstagram
áĪĪáĭ©
áīĥáī½áĪģ
Ġáīłáĭ©áĬĵáĭŃáīµáĭµ
áĪĺáĮł
Ġáĭ¨áĭĭáĮĭ
ĠáĪĿáĮįáī¦áī½
Ġáīłáī½
Ġáĭ«áĭ°
ĠáĪĪáĪĺáĮįáĪĪ
áī³áĭįáĬķ
ĠáĪĭáĪĪáįīáīµ
ĠáĬłáĪįáīł
ĠáĬ¢áĭ¨áĪ±áĪµáĬķ
ĠáĪ«áĪ´áĬķ
ĠáĪĽáĪį
ĠáĬ¥áĬĵáĪµ
áĪĢáīµ
áĬĵáĭįáĬķ
Ġáī°áĪĺáĪįáĬ¨áī±
indows
áī³áĭ¨áĭį
áī¶áī¼
ĠáĬĲáĮ»áĬĲáīµ
ĠáĪ°áĪŀ
ĠáĭŃáįĪáĮ¥
ĠáīłáĬłáĪĿ
Ġáĭ¨áĪ½áĭ«áĮŃ
áĬŃáįĪ
Ġáĭ¨áī°áī£áĪĪ
Ġáĭ¨áĪµáĪįáĬŃ
ĠáĮ´áĮ¥áĪ®áĪµ
ĠáĭŃáĬ¨áįĪ
ĠáĬ¨áĪĽáĬķáĬĽáĭįáĪĿ
ĠáĪħáĭĿáī¦áī½
áĪ¨áĮĭáĮĭáīµ
ĠáīłáĬłáĬķáĭ±
Ġáīłáī°áĪĪáĪĿáĭ¶
ĠáĪĮáĪİáī½áĪĿ
áīĨáĮ£áĮłáĪªáĭ«
ĠáĭķáĭįáīĢáīµ
ĠáĬ¨áĪĥ
áĭİáīµáĬķ
áįįáī³
ĠáĪĪáĪĺáĪĽáĪŃ
ĠáĬ¥áĭ«áĭ°áĪ¨áĮĪ
ĠáĭīáĪµáĮ¥
ĠáĬĲáīłáĪŃáĬķ
Ġáĭ¨áĪ«áĪ³áī¸áĭįáĬķ
ĠáĭĿáĪŃáĭĿáĪ®áī½
áĮįáĮįáĪŃ
Ġáĭ¨áĭįáĪĤáī¥
áīĨáĪĻ
áĪ³áĭŃáĬķáĪµ
áĭįáĬķáĪĿ
ĠáīłáĭµáĬķáĮĪáīµ
áīĢáīµáĬķ
Ġáĭ¨áĪĿáĪĪáĭį
ĠáĭŃáĭĽ
Ġáī°áĪĺáĪŃ
áįĪáĪįáĮīáīµ
ĠáīµáĬ¥áĭĽ
áīĨáĭ©
áĬħáīłáĪ«áĭĬ
ĠáĪĺáĪ¬
áĬ¨áĬĵáĭĪáĬĳ
ĠáīģáĮ¥áĪ®áī½
Ġáĭ«áĭ°áĪŃáĮī
ĠáĪĺáĬķáĭ°áĪŃ
ĠáĪĿáĬ¥
áī¢áĭİáī½
ap
áĪĪáīĨ
Ġáī°áīł
ĠáĪ°áĪľáĬķ
ĠáĪ½áįĭáĬķ
ĠáĪĺáĭ°áī¥áĪŃ
ĠáĪĺáĬķáĪµáĬ¤
áĪįáī£
áĮĨáī»áī¸áĭį
Ġáĭ¨áĮ¨áĭĭáī³
ĠáĪĪáĪĺáĪĺáĪįáĬ¨áīµ
ĠáĬĲáīłáĪ¨áīłáīµ
Ġáĭ¨áĪļáī»áĪį
Ġáĭ¨áĪĺáĮį
áīĨáĪĺ
áĭĭáĪĪáī½
Ġáĭ«áĪĪáĬĲáĭį
ĠáĪĽáĮ¥áįĭáīµ
áĮ¨áĬĲáīģ
áĬ¨áī¥áĪŃ
Ġáīµáĭ³áĪŃ
ĠáĬłáĮĭáĪŃ
Ġáĭ³áĮįáĪĺáĬĽ
áĭĪáĭŃáĪĿ
199
Ġ500
ĠáĪĪáĪĨáĬĳ
ĠáĬłáīħáĪŃáī¦
ĠáīłáĪ³áĪĿáĬķáīµ
ĠáĭŃáĭĪáĪ°
Ġáĭ³áĭĬ
Ġáĭ¨áĮĪáīłáĭ«
ĠáįĸáĪĪáī²áĬ«áĭĬ
Ġáĭ¨áī°áįĪáĮłáĪ¨
áĮĪáĪī
ĠáĪĺáĪįáĪ±
ĠáĬ¨áĮĵáĭ°
ĠáīµáĮįáīł
ĠáĪĺáĬķáĮįáĪ¥áī³áīµ
Ġáī£áĪįáī°
áĮ£áĪĪáĪģ
Ġáī«áĭŃáĪ¨áĪµ
áĭ®áĬĸáī½
áĬĴáĬ«áĭĬ
áī³áĪŃ
ĠáĪĪáīħ
ĠáĪĿáĪĭ
áĬķáĪ³áĭĬ
ĠáĬ¨áĪĿáĬķ
áī£áī´
áĬĵáĮĪáĭµ
Ġáĭ¨áĪļáĪ°áĪ©
ĠáīµáĬĵáĬķáĪ½
ĠáĪĪáĪµáĪĭáĪ³
áĮłáī¢áĭ«
ĠEthiop
ĠáĪķáĮĭáĭĬ
Ġáĭ¨áĪļáī³áĭŃ
ĠáĪĬáĮį
áĭĭáĭŃ
ĠáīĢáĪª
Ġáĭĺáįį
Ġáĭĳ
ĠáĪĺáĪįáĬ¥áĬŃ
áĬ¤áĪĭáĭįáĭ«áĬķ
ĠáĬ¥áĪ«áĪ±
áįĪáĮłáĪ¨
ĠáĬ¥áĭļáĭ«áĭį
ĠáĬłáĮĭáĪĽáĪ½
ĠâĢ
áĮŃáīłáĪŃ
ĠáĬ¨áĪĨáĬĳáīµ
áĪįáīµ
ĠáĬłáī£áī¶áī½
áĪĻáĪµ
Ġáī°áĬ¨áī°áĪį
áįĪáĮ¥
áī¥áĪİáĪµ
ĠáĬłáĪįáĬĲáīłáĪ©áĪĿ
ĠáĪĪáĬ¥áĪ±
od
ĠáĬ¥áĪ´áīµ
te
áīĢáĪ°
ĠáĬ¥áĪĽ
ĠáĬĲáĮĪáĪ¥
áĪĽáī½áĪģ
áĬĹáĬĹ
Ġáī£áĪīáīµ
Ġáĭ¨áĮłáįĭ
ĠáĭŃáĮ¨áĪĿáĪ«áĪį
ĠáĮŃáĬķáīĢáīµ
Ġáĭ¨áī°áĪ°áĪĽ
Ġáī°áĬĲáĪ¥
ĠáĪĪáĪĺáĭ«áĭĿ
áĭĪáĪĪáĭ°
Ġáī¡áĭµáĬĳ
áĬĸáĪ¨áĬķ
Ġáĭ±áīĦ
ĠáĪįáĮģáĬķ
Ġáĭ¨áĭĺáĪŃ
áĪ°áĬĵáĪį
áī¢áĭ©
Ġáĭ«áĪµáī£áĪī
áĮĢáĬķáĪ²
áĬ«áĪŃ
ĠáīµáĭķáĭĽ
áĭª
Ġáĭ¨áĬª
ĠáĬ¥áĮĪ
Ġáĭ«áĪĺáĮ£áĪį
ĠáĭĪáĬķáīłáĪŃ
Ġáī³áĭįáīĭáĪį
ĠáĪĪáĭĵáĪĪáĪĿ
Ġáĭ«áĪįáī°áĪĪáĪĺ
Ġ38
áįķáĪĭ
Ġáĭ¨áĭ¶
Ġáī¥áĪĦáĪ«áĭĬ
ĠáĬ¢áĭ®áī¥
áĬķáĭ´áīµ
áĪµáĭ«
áĬĵáīµáĬķ
ĠáĪµáīµáĪį
áĪ°áĮ¡áīµ
ĠáĬłáĪłáĪ«áĪŃ
ĠáĬ®áĪªáĭ«
ĠáĮģ
Ġáĭ¨áī°áĬĲáĪ£
ĠáīĤ
áĮįáĪ«áĪĿ
áī³áĬĶ
ĠáĭŃáīłáĪįáĮ£áĪį
ĠáĪĪáĪĺáī³
ĠáĪĺáĪµáįĪáĪŃáīµ
ĠáĭŃáĬ¨áĪ°
Ġáīłáī³áĪĭáīħ
ĠáĪĽáĬ¨áĪĽ
ĠáĪĽáĪ»áĪ»áĭ«
ĠáĬ¥áĭįáĬĲáīµáĬķ
áĭĺáĭĭáĪį
Ġáĭ¨áĭĪáĬķáĭµ
ĠáĬĵáĪĻáĬĵ
ĠCO
ĠáĬłáĮĪáĪįáĮįáĪİáī¶áī½áĬķ
áīĭáĬķáīĭ
ĠáĪĺáĮĪáĬķáī£áīµ
ĠáĬ¨áīħáĪŃáī¥
ĠáīłáĪļáĪĪáĭį
ĠáĬ¥áĭ«áĭ°áĮĪ
ĠáĬłáĮĪáĪªáī±
áĪŃáīµáĪ«
ĠáĪĺáĮĪáĪĺáīµ
ĠáĪĬáī°
ĠáĬłáĬĵáĭįáīħáĪĿ
Ġáī°áĮİ
ĠáĪ°áĭįáĭ¨áĭį
ĠáĭŃáįį
ĠáĪ°áĬŀ
ĠáĬ¥áĪµáĬªáĭ«
ĠáĬłáĮĪáĬĵ
ĠáīģáĪį
áĬĲáĬĿ
Ġáĭ«áĭĪáĮ£
ĠáĬ¥áĮĥ
áīłáĮ¥
ĠáĬ¥áĪ³
ĠáĪ³áĪĿ
ĠáĮĪáĭĿ
áįīáĪĿ
ĠáīłáĬłáĮĪáĪŃ
áĪ½áĬĲáīµ
áīĥáĪµ
ĠáĬłáĪµáīĤáĬĿ
ĠáĮĪáĭ¥
ĠáĬ«áĬĵáĭ³
ĠáīłáīĢáĭ³áĪļ
áĪ°áĪ¨
áī»áī½áĪģáĬķ
áīłáĭļáĪħ
ĠáĭķáĮ£
áĪŃáĪµáīµ
ĠáĪ°áĭİáī½áĪĿ
ĠáĭŃáĪĤáĭ±
Ġáĭ«áĭĪ
áĭ«áĪľ
ĠáĪĮáĪĬ
ĠáĬłáĭ²áĪ±áĬķ
áĬķáī§
ĠáĭŃáĪ°áĪ«
ĠáĬ®áĬ¨áī¥
áīºáĬķ
áīĭáīĭáĪĺ
Ġáī³áĪªáĬ®áī½
ĠáĭĺáĭĪáīµáĪŃ
áĪĺáĮ£áĮ£áĬĿ
Ġáĭ¨áĪļáĮĪáī¡
ĠáĪĭáĪį
áĭĺáĪĺáĬķ
ĠáĪįáĮĨáī½áĬķ
ĠWindows
ĠáĬłáĪĿáĪĭáĬ¬
Ġáĭ¨áĮįáī¥áĭŃáīµ
ĠáĪĪáĪĺáįĪ
ĠáĪĺáĪįáĭķáĬŃ
Ġáĭ¨áĭ¨
Ġáī°áīĥáĪ«áĬĴ
áī½áĭįáĬķ
áĪ¨áĪŃ
áĬķáĮįáī°áĬķ
ack
29
ĠáĪĢáī¥áī³áĪĿ
ĠáĭŃáĮĪáĬĵ
áĪĺáĬĵáĪį
áĪ«áī¢áĭ«
ĠáĪ³áĭŃáīĢáĪŃ
ĠáĮ¥áĭ«áīĦáĭİáī½áĬķ
Ġáįİáī¶áĮįáĪ«
Ġáī°áĪ°áĮ¥áī¶
Ġáīłáī°áĪĪáĭ«áĭ¨
áĮłáīĢáĪ°áĭį
Ġáĭ¨áĭ°áī¡áī¥
áĮ¥áīħ
ĠáĪĽáįį
áĬ¨áĬĵáĭĪáĬĲ
áĭķáĭŃ
ne
áĬķáĮİ
áī°áĭĪ
Ġáī°áĪ¨áĭµ
áĬ¨áĪ°áī°áĭį
áĪ¨áĪ°
Ġáī°áĮ¨áī£áĮŃ
ĠáīģáĪĽáĪŃ
ĠáĭįáĭŃáĭŃ
ĠáĬŃáĬķ
ĠáīłáĬłáĭŃ
áĪĿáĬĵáĪĪáĬķ
ĠáĪ³áĪĻáĬ¤áĪį
áĪªáįį
ĠáīłáĬ¥áĪŃáĮįáĮ¥áĪĿ
áĭĪáĭ«áĭ¨áīµ
ĠáĪµáĪĪáĪļáĭ«
Ġáīłáī¥áĭĽáīµ
ĠáĬ¨áĪŀáīµ
Ġáįī
áī¡áĪµ
ĠáĮ¨áĭĭáī³áĭį
ĠáįįáĮ¡
ĠáĬłáĪįáĬ©
ĠáĬłáįĪáĮ»áĮ¸
Ġáĭ¨áĬĵ
ĠáĪĺáĬ«áĬ¨áĪĪáĬĽ
Ġáĭ°áĮĭáįĬ
ĠáĬłáĪŃáī²
áĮłáīĢáĪĿáīłáīµ
áĬ¥áĬĲ
ĠáĭįáĪµáĬķ
áĪĿáĪµ
ver
ĠáĬ¥áĪ°áĮ£
),
áĮ»áįĪáĭį
áĭµáĪµ
áĪµáī³áĭįáĪµ
Ġ2008
ĠáĪĪáĪĺáĪį
ĠáĬ¢áĭ¨áĪ©áĪ³áĪĮáĪĿ
ĠáĪĪáĭ°áĬķ
áĪģáĪĭáī½áĬķáĪĿ
áĪµáī°áĬŀáī½
ĠáĭĵáĪĺáī³áĭĬ
ĠáĭŃáĪĦáĭ³áĪī
áĮ£áī¢áĭ«
áĬķáī£áī³
ĠáĪ°áĪĭáĪĿáī³
ĠáĪĿáĬŀáīµ
ĠáĪĺáĪĭáĬ¥áĬŃáīµ
áĪĽáĪĺáĮ¥
áĪĽáĪĿ
Ġáī³áĪĿ
ĠáĪĬáĭĪáĪµáĭµ
Ġ45
ĠáĬ¨áĪĺáĮĢáĪĺáĪªáĭ«áĭį
ĠáĬłáĪ¥áĪŃ
áĬŃáĪ®áī½
ĠáĮİáĪ¨
ĠáĬłáĪµáĪĺáĪįáĬŃáī¶
ĠáĪĺáĭ°áĪ¨áĮį
Ġáĭ¨áĬ¢áĬķ
Ġáĭ¨áī°áĮłáīĥáĪļ
Ġáĭ«áĪµáĬ¨áīµ
ĠáĭµáĬķáīłáĪŃ
Ġáī£áĪįáĭ°áĪ¨
Ġáĭ¨áĪ°áĭįáĬĲáīµ
ĠáĬłáĬķáĭ·
ĠáīłáĪĺáĮĢáĪĺáĪªáĭ«áĭį
ĠáĭŃáĪĺáĪŃ
áĮ£áĪªáĭİáī½
ĠáĪĽáĪµáī°áĭĭáĪį
áĭĽáĬĿ
áĬªáĬķ
áĪ¥áĪ«áīħ
ĠáĬ¥áĬĵáĪĿáĬĵáĪĪáĬķ
ĠáĬ¥áĪĦáĭ³
ĠáĭįáĪİ
áĭ±áĪµ
ĠáīĨáĪŀ
ĠáĭįáĪħ
ĠáīĥáĪī
áĭĽáī¸áĭį
ĠáĬ®áĪĿáįĴáĭįáī°áĪŃ
ĠáĪĺáĮ¥áī°áĭį
Ġáĭ¨áĪļáĪĺáĪ«
ĠáīħáĬĵáĪ½
ĠáĪĽáĪ»áĪ»áĪį
Ġáĭ«áĮĪáĬĽáĪį
áĮ£áįį
32
ĠáĬ«áĬķáĪ°áĪŃ
Ġáĭ¨áĪĪáī¥áĬķáĪĿ
ĠáĬłáĭŃáīĢ
ĠáĬ¥áĬķáĭ°áĪĿáĬĵ
áĬ³áīµ
áīĢáĮ¥áī³
ĠáĬ¨áĭĵáĪĪáĪĿ
áĪªáī³
áĪ«áī¸áĭĭáĪį
ĠáĪĽáĪµáī°áĪĭáĪĪáįį
ĠáīĨáĭ³
Ġáĭ¨áĪļáįĪáĪįáĮīáīµ
áĪŃáĭ³
ĠáĬ¨áĪĮáĪĭáĭį
áĪħáĪ³áĪµ
ĠáĪķáĭĿáī¡áĬķ
áĪĺáĬŃ
ĠáĮłáīłáīĥ
ĠáĪļáĭĽáĬķ
ĠáĪĪáĪĽáĬķáĪĿ
ĠáĭŃáĬ«áĪĦ
ĠáĬ«áĪīáīµ
ĠáĬ¨áĪĿáĭµáĪŃ
ĠáĪµáĪĭáĪĪáĭį
áĬ»
ĠáĮłáĪ¨
ĠáĬłáĪ¨áĬķáĮĵáĭ´
ĠáĮłáīģ
áĪµáī°áĬķ
áĬĸáĪ©áĪĿ
ĠáĬłáĭŃáī¶
áī°áĪĺ
áĬŃáīłáĪŃ
Ġáĭ¨áĪļáĬ¨áī°áĪĪáĭįáĬķ
áĬ¨áįĪáī°
ĠáĭķáĭµáĮĪáīµ
Ġáīłáī¡
áĮįáīłáĪŃ
ĠáĪłáĪ«áĭĬáīµ
ĠHome
ĠáĮłáīĢáĪľ
Ġáĭ¨áĪĺáĬĲ
ĠáĪĺáĪĪáĬªáĭ«
áī¶áī½áĪĿ
ĠáĪĺáī³áĭĪ
áĬŃáĪ¬áĬķ
áĬĲáĬĽáĭį
ĠáĪĺáĮ«áĬķ
ĠáĬ¥áĭ«áĪ³
Ġáĭ¨áĬ¢áĬķáĭ±áĪµáīµáĪª
áį¤âĢºâĢº
ĠáĭµáĮį
ĠáĪ«áĪ´
áĮĦáĪªáĭ«
ĠáīłáĮłáīħ
Ġáĭ¨áĬłáĬ¥áĪĿáĪ®
ĠáīłáīłáĪĪáĮł
ĠáĬ¥áĭ¨áī°áĭ°áĪ¨áĮĪ
Ġáī¥áĪįáĪħ
ĠáĪĺáĭĿáĮĪáī¥
áĭĺáĪ¨áĭĺ
ĠáĪĺáĪ¨áĮĥáĬķ
Ġáĭ¨áĪĢáĮĪáĪŃ
áī³áīµáĬķ
ĠáįĬáĪįáĪŀáī½
ĠáĬ¥áĪĪáīµ
áĮ£áī½áĪģ
Ġáī±áĪŃáĬŃ
ĠáĪĺáĮĪáĬķáĭĺáī¥
áĮįáī¥áĪŃ
áīĥáīĤ
áĪ²áĬĸ
áī³áĭĪáīħáĪĿ
ĠáĪµáĭķ
ĠáĬ¨áĪĮáĪĪ
ĠáĬłáīµáī½áĪįáĪĿ
ĠáīłáĪ°áĪľáĬķ
ĠáīłáĭĿáĪŃáĭĿáĪŃ
ĠáĬ¥áĪĦáĭ³áĪĪáĪģ
Ġy
ĠáĭŃáĮĭ
áĬ«áī½
ĠáĪĺáĪ°áĪį
ĠáĮ¥áĭ«áīĦáĭį
áĬ«áĭį
Ġáį¦
Ġáĭ¨áĪĽáĭŃáī»áĪį
ĠáīłáĬłáĬ«áĪį
Ġáįįáīĥáĭµ
ĠáīĢáĭµ
ĠáĭĺáįĪáĬķ
ĠáĬ¢áīµáĭ®áĮµáĭ«áĭįáĭ«áĬķ
ĠáĭŃáĪĦáĭį
ĠáĪĺáĪĿáĪħáĪŃ
ĠáīħáĮ¥
áĭ¤
Ġáĭ¨áĮįáĬķ
ĠáīłáĭŃáĬĲ
ĠáĭŃáĭĪáĭ³áĪī
áĭİáī¹áĪĿ
Ġáī¢áĪĨáĬĳ
áīį
ĠáīłáĪ°áĭİáī½
áĪįáĬĵáĪį
ĠáīµáĬķáī¢áīµ
áĬ¥áĬĲáĭļáĪħ
ĠáĪĦáĭ±
ĠáīłáĪĺáĬķáĮįáĪµáīµ
áīĤáīħ
áĪµáī²áĬŃ
ĠáĬłáī¡
Ġáī°áīĢáĪĽáĮŃ
br
ĠáĬłáĮĪáĬĺáĪģ
áĪ¨áīµáĬķ
ĠáĭŃáĮĪáī£áĭĭáĪį
Ġáĭ«áĪĪáĪĺ
ĠáĪµáĪĪáĪĿáĬķ
áĭķáĬ®
Ġáĭ¨áĪĽáĭµáĪ¨áĮį
áĮ¡áĪĿ
Ġáĭ¨áīĢáĭµáĪŀáĭį
áĬ¨áī£áĬ¨áī¥
Ġáī£áĪĭ
Ġáĭ¨áĭ±
ĠáĬłáĬ³
Ġáĭļ
ĠáīµáĪĿáĪħáĪŃáī¶áī½
ĠáĬłáĪĺáĪ«áĪ®áī½
ĠáĪ±áĭ³áĬķ
ĠáĪįáĮĨáī¹
ĠáįĢáĮīáĪŃ
áī¥áĬĽáĪį
ĠáĪĺáīĨáĮ£áĮłáĪŃ
áĮĨáī³
ĠáĭŃáĪµáĮ¥
áĮłáīĢáĪĽ
ĠáĪĺáī°áĪĽáĪĺáĬķ
ĠáīĢáĪį
áĮİáĬķ
áĬ¾áĬĳ
áĪ«áīħ
ĠáĪħáĮİáī½
áīĢáĪ³áīĢáĪµ
ĠáĪĺáĭµáĪĥáĬĴ
áĪŀáī¹
ĠáĪģáĪĪáī±áĬķ
ĠáĮ«áįį
áĮ«áĭĪáī±
Ġáĭ¨áĪŀáī£áĭŃáĪį
ĠáįįáĮ¥áĪ¨áīµ
Ġáĭ«áĪµáīĢáĪĿ
ĠáĬ¨áĪ³
ĠáĭµáĬķáĮĪáīµ
ĠáĪĪáĪĽáĬ¨áĬĵáĭĪáĬķ
ĠáĭµáĪįáĭµ
Ġáī°áĭ«áĭŃáĭŀ
Ġáĭ¨áĭįáĪµáĮ¥
áĬķáĮĭ
ĠáĪĭáĪĪáĭį
Ġáīħáĭ±áĪµáĬķ
ĠáĬªáĪİ
ĠáĪĺáĪŃáĬ¨
áĮłáīĢáĪµ
áĪ¨áīħ
áīĢáī±
áĪ¶áĬķ
ĠáĪĺáī¥áĪ«áīµ
Ġáĭ¨áī»
ĠáĭĪáĪµáĭ¶
Ġáĭ¨áī°áĪ»áĪī
ĠáĭĺáĬķáĭµáĪ®
ĠáĬłáĪ¸áĬķ
ĠáĪĺáĪµáĮł
ĠáĮĵáĭ°áĬĽáĭ¬
ĠáĬłáĪįáīĢ
Ġáĭ¨áĬ¥áĮħ
áĪ°áĭ±
ĠáĪµáĪįáĮ£
ĠáĬłáĪįáįĪ
ĠáĬ¹
ĠáĪĿáĪµáĪİáī½
ĠáīłáĪĭáī¸áĭį
áĮ¬
ĠáĪĪáĪĺáĮĪáĬĵáĬĺáīµ
ĠáĪĥáĭ«
ĠáĮ¥áīħáĪĿáīµ
áĬĸáĪŃáīłáīµ
ĠáĮĢáĪĺáĪŃáĬ©
ĠáĭŃáīĢáĪŃ
ĠáĪľáīµáĪŃ
ĠáĬ«áĪĪáĭİáīµ
ce
ĠáĪĽáĪĿ
ĠáīłáĪķáĮį
ĠáĪĺáĭĭáīħáĪŃ
áĭ«áī¸áĭįáĬķ
áĬ¨áĪĪáĬĽáĭį
Ġáĭ¨áĪ®
ĠáĪĺáĪŃáĭ³áīµ
Ġáĭ¨áĪĿáįĪáĪįáĮĪáĭį
ĠáĪĽáĪµáĮłáĬķáīĢáīĤáĭ«
Ġáī°áĭĪáĭ³áĭ³áĪª
áĭ¨áī±
ĠáĮŃáĪĽáĪª
áįĪáĪįáĮīáĪĿ
Ġáĭ¨áĪĺáĪ³áĪ°
áīĢáĪŃáīłáĭį
Ġáĭįáĭµáĭµ
Ġáī°áĪĺáĪĪáĪ°
áĪĭáĪĭáĭį
Ġáī°áĭķáĪĪáīµ
áĮ¦áīµ
áĪµáĪ«áĬ¤áĪįáĪĿ
Ġáĭ®áĪŃáĬŃ
ĠáĪ°áĪŀáĬĳáĬķ
Ġáĭ¨áĪļáįĪáĪįáĮį
áĪŀáĬŃáĪŃ
áī³áī¸áĭįáĪĿ
ĠáĬłáĪŀ
Ġáīªáĭ²áĭ®áĭİáī½áĬķ
ĠáīµáĪ«áĬķáĪµáįĸáĪŃáīµ
ĠáĬłáĪĪáīłáĪĪáĭļáĭ«
áĪµáĪĲ
Ġáĭ«áĮłáįĭ
áĭŀáĬķ
ĠáĬ¨áĪįáī¥
ĠáįĪáĬķáī³
áĬ¨áįĪáĪĪ
Ġv
ĠáĭĪáī³áĭ°áĪ®áī½
Ġáī°áįħáĭķáĬĸ
ĠáĬłáĪµáī¥
Ġre
áīĨáĮłáĪŃ
ĠáĬłáīĢáĪ«áĪ¨áī¥
áĮ¦áī½áĬķ
ĠáĪĬáĭ«áĭ°áĪŃáĮį
ĠáĬŃáįįáĭ«áĭİáī½
ĠáĪĺáĪĪáĭ¨áīµ
ĠáĪĺáĭĪáĪ°áĬķ
áĭ«áĭ«áĭĻ
ĠáīłáĬ¥áĬĲáĪ±
áĪ¹áĬķ
ĠáĬłáĭŃáĭ°áĪĪáī½áĪĿ
ĠáĬ¨áī£áĪĪ
ĠáĮįáī¥áįħ
ĠáĪĺáĪĺáĪªáĭ«áĭİáī½
ĠáĮ¥áĬķáī³áĭĬ
ĠáĪĿáī¾áīµ
áĭĭáĪª
ĠáĪ°áĪĮ
ĠáĪ²áī³áĭŃ
áĬĻáĬĲáīµ
áĮįáĪ«áī¸áĭį
áĮĢáĪĿáĪ©
Ġáī¥áĬŃ
áĪģáīµáĬķ
Ġáī¥áĪİáĬĽáĪį
ĠáĬ¥áĬķáĭ³áĪĪáī£áī¸áĭį
áĬ«áįĪáĪį
Ġáī¥áĪĶ
ĠáĪĺáĮĪáĬĵáĬĽ
ĠáĬłáĪįáĪĨáĬĲ
ĠáīłáĪģáĪĪáī±
áĭĻáīµ
35
ĠáĪĺáĪ°áĪĪáĬĿ
ĠáĬłáĮĪáĪįáĮĭáĭ®áī½
Ġáīłáī°áīĥáĪ«áĬĴáĭį
Ġáĭ¨áįįáĪŃáĭµ
ĠáĭŃáĬĸáĪ©
ĠáĮīáĭ³áĭ®áī½áĬķ
ĠáĪµáĪĪáĪĨáĬĳ
ĠáĪĪáĬ¥áĬĲáĭļáĪħ
ĠáĬ¨áĬķáī±
áĬ¨áĭļáĪħ
ĠáĪĺáīĨáĮ£áĮłáĪªáĭ«
áīĢáĪŃáī£áĪĪáĬķ
áĪĢáī¥
áĪĽáĪªáĭ«
ĠáĮįáĪŃ
ĠáĬłáĪĽáĪįáĬŃáīµ
áĪĭáĮĨáī½
áĬŃáĪ²áĬ®
ĠáĭįáĮ¤áī±
áī°áįį
Ġáĭ¨áĪģáĪĪáīµ
ĠáĪĺáīĭáīĭáĪĿ
áĬ®áī½áĬķ
ĠáĬłáįĭ
ĠáīłáĬ¢áĬķáī°áĪŃáĬĶáīµ
ĠáĭĲáĭŃ
ĠáĮİáī¥áĬĿ
Ġáī°áĪĪáĭĭáĭĭáĮŃ
ĠáĪĪáĪĺáĪ¥áĪ«áīµ
ĠáīµáĬķáī³áĬĶ
Ġáĭ¨áī´áĬŃáĬĸáĪİáĮĤ
ĠáĬŃáĪĪáī¥
áĭİáī»áī¸áĭįáĬķ
ĠáĭµáĪŃáĮħáī±
33
áĪĻáĪĭáīµ
áĭĵáĬķ
ĠáĪĪáĪ«áĪ±
ĠáīłáĬłáĭ²áĪ±
ĠáĬłáĮĪáĭĽáĭĿ
ĠáĬłáĭ«áĪµáįĪáĪįáĮĪ
ĠáĬ¥áĭ«áĭ°áĪ¨áĮī
Ġáī³áĮĪáĬĽ
ĠáĪĪáĮī
áī¶áī»áī¸áĭįáĬķ
áĪ°áīłáĪ°áī¡
ĠáĪĺáĬ¨áĪĭáĬ¨áĪį
áĪ¬áĭ«áĪĪáĪģ
Ġáĭ¨áĪ©áĪ²áĭ«
Ġáĭ¨áī°áīĨ
Ġáĭ¨áī°áĭ°áĪ¨áĮĪáĭį
Ġáĭ¨áĪļáĭ«áĭįáīħ
áĭµáĭ®
ĠáĮ¥áĪŃáĮ£áĪ¬
áĭĺáīµ
Ġáī¥áĮģ
ĠáīģáĮ£
ate
ĠáīłáĪģ
ĠáĪ«áĪ³áī¸áĭį
áĮ«áĭİáī½
ĠáīĢáĭ³
ĠáīłáĭĭáĬĵáĬĲáīµ
áĬ¨áīłáĪ©
ĠáĭŃáĮłáī¥áīģ
ĠáīłáĭĪáĪŃ
ĠáīłáĮįáĪįáįħ
ĠáĬ¥áĪ°
áĪŃáĪĿáĭ«áĪµ
Ġáĭ²áĮĤáī³áĪį
ĠáĬªáĬķáĮį
ĠáĬłáĪĪáī¥áĪħ
ĠáĪĭáĪīáīµ
ĠáĮįáĮŃ
ĠáĭĿáĪĽ
Ġ2011
áĪįáī³
áĭ³áĬĿ
áĪĭáī½áĪģáĬķ
ĠáīłáĬ¥áĪĿáĬĲáīµ
ĠáĭŃáī½áĪį
Ġáī£áĪĪáī¤áī´
ĠáĪĺáĮ¥áī·áĪį
PS
ĠáĮīáĪįáīłáīµ
ĠáīĢáĭĿáīĥáĭĽ
áīµáĪĺáīµ
Ġáĭ¨áī°áĪĪáĪĺáĭ±
Ġáĭ«áĪµáįĪáĪįáĮĪáĭĭáĪį
ĠáĪĺáĪµáī°
áĭµáĬ©
Ġáį¡-
ĠáīłáĪļáīĢáĮ¥áĪīáīµ
ĠáĪ¨áĭµ
Ġáĭ«áĪĪáĬĿ
áįķáĪİáĪĽ
ĠáĪĴ
ĠáĬ®áĪļáĪ½áĬķ
ĠáĮįáĬķáī£áĪŃ
ĠáĪĪáĪĽáĭ³áĬķ
áĬķáĪµáĪ³áīµ
ĠáīłáīµáĬŃáĬŃáĪĪáĬĽáĭį
Ġáĭ¨áĪ´
ĠáĪĿáĬŃáĬķáĭ«áī±
áĪĪáįĪ
Ġáĭ«áīĢáĪ¨
áĮĪáĪĪáĮ¹
ĠáįĢáĪĲ
ĠáĪĺáĮĪáĬĺáīµ
Ġáĭ¨áįĬáīµ
áī°áĬĽáīµ
ĠáĬ¥áĪħáīµ
Ġáĭ«áĪĺáĪĪáĬŃáī³áĪį
áĮħáĪĿáĪĭ
áĬĲáĪ³áīµ
áīĨáĮ¥
ĠáīĥáĪīáĬķ
ĠáĮįáĭµáī¥
ĠáĪįáĭįáĭįáĮ¥
ĠáĬłáī°
áįįáĪĿ
Ġáī°áĪĺáĪįáĪ°áĭį
ĠáĬŃáīµáī£áīµ
Ġáīłáī¢
Ġáī°áĬ¨áī³áĭ®áī½
ĠáĬłáĪĿáĪ«áī½
Ġáĭ«áĮ£
ĠáĭĭáĮĭáĭİáī½
ĠáĬ¥áĬķáīģ
ĠáĬªáĭ³
ĠáĬłáĭµáĬĵáīĤ
ĠáĬ¨áĪĮáĪĭ
áī¶áĬĽáĪį
ĠáĬ¨áĪĺáĬķ
Ġáĭ¨áĪļáĭ«áĪµáī°
ĠáīµáĬŃáĬŃáĪĪáĬĽáĭį
áĪ°áīłáĭį
ĠáĭĪáĮĪáĬĸ
ĠáĪ°áįĪáĪŃ
ĠáĬ¥áĬķáĭ³áĪĭáī¸áĭį
Ġáĭ¨áĪļáĪĪ
Ġáĭ¨áī°áĪĺáĪ°áĪ¨áī°
Ġáĭ¨áī°áĮĪáĭ°
ĠáĬłáĭŃáī»áĪĪáĪģ
ĠáĬŃáī¡áĪŃ
ĠáīłáĭĻáĪªáĭ«
áīłáīµáĬĵ
áĪĺáĭ°
ĠáĬ¥áĬĵáĭ«áĪĪáĬķ
ĠáĪŃáĬ«áĪ½
ĠáīħáĪŃáĬķáĮ«
ĠáĭŃáīĢáĮ¥áĪī
áĭĪáĬĵ
áĪ¨áī¶áī½
ĠáĬ¥áī£áĬ«áī½áĪģ
co
ĠáĬ¥áĬ©
ĠáĪĪáĪĽáĪ¸áĬĲáįį
Ġáĭ¨áĪµáĬĲ
áĭ«áĬĳ
áīĢáĭ±
ĠáĮ½áĭµáīħ
ĠáĪµáĪŃáĮŃáīµ
áĬŃáĬķáĭ«
Ġáĭ¨áĪĺáĬĸáĪªáĭ«
ĠáĬ¥áĭ«áĪµ
ĠáĪĬáīĥ
áĭĭáĭį
ĠáĬłáĪĺáĪįáĬŃ
ĠáĪĪáĪĺáīħ
Ġáĭ¨áĪĪáī£áī¸áĭįáĪĿ
ĠáĭŃáĭĺáĬķ
ĠáĬłáĪµáįĪáĪĭáĮĬáĬĲáīµ
ĠáĪĪáĮ¥áīĤáīµ
Ġáī°áĬ¨áįį
ĠáĮ¥áĪĭáī»
ĠáĬ¥áĪµáĬ¨áĭĽáĪ¬
ĠáĪµáĭķáĪį
Ġfor
áĪŃáī¥
ĠáĬķáĮĪáĪ¨áĬĿ
ĠEthiopia
Ġáĭ«áĭįáīģ
Ġáĭ¨áīĨáĭ¨
áĪĪáĭ«áĭŃ
áįĦ
ĠáĪĽáĪµáī°áĪĽáĪŃ
ĠáĮįáĭµáĮįáĭ³
ĠáĭįáĮ¤áī¶áī½áĬķ
Ġáĭ«áĪĪáī¥áĭİáīµ
áĪĺáĪ³
Ġáī°áĪ¨áīµ
ĠáĪĭáĭŃáĪĨáĬķ
ĠáĪĺáī³áĭ¨áīµ
ĠáīģáĪ³áīģáĪ¶áī½
ĠPlay
ĠáĪĪáĪįáĮĨáī½
Ġáĭ¨áĪĺáĬ¨áĪĭáĬ¨áĭ«
ĠáĭŃáĬĲáĪ³
áīĢáĪ©
ĠáĬłáĮĭáĮ£áĪļáĭİáī½
ĠáĪĺáīĢáĪĺáĮ«
ĠáĬ©áĪ«áīµ
áī£áī£áĭŃ
ĠáĪķáĭĿáī¡áĪĿ
Ġ|
áĪ½áĭį
ĠáĪĺáī°áĭį
áīªáĪį
áĭįáīħ
ĠáĬłáĭµáĪĽ
ĠáĬ«áĪµ
ĠáĭŃáĮĪáĪŃ
áĬĲáįĥáįĢ
ĠáĪĿáĪ½
ĠáĬłáĭ«áĪµáįĪáĪįáĮį
ĠáīłáĮĪáĬķáĭĺáī¥
ĠáĪ¶áĪµáī°áĬĽ
áĪªáĭ«áĭİáī½
ĠáīłáĪ°áįĬáĭį
ĠáīłáĪ¬
áĭµáĭµáĪŃ
ĠáĬłáīģ
áĪ³áī½áĪģáĬķ
ĠáĪĿáĭµáī¥
ĠáĬ¥áĪĨáĬĵ
Ġáī½áĮįáĪ®áī½áĬķ
ĠáĬĥáĭŃáĪİáī½
áī¥áĬĵáĪį
Ġáĭ°áĪ´áīµ
áĬ¨áīµáĪį
ĠáīłáĬ¨áįĬ
Ġáĭ¨áĬłáĬķáī°
áĭ«áĭįáīģáīµ
Ġáī´áĪĮáīªáĭ¥áĬķ
áĬłáĪĭáĪħ
ĠáįįáĪįáĪµ
áĮĬáĭľáĪĿ
áĪĩ
áĮĥáĮĢáīµ
Ġáī¥áĭ¨
áĪįáī¶
Ġáĭ¨áī°áĪµáįĭ
áĬªáĭİáī½
ĠáįĵáĪŃáĬŃ
Ġáĭ¨áĬĲáįĥ
ĠáīłáĪĽáĪ³
áĭķáĪ«áī¥
ĠáĪ°áĪ«áī°áĬĽ
Ġáī°áĪµáĪĽáĪĿ
ĠáĪ¨áĭ¥áĪĿ
ĠáĪĪáĪĺáĪµáĪĽáīµ
Ġáī°áĪĺáĪĪáĪ±
ĠáįĭáĭŃáĪİáī½áĬķ
áįĪáĪįáĮĭáī¸áĭį
Ġáĭ¨áĪļáīł
áĪĪáīµáĬķ
Ġáī³áĭ«
Ġáī°áĪįáĭķáĬ®
ĠáīĢáīł
ĠáĪłáĪ«áī°áĬĽ
áĪŃáī±
ĠáĪŃáĭĿáĪĺáīµ
Ġl
áī½áĬĿ
Ġ00
ĠáĪĺáĮ¨áĪ¨áĪ»áĭį
ĠáĭŃáĪ°áĮ¥
Ġáī°áĬĿ
ĠáĮĨáĬķ
Ġáĭ«áĪµáĬ¨áīµáĪĭáĪį
ĠáĪµáĭ«áĪľ
Ġáī°áĮ«áĪ«
áĭĵáī±
ĠáĬłáĪ³áĪ³áī¢
ĠáīłáĪ±
ĠØ
áīłáĪ°
ĠáĬ¨áĮ¨
ĠáĮĪáĪĺáĭµ
ĠáĬ¥áĪŃáĪ³áī¸áĭį
áĮĪáįĭ
áĬ¢áīµáĭ®áĮµáĭ«
Ġáĭ«áĭ°áĪ¨áĮī
ĠáįĪáĪª
Ġáĭ¨áī³áĪªáĬŃ
31
Ġáĭ¨áĮĢáĪŃáĪĺáĬķ
ĠáĬłáĭ«áĭ«áĭĿ
áĮĪáī°áĬĽ
ĠáĬ«áĪĿ
ĠáĭµáĪ®
Ġáĭ¨áĬłáīµáĬŃáĪįáīµ
Ġáī°áĭĪáĬ«áĭ®áī½
áĪĺáĪĭ
ĠáĬĲáĮĭáĭ´áĭİáī½
ĠáīłáĪĺáĪĦáĭµ
áĮİáĪĿ
Ġáĭ¨áī¤
ĠáĬ¥áĪŀáĬŃ
ĠáĭįáĪµáĮ£áĭĬ
ĠáīµáĪĭáĪįáīħ
áĭĮáĭŃ
áĭ«áī½áĪģ
ĠáĬłáĪµáī³áĭįáīĭáĪį
ber
Ġáĭ«áĮĪáĬĻ
Ġáĭ¨áĪįáĮħ
Ġáĭ¨áĪļáĪĺáĮ¡
ĠáĪķáįĥáĬĵáīµ
Ġáĭ¨áįĢáĪĲáĭŃ
áĭŀáĪŃ
áīłáī³
ĠáĪĪáĪĽáĭ³
áĮĪáĪĪáĮ¸áĭį
ĠáĮįáĭ¢
ĠáĭĪáĪ¨áĭ³
ĠáĬłáĭ°áī£áī£áĭŃ
ĠáĮįáĬķáĬĻáĬĲáī¶áī½
ĠáĪĺáĮĭáī¢áīµ
áĮ«áĭĭ
Ġáĭ¨áĬŃáĪŃáĪµáī¶áĪµ
Ġáī°áĭĺáĮį
ĠáĮ¨áĪĿ
ĠáĪĿáĪµáĮ¢áĪŃ
áĪĭáīĢáĪī
ĠáīłáĬłáĪĿáĪĭáĬŃ
ĠáĬłáĭįáĪ®áįķáĪĭ
Ġáī¬
ĠáĭĺáįĪ
ĠáīłáĪĽáĪħáīłáĪ«áĭĬ
ĠáįĮáĭ´
áĮĪáĪ¬
áĪĨáī½
Ġáĭ¨áīĢáĬķ
áĮłáī£áīł
áĬķáĮĢ
ĠáĬĲáī¥
áĮ¸áĪĺ
ĠáīłáīħáĭµáĪļáĭ«
áĪ°áĮłáĬķ
áĪµáī³áĭĪáīĤáĭ«
ĠáĭŃáĭįáĪĭáĪį
ĠáīłáĭĺáĪŃ
ĠáĪ¥áįįáĪ«
Ġ2010
ĠáĮłáįĭ
Ġáī¤áī´
ĠáīłáĪĺáĪĿ
Ġáĭ¨áĪįáĮĨáī½
ĠáĪĺáĭµáĪ¨áĪ»
Ġáĭ¨áĭĺáĪĭáĪĪáĪĿ
áīĤáĭİáī½
Ġáĭķáĭ³
ĠáĬłáĭĿáĪ«áĪŃ
ĠáĬ§áĪ¨
áĮ£áĪĪáĬķ
áīĥáĮłáĪį
Ġáī³áĭĽ
Ġáīłáī¤
ĠáĪĢáĭŃ
áĮĭáĮł
ine
áĭ³áĪĪáĪģ
ĠáĮįáī¦áī½
Ġáĭ°áĪµáī°áĬŀáī½
ĠáĬłáĪ®áĮĮ
áĭĿáĮĪáī¥
Ġáĭ¨áĬ«áī²áīµ
ĠáĪ²áī³
áĬ¥áĬķ
Ġáĭ¨áĬ¥áĬĵáĬķáī°
ĠáĭŃáī³áĭ«áĪī
ĠáĪĪáĪĺáĮİáī¥áĬĺáīµ
áī¥áĪĭáīµ
Ġáī°áī½
áĮĪáĭĭáĪį
Ġáĭ«áĪµáĮĪáī¡
áįĸáĪĪáī²áĬ«
áĭ«áĬķáĪĿ
ĠáĪĺáīĨáĪĿ
áĬ«áī°áīµ
ĠáĬ¥áĬķáĭ°áĪĿáī³
ĠáĬłáĪµáī°áĭĭáįħ
ĠáĪĺáĪ»áĪ»áĪį
Ġ48
ĠáĬªáĪ³áĪ«
Ġáĭ¨áĪĿáĬĵáĭį
áĭīáĪĿ
áĭļáĭ«áĪĿ
ĠáĬ¤áĮĢáĬķáĪ²
ĠáĬ¢áĬķáī°áĪŃáĬĶáīµ
ĠáĪĪáĪĺáĪĪáĭĪáĮ¥
ĠáĬ¥áĮłáī¥
Ġáĭ¨áĪĺáĮĢáĪĺáĪªáĭ«áĭİáī¹
Ġáĭ¨áĬ¬
ĠáĪĪáĪĺáĮ«áĭĪáīµ
Ġáĭ¨áĪĬ
áī£áī¢áĭ«áĭĬ
ĠáĬłáĪµáĪ«
áĪĭáīģ
ĠáĬłáĭįáīĢ
Ġáī¤áī°áĪ°áī¡
áįİáĬķ
ĠáĬ¨áĪļáĭ«áĪµ
Ġáĭ¨áįĪáĪ¨áĬķáĪ³áĭŃ
Ġáĭ¨áīĢáĮ¥áī³
áĭ°áī£áī£áĭŃ
ĠáĪĽáĪµáī°áĬ«áĬ¨áĪį
ĠáĮ£áī¢áĭ«áĭį
ĠáĬłáĭµáĬĵ
Ġáĭ¨áĪ¨
ĠáĬ¥áĪ«áīµ
áĬĹáĬķ
áī¥áĪĶáĪŃ
Ġáĭ¨áĪ¨áĮħáĪĿ
ĠáįĪáĪ¨áĬķ
áĪŃáĪµáī¶áĪµáĬķ
ĠáīłáĪĺáĪĭ
ĠáĪĪáĪĺáīĨáĮ£áĮłáĪŃ
ĠáĬĲáīłáĪ¨áĬĿ
ĠáįĪáĪįáĮĮ
Ġáĭ«áĪĪáĪĽ
Ġáĭ¨áĪĮáĪĭ
Ġáĭ¨áīłáĭŃáĬĲáĪĺáĪ¨áī¥
ĠáĬ¥áĭ¨áĪŀ
Ġ39
ĠáĬłáĭŃáĪ°áĪ«áĪĿ
Ġáĭ¨áĬĲáĮĪ
áĮ´áĭĽ
Ġáī°áĪ½áĬ¨áĪŃáĬ«áĪª
ĠáĭŃáĮłáīĢáĪĽáĪī
ĠáīłáĬłáĪį
áĬ®áĪŃ
ĠáĪĺáĪįáĪ°áĭį
ĠáĬ¨áĬ¥áĪ·
Ġáī°áĭ°áĪ¨áĮĪ
Ġáĭ¨áĪļáĪĨáĬĲ
ĠáĮ¨áĪ¨áīĥ
ĠáĪĪáĪĺáĪĿáĪ¨áĮ¥
áĬĲáĮĭáĮĪáĪ©
áī¦áĬķ
áī£áī£áĪª
ĠáĬ¥áĬķáĭ°áĭįáĪĿ
Ġáī§
ĠáĬ¤áĬŃáĪµ
ĠáĪĺáĮįáī£áī£áīµ
ĠáĪĤáĭ°áī±
ĠáīłáĪĪ
ĠáīĢáĮłáĪĪ
ĠáīłáĪĽáĮį
áīµáĪ®
áĬĸáĪ¨áĭįáĪĿ
ĠáĪĪáĪĺáĪŀáĬ¨áĪŃ
ĠáĬ¥áĬķáīłáĪį
Ġáĭ°áĮĭáįĬáĭİáī½
Ġáĭ¨áīłáĪĭáĭŃáĬĲáīµ
ĠQ
Ġáī½áĪĭ
ĠáĮİáĪ«
ĠáĬ¥áĪ«áĪµáĭİáĬķ
ĠáĪĿáĮįáī£áĪŃ
ĠáĬłáĮĭáĮ¥
ĠáĬłáįķáĪį
ĠáīłáĪŃáĪ³áī¸áĭį
Ġáī°áĬ³áĪĥ
ĠáĬłáįĪáĪŃ
ĠáĬłáĪŃáī£
ĠáĪĬáī£áĪį
Ġáĭ¨áĬłáĮĪáĪªáī±
ĠáĪĺáĪµáīĢáĪį
áĪ³áĪĿ
ĠáĪĪáĪĺáĮłáĭ¨áīħ
ra
Ġáĭ²áĪŀáĬŃáĪ«áĪ²
Ġáī°áĮĪáĪįáĮ¿áĪį
ĠáīłáĮĪáĭĽ
áĮĪáĬķáĭĺáī¥
áĪįáĪĿáĬĵ
Ġáī°áĭ°áĮĭ
ĠáĪĪáĮį
ĠáĪĽáĬķáĬķ
ĠáĬłáĪĽáĪŃ
áĬĲáĪ³áĭį
áĪ«áī¥
áĪ°áĬŀ
ĠáĪĺáĬĲáĮĭáĮĪáĪŃ
ĠáĪĪáĪĽáĮ¥áįĭáīµ
ĠáĬ¨áī°áĪĪáĭ«áĭ©
áĭ¨áĪ¨
ĠáĪĪáĪĽáĪŁáĪĭáīµ
áĭ¨áĪµ
áīłáĪ«áīµ
ĠáĬłáĪ³áĭĽáĬĿ
ĠáĪįáĪĽáĭµ
ĠáĪĽáĬķáĪ³áīµ
áĮłáĬĵáĬ¨áĪŃ
ĠáīħáĪŃáĮ¸áīµ
Ġáĭ¨áĪŀáīµ
ĠáĬ¥áĬķáĭ²áįĪ
áīĨáĪŃ
ĠáĬ¥áĭµáĮĪ
ĠáĪ¬áĭ²áĭ®
Ġáī°áĪ³áī³áįĬ
Ġáĭ¨áĪĽáĪµáī°
Ġáī°áĪ°áĪĿ
ĠáīłáĪĺáĮ½áĪĲáįį
Ġáį³áį
ĠáĪļáĭĽ
ĠáĬ¥áĬĲáĭļáĭ«áĬķ
Ġáĭ°áĪĺáĭĪáĭĿ
áĪħáĪ¨
ĠáīłáĮįáĪĿáīµ
ĠáĬ¥áĭįáĬĲáī±
ĠáĮĪáĪįáĮ¿áĪį
ĠáĬłáĪµáĬªáĭ«
ĠáĬ¥áĮįáĭļ
ĠáĭįáĮĬáĭ«
ĠáĭĵáĭŃáĬĸáī½
ĠáĪĪáĬĲ
ĠáĪĺáĪµáĪªáĭ«
ĠáĬ¥áĪŀáĬŃáĪ«áĪĪáĪģ
Ġáī¼
ĠáĪħáĭĪáĪĵáīµ
áĮĵáī¸áĭį
Ġáĭ¨áī°áĮ»áįĪ
ĠáĮ½áįıáĪį
áīĨáīħáĪį
ĠáĮĪáĪĪáĪį
áĪĺáĭĿáĮĪáī¥
áĪĨáĬķáīłáīµ
ĠâĨĲ
Ġáī°áĬĵáĮĪáĪ©
ĠáĬ¥áĬĵáīĢáĪŃáī£áĪĪáĬķ
ĠáĭįáĪ¸
áĪĪáī³
Ġáĭ«áĪµáĭ°
áĬ¨áĬĲ
ĠáįĪáī³áĬĿ
Ġáĭ±áīĦáīµ
ĠáīĦ
ĠáĭŃáĬ¨áī¥
ĠáĪĽáĬ¨áĬĵáĭĪáĬķ
ĠáĪĺáĮłáĮ£áīµ
ĠáĬłáįįáīĥ
Ġáī°áĪĺáĪĭáĪ½
áĭĪáĪµáĭ±
Ġáĭ³áĬĽ
ĠáīłáĪĺáĭ°áīłáĬĽ
áĪµáī³áĭĬ
Ġáĭ¨áĪļáī»áĪĪáĭį
áĪĪáĪĪ
ĠáĪ°áĭī
ĠáĭĺáĮįáĭŃ
ĠáĬ¥áĪµáĬ¨áĪĺ
áĮĭáĬķ
áĮĭáĮŃ
Ġáī³áĮį
ĠáĮ½áĪģ
ĠáįįáīµáĪħ
ĠáĬłáĭĿáĬĵáĬĿ
Ġ2009
Ġáĭ«áĪħ
ĠáĬ¢áĬķáī°áĪŃ
ĠáĭĭáĮĭáĭį
ĠáĪĺáĬķáĮĪáĭ±áĬķ
áĪŃáĮĤ
ĠáĪĺáįįáī³áīµ
ĠáĭµáĪ«
ĠáĪ³áĬķáī²
ĠáĭŃáĮĪáĬĵáĬĽáĪī
Tube
ĠáĬłáĪĽáĬ«áĪª
ĠáīłáįįáĪŃáĭµ
ĠáĪĪáĪħáĭĿáī¥
Ġáĭ¨áĬĴ
áī¸áĮį
Ġáĭ¨áī°áĪ«
Ġáī£áĪįáĬĵ
áĪ½áī³
ĠáīłáĪĺáĮ¨áĪ¨áĪ»áĭį
ĠáīłáĬ¥áĬķáĮįáĪĬáĭĿáĬĽ
ĠáĪĺáĭµáĬĥáĬĴ
ĠáīłáĪĺáĪĨáĬĵáī¸áĭį
ĠáĪĺáĪµáĬ®áīµ
Ġáī°áī£
áīħáĭ«
ĠáĬ¨áĮł
ĠáĬ¥áĬĵáĮĪáĬĽáĪĪáĬķ
ĠáīłáĬ¢áĭ¨áĪ©áĪ³áĪĮáĪĿ
ĠáĭŀáĬķ
áĬ¨áĭįáĬķ
áĭ³áĮįáĪĿ
ĠáĪĺáĪŃáĪħ
áĪĿáĬĲáĭį
ĠáīĢáĪŃáī¦
Ġáĭ¨áĬĳáĪ®
Ġáĭ¨áī°áĬ¨áĪĪ
Ġáīłáī¦áī³áĭį
ĠáĬ¥áĬķáĭ³áĪīáīµ
áĪ°áĪ³
ĠáĬķáīħ
Ġáĭ«áĪĺ
ĠáĪ½áĬķ
ĠáĭŃáĬ¨áĪ°áī³áĪį
áĬĲáĭįáĪĿ
ĠáĪ²áĬĵáĮĪáĪŃ
Ġáī³áĭ°áĪŃáĮĭ
áĪĢáįį
ĠáĬ¥áĪļ
ĠáĪĺáĪŀ
áīĢáĭŃ
ĠáĭŃáĬ¸áĭįáĪĿ
ĠáĬłáįĪáĮ»áĮ¸áĪĿ
ĠáĪµáĪĪáĪĨáĬķ
áĮ£áĮ£
áįĭáĭĬ
ĠáīłáįĸáĪĪáī²áĬ«
ĠáĮİáī¥
ĠáĬłáĪįáī°áĮĪáĬĺ
ĠZ
Ġáīłáī°áĬ¨áī³áī³áĭŃ
áĪ¶áī¹
ĠáĭĪáĮªáĭİáī½
áĪįáĪĽ
ĠáīĢáĬĳ
ĠáĬ¨áĬĶ
Ġáĭ¨áĪĺáĪĨáĬķ
áĪ°áĮłáĬĿ
Ġáī°áĬłáĪĿ
ĠáĮįáįį
ĠáĪĽáĪµáī³áĭĪáĪµ
áĪµáĪĪáĭļáĪħ
ĠáĬłáĪµáįĪáįĥáĪļ
ĠáĪĥáĪĭáįĬáĬĲáīµ
ĠáĪĽáĪĿáĮ£áīµ
ĠáĪĺáīħáĭ°
ĠáīłáĪģáĪĪáī°áĬĽáĭį
ĠáĪĿáĪķáĪ¨áīµ
Ġáĭ«áĪµáī½áĪį
ĠáĪµáĭµ
ĠáĬłáĪįáĪ°áĪĽ
ĠáĭŃáīĨáĭ«áĪį
ĠáīłáĬłáĬ«
Ġáĭ«áĪĪáĬķáĬķ
áįĪáīĢáĭ°
áĪįáĬĽáĪį
Ġáī°áĬ¨áĪ«
Ġáī°áĪ°áĪŃ
Ġâĺħ
ĠáĬ¥áĬĲáĪĽáĬķ
áĮłáīĥáĪį
áĭĺáī¥
ĠáĭŃáĬ«áĪĦáĭ³áĪį
ĠáīłáĪŀáīµ
Ġ]
ĠáĮ¨áĭĭáī³áĭİáī½áĬķ
ĠáīłáĪµáĪįáĬŃ
ĠáĪĺáĬ¨áī³áī°áĪį
ĠáĭįáĮ£
Ġáĭ¨áĪļáĪłáĪ«
Ġáĭ¨áĪĻáĬ¨áĪ«
ĠáīłáĪĺáĮ£
ĠáĮĪáīłáĪ¬
ĠáĪħáįĥáĬĵáīµ
ĠáīłáĪĺáĪ°
Ġáĭ¨áĬ©áī£áĬķáĭ«
ĠáĮįáī¢
Ġáī³áĭ³áĮĬ
áī£áīłáĪį
ĠáĪļáĪµáī±
ĠáĪģáĪįáĮĬáĭľáĪĿ
Ġáĭ¨áĬŃáįįáĭ«
áĪĥáįį
ĠáĪ°áĬĲáĭ¶áī½
ĠáĬŃáīµáīµáĪį
ĠáĪĪáĪĺáĮįáĪĪáĮ½
ĠáĪ°áįĭ
ĠáĭĪáĮ£áī±
áĪŃáĬ©
ĠáĬĲáĭ³áĮħ
ĠáĬ¥áĪĿáī¢
áīĢáĬĽ
ĠáĪĺáįħáĪĲ
ĠáĭŃáĪĺáĪ¨
ĠáĪµáįĸáĪŃ
ĠáĮ¥áĪ¬
áī£áĪįáĪĿ
ĠáīłáĮįáī¥áįħ
Ġáĭ¨áįįáīµ
ĠáĭĪáĪĪáĭµ
Ġáī°áĮįáĭ³
áĭķáĬĵ
ĠáĬŃáįįáī°áīµ
ĠáįįáĮ¥áĪ¨
áĪ°áĭįáĬķ
áĬŃáĪĮ
ĠáĬłáĪªáįį
ĠáīłáīģáĮ¥áĮ¥áĪŃ
Ġthe
ĠáĬ¨áĬ¤
Ġáī£áĪħáĪªáĭİáī½
ĠáĬłáĪĿáĪĭáĬ«áī½áĬķ
áĪµáī³áĬķáī¡áĪį
ĠáĭµáĬķáĮĭáĮĮ
áī¥áĪ°áī£
Ġáĭ¨áĪļáĮłáīĢáĪĻ
áĪĺáĪĻ
ĠáĬłáĪµáįĪáĪª
ĠáīłáĬĴ
ID
Ġáĭ¨áĪĺáī³
ĠáĭŃáĭŁáĪį
Ġáĭ¨áī´áĬŃ
ĠáĬĲáĪĲáĪ´
ĠáĪĿáĪŃáĮ«áĭį
ĠáĬ«áĪŃáī³
Ġáĭ«áī°áĬ®
if
Ġ197
og
áī³áĭ°áĪŃ
ĠáīłáĪįáĮħ
ĠáĮĮáī³áĭ¬
áĮĨáĪ®
ĠáĪĮáĪĭáĪĿ
ĠáĪ°áĪĽáĭ«áĭĬ
ĠáĪĽáĬŃáīłáĪŃ
ĠáĬ¤áĪŃáĪĿáĭ«áĪµ
ĠáĭĪáĪ¨áĪŃáĪ½áĬĿ
ĠáīłáĭµáĪĿ
ĠáĪĽáĪŀ
ĠáĬłáĪµáī³
ĠáĬŃáĪ¨áĪĿáīµ
Ġ/>
ĠáīĨáĭŃáī°áĭĭáĪį
áĬŀáī¹áĬķ
áĪĺáĬĵáĬķ
áĭļáĪį
ĠáĪĺáĭĿáĬĵáĬĽ
áīģáĬĿ
áĪŃáĪ³áī¸áĭį
áĪĺáīħ
out
ĠáĭŃáĬĸáĪŃáī£áī¸áĭĭáĪį
ĠáĭĪáĭŃáĬķ
ĠáĪ¨áīĤáīħ
Ġáĭ«áĪµáįĪáĪįáĮĭáī¸áĭĭáĪį
ĠáĪĪáĪ½
ĠáĪµáĬķáĪį
ĠáĭŃáĪµáĮ¡
ĠáĭĺáĬĵ
áĮĪáī¢áĭ«
áĪīáīłáīµ
áī²áī±
Ġ..."
ĠáĬłáĭŃáĬķ
áĬ¥áĬķáĭ´áīµ
áįİáĬ«
ĠáĪµáĪ«áĭį
áĮĢáĪĿáĪ¨áĭį
Ġáĭ¨áĪĨáĬķ
ĠáĪħáĮ»áĬĵáīµ
ĠáĪĺáĮ½áĪĶáīµ
ĠáĬ«áĪħáĬĵáīµ
ĠáĪ²áĭ°áĪŃáĪµ
ĠáĮĪáĪįáįĢ
ĠáĭĪáĮį
áĭĪáīĤáĭ«
áĬ¨áįĭáįĪáĪį
ĠáĪĪáĮĭ
ĠáĮłáĭ¨áīĢ
ĠáĭŃáĬĲáĮĪ
ĠáĬ¥áĬĲáĪĨáĪĿ
Ġáĭ¨áī°áĭ«áĭ«áĭĺ
áīĢáīłáĪĪáĭį
ĠáĬ¥áĭ«áĪįáĬ©
ĠáīłáĬłáĪĭáĪħ
áĭŃáĪ¨áĪ±
Ġáī¢áĪĨáĬĳáĪĿ
áĬ¨áįĪáīµ
áĬ¥áĬĲáĪŃáĪ±
ĠáīłáĪķáĭĿáī¥
ĠáĬ¥áĭ«áĭ¨
áĪĺáī»áī¸áīµ
áī®
Ġáī°áĬ¨áĪĭ
ĠáĮĬáĭľáĭįáĬķ
áī³áĭŃáĪĿ
áī¶áī»áī½áĬķáĬķ
áĭķáĪĪ
Ġe
áīĢáĪ»
Ġáīłáī³áĪªáĬŃ
ĠáĪĺáīµ
ĠáĬ¨áĪĿáĪŃ
Ġáĭ¨áī°áĮĢáĪĺáĪ¨áĭį
Ġáĭ°áĬķáī¦áī½
áĭĪáĪŃáĭµ
ĠáĬ¥áĬķáĮłáī¥
áĪµáįĪáĪĭáĮĬ
ĠáĬ¥áĭ¨áĪłáĪ«
áĪ£áĭŃ
Ġáĭ¨áįĮáĭ´áĪ«áĪį
Ġáī°áĪĺáĪĪáĪµ
áīĢáĮ£
ĠáĪ°áĪ«áĭĬáīµ
ĠáĪ¨áĭ³áīµ
ĠáĪķáįĥáĬķ
ĠáĬłáĪµáī°áĬĵáĮĭáĮħ
Ġáĭ¨áĪļáĭ«áĪĿáĪŃ
ord
ĠáĬłáĪģáĬĳ
ĠáĪµáĪįáīµ
ĠáīłáĭŃáĬĲáĮĪ
ĠáīłáĪ¨áĪ«
ĠáĪ°áĮ¥áī·áĪį
ĠáĪĻáĪµáĪĬáĪĿ
Ġáī°áĪĺáĭĿ
ĠáīłáĬ¨áįĬáĪį
ment
áĪĺáī°
ĠáĬłáĪĭáī½áĪģ
áĬ«áī°áī°
ĠáĬłáĬĲáĪ³
áĪ³áĪĪáĬķ
hat
Ġáĭ¨áĪĽáĭŃáī½áĪį
ĠáĪĽáĬķáĬķáĪĿ
Ġáĭ«áĪ³áĭµ
ĠáĪĽáĭĭ
áĪ¨áĮĭáĮįáĮ¥
ĠApp
áĮłáīłáīĢáĭį
ĠÃ
ĠáĬĲáī¢áĭŃ
áįĭáĭŃ
ĠáĭĵáĪ£
ĠáĪ¸áĪĽ
ĠáĬłáĭŃáī³áĭĪáīħáĪĿ
ĠáīłáĬłáĪµáī°
áįĪáĪ³áĭĬ
áĬłáĭİ
Ġ42
ĠáĪĽáĭķáĬ¨áĪĭáĭĬ
ĠáĪĽáĪµáī°áĬ«áĬ¨
áĭķáĭµ
ĠâĢ¢
áįĥáįĪ
ĠáĮĮáī³áī½áĬķ
ĠáĬĲáįĭáĪµ
áĭ¦
Ġáĭ¨áĪļáĭ°áĪ¨áĮĪáĭį
ĠáĪ°áĪĮáĭ³
áĮłáĭŃáīĢáĭį
ĠáĮ¨áĪ¨áī³
áī³áī½áĬķáĪĿ
áįĲáĪŃ
ĠáĪµáĪħáī°áī¶áī½
áĬĹáĬĹáĪŃ
áī³áĪĭáī½áĪģ
ĠáĪĪáĬ¢áīµáĭ®áĮµáĭ«
ĠáĪĽáĮįáĬĺ
ĠáĪ«áĪ³áī½áĬķáĬķ
ly
áĪĽáī¸áĭįáĬķ
ĠáĬķáĭĳ
ĠáīłáĪĢáĮĪáĪŃ
ĠáĬ«áĮĪáĬĺ
Ġáĭ¨áĪĮáĪĭáī¸áĭį
ĠáĬ¥áĬĵáī±
áĬ¾áĬĲ
áĭŃáĮ£áĬķ
ĠáĪĢáĭŃáĪį
ĠáĮįáī¥áĭ£
Ġáī°áĪĺáĪµ
áīłáĪĭáĪ¸
ĠáīłáīłáĪŃáĬ«áī³
áĪ®áĬķáī¶
ĠáĬĲáīłáĪ«áī¸áĭį
Ġáĭ¨áĪ»
áĪĺáĬĵáīµ
ĠáĬ¨áĮī
ĠáĬ¨áĪĺáī¶
ĠáĬ¥áĪ«áĪ´áĬķ
áī°áĬŀáī¹
ĠáĬłáĭŃáĭ°áĪĪáĪĿáĬķ
áĭ´áĪŀáĬŃáĪ«áĪ²
ĠáīłáĮ¨áĪĪáĪĽ
áĮ»áįī
Ġáī°áĪŀ
ĠáĭŃáĮĪáĪĪ
áĪĭáīµáĪĿ
áĪĺáĪĭáĪĪ
ĠáĭįáĭµáīĢáīµ
áĪ®áĮ¥
Ġáĭ¨áīµáĭ³áĪŃ
ĠáĪĪáĪĺáĭįáĮ£áīµ
ĠáīłáĪĨáĬĲáĭį
ĠáīłáĪĺáĮ¥
Ġáī½áĪıáĪį
Ġáĭ¨áĪļáĪĦáĭµ
ĠáĬłáĪįáī³
ĠáĮ³áĮ³
ĠáīµáĮįáīłáĪ«
ĠáīłáĮ¨áĪ¨
ĠáĬłáĬ¨áī£áī¢
ĠáĪĬáĬ¨áĪ°áīµ
áĭľáĪĽ
Ġáī£áĭŃáĪĨáĬķ
áĭĭáĭĪáīħ
áĭ³áĪĽ
ĠáĪ¨áĭĺáĪĿ
ĠáĪįáĪĿáĪĿáĭµ
ĠáĬ¢áīµáĭ®áĮµáĭ«áĬķ
Ġáĭ¨áĬ©
ĠáĬŃáĪĬ
ĠáĬĲáįĭ
ĠáĬĲáĮĪáĪ©áĬķ
ĠáĪĺáĭµáĬĥáĬĴáīµ
ĠáĬłáĬĲáĮĭáĮĪáĪŃ
Ġáĭ©áĪ®
Ġáĭ¨áī°áĭĪáĪĪáĭ°áĭį
Ġáĭ¨áī°áĭĽ
ĠáĮ¨áĪŃ
áĪµáĪĽáĪĻ
áĬ¢áĭ¨áĪ±áĪµ
ĠáĭŃáĬ¨áī°áĪī
ĠáĪģáĪĭáī½áĬķ
Ġáĭ¨áĬłáĪĽáĪ«
ĠáĬłáĪĭáĪµ
ĠáĪ©áĪ²áĭ«
Ġáĭ¨áĪļáĮĪáĪŃáĪĺáĭį
ĠáīłáįĮáĪµáī¡áĬŃ
ĠáįĢáĪ¨
ĠáĬ¥áĮģáĬķ
ĠáĮ©áĬ¸áīµ
áĬ³áĪµ
áĪłáĪ©áīµ
ĠáīµáĬķáĪ£áĬ¤
Ġáĭ¨áĪĿáĪŃáĪĿáĪŃ
ĠáĪĿáĭķáĪ«áī¥
ĠáīłáįĬáī±
Ġáī°áĬĵáĮĪáĪŃ
áĭ°áĭŃ
ĠáĭŃáĮłáĭŃáīģ
Ġáĭ¨áįĵáĪŃáī²
áĪĿáĪ³
áĬ«áī¸áĭį
ĠáĪĪáī¥áī»
ĠáīłáĬ¥áĮĥ
Ġáĭ³áī¦
ĠáįĵáĪŃáĪĭáĪĽ
áĭĬáĭį
ĠáĭĭáĬĲáĬĽáĭį
Ġ44
ĠáĬłáĭ°áĮĭáĭİáī½
ĠáĪĬáĭįáĪį
Ġáĭ¨áĪ«áĪ³áī¸áĭį
ĠáĪĺáĭĽáĪĻáĪŃáī±
Ġáĭ«áĬķáī°
áī»áī¸áĭįáĪĿ
34
áĬķáīħáĪįáįį
ĠáīłáĪĺáĬ«
ĠáĮłáĬķáĬŃ
Ġáĭ«áĬĲ
ĠáĪĪáĪĺáįĪáĪĪáĮį
ĠáĪĺáĬĸáĪ©áĬķ
áĬ«áĬ¤áĪį
ĠáĪ°áĬ¨
ĠáĪŀáĬĿ
áĪ®áįķáĪĭáĬķ
ĠáĬłáī³áĭįáīħáĪĿ
80
ĠáĬłáĪ¥áĪ«
ĠáĬ¨áįĬáīµ
ĠáĪĪáĭĽ
ĠáĪ²áįĪ
ĠáĬ¥áĪĨáĬĵáĪĪáĪģ
áĬĲáīµáĪĿ
Ġáĭ¨áĪ¥áĬĲ
áĮįáĪŀ
ĠáĪĪáĭµáĪŃ
Ġáī°áĬĲáĮį
ĠáĮħáĪĿáĪŃ
Ġáĭ¨áĪļáĭ«áĭ°áĪŃáĮīáīµ
ĠáĬ¥áĪŃáĮ¥
ĠMac
ĠáĬłáĪµáī°áĭ³áĭ³áĪª
Ġáīłáī£áĪħáĪŃ
áī¡áĬĵ
Ġ300
áĭŃáĪµ
ĠáĬ¥áĬķáĭ°áĪļáĪīáīµ
áĪĦáĭ°áĭį
ĠáĬłáĭŃáī¼
ĠáĪķáįĥ
Ġáī¢áĪį
Ġáĭ¨áĪļáī³áĭĪáīħ
Ġáĭ¨áĪľ
Ġáĭ¶áĪ®
Ġáĭ®áĬĵ
ĠáĪĿáĬķáĭĽáĪ¬
ĠáīłáĪħáĭŃáĭĪ
ĠáĮ¥áīĤáī¶áī½
ĠáĪĽáĬ¨áĪĽáī»
ĠáĪĶ
ĠáĪĿáĬŃáĬķáĭ«áī³áĭĬ
ĠáīłáĪĽáĪ°áī¥
ĠáĬ¨áĬĥ
ĠáĪĺáī³áĭĪáīĤáĭ«
ĠáīłáĪ¦
áĬ¨áĪ«áĪį
ĠáĬłáĮłáįĭ
áī°áĪ¨
áī£áĬŃ
áĬķáĮ»
Ġáĭ¨áĪ°áĮłáĭį
áĭ³áĪªáĭİáī½
ĠáīłáĮĢáĪŃáĪĺáĬķ
Ġáĭ¨áĪļáī³áĭ¨áĭį
ĠáĬŃáĪĪáī¦áī½
áĭįáĪŃ
áĪįáĭ©
ĠáīłáįįáįģáĪĿ
ĠYouTube
Ġáĭ¨áĪĽáĮįáĬĺáīµ
áįĪáĮ¸áĪĺ
ĠáĮ¥áī¥áīħ
Ġáĭ¨áĪĽáĪį
ĠáĬłáīĢáĪĽáĪĺáĮ¥
Ġáī°áĬĲáĪµáī¶
ĠáĬłáī¥áĪŃáĪĥáĪĿ
Ġáĭ¨áĬ¥áĪ³áīµ
áĮİáĪį
ĠáĪĿáĬķáĮĬáĭľáĪĿ
ĠáĬ¨áĭµ
ĠáĬłáĪĽáĪŃáĬĽ
áĮĪáĮ½
áīĨáĪµ
ĠáĪµáĪĪáĬĲáīłáĪ¨
áīħáĪĿáīµ
Ġáĭ«áīł
Ġáĭ«áĭĿ
ĠáĭŃáĪĺáĪĪáĬ¨
ĠáĬłáĪĥ
ĠáĬłáī¥áĭ®áīµ
áĬ¤áĬķ
ĠáĪĺáī½
áĭĭáĭįáĭ«áĬķ
áĬ¨áĬĵáĭĪáĬĲáĭį
Ġáĭ¨áĪĿáī³áĭį
ĠáĬķáįģ
ĠáīłáĪĺáĬ«áĬ¨áĪĭáī¸áĭį
Ġáī¦áī³áĭį
ĠáīģáĪŃáĮ¥
áįĭáī±
Ġáī°áĪ»
áĮ§áī¸áĭį
áĮĭáĮ£áĪļ
áĭĪáĪĪáĭ±
ĠáĭŃáĭ°áĮįáįĭáĪį
Ġáĭ¨áĪŀáī°
ĠáĬłáĪĿáī£áĮĪáĬĲ
Ġáĭ«áĪµáī½áĪįáĭİáī³áĪį
ĠáĪħáĮ»
áĭİáī¼
Ġ000
ĠáĬ«áĪ²áĬĸ
ĠáīłáĮ¥áī¥áīħ
ĠáĪ²áĬĲ
ĠáįįáĮĨáī³
ĠáĬ¥áĮłáĭŃ
Ġáĭ«áĪĪáĪģ
ĠáĬ¥áĭ¨áĪ°áĪ©
Ġáĭ¨áĪ°áĭįáĬķ
ĠáĬłáĮĪáĪĭáĪĪ
Ġáī°áįĪáĮ¥áĪ¯áĭĬ
ĠáīĢáĪįáĭµ
áīĭáī¸áĭį
ĠáĪ°áĭįáĪĿ
ĠáĭŃáīĢáĬķ
ĠáĪĿáĭķ
áĭ«áĭĻáīµ
ĠáīłáĪŃáĪ±
ĠáĮĪáĮ¹
ĠáĬ¥áĬĵáĭµáĪŃáĮį
ĠáĪĪáĪĺáĭĭ
áĮĪáī£áĬĿ
ĠáĭŃáĪ°áĮ£
ĠáĬłáĪĽáĬ«áĭŃáĬĲáīµ
ĠáĬķáī£áī¥
Ġáī¶áĬķ
Ġáĭ¨áĪĺáĬķáĮĪáĭµ
ĠáĪĪáĪĺáīĢáĮłáĪį
ĠáĭŃáĮİáī¥
ĠáĬ¨áĬ®
ĠáĬ¥áĬķáĭ²áĭ«áĭ°áĪŃáĮī
ĠáĪĽáĪµáī³áĭĪáīĤáĭ«áĭİáī½
ĠáĪĺáĪ¸áĮ¥
ĠáĬłáĭŃáįĪáĪįáĮįáĪĿ
áĪĺáĬķáĮįáĪµáīµ
ĠáĬ¤áĬķ
ĠáĪĽáīĨáĪļáĭ«
áĮĪáĪŃáĪĿ
ĠáĬŃáĪ¬
Ġáī°áĪ¨áĮĭáĮį
ĠáĪĽáĪ¸
ĠáīłáĪĬ
ĠáĬłáĪĿáĪĭáĬŃáĬķ
áĭµáĪĽ
ĠáĬ¥áĭįáĬĲáī³áĭį
ĠáĬłáĭŃáĬĲáī¶áī½
ĠáĬ¥áĬķáĭ²áĭ«áĪµ
áĬŃáī¥áīµ
Ġáĭ¨áĬĲáĭ³áĮħ
Ġáĭ¨áĮįáĬķáī£áī³
Ġáīłáī£áĪĪ
áĭ«áĭ«
áĬĲáĮĪáĪ¨áĭį
Ġáī°áĮĪáĬĿáī·áĪį
áĪĺáĪĪáĬ¨áī³áī¸áĭį
ĠáĪ²áĪĦáĭµ
ĠáĭŃáĪĺáĪĪáĪ³áĪį
Ġáī£áĪŃ
Ġáī°áĬĵáĮĭáĪª
áĬĲáīłáīł
Ġáī£áĪĪáī¤áī¶áī½
ĠáįĨ
Ġáĭ«áĭ°áĪ¨áĮīáīµ
ĠáĪĬáĬĸáĪ©
ĠáĭĺáĪĺáĬĳ
ĠáĬ¥áĬķáĭ°áĬĲáīłáĪ©
ĠáĭŃáįĪáĮ¥áĪ«áĪį
ĠáĬłáĪĭáĭ¨áĪģ
ĠáĪĬáĪĺáĮ£
ĠáĭŃáĮİ
ĠáįįáĪ°áīµ
ĠáĮŃáĬĲáīµ
Ġáī§áĬķáī§
áī³áī½áĪģáĬķ
áįĬáīµáĪĿ
are
ĠáĭĪáī°áīµ
ĠáĭĪáĪ²áī¥
áĮĪáĪįáĮĪ
ĠáĭĪáĪĭáĮħ
ont
Ġáĭ©áĬĴáī¨áĪŃáĪµáī²
ĠáīłáĪĺáī³
Ġáīłáĭ¨áĬłáĪĺáī±
ĠáĪħáĬķáĭµ
ĠáĬłáĪ°áĮ£áĮ¥
ĠáĬłáĪĿáĪįáĬ®
áĪ¨áįįáī°
ĠáĪģáĬĲáī³
ĠáĬŃáĪĿ
ĠáīªáĭĽ
áĭ°áĪ¨áĮĥ
Ġáĭ¨áĮĪáĭĽ
áĮ¨áĭį
áĪ©áīµáĬķ
áĭĻáĬķ
ĠáĭŃáĮİáī¥áĬĻ
áī»áĪĪáĪĿ
ĠáĪ¥áĪ«áĭİáī½áĬķ
áĪĺáī³
ĠáĬłáĪ»áĬķáĮī
ĠáĭĵáĪĭáĪĽáĭİáī½
ĠáĬ¥áĭ¨áįĪáĪĪáĮī
ĠáĪĪáĪĽáĭĺáĮĭáĮĢáīµ
Ġáĭ¨áĪļáĬĸáĪ¨áĭį
ĠáĪķáĪį
ĠáĪ½áī¥áĪŃ
ĠWi
ĠáĪĺáĮįáī£
ĠáĭŃáĮłáīĢáĪĽáĪį
Ġáī£áĪĪáĪµáĪįáĮ£áĬĵáīµ
ĠáĪĽáĪĪáī±
ĠáĪĪáĪ°áĭİáī½
ĠáĮĢáĪįáī£
áī£áī¶áī½
ĠáĪµáĪĻáĬķ
Ġáĭ¨áĪļáĪ¨áĭ±
áĪĪáĭĪáĮł
ĠáĬķáĭĳáĪµ
áĭ°áĬķáīħ
áīħáĭµáĪĺ
áĬ¥áĬĲáĪĨ
ĠáīłáĭŃáĬĲáĮĪáĮ½
ĠáĮ¸áĪĲáįĬ
ĠáĪĪáĪķáĭĿáī¥
áĬŃáĪ½áĬķ
áĬĵáīħ
ĠáĭµáĬķáĬ³áĬķ
Ġáĭ¨áĮ¨áĪ¨áī³
áĪ«áĭĬáī±
áĪģáĬķáĪĿ
Ġáī°áĬĲáĪ³áĪ½áĬĲáīµ
áĭ°áĬĿ
ĠáĪ³áĮ¥áĬķ
ĠáĬłáĪµáī³áĭĪáīĢ
ĠáĭĴ
ĠáĬ¥áĬķáī£
ĠáĪĽáĭ³áĪĺáĮ¥
áĮĪáĪĪáĮ½
ĠáīµáĪ«áĪĿáįķ
Ġáĭ¨áĭĪáĪ²áī¥
Ġáī°áĮłáĬķáīĢ
ĠáĮłáĪĭáī¶áī½
ĠáĬ¥áĮ©
áĮĭáī£
Ġáī¥áĪµáĬŃáĪĮáīµ
ĠáĭĺáĪ¨
ĠáĮĪáĮ½áī³áĭİáī½
ĠáĬ¥áĮłáī¥áīĥáĪĪáĪģ
ĠáīłáįĪáĪ¨áĬķáĪ³áĭŃ
ĠáįĵáĪµ
áĬĲáįĥáįĢáĪŃ
36
ĠáĬ¥áĬķáĪĺáĪĪáĬ¨áī³
áĬ¨áĪµ
ĠáĬłáĪŃáĪ¶
Ġáĭ¨áĪļáĪ¨áĭ³
ĠáĬķáĮīáĪ¡áĪĿ
Ġáĭ°áĪŃáĮį
Ġáĭ°áĪĺáĬĵ
áĭ°áĬŀáī½
áī¦áī¹
áĪĭáĪ´
áĮįáĭµ
áĪīáĬĿ
ĠáĪµáĪ«áĭįáĬķ
ĠáĬĲáīħ
áĭ¨áĭįáĪĿ
ĠáĪĪáĪĺáĮ¨áĪ¨áĪ»
ĠáĭŃáĮłáĪ«áĪį
Ġáī£áīµáĪª
áī´áĪĿ
ĠáĮ¤áĬķáĬĲáīµ
áī°áĪ®áī½
Ġáĭ«áĭ©
Ġáĭ«áĬŃáĪį
Ġáĭ¨áī°áĮĪáĬĲ
áĭĪáĭ°áĭµ
ĠáĪĲáĪĿáĪĮ
ĠáīµáįĪáĪįáĮĭáĪĪáĪħ
ĠáĬ¥áĮĨáī½
ĠáĪĽáĮ£áĪªáĭ«
ĠáĬłáĪħáĪĺáĭµ
ĠáĬ¥áĬķáĭ°áĪĨáĬķáĬ©
ĠáĭĵáĭŃáĬĸ
ebook
áĬ®áĭĿ
Ġáī¥áĬĵ
ĠáĪĺáĪµáĪĺáĪ®áī½
áĬķáĭĻ
ĠáĪĪáĬ¥áĪµáĪ«áĬ¤áĪį
áįĪáĪĪáĮĪáĭįáĬķ
ĠáĪĺáĭ«áĭ£
Ġáĭ¨áī°áĬĵáĮĪáĪ¨áĭį
ĠáĮ¥áīħáĪį
ĠáīµáĭįáĪį
ĠáīłáĮįáĪĮ
ĠáĪĪáĪĽáĮ£
áĮłáī£áīłáīħ
áĭĳáĪį
ĠáĬ¨áĪĽáĬķ
Ġáĭ¨áĪĥáĭŃáĪĽáĬĸáīµ
áĭĪáĬķáĭµ
áī¢áĪ²
ĠáĬłáĮ½
áīłáĪħ
áĬ¨áĬķáī±
ĠCh
áĭ«áī°
ĠáĪĺáĪĿáĪħáĪ«áĬķ
ĠáĬłáĪĪáīĨáī½
ĠáĪĻáĪ½
ĠáĪĺáīĢáĪĺáĮ¥
Ġáĭ«áī¥áĪ«
ĠáĬłáĭ³áĪ«áĪ½
ĠáĪĺáĮ¸áĪĪáĭŃ
ĠáĭŃáĭ°áĪ°áī±
áī¿áĬķ
ĠáīłáĪ¦áĪµáīµ
Ġáĭ¨áĪĮáĪĪ
áĬ¥áĬĲáĭļáĭ«
Ġáĭ°áĪ´áī¶áī½
ĠáĮĬáĭľáĬķ
ĠáĬ¥áĭ¨áī°áĬ«áĪĦáĭ°
ĠáĪĽáĬŃáĪ°áĬŀ
ĠáĮłáīĢáĪľáī³
áī¶áī»áī½áĪģ
Ġáīłáī°áĪ«
ĠáĪĽáĪħáīłáĪ¨
ĠáĬ¨áĪ©
Ġáĭ¨áīµáĪ«áĬķáĪµáįĸáĪŃáīµ
ĠáĬ¥áĬĲáĭļáĪħáĪĿ
ĠáĪĪáĪĺáĬŃáįĪáīµ
áįĪáī»
Ġáĭ¨áīłáĪĪ
áĬ¨áī£áĬ¨
ĠáĬ¨áĪ¥áĪ«
ht
ĠáīłáĭļáĪħáī½
ĠáĮĭáĪ«
Ġáįįáīº
ĠáĭįáĪ°áĭµ
áĭ°áĪŃáĮĭáī¸áĭį
ĠTag
Ġáĭ¨áī°áĪłáĪ«
ĠáīłáīĢáĪµ
áĪ«áĪ±
Ġáĭ¨áĮĢáĪĺáĪ¨áĭį
ĠáĪĲáĬªáĪĿ
Ġáįĵáĭį
Ġáĭ¨áĭŃáĪĪáįį
áĬ¨áī£áĭµ
áĬ«áī¾áī½
Ġáī³áĭµáĭ«
Ġáĭ¨áĮĪáī¢
áīĢáīłáĪĭ
ĠáĪ¦áĪµáī°áĬĽáĭį
ĠáĬ¥áĬķáĮłáī¥áīĥáĪĪáĬķ
ĠáĪĺáĬĸáĪ©
áīħáĭµáĪĿ
ĠáĬ«áįĴ
ĠáĭĺáįįáĮ¥áĪ¨áīµ
ĠáĪ¥áĪįáĮłáĬĵ
ĠáĪŀáīµáĬķ
áĭ°áĪŃáĮĪáĭįáĬķ
Ġáĭ¨áĪŃ
ĠáĭµáĪŃáĮ£áī¢áĭ«
áĮĭáĬķáĭ³
áĭĿáĬĲáĪµ
ĠáĮįáĪŃáĪĽ
ĠáīłáĬĥáĪĭ
áĭ°áĪĪáĭį
ĠáīłáĬłáĮĪáĪ«áī½áĬķ
ĠáĮ¥áīħáĪµ
ĠáĬĲáĮĪáĪ¥áī³áīµ
áĭĭáĪĭ
ĠáĬ¥áĬķáĭ³áĪµ
áĮ¥áīłáī¥
ĠáīħáĮĤ
ĠáĪĿáĬŃáīµáĪį
ĠáĭĵáĭŃáĬĲáī±áĬķ
ĠáĭŃáĭĪáĪŃ
ĠáĪĿáĪ³
áĬķáĭ°áīħ
áīĢáĪī
ĠáĬ¨áĪĿáĬķáĪĿ
ĠáīłáĪĺáĮįáĪĪ
áĪĴ
ĠáĬķáĮ¹áĪķ
áī°áĮĪ
áįĳ
ĠáĬłáĭŃáī°áĭį
Ġáī£áĪªáĭ«áĭİáī½
Ġáĭ¨áįĭáĭŃáĬĵáĬķáĪµ
ĠáĬ¥áĭ«áĬķáĭ³áĬķáĭ³áī¸áĭį
ĠáĪĬáĭ«áĪ³
áĮłáīħáĪĭáĭŃ
Ġáĭ¨áĪļáĮłáīłáīħ
ĠáĮĪáĭµ
Ġáĭ¨áĮĮáī³áĬķ
Ġáĭ¨áī°áĭ°
áīĢáī¶áī½
ĠáĬłáĭŃáĮĪáĬĿáĪĿ
ĠáĬ¥áĭ¨áĪĺáĮ£
áĮĪáĪįáĮ½
áĭ°áĪ¨áĮĪáĪĿ
áĬŃáĪĭáĪį
ĠáĬłáĪįáĬĲáīłáĪ¨áĭįáĪĿ
áĮ½áĪĲáįī
ard
Ġáī°áĮĪáĭµ
ĠáīĢáĪĪáĪį
áĬ¥áĪĿ
áī¦áī³áĭį
Ġáīħáĭ°áĪĿ
ĠáĪ³áĭŃáĬķáĪ³áĭĬ
Ġáī°áĮĪáĬĵáĬĿ
áĬ®áĬķ
Ġáĭ¨áĪĺáĬķáįĪáĪµ
ĠáĮ¢
ĠáĭĺáĪŃáįİáī½
ĠáĬ¥áĬķáĭ³áĪĭ
qu
ĠáĪĪáĪĽáĪµáī°áĬ«áĬ¨áĪį
Ġáī°áĪµáįĭáĭ¬
áĬķáīĢáĪ³áīĢáĪ±
Ġáĭ¨áĪ°áĪĽáĭŃ
ĠáĪĽáĪĪáĭ³
ĠáīłáĮīáĭ³áĭ©
ĠáīłáĬ¥áĭįáĬĲáī°áĬĽ
áīłáĬĵáĪį
áī£áĬ¤
ĠáĮĪáĭĽ
ĠáĬłáĪµáīĢáĭµáĪĺáĭį
ĠáīłáĪįáĭ©
Ġáī¥áĪ©áĪħ
Ġáĭ«áĭ°áĪŃ
Ġáī¸áĪŃ
ĠáĪªáįĲ
ĠáĬ¥áĬķáĭ°áĭĽ
ĠáĬłáī¥áĪ¨
ĠáĭŃáĪĽ
Ġáī£áĬķáĬ®áī½
ĠáĪĺáĮłáĭŃáīħ
Ġáī¥áĪµ
áĬĴáĪįáĬŃ
áĭ³áī½áĬķ
ĠáīłáĪĮáĪĬáīµ
ĠáĬĲáīłáĪ¨áī¥áĬĿ
áĭĺáĭĻ
Ġáĭ¨áĮįáĪĭáĭĬáĬĲáīµ
ĠáĬ¨áĪ°áĭĵáīµ
áĬ¨áįįáĪį
ĠáĪ°áĪĪáī£
áĪ³áĪĿáĬķáī±
ip
Ġof
."
ĠáĭµáĬķáĮįáĪį
ĠáĬłáĮįáĬĿáī°áĭĭáĪį
ĠáĪĺáĬĲáĪ³áīµ
ĠáīłáĪĺáĪłáĪ¨áī±
ĠáĬ¥áĬķáĪĺáĪĪáĬ¨áī³áĪĪáĬķ
ĠáĪĪáĪĺáĪ¸
ĠáĮĪáī¡
ĠáĬĲáĮĪáĪŃáĬķ
ĠáĬłáĪįáĭĪ
ĠáĭĺáĪĺáĬĵáīµ
ĠáĪĿáīµáĬ¬
ĠáĬłáĭķáĪĿáĪ®
áĬ¤áįį
Ġon
áĪŁáĪī
áĪĨáĬĵáī½áĪģ
ĠáĬ¨áĪ¨
ĠáīłáĮįáĪ«
Ġáī°áĮłáīĥáĪļáĭį
áīĤáī±
áĭµáĭĭ
Ġáĭ¨áĬ¥áĬķáĮįáĪĬáĭĿáĬĽ
ĠáĭľáĬĵáĭİáī½
ĠáĪĪáĬķáĮįáĭµ
áĮ¸áĪįáĭŃ
ĠáĬłáĭŃáĬĲáī±
ĠáīłáĬª
ĠáĬ¥áĬĵáĬķáī°áĬķ
ĠâĹ
ĠáĪĬáĬĸáĪ«áī¸áĭį
ĠáĭŃáĭĭ
ĠáĬ¨áĪ±
ĠáĪĺáĭµáĪ¨áĬ®áī½
áĬ®áĪ«
ĠáĬłáĪĭáĪħáĪĿ
áĭįáĮ£
Ġáī³áĭ¨
Ġáĭ¨áĪĽáĭįáīĢáĭį
ĠáīłáĮĮ
Ġáĭ¨áįĮáĪµáī¡áĬŃ
Ġ2007
Ġáĭ¨áī¡áĭµáĬķ
ĠáĬłáĮĪáĪ«áī½áĬķ
ĠáĬ¨áĪŃ
ĠáĬ¥áĮĦ
Ġáĭ¨áī°áĪĭ
ĠáĬ¥áĭļáĭ«áĪĿ
ĠáĪĭáĬķáī°
ĠáĬ¤áī½
áī¥áĪĿ
ĠáĪĿáĪµáĮ¢
áī¹áĪħ
Ġáĭ«áĪµáĭĪáĮį
ĠáĮīáī£áĭĶ
áīĨáĮłáĪ©
Ġáī°áĪĺáĮ£áĮ£áĬĿ
áĭ·áī¸áĭį
ĠáįķáĪª
áĪĪáĮłáįį
Ġáĭ¨áĪ°áĭİáī½
Ġáĭ¨áĪī
ĠáĭĺáĪĪ
ĠáĪ±áīħ
ĠáĪ´áī¶áī½áĬķ
Ġáĭ«áĪĭáīµ
ĠáĮĪáĭ³áĭŃ
ĠáĪĪáĭŃáī¶
ĠáīłáĪĺáĮł
áĪĦáĭµáĪĿ
acebook
áĮŃáĬķ
ĠáĬ¥áĪµáĪ«áĬ¤áĪĭáĭįáĭ«áĬķ
áįĢáĪĺ
áĭķáĪĪáī±
ĠáĪĺáĭĿáĪĻ
Ġáī°áįħáĬ¥áĬĸ
Ġ:
Ġáĭ¨áīĥ
Ġáĭ¨áī°áįĪáĮłáĪ¨áĭį
ĠáĮĭáĭľáĮłáĬŀáī½
ĠáĮłáįįáī·áĪį
ĠáĪĪáĪĺáĪĪáĭ¨áīµ
Ġáĭ¨áĪĽáĭķ
ĠáĮİáīłáĭĿ
ĠáĪĪáīłáĪŃáĬ«áī³
Ġáĭ¨áĪĿáĪµáĬŃáĪŃ
ĠáĬ¨áĭļáĭ«áĬķ
áĭł
áĬĲáĮĭáĮĪ
ĠáĬłáĬķáīłáĪ³
ĠáĪ¥áĪįáĮ£
áĪĿáįĴáĬŃ
áĭ¶áĪĿ
áĮłáĪ«áĮłáĪŃ
áĪĥáĪĿ
ĠáĬ¨áįįáī°áĬĽáĭį
ĠáĪĺáīħáĪ¨áī¥
ĠáĪĽáĪĿáĪ¨áīµ
áī¥áĭĽáĪĿ
áĪĬáĭ«áĪĿ
ĠáĬłáĪĮ
áĮĪáĪĺáīµ
áĭŃáĪĦ
Ġáĭ¨áįįáĪĪáĮĭ
áī¤áī¶áī½
Ġáĭ«áĪĪáĪħ
ĠáĬ¨áĭĪáĬķáĭµ
Ġáĭ¨áĭµáĪ®
Ġáĭ¨áĪĺáĪ°áĪĪ
ĠáĪ¨áĭ³
ĠáĬķáĮīáĪµ
áĪĺáĪħ
ĠáīłáįķáĪ®
áĪĿáīµ
ĠáĬłáĭŃáĪ°áĪĽ
ĠáĮĪáī¥áī·áĪį
ĠáīµáĭįáĪµáī³
ĠáĪĽáĪĽ
ĠáĭŃáī³áĭĪáĪ³áĪį
ĠáĭŃáĬ¨áī°
ĠáįįáĪį
áĮłáįĭáĪĿ
ĠáĪĺáĪĺáĮĪáī¥
ĠáĬłáĬĵáīµ
Ġáĭ¨áĬłáĮĪ
pt
ĠáĪĭáĬ¨
áĭĪáĮ£áĪī
Ġáī°áĮĭáĪĭáĮŃ
Ġáīłáĭ±
áĭŃáĬķáīµ
ĠáĪĺáĪĨáĬĳáĬķáĪĿ
ĠáĭŃáīĢáĪ«áĪį
ĠáĪ°áī¥áĭĵáĭĬ
ĠáĭŃáĮĢáĪĿáĪ©
Ġáĭ¨áĪĺáĪĭ
áīłáĮ£áĪĿ
ĠáĬłáĪĭáĪħáĬķ
ĠâĨĴ
Ġáī±áĪªáĭĿáĪĿ
ĠáĬ¨áĭĪáĮ£
ĠáĬłáĭŃáįĪáĪįáĮīáĪĿ
ĠáĬ¨áĪĲ
ĠáĬ¥áĬķáĭ°áĪĺáĮ£
ĠáĪĻáĪµáĪĬáĪŀáī½
uc
áĪĮáī¶áī½
Ġáĭ¨áīĨáĭ³
Ġáĭ«áĪĺáĮ£
ĠáĬ¢áĪħáĬłáĭ´áĮį
ĠáĬłáĬķáĮĪ
ĠáīłáĮįáĬķ
ĠáĪĪáĪĽáĮĪáĪįáĮĪáĪį
ĠáĪ«áĭķáĭŃ
Ġáī°áĮĢáĪĺáĪ¨
áĮłáĮ¡
ĠáĪ³áĭ«áĪµ
Ġáĭ¨áī«
ĠáĭŃáĪĺáĪ«
Ġáĭ«áĪĭáī½áĪģ
Ġáĭ¨áī°áĭ«áĭ«áĭĻ
ĠáĬłáĪŃáīµ
ĠáĬ¨áĪĪ
áĪįáįī
ĠáĪµáĪŃáĭĵáī¶áī½
ĠáĬ¨áĬłáĪľáĪªáĬ«
ĠáĭĪáįį
áĮĪáĮĥ
ĠáįįáįģáĪĿ
100
Ġáĭ¨áĪĨáĬĳáīµáĬķ
ĠAm
ĠáĭŃáĪ°áĪ«áĪī
ĠáīłáĬķáĮįáĭµ
áĭµáĮī
ĠáĪĪáĬĽ
áĬĲáī´áĬķ
áĪĿáī¥
áĬ¨áī£áī¢áĭį
ĠáĬłáĪįáī°áĮĪáĬĺáĪĿ
áĮ«áĭĬ
áĪĺáĪĪáĬ¨áī±áīµ
áĬŃáĪĮáĪŃ
áĮ¸áĭį
Ġáĭ¨áĪįáĭ°áīµ
ĠáĪĪáĪĺáĮ¥
Ġáĭ¨áīłáĭĵ
Ġáĭ«áĪµáī¡
37
Ġáĭ«áĭ°áĪŃáĮį
ĠáĬ¥áĪ«áĪ³áī¸áĭįáĬķ
ĠáīµáĪµ
Ġáīłáĭļ
ĠáĬķáĮ¹áĪħ
áīĥáĪĪáī½
Ġáĭ¨áĬłáĪŃ
ĠáĭŃáĪĺáĪµáĪĭáĪī
ĠáįĭáĭŃáĭ³
áįĪáīħ
Ġáĭ¨áĬ¥áĪĿáĬĲáīµ
áĪµáīµáĬķ
ĠáĬ¥áĬķáĭ²áī³
Ġáĭ¨áīµáĮįáĪ«áĭŃ
ĠáĪĺáĮ£áĮ¥
ĠáīłáīĢáĮ£áĭ©
Ġáĭ¨áī°áĬĲ
Ġ99
Ġáĭ¨áī´áĪĮáīªáĭ¥áĬķ
ĠáĪĺáĪĺáĭĿáĮĪáī¥
ĠáĪĪáĪĽáĪµáīĢáĪĺáĮ¥
ĠáĬłáĪ«áī°áĬĽ
áĬĲáī³áī½áĬķáĬķ
ĠáĬ¥áĬķáĭ³áĭŃáĪĨáĬķ
ĠáĪĨáĬĲáī½
ews
Ġáĭ¨áĪļáĭĪáĭµ
áĭµáĮĪáīµ
áĪ°áĪ«áĮ¨áīµ
ĠáĬłáĪĽáĬŀáī½
áĪ°áīĥ
ĠáīµáĪĭáĬķáīµ
nt
Ġáĭ¨áĪĿáī½áĪĪáĭį
Ġáĭ¨áĭĪáĬķáĮĢáĪį
ĠáĪĺáī£
ĠáĪĽáĭµ
áĮĪáĪĿáĮĪáĪĿ
ĠáĬłáĬ³áĭ«
ĠáĬłáĪ°áī¥áĬ©
áĮłáīħáĪĿ
Ġáĭ¨áĪĺáĭµ
áĪĺáĪ¨áĮ¥
ĠáĮĪáĪĪáĪįáī°áĬĽ
áĪģáīłáīµ
Ġáĭ«áĭ«áĪī
Ġáĭ«áĪįáī°áĪĪáĪĺáĭ°
ĠáĬ¨áĬĽ
áĮłáįį
ĠáĮĵáĭ°áĬŀáī¼
ĠáĬłáĭ«áĪµáįĪáĪįáĮįáĭİáīµáĪĿ
ĠáįįáĮ¡áĪŃ
ĠáīłáĬŃáĪįáĪī
ĠáĪģáĬĳ
ĠáįĪáĮĪáĮįáī³
áĭ³áĬķáī±
ĠáĪĺáĬķáĮįáĪ¥áī±
ĠáĬĲáī¢áĭ«áīµ
áĮłáī¥áīĢáĭį
ĠáīµáĬ©áĪµ
Ġáĭ¨áīĢáĪ¨áīłáĭį
ĠáĪĺáĮłáīĢ
áĪ«áĪĪáĪħ
ĠáĮ£áĭķáĪĿ
ĠáĪ°áĮ¥áī°áĭĭáĪį
ĠáĬĲáĮĪáĪ¨
ĠáĭŃáĪĺáĪ°
áĭ°áĪ¨áĪµ
ĠáĪķáĪįáĪĿ
áīłáī³áĪĪáĪģ
áĪµáī°áĭĭáĭĪáīħ
ĠáĪĺáĪŀáīµ
áįĪáĪ«áĪĿ
áĬłáĪŃ
Ġáĭ¨áĪĺáĮĪáĬĵáĬĽ
áī²áīª
ĠáĪŀáī£áĭŃáĪį
áĬķáī¶
áĪ¨áīĥ
ĠáīłáīĢáĬĿ
Ġáĭ©áĬĴáī¨áĪŃáĪ²áī²áĭİáī½
ĠáĮĪáĭ³
ĠáĬ¨áĭĽáĪ¬
ĠáĪŀáĮĪáĪµ
ĠáĪįáĮĨáī¼
ĠáĬłáĪĿáĮ¥
ĠáĮ½áĪĳáįİáī½
Ġáĭ¨áĬĲáīłáĪ©áīµáĬķ
ĠáĪĦáĮĦ
ĠáĬ¨áīģ
Ġáĭ¨áĪļáĬ¨áī°áĪĪáĭį
áīĢáĪĺáĮł
ĠáĪĺáĪĺáĪŃáĪĺáĪŃ
ĠáĪĪáĪĺáĬŃáįĪáĪį
áĬłáĪµ
áĭĭáĪ³
ĠáĪĪáĪĽáĮĪáĭĿ
áĬ¨áī³áī°áĪī
ĠáĮ»áĭµáīħ
ĠáĭŃáĭŃáĭĽáĪį
áī·áī¸áĭĭáĪį
áī°áĪĥáĪį
ĠáĭŃáĭµ
Ġáī³áĬŃáĪ²
ĠáĪĪáĪĿáĪŃ
Ġáĭ«áĪ³áĭį
áĭ°áįĪ
ĠáīħáĪŃáįħ
ĠáīłáĪĢáĮĪáĪªáī±
ĠáįįáīµáĪĥáĭĬ
áĬķáīģ
ĠáĭŃáĪĪáĬĵáĪį
áĭĪáīµ
ĠáĪ´áĪ«
áĪªáī³áĬķáĭ«
Ġk
Ġáĭ¨áįķáĪ¬
áĬķáįĪ
ĠáĪĬáĪ°áĮ¥
Ġáī¥áĭĻáĪĥáĬķ
áĬ¥áĪ±
ĠáĬłáĪ³áĪµ
ĠáĬ¥áĮĪáĪĿ
áĪŀáĬŃáĪ©
Ġ43
ĠáĪĺáĬĵáįį
áĭ²áĬķ
</
áĮĭáĪī
ĠáĪĺáĭ°áĪĿ
áĬ¬áī¶áī½
ĠáĪĪáĪĽáĭįáĪ¨áĭµ
áĬĲáī·
ĠáĮ¥áĪ©áĭį
ĠáĬ¥áĬķáĭ°áĪļáĭ«áĪ³
ĠáĬ¥áĬķáĪ°áĪ«
ĠáĪĽáĪ«áĬª
áĭĭáĪŃáĭ«áĭį
áĭ«áĭĺáĭį
áĮ¤áĬķ
ĠáĬ¨áĪįáĮħ
ĠáĮłáĬķáīħ
ĠáĪĪáĪĮáĪĭáĭį
ĠáīłáĪļáĪĬáĭ®áĬķ
ĠáĪĽáīłáĪ¨áī³
Ġáĭ¨áĪĺáĬĸáĪŃ
ĠáĪħáĬķáįĥ
ĠáĪĽáĮ¥áĬĵáīµ
ĠáīłáĮĬáĭľáĭį
Ġáĭ¨áĪļáĪĨáĬĲáĭįáĬķ
áĪĺáĪįáĬ«áĪĿ
ĠáĪµáīĥáĭŃ
ĠáīłáĬłáīħ
áĪ³áĪ³
áįĪáĮ¸áĪĻ
ĠáĬłáĪįáĪĨáĬĲáĪĿ
áĬĽáĭİáī¹
ĠáĬ¥áĬķáĭ²áī½áĪī
ĠáįįáīħáĪŃáĬķ
ĠáĪĺáīĥáī¥áĪŃ
áįįáī¶
ĠáĮ¥áĮį
ĠáĮĬáĭľáĭ«áĭĬ
ĠáīłáĭįáĪĥ
ĠáĪĥáĪĭáįĬ
ĠáĪ°áĪİ
ĠáĬĵáĭŃ
ĠáīłáĪļáĮĪáĬĺáĭį
ĠáįĬáĭ°áĪį
áĭĪáĭ±
áĬĵáī´
Ġáī£áĬķáĭµ
ĠáĬ¥áĭĪáĭµ
áĬ¥áĪŃáĪ±áĪĿ
ĠáĪ°áīłáī¥
áĮ¨áĪŃáĪµ
ĠáĬ«áĪħáĬĵ
Ġáĭ¨áĬ¥áĬķáĮįáĪĬáĭĿ
áĬķáī°áĬĵ
ĠApple
ĠáĪ³áĭŃáīĨáĭŃ
Ġâľ
ĠáĬ¥áĭ«áĭ°áĪ¨áĮį
áĬĵáĮĪáĪ¨áĭįáĬķ
ĠáīµáĭĬáī°áĪŃ
áĪĭáĪĪáįĪ
ĠáīłáĪĽáīħáĪ¨áī¥
ĠáĬ¨áĪ¥
áĪĭáĪĪáįĬáĭ«
ĠáīłáĬĲáīłáĪ¨áĭį
áĮĪáĬĺáĭįáĬķ
Ġáī°áĭĽáĪĽ
ĠáīµáĭķáĮį
ĠáĪģáĬĶáī³áĭįáĬķ
ĠáĪĺáīł
áĪĽáĪŃáĬĽ
ĠáĭŃáĪĺáĪĪáĬ¨áī³áĪį
ĠáĬ¥áĪŃáĬ«áī³
Ġáįİáī¶áĭİáī½áĬķ
ĠáĭŃáī¥
Ġáī°áĮį
ĠáĪĽáĮ¨
Ġáī³áĭ³áĪļ
ĠáĬ¨áĭĽáĪĿ
Ġáĭ¨áĭ°áĬķáīłáĬĽ
áĪ®áī¹áĬķ
áī·áī¸áĭį
áī´áĪį
Ġ>>
Ġáĭķáīħ
áĬķáĭ³áīµ
áĮĭáī¥
ĠáĪ©áĮ«
ĠáĪĪáĭµ
ĠáĪĺáĬķáĮįáĪµáī±
áĬķáĭ²áīµ
Ġáīµáī¶
har
ĠáįķáĪ®áįĮáĪ°áĪŃ
ĠáĪĮáī£
Ġáĭ¨áī°áĮ£áĪ«
áĬĴáĬķ
ĠáĬłáīĢáįī
ĠáĪĺáĭįáĭ°áĭµ
áĬķáĮ£
ĠáĭĵáĪĿ
áĪ«áĪ¨
ĠáīłáĪħáĮį
ĠáĪ²áĬĸáĪŃ
ĠáĪĬáīĢáĪĺáĬķ
ĠáĬ¨áĪĽáĬķáĪĿ
ĠáīłáĪĿáĭµáĪ¨
ĠáĬ¨áĪĿáīµ
áĬ¥áĬķáĭ²
ĠáĪµáĪ«áĭİáī½áĬķ
ĠáĪįáĭ©áĬĲáī¶áī½
ĠáĬłáĮĪáī£
Ġáĭ«áīĨ
Ġáĭ¨áī°áĪ¨áĮĭáĮĪáĮł
áĭ«áĬķáĭ³áĬķáĭ³
áīħáīħ
ĠáĪĨáĬĲáĪħ
áĬłáĪĿáĪĭáĬŃ
Ġáī£áĪĪáįĪ
ĠáĬ¢áĪľáĭŃáĪį
ĠáĪģáĬĶáī³áĭİáī½áĬķ
ĠáĪĬáĭ°áĪ¨áĮį
ĠáĪĽáĪ³áĭ°áĮį
ĠáĪĻáĭļ
ĠáĭŃáĭ°áĪŃáĪ³áĪį
áĭ¨áĪį
Ġáĭ¨áĪĺáĭį
ĠáĪĽáĪŁáĪĭáīµ
Ġáĭ¨áįĴ
ĠáĬłáĪĿáĪ«áī¾áī½
ĠáĮĪáĬĲáīµ
ĠáĭŃáĮłáįĭáĪį
ĠáīħáĪŃáĮ½
Ġ~
Ġ@
Ġáĭ¨áĮĢáĪĺáĪŃ
ĠáĪĨáĭµ
ĠáĬłáĪįáĬ©áīµ
áīĭáĪŃáĮ¥
áĭĵáĭĽ
Ġáĭ¨áĮįáĪĪ
áĭŃáĭĻ
ĠáīłáĪĿáĪŃáĮ«
ĠáīłáĪĺáī¶áĭİáī½
áĪįáĪ½
Ġáī°áĭĵ
Ġáĭ¨áĪļáĮĪáĬĻáīµ
ĠáĭŃáĭ¤
ĠáĪĿáĪģáĪ«áĬķ
ww
ĠáĬłáĪµáī°áĪĿ
ĠáĪµáĪľáī³áĭĬ
ĠáĪĺáĪ³áī°áįį
ĠáīłáīµáĬķáĪ½
áĪ°áĪĿ
ĠáĪĿáĪŃáĮ«áĭİáī½
ĠáĬ¥áĭļáĪģ
áĮ¥áĪ¨áĭį
áĭ¬áĭį
ĠáĪĭáĪī
ĠáĬŃáĪª
ĠáĪµáī¥áĪ°áī£áĭİáī½
áīłáĪ¨áī³áī³
ĠáĬ¥áĬĲáĪŃáĪ±áĬķ
ĠáĪĿáĬĵáī£áĭĬ
áĬ¨áĬĵáĭįáĬķ
Ġáĭ¨áīª
ĠáĬ¥áĮ£
ĠáĪ«áĬ¥áĭŃ
ĠáĪµáĪįáĬ®áī½
áĪĪáĪĻ
ĠáīłáĪ´
áīĨáĪ®
ĠáĭŀáĪŃ
ĠáĬ¨áĮįáī¥áįħ
áĬŃáī°áĪ®áī½
áĭĺáĪ®
45
Ġáĭ¨áĬĲáīł
Ġáĭ¨áĪĿáĬķáĭĪ
áī¥áĪİ
Ġáĭ°áĪ¨áīħ
ĠáĪĻáĪ´áĪĿ
Ġáĭ¨áĪļáĭ°áĪŃáĪµ
ast
ĠáĬ¥áĬķáĭ²áīĢ
ĠáĬłáĭįáĪŃáĭµ
ik
áīĢáĭ°áĭį
ĠáīłáĬ¥áĬķáĭ°áĭļáĪħ
ĠáĪĥáī¥áīµ
ĠáĪĢáī¥áī¶áī½
Ġáī°áĮ½áĬ¥áĬĸ
Ġáĭ¨áĪµáĪŃ
áįĨáī½
2012
ĠáĪĺáĭ°áī¥
áĪ°áī£áī½áĬķ
Ġáĭ«áĪµáī³áĭįáĪ±
ĠáĬłáĪµáĪ¨áĭµ
ĠáĬ¨áĬ¢áīµáĭ®áĮµáĭ«
áĮłáī¡
Ġáĭ¨áī°áĪ¨áĮĭáĮĭ
ĠáĬ¢áĬķáī¨áĪµáīµáĪĺáĬķáīµ
ĠáĬ¥áīµáĪĿ
Ġáĭ¨áĪļáīĢáĮ¥áĪĪáĭį
ĠáįĪáĪ³áĪ½
Ġáī°áĪ¸áĬŃ
áĪ°áĪħ
ĠáĮĭáĭĿ
ĠáĬ¨áīĨ
ĠáīłáĪł
ĠáĪĪáįĪ
Ġáĭ¨áĪļáĭĺ
ĠáĬĵáī¸áĭįáĬĵ
Ġ41
ĠáĪĺáĪµáĪ«
ĠáĬŃáįįáĪī
Ġáĭ³áĭŃáĪ¬áĬŃáī°áĪŃ
ĠáĪĪáĪĺáĮł
áĪµáī±áĪĿ
áĬĲáī¡
Ġáĭ¨áĭŃáĪĸáĭĭ
áĬłáĭ«
ĠáīłáĭĵáĪĭáīµ
áĬ¥áĭļáĪħ
áīłáī±
ĠPro
Ġáī°áīĢáĪĺáĮł
ĠáĬ¥áĮĪáĪĿáī³áĪĪáĪģ
ĠáĪµáĪŃáĭĵáī±
ĠáĬ¥áĬķáĭ³áĪĪáī¥áĬĿ
ĠáīłáĪķáĭŃáĭĪáī´
ĠáĬ¢áĪ³
ĠáīłáĪĽáĭ«
ĠáĭŃáĮĪáĪĺ
Ġáĭ¨áī°áīĢáĭ°
Ġáĭ¨áĪļáĬĵáĮĪáĪŃ
Ġáĭ¨áĪļáĭĪáĭ±
ĠáĪ°áĮŃ
ress
áĪĪáįī
ĠáĪ°áĪĽáĪģ
Ġáī³áĮĭ
ĠáĬłáĭµáĪ«áĮĬ
áĬ¨áĪªáĭ«
Ġáĭ«áĬ«
ĠáĬ¤áĪĮáĬŃáīµáĪªáĬŃ
áĪĺáĪŃáĮ¡
Ġáĭ´áĪŀáĬŃáĪ«áĪ²áĭ«áĭĬ
ĠáĪĪáĪĺáīĨáĭ¨áīµ
ĠáĪĺáĪ°áĬĵ
áĬĵáĬĵ
ĠáĮįáĭĽáī¶áī½
ĠáĬ¨áįĢ
ĠáĪĪáĪĺáĮ«áĬķ
ĠáĬłáĪµáĬ¨áįĬ
áĮłáīĥáĪĪáĭ«
Ġáĭ¨áĪĽáĭŃáī½áĪī
ĠáĪĿáĪħáĪ¨áīµ
áĬĻáĬķ
áĪµáī¥áĪĿ
Ġáĭ¨áįĪáĮłáĪ¨
ĠáĬłáĪ°áĪįáĮ£áĬĿ
ĠáĬ¥áĬķáĭ²áĪ°áĪĽ
ĠáĮĢáĮį
ĠáĬ¥áĪĿáī¥áĭĽáĪĿ
Ġáĭ¨áĪļáĭ«áĪµáįĪáĪįáĮĪáĭį
ĠáīłáīµáĬķáĪ¹
áĬ«áĪĦáĭ±
ĠáĬ¦áĪ®áĪŀ
ĠáīµáĪįáĪįáīħ
38
Ġáĭ¨áĬ¥áĪŃáĪ±áĬķ
ĠáĪĽáĬĵáī¸áĭįáĪĿ
áĬ¥áĬ®
áĬłáĭ²áĪµ
Ġáĭ¨áĭĪáĪ¨
áĪĺáĪ°áĮį
Ġáī°áĬł
ĠáĬłáĬķáīºáĬķ
áī¬áĪµáīµ
ĠáīłáĪĺáĪįáĬ«áĪĿ
ĠáĪ°áĭĵáī¶áī½
Ġáĭ¨áĭ°áĬķáīł
ĠáĭĿáĭįáĭį
ĠáĮ£áĪį
ĠáĪĪáĪĽáĮłáĬĵáīĢáīħ
ĠáĮįáĭµáĭ«
Ġáĭ¨áīµáĬķ
Ġáĭ¨áī£áĪĪáĪĻáĭ«
ĠáĪĽáĭµáĪ¨áĪµ
ĠáĪĪáĪĺáĬ¨áī³áī°áĪį
ĠáįħáĪģáįį
ĠáĭĿáĪŃáĭ«áĭİáī½
Ġáī°áĪĪ
ĠáįįáĪ«áĬķ
Ġáĭ¨áĪļáīłáĪįáĮ¥
áī£áĪīáīµ
ĠáĬ¥áĬķáĪĤáĭµ
ĠáĬłáĭµáĪŃáĮĭ
ĠáĪªáįĲáī¥áĪĬáĬŃ
áīłáĭ«áĭį
ĠáĬłáĪįáĬĲáīłáĪŃ
Ġáĭ«áĪ¨áĮĭáĮįáĮ£áĪį
ĠáĬłáĪł
ĠáĬ¨áĬłáĪĿáĪµáīµ
ĠáĪĪáĪģáĪĪáī°áĬĽ
ĠáĬ¨áįįáī³
ĠáĪĪáĪķáĭĿáī¡
áĬ«áī°áī±
ĠáĮ¥áĪ«
áĬŀáī»áī¸áĭį
ĠáĭŃáī½áĪī
Ġáī¦áĪŃáĪ³
ĠáĬ¥áĪ¨
ĠáīłáĬĲáĭļáĪħ
ĠáįĪáī°áĬĵáĭİáī½
Ġ""
Ġáī°áī½áĪıáĪį
ĠáĬ¤áĪŃ
áī°áĬĲ
ĠáĬ¨áĬĲáĪ±
ĠáĬ¥áĬķáĪĭáĪĪáĬķ
ĠáĪĪáĪĺáĪĺ
ĠáĬłáĪįáī»áĪįáĬķáĪĿ
ĠáīłáĪ¨áĬ¨
ĠáĪĺáĬ®áĬķáĬķ
áĬŃáĪĭ
ĠáĭĪáĪĪáĪį
ĠáĬ¥áĬķáĭ°áĬĲáĭļáĪħ
Ġáĭ¨áĪļáĭ«áĪµáįĪáĪįáĮį
SA
ĠáĬŃáįĭáīµ
ĠáĭķáĪĪ
áĪ®áĪļáĭ«
ĠáĪĪáĪĺáĪ³áī°áįį
ĠáĮ£áĪĬáĭ«áĬķ
ĠáĪĪáĪĺáīĢáĭ¨áĪŃ
icle
ĠáĪ¸áĪĪáīĨ
ĠáĪĺáĪĿáĪªáĭ«
áįįáĪī
ĠáĬłáīħáĪ«áī¢áĭİáī½
áīĥáĮł
ĠáĬ¥áĮĨ
Ġáĭ«áĪµáĪ¨áĭ³
ĠáĪ°áĪĭáĪĿáĬķ
áĪ¾áī½áĬķ
ĠáīµáĪĭáĪĪáī½
Ġáĭ¨áĪĪáĪ½
ĠáīłáĭĿáĮį
ĠáĬłáĮłáīĥáīĢ
ĠáĪĪáī£áĪĪ
ĠáĪįáī¦áĬĵ
Ġáĭ¨áī°áĪĽáĪª
ĠáĪįáĭ°áīµ
ĠáĬłáĬŃáī¥áĪ®áīµ
ĠáĬ¨áī°áĪĽáĭĭ
ĠáĮĪáĪįáįĢáĭĭáĪį
ĠáĪĺáĬķáĭ°
ĠáĭŃáĮĪáĪįáĮ»áĪį
ĠáĪĪáĭĵáĪĺáī³áīµ
ĠáĬłáĪµáī¤
ĠáīµáĪ«áįĬáĬŃ
áĭ°áĪĺ
ĠáĭŃáĭ°áĭį
ĠáĬ¥áĬķáĭ°áĪĽáĭ«
ĠáĬłáĪħáĭ«
ĠáĬ¨áĮĪáī£
ĠSt
ĠáĬ¨áĪĨáĬķáĬŃ
áĬ©áĪ¨áīµ
ĠáīħáĮ¥áĪŃ
ĠáĮ¥áīħáĪ¶áī½
ĠáĭĪáĪ°áĭ°
ĠáĪĺáĮ½áĪĲáįī
ĠáīģáĪ³áīģáĪµ
ĠáĪŀáĭ´áĪİáī½
ĠáĬłáĪ³áĭį
áĮ£áĪ«
ĠáĬłáĪįáīĨ
ĠáĬ«áĪĪáįĪáĭį
ĠáīłáĮ¸áĪİáīµ
Ġáĭ¨áī¥áĪ¨áīµ
ĠáīłáĪĽáĪħ
ĠáĬ¨áĪ¦áĪµáīµ
ry
ĠáīµáĮįáĪ¬
Ġáī¥áĭĻáĭİáī»áī½áĬķ
Ġáĭ«áĪ¸
ĠáĮłáī¥áīĨ
áĬķáĭµáĪŃ
ĠáīłáĪĢáĮĪáĪ«áī½áĬķ
ĠáĬłáĪ¨áī¥
ĠáĪĽáĭ¶
Ġáĭ¨áĪĪáī¥áĭİáīµáĪĿ
Ġáī³áĪªáĬ©
ĠáĭĪáĭµáĮĦ
áĮİáĭ±
áĪħáī°áīµ
áĮĢáĭį
ĠáĪ½áĪĽáĮįáĪĮáĭİáī½
ĠáīłáĪĺáĪĺáĪŃ
áĭ°áĭįáĬķ
ĠáĭŃáĬĸáĪ«áī¸áĭĭáĪį
ĠáĭĪáĪ¨áĭ°
Ġáĭ¨áĭ©áĬĵáĭŃáīµáĭµ
ĠáĭįáĪ¾áī½
Ġáĭ¨áĪģáĪĪáī°áĬĽ
ĠáĪĪáĪĺáĭ°áĮĪáįį
ĠáīłáĬ¥áĮģ
ĠáĬ¥áĬĵáī¶áī½
Ġáī¥áĪī
áĬķáĮįáĪĬ
Ġáĭ¨áīµáĬŀáī¹
Ġáī°áĮ«áĭį
Ġáīłáĭ¨áĪ³áĪĿáĬķáī±
ĠáĬ¥áĬķáĭ³áĪįáī°
Ġáĭ¨áī¥áĭµáĪŃ
ĠáĬ¥áĬķáĭ²áĭ«áĭį
ĠáĭµáĬŃ
ĠáĪµáįĭáīµ
Ġáĭ¨áĪĺáĪĪ
áĭ¬áĪĿ
áīĢáĪĪ
ĠáĪĽáī´
ec
ĠáĬ¥áĬķáĭ°áĪļáįĪáĪįáĮī
ĠáĭŃáĪĭ
áĬ«áĬĿ
ĠáĪģáĪĭáī½áĪģáĪĿ
ĠáĪĺáĪĺáĭĺáĬĽ
áĬĭáī½áĪģ
áĭ«áĭĿáĭ«
ĠáīłáĪ´áī¶áī½
áįĭáĪĪáĬķ
ĠáĬŃáĬķáĭµ
Ġáĭ¨áĪļáĭ«áĪµáįĪáĪįáĮī
áīĢáīģ
ĠáĬ¤áĪįáĭ«áĪµ
áĪĥáĪĪáĬķ
áĭµáĪ¨áĬŃ
áĪµáī²áĬŃáĪµ
Ġáī°áīĢáĪĿáĮ¦
ĠáĬłáĪŃáī¥
ĠáĪĪáĪĽáĭįáĮ£áīµ
áīµáĪªáĬŃ
Ġáī°áĪĺáĬķ
áĬĭáīµ
ĠáĪ°áĪĽáĭ«áīµ
ĠáīĢáĭ³áĭ³
ĠáĮīáĭ³áī¶áī½
Ġ49
áīĢáĪĺáĮłáĭį
ĠáĭŃáĪłáĪ«
Ġáĭ¨áĬ«áĪŃ
ĠáĪĪáĪĽáĮ¥
ĠáĬŃáĪĿáī½áīµ
áĭĭáĬĵ
Ġáī°áĭĭáĬĵáĭŃ
ĠáĭŃáĪĪáĭĭáĪį
Ġáĭ¨áĬłáĪį
ĠáĬ«áĪĭáī¸áĭį
Ġáĭ¨áĭĪáĪŃáīħ
ĠáīłáĪ¸
ĠáĬłáĪģáĬĳáĬĳ
ĠáĪµáĭĬ
áĪĪáĭįáĮ¡
ĠáĭŃáĬ½
ĠáĬĲáī¢áĭ©
Ġáīłáī°áĮĪ
ĠáĬłáĭŃáĭ°áĪĪáĪħáĪĿ
áĪĪáī½áĭį
ĠáĬłáĪ³áĭŃáī·áĪį
ĠáĪĪáĪ«áĪ´
ĠáĭĪáĮ¡
ĠáīłáĪĽáĪµáī°
áĪ¯áĬķ
ĠáĬķáįģáĪħ
Ġáĭ¨áĬłáĪĽ
ĠáįĬáĭ°
ĠáĪĻáĪīáĭįáĬķ
ĠáĪįáĮĨáī¹áĬķ
ĠáĬªáĬķáĮįáĭ°áĪĿ
ĠáĪĺáįįáĪ«áīµ
áĪĪáĬŀáī½
ĠáĬ¨áĪĺáĮ£
ĠáĪĪáĪ¨
áĭĪáĬķ
ĠáĮ¥áĪĿáĪ¨áīµ
áĭĪáĭ±áīµ
ĠáįĪáīµ
ĠáĪĤáĭ°áī±áĬķ
ĠáĪĽáĪ³áĪĪáįį
ĠáĬłáĪľáĪªáĬ«áĭĬ
Fi
áī°áĪ«
áī£áī³áĪį
ĠáĬłáĪµáī°áĭį
áĪĢáĬķ
áĮİáīłáĬĻ
ĠáĪĪáĪĺáĪ¸áĮ¥
ĠáĪĻáĪµáĬĵ
ĠáĭķáĭµáĪľáĭ«áī¸áĭį
Ġáĭ«áĭ³áĪĿ
ĠáĭŃáīĢáīłáĪĭáĪį
áĪĻáĪī
ĠáĬ¨áĭĪáĭ°
ĠáĪĪáĪĺáĮĵáĭĿ
ĠáĭŃáĮłáī¥áīĥáĪį
áĬļáĪħ
ĠáĬłáĪ³áĪĽ
ĠáĪ¼
ĠáĬ¨áĬłáī¥
Ġáīłáī¶
ĠáĮīáĪįáĪħ
ĠáĬ¨áĬĲáīłáĪ¨áĭį
ĠáĬłáĭŃáĪĺ
ĠáĪĺáĬķáīĢáĪ³áīĢáĪµ
ĠáĬĵáįį
Ġ2006
Ġáĭ¨áĪ³áĭŃáĬķáĪµ
Ġáī°áĮĭáī¥
ĠáĪħáī¥áĪ¨áī°áĪ°áī¡
Ġáĭ¨áī°áīĢáĪĺáĮł
áĪºáĪħ
áĬ°
áĪįáĬĵ
Ġáĭ¨áĪļáĭ²áĭ«
ĠáĪµáĪĪáĮĢáĪĺáĪ©
ĠáĭĺáĪĺáĭµ
áĬķáī»
Ġáīłáī°áĪ³áĬ«
Ġáīłáįĭ
Ġáĭ¨áī°áĮĪáĬĺáĭį
ĠáĬłáĪµáĮĪ
ĠáĪĺáĪŃáĬ¨áī¥
áĭĪáĮ«
Ġáĭ¨áĪĪáĭįáĮ¥
áīĢáĬĲ
áĪ«áĪĺáĭµ
áĮłáĬĵáīĢáīģ
ĠáĭŃáĬĸáĪŃáī¥áĭİáī³áĪį
ĠáĬĲáĮĪáĭµ
ĠáĪĺáĪįáĭķáĬŃáī¶áī½
ĠáĬ¥áĪŃáĪĿáĮĥáĭİáī½áĬķ
Ġáī¥áįģ
Ġáĭ¨áĪĽáĪħáīłáĪ«áĭĬ
Ġáīº
ĠáĭĺáĮ¸
ĠáīłáĪ«áĪ´
áĬ¥áĪµáĬ¨
áĭĿáĮįáī¥
ĠáĬ¨áįĪáĪĪáĮį
Ġáĭ«áĪ¨
áī½áĪįáīłáīµ
ĠáĪĥáĮĪáĪ«áīµ
ĠáĪĺáĪĢáĪį
ĠáĬłáĪĭáĪĿáĬķáĪĿ
ĠáĮ½áĬķáĪ°
ĠáĬ¥áĭ«áĪįáĬķ
ĠáĭŃáĮĪáĭµ
Ġáĭ«áįĪ
áĪ»áĭįáĬķ
áī¶áĪĬáĬŃ
ĠáĪĺáĮ£áĪį
ĠáĬ¨áĬ«
áĭ³áī¸áĭįáĬķ
ĠáĪĽáĪµáī°áĬ«áĬ¨áĭ«
áĪ½áĬķáĮįáī°áĬķ
Ġáī°áĪ½áĬ¨áĪŃáĬ«áĪªáĭİáī½
áĮ¼
áĬĵáīĥ
áī¾áī½áĬķ
Ġáĭ¨áĪħáĬķáĭµ
ĠáĬ¦áįĬ
áĮĪáĬĺáīµ
Ġ196
ĠáĭŃáĮĪáī£áĬĵáĪį
Ġáĭ«áĪĪáįĪáĭį
áĬ£áĬķ
ĠáĪħáĭĿáī£áĭĬ
Ġáī³áĭŃáī·áĪį
ĠáĪĤáĭ°áī¶áī½
ĠáĬ¨áĬ¥áĪµáĪ«áĬ¤áĪį
ĠáĬ¥áĬķáĭĪáĭ³áĪĪáĬķ
áĬķáĭŀ
áĪĭáĪĪáĪĽáĭĬ
ĠáĬłáĪ¨áĮĭ
ĠáĬ¥áĬķáĪ°áĮ£
áĬĲáĮĭáĮįáĪ©
ĠáĬ¨áĬ¥áĬĲáĪŃáĪ±áĪĿ
Ġáĭ«áĮĪáĪĪáĮįáĪĭáĪį
áĭ¨áĪħ
ĠáĭµáĪŃáĮĬáī¶áī½
ĠáĬłáĭŃáĪģáĭµ
ĠáīĢáĮ£áĭŃáĬĲáīµ
Ġáī°áĮ«áĪ«áī¾áī½
ĠáĬ£áĭŃ
Ġáĭ¨áĭµáĪĿáĮ½
ĠáīłáĪĺáĪĺáĪŃáĬ®áĭĿ
áĪ®áĪµ
ĠFacebook
Ġáĭ¨áī´áĬŃáĬĴáĬŃ
ĠáĬ¥áĪħáĪį
Ġáī°áĭĪáĪį
ĠáĪ°áĮłáĭį
ĠáīłáĪļáĪĺáĪĪáĬ¨áīµ
ĠáĪĪáī°áĮ¨áĪĽáĪª
ĠáĮĪáī¥áī°áĭį
Ġáĭ¨áĬ¨áįįáī°áĬĽ
ĠáīµáĪĨáĬĵáĪĪáĪħ
áīµáĬĲáīµ
ĠáĬłáīĢáĪ¨áīł
ĠáĭĪáĭ°áįĬáīµáĪĿ
ĠáīłáĬĲáīłáĪ¨áīłáīµ
Ġáĭ¨áĪ°áī¥áĬłáĭĬ
ĠáĬłáīĢáĪŃ
ĠáĪĺáĮĪáĭ°
ĠMP
Ġáĭ¨áĭĿ
ĠáĭŃáĪĺáĬ¨áĪ«áĪį
Ġáīłáĭ¨áĭĪáĪ©
ĠáĭŃáĬĲáĮĪáĪ«áĪį
ob
ĠáĬłáĪįáī°áī»áĪĪáĪĿ
ĠáĬłáĪŃáĪĽ
áĭĮáĪŃ
Ġáĭ«áĪĺáĬĳ
Ġáī°áĪ«áĪ®áī½
ĠáĬ¨áĮĮáī³
ĠáĪĺáĭ³áĬķ
áĮĭáĬĿ
ĠáĪĪáĪĥ
áĪĪáĮ¡
ĠáĪĺáī»
áī¥áĪ½
Ġáī¢áī£áĪį
Ġáĭ¨áĪįáĮħáĬĲáīµ
áĪĪáĭī
Ġáĭ¨áĪĿáĬķáĭĽáĪ¬
áĪĺáĪĺ
ĠáĬķáĮįáĮį
ĠáĭŃáĮłáīģ
ĠáĪķáĭŃáĭĪáīµáĬķ
Ġáīłáĭ°áĪ¨áĮĥ
ĠáĬ®áĪŃáįĸ
ĠáĬłáĪĪáī½áĭį
ĠáįįáĪįáĪµáįįáĬĵ
Ġáī°áĮĪáĬĺ
ĠáĪħáĪįáĭįáĬĵ
ĠáĬ¥áĬķáĭ²áĬĸáĪ«áī¸áĭį
Ġáĭ¨áĪļáĪ°áĪ«áĭį
ĠáĬłáĪµáī³áĭįáīĢáĭĭáĪį
Ġáĭ¨áĬĭáĪĭ
Ġáĭ¨áĬłáĬķ
Ġáĭ¨áĬłáĪĿáĪĭáĬŃáĬķ
ĠáĬłáĪĭáĭ¨áĪģáĪĿ
áĬŃáĪĪáĭį
Ġáī£áĪĪáĪĽ
áĮĵáĭ°áĬĽ
ĠáīµáĬķáī¢
áīĤáĭ«áĭį
Ġáĭ¨áĪ°áī¥áĭĵáĭĬ
Ġáĭ¨áĪļáĭ«áĪ°
áĬĲáĬĿáĬĲáīµ
áĬŃáĪ«áĪĪáĪģ
ĠáĪĽáĮĭáĪ«áīµ
ĠáĪļáĬ«áĬ¤áĪį
ĠáĬłáĪµáįĪáĪĭáĮĬáĭį
Ġáĭ«áĭįáīħ
ĠáĪĺáĪĿáĮ£
ĠáĭµáĬ«áĪĿ
áĮĭáī½
ĠáĬłáĪįáĬĲáīł
ĠáĬłáĭ¶
ĠáĬ¥áĬķáĭ²áĪ°
ĠáĪ²áĮĪáī£
ĠáĭµáĬķáĮĪáī°áĬĽ
Ġx
ĠáĬłáĬķáĭµáĭ¬
ĠáīłáĭŃáĬĲáĪĺáĪ¨áī¥
áĪ«áĪ³áī¸áĭį
áĪªáīĥ
áīłáĬŃ
áĭİáī½áĭİ
ĠáĪĺáĪ¨áĮĥáĭį
ĠáįĪáĪĪáĮį
Ġáĭ«áĮĪáĪĪ
áĭįáĬķáĬĵ
ĠáĮĥáįĵáĬķ
áĬŃáĪİ
ĠáĪĿáĭµáĪ¨
áĮĮáĮ¥
áĪ«áĮħ
Ġáĭ¨áī°áĮł
ĠáĬłáĮ¨
ĠáĬ¥áĬķáĭ²áĬĸáĪ¨áĭį
ĠáĬŃáĪŃáĪµáī¶áĪµáĬķ
áĪŃáĬĵ
ĠáĮĪáĬķáĭ³
Ġáĭ¨áĮ¥áĪ«áīµ
Ġáĭ¨áįĪáĪĪáĮī
Ġáī¤áī³áī¸áĭį
áĭĿáĬĵáĬĽ
ĠáĪĬáĭ«áĪµáĬ¨áīµáĪį
ĠáĪĺáī¸
áīłáī£
Ġáĭ¨áĪĢáĮĪáĪªáī±
ĠáĭŃáĪ¨
ĠáīłáĪĺáīĢáĮłáĪį
Ġáī°áĪĪáĭį
Ġáī°áĮĪáĪĪáĮ¸
Ġáĭ«áĪµáī½áĪĭ
ĠáĭŃáĪĽáĪ©
ĠáĬłáĪµáĬ¨
ĠáīłáĪ½áī³áĭİáī½
Ġáī°áĪ¨
áī¢áĭ«áĬķ
Ġáĭĺáĭ³áĮįáĪĿ
ĠáĬ¤áįį
Ġáī¢áĭ«áĪµ
áī³áĭįáīħ
ĠáĬŃáĭĪáĬĵ
ĠáīłáĪµáĪĿ
ĠáĬłáĭµáĬĵáīĨáīµ
Ġáĭ¨áĬ¥áĪµ
ĠáĮłáįįáī¶
áĪ²áī£áĭĬ
ĠáĪĽáĬħáīłáĪŃ
ĠáīłáĬĴáĭį
ĠáĬ¥áĬķáīĨáīħáĪį
ĠáĬłáĪµáī¸áĬ³áĭŃ
áīĢáĭĿáīĢ
ĠáīłáĪĺáĪĨ
áĭ²áĭµ
ĠáĬłáĭįáī¶áī¡áĪµ
Ġáĭ¨áĬłáī¥
ĠáįĪáįħ
ĠáĪĽáĭ°
Ġáĭįáĭµáīħ
ĠáĬłáĪ²
ĠáīłáĪ®áī½
Ġáī°áĪĺáĪ«áĪĽáĪªáĭİáī½
ĠáĪĺáĮĵáĮĵáĭ£
Ġáī£áĪµ
ĠáĪĬáī³áĭŃ
ĠáĭŃáĬĳáĪŃ
ĠáĪĪáī½
Ġáĭ¨áĪļáĪµáī¥
ĠáīĢáĬķáĪĿ
áīłáīł
áĪ°áī°áĬĽ
áĬŃáĪ«áĪį
ĠáĬ¥áĮģ
ĠáīµáĪĿ
ĠáĪķáĪĺáĪĿ
ĠáĪĿáĪ³áĪĮáĭİáī½
ĠáĪĺáĮ¨áĬĲáīħ
áĪ°áī£áĪ°áī¥
áĮ«áīµ
ĠáĬłáīħáĪŃáīłáĭĭáĪį
ĠáįĪáĪįáĮİ
ĠThe
ĠáĬłáĬķáī¥áī¥
ĠáĬłáĪµáįĪáĮ»áĪļ
ĠáĪĽáĭµáĪ¨áĮī
ĠáĪĽáĪĺáĪįáĬ¨áīµ
Ġáĭ¨áĬłáĬ«áī£áī¢áĭį
ĠáĬ®áĬķáĮį
ĠáĮ¨áĪŃáĪ¶
ĠáĮĪáĪĭ
ĠáĬłáĬ«áĭ³áĪļ
ĠáĪ«áĪµáĪħ
Ġáĭ¨áĪ¬
ĠáĭĵáĪĺáī±áĬķ
Ġáĭ¨áĬŃáĪįáĪį
ĠáīłáĬ¥áĬķáĭ²áĪħ
ĠáĭĪáĮ¥áī°áĭį
ĠáĪĺáĪĺáĪĪ
Ġáĭ¨áĮłáīłáīĢ
áĬ¥áĬķáĮįáĭ²áĪħ
ĠáĮįáī¥áĮ½
Ġáī°áīĭáĪĽ
Ġáĭ¨áĪļáĮłáĮī
áĪĺáī¶áī½
ĠáĮįáĪĽ
áĮķ
ĠáĬ¥áĬķáĭ°áĭļáĪģáĪĿ
áī°áĬĿ
ĠáĪĺáĮĪáĬĺ
áĭĺáĭĭ
ĠáĬłáĪĪáĪĺáī³
ĠáĪĪáĪĺáĪĭáĬŃ
áĪŃáī¶áĭ¶
ĠáīłáĪĤáĭ°áīµ
ĠáĬ¥áĬķáĭ°áĬĶ
ĠáĪĪáĪ«áĪ³áī¸áĭį
áĪ«áĬķáĪµ
ĠáĪĪáĪ´áī¶áī½
ĠáīłáĬŃáĪ¨áĪĿáīµ
ĠáĬ¥áĬķáĪ°áĪ«áĪĪáĬķ
Ġáĭ³áĭĬáīµáĪĿ
ĠáĮįáī£
áįĪáĪī
áĪ°áĪĭ
ĠáĬ¨áĬłáĪĭáĪħ
ĠáĪŃáĪµáīµ
ĠáĭįáĪİáī½
áĬķáĮīáĪ¥
Ġáīłáĭ¨áĭķáĪĪáī±
ĠáĭľáĪĽ
Ġáĭ¨áĮįáĬķáĬĻáĬĲáīµ
ĠáĪĪáĪ¥áĪ«
ĠáĮ¥áĪİ
áĬŃáĪıáĪį
áĪĪáĪĿáĪ³áĪĮ
ĠáĪ³áīħ
Ġáį©
up
ĠáĪ°áĭİáī¹
Ġáī£áĪĭáī¸áĭį
áĮĪáī¡áĪĿ
ĠáĬłáī¤áīµ
ĠáĭĪáī³áĭ°áĪŃ
áįĭáī½áĪģ
áīĢáĬĵáĪį
áįįáĪµ
ĠáĪĽáĬ¨áĪį
ĠáĪ¥áĪ«áĬķ
ĠáĪĥáī¥
Ġáī£áĭŃáĪĨáĬķáĪĿ
áīĢáĭĿáīĢáĭ£
ĠáĪįáĪĿáĭ¶áī½
áĭ«áĭ¨
ĠáīłáĮ¥áĪįáīĢáīµ
2013
ĠáĮłáī¢
áįķáĪªáĪį
Ġáĭ¨áĭĽáĪ¬áĭį
ĠáĬłáĭ°áĪŃ
áįĪáĮ½áĪĿ
ĠáįķáĪ®áĮĢáĬŃáī±
áīłáĪŃáĮį
ĠáĪħáĭ³áĪŃ
Ġáī°áĮĪáī¢áĭįáĬķ
ĠáĪĪáĪĽáīĨáĭ¨áīµ
Ġáĭ¨áĬ¥áĬĲ
Ġáīłáĭ°áĪħáĬĵ
áĪ«áĮ®áī½
ĠáīłáĬłáĬ¥áĪĿáĪ®
ĠáĮīáĮįáĪį
Ġáĭ¨áĮ½áĪĳáįį
áįĭáĬĳ
áīĢáĪ±
ĠáĬ¥áĬķáĭ°áĭį
áĪĪáĪĽáīµ
áĪ²áĪµ
ĠáĮłáīģáĪĺáĭĭáĪį
ĠáĪĲáĭĭáĪŃáĭ«áĭį
ĠáĮħáĪĽ
70
ĠáīłáĪĿáĭµ
Ġáĭ¨áĬ¢áīµáĭ®áĮµ
Ġáīªáĭµáĭ®
ĠáĬ¨áĮĵáĭ°áĬŀáī½
ĠáĮĮáī³áĬķ
Ġáĭ¨áĪĤáĪ³áī¥
Ġáĭ«áĪĪáĪĽáīĭáĪ¨áĮ¥
Ġáīłáī±
áĪ¨áī°áĭį
Ġáīłáī£áĪħ
ĠáĬ¥áĮłáĭŃáīĥáĪĪáĪģ
Ġáī¤áī¶áī½áĬķ
áĮĪáĪ«áī¸áĭį
ĠáĪ°áĬķáĪ°
ĠáĮ½áĬĳ
ĠáīłáĬ¨áĬķáī±
Ġáĭ¨áįĸáĪĬáĪµ
ĠáĪµáĪŃáĬłáīµ
ĠáĬłáĪĽáĪ«áĮ®áī½áĬķ
áĪ³áĭįáĭ«áĬķ
Ġáĭ¨áĪļáĪĺáĪµáĪį
ĠáīłáĪĺáįįáĮłáĪŃ
áĪĮáĪĭ
ĠáĬ¥áĪĺáĮ£
ĠáĪĭáĪĭáī¸áĭį
ĠáįĭáĪ½áĬķ
áĮĪáĪĪáĮ¥
ĠáĭµáĪįáĭµáĭŃ
áĮłáĪ¨áĭ¥
áĭ®áĪĲ
Ġis
ĠáĪĺáīģáĪ¨áĮ¥
áĪĦáĭ³áĪĪáĬķ
ĠáĪĦáĭ°áĭį
ĠáĮīáĪįáīł
áĪĽáĪĪáĪģ
ĠáīłáĪļáĮĪáĬĻ
ĠáĬ¥áīĥáĭİáī½
ĠáīĨáĪĺáĭį
wit
Ġáĭ«áĪµáī°áĪĿ
Ġ2000
ED
Ġáĭ¨áī°áĪ¨
ĠáīµáĬ©áĪ¨
ĠáĮ¥áĬĵáī±
áĮĪáĪĪáĮįáĪī
Ġáī°áĪĽ
Ġáĭ¨áīµáĬĽáĭįáĪĿ
Ġáī°áĬ«áĪĤ
ĠáĬ¨áĬłáī£
ĠáĭŃáĮįáĭĻ
ĠáĬ¢áĪľáĪį
Ġáī£áĪĪáĪµáĪįáĮ£áĬķ
áĪ½áī³áĭį
áįĭáĪĪáĪģ
áĬĲáĮĭáĮĪáĪ«
ĠáĬłáĪľáĪªáĬ«áĭįáĭ«áĬķ
App
Ġáĭ¨áĪļáĪĺáĪ¨
ĠáĬ¢áĭ«áĪ±
áĪĪáīģ
ĠáĬłáĭµáĪŃáĮĪáĬĵáĪį
ĠáĮĪáīłáĭ«áĭį
ĠáĬ¨áĪ¶áĪµáīµ
áĮ£áĮł
ĠáĬłáīħáĪ«áī¢áĭ«
ĠáĬłáī¥áĭ«áī°
áĭ«áĭ©
ĠáĪĽáĮ½
Ġáĭ¨áī°áĭĺáĪ¨áĭĺ
ĠáĪĺáĮ¥áīĢáĪµ
ĠáĪĺáĬĿáī³
ĠáĪĽáĭ³áĬķ
áĪİáī¹áĬķ
ĠáĭŃáĪħáī½áĬķ
ĠáīłáĬ¥áĪµáĪŃ
áĮ¸áĬĵ
ĠáĬłáĪįáįĪáĪĪ
ĠáĪĺáĭįáĮ«
ĠáĬłáĮįáĬĿáī°áĬĵáĪį
áĭ³áĮį
ĠáĭįáĮ¥áĪ¨áīµ
áĮŃáīĨ
Ġáĭ¨áĪļáĭ«áĪµáĭ°
áĬ¥áĭįáĬĲáīµ
ĠáĬłáįįáīĥáĪª
áĪĬáĭµ
ĠáĪµáĮ¦áī³áĭİáī½
áĮ¾áī½áĬķ
ĠáĬłáĭŃáĪ°áĮ¥áĪĿ
Ġáĭ¨áī°áĭĺ
ĠáĮłáĪŃáī¶
ĠáĭŃáĪµáĪĽ
,"
ĠáĪĺáĪĢ
Ġáĭ¨áĪĺáīĢ
Ġáĭ¨áĪĽáĭŃáĭĪ
Ġáĭ¨áĬ¦áĪ®áĪŀ
Ġáī°áĪ³áī³áįĬáĭİáī½
ĠáīłáĪ¶áĪµáīµ
ĠáĬ¥áĬķáĪĦáĭ³áĪĪáĬķ
Ġáĭ¨áĪĮáĪĪáīłáīµ
ĠáĭŃáĪ¨áĭ±
ĠáĬłáĬķáĮĢ
ĠáĪ°áĮ£áī¸áĭį
ĠáĬłáĪĪáįĪ
Ġáĭ¨áīłáĮĭ
ĠáĪĲáĭĭáĪŃáĭ«áīµ
áīłáĭĻ
ĠáĭŃáįĪáĮ¸
ĠáĮĪáĭ°áī¦áī½
áĬ¨áĪĻ
ĠáĪĪáĪļáįĪáĪįáĮī
áĭĪáĭµáīħ
Ġáĭ«áĪµáī½áĪĭáī¸áĭĭáĪį
ĠáĪĽáīħáĪ¨
ĠáīłáĪģáĪĪáī°áĬĽ
ĠáĬªáĪ«áĭŃ
áĬĴáĬŃáĪµ
áĭĺáĮĪáīłáĭį
Ġáī°áĬ©áĪį
áįįáĪ®
ĠáįķáĪ®áĮįáĪ«áĪĻ
ĠáĬ¨áĬ¥áĪŃáĪ±áĪĿ
48
áĭ°áī°áĬŀáī½
ĠáĬ¥áĬķáĭ³áĬķ
ĠáĪĽáĪħáīłáĪ©
Ġâĸ
ĠáĪ³áĭŃáĬķáī²
ĠáīłáĭĵáĭŃ
ĠáįĵáĭįáĬķáĭµ
áĭ°áīĢ
áĪĽáĪĽáīµ
áīµáĬķáĪ½
áĭ¦áī½
ĠáĭµáĪ«áĪĽ
ĠáĬĲáĮ¥áī¦áī½áĬķ
Ġáĭ¨áĪļáī³áĭĪáīĢáĭį
ĠáĪįáĭĪáĮ£
Ġdr
ĠáĮŃáī¥áĮ¥
ĠWhat
ĠáĪĪáĬķáĭ°áĬķ
áīĢáī¥
Ġáĭ¨áĭµáĪĿáįħ
ĠáīłáĪĿáĬĵ
Ġáĭĳáĭ°áīµ
ĠáĪĽáĮĪáĪįáĮĪáĪį
Ġáī°áĬ³áĪĥáĬĿ
Ġáĭ«áĪĪáī½
ĠáĪ¸áĬŃáĪĿ
ĠáĪĺáĪĥ
ĠáĮīáĭµáĮĵáĭµ
ĠáĬ¥áĭĽáĭį
áĬĲáĬĵáĪį
ĠáĭįáĪıáĪį
áĭĭáī±
ĠáĮłáĭ¨áīħ
ĠáĮĪáīłáĭ«áĭİáī½
áī¸áĭīáĬķ
áĭŃáįį
áĪ³áĪĪáī½
áĭ°áĪ¨áĪ±
Ġáĭ¨áĬ¢áĪľáĪį
ĠáĬ¥áĬķáĪĨáĬĵ
ĠáīłáĮĢ
ĠáĪĭáĪĪáĪĽ
ĠáīłáĪ¨áĭ¶
ĠáĭįáĮ«áĭĬ
ĠáĪĿáīµáĬŃ
ĠáīµáĬķáīłáĭ«
áīłáĪªáĭ«
áĭĭáĪµ
Ġáĭ¨áī³áĭĺáĭĺ
áĬ¥áĬĶáĪĿ
ĠáĬłáĭµáĪŃáĮİáī³áĪį
iv
ĠáĬ¢áīµáĭ®
áīĢáĪŃáī¡áīµ
áįİáĬ«áĬ«áĪª
áĪĪáī¡
Ġáĭ¨áĮįáī¥áįħ
áĬ¨áįįáĪī
áįĪáĪ«áĭį
coin
ity
ĠáĪĺáĪĪáĭ«áĭİáī½
ĠáĬłáĪįáīĢáĪ¨áĪĿ
Ġáīłáī¥áĪŃ
áĬĲáįī
Ġáĭ¨áĪļáĮĢáĪĿáĪ¨áĭį
Ġáĭ¨áĪĽáĪ³
ĠáĪ°áī¥áĬłáĭĬ
áĭ¶áī¹
ĠáĭĪáĭŃáĭĺáĪ®
ĠáĪ¥áĭķ
ĠáĮ¥áĪĿ
Ġáĭ²áĭ«áī¥áĪİáĪµ
ĠáĪĪáĪĺáĮ¨áĪĺáĪŃ
Ġáĭ¨áĪļáĭ«áĭ°áĪŃ
Ġáī°áĮĢáĪĿ
ĠáĬłáīĢáī£áīłáĪį
Ġáī£áī¡
ĠáįĪáĪĭáĮĬ
Ġáī°áĪĪáĭŃáī¶
ĠáĭŃáĪŃ
áī»áī½áĬķáĪĿ
ĠáĬ¥áĭ¨áĪĦáĭ°
ĠáīµáĮĪáĬĽ
ĠáĪĺáĬķáĮĭ
ĠRead
áĪĭáĪĪáįī
áĪĭáī¶áī½
ĠáīµáĬĸ
Ġáĭ°áĬħ
ĠáĬķáĮįáĭ¶áī½
Ġáī°áīĨáĮ¥
:)
ĠáĬłáĪĺáĮĭáĮĪáī¥
ĠáīłáĮįáĭµ
ĠáĪĲáĬª
ĠáĪĻáĭ«áĭĬ
Ġáĭ¨áĪĿáīµáī½áĪĪáĭį
ĠáīłáįĪáīĥ
Ġáĭ¨áīłáĬ©
ĠáĪµáĪĽáĪŃáīµ
ĠáĪįáĮ¥áįİáī½
áī£áĪħ
áĪįáīĨ
ĠáĪĻáĪ´áĬķ
ĠáĬłáĪĿáī£áĪ³
ĠáīµáĪµáĪµáĪŃ
ĠáĬŃáī¥áĪ¨
Ġáī°áīĢáĭŃ
áĮīáĪį
ess
ĠáĪĺáĭĭáīħ
ĠáĭĿáĪĽáĬĶ
ĠáĬ¥áĬķáĭ°áīĢ
ĠáīłáĪĺáĮĭ
Ġáĭ¨áĬ®áĪĿáįĴ
rc
Ġáĭ¬
áĮĪáĬĿáīłáīµ
Ġáĭ¨áĪĺáĪ¨
áī¢áĪµ
áĪĺáĬĽáĪį
áĪ°áĪ°
ĠáĬ¨áĪ°áĭİáī½
ĠáĪĥáĪ³áī¦áī½
ĠáīłáĭĲ
Ġáī³áĪħáĪ³áĪµ
ĠáĬłáĪĿáĪ³
ĠáĬ¥áĬķáĮįáĭ¶áī½
áĬ©áĪħ
ĠáĪ²áĭĪáĮ£
ĠáĪķáĮī
ĠáĪŀáĬĿáĬĲáīµ
ĠáĬĲáįįáĪ´
ĠáĮłáĪ¨áĮ´áĭĽ
ĠáĬłáī¥áĪ«
áįĢáĬķ
ĠáĪĬáīĢáĪĺáĬķáīłáĪŃ
áĭ¨áĪĻ
áĮ«áĪį
ĠáĬ¨áĪµáĪ«
áī«áĭŃáĪ¨áĪµ
Ġáĭ¨áĭ©áĬĴáī¨áĪŃáĪ²áī²
ĠáĪĪáĭĽáĪ¬
Ġáĭ®áĪĲ
ĠáĪħáī¥áĪ¨áī°áĪ°áī¥
ĠáĭľáĮįáĬĲáīµ
ĠáĮŃáįį
ĠáĪĺáī°áĬĽáīµ
áīłáĮĢáīµ
áĮĮáĪį
Ġáĭ¨áĭķáĪĪáīµ
Ġáĭ¨áįĪáĪĪáĮį
áĬ¨áī°áĪĪ
ĠáīłáĪµáī°áĮĢáĪŃáī£
Ġáĭ«áĮĭáĮł
áĭ«áĭĭáĬķ
ĠáīłáĬłáįį
ĠáįĭáĬķáī³
ĠáĬ¥áĬķáĭ°áĪĺáĪĨáĬĳ
ĠáĭĪáĬªáĪį
áĭ³áĪĪáī½
ĠáĮ¨áĭĭ
ĠáĬłáĪµáĬªáĭ«áĮħ
ĠáīĢáĮ¥áī³
ĠáĭŃáĮ£
ĠáĬ¥áĬķáĭ°áĪĨáĬĲáĪĿ
Ġáĭ¨áĪĺáĮ£áĪģáīµ
ĠáĬ¨áĪĽáĭµáĪ¨áĮį
Ġáĭ¨áīħáĬķ
ĠáĪĺáĪĿáĪ«áīµ
ĠáĬłáĭ«áĪµáįĪáĪįáĮĪáĭįáĪĿ
áįĪáĮłáĪ©
ĠáĬ¥áĬķáĪĨáĬĵáĪĪáĬķ
áĪµáī·áĪį
ĠáĬ¥áĪĺáĪŃ
áĪ½áĬĵ
Ġáĭ¨áĬĸ
VID
áĬĿáĬĵ
áĪ²áĬ«
ĠáĪĺáīģáĮłáĪªáĭ«
Ġáĭ¨áĭĽ
ĠáīłáĪĺáĬªáĬĵ
ĠáīłáĬłáĭ°áī£áī£áĭŃ
ĠáĪĽáĭķáĬ¨
Ġáī°áĮŃ
Ġáĭ¨áĭįáĭµáĭµáĪŃ
Ġáĭ«áĭ°áĪ¨áĮĪáĭįáĬķ
ĠáĬŃáĪŃáĪµáīµáĬĵ
áĪµáī±áĬķ
ĠáĬ¥áĬķáī°
áĮ«áĪĪáĪģ
Ġáī°áĭĭáĮĬ
ĠáĬłáĪĭáĭĪ
Ġáĭ¨áĭĪáĪ°
áī£áīłáĪ©áīµ
áĪ¯áīµ
Ġáĭ¨áī£áĪħáĪį
Ġáĭ¨áī°áĮĪ
ĠáīłáĭĭáĬĲáĬĿáĬĲáīµ
ĠáīłáĬĥáĭŃáĪį
ĠáĬłáĭŃáĪģáĭ³
ĠáĪĿáĬĴáĪįáĬŃ
ĠáĬłáĪĺáīº
ĠáĭŃáĪ°áĪĽáĪį
Ġáĭ¨áī¥áĪŃ
ĠáĬ¥áĭ¨áī°áī£áĪĪ
ail
Ġáĭ«áĮłáĬĵ
ĠáĬ¨áĭ¨
ĠáīłáĬłáīµ
áĪĺáĪ«áĭį
ĠáįįáīµáĪķ
Ġáĭ¨áīµáĪ«áįĬáĬŃ
ĠáĪ°áĬķáĭ°áīħ
ĠáĪĪáĪĽáĪµáī³áĭĪáĪµ
ĠáĭŃáĪĺáĪĪáĪ³áĪī
áįĭáįĭ
ĠáĪįáĮĩ
áĪ®áĬķáī¶áĪµ
Ġáī¢áĬĸáĪ©áĪĿ
áįįáĪ«áīµ
áīłáĪįáĮ¡
ĠáĬ¨áĬĭáĪĭ
ĠáĭŃáīĢáĬķáĪ³áĪį
UM
ĠáĬłáĪµáĭ°áĬķ
ĠáĬłáĪ°áĪį
ĠáĭŃáĬ¨áĬĵáĭĪ
ĠáįĸáĪĪáī²áĬ¨áĬŀáī½
ĠáĪĭáĬŃ
áĮĵáĪľ
Ġáĭ¨áĬ¢áĬķáī°áĪŃáĬĶáīµ
ĠáĪĽáĬ¥áĬ¨áĪį
áĪĽáĪ¨áĭį
ĠáįĪáĪĪáĮĪ
ĠáīłáĮ¥áīĤáī±
unes
áīłáĭŃ
ĠáĮ¨áĭĭáī³áĭįáĬķ
ĠáĪĻáĬ¨áĪ«áĭİáī½
áĬ¥áĭį
áĭĭáĪĪ
Ġáī£áĪįáĬķ
ĠáĬłáĬķáĭ³áĬķáĭ¶
ĠáĪĺáĮįáĪĪáĮ½
ĠáĭŃáĪģáĭ³
áĪĭáī»
ĠáįĪáĬķ
áĪ«áĪ¹
Ġáĭ¨áī°áĪŀ
ĠUS
ĠáĭĪáĭ°áī¥
ĠáĪķáĭĿáīħ
ĠáīłáĮİáī½
áī±áĬĵ
Ġáĭ¨áĭķáĭµáĪľ
ue
ĠáĬ¥áĪµáĪĽáĪĽ
ant
Ġáĭ¨áĪļáĭ«áĭįáīĢáĭį
áĪ²áĬķ
ĠáĭįáĮ¤áī³áĪĽáĬĲáīµ
ĠáĪµáĪĪáĪĺáĪĨáĬĳ
Ġáī°áĪĺáĪµáĮĪáĬķ
ĠáĪĪáĪĺáīĭáīĭáĪĿ
ĠáĪĺáĮįáĪĪáĮ«áĭİáī½
Ġáĭ¨áĮĢ
ĠáĪĪáĪµáĪ«
ĠáĭŃáĭįáĪ°áĭ±
ĠáĬħáī¥áĪ¨áīµ
áĮĢáĬŃáī±
ĠáĬłáĪĿáĪĭáĬŃáĪħ
áĭ°áĬĿáĬĲáīµ
ĠáĭŃáĬŃáįĪ
ĠáĬłáīµáįįáĪ«
ĠáĮĢáī¥
ĠáĬ¨áĪĮáĪİáī¹
ĠáĭĪáĪ°áĬĲ
Ġáĭ¨áīµáĬĽáĭįáĬķ
ĠáĬ¥áĬķáĭ°áĪĮáĪĪáĭį
Ġ150
ĠáīµáĭķáĭŃáĬķáīµ
Ġáĭ¨áĬ¥áĪµáĪ«áĬ¤áĪįáĪĿ
ĠáīĢáĪ¨áīł
áĪĺáĪĪáĬŃáī°áĭį
ĠáīĢáĬĸáī½
ĠáĬ¥áĪŃáĪµáĭİáĪĿ
ĠáĪµáĪĭáĪī
ĠáĪĺáĭįáĭ°
ĠáĪĺáĮ½áĪĲáįįáīµ
áī¸áĪŃ
ĠáĭĪáĭ°áīĢ
áĪĿáĪ¨áī»
Ġáĭ¨áĪģ
Ġáĭ¨áĮĮ
Ġáī£áĪĪáĪ¥áĪįáĮ£áĬĵáīµ
áīĢáĪ¨áīµ
ĠáīłáĬ¬
ĠáīłáĪĽáĪĪ
ov
ĠáĬ¥áĬķáĭ³áĪĪáī¥áĬķ
Ġforum
áĮ¨áĪŃ
Ġáĭ¨áĭ°áĬķáīłáĬŀáī½
áĮ²
Ġáī£áĭ¨
Ġáī£áĪĪáĬķ
ĠáĪĪáĪĺáī¥áĪĭáīµ
áĪĻáĪŃáīµ
ĠáĮĪáĪĿ
áĬĴáĪµáīµ
áįĵáĪŃ
Ġáĭ¨áī°áĭ°áĪ¨áĮī
áĭµáĪ¨áĪ±
Ġáīłáī£áĪķáĪŃ
ĠáĬłáĬķáī¥áī¤
ĠáīĢáĪĪáĪŀáī½
Ġáĭ¨áīħáĪŃ
áĭ°áī¡
áįĸáĪŃáī±
ĠáĭµáĪĿáįģ
Ġáĭ¨áĪµáĬ³áĪŃ
ĠáĪĿáĬĵáĪĿáĬķ
áĪįáĭİ
ĠáīĢáĪŃáī§áĪį
ĠáĪĽáĬħáīłáĪ«áĭĬ
ĠáĪĺáī³áĪ°áī¢áĭ«
áĭĸáīµ
áĭ«áĭ«áĭ¥
Ġáĭ¨áĭĲ
ff
ĠáĬłáĪĪáĬĵ
ĠáīłáĪ«áĪ³áī½áĬķ
áĪ½áĬ¨áĪŃáĬ¨áĪŃ
Ġáĭ¨áĮ¸áĪİáīµ
ĠáĪĽáĭ°áĮį
Ġáĭ¨áī°áĭ°áĪ«
ĠáīłáįĬáīµáĪħ
ĠáĬ¥áī¥áĭµ
áīħáī°áĬĽ
ort
áĬĸáĪ¨áĬĿ
ĠáīłáīģáĮ¥áĪŃ
Ġáĭ¨áī°áī£áĪī
ĠáīµáĬķáī°áĬĵ
áĪŀáīµáĪĿ
ĠáīĨáĮłáĪ«
Ġáĭ¨áĪļáĭ«áĪ³áĭ¨áĭį
ĠáīłáĭĪáĮ£
ĠáĮĪáĮ¥
ĠáīłáĭĪáĬķáĭµ
áĭĺáĮĭáĮĢáĭį
ĠáīłáĬ«áĬĵáĭ³
Ġáī°áĭ°áĮĭáĮĭáĪļ
áĪĽáĪŃáĭ«áĪĿ
ĠáĬ¥áĬķáĭµáīµáĪĨáĬķ
áĪªáī·
ĠáīłáĪ©áĪ²áĭ«
39
198
ĠáĭŃáĮĢáĪĿáĪ«áĪī
Ġáĭ¨áįĮáĭ°áĪ«áĪį
ĠáĬķáĪµáĪĲ
Ġáīłáīµáĭķ
Ġáī°áĪįáĬ¥áĬ®
ĠáĪĬáĪ°
Ġáĭ¨áĬłáĪĺ
ĠáĪįáĮĥáĮĪáĪ¨
ĠáīłáĬ¥áĬķáĮįáĪĬáĭĿ
ĠáĪħáįĥáĬķ
ĠáĬ¥áĪ«áĪ³áī½áĬķáĬķ
ĠáĬ¨áĬłáĪ«áīµ
ĠáĪĺáĮłáĭ¨
ĠáĪįáī¡
ĠáĪĪáĪĺáĭĪáĪ°áĬķ
ĠáĮłáĪ«
Ġáĭ¨áī²
ĠáĪĺáĪŃáĪĨ
all
áĭµáĪİ
iz
áĮĪáī¡áīµ
ĠáĭįáĪ³áĬĶáĭİáī½
áĪ«áī½áĬķáĬķ
áĪŁáī¸áĭį
áĮĤáĬķ
ĠáĪįáĮħáĪĿ
ĠáĮ¦áĪĽáĪŃ
ĠáĪĽáĬħáīłáĪ¨áĪ°áī¥
ĠáĪ°áĭŃáįį
ĠáĬłáĪµáī³áĭįáĪ³áĪĪáĪģ
ÙĦÙ
ĠáĬ¨áĪ«áĪ±
ĠáĬłáī¥áĭĿ
Ġáīłáī£áī¡áĪŃ
ĠáĪįáĮĨáī»áī¸áĭį
áĬŃáī°áĪ©
Ġáĭ¨áĪĺáī°áĮįáīłáĪªáĭ«
ĠáĬ¥áĬķáĭ²áĪłáĪ«
ĠáīĨáĪĿ
áĭ°áĮī
ĠáīłáĪħáĭĿáī¥
ĠNews
áī¶áī½áĬĵ
áĭ«áĭįáīĢáĭį
Ġáī¤áī°áĪ°
ĠáĭµáĪħáĬĲáīµ
Ġáĭ¨áīĢáĪ¨áī¡
ĠáĬłáĪ³áī¥
Ġáī»áĭŃ
ĠáĪ°áī¥áĪ³áī¢
Ġáīłáĭ¨áīµáĬĽáĭį
Ġáĭ¨áĪļáĮłáĭŃáīħ
Ġáī°áĪĽáĪªáĭİáī½áĬķ
ĠáĪĺáīħáĪ¨
áī¥áī¥
ĠáĬ¨áĬ¨áī°áĪĽ
Ġáĭ¨áī°áīĢáīł
áī¼áĪĿ
Ġáī£áĪķáĪŃáĭŃ
ĠáĬłáĮ«
ĠáĮłáī¥áīħ
ĠáĬ«áĪŃáĭ¶áī½
Ġáīłáĭ°áĪĿ
áĬłáī½áĬķ
ĠáįķáĪ®áĮĢáĬŃ
ĠáĪĺáĬŃáįĪáīµ
ĠáĪĲáĪ³áī¦áī½
ĠáīłáĬĽ
áī£áī½áĬķáĬķ
ĠáĭŃáĮ«áĭĪáī³áĪį
ĠáĪĪáīĨ
ĠáĭŃáĪħáĬķáĪĿ
áĮĭáįį
Ġáĭ¨áĪļáĭ«áĪµáĬ¨áīµ
ĠáĪĺáĬķáĮĪáĭ¶áī½áĬķ
ĠáĬĲáĮĪáĪ¥áīµ
ĠáīłáĭįáĬĥ
áī£áĪĽ
str
ĠáĬ¥áĭ¨áī°áĪ°áĪ«
ĠáĪĺáĮ¥áįĭáīµ
Ġáĭ¨áĮłáĭ¨
Ġáĭ¨áĬłáĪľáĪªáĬ«áĬķ
áĪĬáįİáĪŃ
Ġ75
ĠáīłáĬłáĬķáĮ»
ans
ĠáĪĬáĭ°áĪŃáĪµ
áī¤áī³áī½áĬķ
Ġáĭ¨áīĥáĪį
ĠáĪĽáīħ
ĠáĭĵáĪ³
»áį
Ġáĭ«áĮłáīĥáĪį
ĠáįħáĬķáĪ°
ĠáĪ°áĭŃáĮ£
Ġab
Ġáĭ¨áĪĺáĮįáī¢áĭ«
Ġáĭ¨áĮĥáįĵáĬķ
ang
ĠáĪ°áīłáĪŃ
áĮ½áĮįáĬĵ
ĠáīłáĭĪáĬķ
ĠáĬłáĬķáīĢáįħ
áĪ¬áĪ½áĬĳ
ĠáīĥáĪĭáīµáĬķ
Ġ55
ĠáĪĪáī°áĪĪáĭ«áĭ©
áĮĪáĪįáĮįáĪİ
Ġáĭ¨áĮĥ
ĠáĬłáĮįáĬĿáī»áĪĪáĪģ
ĠáĪ°áĪĿáī»áĪĪáĪģ
áĪļáĭİáī½
áĪĺáĬĵáī½áĬķ
ĠáĭĴáĪĭáĪĽ
áĮĪáĪĪáĮ¹áīµ
áĬ¥áĬĲáĪ±
ĠáĪĺáĪµáĬ®
ĠáĬłáīµáĬŃáĪį
áĪĺáĪ°áĪį
Ġáĭ¨áĪĿáĬĵáĮĪ
ĠáīµáĪĨáĬĵáĪĪáī½
Ġ{
áī³áĭ²áĭ«
ĠáĬ¥áĬķáĪ°áĮ£áĪĪáĬķ
ĠáĪĺáĪĪáĭĭáĭĪ
Ġáī°áĮįáĭ³áĪ®
ĠáĬłáĮ¥áĪŃ
áī³áĮĪ
ĠáĪĪáĪĽáīĨáĪĿ
Ġáĭ²áįķáĪİáĪĽ
ĠáīłáĪĺáĭįáĪ°áĭµ
Ġáĭ¨áīĢáĪĪáĪĿ
áī¡áĭķ
Ġáī°áĮ¨áĭĭ
ĠáĪĺáĪ°áĪ¨áĭĿ
áĬĵáĮĪáĪŃáĪĿ
áĮłáī£áīłáīĤáĭ«
áĪĭáī½áĬķáĬķ
Ġ**
ĠáĪįáĮĨáī»áī¸áĭįáĬķ
ĠáĪ°áĪĿáī°áĭį
Ġáĭµáī¥áĪįáīħ
ĠáĬłáĬ«áī£áī¢áĭ«áĭĬ
ĠáīłáĪĽáĪµáĮĪáī£áīµ
ĠáĪĺáĪµáĬ®áī½
ĠáĬ¥áĪ°áĮ¥
Tunes
ĠáĪ²áĪīáĪĿ
áĮ®áĪħ
ĠáĭŃáīĨáĮłáĪ«áĪį
ĠáĬłáĪĺáĪĪáĬ«áĬ¨
ĠáĪ³áī¢áĭ«
ĠáīłáĬķáĮį
ĠáĬ¥áĭįáĬĲáī³áĭİáī½
ĠáĬłáĪįáĮĪáī£áĬĿáĪĿ
ĠáĪ³áĪī
Ġáī°áĭĽáĪĽáĮħ
Ġáįª
áĬĴáĪµ
ĠáĭįáĭµáĭµáĪ®áī½
Ġáīłáī°áĬĵ
Ġáĭ«áĪ³áĪµ
Ġáĭ¨áĪķáĭŃáĭĪ
ĠáĬłáĭµáĪŃáĮĪáĪħ
áĬĲáĪµáī°áĬĽ
oft
ĠáĮ¡áĬķáī»
áīģáĪ¨áĮ¥
Ġáīłáī¤áī°áĪ°áī¥
ĠáĬłáī¤áī±áī³
ĠáĬłáĮįáĬĿáī¼
Ġáĭ¨áī°áĪĺáĪ¨áĮ¡
áĬłáī£
áĭĪáī½
áĭ©áī¥
ĠáĬłáĮĪáĬĻ
áĬ¨áĭļáĭ«áĪĿ
ĠáĪ²áĬĲáįĥáįĢáĪŃ
ĠáĪ°áĮ¡
ĠáīłáĪļáĪĨáĬķáīłáīµ
Ġ46
ĠáĪĺáįħáĪĲáįį
áĭ°áĬĵáĪį
ĠáĬ¥áĬķáĭ°áĪļáĪĺáĮ£
ĠáĪħáĭĿáī¥áĬķ
ĠáĮĨáĪŃáĮħ
áĪĬáī²
ĠáĬ¢áĪľ
ĠáĬĲáĬĿáĬĵ
Ġáĭ¨áĪĮáĪİáī½
Ġáī°áī£áī£áĪª
ĠáĬłáĭŃáĬĸáĪŃ
ĠáĮĪáĬķáĭĺáī¡áĬķ
ĠáĭŃáĪ°áĮ¡
ĠáīłáĪĺáĬķáĮįáĪ¥áīµ
Ġáī°áĮĪáĬķáĭĿ
ĠáīłáĮįáĪĪ
Ġáī¥áī»áĭ¬áĬķ
áĮįáĪ®
áĮĨáī½áĬķ
Ġ400
ĠáĬłáĪľáĪªáĬ«áĬķ
ĠáĪ³áĭŃáĬĸáĪŃ
ĠáĮĢáĪĿáĪ¯áĪį
ĠáīłáĮ¥áĪŃ
ĠáĪĺáĪ°áī¥áĪ°áī¥
ĠáĬłáĪĬáĭ«áĪĿ
Ġáĭ«áĬ«áī°áī°
Ġáī³áī¦áīµ
ĠáĬ¬áĪļ
áĬ¬áĭµ
ĠáĪļáĪĬáĭ¨áĬķ
ĠáīłáĪļáĭ«áĪ³
Ġáĭ«áī°áĬ®áĪ¨
ĠáĬ¥áĪµáĪĽáĪĽáĪĪáĪģ
ĠáĮķ
ĠáįĢáĮĭ
Ġáĭ¨áĪ°áĪľáĬķ
Ġáī¤áīµáĪĿ
ĠáĭµáĪĿáįĥ
ĠáĪįáīłáĪį
Ġáĭ¨áīħáĭ±áĪµ
ĠáīłáĪ°áĭįáĬĲáīµ
Ġáī°áĪĽáĪŃ
Ġáĭ¨áĪĺáįįáīµ
ĠáīłáĪĮáĪĭáĭį
ĠáĭĺáĪĭáĪĪáĪĽáĭĬ
Ġáī³áĮ£
áįĮáĬķ
ĠáĬ¥áĬķáĪĺáĬŃ
Ġáĭ¨áĪĿáĬķáĪĪáĭį
Ġáĭ³áĪ©
ĠáĪļáĪµáĮ¥áĪŃ
ĠáĪĬáĮĪáĬĿ
ĠáĬ¥áĭ¨áĪ°áĪ«áĬķ
ĠáĬłáĪµáī³áĭįáĪµ
ear
áīħáĪŃáī³
áĬĲáĪ±áīµ
Ġáī»áĪŃ
ĠáīłáĪ»
ĠPS
áĪ¨áĪħ
áĪ«áĭĬáĬĲáīµ
ĠáĭĪáįİáī½
ox
ĠáĪĺáĮ½áĪĲáįīáĬķ
ĠáīłáĮĪáīłáĭ«
áĬŃáĪ²áĭ®áĬķ
áĬŃáĪħ
ĠáĪĨáī´áĪİáī½
áīĢáĮ¥áĪī
Ġáĭ¨áĭĪáĭ°áįĬáī±
ĠáĮįáĬķáī¥
ĠEx
ĠáĭķáĭµáĪľáĭį
witter
Ġáī°áĪŁ
áĪ¨áĬķáĪ£áĭŃ
ĠáīłáĬłáĪ«áīµ
ĠáĬ¥áĪŃáĪµáĭĭáĪĿ
ĠáĭįáĪŃáĪŃáĭµ
áĭľáĪŃ
ĠáĬ¥áĬķáĮ¨áīµ
Ġáĭ¨áĪĽáĮ£
ĠáĪĪáĭĺáĪĪ
ĠáĪĺáĮİáī¥áĬĺáīµ
Ġáĭ¨áĪļáĪĦáĭ±
áĭĿáĬĲáĭį
Ġand
ĠáīłáīģáĪĿ
ĠáĮłáīł
ĠáīµáĬķáĪ¹
ĠáĭįáĮ¤áī±áĬķ
ĠáĪĢáĮĪáĪªáī±
ĠáĬ¨áĭŃ
áĭ«áīµáĪŃ
Ġáĭ¥
itcoin
áĬĸáĪ«áĪĪáĪģ
Ġáĭ¨áĪļáĪīáīµáĬķ
ĠáĪĬáĭ«áĮĪáĪĪáĮįáĪį
ĠáĪĺáĮ»áĪķáįį
ĠáĪĽáī¥áĪ°áĪį
áĮ¨áĪ¨áĪµ
ĠáīłáĪĿáĪµ
ĠáĭŃáĭ°áĭįáĪī
Ġáĭ¨áĬŃáĪįáĪī
ĠáĪ²áīĢ
áĮ«áĬĲ
ĠáĬ¥áĬķáĮłáĭŃ
Ġáĭ¨áī£áĪ°
Ġáī½áĪİáīµ
Ġáĭ¨áįĬáĪįáĪĿ
áĪĽáī½
Ġáī£áĭ«
áĬĲáĮįáĪ«
ĠáĪĺáĪĭáĭįáĬķ
Ġáįİáī¶áĮįáĪ«áįį
ĠáĪļáĭĽáĬĵáĭĬ
ĠWhats
ĠCom
AD
ĠáīĢáĭ¶
ĠáĪ¦áĪµáī±
Ġáĭ¨áĪļáī½áĪĪáĭįáĬķ
Ġáĭ¨áī°áĪ³áĬ«
ĠáĪĺáĪįáĪ±áĬķ
ĠáīłáīµáĭĬáī°áĪŃ
ĠáĪĺáĮ«áĭĪáī»
ĠáĪĢáĮĪáĪ«áĭĬ
Ġart
ĠáĪ³áĪĭ
ĠáĭŃáĪ»áĪį
áĪĪáĬŃ
Ġáī³áĬĵáĪ½
áĬķáī£áĪĮ
ĠáĪĿáĪµáĬŃáĪŃáĬĲáīµ
Ġáī°áĭ«áĭ«áĭ¥
áĭ³áĭĬáīµ
áĭ®áĪµ
ĠáĪĺáĪ¥áĪªáĭ«
áĪĪáįĬáĭ«
ĠáĭĵáĭŃáĬĲ
Ġáĭ¨áī°áī»
Ġáĭ¨áĪļáī³áĭ©
Ġáĭ¨áĬ¤áĪĮáĬŃáīµáĪ®
Ġáį´
áĮĪáĪ«áĪĪáĪģ
Ġáĭ¨áĪĿáĬĵáĭįáīĢáĭį
áĪŃáĮĬ
ĠáĮ¥áĪŃáĪµ
ĠáīłáĪĿáĮįáī¥
áĭĭáīĤáĭİáī½
ĠáĬ¥áĬķáĭ³áĭ°áĪ¨áĮĪ
ĠáĬłáĭ«áĪĿ
ĠáĬłáĭ«áĭŃ
áĭįáĪįáīµ
ĠáĮĵáĭ°áĬĿáĬĲáīµ
PN
Ġáīłáī¤áī±
ĠáĪĽáī°
ĠáĬ®áĬķáīµ
áĬ¥áĬŃáīµ
ĠáĪļáĭ«
Ġáī¥áĪİáĪĿ
ĠáĬłáĮ¥áĬķ
Ġáī¥áīµáĪĨáĬķ
áĪ¨áī£
ĠáĬłáĭ°áĪ¨áĮĪáĭį
ĠáĮĮáī³áī¸áĭį
ĠáįįáĪ«áįįáĪ¬
áĬķáĭ®áĪ½
áĬ¨áįįáīµ
ĠáīłáĬłáĪĽáĬ«áĭŃ
ĠáĭŃáī»áĪį
ĠAd
áĮ£áī½áĬķ
áĭ©áī°áĪŃ
áĮ¨áĪ¨áĪ»áĭį
áĪĬáįİáĪŃáĬĴáĭ«
ĠáĬ¥áĪ´áī¶áī½
ĠáĮ¥áīĥáīħáĬķ
ĠáīłáĪĺáĬŃ
ĠáĮīáĮīáīµ
Ġáĭ¨áĬĸáĪŃ
áĭĵáī¥
ĠáĪħáĭĿáī¡áĬķ
ĠáĬ¥áĭ¬
Ġáī³áĬ«áĪļ
Ġ2004
ĠáīµáĭĿáī³
Ġáĭ«áĮĪáī£
áĮłáĪ«áīĢ
ĠáĪĺáĪ¨áĮĭáĮĭáīµ
ĠáĬłáĭįáĮª
ĠáīłáĪµáĪľ
Ġáĭ¨áĮŃáĬĲáīµ
ĠáĪĪáĪ¨áĭ¥áĪĿ
ĠáĪĨáĬĵáī½áĪģ
ĠáĭŃáĬĳ
ĠáĬłáĪ¨áī¢áĭ«
áĮŃáīłáĪŃáīłáĪŃ
Ġáĭ¨áĪļáĭĪáĮ£
áīłáĬĽáĭį
áĭ¨áĪĽ
ĠáĬłáĭŃáĮ¨áĬĲáīģ
áĪŃáĮĭáī¸áĭį
áĬķáĭ«áĬķ
áĭĿáī¡áĬķ
Ġáī°áįĪáĮłáĪ¨
ĠáĪĺáĮĪáĪįáĮĪ
ĠáĭĿáĬĲáĬĽ
áĪ½áĬ¨áĪŃáĬ«áĪª
ĠáĬ¥áĪĺáĮ£áĪĪáĪģ
áĪĻáīµáĬķ
ĠáĬ¨áĬłáĪĿáĪĭáĬŃ
Ġáĭ«áī¥
ĠáīħáĬĵ
ĠáĬķáīħáĬĵ
ĠáĪ²áĭ«áĭ°áĪŃáĮī
áĭĭáĮĭ
ĠáĬ¢áĬķáī¬áĪµáīµ
ĠSE
áĪĽáīħ
ĠáĬłáĪµáīĢ
áĮįáĪ«áįĬ
Ġáĭ¨áĪħáĭĪáĪĵáīµ
ĠáīłáĮĪáīłáĭ«áĭį
ĠáĬ¨áĪ½
áĭ²áĭ«áĪµ
Ġ[.
Ġáĭ¨áĬ¥áĪµáĪ«áĬ¤áĪįáĬķ
ĠáĪµáĪª
Ġáĭ¨áĪĺáĪĿ
ĠáĮİáĪĽ
Ġáĭ¨áĪļáĭ«áĮį
Ġáĭ¨áĭįáĭŃáĭŃáīµ
Ġ("
áĪ½áĬ¨áĪ¨
Ġáĭ«áĪįáįĭáĪį
ĠáįĢáĮī
Ġáīµáī½áĪĭáĪĪáī½
ain
áĪįáĪĥáĪį
ĠáĬ¥áĪ°áĮ£áĪĪáĪģ
ĠáĭŀáĪ®
ĠáĬłáĭĺáĮĪ
ĠáĬ¥áĬķáĭ²áĪį
ĠáĭĺáĪĭáĪĪáĪĿ
ĠáĭŃáĮįáī£áĬĿ
ĠáĬłáĭįáīĢáĭĭáĪĪáĪģ
áĭ³áĭ²áĪµ
ĠáĬĲáīłáĪ©áīµ
ĠáĪĽáĪµáī°áĭ³áĭ°áĪŃ
ĠáĭŃáĪĪáĭ«áĭ«áĪį
Ġáĭ¨áĭļáĭ«áĬķ
áĪµáįĭáįĭ
Ġáī°áĬ¨áī³áĭŃ
áĭ´áī³
Ġáĭ¨áĮ¥áīłáī¥
ĠáįķáĪ¬áĪµ
ĠáĬłáī»
ĠáĬ¥áĬķáĮįáĪĬ
Ġáĭ¨áī°áīĥáĭįáĪŀ
Ġáĭ«áĪĪáĪģáīµ
Ġáĭ¨áĪļáįĪáĪįáĮĪáĭį
ĠáĭĪáĭ°áĭµ
ĠáĭĿáĪĺáĬĵ
ors
ĠáīłáĮ¦áĪŃ
ĠáĬłáĪµáįĪáĪĭáĮĬáĭįáĬķ
áĭ®áĬĵ
ĠáĮĪáĬķáĭĺáī¥áĬķ
Ġáĭ¨áĭľáĬĵ
ĠáĪķáĮİáī½
Ġáĭ«áĪĪáīłáīµáĬķ
Ġáĭ¨áĪĨáĬĲáīłáīµ
ĠáīłáĮīáĭŀ
áĪĺáĪĪáĬŃáī±
ĠáĬ¨áĭµáĪŃ
ĠáĬłáī£áī£
Ġáī³áĭŃáī¶
Ġáī°áĭ³
Ġáĭ¨áĪļáĭ°áĮį
ĠáĮĪáĮł
AR
ĠáĬ¨áĬ¦
ĠáĬ¥áĬķáīĢáĮ¥
áĮłáīĢáĪĺ
ĠáĪŀáĬŃáĪŃ
Ġáĭ«áĪ³áĭĿ
ĠáĭĿáĮįáĮħáī¶áī½
Ġáīµáī°áĭį
ĠáĪ½áĮįáĮįáĪŃ
ĠáĪĽáĮłáīĥáĪĪáĭ«
áĪĺáĪĪáĬŃáīµ
ĠáĪ°áīł
Ġáī¦áī³áĭİáī½áĬķ
ĠáĬ¥áĭµáĪī
ĠáĬķáīħáĬĵáīĦ
ĠáĭµáĪĥ
ĠáĮ»áĭµ
ĠáīħáĪŃáĪµ
Ġáī¦áĭŃ
ĠáĬ¨áĪĺáĪĨáĬķ
ĠáĬłáĭĭáĮģ
áīłáĪĽ
áĬĽáĪĪáī½
ĠáĪĤáĭ±
ĠáĬ¨áī¤áī°áĪ°áī¥
Ġáĭ«áīĥ
Ġáī¥áĪĦáĪŃ
ĠáĪĪáĪĽáĬŃáīłáĪŃ
Ġáī½áĪĪáĭĭáĪį
Ġmore
ĠáĬ¥áĬķáĪĺáĬŃáĪ«áĪĪáĬķ
áī¶áī³áĪį
Ġáĭ¨áī°áĬķ
Ġáī°áīĢáīł
ĠáĬłáĭµáĪ«áĮİáīµ
ĠáĬ¥áĪ¨áĬĽ
ĠáĬĥáĭ«áĪį
ĠáĪĺáĪĪáĭĪáĮ«
ĠáĬ¥áĪ°áĪ«
Ġáĭ«áĭĻ
ĠáĮ¥áĪįáīĢáīµ
ĠáīłáĪĽáĭį
ĠáīĢáĪĭáĪī
Ġáĭ¨áĭ°áĪµáī³
ĠáĪĪáįįáĪŃáĭµ
ĠáĬłáĪĪáĪģ
áĪ±áīµáĬķ
áĪŀáĬĵ
ĠáīłáįĬáīµáĪĿ
Ġáĭ¨áĭ±áĪŃ
ĠáĪĺáįĪáĮ¸áĪĿ
ĠáĪĪáĭļáĭ«áĪĿ
ĠáīµáĮįáĪ«áĭŃ
áĭįáĭµ
ĠáĪµáĪĿáĭİ
ĠáĪĪáī°áĮłáīĥáĪļ
ĠáĬłáĮĪáĪĭáĪĪáĮ½
Ġáĭ¨áĪļáīĨáĭŃ
áīĭáīĭáĪĺáĭį
ĠáĪ»áĭŃ
Ġáĭ¨áī°áĭĪáĪĪáĭ°
ĠáĪ°áĭįáĭ¬áĭį
áī³áĪª
ĠáĬ¦áĪħ
Ġáĭ¨áĬłáĪµáī°áĭ³áĭ°áĪŃ
ĠáĭŃáįįáĮłáĪ©
ĠáĪĿáĪ°
Ġáĭ¨áĪļáĭ«áĭįáīģ
áĪªáĬķáĮį
ĠáĬłáī£áī±áĬķ
áĭ°áĬķáīµ
Ġáī°áĬŃáĪį
ĠáĬłáĪįáĪ°áĮł
Ġáĭ¨áĪĽáĪµáī³áĭĪáīĤáĭ«
ĠáĪĿáĬĵáĪĮ
áĮ»áĮ¸áĪŃ
ĠáĬ¨áĪ¨áĮħáĪĿ
ĠáĮįáī¡
ĠáīłáĬ¥áĬ©áĪį
Ġáĭ¨áĪļáĭ«áĬķ
ĠáĪµáĮ¥
ĠáĬ¥áĬķáĭ°áĪĽáīµ
ĠáĪĪáĪĽáĭµáĪ¨áĪµ
ĠáĬ¢áĬķáĭ±áĪµáīµ
ĠáĪĪáĪĺáĭĭáĮĭáīµ
ĠáĭĪáĭ®
áĮĬáīµ
ĠáĬłáī¡áĬĲ
áĪĭáĭİáī½
ĠáĪ«áĪ³áī½áĬķ
ĠáįĪáĪ¨
áī§áī¸áĭį
Ġáī°áĬĵáĮįáĪ®
ĠÂ°
ĠáīłáīĭáĪļ
ĠáĬŃáįįáī°
ĠáĬłáĪįáįıáĪį
Ġáĭ¨áĪ«áĪµáĭİáĬķ
ĠáĪ³áĬķáī²áĪĿ
áīĢáĮ¥áīĢáĮ¥
áĪĿáĪ¨áĬĵáĪį
ĠáĪĪáĪĺáĪ°
ĠáīłáĪĭáĭ©
ĠáĪĺáĬªáĬĵáĭį
Ġáīłáī°áĮ¨
áįĸáĪĬáĪµ
Ġáī°áĮłáĪ«
ĠáĪĢáĭ«
ĠáĭĪáĬķáĭµáĪŀáī¼
ĠáīģáĪµ
ĠáĮįáĪĪáĪ°áī¡
ĠáĪīáīĥáĪµ
áī°áĪ»
ĠáĪĺáĬ¾
Ġáĭ¨áĪļáĬ¨áįĪáĪį
ĠáīĨáĭŃáī¶
Ġáĭ¨áĪĽáĪħáīłáĪ¨áĪ°áī¥
ĠáĪ±áĪµ
ĠáĬ¥áĬķáĭ°áĪĿáĬķáī½áĪį
ĠiTunes
áī³áĭĪáīħ
áīħáĭ¶
áĬ«áĬĶ
ĠáĪµáĪĪáĬł
ĠáĬłáĮİ
ĠáĭŃáĪ³
ĠáĭĪáĪ²áī£áĭĬ
ĠáĬ«áĪĭáī½áĪģ
áĭĭáĬķáĪĿ
áįĭáĪªáĭİáī½
ĠáĪĬáīł
ĠáĪŀáīħ
Ġáĭ¨áī»áĪĪ
áĬŃáĬŃáĪŃ
áĬ¨áĬł
ĠáĪĺáĬĲáĪ³
Ġáĭ¨áĬ¥áĭ«áĬķáĭ³áĬķáĭ±
ĠáĭŃáīĢáĪŃáī£áĪį
ĠáīłáĪĽáĭµáĪ¨
Ġáĭ¨áĭĪáĮ£áĭį
ĠáĬ«áĪįáĪĨáĬĳ
Ġáĭ¨áĪļáī£áĪī
Ġáĭ¨áī°áĭĪáĭ°
Ġáĭ¨áīłáĮİ
áįĵáĬĴ
ĠáĬ¥áĬķáĭ²áĪ°áĮ¥
ĠáĪķáĬķáĭµ
ĠáĪĽáĪ³áĪ°áī¢áĭ«
ĠáĭŃáĪĺáĪ«áĪį
ĠáĪĺáĮłáĬĳ
ĠáĭĽáįİáī½
áĪļáĭ«áĭİáī½
ĠáīłáĭķáĭµáĪľ
ĠáĭŃáĮłáĬĵáīĢ
ĠáĬłáĭįáĪ«áĮĥ
ĠáĪĽáĭĪ
ĠáĪµáī¥áĪµ
Ġáĭ¨áĪļáĪĺáĪµáĪĪáĭį
ĠáĪĺáĪµáĭĭáĭķáīµ
áĪĥáĭµáĪ¶
ist
ĠáĪĪáī¤áīµ
áĬĲáĭµ
áĪµáī°áĪĭáĪį
ĠáīµáĬŃáĬŃáĪĪáĬĽáĬĲáīµ
áĭĪáĪĢáīµ
áĭ¨áĪ°áĭį
ĠáĬ¥áĬķáĭ°áĪĽáĭŃáī½áĪį
ĠáĬ¨áĭįáĪµáĮ¥
áĪ³áĬ¤
ĠáĮĪáĬķáī¢
Ġarticle
ĠáĬ¥áĬķáĮĢáĪĿáĪŃ
ĠáĪįáĮħáĭİ
Ĥ¬
ĠáĬłáĪĭáĪį
áĪĺáĪ«áĪŃ
ĠáĬĥáĭŃáĪįáĬķ
ĠáĭĪáĬķáĭ¶áī½áĬĵ
ĠáīłáĬ¢áĬķáĭ±áĪµáīµáĪª
áĮĪáĬĿáĬĲáīµ
ĠáĮłáī¥áīģ
ĠáĬłáĭµáĬķ
ĠáĬ¥áĬķáĭ°áī³
áĪ½áĬĸáī½
ĠáĭĪáĭ³áĭµ
ĠáīµáĮĪáĬĽáĪĪáī½
ĠáĭŃáĪģ
ĠáīģáĪ«áĮŃ
ĠáĭķáĪ¨áįįáīµ
ĠáīłáĪ©áĬķ
áĪµáī°áĬ«áĬ¨
44
áįĭáĪĪáī½
áĪµáĮ¥áĬ¤
áĪ½áī±
Ġáī£áĪı
ĠáĭĻáįĭáĬķ
ĠáīµáĪŃáĭĴ
ĠáĬłáīłáīł
ĠáĪĭáĪµ
ĠáĬłáĭµáĪĿ
áĬ¨áįĪáī±
ĠáīµáĪħ
ĠáĭĵáĪĪáĪĽ
áĭ¨áĪ°
ĠáĭĿáĬķáī£áĪĮ
Ġáĭ«áīĢáĪŃáī£áĪī
áĭĺáĪĺ
Ġáĭ«áĭµáĪŃáĮīáīµ
áįĬáĭ«áĭį
ĠáīłáĭĵáĪĺáī±
Ġáī£áĪĪáī¤áīµáĬĲáīµ
ĠáīłáĮ¤áĬĵ
ĠáĭŃáī³áĭŃ
ĠáĬłáī¤
ĠSh
ĠáīłáĪĺáĭ°áīłáĬĽáĬĲáīµ
ĠáīłáĪĽáĬħáīłáĪ«áĭĬ
ĠáīłáĪķáĭĿáī¡
áĬŃáĪįáĬĵ
Ġáĭ¨áĮİáĬķáĭ®áĪ½
Ġáĭ¨áĮįáī¥áĪŃáĬĵ
ĠáĭŃáĬĲáĪ³áĪį
Ġáī°áĮĢáĪĿáĪ¯áĪį
Ġáĭ«áĬĲáĮĭáĮįáĪ©
áĪįáĪį
ĠáĮĪáĪŃ
Ġáĭ¨áĬ¥áĬĵ
ĠáĪµáĬ³áĪŃ
ĠáĪµáīµáĪĨáĬķ
ĠáĬłáĭŃáī°áĬĵáĪį
ĠáĬ¨áĪĺáĭį
Ġáĭ¨áī³áĪ°áīł
áĪŃáĪµáīµáĭ«áĬķ
ĠáīłáĬłáĪµ
áĬ¬áĪ½áĬķ
Ġáĭ¨áī°áĭ°áĮĪ
Ġáĭ¨áĪª
Ġáĭ¨áĪĭáĭŃ
áĭĿáī¤
áī£áīµáĬķ
áĭµáĪ¬
áĮĪáĪįáĮĭ
Ġáĭ«áĪµáī½áĪĭáĪį
áĮĪáĪĪáįĢáĭį
ere
áĪįáĪĽáīµ
ĠáĬ¥áĭĪáĭ°
ĠáĬłáĭŃáī³áĭŃáĪĿ
áĭµáĪŃáĪ»
Ġáī°áįĪáī³
ĠáĭĪáĭ³áĮĨáī½
ĠáīģáĮ¥áĪ«áī¸áĭį
áĪ«áīµáĪĿ
ĠáīłáĪ®
Ġáī°áĪĭ
ĠáĬłáĭŃáīł
Ġáī°áĮĪáĪĪáĮł
ĠáĪĿáĪ¥áĪ«áīħ
ĠáĪłáĪĭáĪĿ
ĠáĮ¥áīĨáĪĽ
áĮĨáī»áī½áĬķ
ĠáĮ¥áĭ«áīĦáĭįáĬķ
ĠáĪĺáĪĭáĬªáĭ«
ĠáīłáīłáĪ¨
Ġáĭ¨áĬ¥áĬķáĪµáĪ³áīµ
Ġáĭ©áĬĴáī¨áĪŃáĪ²áī²áĭį
ĠáĬłáĪµáĭ°áĬķáĮĭáĮŃ
ĠáĬłáĭŃáĬĲ
AC
ĠáĭŃáĪĺáĭĿ
ĠáīłáĬłáĪµáī¸áĬ³áĭŃ
ĠáĬłáĭĺáĭĺ
ĠáĪĿáĪŃáĬ®
Ġ2005
Ġáĭ¨áĪļáĮłáīħ
ĠáīłáĪĺáĮªáĭį
ĠáĭŃáĪ¸áįį
ĠáĬ¥áī½áĪį
áįĵáĪŃáīµ
áī´áĬĵ
Ġáĭ¨áĪĿáĬĵáĭ¨áĭį
Ġáĭ¨áīĭáĬķáīĭ
áĪĺáĪ³áĪ°áĪį
ĠáĪĺáĭ°áĮĪáįį
áĪĬáĭ®áĬĸáī½
ĠáĮłáĭ«áīĤ
ĠáĪĢáĮĪáĪ«áī½áĬķ
ĠáĪĺáĬªáĬĸáī½
ĠáĪ®áĪľ
ĠáĪļáĭ²áĭ«áĭİáī½
áįħáĭĭáīµ
áĮłáīĥáīĢáĪĿ
Ġáī°áĪĺáĪ«áĮŃ
áĮįáī¡
...?
ĠáĪĲáĭĭáĪŃáĭ«
ĠáĬ¥áĭŃ
ĠáĬŃáīłáī¥
Ġáĭ¨áįĪáĮłáĪ¨áĭį
áīħáĭ«áĬĸáĪµ
Ġáīħáįħ
ĠáīµáĪŃáĮĵáĪľ
ĠáīµáĪįáīģáĬķ
áī½áĪĭáī¸áĭį
ĠáĪĺáĭĭáĪį
Ġáīµáī½
ĠáĬ¥áĬķáĭ°áĪļáī³áĭ¨áĭį
Ġáī°áįĪáĮ»áĪļ
ĠáĬ¥áĪĺáĬĽáĪĪáĪģ
ĠáįįáĬķ
Ġáĭ¨áī°áĪĪáĭ©
ĠáĪĺáĭ°áĪĿáĭ°
ĠáĬłáĪµáĪĽ
áĭ°áįį
áĮĥáĪį
Ġáĭ«áĪĪáĬĿáĬķ
ĠáĬłáī£áĭŃ
áĪµáįĭáįĭáīµ
ĠáĬłáĪ³áĪ½
ĠáīłáĬŃáī¥áĪŃ
Ġáī£áĪīáīłáīµ
ĠáĪĥáĭŃáĪĽáĬĸáī³áĭĬ
ĠáĬ¨áĮįáĪĽáĪ½
Ġáĭ¨áĬ¥áĭįáĬĲáīµ
Ġáĭ¨áĪĿáĭĪáĭ°áĭį
ĠáĪĺáĮ£áĪģ
Ġ65
ĠáīłáĪĮáĪĪáīłáīµ
Ġáī°áĬĲáĪ£
Ġáī³áĪµáī¦
áĪĽáĪĬáĭ«
áĭĿáī¦áī½
ĠáīłáĭįáĪµáĮ¥
Ġáī£áĪ³
ĠáĬłáīĢáįĭáĭĬ
ĠáĬłáĮĭáĭ¥
Ġáįİáīħ
ĠáĪĪáĬ¤
end
ĠáĪĺáĭĽáĪĻáĪŃáīµ
Ġáĭ¨áī°áīĢáĪĺáĮ¡
ĠáĭŃáįĪáĪŃ
ĠáĬłáī£áī³áī½áĬķ
ĠáĮīáĭµáĪĪáīµ
Ġáĭ¨áĪļáĪłáĪ©
ĠáĬłáĬķáīł
Ġáīłáī°áĪµáįĭ
Ġáī²áīª
áĮįáī£áīµ
Ġ47
ĠáĪµáįįáĪ«áĭİáī½
ĠáĭŃáĪĦáĪĿ
áĭĬáĭ«áĬķ
Ġáĭ¨áī±áĪªáĭĿáĪĿ
Ġáĭ¨áĬĸáĪ¨
ĠáĭŃáĭ°áĪ¨áĮį
áĮłáĪ«áī¸áĭį
ĠáĬłáĪįáĬĲáīłáĪ¨áĬĿáĪĿ
ĠáĬłáĪµáī°áĭ³áĭ°
Ġáī³áĭ«áĪĪáĪħ
Ġáī°áĪĺáĪĪáĬ¨áī°
Ġáī°áĪ°áĬĵ
Ġáīłáī«
áīħáĪī
áĬ«áīµáīµ
Ġáĭ¨áĭĿáĮį
Ġáĭ«áĭįáĪĿ
áĪ°áī¥áĬķ
Ġam
ĠáĪĬáĭ«áĮĪáĬĻ
áī¨áĪµáīµáĪĺáĬķáīµ
Ġáīłáīªáĭ²áĭ®
ĠáĬĲáĬŃ
ĠáĪĺáĬķáĮįáĪµáī³áĭĬ
áĭįáīĢáīµ
áĪľáĪ½áĬķ
Ġáĭ¨áĪĿáĬĵáĭ°áĪŃáĮĪáĭį
Ġáī£áĪħáĪŃáĭŃ
ĠáĬłáĪµáī°áĭĭáįħáĬ¦
áĬĲáĮ»
Ġáĭ¨áĪļáĪĺáĪĪáĬ¨áīµ
ago
ĠáīłáĪª
Ġáī°áī£áī¥
ĠáĪĺáĪ£áĪªáĭ«áĭİáī½áĬķ
ĠáĪĪáĪ½áĭ«áĮŃ
áįĪáĪŃáĭĸáĬķ
Ġáī¤áī°áĬŃáĪŃáĪµáī²áĭ«
Ġáī°áĭĪáĪĭáĮħ
Ġáĭ¨áĭŃáĭĺáīµ
Ġáĭ¨áī°áīĭáīĭáĪĺ
ĠáĪĪáĪĺáĪ°áī¥áĪ°áī¥
áĬĲáįįáĪµ
áī£áĪĪáī½
ĠáĪĽáĭĺáĮĭáĮĥ
áĪłáĪ«áĪĿ
áĭ¥áĭ«
ĠáīłáĬŃáįī
ĠáĬłáĭ«áĭ°áĪŃáĮįáĪĿ
áĭµáĬ«
áĪŃáĭ«áīµ
ĠáīłáĪĺáĪµáĪ«áīµ
ĠáĪĺáĮłáĪªáĭ«
ĠáĪĺáĬŃáįĪáī»
ĠáĬ¨áĪµáĭµáĪµáīµ
áī¶áįķ
áĬ©áīµáĪĿ
áĪĥáĬĲáĪĿ
ĠáĬ¨áī°áįĪ
ĠáĪĿáĪµáĪİáī½áĬķ
Ġáī£áĪĪáĪµáĪįáĮ£
ĠWhatsApp
ĠáĬ¥áĬķáĭ°áĪļáĪĪáĭį
Ġáī¢áĪ«
our
ĠáĮ¾áĪĿ
áī°áĭĭ
áĪ¨áĮī
áĪ³áĪ°áīł
áĭ®áĪ´áįį
Ġáĭ¨áĪĽáĭ«áĭįáīģ
2008
ĠáĪĪáĪģáĪĪáī±áĪĿ
áīĢáīĢ
ĠáĪħáįĥ
ĠáĪ²áĬĵáĮĪáĪ©
Ġáĭ«áĬ«áīµáī³áĪī
ĠáĬłáĪŃáī²áĪµáīµ
áĪŃáĮ¦
Ġáĭ¨áĪļáĪµáĪĽáĪĽ
Ġáī¥áĪĪáĪ½
ĠáĬłáĪ°áīĥáīĤ
áĪ¹áĪ«áĬķáĪµ
2011
áĬ«áĬ«
ĠáĭĭáĪ»
áĮłáīĢáĪ±áīµ
ĠáĪĺáĪ«áĪĺáĭµ
áĬ®áī³áĭĬ
ĠáīĨáĭ¨
Ġst
ĠáĬ¨áĭļáĪģ
ĠáĬ¥áĬĵáĪ³
áĬ¨áī¥áĪ©
ĠáĬłáĮĪáĬĵáĬŀáī½
ĠáĪ°áĪŀáĬķ
âĢ¹âĢ¹
ĠáĬ¥áĬķáīħáįĭáīµ
ĠáĬ¨áĪ¶
áĪİáĪª
áĮ¦áī³
ĠáĮ½áĭĭ
ĠáĬłáĭĪáĭ³
áĭĬáĬĲáīµ
ĠáīłáĬ¢áĬ®áĬĸáĪļ
ĠáĪĨáĬķáĪģ
ĠáĪĽáĪ½áĬĸáī½
Ġáĭ¨áĮĪáī£áĭį
ĠáįĪáĪ¨áĪµ
ĠáĬłáĮĪáĪ«áĭĬ
Ġáĭ«áĭ³
áĪ³áĪ³áī°
Ġáĭ¨áī°áĬĵáĮĪáĪ©áīµ
ĠáĬłáĪĪáī½áĬĿ
ĠáĬłáĪĺáĪµáĮį
BC
Ġáĭ¨áĬ¥áĮįáĭļáĬłáī¥áĪĶáĪŃáĪĿ
Ġáĭ¨áĬłáĪµáī¸áĬ³áĭŃ
áĭµáĪ¨áĭį
ĠáįĵáĪŃ
Ġáĭ¨áĭįáĬĥ
áĪµáī°áĬ«áĬ¨áĪĪ
Ġáĭ°áĪµáī³áĬķ
áĪįáĬ®áĪį
áīĢáĪħ
ĠáĪ³áĮ¥
ĠCOVID
ĠáĭŃáīĢáīłáĪĭáĪī
ĠáĭķáĭµáĪİáī½
Ġ;
áī£áĪ²
áī»áīµ
ĠáĪĬáĪ°áĪĽ
ĠáĬ¥áĬķáīĢáĮ¥áĪĭáĪĪáĬķ
ĠáĭĺáĮ¸áĬłáīµ
ĠáīµáĭĪáĭ³
ĠáīłáĪŃáĪ³áī½áĪģ
ĠáĭŃáĭĪáĮ£áĪī
Ġáĭ¨áī°áīĢáĪ¨
ĠáĮłáī£áī¥
ĠiPad
ĠáĬ¥áĬķáĭ°áĭ°áĪ¨áĪ°
Ġ="
haric
ĠáĬłáĭ°áĬķ
Ġáĭ¨áĬŃáĪ¨áĪĿáīµ
áĪ¾áī¹
áīħáĪŃáī¡
áĪ´áĪĭáĭĬ
Ġáī°áĮĪáĬĿáī°áĭĭáĪį
ĠáīłáĪĿáĪ³áĪĮ
2009
ĠáĬłáĪµáīłáĭį
ĠáĪŀáī±
ĠáĬ¦áĬĲáĮį
ĠáīłáĪĺáĭ«áĭĿ
ĠáĬ¥áĪµáĪ¨áĬŀáī½
ĠáįĪáĮłáĪ¨
ĠáīłáĪ°áī£
áĪ³áĪªáĭ«
ĠáĪħáĭĪáĪĥáīµ
ĠáĭŃáĪµáĮ¥áĪįáĬĿ
Ġáĭ¨áī°áĭ«áĭĺ
áī´áīµ
áįĢáĪĻ
áĬªáĭį
Ġáī°áĮ¥
áĪŀáĬĳ
ĠáĬ¥áĬķáĮłáĭŃáīĥáĪĪáĬķ
ĠáĬ¥áĬķáĮĪáĬĽáĪĪáĬķ
ust
ĠáĪĪáĪĺáĮ»áįį
áĭ°áĪ«áĮĢáīµ
ĠáīħáĪŃáĬķáĮ«áįį
Ġabout
ĠáįĲ
ĠáĪįáĮĦáĬķ
áįĪáĪ»
áĮĭáĪŃ
Ġáĭ¨áī°áĭ«áĭĻ
Ġáī³áĮ¥
Ġáĭ«áĪįáĬ©áīµ
áĬłáīĢáįį
Ġáī°áĮī
ĠáĬ¦áįķáĪ¬
áĬ«áĪ«
ĠáĪĪáĪĺáĭ°áĪ°áīµ
Ġáĭ¨áīłáĭĽ
Ġáīłáī°áĮĪáī¢áĭį
ĠáĬ¨áī°áĪĺ
ĠáīłáĪĽáĭķ
áįĥáĪľ
áĭįáĪİ
Ġáĭ°áĮħ
ĠáĮĭáĪ»
Ġáīłáī°áĭĪáĪ°áĬĳ
;.
áĬķáĭİáĬķ
áĪĪáīĢáīģ
áīłáĪĭáĭį
Ġáĭ¨áĪļáĬĸáĪ©áīµ
ĠáīłáĬłáĪŃ
áĪµáīµáĪª
ĠáĬ¨áī°áī£áĪĪ
ĠáĪĪáĬłáī£
ĠáīłáīµáĪŃ
áĭ³áĮĥ
Ġáĭ°áįĭáĪŃ
Ġ."
ĠáĪĽáĪħáīłáĪ«áīµ
ĠáĪ°áĬ¨áĬķáĭ¶áī½
áįİáī¹
áĮĪáĮĪáĪĿ
áĮ¤áīµ
ĠáĪĨáĬĵáĪĪáī½
Ġáī£áĬķáī°
áĭ¬áīµ
Ġáĭ¨áīµáĮįáĪį
NUM
áĮ£áĪĪáī½
Ġáī¢áĪµ
ĠáĬ¥áĪµáĬ¨áĭļáĭ«
ĠNo
Ġáĭ¨áĪļáīĨáĮłáĪŃ
Ġáĭ¨áīħáĭµáĪĺ
ĠáĬ¥áĬķáĭ°áĬł
áĬ¥áĬĲáĪŃáĪ±áĪĿ
áī¥áĪ¨áī±
Ġáĭ°áĪŀáĭĿ
ĠáĪªáįĸáĪŃáī°áĪŃ
Ġáĭ¨áĪµáĪĿ
ĠáĮ¸áĮ¥
ĠáīłáĭĪáĪ¨
ros
Ġáĭ¨áī°áĮĪáĬĲáī£
ĠáĮĭáĪŃáĪĿ
Ġáĭ¨áĪļáĭ°áĪ¨áĮī
ĠáĬ¨áĪįáĬŃ
áįįáīħáĪŃ
ĠáĪ°áĪĿáī¶
ĠáĬŃáĪŃáĪµáī²áĭ«áĬĵáīµ
ĠáĬ¥áĭĪáĭ°áĭĭáĪĪáĪģ
áĪ®áĭŃáĭµ
áĪµáī°áĪĿáĪŃ
áĪĽáī´
áĪģáĬĿ
ĠáĬłáĪµáĪŃáīµ
ĠáĭŃáī³áĪĺáĬĵáĪį
ĠáĬłáĭŃáĬĸáĪ¨áĭįáĪĿ
áĮ¥áĪŃáĪĿ
áĬĥáĬĴáīµ
ĠáĭŃáĪ°áĮ£áī¸áĭĭáĪį
ĠáĪ²áī²
áĪľáĬķáīµ
Ġáĭ¨áĪŀáī±
ies
ĠáĪĪáĮįáĪį
ĠáĮĪáī¥áī°áĭĭáĪį
Ġáĭ¨áĪļáĮĪ
áįĵáĪµ
ĠáĬłáĭĪáīĥ
ĠáĪĪáĭĪáĬķáĭµ
ĠáīłáĬ¥áĬķ
Ġáĭ«áĪĺáĬĲ
ĠáĮĬáĭľáĬĵ
Ġáĭ¨áĪļáĭ«áĮĪáĪĪáĮįáĪį
ĠáĬ¥áĬķáĭ³áĭŃáĭĪ
ĠáīłáīĢáĪĪ
ĠáĮ«áĬ«
ĠáĪĪáĮĪáīłáĭ«
áĭ«áĭ¨áīµ
ĠáĬ¨áīµáĪĿáĪħáĪŃáīµ
áĬķáĭµáĪµáĬĵ
Ġáī´áĬŃáĬĴáĬ«áĭĬ
áĬĵáĭįáīħ
Ġáī°áĪµ
src
ĠáĬ¨áĪļáĮĪáĬĻ
ĠáĭŃáīĨáĮ¥
ĠáĪĪáĮ¥áĭ«áīĦ
áīłáīģ
ĠáĬķáĭµ
ĠáĮ¨áĭį
áĪĬáĪ²
ĠáĬ¥áĬĶáĬķáĪĿ
ĠáīłáĬłáĬķáĭ°
ĠáĭįáĪħáĭ°áīµ
Ġáī¥áīĥ
áī²áīŃ
áĭĬáĬķ
ĠáĭµáĪ«áĭŃ
ĠáįįáĬķáĭ³
ĠáĬ¥áĮĪáī£
áĭ°áĪħ
ĠáĪĪáĮİáĬķ
áĬĽáĪĪáĪħ
Ġáĭ¨áĪĺáĮłáī£áīłáīĤáĭ«
ĠáĬłáĪµáī°áĪĭáĪį
Ġáĭ«áĪ³áĭ¨
Ġáĭ¨áĭ³áĭĬáīµ
áīłáĬĿ
ĠáĪĭáĪĿ
ĠáĬĸáĪŃ
ĠáĭŃáĪ¨áĭ³áĬĵáĪį
ĠáĪļáĭ«áĭĿáĭ«
Ġáī°áĮĪáĬķ
ĠáĪĪáĪĽáĪĺáĬķ
ĠáĪļáĬķ
ĠáĪŃáĭķáĪ¶áī½
áĪĺáĮ¥áĬķ
ĠáĮĦáĬĶ
ĠáĪĺáĪµáįįáĬķ
ĠáĬ¨áĭĭáĬŃáī¥áīµ
ĠáīµáĪŃáĮīáĪĻ
ĠáĬłáĪ½
ĠáĬłáĪµáī°áĭĭáĭŃ
ĠáįįáĮ¥áĪ¨áī³áīµ
ĠáĪĺáĬ¨
Ġ1000
Ġáĭ«áĮłáīĥáĪįáĪĭáĪį
áĮĭáĮĪáĪŃ
ĠáįĵáĪªáĪµ
ĠáĪģáĬĶáī³áĬķ
áĬłáĭ´áĬķ
ĠáĬłáĪ»áĪ«
Ġáĭ¨áī°áĬ¨áĪĪáĬ¨áĪĪ
ĠáĭµáĪĿáĪŃ
Ġáī£áĪĪáī¤áī±
ĠáīµáĪĭáĪĪáĪħ
ĠáĬłáĪµáĮ¨
ĠáĭĺáĭĪáĪŃ
áĪĢáĭŃ
ĠMic
ĠáĭĪáĬķáĭµáĪĻ
áĬĸáĪ©áīłáīµ
Ġáĭ¨áĪĿáĬŃáĪŃ
ĠáĬłáīĨ
ĠáīłáĮ¥áīħáĪĿáīµ
Ġáĭ¨áī°áī£áĪĪáĭįáĬķ
Ġáĭ¨áįķáĪĭ
áĮ£áĬĶ
ĠáĬłáĪįáĭĪáĭ°
ĠáīłáĪķáĬķáĭµ
Ġáĭ¨áĪĽáĭ«áĪµ
ĠáĬ¨áĪ«áĪµ
áĭİáī»áī½áĬķáĬķ
áĪ³áīħ
Ġáĭ¨áī°áĬ¨áĪ°áī°áĭį
ĠáĬ¥áĭĪáĪµ
ide
Ġáĭ¨áĪ«áĪ´áĬķ
ĠáĬłáīĨáĮ£áĮłáĪŃ
áĪįáīĥáĭŃáīµ
ĠáīħáĮ£
ĠáĪ«áĪ³áī½áĪģáĬķ
Ġáĭ¨áĮĪáĮł
Ġáĭ¨áī°áĪĺáĭĺáĮĪáīł
ĠáĪĺáĪŃáĪĲ
áĮĪáĪ¨áĭµ
Ġáī°áįĭ
áįįáĪ¨áĪµ
áī¶áī¹áĪĿ
Ġáĭ¨áĮĭáĭľ
Ġáĭ¨áī°áĮĪáĬĵáĬĺ
ĠáĮ¥áĮĪáĬĽ
Ġáĭ¨áĬĲáīłáĪŃ
ĠáīģáĪŃáĮłáĬĿáĬĲáīµ
Ġáī°áīĢáī¥áĪİ
ĠáĮİáĮĨ
ĠáĮīáĭŀáĭİáī½
Ġáĭ°áĬķáīłáĬŀáī½áĬķ
ĠáĪ³áĭŃáĭĪ
ĠáĪ¨áī¡áĭķ
áĪĭáĭŃáĬķ
áĭŃáĬķáĬĽ
ĠáĬ¥áĪĺáī¤áīµ
áįĪáīħáĭµ
ee
Ġáĭ¨áī¥áĪŃáĪĥáĬķ
ĠáĬłáĬ«áī£áī¢áĭį
ĠáĬłáĪĺáĪįáĬŃáī°áĭĭáĪį
Ġáĭ¨áĬĳáĬŃáĪĮáĪŃ
ĠáĭŃáĪĺáĪŃáĮ£áĪī
áĭ«áīµáĬĵ
ays
áĪŃáĭ³áĬĸáĪµ
áĪ°áĭİáī½
áįįáĪĪ
áĮĪáĪ«áī½áĬķáĬķ
áīĢáīłáĪįáĪĿ
áĮįáĭļáī¢
ĠáīłáĪŃáĬ«
ĠáĪµáĮ¡
ĠáĪ²áĬ¦áĪį
áīĢáĭµáĪĿ
ĠáīĢáĪĺáĪŃ
áī¥áĪ«áĭįáĭ«áĬķ
500
ĠáĪŁ
ĠáĬ¨áī½
Ġáĭ«áĪĪáī½áĭį
ĠáĬłáĪĺáĪµáĮĭáĬĿ
Ġáī°áĭĪáĪĪáĭ°
ĠáĬ¥áĬķáĭ°áĪĽáĬķáĬĽáĭįáĪĿ
ĠáĪķáĭĿáī£áĭĬ
age
!!
ĠáĪĿáĭµáī¦áī½
Ġáī¥áĬŃáĪĪáīµ
ĠáĪ²áĮĢáĪĺáĪŃ
ĠáĬŃáĪŃáĬŃ
Ġáĭ¨áįİáī¶
Ġáĭ¨áĪļáĬķ
Ġáĭ¨áīłáĮĢáīµ
áĬĲáĭ³
Ġáī°áįĪáĮ½
áĪĸáĭĭáĬķ
Ġáĭ¨áĬķáĮį
áīłáĪĿ
Ġáĭ¨áĪļáĬĵáĮĪáĪ©
áīĥáĭį
ĠáĪĪáĪĿáīµ
áĪ¸áĬķáįį
ĠáĪĺáĪ»
Ġáī°áīĥáĭĭáĪļáĭİáī½
Ġáĭ«áĪµáī£áĪį
ĠáĮİáĮĤ
ie
Ġáĭ¨áĪİ
áĬĸáĪĿ
ĠáĪĺáĮįáĭ°áĪį
ĠáĪĺáĪ¨áī¦áī½
Ġáĭ¨áĬłáįį
Ġáī°áĭ°áĪŃáĮĪáĭĭáĪį
ĠáĪĪáĪĽáĪ°áī¥
Ġáī³áĬŃáĪµ
ĠâĤ¬
ĠOne
ĠáĬ¥áĭ¨áī³áĭ¨
ĠáĮ¡áīµ
ĠáĭŃáīĢáĮ¥áĪĭáĪī
ĠáĬ¥áĪµáīµáĬķ
áĬŃáĪ¨áĭį
Ġáī°áīĭáĪĻ
ĠáĬ¥áĪŃáĪ·áĪĿ
ĠáĭŃáĮ¨
áī£áīłáĪµ
áīĨáĪĿáĪĿ
áĬ¥áĪº
ĠáĬłáĪµáĭĪáĮį
ĠáīłáĬĲáįĥáĬĲáīµ
ĠáĭŃáĪ°áĮłáĭĭáĪį
ĠáĭŃáĪ«
áĭ²áĬĵ
áĪģáĪīáĬķáĪĿ
Ġáĭ¨áĪĪáĪħáĪĿ
Ġáī¢áĬĸáĪŃáĪĿ
Ġáī³áĪĽáĬĿáĬĲáīµ
Ġáĭ«áĪŃ
ĠáĬłáĭŃáĪģ
ĠáĪĪáĪļáĪĪáĭį
ĠáĬ¢áĬķáĮĤ
ĠáĪµáĭ°áī°áĬĽ
Ġáĭ¨áĬŃáīµ
áĪĪáĪī
áĪĺáĬķáĮĥ
áĬļáĭİáī½
Ġáĭ¨áĪļáĭ°áĪŃáĪ±
ĠáĪ²áĭ°
ĠáįĸáĪĬáĪ¶áī½
ĠáĭŃáĭĪáĭµáīĥáĪī
ĠáĪ²áĪĦáĭ±
áĪİáĪĿáįĴáĬŃ
ĠáĬ¥áĬķáĮłáīĢáĪĽ
ĠáīłáĮ¦áĪŃáĬĲáīµ
ĠáĬ¨áĭķ
ĠáĬ¨áĪļáĪĪáĭį
ĠáĬłáī³áĭįáīģáĪĿ
ĠáĭµáįįáĪ¨áīµ
Ġto
ĠáĭŃáĮłáīħáĪĽáĪį
ĠáīłáĬłáī¥
áĭĿáĬĵáī¥
áĬĵáĭŃáĮĦáĪªáĭ«
Ġáīłáĭ°áĪ¨áĪ°
áĪĺáĬ«
áĭĬáĭ«
ĠáīłáĪĺáĬĲáĪ³áīµ
áĬ©áī£áĬķáĭ«áĭį
ĠáĪ°áĭ¶
áĮ©áĬķ
ĠáĬĲáī£áĪŃ
áĮ¥áī¥
ĠáĬłáĪįáĭĪáĭµáĪĿ
ĠáĪ°áĪļ
ĠÂ£
ĠáīłáĪĺáī°áī£áīłáĪŃ
ĠáĬ¨áĬķáī²
ĠáīµáĬĵáĮĪ
ĠáĪįáĪĺáĬĵ
Ġáĭ¨áĬ¥áĪ¨áįįáīµ
ĠáĪĺáĮ£áĮ¥áįį
ĠáĬłáĪĪáī£áī½áĪģ
áī½áĬĭáĪĪáĬķ
áĮ¸áī£áĪ¨
ĠáĪĺáĪĨáĬĹáĬķ
áĬĵáĪ½áĬĵáĪį
áī³áī½áĪģáĪĿ
áĪ°áĪĽáīµ
ong
áĬ¨áįĪáĪĪáĭį
Ġáĭ¨áĬ¥áĪ±áĬķ
ĠáĬ¥áĪµáĬ«áĪį
Ġáĭ¨áĮ¨áĪ¨
ĠáĬĲáĮįáĪ®
ĠáĪĽáĭŃáĬŃáĪ®
ĠáĬłáĭŃáĪįáĪĿ
ĠáīłáĬ¥áĬĲáĭļáĭ«
áĮĥáĪĪáĪģ
áĪĬáĭĿáĪĿ
ĠáīłáĭĻáĪªáĭ«áĭį
Ġáĭ°áĮĥ
ĠáĬ¥áĬĶáĪµ
Ġáī°áĪ°áĪĽáĬĿ
ĠáīłáĪĺáĪĪ
ĠáĪĬáĮĪáĭµ
Ġáī°áĪ¨áĭ³
ĠáĮŃáĪ«áĪ½
áĮłáī½
Ġáĭ°áĬŃ
ĠáĭŃáįĭáĭĬ
ĠáĪ³áĪĪáĪģ
ĠáĬ¨áĬłáĭįáĪ®áįĵ
Ġáĭ¨áĪĪáĪĿáĬĵ
ĠáĬłáĭµáĪ®
Ġáĭ¨áĬłáī¶
ĠáĬ¥áĬĲáĮįáĪŃ
ĠáĬłáĪ³áĭµ
áīłáĪ©áĬķ
áĪĪáīĢáīĢ
ĠáĪĪáĪ¶
áĭ¨áĬ¥áĮįáĭļáĬłáī¥áĪĶáĪŃ
Ġáĭ¨áĪĺáĮ¡áīµ
ĠáĪµáĭķáĪİáī½
ĠáĮįáĪĭáĭĬáĬĲáīµ
ĠáĪĲáĪĻáĪµ
ĠáīłáīłáĮĭ
ĠáĪĪáĪĽáĪµáĮĪáī£áīµ
Ġáĭ¨áĬĲáįĥáĬĲáīµ
ĠáĭŃáĮ®
ĠáĪĪáĪ¦áĪµáīµ
áįīáīµáĬķ
ĠáĬ¨áī»áĪį
áĪŀáĬĽáĪį
ĠáĬ¥áĬķáĮłáīĢáĪĽáĪĪáĬķ
ĠáīłáĭµáĪ¨
áĪŀáī°
ĠáīģáĪ³áĭĬ
Ġáĭ¨áĪļáĬĲáĮį
ĠáĮ¨áĪŃáīħ
ĠáĪµáĪľáī¶áī½
ĠáįĴáĪ²
ĠáĬłáĪ«áī±
Ġáĭ¨áī°áĮĪáĬĻ
TC
áĮłáĮĭ
Ġáĭ«áĪ°áī¥
ĠáĭĪáĭµáĮĦáĭĭáĪĪáĪģ
ĠáīłáĪĺáīħ
Ġáĭ¨áĪĽáĬħ
AN
áĭĭáĪ½
ĠáĪĺáĪįáĬŃáī°áĬĽ
ĠáĪĪáĪĽáĪĿáĪ¨áīµ
ĠáĬ¥áĬķáĭ°áĪļáĮĪáĬĿ
ĠáĭĺáįĪáĬĸáī½
ĠáĬłáĮ«áĭį
Ġáī£áĬķáĭ²
Ġáĭ¨áĭĪáĮ¡
Ġáī³áĪªáĬŃáĬķ
ĠáĬ¥áĬķáĪŀáĬŃ
ĠáĪĺáĪįáīłáĪµ
ĠáĪŀáĪį
áīĤáĭį
Ġáĭ¨áĬ®áĪ®áĬĵ
Ġáĭ¨áĭ«áĭķáīĨáī¥
Ġáĭ¨áī³áĪĺáĬĲ
ĠáĪĽáĪ³áĭĪáīħ
áĪ¨áĭ±áīµ
ĠáĭŃáĮĪáĬĻ
Ġáĭ«áĮĭáĪ©
Ġáĭ¨áĪĽáĭ«áĭįáīħ
Ġáĭ¨áĪĿáĬķáįĪáĪįáĮĪáĭį
ĠáĪµáĪĪáĭļáĭ«
áĭ°áĪĪáĪĿ
ĠáĪĬáĪłáĪ«
Ġáĭ¨áĪĽáĬħáīłáĪ«áĭĬ
ĠáĬłáĪĭáĪµáī¥áĪĿ
Ġáĭ³áĬĴ
Ġáĭ¨áĭµáĬķáĮĭáĭŃ
áĪ®áī»áī¸áĭį
áĪŃáĪĿáĮĥ
ĠáīłáĪµáī¥áĪ°áī£
Ġáĭ¨áĪļáĭ«áĪĿáĬķ
ĠáĭŃáĭĪáĪ°áĭ³áĪį
ĠáīłáĪļáĬ¨áī°áĪīáīµ
IN
ï¸
ĠáīłáĪĪáĭį
áĬ¨áĪ¨áĭį
ĠáĬłáī£áī¶áī»áī½áĬķ
Ġáī°áĮ½áįİ
ĠáĪµáĪĿáĪħ
ĠáĪħáĪĺ
ĠáĪĺáĬªáĬĵáĭİáī½
Ġáī´áĪĮ
ĠáĭŃáĮįáī¡
ĠáĬ®áĬ¨
ĠáįĵáĬĲ
áįįáĪ«áĪĿ
ĠáĪĺáĪ¨áĮĥáĭįáĬķ
ĠáĬ¥áĪµáĬŃáīµ
ĠáĬ¨áĭ°áĬķ
áĮłáĬĵáĭį
Ġáī°áĬĲáĪ¥áī¶
áįħáĪŃ
Ġáĭ¨áĭĪáĬķáĭ¶áī½
ĠáĮĪáĬķáĭĺáī¡
Ġáĭ¨áĪļáĮĪáĪŃáĪĿ
ĠáĬ¥áĬķáĭ²áĪī
ĠáĭĪáĬķáĭµáĪĽáĪĽ
ass
Ġáī°áĬłáĪĿáĪ«áīµ
Ġáĭ¨áĮĭáī¥áī»
az
áĬĲáĭī
ĠáĬ¨áī°áĪĽáĭį
Ġáĭ¨áĪĲáĪ°áīµ
ĠáīµáĪĺáĪµ
ĠáĪĪáĪĽáĬ«áĪĦáĭµ
ĠáĮĢáĪŃ
ĠáīħáĭµáĪµáīµ
Ġáĭ¨áĪģáĪĪáī±
ĠáīłáĪķáĭŃáĭĪáī³áī½áĬķ
ĠáĬ¨áīħ
Ġáĭ¨áīµáĭįáĪįáĭµ
ĠáĮĪáĪĪáĮ»
ĠáĬ¨áĪŃáĪ±
Ġáĭ¨áī°áīĢáĬĵ
Ġáīłáī°áĭ°áĪ¨áĮĪáĭį
áĪĺáĪįáĪ±
ĠáĭŃáīĨáĭ©
Ġáĭ¨áĪ½áī¥áĪŃ
ĠáĪįáĮĥáĮĪáĪ¨áĭµ
áĪģáĪħ
Ġáĭ¨áĬłáĬ«
ĠáĬ¨áĪĺáĬķáĮįáĪµáīµ
ĠáĭŃáĮĪáī£áī¸áĭĭáĪį
ĠáĬłáīħáĪŃáī§áĪį
ĠáĪĺáĪĭáĬ¥áĬŃ
áĮİáĪįáīłáīµ
ĠáĬ¨áĬ¥áĪµáĪŃ
ĠáĪĺáĮłáĬĸáī½
Ġáī£áĪįáĪĨáĬĲ
Ġáĭ«áĭįáĪŃáĭ±
áĪľáīµáĪŃ
ĠáĬ¥áĭ³
ĠáĬ¨áĬ¥áĬķáīħ
áĭ²áĭ«áī¥áĪİáĪµ
ĠáĬ¦áįĬáĪ´áĪĭáĭĬ
áĪŃáī°áĭį
ĠáĭŃáĬ¨
ĠáĬ¥áĭįáĬĲáīµáĪĿ
áĬķáĭ¶áĭįáĪµ
90
Ġáĭĺáįĭ
ĠáĪĽáĬĲáĮĭáĮĪáĪŃ
ĠáĪĪáĬķ
ĠáĬłáĪľáĬķ
ĠBitcoin
Ġáī¤áī³áī½áĬķ
Ġáĭ«áĮĭáĮ¥
ĠáĬ¥áĬķáĭ°áĪĽáĪµáīłáĭį
áīĢáĮłáĪį
áĭĪáĭ³áī¸áĭį
Ġáĭ¨áĭŃáĪģáĭ³
ĠáĬ¨áĮĢáĪĺáĪ¨
áĭ´áįĵ
ĠáīĨáĪĺ
Ġáĭ¨áĬ«áĬĵáĭ³
áĪĺáĭĺáĮĪáī¡
ĠáĪĪáĪĺáįĪáĮ¸áĪĿ
áĪ¬áĬłáĪĪáĪģ
áĬªáĬķáĮį
áĬªáĪµáī³áĬķ
Ġáī¥áĪŃáĮŃáīĨ
áĮ«áĭĪáī°
Ġáĭ«áĪħáĪī
áĬ¨áĪ»
ĠáĭķáĪĪáī³áĭĬ
áĮ£áįĬ
ĠáĬ¨áĪĺáĪĨáĬĳ
Ġáĭ°áĮĭáĮįáĪŀ
ĠáĪħáĪĬáĬĵ
ĠáĭŃáĮĪáī£áĬĽáĪį
ĠáĬ¨áī¦
Ġáī¦áī³áĭįáĬķ
ĠáĭŃáĮĪáĪĺáī³áĪį
ĠáĬ¥áĬķáĭ²áĭ«áĭ°áĪŃáĮį
ĠáĪĺáĪŃáĬ¨áī¦áī½
ite
Ġáĭ¨áĪĺáĪĭáĬªáĭ«
áĪªáĪµáīµ
Ġáĭ¨áĮĪáī¢áĭ«
Ġáĭ¨áĮ¥áĬĵáīµ
Ġáĭ«áĭ³áĪĿáĮ¡
ĠáĬ¢áĬķáĭ±áĪµáīµáĪªáĭİáī½
43
Ġáĭ¨áĪļáĮĪáĬĺáĭįáĬķ
ĠáīĢáĪŃáīłáĭį
Ġáī¥áĭµ
Ġáĭ°áĪ¨áĪµ
ĠáĬ¥áĬķáĭ²áĮĪáī¡
Ġáīłáī°áĪ°
ĠáīłáĪ³áĪĿáĬķáī±
áĪĽáĪĪáĬķ
ĠáĭĺáĪĮ
ĠáĬłáĭįáĪİ
ĠáĪĺáĪĻáĪĭáīµ
áĭįáĪĪáĭį
áĮĭáī³
ĠáĬ¥áĬķáĭ°áĬĲáīłáĪ¨áĭį
Ġáĭ¨áī°áīł
ĠáĪ¸áĪĽáī¾áī½
ĠáĬ«áĪħáĬķ
ĠáīłáĬ¥áĪŃáĪ±áĪĿ
Ġáĭ¨áĬ¢áīµáĭ®áĮµáĭ«áĬķ
áī¸áĭĭáĪĪáĪħ
ĠáĪµáĭ°áīµ
áĮĪáī£áĪĿ
ĠáĪ°áĪĭáĪĿáĬĵ
ĠáĭŃáĪ°áĪĽáī¸áĭĭáĪį
ĠáĭĿáĪĿáī³
ĠáīłáĬ®áĪĿáįĴ
ĠáĭĲáī¢áĭŃ
Ġáĭ¨áĮĤ
áĪ¨áĮħ
ĠáĮłáīĭáĪļ
áįįáĪ«áĭį
ĠáĬłáĪĺáĮ£áĮ¥
áĪªáįķ
áī¡áīłáīµ
áĬĵáĮĪáĬĿ
áĪŃáī¶áĭ¶áĬŃáĪµ
67
ĠáĬłáĪįáī°áĪ³
ĠáĬ¨áĬĲáīłáĪ©áīµ
ĠáĪĺáįĥáįį
ĠáĪįáĮħáĬķ
áĪŃáī£áĬķ
ĠáĬĲáī£
ĠáĪ²áĪµáī°áĪĿ
ĠáĪĺáĮłáĪĪáĭ«
áĭ²áĪģ
ĠáĬŃáįīáĬĽ
ĠáĪĻáī³áĬķ
ĠáĪĿáĪµáĬªáĬķ
ĠáĬ¥áĪħáī¶áī½
ĠáĪ³áī³
ĠáĪĿáĪŃáī±
áĪµáī¦
ĠáĪĪáĬ®
42
ud
ĠáĬ¨áĪ°áĪĽ
áīĢáĭĺ
Ġáĭ¨áĪĽáī³
áĪķáįĪáīµ
ĠáĬłáĮĭáĪ®áī½
áĭ²áĭ¨áĪĿ
ĠáĭŃáĭĺáĮĭ
ĠáĬ¨áĪ²
Ġáī£áĭ®
ĠáįĬáĪŃáĪĽ
ĠáĬ¥áĭįáĬĲáī°áĬĽáĭį
ĠáĬłáĪ«áī°áĬĽáĭį
AS
ĠáĬłáĪĬ
ĠáĪĪáĪĽáĭŃ
Ġáĭ¨áĬ¥áĪŃáĪ»
ĠáĬ¥áĭ¨áĪ°
ĠáĬłáīµáįįáĪ©
Ġáī°áĭĪáĬ«áĭŃ
ĠáĬłáīĢáĪŃáī£áĪĪáĪģ
áĮĬáĭ«áĭį
Ġáī°áīĢáīłáĪį
ĠáĬ¥áĬķáĪ¨áĭ³
ĠáĬ¥áĬķáĭ°áĪĨáĬķáĬŃ
ĠáĭŃáĪĪáĭį
áĪĪáĭĭáĭĪáĮ¥
's
ĠáĭŃáĮ«áĭĪáī³áĪī
ĠáĬłáĪµáĪĺ
áīĢáĭ°áĪĿ
Ġáī¥áĭĿ
áī£áī¢áĪİáĬķ
Ġáĭ«áĭ°áĪŃáĮīáī³áĪį
Ġáī¥áĪĭáĪĪáī½
Ġáĭ¨áī°áĮ¨
Ġáīłáī°áīĢ
áĬ³áĪį
ĠáĪĬáĪ¨áĭ±
áįĬáī±áĬķ
áĪ¥áĪ«áī½
ĠáĬĲáįįáĪ°
ĠáĪµáī´áīµ
ĠáĮİáĪįáī¶
ĠáĭĿáĭįáĭįáĪŃ
ĠáĬłáīłáĪ¨áī³
Ġáĭ©áĬŃáĪ¬áĬķ
Ġáī°áĪł
áĪļáĪŃ
áĬ¥áĬķáĭ²áĪħ
áĪ»áĪĿ
áī¥áĪ«áĭļáĪį
ĠáįĵáĪµáįĸáĪŃáīµ
áĪģáĬĶáī³
áĪĲáīµ
áĭ°áĪŃáĪ°áĭį
áįĪáĬĳ
ĠáĭŃáĮĪáī£áĪī
ĠáĬ¨áĭ¨áīµáĬĽáĭįáĪĿ
ĠáĪļáĪµáī±áĬķ
Ġáĭ¨áĪĺáĪ³áĪ°áĪī
áĪĿáī³
ĠáīłáĪĺáĬ¨áĪ«
ĠáīĢáĬķáĬĵ
Ġáĭ¨áī°áĭĪáĪ°áĭ°
ĠáĪĺáįįáīµáĪĦáĭİáī½
áĪħáįĪáīµ
ĠáĪĪáĬĵáĬķáī°
Ġáīµáī½áīµ
Ġáĭ«áĭĺáĮĭáĮģ
ĠáĪĽáĮī
ĠáīłáĮ¨áĭĭáī³áĭį
áī¢áĬĶ
Ġáĭ¨áĮħáĪĿáĪĭ
Ġáĭ¨áĪļáīĢáĪŃáī¥
áī³áĭįáīģ
áĪīáĭŃ
ĠáĬŃáįįáĪİáī½áĬķ
áĪĪáĪħáĬķ
Ġáĭ¨áĪĺáĪ£áĪªáĭ«
ĠáĬ¥áĪĺáĬŃáĪ«áĪĪáĪģ
Ġáĭ¨áĬ¨
ĠáĪļáĪµáī¶áī½
ĠáīłáĪĿáĭµáĪŃáĪĿ
ĠðŁĺ
ĠáĭŃáĪŀáī³áĪį
áĭŃáĭŃ
ĠáĭĲáĭĭáīĤ
áĮĪáĪ°
ĠáįĭáĭŃáĬĵáĬķáĪµ
ĠáĮĮáī³áĪĿ
áĬ¨áī£áīłáĪŃ
ĠáĮ¥áįĭáī°áĬĽ
ĠáĬ¥áĪ½
áĮįáĭ¨áīµ
ĠáĮįáĬĿáīµ
Ġáĭ¨áĪĺáĪĽáĪŃ
ĠáĭĪáĭŃáĬķáĪµ
áĪ¨áĪĿáī±
ĠáĪĺáĪµáī³áĭĪ
Ġáĭ¨áĪĿáĬķáĬĸáĪ¨áĭį
Ġáīłáĭ¨áī¦áī³áĭį
áī¾áī¹
ĠáĬ¨áĭ©
ĠáīłáĬłáĮĭáĮ£áĪļ
ĠáīĨáĪ®áĬķáī¶áĪµ
ĠáįĪáīĢáīħ
ĠáĪĪáĭįáĮ¡
ĠáĬ¥áĪµáĬŃáĬķáĭµáĪŃ
ĠáĬłáĭįáĪµáīµáĪ«áĪĬáĭ«
ĠáĭĪáĪ®áī½
áĬĽáī¸áĭį
ĠáĪ¸áĪ½
ĠáĪĪáĪįáĮħ
áĪĢáĪ³áī¥
áĭĺáįį
Ġáī¥áĪĶáĪ¨
Ġáī°áĭ°áī¥
ĠáĪĿáĪįáĬ¨áī³
ĠáĬ¥áĮ½
ĠáĬłáĭįáĪ¬
áĬŀáī¼
ĠáĬ¤áĪįáĪ³
ĠáĮ£áīµ
áĭĳáĭ²
Ġáī°áĪĺáĪ«áĪĽáĪª
ĠáĭŃáĬ¨áī¥áĭ³áĪį
áĬĲáĮĭáĮĪáĪ«áĪĪáĬķ
áī£áī³
Ġáī£áĪħáĪªáĭ«áīµáĬķ
ĠáĭįáĭŃáĭŃáī¶áī½
áĪŃáĬĸ
ĠáĪĽáĪķ
ĠáĪĽáīĭáīĭáĪĿ
Ġáĭ«áĪįáī³
ĠáīµáĪĭáĪĭáī½áĪģ
ĠáĭŃáĪ°áĮłáĬĵáĪį
áĬłáĪĪ
áĬŃáĪ³
ĠáīģáĮłáī£
ĠáĪĽáīłáĪ¨áī³áī»
ĠáĬ¥áĪĺáĪŃáĮ£áĪĪáĪģ
ĠáĪ²áĪĺáĮ¡
ĠáĪĪáĪĽáĮĭáĪ«áīµ
ĠáĭŃáĬĲáĮįáĪ¨áĬĵáĪį
ĠáĬłáĪĪáĪĺáī³áĭ°áĪį
ĠáĬ¥áĬĵáĭį
áį«
áįĪáĪŃáĪµ
áĬ«áī²áīµ
Ġáĭ¨áĬłáī£áīµ
ĠáĬłáĪĭáĭ°áĪ¨áĮĪáĪĿ
ĠáĪĢáĪ³áī¦áī½áĬķ
ĠáĮłáĭŃáīħ
ĠáīłáĮ¥áĭ«áīĦ
Ġáī°áĬłáĪĿáĪŃ
Ġj
áĮłáĬĽáĭį
ĠáĬ¥áĬķáĬĲáĮĭáĮĪáĪ«áĪĪáĬķ
áĬŃáĬķáĭ«áīµ
ĠáĬłáĮłáĪ«
ĠáĬłáĭŃáĮ¥
ĠáĭŃáĮłáĬĵáīĢáīĥáĪį
ĠáĪµáĭµáī¥
ĠáĬ¥áĭ¨áĪŀáĬ¨áĪŃ
áĮĪáĬĲáĭĺáī¡
ĠáĪ³áĪµáī¥
ĠáĭŃáĮłáīłáīħáī£áī¸áĭĭáĪį
Ġáĭ¨áĪļáĮĪáĪįáĮ½
ĠáĪĿáĮįáī£
Ġáĭ¨áĪļáĭĪáĪµáĭµ
áĪĺáĪŃáĮ¥
ĠáĬłáĭĭáīĤáĭİáī½
ĠáĪįáĮĥáĮĪáĪ¨áĭ¶áī½
Ġáīłáĭ¶
Ġáī°áĪĺáĭĿáĮį
ĠáīłáĪĺáĪµáĬ¨áĪ¨áĪĿ
ĠáĪĽáĪĺáī»áī¸áīµ
áĭ©áĬĿ
áī¶áīµ
ĠáĬ¥áĬĲáĮįáĪ«
áĬĵáī¸áĭįáĬķáĪĿ
ĠáĭŃáĪĺáĪµáĪįáĪĥáĪį
ĠáĪĿáĪµáĬŃáĪ®áī½
áĮłáĭŃáīħáĪĿ
Ġáĭ¨áī°áĪĪáĪĺáĭ°áĭį
ĠáįĪáįħáĪŀ
ĠáĪ°áĬķáĪ°áĪĪáīµ
Ġáĭ¨áĮ»áįį
Ġáĭ¨áĭ«áĭĻ
áī¥áĪ«áīµ
áīłáĭļáĭ«
áĭįáĭ«áĬķáĬķ
ĠáĪ»áĪĿáįĴ
Ġáĭ¨áĪĿáĪŃáĪĺáĪ«
áĭµáĮĵáĭµ
áĪıáī¸áĭĭáĪį
áĪĺáĪ¨áĮ¡
ĠáĪĪáĭĺáĪĺáĬĵáīµ
ĠáĪ¾áįĮ
ĠáĪĺáĭµáĪĥáĬĴáī¶áī½
ĠáĪįáĭĳáĪį
ĠáĪľáĬŃáĪ²áĬ®
Ġáįĥ
ĠáĪĪáĪĺáĭ°
ĠáĬ¨áĪķáĭĿáī¡
ĠáĭŃáĪ°áĮ¥áĭİáī³áĪį
áĪĺáĮĥ
ĠáĪ²áĭ«áĭ°áĪŃáĮį
ĠáįĪáĪŃáĭĸáĬķ
ĠáīłáĬ¨áī°áĪĽáĭĭ
ĠáĪµáĪĿáĪĿáĬĲáī¶áī½
ĠáĬ¥áĪ³áī¤
ĠáĪĪáī¤áī°áĪ°áī¥
Ġáĭ¨áīłáĪ¨áĭ¶
ĠáĬ¥áįİ
ĠáįĪáĮ£
ĠáīģáĪŃáĪµ
ĠáĬłáĮįáī£áī¥áĬĲáīµ
ĠáĬłáĪ¥
áįīáīłáīµ
áĭİáī³áĪĪáĪģ
Ġáī°áįİáĬ«áĬ«áĪª
ĠáĪĽáĬ«áĪĦáĭµ
Ġáīµáĭ³
ĠáĪįáī¦
ĠáĬ¥áĬķáĭ²áī°
ĠáĭŃáĪĪáĭ«áĪį
ĠáĮĥáĬŃ
Ġáĭ«áĪ»áĪ½
ĠáīµáĮįáĪī
ĠáĪĽáĪŃáĭ«
ĠáĪ²áĪ°
ĠáĬ¬áĬķáĭ«
ĠáīłáĪĺáĭĿ
ĠáĭĵáĪĭáĪĽáĭį
ĠáĬ¨áįĪáĪĪ
Ġáīłáī°áĪ¨áįĪ
áĬ¨áī°áĪĽáĭŃ
Ġáĭ¨áĪļáĭ«áĪĿáĬĳ
Ġáī¦áĪŃáĭ±
ï¸ı
áĪ³áĪĪáĬĿ
áĪªáĬĲáīµ
áīĨáĬķ
Ġáī¥áĭĻáĭİáī½áĬķ
ĠáĬ¥áĬķáĭ°áĪļáī³áĭĪáīĢáĭį
ĠáĬłáĬķáįĪáĪįáĮįáĪĿ
ĠáīłáĪįáī¤
ĠáĭĪáĬķáīł
NUMX
ĠáĬ¥áĬķáĭ³áī³
ĠáĪĮáĪĬáī±áĬķ
ĠáĬ¨áĪľ
áī£áī½áĬĭáĪį
Ġáĭ¨áĪļáĭ°
ĠáĬ¨áĬłáĮĪáĪŃ
ĠáīłáĮłáīħáĪĭáĪĭáĭį
Ġáĭ¨áī°áĬķáīĢáĪ³áīĥáĪ½
áĪŀáĬĿ
áĪĬáĪĭ
ĠáīħáĪµ
ĠáĬłáĪĪáĪĺáĬĸáĪŃ
áĬĵáįĬáĭİáī½
ĠáĪµáĪŃáĭĵáī°
ah
ĠáĪħáĭŃáĭĪáīµáĬķ
ĠáĮ¥áĪ¨
ĠáĬ¥áĬķáĭ²áĭĪáĮ¡
ĠáĭµáĪħáĪ¨
ĠáĬ¥áĪµáĭ«
ĠáĬłáī¥áĪ¬
ĠáĬłáĪıáīµ
ĠáĬ¥áĪĪ
áĭ¨áĬ¥áĬĶ
ĠáĪĽáĭįáĮ«
áĬĵáĮĪáĮĥ
áĪĺáĪĪáĪµáĪĿ
ĠáĬłáĭĻ
Ġáīłáĭľ
áĪĽáĬĴ
Ġáĭ¨áĪļáĬĵáĮĪáĪ¨áĭį
áĮĭáĪĪáĮ¥
ĠáĮĢáĪĿáĪŃ
áīĭáīĭáĪĻ
ĠáīµáĬ¬áīµ
ĠáĪĪáĬłáĪĿáĪĭáĬŃ
ĠáĬ¥áĬĵáĮĪáĪ«áĪĪáĪģ
áĮħáĬķ
Ġáī³áīµ
ĠáīµáĬ¥áĭĽáĭĽáīµ
ib
áĪĦáĪ«áĭĬ
ĠáīµáĪĿáĪħáĪŃáī±áĬķ
ĠáĬłáĪµáī°áĬ«
ĠáĬłáĭįáīĨ
ĠáĪĪáĪĽáĪĿ
ĠáĮĪáĮ¸
ĠáĬ«áĬķáī°
ĠáĬ¨áĪģáĪĪáī±
Ġáī°áĪ»áĪ½
ĠáĬ¨áĭĪáĭ²áĪģ
ĠáĮŃáĬķáīħáĪĭáīµ
áĪ«áįį
ĠáīģáĪĺáīµ
Ġáĭ¨áįĪáĪĪ
ĠáīĨáĮ£
Ġáĭ¨áĪ¶áĪµáī°áĬĽ
áįĭáĪĽ
ĠáĬłáĬķáĭ³áī¸áĭįáĪĿ
ĠáĪĪáĬłáĪľáĪªáĬ«
ĠáĪĪáĪĺáĪįáīĢáīħ
Ġáĭ²áĪ²
ĠáĭŃáīĢáĭŃ
áĬĲáīłáī¡
Ġáį«
ĠáĪ²áĮĭáĪ«
ĠáĪŀáĪĭ
áĮĪáĬĻáīłáīµ
Ġáĭ¨áī¡áĬĵ
áĬĲáī£
41
ĠáĬ¥áĪ¸
ĠáīłáĪĺáĪĺáĪµáĪ¨áīµ
Ġáĭ«áĭ¨áĪģáīµ
Ġáĭ¨áĭįáĮª
ĠáīłáĪµáĪŃ
oud
áĪįáī¦áĬĵ
áĪĪáĪĭ
ĠáĪĺáĪ°áĮł
ĠáĬłáĭ³áĬĿ
áīłáĪ±
áįĪáįĢáĪĿ
ĠáĬ®áĪĮ
Ġáī´áĬŃáĬĸáĪİáĮĤáĭİáī½
Ġáĭ¨áĪ³áĭŃ
ill
áīħáĪµ
ĠáĬ¥áĪĺáĬĳ
Ġáĭ«áĬĲáīłáī¥
ĠáĮįáĭ¥
ĠáĮłáĬķ
Ġáĭ¨áĬĴáĭį
Ġáĭ¨áĬ¥áĮįáĭļáĬłáī¥áĪĦáĪŃ
ĠáĬ¨áĬłáĪµáĪŃ
áĮłáīĢáĪĻáī£áī¸áĭį
ĠáĪĬáĭ«áĭ°áĪŃáĮī
ĠáĪĽáĮ£áīĢáĪ»
áĪļáĭĿ
ĠáĬªáĪµ
ĠáīłáīłáĬ©áĪĮ
áĮĭáĪ©
ĠáĪµáĪĽáī¸áĭį
áĪ®áī»áī½áĬķ
ĠáĬłáĪĪáī£áīµ
ĠáĪĿáĭµáĮĥ
ĠáĪĺáīħáĭ°áĪ±
ĠáĬłáĪ°áĪįáīº
ĠáĭŃáīłáīĥ
ĠáĬ¥áĭ«áĪµáī°
Ġáī°áīĭáīĭ
Ġáĭ¨áĪļáĪĺáĬĲ
ĠáĬłáĬŃáĪĬ
ive
áĪ¿
Ġáīłáįħ
ĠáīłáĭŃáĪģáĭ³
ĠWord
ĠáĪįáĮĨáī½áĪĿ
rote
ĠáĪĺáĬĸáĪ«áī¸áĭįáĬķ
Ġáī°áĮłáĬķáīĢáīģ
ĠAl
áĪ¨áīĢ
áĬķáĭµáĪ®
ĠTwitter
Ġáĭ«áĭ°áĪŃáĮĭáī¸áĭĭáĪį
ĠáįĪáĪ¨áĬķáĪ³áĭŃáĬĽ
ĠáĭŃáĬ¨áįĪáī³áĪį
Ġáĭ¨áĪĦ
áĬ«áįį
ĠáĬ¨áĪĽáĭŃ
ĠáĪ¥áĭķáĪį
áĪįáĮĦ
ĠáĬłáĭ«áĪ³
áĪªáĪµáī¶áī½
ĠáĮ¥áīĥáī¶áī½
ĠáīħáĬĶ
áĪ¸áĮĪ
ĠáĮĮáĮ£
Ġáī°áįĪáĪĭáĮĬ
Ġago
áĪ«áĪĭáī½áĪģ
Ġáĭ«áĪ°áĪĽ
áĬłáĪĭ
ĠáĪĽáīĨáĭ¨áīµ
ĠáįįáĪĭ
ĠáĪĪáĬłáĪĿ
ĠáĭĪáĪµáĭ°áĭį
ĠáĮ»áįį
ĠáĪĪáĪ«áĪµáĪħ
áĪĽáĬķáĪĿ
áĬĵáĪįáĭµ
Ġáĭ¨áĬĲáĮ»
Ġáĭ¨áĪµáĪįáĮ£áĬķ
ĠáĪ²áĪĺ
ĠáĪķáī¥áĪ¨áīµ
ĠáĪĽáĪµáī°áĬĵáĮĪáĭµ
ĠáĮ¦áĪŃáĬĲáī±
áĮĪáĪ¨áĪĿ
áĪĮáĭį
áī´áĬŃ
áĪ²áĪį
ĠáĪķáĭĿáī¤
áįįáīµáĭĮáĪŃ
áĬŁ
áĬķáī³áĭĬ
ĠáĬ¥áĬķáĭĺ
ĠáĭµáĮįáĮįáĪŀ
áĭ´áĭµ
ĠáĪķáĭĿáī¥áĬķ
ĠáĪµáĮłáĬĿ
ĠáĪĺáĭĪáĭ«áĭ¨áīµ
Ġáī°áįĪáĮ¥áĪ®áĬłáĭĬ
áĮĪáĬĲáĭĺáī¥
ĠáīłáĮĪáī£
Ġáī°áįĪáīµ
ĠáīłáĪ½áī³áĭį
Ġáĭ¨áĪļáĭįáĪį
áĪµáī¼
áĮłáĬĵáĪį
áĭ®áĪŃáĮĬ
ĠáĬ¨áįįáī°áĬĽáĭįáĬķ
ĠáĪŃáĬ¥áĪµ
áĬĶáĪį
ĠáĪĽáĪµáī°áĭĭáĭĪ
ĠáĪĪáĪŀáīµ
ĠáīłáĪĺáįĪáĪĪáĮį
áĪĥáĭŃ
ĠáīłáĪ°áĭŃáįį
ĠáĪħáĭŃáĭĪáī±
ĠáĪĪáĪĺáĪĿáĪ«áīµ
áĪĪáįĪáĭį
áī½áĬĵ
áĭ²áĭİáī½
ĠáįįáĮ¥
ĠáīłáīĥáĪī
ĠáĪ²áĬĸ
Ġáī¥áĪįáĮŃ
ĠáĬ¥áĬķáĭ²áĪĺáĮ£
Ġáī°áĮįáī£áĪ«áīµáĬķ
ĠáĬĸáĪ¯áĪį
áī³áī½áĬĭáĪį
ĠáĪĿáĪ¨áĮ¥
Ġáĭ¨áĬ¥áĭµáĮĪáīµ
áĪ«áįĬ
áĮĪáĪ©áĬĿ
ĠáĬłáĭĪáīħ
áĪĪáĭĪáĮ¡
ĠáĬłáīµáįį
rive
áĭĺáĪ¨áĮĭ
ĠáĬ¥áĬķáĭ²áĪ°áĪ«
ĠáĬłáĬķáĭ³áī¸áĭį
áīłáĪŃáīµ
ĠáīłáĪĺáĮįáī£áīµ
ĠáĭŃáĪ¨áĭ³áĭİáī³áĪį
Ġáī£áĪĪáĪŀ
Ġáĭ«áĪįáī°áĬĲáīłáīł
áī²áĬķáĮį
ĠáĪºáĭİáī½
áĮ¡áĬķáī»
Ġáī°áĭŃáĭŀ
áī°áĬĵáĭį
Ġ52
áīłáĭĺ
Ġáĭ¨áī°áĪĽáĪŃ
Ġáĭ¨áĪĺáĬķáĮįáĪ¥
áīµáĪĿáĪħáĪŃ
ĠáĭŃáįĪáīħ
Ġáīłáīłáĭĵ
Ġáī°áīĨáĮ£áĮ£áĪª
ĠáĮ¨áĪĿáĪ¯áĪį
ĠáĭĪáĭ°áī°
Ġáĭ«áĮĪáĪĪáĮįáĪĭáĪī
ĠáĬ¨áĪŀáī°
ĠáĬ¨áĪ´áīµ
ĠáĮįáĬĿ
ĠáĪģáĬĶáī³áĪĿ
áĪĭáīĢáīħ
Ġáĭ¨áĭ°áĪ¨áĪ°áĭį
ĠáĬ¨áĬŃáįī
áĪĭáĮİáīµ
Ġáĭ¨áĪĭáīµáĪĿ
Ġáĭ¨áĪļáĭ«áĪµáī½áĪī
ĠáĭĪáĪŃáĪĥáĭĬ
ĠáįĬáī±áĬķ
ĠáĪĺáĪ¨áĭ³
áĭ°áīµáĬķ
ĠáĬ¥áĬķáĭ²áĭĪáĮ£
áĪĺáĪµáĪįáĪĿ
ĠáĬłáĭįáĮ¥áī¶
Ġáĭ¨áī°áĭ°áīł
ĠáĪĿáĪįáĪįáĪµ
áĭĪáĪ°áĬĲáĭį
ĠáĪĺáĪįáĬ¥áĬŃáī°áĬĽ
áĮĭáī¡
áīĥáī¥áĪŃ
ĠáīģáĮ¥áĪ©
ĠáĭŃáĮłáī¥áīħ
ĠáĪĪáĪĽáĪµáī°áĭ³áĭ°áĪŃ
ĠáĬĥáĮ¢áĬłáīµáĬķ
ĠáĭŃáĪĺáĭĿáĮĪáī¡
ĠáĬłáī¢
Ġáĭ¨áĬłáĬĹáĬĹáĪŃ
Ġáĭ«áĪµáĬ¨áįį
ĠáĪĪáĭįáĮ¦áī½áĬķ
ĠáīłáĬĲáīłáĪ¨
ĠáĬłáī¥áĭ®
ĠáĬłáĪĭáĮĪáĬĺáĪģáĪĿ
ĠáĬłáĪķ
ĠáĮŃáĪĿ
áīłáĪ¬
ĠáĪµáĪĿáĪħáĬķ
ĠáĪĪáĪĲ
Ġáĭ¨áī°áĪĽáĪ¨
ĠáĮĪáī£áĪģ
ĠáĬ¥áīµ
ĠáĬ¥áĭ«áĪĪáī½
áĬ¤áī½
áĪ¯áī½áĬķ
ĠáīłáīĭáĪļáĬĲáīµ
IS
áįĪáįį
ĠáĬłáĪµáĬ¨áīµ
ĠáīłáĪĺáĮ«áĬķ
ĠáĪ¥áĪ«áī¸áĭįáĬķ
ĠáĬĲáīłáĪ¨áī£áī¸áĭį
ĠáĬłáĭĿáĬĵáĪĪáĪģ
áĪ¾áĪĿ
ĠáĬ¥áĪ´
ĠáĪĺáĪįáĪ¶áī½
Ġ95
ĠáĭįáĪĪáī³
ĠáĪĪáĬłáĬķ
ĠáĬ¨áĪĻáī³áĬķ
ĠáĪĺáįĥ
áĬĲáī³áī½áĪģ
Ġáĭ°áĪŃáĪ°áĭĭáĪį
ĠáĬ¥áĬ©áĪįáĬĲáīµ
ĠáĪĪáĪģ
ĠáĬŃáĪĭ
ĠáĬłáĪ°áīł
ĠáĮĢáĪĿáĪ¨áĭĭáĪį
áĪįáĪĻ
áĭļáĬĸ
ĠáĬłáĭŃáĭŀ
ĠáĪĺáĮ¥áī°áĭĭáĪį
ĠáĪĺáĪĨáĬĶáĬķ
áī½áĪıáī¸áĭį
Ġáī¥áĪĪ
ĠáĮĪáĭ°áĪį
áī°áĪŃáĮİáĪĿ
áĬ¨áĪ«áĬ¨áĪŃ
ĠáĬ¥áĪĺáĪĪ
ĠáĪ¸áīĢ
Ġáī³áĪªáĬ©áĬķ
ĠáĬ¥áĬķáīģáĪĭáĪį
Ġáī´áĬŃáĬĴ
ĠáĬ¨áįĵ
ĠáīłáĪģáĭĭáĪĭ
áĪĺáīĢ
ĠáĪĪáĬ¦
ĠáĪħáĮī
Ġáī°áĮĪáĬĲáĭĺ
ĠáĪĪáĪĺáĮįáĭ°áĪį
ĠáĮ®áĬ¸
Ġáī°áĪŀáĪį
Ã·
áĪ«áĪ´
ĠáĬ¨áĮŃ
ĠáĪĽáĪ³áĬ«áīµ
ĠáĪĺáĭĿáĮĪáīł
ĠáĬłáīµáī½áĪīáĪĿ
áįĭáĪ½
áĪķáĭŃáĭĪáīµ
ĠáĬłáīµáīłáĪį
áĬķáĭĽáĪª
Ġáĭ¨áĪłáĪ«áĭĬáīµ
%)
AT
Cl
ĠáĪ²áĪ°áĪ«
Ġáĭ¨áįħ
ĠáĪ«áīħ
ĠáīłáĪ¥áĮĭ
est
ĠáĬłáĪµáĪ¨áĭµáī°áĭĭáĪį
ER
áĪ°áĭįáĪĿ
Ġáĭ¨áī°áĪ°áĮ¡
Ġáĭ¨áī°áĮ»áįĪáĭį
ĠáĮłáī£áĭŃ
ĠáĬ®áĪĿ
Ġáĭ¨áĪĻáĪī
ĠáīħáĬķáī¥áĪ®áī½
áĪįáĮ¥
ĠáĭĪáĮŃ
ĠáĪĪáĪĺáĭĪáĭ«áĭ¨áīµ
áĪµáīµáĪ®
Ġáī¥áĭĻáĬĥ
Ġáįĵáīµ
ĠáĭŃáĪĨáĬĳ
ĠáīłáĬłáĬķáįĥ
áĬķáī°áĬĵáĭĬ
ĠáĪĽáĭķáīĢáįį
ĠáĬ¨áĬŃáĪŃáĪµáī¶áĪµ
ĠáĬłáĭįáĪ®áįķáĪĭáĬĸáī½
ĠáīłáĭĺáĪŃáįī
áĪĺáĬĶ
Ġáī°áĬ¨áĪ°áī°
ĠáĬķáįħ
áĮĭáĪµ
ĠáīłáĬ¥áĮ¥áįį
áįĶáĭ²áĭ«
áĭ°áĮĥ
ĠáĪĽáī°áĬ®áĪŃ
ĠáĮİáĪ³
Ġáĭ°áĪ³áĪĪáĬĿ
ĠáĪŀáĮĪ
ĠáīħáĬĿ
áĪªáĬĵ
ĠáĪĪáĪĽáĪµáī°áĪĽáĪŃ
ĠáĪĺáĮĢáĪĺáĪŃáĭ«
ĠáĪµáĪĮáīµ
ĠáĪµáĪŃáĮŃ
ĠáīłáĪħáĮĪ
ĠáĪµáī¥áĪ°áī£áĭį
Ġáīłáī´áĪĮáīªáĭ¥áĬķ
áĬĲáī±áĪĿ
Ġáĭ«áĭĭ
Ġáĭ¨áĪ°áĭİáī½áĬķ
áĪ°áĪĭáĪĿ
ĠáĪĽáĭĺ
áī«áĪį
áīĥáī¤
áįĪáĪįáĮĪáĬķ
Ġáĭ¨áĪ«áīĢ
ĠáĬ¨áĮĭ
ĠáĬ¨áĬłáĬķáĭ±
ĠáĪĵ
Ġáī°áĬ©
áĭµáĭµáĪ©
áĮłáĪħ
Ġáī°áĬĽ
ĠáīłáīĢáĪĭáĪį
ĠáĪĬáīĥáĭįáĬķáīµ
ĠáĪĪáĬĥ
ĠáĮŃáĬķáīĢ
ink
ĠáĬ¥áĬķáĪŀáĬŃáĪ«áĪĪáĬķ
ĠáĪ°áĪİáĪŀáĬķ
áĭ¨áĭĭ
áĪ½áĬĿ
ĠáĪĲáĭŃáīħ
ĠáĪĪáĪĺáĪĺáĪŃáĪĺáĪŃ
ĠáīłáĬ¨áī°áĪĽáĭį
Ġáīłáī½áĮįáĪŃ
ĠáĭŃáĬĲáĪ£
áĭĺáĮĪáī¡
ĠáīłáĪĺáĬķáįĪáĪ³áĭĬ
ĠáĬ¨áĪĺáĪµáĪĺáĪŃ
ĠáĭŃáįĪáīµ
áĭŃáĪŃ
áĪ³áīµáĬķ
Ġáĭ¨áĪĺáĭĿáĬĵáĬĽ
Ġáĭ¨áĬ¥áĬĲáĪŃáĪ±
ĠáĬłáĪĭáĪµáįĪáĪĭáĮĬ
ĠáĪ³áĭŃáĪĨáĬĳ
ĠáĬłáĭ«áĪµáįĪáĪįáĮĭ
ĠáīłáĮ½áĪĳáįį
Ġáĭ¨áī°áĬ¨áīłáĪ¨
áĭ¶áĪµ
ĠáĪĺáĭ°áĪĿáĭ°áĪļáĭ«
ĠáĪĽáĪŃáī²
Ġáĭ¨áĪĿáĭĿáĮĪáī£
Ġáī¢áĪĬ
ĠáĪĢáīłáĪ»
Ġáĭ¨áĪļáĭ«áĪ³áĭĿáĬĲáĭį
ĠáĪħáĭŃáĭĪáī³áī¸áĭįáĬķ
ĠáīĢáĪįáĮ£
Ġáĭ¨áĪĺáĭ«áĭĿ
ĠáīłáĪĽáĮįáĬĺáīµ
áĮ¹áĬķ
Ġáĭ°áĬķáīłáĬŀáī»áī½áĬķ
áĪ¬áĭµ
ĠáĬłáī³áĭµáĪŃ
ĠáĭŃáĭįáĪĭáĪī
Ġáĭ«áĪµáĮĪáī£
ĠáĪįáĬķáĮĪáĪŃ
ĠáĬ¥áĪŃáĮ¥áīłáīµ
ĠáīłáĪļáĭ«áĪ³áĭĿáĬķ
ian
Ġáĭ¨áĬħ
ĠáĭŃáĪĭáī¸áĭĭáĪį
ĠáĬłáĭĺáĮĪáĮĥáĮĢáīµ
ĠáĬłáī¦
áĭĪáĪ¨áĭ°
ĠáĪĺáī³áĮĪáĪį
áĪŃáĬ«
áĮĪáĭ°áĪī
áĬĲáī·áĬķ
Ġáĭ¨áī°áĬ¨áĪ°áī°
ĠáĪĪáĪĺáĪ³áī¥
ĠáĪĥáĪŃáĭµ
ĠáĬ«áĪįáī»áĪī
ĠáīłáĪĽáĬķáīłáī¥
áī³áīµáĪĿ
áįĢáĪį
ĠáĭŃáĮĪáĬĲáĭĺ
ĠáīłáĬłáī¥áĭĽáĬĽáĭİáī¹
áĭ³áĭĬ
áī²áĬŃáĪµ
ĠáīĢáĪļ
áī°áĪĻ
ĠáĬłáĬķáĭ³áī½áĪĿ
ĠáĬ¤áĪŃáīµáĪ«
ĠáĭŃáĭµáĪ¨áĪµ
ĠáĪ®áĪĿ
áĬĲáĪ½
Ġáĭ¨áĬ¥áĬĵáīµ
ĠáĭĭáĭľáĪĽ
Ġáī£áĪĪáīµ
ĠáĪĽáĪµáī°áĬĵáĮĪáĮĥ
Ġáī³áĭµ
áĪķáĬłáĭ´áĮį
ĠáĪµáĪĪáĪĿáīµ
ĠáĪĺáĭĪ
ĠáĬ«áĭ°áĪ¨áĮī
ĠáĬłáĭįáī³áĪ¨áĪĺáĪ¨áī¥
ĠáĪĺáĮ«
ĠáīłáĮįáĬķáī¦áīµ
Ġáī°áĬ«áĪĦáĭ°
ĠáĬłáĭ°áĮĭáĭį
ĠAmharic
Ġáĭ¨áĪļáĪ°áĮł
ĠáĪĺáĪ°áĪĭáī½áĪģ
ĠáĪĺáĭĭáĭķáĪį
66
áĬłáī½áĪģ
ĠáĪĽáī£
ĠáĪĽáĪ³áĭĪáīĤáĭ«
ĠáĭµáĪ«áĭŃáīŃ
Ġáĭ¨áĪļáįĪáĪįáĮĪáĭįáĬķ
áīĭáĪ¨
ĠáĬłáī¥áĪŃáĪĥ
áī°áĪª
áĮĪáĪĻ
ĠáĪģáĪĪáĮĪáī¥
ĠáīłáĭĪáĭ«áĬĶ
Ġáĭ¨áī°áĭĪáĪ°áĬĳáīµáĬķ
ĠáĭµáĪ¨áĮĪ
ĠáĪµáĪĪáĪļáĭ«áĪµ
ĠáĪĪáīłáĮİ
ĠáĪĺáĪįáĭķáĬŃáī¶áī½áĬķ
ĠáĪĿáĪ°áĪ¶
áĪ©áīłáīµ
áīłáĪ³áĮŃ
ĠáīłáĪĺáĬ«áĬ¨áĪĪáĬĽáĭį
Ġáĭ¨áī°áĮĪáĬĲáī£áĭį
Ġáĭ«áī¥áĪ«áĪ«áĪį
ĠáĬ¨áĪĽáĪĪáīµ
áĪ¨áĮĭáĮĪáĮ¡
ĠáīłáĮĭáĭľ
ĠáĬłáįħ
ĠáĪ½áĭ«
ĠáĪĺáĬķáīĢáĮ¥áīĢáĮ¥
ĠáĪ©áī¥
ĠáįįáīħáĪ¨áĬĽ
ĠáĭŃáīĨáĮ£
ĠáĪĪáīµáĪĿáĪħáĪŃáīµ
Ġáīłáĭļáĭ«áī½
Ġáī°áĪĺáĪįáĬ«áī½
ĠáĪĿáĪŃáĮ¡áĬķ
ĠáĬłáĬķáĮĭ
Ġáĭ¨áīĢáĪ¨áĭį
ĠáĭŃáĪĺáĮ£
áīĨáĮłáī¥
áĪŃáĮįáĮ¥
ĠáĪĪáĪĺáĬĲáĮĭáĮĪáĪŃ
ĠáĬ¥áĭ«áĪĪáĪģ
ĠáĬ¥áĭ«áĭ¨áĬķ
ĠáĬłáĪ³áįĭáĪª
ĠáĪĽáĪµáī°áĭĭáĭĪáīħ
ĠáĬĥáĭŃáĪĪ
ĠáīĪ
ĠáĬłáĪµáĮĪáī¥
ĠáĪĬáĬĲáĮį
ĠáĬĲáĭįáĪŃ
Ġáĭ¨áĪĺáĮ¨áĪ¨áĪ»áĭįáĬķ
ĠáĪĪáĪ¥
ĠáĪ²áĬĲáĪ³
áĭµáĭµ
ĠáĪĽáĬ«áī°áīµ
Ġáĭ¨áĪ½áĮįáĮįáĪŃ
ĠáĪ²áĬĲáĮ»áĮ¸áĪŃ
|"
ĠáĪĺáįĪáĮłáĪŃ
Ġáĭ¨áįĢáĮīáĪŃ
ĠáĭĪáĪ«
áĪ¸áĮ¡
ĠáĬ¥áĪ«áĪµáĭİ
ĠáīłáĮĥ
ĠáĭŃáĬ¨áīł
áĮ¨áīł
ĠáĭŃáĬ¨áĬĵáĭĪáĬĵáĪį
ĠáīłáĪĺáĪĺáĪįáĬ¨áīµ
ĠáĬłáīĢáĪ¨áī¡
ĠáīłáĭįáĪµáĮ£áī¸áĭį
ĠáĪªáįĸáĪŃáī¶áī½
Ġáī£áĭ©
Ġáī½áĪĪáĬĵáĪį
Ġáĭ¨áįĪáĮ¸
áĬķáī¥
ĠáĪĪáĮĮáī³
Ġáĭ¨áĪĺáĭĭ
Ġáĭ¨áĪĽáĭį
ĠáĬłáĭįáīĥ
áĭ«áĬĵ
Ġáī¥áĪĨáĬķ
ĠáīłáĮ¥áīħáĪī
Ġáī°áĬĲáĮįáĪ¯áĪį
áĪĽáĪĮ
áĮ¦áĪµ
Ġáĭ°áĬķáīłáĬĽáĭį
áīłáīĢ
Ġáĭ¨áī°áįĪáĮ¸
Ġáī°áīĢáĪĿáĮ§áĪį
ĠáĪĺáī°áĮįáīłáĪªáĭ«áĭİáī½áĬķ
ĠáĬ¨áīłáĭ°
áĪµáĪĭáĪĿ
ĠáĬŃáįįáįįáĪį
ĠáĭŃáīĢáĪĭáīĢáĪī
Ġáī®
ĠáĪ³áĬ¦áĪį
ĠáĭĲáĭŃáĬķ
ĠáĬłáĭŃáĪµ
ĠáĪĪáĪĽáĪµáī°áĭĭáĭĪáīħ
ĠáĪ½áī³
áĮ¾áĪĿ
Ġáĭ«áĮĪáĬĺáĪģáīµ
áĮ¥áĪĭ
áĭĪáĪįáĭµ
ĠáĬłáīµáĬŃáĪįáīµ
ell
ĠáĪ°áĬķáĮłáĪ¨áĭ¥
ĠáīłáĪ¨áĪ«áĭİáī½
Ġáī¸áĪį
Ġáī³áĮĪáĬĽáĪĪáĪħ
Ġáĭ¨áĪļáĪłáĪ«áĭį
áĬ®áĪµ
ĠáĬłáīħáĪĻ
ĠáĬ¨áĮ¥áĬķáīµ
ĠáĮłáĭŃáīĢáĭĭáĪį
ĠáĪŀáĬ¨áĪŃ
ĠáīłáĭķáĪĪáīµ
Ġáĭ¨áįįáīµáĪħ
ĠáĬ¢áĪħ
ĠáĮ»áįĪ
ĠáĬ¥áĬķáĭ²áĬĸáĪ©
ĠáĪĬáĪ°áĪ«
Ġáī³áĬķ
ĠáĬłáĪĽáĬĿ
Ġáĭ¨áĭµáĮĭáįį
Ġáĭ³áĪŃáī»áĭİáī½
Ġáĭ¨áĪļáĭ«áĭ°áĪŃáĮīáīµáĬķ
ĠáĬłáĬķáī°áĬĵ
ĠáĭľáĮİáī½áĬķ
ĠáĭįáĭĿáĮįáī¥
Ġáĭ¨áĪļáĭ«áĪĺáĮ£
áĮĪáĭ°áī¥
Ġáĭ¨áī¤áī°áĬŃáĪŃáĪµáī²áĭ«áĬķ
ĠáīĢáĬķáĭµ
Ġáĭ¨áĬŃáī¥áĪŃ
Ġáĭ¨áĭµáĪŃáĮħáīµ
ĠáĬ«áĪĪáĪħ
ĠáĪµáĪĪáĪļáī½áĪį
ĠáĪ°áĪŃáī·áĪį
Ġáī³áĭ°áĪ°
ĠáĭĵáĪĺáī·
Ġáĭ«áĪµáĮĪ
Ġáī°áīĢáĪĺáĮ¡
ĠáĭĪáĪĭáĮĨáī¹
47
Ġ51
ĠáĪĿáĬķáĭµáĬĵáī¸áĭį
ĠáĪĽáĭ°áĪªáĭ«
ĠáĭĪáĪŃáīĥ
áĪįáĮħ
áī°áĭįáĪĿ
ĠáīłáĬ¥áĭļáĪħ
Ġáĭ«áĪ³áĭ«áĪī
ĠáĬłáĪ°áįĭ
Ġáīłáī¥áīĥáīµ
áī¥áĪĭ
Ġáĭ¨áĪļáĮłáī¥áīħ
áīģáĪĻ
áĭķáĪŃ
ĠáĪµáĪľáĬķ
ĠáīłáĮħ
ĠáĪ²áĮĢáĪĿáĪŃ
áĭĵáĪĿ
ĠáĪļáĪµáī°áĪŃ
46
ĠáĪĪáĪĺáĬ¨áī°áĪį
áĮĪáĪ«áī½áĪģ
ĠáĪĺáī°áĮįáīłáĪªáĭ«áĭįáĬķ
ĠáĪĪáĪĽáĮ£áĪ«áīµ
áĬŃáī´
Ġáĭ¨áī°áįĥáįĪ
Ġáĭ¨áī°áīĢáĭ°áĪ°
áĪ½áīłáīµ
Ġr
ĠáĪĽáĪªáĭ«
ĠáĪĬáĬ¨áĬĵáĭĪáĬķ
ĠáīłáĬłáĪĽáĪ«
Ġáī¢áĪī
áĬķáīħáĪµáīĥáĪ´
Ġáī°áĭĽ
Ġáĭ¨áĪļáĮłáĪ«
áĬķáĮįáĪµáī±
áĭ«áĪĪáĪ½
áīłáĪŃáĬŃ
áĮĪáĬĳ
ĠáĬłáįķ
Ġáĭ«áīłáīĥáĪį
áĪĿáĪ¨áĭį
ĠáĪįáī¥áĪ¶áī½
ĠáĭŃáīĢáĪĺáĮ£áĪį
áĬĴáī±
ĠáĪµáī¥áĭķáĬĵ
ĠáĭŃáĭŃáĭĽáĪī
Ġáĭ¨áĮ»
ĠáĬ¨áĪĿáĬĵ
ĠáīģáĪŃáĮłáĬĽ
ĠáĪµáĪĪáĪĮáĪĪ
ĠáīĢáĪįáĮ£áįĭ
ĠáĬ¥áĭ¨áī°áĬ¨áĬĵáĭĪáĬĲ
ĠáĪĪáĪĽáĪ³áĪĪáįį
Ġáĭ¨áĪļáĪ°áĮ¡áīµ
ĠáĬ¨áĪĺáĪ¬áīµ
áĪŃáĪ½áĪŃ
ĠáĮĢáĮįáĬĸáī½
ĠáĪĺáĪįáīĢáīħ
Ġáĭ«áĪĪáįĪáĭįáĬķ
áīµáĪ¨
ĠáīłáĬ¢áĬķ
áįĪáĬĽ
ĠáīµáīłáĪĭ
Ġáī£áĪĪáĪĢáī¥
ĠMore
áĭ®áĪ½
Ġáĭ¨áīĨáĭ©
áī´áĪŃ
ĠáĪŀáī¶
ĠáīµáĪŃáįĭáĪĽ
áĪĺáĪįáĬ«
Ġáĭ«áĪ³áĭĿáĬĵáĪį
ĠáĬ¥áĭ°
ĠáĬ©áĬª
Ġáĭ¨áī£áĪķáĪŃ
ĠBl
ĠáĪ°áĪĪáĪŀáĬķ
ĠáĭŃáĪīáī³áĪį
ĠáĬ¥áĬĵáī±áĬķ
ĠáīłáĮ¥áīłáī¥
ĠáīłáįĵáĪªáĪµ
ĠáĬ¨áĪ©áīħ
ĠáīłáĬłáĪĿáĪµáīµ
ĠáĭŃáĪ°áīł
áĪĺáĪ°áĬŃáĪŃ
ĠáīłáĪįáī¥
ĠáīłáīħáĬķ
ĠáīłáĮĥáįĵáĬķ
ĠáĪ»áĬķáĮ£
ĠáĬ¥áĪµáĬ¨áĭļáĪħ
Ġáĭ«áĮįáĬĻáĬķ
áĭ«áĪµáįĸ
Ġáįĭáĭį
ĠáĪĪáĪļáĮĪáĬĻ
ĠáĪĪáĭ°áĬķáīłáĬŀáī½
ĠáĮĬáĭľáĭİáī½
ĠáĪŀáī°áĭĭáĪį
Ġáĭ¨áĭĪáĪŃ
ĠáīłáĪµáįĶáĬķ
ĠáĪ¥áĪŃáĭĵáī±
ĠáĭĺáĪį
áĪ®áĮ³
ĠáĬłáĪµáī¦
áĪĬáī±
ĠáīłáĬłáĭįáĪµáīµáĪ«áĪĬáĭ«
áĬĲáīģ
áĪ°áĬķáĮį
áĭįáĭ°
áĭĺáĭĺáĭį
Ġor
áĭĭáĬ¥
ĠáĪįáĮĥáī¸áĭį
ĠáĬłáĪĿáĮ¡
ĠáĬłáĭįáī³áĪ¨áĪĺáĪ¨
Ġáĭ¨áĪĺáĪŃáĬ¨áī¥
ĠáĪĽáĭ¨
áī²áĭ©áī¥
ĠáĭŃáĮłáĭ¨
ĠáĪ¨áĪĥáī¥
áį©
ĠáĪĺáĪĺáĪªáĭ«áĭİáī½áĬķ
Ġáīłáīħáĭ±
áī¥áĪ«áĪ«
Ġáĭ¨áĭ«áĭĺáĭį
áĭµáĮĵ
Ġáĭ¨áĪĽáĭ°áĪŃáĮĪáĭį
Ġáĭ¨áĪĽáĬķáĬĲáīµ
ĠáĬłáĭįáĪŃ
áĪµáīµáĪ«áĬŃáĪ½áĬķ
Ġáĭ¨áī°áĭĪáĪ³áĪ°áīł
ĠáĬ«áĭ°áĪ¨áĮį
Ġáĭ«áĪµáīĢáĪĿáĮ¡
ĠáĪĪáĭļáĪģ
ĠáĬłáĪµáī½
ĠáĬ¥áĬķáĭ²áĪ°áĪ©
ĠáĬłáĮįáī¥
áī³áĪªáĬŃ
ĠáĮłáĪį
Ġáĭ¨áĪĨáĬĲáī½
ĠáĬłáĪŃáĬłáĭ«
áĬ¨áįĪáĪī
ĠáĪĽáĪµáī³áĭĪáīĤáĭ«áĭİáī½áĬķ
ĠáĪĪáĪĺáĪĺáĭĿáĮĪáī¥
ĠáīłáĬłáĪķáĭĽáī¥
ĠáĭĪáĪĪáĭ°áī½
ĠáĪĪáīĢáĭį
ĠáĪĺáī°áĬķ
ĠáĮĵáĭ°áĬŀáī¹
ĠáĬłáīµáĬķ
áĮ«áĪī
Ġáī°áĬ¨áĪ³
Ġáĭ¨áĮĢáĪĺáĪ¨
ĠáĪĪáĬłáĭ²áĪµ
áĪĨáĬĵáī½áĬķ
ĠáĬłáĪ¸áĬĲáįĪ
áīµáĪ¨áįį
Ġáĭ«áĭ«áĪį
ĠáĬķáĮįáĪ¥áīµ
ĠáĬłáĬĲáĮĭ
ĠáĬłáĭŃáĪĺáĮ£áĪĿ
ĠáĪįáī¤áĬķ
Ġáĭ¨áĪµáĭ°áī°áĬŀáī½
áī§áĬķ
áĮĪáĭĽáĭį
ĠáĪĪáĪĽáĪµáī°áĪĭáĪĪáįį
ĠáĬłáĬ¨áĪ«
ĠáĬ¥áĬķáĭ²áĪ°áĮ¡
ĠáĪĦáĭµáĬ©
ĠáīłáīµáĮįáĪ«áĭŃ
ĠáĬłáĬŃáĪ²
ĠáĬķáīħáĪ³áīµ
Ġáĭ¨áĪļáĬ¨áĬĵáĭĪáĬĲáĭį
ĠáĬŃáĪªáĪµ
ĠáĪĺáĬķáĬ¨áī£áĬ¨áī¥
ice
Ġáī°áĭĺáĮĭáĮħáī·áĪį
ĠáĪĽáĪŀáīĤáĭ«
áī¥áĬķáĪĿ
Ġáĭ°áī¥áĪ¨
ĠáīĥáĪĮáĬķ
ĠáĬłáĬķáĭ³áĪŃáĮĭáī¸áĭį
áĬ¸áĭįáĬķ
ĠáīłáĪĺáĪĺ
ĠáĪĺáĪįáĬ«áĪĻáĬķ
ĠáĪĺáĭ°áĪ¨áĮī
Ġáī°áĬ¨áįĪáī°
ĠáĬłáĪįáĪ¨áĪ³
áī³áī¸áĭįáĬķáĪĿ
ĠáĬĥáĭŃáĪī
ĠáĬ¥áĭ«áĬķáĭ³áĬķáĭ³áī½áĬķ
ĠáĭĪáįįáĪ«áĪĿ
ĠáīłáĬłáĪ«
áĬĲáīĢ
ĠáĪĿáĪ¥áĬŃáĪ®áī½
eg
áįĪáĬĵáĪį
Ġáī°áĭĪáĭ«áĭŃ
ĠáĪµáĪįáī¶áī½
ĠáĬ©áĬªáĭİáī½
Ġfone
ĠáĪĺáĪŃáĪĥáĮįáī¥áĪŃ
ĠáĪ²áī°
áī¤áīµáĬĲáīµ
Ġáĭ¨áĪħáī¥áĪ¨áī°áĪ°áī¥
ĠáĪĿáĪįáĬŃáī¶áī½áĬķ
ĠáĪ³áĬ¦
ĠáĪįáĬ¡
ĠáĮŃáī¥
ĠáĮ£áī¢áĭ«áĭİ
ĠáĬłáĮįáĬĿáī¶
Ġáĭ¨áĪļáĬ¨áįį
ĠáĬ¥áĬķáĭ²áĮĪáī£
áį£"
ĠáīłáĪĺáĬ¨áī°áĪį
Ġáĭ¨áĬłáī¥áĪŃ
áīłáĪ¨áĭį
ĠáĬłáĪĿáĬĸ
áĬĵáĮĪáĪ«áī¸áĭį
áĮ«áĭĭáī½
Ġáĭ²áĪµáĬŃ
áĪ°áĬĽ
ĠáīłáĮħáĪĿáĪĭ
áĬĳáĪ®
áī°áĬĽáĭįáĪĿ
ĠáīłáĪĽáĮ£
ĠáĬĲáĮĪáĪĿ
ĠáĬķáī¥áĪ¨áī¶áī½
áĪ¹áĪĿ
Ġáĭ¨áĪĮáĪİáī½áĬķ
rosoft
Ġáĭ°áĪ´
áĪįáĮįáĬĵ
áĪ°áī£áĭĬ
Ġáĭ¨áī°áĭĪáĪ°áĬĳáīµ
áįĪáĪ©áīµ
ĠáĬ«áĭįáĬķ
ĠáĬ¥áĭļáĪħáĪĿ
ĠáĬķáĮ½
ĠáĪĺáĪµáīĢ
ĠáĪĺáĭ°áĪ°áīµ
ĠáĬ¥áĬķáĪĺáĪĪáĪµ
áĪ»áĪ»áĪī
ĠáĪĺáĪµáī°áĮĭ
áĮįáĪī
áĪĥáī¸áĭį
ĠáĬłáĪ³áī¢
Ġáī°áĮłáĪĿ
ĠáĭķáĭįáīħáĬĵ
ĠáįĪáĬķáĭµ
Ġáĭ¨áĪļáĭ«áĪµáįĪáĪįáĮĪáĭįáĬķ
ĠáĪĺáĮĪáī£
ĠáĪĪáĬĲáĪ±
áĪ°áīłáĪ°áīł
ĠIP
ĠáĬłáĭ«áĪĪáĪģ
aw
áĮĢáĪŃ
ĠáĬ¨áī»áĭŃáĬĵ
Ġáī¨
áĮĪáĭ³
áĬ¬áĬķ
ĠáĬ¥áĮĪáī£áĪĪáĪģ
áĬ¨áĪĮ
ĠáĪĿáĬķáĭ³
Ġáĭ¨áĪĽáĭĪáīħ
ĠáĬ¥áĬķáĭ°áĪļáĬĸáĪŃ
ĠáĬ¥áĬĽáĭį
ĠáīłáīĢáĭµáĪŀ
áĪĽáĪŃáĬŃ
Ġáĭ¨áĪļáĭ«áĪ³áĭ©
ĠáĮįáĮŃáī¶áī½
áĪ¤
ĠáĬłáī¥áĬĲáīµ
Ġáī°áĪĺáĪįáĬŃáī·áĪį
ĠáĬ¥áĮĪáĭ³
áĭŃáĪ¨
ĠáĭįáįįáĪ¨áīµ
áī¶áĪª
áĪĲáĪĺáĭµ
áĪ«áĭĺáĪĿ
áĪģáīµáĪĿ
áīĨáĬĵ
ĠáįĪáĮ£áĪªáĭİáī½
Ġáĭ¨áĭįáĪ¸áīµ
Ġáĭ¨áī°áįĪáĮłáĪ©
Ġáī°áĪ³áįĭáĪªáĭİáī½
áĪµáī»áĪĪáĪģ
áįĮáĪ¶áĬķ
Ġáīłáī°áĬ«áĪĦáĭ°áĭį
ĠáĪĪáĪĨáĬĲ
ĠáĬ¨áįĮ
ĠáĬ¥áĬķáĬ¨áĬķ
ĠáĬ¢áĬķáī½
ĠáĬłáĪįáĪįáĪĿ
;,
ĠáīłáĬĵ
ĠáĬłáĭŃáĮł
Ġáĭ°áĬĲáĮĪ
ĠáĬĲáĮĪáĪ¨áĬĿ
ĠáĬłáĬķáĭ³áĬķáĭ±
áĮłáĭ¨áīĢ
ax
Ġáī°áīĢáĪĭáīħ
ĠáĭŃáī£áĪŃáĬŃ
ĠÙ
áīłáĭįáĬķ
ĠáĬ¨áīĢáĭµáĪŀ
ĠáĭĪáĬķáĭŀ
ĠáĭķáĭŃáī³
áĪ°áĪĽáĬĿ
Ġáĭ°áĪ¨áĮĥáĬķ
ĠáĬ¦áĪŃ
áĬķáĪ³
áĬķáīĢáĮłáīĢ
ĠáĪµáĪĭáĪĭ
Ġáī¥áĪŃáĪĥáĬĳ
Ġáī°áīĭáīĭáĪĺ
49
Ġáī°áĭ°áĪĿ
ĠáĬłáĭŃáĪŃáĪ±
ĠáĬłáĭĪáīĥáīĢáĪŃ
ĠáĬ¥áĬĸáĪ«áĪĪáĪģ
ĠáĪĪáĪģáĪĭáī½áĬķáĪĿ
ĠáĬłáĪįáĪĺáĮ£áĪĿ
Ġáĭ¨áīµáĪŃáįį
ĠáĬłáĮ¥áĬķáīµ
Ġáĭ¨áī°áĮłáīĢáĪ°áĭį
ĠáĬłáĭŃáīĢáĪ¬
Ġáĭ¨áĬķáĮīáĪ¡
áĪĺáĮ¡áīµ
ĠáĬłáĭ°áĪ¨áĮĥáĮĢáīµ
ĠáĪĪáĪĺáīħáĪ¨áįį
Ġáī°áĪĺáĭĿáĮĭáī¢
ES
ĠáĪµáĪķ
Ġ56
ĠáĭĺáĬķáĮį
áīĭáĪĿ
áįĪáĪĪáĮīáīµ
Ġáĭ¨áī°áīĨáĪ«
ĠáĪĪáĪĽáĪĺáĪįáĬ¨áīµ
Ġáīłáī¡áĭµáĬķ
ĠáĬĲáĪħáĬĵ
Ġáī°áĪĭáĪį
áī£áĪįáĬķ
ĠáīłáĪ¨áĪĥ
áĬłáĬķáīº
Ġáĭ¨áĪļáĮłáī¥
ĠáĬŃáĪĪáī¡
ĠáĬłáĪµáī°áĪ³
áīĢáĪ¨áī¡
ĠáĬĵáĭŃáĮĦáĪªáĭ«
Ġáĭ«áīłáĪ¨áī³
ĠáĬłáĪµáīĨ
ĠáĪĽáĪĺáĪµáĮĪáĬķ
ĠáĬłáĪĭáĭ¨
ĠáīłáĪ°áĪĽáĭ«áīµ
ĠáĪ³áĭŃáĬķáī²áĪµáī¶áī½
áĪ©áĬĿ
ĠSp
ĠáĪĪáĬĲáĮĪ
Ġáīłáīµáĭ³áĪŃ
Ġáī°áĮĪáĪ¨
ĠáĪĪáĪĽáĬķáĪ³áīµ
Ġáĭ¨áĭ©áĬ¤áĪµ
ĠáĪĺáĬķáĭ³áīµ
ĠáĪĪáĪĺáĪĭáĭį
Ġáĭ¨áĪ°áĮ¡áīµ
Ġáĭ¨áįĵáĪŃáĪĭáĪĽ
ĠáĬ¾áĬĲáĭį
Ġáĭ¨áī½áĮį
Ġáī°áĪ¨áĮĭáĮįáĮ§áĪį
ĠáĪĺáĪĨáĬķáĬķ
áī¸áĮĪáĪŃ
ĠáĬ¥áĬķáĭŃ
ĠáĬłáĪµáĪĺáĪµ
ĠáįĪáĪįáĮĪáĭį
áĭ°áĪŃáĮīáĪĿ
ĠáĬ¥áĪĿáĪĭáĪĪáĪģ
áĭĪáĭŃ
Ġáĭ«áĪĪáī¥áĬĿ
áĮ»áĪī
áīłáī³áĪĪáĬķ
ĠáīµáĪĦáĭ³
áĮĪáī±
áĮłáĪįáĪĿ
ĠáĪĪáĮİ
áĬłáĪľáĪªáĬ«
Ġáĭ¨áĪļáĪ»
ĠáĪĪáĪĽáĪĪáįį
áĬ®áĪĿ
ĠáĬłáĭµáĮĵáĪį
ĠVPN
ĠáĬ¥áĭ«áĭ°áĪ¨áĮįáĬķ
áĭ«áĪĽ
áĬłáī¸áĭįáĬķ
ĠáīłáĬłáī£
áįĪáĪįáĮĪáĬĿ
áĮĭáĮĪ
áī¶áī¼áĬķ
Ġáĭ¨áĪ«áĪ³áī½áĬķ
Ġáĭ¨áĪ°áĮ¡
Ġáĭ«áĪµáįĪáĪįáĮĪáĬĽáĪį
áĬķáī±
Ġáīłáī¥áĪĶáĪ«áĭĬ
áĭ«áīµáĬķ
ĠáĬłáĭŃáīĨ
áĮłáīĢáĪĺáĭį
ĠáĬłáīµáĪµ
ĠáĬ¥áĬķáĭ°áĪĽáĪĪáīµ
ĠáīłáĭĺáĪĺáĬĵáĭĬ
áĬķáĮĭáįĸáĪŃ
áĭĭáĬķáĭ³
Ġáĭ¨áĪļáĭ«áĭĪ
ĠáĭĪáĭ³áĮħáĬĲáīµ
ĠáĬłáīĥáįĬ
ĠáĬłáĪįáĬĲáīłáĪ«áī¸áĭįáĪĿ
ĠáĮĢáĪĺáĪ¨áī½
ĠáĬ¥áĪĺáĪĪáĪ³áĪĪáĪģ
áĪ«áĭįáĬķ
áĪĢáĪĪáĪģ
ĠáĭĿáĪŃáĭĿáĪ®áī½áĬķ
ĠáĭįáĪ¨áĭµ
ĠáįĪáĪ¨áĪ°
Ġáī£áĪĪáī¥áĭĻ
ĠáįķáĪ®áī¶
ĠáĬ¥áĪŃáĮįáĭĿáĬĵ
ĠáĬ¥áĭ¨áīĢáĬĲáĪ°
ĠáĪĪáĪĽáīĭáīĭáĪĿ
áĮĪáī£áĬķ
ĠáĪĲáĪ¨áĮį
2015
ĠáīłáĪĺáĪµáīĢáĪį
Ġáī¸áĪŃáĬĲáīµ
ĠáĮĪáĪĪáĮ¸
áĮįáīµ
Ġáĭ¨áī±áĪŃáĬŃ
Ġáĭ«áīħáĪŃáī¡
ĠáĪįáĮĨáī»áī½áĪģ
ĠáĬ¥áĮĥáī¸áĭįáĬķ
áĪĺáĪµáĪī
Ġáĭ¨áĪ«áĪµáĪħáĬķ
ĠâĹı
ĠáĭŃáī£áĪį
áĭ«áī½áĬķáĬķ
áĪ³áĪĪáĪħ
Ġáĭ¨áĬ¥áĪŃáĪµ
ĠáĪĺáĪ³áĪªáĭ«áĭİáī½áĬķ
ĠáĪĺáĪµáĪħ
ĠáįķáĪ®áĮĦ
ĠáīłáĪķáĮĪ
ĠáĪĪáĬłáī¥áĭĽ
sh
áī¥áĬĿáĪĿ
Ġ2003
ĠáĬłáĪĺáĪ°áĮįáĬķ
áįķáĪ¬áĭļ
ĠáĬ¥áĭ¨áĪŀáĬ¨áĪ©
Ġáĭ¨áĬ¥áĬĲáĪ±áĬķ
áĮ¥áĪ¬
áįĸáĪĬ
Ġáī°áĪŃáįİ
áĮĭáĬĴ
Ġáĭ¨áĪĺáĮłáĮ¥
ĠáīłáĪĽáĭ¨áīµ
áīĢáīłáĪīáīµ
ĠáĪ°áĮ¥áī°áĭį
Ġáī°áĪ°áī¥áĪµáīłáĭį
ĠáĬ¨áī¡
ĠáĬĲáĮĪáĪŃáĪĿ
ĠáĬłáĪµáīĢáĭµáĪľ
Ġáĭ¨áĭĪáĪĪ
Ġáī£áĪĪáĪ¥áĪįáĮ£áĬķ
Ġáĭ¨áĪĺáĪĺ
Ġáĭ¨áī¥áĪĶáĪ«áĭĬ
áĭĺáĬķáĮĭáīµ
ĠáĭĺáĮįáĭŃáī¶
ĠáįįáĪŃáĪĥ
ĠáĬłáĭ°áĪ®áī½
se
ĠáĪ³áĪµáīłáĭį
áī³áĭįáīģáīµ
áĬ¨áĬŃ
ĠáĪĽáĬĵ
ĠáĭµáĪŃáī¥
áĪ£áīµ
ĠáĪĪáĪ«áĪµáĭİ
ĠáĬ¥áĮłáĪ«
áī³áĭ©
áĭ°áĮĭáĭį
ĠáĬ¨áĪĨ
ĠáĪĪáĪ´áīµ
ĠáīłáĪ«áĪµáĭİ
Ġáī³áĪ³
Ġáĭ¨áĬłáĮĪáĪ«áī½áĬķ
áī¤áī³áī¸áĭį
ĠáĪĿáĬķáĬĽ
áĬķáĭ°áĪŃáĪµ
ĠáĪĺáĭĭáĮ®
ãĥ
Ġáĭ«áĮ¥
áĪ¸áĪ½
ĠáĪĺáĪĪáĪ±
áĬĵáĪĪáī½
áĪ©áī³áĪį
Ġáī³áĪĿáĬĵ
Ġáĭ«áĭįáīģáī³áĪį
ĠáĬ¥áĬķáīĨáīħáĪįáĪ½
ĠAr
áĪĪáī¶áī½
áī¶áĬĵáĪį
ĠáĪŀáĪįáī¶
ĠáĪŃáĬ¥
Ġáĭ±áĬ«
ĠáĬłáīģáĪĿ
ĠáĪĺáĪ£
ĠáĪĿáĬĳ
ĠáĮİáĪįáĪĽ
áīłáĭ°
áĬŃáĪ«áĪī
ĠáĬ¥áĬķáĭ°áĪļáĪį
áī£áīµáĪª
ĠáĬ¨áĪļáĮĪáĬĻáīµ
ĠPay
ĠáĪĺáĬĸáĪ«áī¸áĭį
ĠáĪĪáĮł
ĠáĪ²áĬ¾áĬķ
áĮ½áĪĿ
áīĭáĪŃ
Ġáĭ«áĭĪáĮ£áĪį
ĠáĪĿáĬķáĭĽáĪª
ĠáĭĵáĪ¨áįįáī°
ĠáĬķáĮ¥áĪį
ĠáĬłáĪĺáĪĭáĬ«
Ġáī£áĪįáĭ°áĪ¨áī£
ĠáĭŃáĬ¼áĬķ
ĠáĪĿáĬŃáĪ®áī½áĬķ
ĠáĮ¸áĪİáī¶áī½
Ġáĭ¨áĬłáĪĺáĮĭáĮĪáī¥
ĠáīĢáĪĪáīłáīµ
Ġáī°áīĢáī£
Ġáĭ¨áĮİáĭ°áĪĪáĭį
ĠáĭįáĪµáĮ¤
ĠáĪĪáĪĺáĭĿ
Ġáĭ¨áĪĿáĬĸáĪ¨áĭį
Ġáĭ¨áĪ«áĪ´
Ġáĭ¨áī³áĭ¨
ĠáĬłáįįáĪŃ
ĠáĪĪáĭįáĮ¥áĬķ
ĠáĬłáĬķáĭ°áīłáīµ
ĠáĬ¥áĬĲáĭļáĭ«áĪĿ
ĠáĭŃáĬ¸áĭįáĪį
áĮ£áĭ®áī¹
ĠáĮįáī¦áī½áĬķ
ĠáĬķáĬŃ
ĠáĪĪáĬłáĮĪáĪŃ
ĠáĬ«áįĴáī³áĪį
Ġáĭ¨áĭµáĪŃáĮħáī±
ĠáĪµáĪªáī¶áī½
ĠáĪĪáĪ±
áĬłáĪģáĬķáĪĿ
áĮĭáĮį
ĠáīµáĭŃ
Ġáĭ¨áĮ¥áįĭáīµ
ĠáĭľáĬĵáĭĬ
ĠáīĢáīłáĪĮ
ĠáĬ¥áĬķáĭį
ĠáĮĪáī£áĬĿ
áīģáĪŁáĪį
ĠáĬĵáī¸áĭī
áĮĢáĪĺáĪŃáĭ«áĭį
Ġáĭ¨áĮ«
ĠáĪĪáĪŀ
ĠáīłáĬłáĪ¥áĪ«
ĠáīĢáĬķáĪ·áĪį
Ġáĭ¨áĪĢáĮĪ
áĪĪáįĭ
Ġáĭ¨áī°áĪ°áĪ©
ĠáĪģáĪĪáī°áĬĽáĭįáĬķ
Ġáī°áĬ¨áĪĭáĬ«áĭŃ
ĠáĪĽáī´áĭİáĪµ
ĠáĬłáĭŃáĭĺ
Ġáī°áĪĪáĭ«áĭŃ
áĪĶáĭµ
ĠáĪļáĪį
ĠáĭŃáĮłáįĭáĪī
ĠáĬ¥áĬķáĭ³áĭ¨
ĠáīłáĪįáī¡
ĠáīłáĪĽáĮįáĬĺ
ĠáĪĽáĮ¨áĪµ
Ġáĭ¨áĭ´áĪŀáĬŃáĪ«áĪ²
ĠáĭŃáĮĵ
ĠáĮįáĪĭáĭĬ
ĠáĬłáĭ«áīµ
Ġ85
ĠáīłáĪĺáĪ¨áĮĥ
áĪłáĪ«áīłáīµ
ĠáĪįáī¥áĪħ
áĭĸáĬķáĪĿ
Ġáĭ°áĮĭáĮįáĪľ
ĠáĪķáĮįáĬķ
áĭµáĪ«
áįĪáī°
Ġáī¤áĬķ
ĠáĪĺáĮłáĮĬáĭ«
Ġáĭ¨áĪĿáīµáĪĪáĭį
ĠáĪĪáĪĽáĪ³áĭĪáīħ
ĠáīµáĭķáĭĽáĭŀáī½
ĠáīĨáĮ£áī¢
Ġáī°áĬ¨áįĭ
Ġáĭ«áĪīáīłáīµ
áĭŃáĭĺáĭį
ĠáĬ¨áĪĺáĪĨáĬĳáĪĿ
ĠáĬ¥áĬķáĭ°áĪĿáī½áĪį
ĠáĪ°áĪĿáī°áĬĵáĪį
ĠáĪ¹áĪĺáīµ
áĮłáĪ«áīĢáĪļáĭ«
áĪĭáī³áĪį
áĭĬáĪµ
Ġáĭ¨áī°áĮłáīĢáĪ±áīµ
ĠáĪĽáĭĭáīĢáĪŃ
áįķáĪµ
ĠáįĪáīĥáĭ°áĬŀáī½
ĠâĻ
ĠáĬłáīħáĮ£áĮ«áĭİáī½
ĠáĬłáĪ½áĬ¨áĪŃ
ĠáīĢáĭ°
ĠáīĢáĮŃáĬķ
ĠáĭµáĮįáĪµ
Ġáī°áĬ¨áī°
ĠáīħáĬĿáīµ
áĪĤáĪĿ
ĠáīłáīµáĬ©áĪ¨áīµ
Ġáī¥áĪŃáī³áīµ
ĠáīłáĭĵáĪī
")
ĠáĬłáĮ¸
áīłáĭµ
ĠáĬ¨áĬ¥áĭį
Ġáĭ«áĪĿáĬĵáĪį
áįĨáī³
ĠáīĢáĮ¥áĪį
ĠáĪīáĭĵ
áĬłáĭį
ĠáĬ«áĭļáĬĸ
ĠáĬ¨áĬ¥áĮįáĭļáĬłáī¥áĪĦáĪŃ
áĭĿáĪĿáī³
ĠáīłáĬłáĬ«áī£áī¢
áįĪáĮ½áĪĻ
ĠáĪĺáĪĲáĪĺáĭµ
Ġáĭ¨áīłáĭĵáĪį
ĠáĭĪáĭ°áī³áī½
ĠáĭĪáīħáī¶áī½
ĠáĭµáĪĿáĮ»
ĠáīłáĪ¦áĪµáī°áĬĽáĭį
ĠáĬ¥áĭµáĪĪáĬĽ
ĠáĪ°áĪĿáī¼
áĮ£áĬĵ
áīĥáĭµ
ĠáīłáĪĺáĮłáīłáīħ
ĠáĮĪáĭ³áĪĿ
ĠáĭµáĪĺáīµ
ĠáĬ¢áĬķáī°áĪŃáĬĵáĪ½áĬĵáĪį
ĠáĪĢáīµáĪªáĬŃ
ĠáįĢáĪİáīµ
Ġáĭ«áĪµáĮĪáĬĽáĪį
Ġo
áĮĢáĪĺáĪ©áīµ
áĪĺáĮ£áĮłáĬĲ
ĠáįĭáĭįáĬķáĭ´
Ġáĭ¨áĪļáĭ«áĪµáī¥
áĮĪáĭ°áĪį
ĠáĪĺáĪµáĪİáĬĿ
áĪįáī¥
ĠáīłáĪĿáĭķáĪ«áī¥
ĠáĬłáī³áĭįáīģ
ĠáīħáĮ½áīłáīµ
ĠáīłáĪŃáĮįáĮ¥áĪĿ
áĪ¬áĪĿ
ĠáĬłáĪįáįĪáĭĭáĪį
ĠáĬ¥áĬķáĭ²áĭ«áĮĪáĬĿ
ĠáīłáĪįáĮĨáī½
ug
Ġáĭ¨áĮ¦áĪŃáĬĲáīµ
áī¥áĭŃ
Ġáĭ«áĬĲáĮĭáĮį
Ġáī°áĬ¨áī³áīµ
ĠáĬłáĪµáĮĪáĭµ
ĠáĬłáī¥áīħ
ĠáĪŃáīĨ
ĠáĪįáĮĨáī»áī½áĬķ
ĠáĭŃáĪĺáĪĪáĬ¨áī³
ĠáĪ³áĪĿáĪ°áĬķáĮį
Ġáĭ¨áĪļáĭ«áīĢáĪŃáī¥
ĠáįħáĪģ
ĠáĪĪáĪĢáĮĪáĪŃ
áĪĺáĪįáĮ¥
áĪ°áī¡áīµ
Ġáĭ¨áĭ´
ĠáĬ¨áī»áĪī
ĠáīłáĬ¢áĪľáĪį
ĠáĬĸáĬħ
ĠáĪĺáĪĨáĬĵáī½áĬķáĬķ
Ġáī°áĪ°áĮ¥áī·áĪį
Ġáĭ¨áĮłáīħáĪĭáĭŃ
ĠáĭŃáĭ°áĪŃáĪµ
ĠáĪķáĬķáįĥáĭİáī½
ĠáįĨáī³
Press
Ġáĭ¨áĬłáĬŃáĪ²áĭ®áĬķ
áī±áĬķáĬĵ
ĠáĪĤáĪ³
ĠáĮĪáī¥áĪŃ
ĠáĪ¸áĭĭ
ĠáĮĪáī¥áĬĲáīµ
Ġáī£áĬķáĬ©
ock
ĠáĬłáĪĿáī£áĪ³áĭ°áĪŃ
ĠáĭŃáįĪáīħáĭ³áĪį
áĪļáĭ¨áĪŃ
Ġáĭ¨áĪļáĪĺáĪĪáĬ¨áī±
Ġáĭ¨áįĢáĪ¨
áĮ¸áĪįáĭ©
áĪĪáī°
ĠáīłáĬ¥áĪŃáĪ·
áĬĸáĪ«áī¸áĭįáĪĿ
áĬĲáīłáĭį
áĬŃáįįáĪį
áĬ¦áīµ
ary
ĠáĪĺáĭĺáĪŃ
ĠáĬłáī¥áĬķ
Ġáĭ¨áĬĲáĮĪáĪŃ
ĠáĬ¨áĬ¢áĭ¨áĪ±áĪµ
áĮħáĬĵ
ĠáĬ«áĭ¨
Ġáī¥áĪįáĮ¥
ĠáĭŃáĪĽáĪ«áĪī
áĭµáĪ¶
ĠáĬŃáįĭ
áĬ¨áĪĽáī¹
ĠâľĶ
Ġáĭ¨áįĪáĪĪáĮĪáĭįáĬķ
ĠáĪĬáĮłáīĢáĪĻáīłáīµ
ĠáĭįáĪ³áĬĶáĭį
ĠáįĬáĭ°áĪĭáīµ
Ġáĭ¨áī³áĭĪáīģ
áĪ«áĪµáĭİ
ĠMicrosoft
Bet
ĠáĬłáĭ°áĪŃáĮĪ
ĠáĪĪáĪĺáĪĺáĪµáĪ¨áīµ
ĠáĬłáĪµáĮł
ĠáĪĪáĬłáĪĿáĪµáīµ
ĠáĬ¥áįĪáĪ«
ĠáĪĺáĭ°áĪŃ
ĠáĪµáįĶ
ĠáĭįáĬŃ
ĠáĬłáī¥áĪ«áĪŃ
áĪ¥áĪŃáĭĵáīµ
ĠáĬ¥áĪµáĪ«áĬ¤áĪįáĬķ
áĬķáĭ·
Ġáĭ«áĪ¸áĬķ
Ġáĭ¨áĪļáĬĲ
áĬĲáĪ³áĪĿ
ĠáĭĪáĬķáĭµáĪŀáī¹
ĠáĬķáĮ¥
Ġáīłáī°áĮ¨áī£áĮŃ
ĠáĪĺáĬ¨áīłáĪŃ
ĠáĪĪáĭĪáĮ£
Ġáī°áĪĪáĭŃáī°áĭį
ĠáĭŃáĭ«áĭĻ
ĠáĮ¥áīĤáī¶áī¹
ĠáīłáĮ«
ĠáĪĺáĮĢáĪĺ
ĠáĭĪáĪįáĭµ
ĠáĬłáĪµáī¡
Ġáī°áĮĪáĭ¢
áĭ°áĬĲáīħ
Ġáĭĺáĭ´áĭİáī½áĬķ
Ġáĭ¨áĪĺáĮĢáĪĺáĪŃáĭ«
Ġáĭ¨áĮĪáī¡
ĠáĭĿáĪĿáĭµáĬĵ
ĠáĪķáĭŃáĭĪáī±áĬķ
áĪİáĪĿáī¢áĭ«
ĠáĬłáĭŃáĭ°áĪĭáī½áĪģáĪĿ
ĠáĬłáĬķáĮĪáīµ
áīłáīĥáĪĿ
Ġwrote
ĠáīłáĬĸ
ĠáĪĬáĪį
Ġáī¢áĮ«
Ġáĭ¨áĪļáĮĪáī£áī¸áĭį
ĠáĬłáĪĺáĮ¡
áĪŁáĬķ
Ġáĭ¨áĮ¥áĮĪáĬĵ
ĠáĬłáĬķáī£áī¢áĭİáī½
áĮĥáī¸áĭį
áĬ¨áĪįáĬ¨áĪį
Ġáĭ¨áĪļáĭ«áĭįáīģáīµ
ĠáįĸáĪĪáī²áĬ¨áĬĽ
áĪĺáįħ
ĠáĪĺáī°áĮįáīłáĪŃ
ĠáĪĺáĪłáĪ¨áī°
ĠáĬłáĭ°áĪŃáĮį
ĠáĪĪáĮĢ
ĠáĪ°áĪŃáĮ¥
ĠáĬ®áĪĿáįĴáī°áĪŃ
ĠáĪĿáĮįáī¦áī½áĬķ
Ġáī°áĮİáĭµ
Ġáĭ¨áįĪáĪĪáĮīáīµáĬķ
áī³áĪĪáĪħ
ĠáĬ¥áĬķáĭ°áĪĨáĬĲáī½
Ġht
ĠáĪĪáĭ¨
Ġáĭ¨áī°áī£áĪ¨áĬ¨
áĭ®áĪŃáĮĬáĪµ
Ġáī£áĪĪáĭµáĪŃáĪ»
lic
áīħáĭ±áĪµ
áīłáī¡
ĠáĪµáĪįáĬ©áĬķ
Ġáĭ¨áĪ¥áĪįáĮ£áĬķ
ĠáĬĲáĮĪáĪ¨áĭį
ĠáĭĪáĭ²áĪħáĪĿ
ĠáīłáĬķáīĥáīµ
ĠáĭŃáĭ³
ĠáĭĪáĮ¥áī·áĪį
Ġáĭ¨áīħáĬķáĮ¦áīµ
Ġáĭ¨áĬłáĬķáĭµáĬĲáīµ
ĠáĬ¬áĬŃ
ĠáĬ¥áĮĦáĬķ
ĠáĪĽáĪµáī³
Ġáĭ¨áĪļáīłáĪĭ
Ġáī¢áĭĿáĬĲáĪµ
ĠáįĸáĪµáīµ
áĬķáĭ°áĬĽ
áīĥáī±
Ġ250
ĠáīłáĭĪáĮ£áīµ
áīĢáĪ¨áĭį
Ġáĭ¨áĬ¢áĪľáĭŃáĪį
áį»áį
Ġáĭ«áĮĪáĬĺáĭį
Ġáĭ¨áĪļáĮİ
ĠNet
Ġáĭ¨áĬłáĪģáĬĳáĬķ
ĠáĮ¢áĪŀ
ĠáĭŃáĪ»áĪĪ
áĪ©áĬĵ
áĬ³áī½áĪģ
ĠáįĵáĪŃáī²áĭį
Ġáī°áĮįáĭ³áĪ®áī¶áī½
):
Ġáī°áĪĺáĪĪáĬ¨áīµ
ĠáĪģáĬ¨áīµ
ĠáĪĽáĪħáīłáĪ¨áĪ°áī¡
ĠáĭŃáĮłáĭŃáīĥáĪī
Ġáĭ¨áĪļáĭĪáĪµáĭ°áĭį
áĭĽáī±
ĠáĭĪáīħáīµáĪĿ
ĠáĪĽáĪĪáīĤáĭ«
áĭļáī½
áĬ®áĪľ
áĭĪáĪŃáĭ±
áĭĿáĬĵáĬĵáīµ
áĮłáįĪ
áĬĽáĪĭáī½áĪģ
áĮ¾áī³
ĠáįĬáĪįáĪŀáī½áĬķ
Ġáĭ¨áĮĨ
Ġáĭ¨áĬĭ
áĪļáĪį
áĪ±áīłáīµ
áĬķáīĢáĮ½
áįĭáįĭáīµ
ĠáĬłáĪįáĭ«áĪĿ
ĠáĪĽáī¥áīĤáĭ«
Ġáĭ¨áī»áĪį
ĠáĬłáĭ©
áĮĪáī¤
áī£áĬĸáĪµ
ĠáĮ¥áĪ©áĭįáĬķ
2010
áĪµáī°áĬĵáĮį
ĠáĮİáĬķáĭ°áĪŃ
ĠáĪĺáĮįáĪĪáĮ«áĭį
áĭĽáĪĺáĭµ
Ġáĭ¨áī³áī°áĪĺ
ĠáĭµáĪĿáĭ³áĪľ
ĠáīłáĬŃáįįáĪį
ĠáĭįáĪŃáĭ°áīµ
ĠáĭŃáĬ¨áĪĭáĬ¨
ĠáįĪáĮ¥áĪ®
ĠáĪĿáĪŃáī³áĪĽ
ĠáĬłáĬķáī°áĪµ
ĠáĮ½áįĮ
áĭĪáĪµáĭ°áĭį
ĠáīµáĪŃáĬ¢
ĠáĬ¥áĬķáĭ²áĭ«áĭįáīģ
ĠáĬłáĪĿáĭµ
áĬ§áĪ¨
ĠMar
ĠáĪĺáī¥áī±
ĠáīłáĪĻáĪ´
Ġáī³áĭ°áĪŃáĮĭáĪĪáĪħ
ĠáĬĲáĮĪáĪ«áī¸áĭį
ĠáīłáĪĿáĭķáĪ«
áĪµáĭµ
ĠáĬłáĭŃáĮłáīĢáĪĻ
ĠáĪįáĭķáĪį
ĠáĬłáĭµáĪŃáĮĵ
ĠáĬ¦áĪĬ
ĠáĪķáĭŃáĭĪáī´áĬķ
ĠáĭĪáĪ°áĬķáĬ©
ĠáĪĺáĪµáī³áĭĪáīµ
TS
Ġáīłáī°áĭ°áĪ¨áĮĪ
áĪĦáĭµáīłáīµ
ĠáĪŃáĪĿáĮĥ
ĠáĪĿáĭµáĪŃáĪĿ
ĠáĭĺáĮįáī§áĪį
ĠáĬ¥áĭ¨áĭ°áĪ¨áĪ°
ĠáĪŀáī·áĪį
áĮłáįĭáĭį
áīĢáĬĿáĬĲáīµ
áĬĸáĪ«áĪĪáĬķ
áĮ½áĪŃ
ĠáĬ¥áĪŃáĮįáĪĽáĬķ
ĠáĬłáĪµáīĢáĪĿáĮ¥
ĠáįĪáĪįáĮį
Ġ53
áī£áĪ¨áĪŃ
Ġáĭ«áĬ¨áĬĵáĭį
ĠáĭįáĪĢ
Ġáī°áīĢáīłáĪī
ĠáĪĺáįįáīµáĪĦáĭį
Ġáĭ¨áī°áĪ°áĮłáĭįáĬķ
ĠáĬ¥áĬķáĭµáĬķáĪĨáĬķ
ĠáīłáĭĿáīħáī°áĬĽ
ĠáīłáĪ«áĪµáĪħ
Ġáĭ¨áĪļáīĢáĪŃáī¡
áĮīáĭĿ
Ġáī¢áĬĸáĪ©
ĠáĪĽáĭķáīłáĪį
ĠáĬłáĬĵáĪ³
ĠáĭĺáĪ¨áĬĿáĬĲáīµ
Ġáī°áĪ½
ĠáīĨáĪľ
ĠáĭŃáĪĦáĬĶ
ĠáĪĺáĭ°áī¥áĪ®áī½
Ġáī³áĮĪáĬĽáĪĭáī½áĪģ
ĠáĭŃáĭĪáĭ°
áĪ°áī¦áī½áĬķ
áįĪáī±
Ġáĭ¨áĪĽáĭŃáīĢáĪŃ
ĠáĪ´áĬķáīµ
ĠáĮ¸áĪįáĭ©
ĠáĬ¥áĬķáĭ²áīĢáĮ¥áĪį
ĠáĪļáĪľ
áĪ¾áĪĺ
ĠáįįáĬķáĭ³áī³
áĬŃáĬķáĭ®
ĠáĭŃáīĨáĪĽáĪį
ĠáīłáĪŀáī£áĭŃáĪį
áĪµáī°áĭ³áĭµáĪŃ
Ġáīłáĭ«
ĠáīłáĬ¥áĪŃáĪ³áī¸áĭį
Ġáĭ¨áĪļáĭ«áĪ¨áĮĭáĮįáĮ¥
Ġ195
áĪ°áĪĻáĪĿ
ĠáĬ¨áĪĢáĮĪáĪŃ
2020
Ġáĭ¨áĪļáĮĪáī£áĭįáĬķ
Ġáĭ¨áĬłáĪµ
ĠáĪ³áĭį
ĠáĪĬáĬĸáĪŃáĭİáīµ
ĠáīłáīµáĭķáĮį
áī°áī±
Ġ120
Ġáīłáī°áī£áīłáĪ©áīµ
99
ĠáĪģáĪĭáī½áĪģ
Ġáĭ¨áĪĺáĮłáīĢáĪĿ
ĠáĭŃáĮĪáĭ°
Ġáĭ¨áĪĽáĭ«áīĭáĪŃáĮ¥
ĠáĪĬáįĪáĮłáĪŃ
ĠáĭŃáĬ¨áīłáĪ«áĪį
áĭĺáĪŃáĪĭáĬķáĭµáĪµ
ĠáĮ¥áĪ°áīµ
ĠáĪĺáĪĪáĬ®áī³áĭĬ
ĠáĬłáī³áĭµáĪŃáĮį
ĠáĬłáĪ¸áī£áĪª
ĠáĭŃáī£áĪĭáĪī
Ġáĭ¨áĪĭáĭŃáĬĽáĭį
Ġáĭ¨áĮįáĪ«
Ġáĭ«áĪĽ
áĪ¸áĪ¸
Ġáĭ¨áī°áĬ«áĪĦáĭ°áĭį
ĠáĬ¨áĬ¥áĪŃáĪ·
ĠáĬ¥áĭ«áĭ°áĪ¨
ĠáĬ¨áī°áĮĪáĬĺ
ĠáĭŃáĬķáĮĪ
ĠáĪĺáĪĲáĬķáĭ²
ĠáĪĺáĮ£áī½áĪģ
ĠáĪļáĬķáĪµáīµ
ĠáĮ½áĭµ
ĠáĪĺáįįáīĢáĭµ
ĠáīłáĪĺáĮįáĪĪáĮ½
))
áĪ¨áĬĽáĪį
ĠáĪ°áĪ«áĪ½
ĠáĪ²áĭ°áĪ¨áĮį
ĠáĪĺáī°áĬ«áīµ
ĠáĬ¨áĪĽáĪµ
ĠáĭµáĮįáĮįáĪŀáĪ½
Ġáĭ¨áĭ«
áĬķáĭ¨
ĠáīłáĬłáĪģáĬķ
ĠáīłáĪķáĭŃáĭĪáī±
ĠáĪĺáĮĪáī£áĭ°áĮĥ
Ġáĭ¨áĪļáįĪáĪį
ĠáĬ¥áĬķáĭ°áĪļáĭ«áĭ°áĪŃáĮį
ĠáĬ¨áĬ¥áĬĲáĭļáĪħáĪĿ
Ġáĭ°áĮįáĪľ
ĠáĬ¤áĪĿáī£áĪ²
áĪĪáīĥ
áĪłáĪ¨áī±
áĮĪáĪĪáįħ
Ġáī°áĬ¨áĬĵáĭį
ĠáĮİáĪ¨áī¤áīµ
ĠáĬ¥áĬķáĭ°áĪļáĪ°áĮ¥
PA
ĠáĬĲáīłáĪį
Ġáī°áīĢáĪĿáĮłáĭį
ĠáĭŃáĭĪáĪ°áĬĵáĪį
Ġáĭ¨áĬķáĮī
áĪħáįįáīµ
ĠáĮĪáĪĭáĮŃ
ĠáĬłáĪŃáī³
áĮĪáĭ°áĭµ
Ġáī½áĮįáĪ«
ĠáĭŃáĪĺáĪµáĮĪáĬķ
ĠáīĢáĪŃáī·áĪį
áĬķáĬ©
ĠáĪĺáīĥáĭĪáĪĿ
ĠáĬłáĮĪáĪ¬
Ġáī°áĪĺáĪįáĪ·áĪį
ĠáĮįáĮ¥áĪŀáī½
ĠáĪĺáĮ£áĮ¥áįİáī½
ĠáĪįáīł
ĠáĪĺáĮįáĪĪáįħ
Ġáĭ±áī£áĭŃ
Ġáīłáī¶áĪİ
áĪ®áĪ®
áĬĸáī»áī¸áĭį
áĮĢáĬŃáīµ
ĠáĬ¥áĪħáī´
ĠáĭĪáĪ«áī¶áī½
áįįáĬķáīµ
áĪļáĬĴáĪµáīµ
ĠáĬ¨áĬķáī²áī£
Ġáĭ¨áī°áĬĵáĮĪáĪŃ
ĠáĮĪáī¥áĪ¨
áĬķáĮįáĭ³
ĠáĭĪáĮ¥áĪĺáĭµ
ĠáīħáĪŃáĮ¸áī¶áī½
Cloud
ĠáīłáĬ¥áĪµ
ĠáĮ¤áĬĲáĬĽ
áĪĭáĪļ
áĪªáĭİáī¹
Ġáī¥áĪ¶
ĠáĪĪáĬłáĭ²áĪ±
Ġáī¥áĪĦáĪ¨
ĠáĭŃáĮĪáĬĵáĬĻ
áĮĪáĬĲáī¡
ĠáĪĿáĮ½
Ġáī³áĪªáĬ®áī½áĬķ
ĠáĪĽáĮ«áĭĪáī»
ĠáĬ¥áĬķáĭ°áĪĨáĬķáĬķ
ĠáĬ¥áĭ¨áĪ±áĪµ
ĠáĪĺáĪµáī°áĮĭáī¥áĪŃ
áĬĲáī½
Ġáĭ¨áĬłáįĪ
ĠáĭĪáĪ¨áĪ«
ĠáĪĪáįĵ
ĠáĪŀáīĥáīµ
ren
ĠáĪģáĪĪáĬķáī°áĬĵáĭĬ
ĠáĭŃáĬĵáĮĪáĪ©
áĭŃáĪħáĬķáĬķ
ĠáīłáĪĺáĪĨáĬĶ
ĠáĬ¥áī¤áīµ
Ġáī°áĮłáĬĵáīĢáīĢ
Ġáī£áĮŃáĪ©
ĠáĪĺáĮłáĬĵ
Ġáĭ¨áĪ³áĬķ
ĠáĪµáĪĿáĬķ
áĪ©áĬŃ
áĮįáīłáĭį
Ġáī°áĭĪáĪĭáĮĨáī½
ĠáĮĢáĪĺáĪŃáĬķ
áįįáĪ¬áĪĿ
áĭİáī»áī½áĪģ
ĠáĬłáĪįáĪĽ
Ġáĭ¨áĪļáĭ«áĭ«áĭĿ
áĪ¨áĭ³áĬĿ
ĠáīłáīłáĮİ
ĠáĬłáĭŃáĮĪáī£áĬĿáĪĿ
ĠáĭĺáĪĮáĭĭáĭįáĭ«áĬķ
ĠáĬłáĭŃáĪĨáĬĳáĪĿ
ĠáĬ¨áĬłáĭį
áĮįáĪ«áĪĻ
ĠáīħáĬĵáĪ¾áī½
ĠáįįáįĥáĪľ
ĠáĬ¨áĪĺáĪĿ
ĠáĪ»áĮŃ
áĮ³áĭįáĪİáĪµ
Ġáĭ¨áĪĮáĪĭáĭįáĬķ
ĠáĭµáĪĿáįģáĬķ
áįĥáįī
ĠáĬ¨áĬĲáĮĪ
ĠáĭŃáĪħáīº
ĠáĬłáĮĪáĪ©
ĠáĪĪáĭ°áĬķáīł
ĠáĬ«áĪĿáįķ
ĠáĬ¥áĬķáĭ³áĪĪáĬķ
Ġáĭ¨áĭĪáĭ°áįĬáī±áĬķ
ĠáĮŃáĪĿáī¥áĪį
áĮ¸áĮ¸
áĪıáī¸áĭįáĬķ
Ġ66
ĠWordPress
áįĭáī¸áĭįáĬķ
ĠáĬłáĪĿáĪį
ĠáĬ¨áĪĺáĬ«áĬ¨
ĠáĬĸáĪ¨
ĠáĬłáĪ³áĪįáįĮ
Ġáĭ¨áīłáĪ¨áĪ«
ĠáĪĺáĪ°áĪ¨áī°
Ġáĭ¨áī¥áĪİáĮį
áĪļáĭ«áĭį
ĠáīłáĪĺáĪ¬áīµ
Ġáĭ³áĬŀáī½
áĪįáĮ£áĬĳ
ĠáĪµáĪĭáĪįáĪĨáĬĲ
áĮĪáĪŃáĪĿáĪĿ
áĪĺáĮ¨áĪ¨áĪ»
ĠáĪĺáĮª
ĠáĪ²áĪ°áĮ¥
áĮĪáĬĵáĬĺáĭį
Ġáĭ¨áĪĽáĭŃáįĪáĪįáĮī
áĬ©áĪŃ
Ġáĭ¨áĪĺáĮĵáĮĵáĭ£
áĪĺáĮ£áĪĪáĬķ
ĠáĬ¥áĪŃáĪµáĭĭ
ĠáįĮáĭ´áĪ¬áĪ½áĬķ
ĠáĬ®áĪŃáįĸáĪ¬áĪ½áĬķ
Ġáĭ¨áĪ¬áĭ²áĭ®
ĠáĬłáĪģáĬķáĪµ
Ġáĭ¨áĬĥáĮ¢áĬłáīµ
áĬĲáĮ£
Ġáī¶áĪĽáĪµ
Ġáī³áĭĭáīĤáĭį
ĠáĪ½áĪįáĪĽáī¶áī½
ĠáĬ¥áĬķáĮ¨
ĠáĬłáĮĪáĪįáĮįáĪİáī±áĬķ
Ġáĭ¨áĭ«áĭĿ
áįĪáĮ¥áĪŃ
áĪªáĭ«áĬķ
ĠáĪĪáĪĺáīĢáĪĭáīĢáĪį
ĠáĪĪáĪ«áĪ³áī½áĬķ
Ġáĭ¨áĪĿáĪµáĮĭáĬĵ
ĠáĮįáĮ¥áĪļáĭ«
Ġáī°áĪĺáĪįáĬŃáī°áĬĵáĪį
Ġáĭįáīħáĭ«áĬĸáĪµ
ĠáīłáĪĺáĬķáĮįáĪ¥
ĠáĭĵáĪĺáī³áīµáĬķ
ĠáĬłáĪ»áĬķáĮīáĪĬáīµ
áĪĭáĪĪáĪħ
Ġáī£áĭĪáĮ£áĭį
Ġáīłáī°áĪ³áĪ³áī°
ĠáĬĵáīµáĬĵ
Ġáī¤áĭĽ
áĭŃáī±áĬķ
ĠáĬ¥áĬķáĭ°áī°áĪĪáĪĺáĭ°áĭį
Ġáĭ¨áĪļáī½áĪīáīłáīµ
ĠáĪĺáĬ«áĬ¨áĪįáĪĿ
áĮłáīħáĪĭáĪĭáĭį
ĠáĬ¥áĬħ
ĠáĬ¥áĭ¨áĮłáīłáīģ
áĪķáĭ¶
áĪªáĮħ
Ġáĭ¨áĪĺáĬĲáĮ¨
áĬłáī¸áĭĭáĪį
ĠáĪ²áĭĺ
áĮĵáĪļ
ĠáĭŃáĮĪáĪŃáĪĺáĬĽáĪį
ĠáĪĽáĪŁ
áĮĥáĮĢ
ĠáĬ¨áī¤áī°áĪ°áī¦
BD
ĠáĬ¨áĪįáĮĨáī½
ĠáĪĽáī°áĪļáĭ«
ĠáĬ¥áĪ°áĪĽ
Ġáī£áĭ°áĪ¨áĮĪáĭį
áĮ¡áīłáīµ
áĬ¥áĪŃáĪµáĭİ
ĠáĬ¥áĬķáĪ°áĮ¥
Ġáĭ«áĬ¨áī¥
ĠáĭįáĮ¡
ĠáĮ¥áĭŃáīµ
ĠáĬ¥áĬķáĬĸáĪ«áĪĪáĬķ
ĠáīłáĪµáĪįáĮ£áĬķ
Ġáĭ¨áĬ¥áĭµáĪľ
Ġáĭ¨áĪħáĭŃáĭĪ
áĪ°áĮ¡áĪĿ
ĠáĬłáīłáīĥ
áĭ°áĪ¨áĮįáĪĿ
Ġáĭ¨áī½áĮįáĪ©
ĠáĭŃáĮłáīłáīħáīłáī³áĪį
ĠáĬ¥áĭĪáīħ
áī£áĪ«
áĬ«áĪī
ĠáĪ²áĮĪáī¡
Ġáī³áĪµáī³áĭį
ĠáįİáĪŃ
áĪ¨áī¤áīµ
ĠáĬłáĪµáīĨáĮ¥
Ġáĭ°áĪ¨áĪ°áĬĿ
áĪªáĪĿ
áĭŃáĭŃáī±
Ġáĭ«áĬŃáĪī
ĠáįĪáĭįáĪµ
ĠáĪĪáĬłáĬķáĭ³áĬķáĭµ
ĠáĪĬáĭ«áĪĺáĮ£
ĠáĪĪáĪĺáī°áĮįáīłáĪŃ
Ġáĭ¨áĪļáīĢáĪŃ
ĠáĬłáĭŃáīłáĪį
ĠáīłáĬ£
áĮĤáĭİáī½
áĪ°áĮłáĭįáĪĿ
ĠáĬ¨áĪĨáĬĲáĭį
ĠáĪĪáĬłáĪ«áīµ
Ġáīłáįİáī¶
ĠáĪĺáĬķáĮįáĪµáīµáĪĿ
ĠáĬ¥áĭ¨áĪ°áĮł
ĠáĬ¥áĬķáĭ³áĪ³
ĠáĬĲáīłáĪ¨áĬķ
ĠáĪĺáĭĪáĮ£áīµ
áįĪáĪªáĭ«
Ġáĭ«áĪµáīĨ
ĠáĬ¤áĪĮáĬŃáīµáĪ®
Ġáĭ¨áĪĺáĮĢáĪĺáĪªáĭ«áĭĭ
Ġáĭ¥áĪ¨áīµ
Ġáĭ«áĪµáī¸áĮį
ĠáĬłáĬ«áĪĤ
ĠáĭŃáĪŀáī³áĪī
ure
Ġáĭ¨áĮ¦
áĬķáĭļ
áĮ©áīµ
Ġáī°áĭ°áĪŃáĮĪáĭį
ĠáĪµáī±
áįĪáĪŃáĭµ
ĠáĪĢáīħ
ĠáĬłáī£áĪĭáīµáĬķ
Ġáĭ¨áī°áįĪáīĢáĭ°
ĠáĪĺáĪªáĬĲáīµ
Ġáĭ¨áĪ³áĪĿáĬķáī±
ĠáīłáĪĺáĭ°
Ġáĭ¨áĮ¥áĬķáīµ
ĠáĪ±áīĨáī½
Ġáĭ¨áĬ¨áī°áĪĽáĭĭ
áī£áĪĪáĪħ
áī£áĪªáĭİáī½
Ġáĭ¨áī°áĬ«
ĠáĬ¢áĪµáī³áĬķáī¡áĪį
Ġáī½áĭ«áĪĪáĪģ
áī³áĭįáīĢáĭį
Ġáĭ«áĭįáīĢáĭĭáĪį
Ġáĭ¨áī°áįĪáĮ¸áĪĺ
áĪ°áĪ©áĪĿ
ĠáĪĺáĪĪáĭ«áĭ¨áīµ
ĠáĭŃáĪ°áī¥
ĠáĪĬáĪ°áĮłáĭį
Ġ77
áīµáĪĿáĪħáĪŃáī±
ET
áĪ°áĪ©áīµ
Ġáīµáī¼
ĠáĪ°áĪŃáī¶
Ġ<<
ĠáīĢáĭµáĪĺáĭį
ĠáīłáĮĨ
áĮĪáīłáĪŃ
Ġáĭ¨áī°áĮĢáĪĺáĪ¨
Ġáĭ¨áī°áĭĺáĮĭáĮģ
Ġáī¥áĪŃáīħ
Ġáī°áĮłáĬĵáĬŃáĪ®
áĪ»áī¸áĭį
ĠáĭµáĪŃáīħ
áĪĺáĪ°áĮįáĬķ
Ġáĭİáī½
ĠáĭŃáĮĪáĪįáĮ»áĪī
av
ĠáĬ¥áĪįáįį
Ġ600
Ġáĭ¨áĪµáī¥áĪ°áī£
ĠáĪłáĪĭáĪ³
áĬ¨áĪĭáī½áĬķ
ĠáĬĳáĪ©
Ġáĭ«áĭ°áĪŃáĮĪáĬĵáĪį
sp
áī¥áĪĪáĭĭáĪį
áī¸áĭĭ
Ġáĭ¨áī°áĮĪáĬĵáĬĻ
ĠáĬ¥áĬķáĮĪáĪį
áįįáĪŃáĪĿ
Ġáĭ¨áĬłáĪĺáĪ«áĪŃ
ĠáĮ¨áĬ«áĬĿ
ĠáĭŃáĭĺáī¶áī½
ĠáīµáĭķáĭŃáĬķ
ĠáīłáĬ¨áī£áĭµ
ĠáĪĺáĭĪáĪĪáĭµ
ĠáĭľáĮİ
áĪłáĪ«áĪŃ
ĠáĬłáĪĺáī±
Ġáī°áĮĪáĭ°áĪī
Ġáĭ¨áī°áĭ°áĮĪáįĪ
ĠáĭįáĬŃáįĶáĭ²áĭ«
ĠáĭµáĪħ
áįĪáĮ¸áĪĺáĭį
ok
Ġáĭ¨áĪĪáĭį
ĠáīłáĪĺáĪ£áĪªáĭ«
áĭŃáĪī
ĠáĮ¥áĪ¨áī¶áī½
ĠáĬłáĪįáįĪáĭį
áī¢áĭ«áīµ
áĮĪáĭĺ
Ġáĭ¨áĪĢáĮĪáĪ«áī½áĬķ
ĠáĬłáĪŃáĪĿ
áĪĭáĪĬáīµ
áĪĽáī²áĬŃ
ĠáĪ²áĮ¨
áĪĻáĬĴ
áĮ½áĪĳáįį
ĠáĪĺáįįáīµáĪĦáĭİáī½áĬķ
2007
áįĪáĪħ
ĠáīłáĬ¥áĭµáĪľ
ĠáĪķáĪĬáĬĵ
ĠáĬ¨áĪĺáĮį
Ġáĭ¨áĭ°áĪĺ
Ġáī°áĭī
ĠáĬ¥áĭ¨áī°áĮłáīĢáĪĻ
áĮłáĪ«áĪī
áīĥáĪĪáĪį
áĪĭáĭŃáī³
ĠáĮ½áĪķáįĪáīµ
ĠáĬłáĮĭáĪ«
Ġáīħáĭ³áĪľáĬĵ
Ġáĭ¨áĪļáĪĺáĪ«áĭį
ĠáĬłáĭ°áĪŃáĮĪáĭĭáĪĪáĪģ
Ġáĭ¨áĮłáĪ«
ĠáĪµáī¥áĬ¨áīµ
ĠáĭµáĪŃáĮĬáī±
ĠáĭŃáĮĪáĪįáįĥ
Ġáĭ¨áĬłáĮŃáĪŃ
áĪħáĬķáįĥ
ĠáīłáĮ¥áĭŃáīµ
ĠáĪĺáĬķáĮįáĪµáīµáĬķ
áī³áĪİáī½
ĠáĬłáĪ°áĬĵ
áĪĺáĪĪáĬ¨áīµáĪĿ
ĠáĮ¥áīłáīłáĬĽ
ĠáĪĺáĭµáĬĥáĬĴáī¶áī½
ĠáĬ¨áĮ£
Ġáĭ¨áĪļáĮĭ
ĠáĮ¥áĪĪáĭį
ĠáĭĺáĪĿ
ĠáīłáīģáĪŃ
ĠáĬłáĭ¨áĪģáīµ
ĠáĬ¥áĭ«áĭĪ
ĠáĪ¥áĪ«áī¸áĭį
áĪħáĭ¶
ĠáĭĵáĪĺáī´
ĠáĪ½áī¦
Ġáī°áĮłáĭ«áīĤáĬĲáīµ
Ġáĭ¨áĬ¥áĬķáĮ¨áīµ
ĠáĬ¥áĪ¨áĭ³
áĭ«áĬķáĬķ
Ġáī¤áī°áĬŃ
ĠáīłáĬ¾
ĠáĬ®áĪ¨áī¥
ĠáĪĽáĪ»áĪ»áĭ«áĭİáī½
ĠáĪĥáĭŃáĪİáī½
Ġáĭ¨áĬ©áī£áĬķáĭ«áĭį
CO
ĠáĬ¥áĬķáĮįáĭ²áĭ«áĭį
ĠáĭĪáĭ³áĮĥ
ĠáĬ¥áĮįáĪ®áī½
2014
ĠáĭŃáī³áĭĪáīĥáĪī
ĠáĪĽáīĢáĭĿáīĢáĭ£
Ġáĭ¨áĪļáĮĪáĬĻáīµáĬķ
ĠáĪĪáĪ³
Ġáĭ«áī°áĬ©
áĬĸáĬŃ
ĠáĬ¤áĮįáĭļáī¢
áĪŃáīŃ
áĮłáĬĳ
Ġáĭ°áĮĢ
ĠáĬ¥áĬķáĭ²áĮłáīĢáĪĻ
áĪ¨áĭ³áī¸áĭį
Ġáĭ¨áĮįáĪªáĬŃ
Ġáĭ¨áĪļáĬĲáĬ«
Ġáī£áĪŃáĬĲáīµ
áĪĲáĭĬ
ĠáĮįáī¥áįĥ
ĠáĪ¥áĪŃáĭĵáī¶áī½
ĠáĭŃáĪ¸áįįáĬĵáĪį
ĠáĪĪáįĬ
áīĥáĪĪáĪħ
ĠáĭĪáĪŃáĭ¶
ĠðŁĻ
ĠáĮŃáĬķáīħáĪĭ
áĮİáĬĵ
ĠáĬ¥áĬķáĭ°áĪļáįĪáĪįáĮį
Ġáĭ«áĪĪáįīáīµ
áĪĺáĮ£áīłáīµ
Ġáĭ¨áĪĽáĭŃáī³áĭĪáīħ
áĪŀáĪ«
ĠáīłáĪĺáĮ«áĭĪáīµ
ĠáĬ¨áī°áĮĢáĪĺáĪ¨
Ġáī°áĬ¨áĪµáī·áĪį
ĠáĬŃáĪħáĪİ
áĮ¶
ĠáĪ²áĭĪáĮ¡
áĪĶáĪĿ
ĠáĬ¥áĭ¨áĪĨáĬĳ
ung
áįĸáī½
Ġáī¥áĪįáĮ½áĮįáĬĵ
ĠáĪĪáĭĪáĬķáĭ¶áī½
ĠáĮĭáĭľáĮ£áĭĬ
ĠáĪĽáĭķáĬ¨áĪĭáīµ
áī¦áī»áī¸áĭį
ĠáīłáĪļáĪĬáĭ®áĬĸáī½
ĠáīłáĪŃáĬ«áī¶áī½
áĬĲáĬĲ
áįįáĬĸ
Ġáī¥áĭ«áĪĪáĪģ
ĠáĪķáĭĿáīħáĬ¤áĪį
áįĵáĬĴáĪ½
ĠáĭŃáĬ¨áī³áī°áĪī
ĠáīłáĪĽáĭŃáī³
áĪ°áī¥áĪĿ
ĠáĪĽáĮįáī£áīµ
áįĪáĪ¨áĬķáĪµ
ĠáīłáĪĽáĬħ
áīłáĪĭáĪ¹
áĭ¢áĭį
Ġáĭ¨áĪļáĭĪáĮ£áĭį
áĬ®áĪĭ
ĠáīłáĪħáĭŃáĭĪáī´
ĠáīħáĪµáīĢáĪ³
Ġu
Ġáĭ¨áī°áĬ¨áįĪáĪĪ
áĪĪáĬķáĬķ
Ġáĭ¨áĪļáĭ«áĪ°áĬĿ
áĪ°áī¥áĬłáĭĬ
ĠáĭĪáīħáī±
Ġáī±áī¦
Ġáĭ¨áįĪáĪĪáĮĪ
áĬ«áĪªáĭį
ĠáīłáĬĲáįį
Ġpost
Ġáĭ¨áī°áĪ°áĬĺ
---
Ġáĭ«áĪµáī½áĪĪáĭĭáĪį
áīłáĭ¨
Ġáī½áĮįáĪŃáĬķ
áĭŁáī¸áĭį
ĠáĪĿáĪ¥áĮ¢áĪŃ
áĪīáīĥáĪµ
áī¸áĬķ
áĭ³áĭµ
áĭ°áĪŃáĮįáĪį
áĮ¹áĪħ
Ġáĭ¨áī°áĪ»áĪ»áĪĪ
Ġáĭ¨áĮİáĪ³
Ġáī°áĪ°áī£
ĠáĪĪáĪĽáĪŃ
ĠáĪħáĬķáĮ»
ĠáĬ¥áĭ«áĮĪáĬĺ
áīĢáĪĿáĮ¥
ĠáĪĪáĮįáī¥
áīĢáī±áĬķ
áīħáĪ¶
ĠáĪªáįĸáĪŃáī±
ĠáīłáīħáĪŃáīłáīµ
ĠáĭŃáīłáĪĭáĪį
áĮ½áĬĵáįĪ
ĠáĬłáĪµáĮĪáĭ³áĮħ
ĠáĪĺáĮªáĭį
ĠáĬłáĪįáĪŀ
Ġáĭ¨áĬ¥áĪ·
ĠáĪĽáĪµáĮĢáĪĺáĪŃ
ĠáĮłáĭ¨áīĢáĭį
ĠáĪĨáĬķáĬ©
ĠáĪħáĮ»áĬķ
ĠáĭŃáĮłáĪ«
ĠáĪĺáī³áĮłáī¢áĭ«
áĬĲáĮĭáĮĪáĪŃáĬķ
ĠáĪĺáīĨáĮłáī¥
Ġáĭ¨áĬ¥áĭįáīĢáīµ
ĠáįĪáĪĭ
áĪĭáįĬáĭİáī½
áĮ£áī¸áĭįáĬķ
Ġáĭ¨áĪĺáĬ¨áĪĭáĬ¨áĪį
áĪļáĬĴáĭ¨áĪĿ
Ġáĭ¨áĪļáĬ«áĪĦáĭµ
ĠáĪ©áĪĮáīµ
ĠáĬ¥áĮįáĭľáĪŃ
Ġáī°áĮłáīħáĪŀ
ĠáĮİáī¥áĬĿáĭİáī½
ĠáĪĪáĪĽáĮłáĬĵáĬ¨áĪŃ
áĮĵáĮĵáĭĿ
ĠáĬłáįįáĬķáĮ«
ĠáĭŃáĪĪáĭĪáĮ£áĪį
ĠáĭŃáĭĪáĪŃáĭ³áĪį
ĠáĬ¸
ĠáĬłáĪ³áī³
ĠIS
Ġáī°áĬĿáī¶
Ġáĭ¨áī°áĪłáĪ©
áĪ¥áĪ¨áīµ
Ġáī³áĭįáīģ
ĠáĬ¥áĭ¨áī°áīĢ
ĠáĬłáĬ«áī£áī¢áĭįáĬķ
ĠáĭŃáĮĪáĬĻáīłáī³áĪį
áĮĭáĪľ
Ġáĭķáī¥
ĠáĭĺáĪŃáįī
ĠáĬłáĪĿáī£áĮĪáĬĲáĬķ
ĠáĬ¥áĭĪáĪµáĭ³áĪĪáĪģ
ĠáĪĽáĮłáĬĵáīĢáīħ
áĭĽáĪĺáĭ±
ĠáĬłáĪįáĬ©áĬĿ
ĠáĪĲáīĢáĬĽ
Ġáī°áĬķáĬ®áĪį
Ġáĭ¨áĭ³áĪ°áĪ³
ĠáĭµáĬķáĮĭáĭ®áī½
ĠáĪĺáĪŃáĪĨáĭİáī½
ĠáĪĪáī¡
Ġáĭ¨áĪļáĬ¨áĪ°áīµ
áĭ³áĪªáĭį
áĪ´áĪİ
ĠáĪĺáĪŃáĮ¦
ĠáĪĺáĪ¥áĭĭáĭķ
Ġáĭ¨áĬłáĭŃáĪģáĭµ
ĠáīłáĪĺáĪ°áĪ¨áī±
áĪĺáĬķáĮįáĪ¥áīµ
Ġáī£áĬĲáĪ°
ĠáĬ®áĪ®áĬĵ
ĠáĪĽáĪµáĮĪáī¢áĭ«
ĠáĪĺáĪĺáĪŃ
Ġáį¬
ĠáĪµáĬ¥
Ġáī¢áī³
ĠáĬ¥áĭ«áĭ¨áĪģ
ĠáĪĽáĪħáĭ°áĪ¨
ĠáĬ¥áĭī
áĭ«áĪļ
197
ĠáĪĽáĪĺáĬķáĮ«
Ġáĭ¨áī°áĬĲáĮĪáĪ¨
ĠáĮ¥áĮĪáĬĿáĬĲáīµ
ĠáĬ¥áĭµáĪīáĬķ
ĠáĪºáĪķ
ĠáĪĪáįĢ
ĠáĮ¡áī£áĭĬ
ĠáįĢáĪĲáįĬ
ĠáīłáĮįáĪĿ
Ġáī°áįĪáĪŃ
áĮĥáĪĿ
ĠáīĢáĮłáĪī
Ġáĭ¨áī°áīĢáĪĺáĮłáĭį
ĠáīłáĬłáīħáĪ«áī¢áĭ«
ĠáĪµáī¥áĪµáī¦áī½
Ġáĭ¨áĪļáĭ«áĪĺ
ĠáĭĪáĬķáĭµáĪĻáĬķ
áĬ®áĪľáĪŃáĪµ
ĠáĬłáĪ°áī¥
áĪħáĬĵáīµ
áī»áĭį
áī¡áī£áĭĬ
ĠáĭŃáįĪáĮłáĪ«áĪį
Ġáīłáĭ©áĬĴáī¨áĪŃáĪ²áī²
ĠáĬłáĭįáī³áĪ¨áĪĺáĪ¨áī¦áī½
ĠáĬ¥áĭĿ
ĠáĪµáįĸ
Ġ(â
áĬ¼
áīªáĪµ
Ġáĭ«áĪįáī°áĪĪáĪĺáĭ±
ĠáĪĿáĪŃáĮ¡
ĠáĬłáĭ°áĪ©
ĠáĮįáī¥áĪ¨áĪĺáĪįáĪµ
ĠáĪįáī£áī½áĬķ
ĠáĬ«áĬķ
ĠáĪĺáĮ£áī½
pl
ĠáĬłáĮ¥áĬĲáīµ
ĠáĪĪáĮĵáĭ°
ĠáĭķáĪį
ĠáĬłáĬķáĪ¥
ĠáĪģáĪĪáī´
áĬ£áī¥áĪĶáĪŃ
ĠáīłáīłáĬ©áĪĭáī¸áĭį
Ġáĭ¨áī¶
áī°áĭī
Ġáĭ¨áī°áĪĺáĭĺáĮĪáī¡
ĠáĬłáĪ²áĭµ
ĠáĪµáĬŃ
Ġáĭ¨áĪļáĬĲáĪ±
Ġáĭ¨áĪļáĬĵáĮĪáĪ©áīµ
ĠáĪħáĭĪ
ĠáĬ®áĪŃáĪµ
áĪİáī»áī¸áĭį
ĠáĪµáĪĪáĬĲáīłáĪ©
ond
ĠáĭĪáĪ¨áīĢáī¶áī½
Ġáĭ¨áīĨáĪĺ
ĠáĪĪáī¥áĭĻáĭİáī½
ĠáĪµáĪĪáĪĨáĬķáĬ©
ĠáĬłáĪĺáĪĭáĬ«áī½
áĪ«áĪļ
ĠáĪĪáĮ¤áĬĵ
ĠáĬłáĪĪáīĢ
ĠáĬ¥áĬķáīħáĪµáīĥáĪ´áĭİáī½áĬķ
Ġáĭ¨áĪļáī½áĪīáīµáĬķ
Ġáĭ¨áĭµáĪŃáĮħ
Ġáĭ¨áĮĦ
Ġáĭ¨áĪļáĭ«áĪĺáĪĪáĬŃáī°áĭį
ĠáĬ¨áĬłáĪĿ
2016
Ġáĭ¨áĪļáĭ«áīĢáĪŃáī¡
áĮłáīĢáĪĿáī£áī¸áĭį
ĠáĬ¥áĬķáĭ°áĪĿáīµáī½áĪį
ĠáĮ¡áĪ¨áī³
ĠáĭŃáĭĪáĭµáīĥáĪį
Ġáĭ¨áī°áīĢáĬĵáĮĢ
Ġáī»áĪĪ
Ġáīłáī¥áĪİáĮį
áĪĥáĪįáĬĵ
ĠáĭĺáĪĺáĬĲ
ĠáĭĪáĪĭáĮĨ
ĠáĬ¨áĪģáĪĪáī±áĪĿ
Ġáĭ¨áĬ¢áĬķáī¨áĪµáīµáĪĺáĬķáīµ
af
ĠáĪĺáĭĺáĬķáĮĭáīµ
ĠáĭķáĪŃáĭ³áī³
ĠáīłáįįáĪŃáĪĥáīµ
Ġáĭ¨áĮ¡áīµ
áĮĭáī½áĬķ
áįķáĪ¨áĪµ
Ġáĭ¨áī°áīĥáĭĭáĪļ
ĠáĪµáĪĪáĬ¥áĪ±
áĪµáī°áĬĵáĮĪ
ĠáĪĪáī¥áī»áĭį
áĭŃáĬĳ
Ġáī°áĪĥáĭµáĪ¶
áĬłáī±
áī¶áī¡áĪµ
áīĥáī³áĪĽ
áĪªáĭ«áĪį
áĮīáĭ³áĭ©
ĠáīłáĬłáĪµáĪŃ
ĠáĪĺáĪŃáįĮ
ps
Ġáĭ¨áĭµáĪ¨
áī»áī½
ĠáīłáĬłáĪħ
áī°áĬĽáĭįáĬķ
áĬ¤áĬł
Ġáĭ«áīº
Ġáĭ¨áĪļáĮłáĪ«áĭį
Ġáĭ¨áĪļáĭ«áĭ°áĪŃáĮĪáĭįáĬķ
ĠáĪ¥áīĥáĭŃ
áĭ¶áĪŃ
áī¥áĪ«áĪ«áīµ
ĠáĪĽáĬħáīłáĪ¨
Ġáĭ¨áĪŃáīĢáīµ
Ġáĭ¨áī°áĬ¨
ĠáīłáĬłáĭķáĪĿáĪ®
ĠáīłáĭįáĮ¤
áĪĭáĬ«áī½áĬķ
ĠáĮ«áĪĽáĭİáī½
ĠáĭŃáĪĭáĬ©
ĠáĬłáĪµáĮĪáī£
ĠáĬ¨áī°áīĢ
Ġáī°áĪĺáĭµ
ĠáĬłáĭ«áī´
ĠáĬłáĪįáī°áįĪ
ĠáĪĺáĮ½áĪĥáįį
ĠáĬ¨áĬĵáĬķáī°
Ġ"+
ĠáĪĺáĪ¨áĮĥáĭİáĬķ
áĮ®áī¹
Ġáĭ°áĪ¨áĪ±
ĠáĮįáĭ´áī³áĭİáī½
ĠáĪĽáĪµáĪ¨áĮĥáĭİáī½
áĭ¯
ĠáĬłáĪįáīłáĪĿ
ĠáĬ¥áī°
...!
ĠáĪĿáĪŃáī±áĬķ
ĠáĬłáĭįáĭ°
Ġáī°áĪ³áįĭáĪª
Ġáĭ¨áĬ¨áī°áĪĽáĭį
ĠáĬ¥áĪ°áĪ«áĪĪáĪģ
áĪħáĬĴ
ĠáīħáĪį
ĠáĪĺáīĢáĪĭáīĢáĪį
ĠáĭĪáĭµáīĨ
ĠáĪĺáĭĪáĪ°áĭµ
áĪ¨áĬĵ
áĬĸáĪ©áĬķ
ĠáĮįáĬķáī£áī³áĭį
ĠáĪĪáĪĽáĭ³áīłáĪŃ
áį¬
áīĢáĬĽáĪį
áĪĻáĭ«áĭį
ĠáĪĺáĭ°áĪ«
ĠáĭŃáĭĪáĪµáĭ³áĪī
ĠáĬ¨áĬĲáīłáĪ¨
áīĨáĪĺáĭį
ĠáīłáĪ¨áĮħáĪĿ
ĠáĬ¥áĪłáĪ«
ĠáĪĽáĪµáĭ«áĭĿ
Ġáĭ¨áĪµáĪľáīµ
Ġáī°áĮĭáĭµáĪİ
ĠáĭŃáĭµáĬĵáĪį
áĬŃáīłáīµ
ĠáĪįáī£
áĪıáĬķ
ĠáĬ¥áĭµáĪİáī½
Ġáĭ¨áĪļáī½áĪįáīłáīµ
áĬ¨áī³áī°áĭ«
áĭ«áĪĪ
ĠáĬ¥áĬķáĭ²áĭ°áĪ¨áĮį
ĠáĪĪáĪĽáĬĲáĮĭáĮĪáĪŃ
Ġáĭ¨áĪĿáĭµ
Ġáĭ¨áĪĺáĪįáĬ«áĪĿ
áīłáĪĮ
Ġáĭ¨áĬłáĪ¸
áĬ¨áĪĪáĬŃ
ĠáĪĺáĪĻáĭ«
ĠáĪ«áĪ·áĬķ
Ġáī°áĭĪáĮį
ĠáĬ¥áĬķáī¢
ĠáįĬáĪįáĪĻ
áĭĬáĭµáĬķ
Ġáī¦áī³áĬķ
ĠáįĬáĪĬ
áĪĪáĮłáĬĲ
ĠáĭŃáĭĺáĪħ
ĠáĬłáĪĿáĪĭáĬ«áī½áĪģ
áĭŃáĪµáĮ¥
ĠáĬ¥áĭ¨áĭĺ
áĮĪáĪįáĮ¹
ĠáĬłáĭįáīħ
ĠáīłáĭįáĪµáĮ¤
ĠáĪĺáįħáĪĢáįį
Ġáĭµáī¥áĭ°áī£
Ġáĭ«áīĢáįĪ
ĠáĬ¨áĮ¨áĪĪáĪĽ
ĠáīłáĭĪáīħ
ĠáĪ°áĬķáīłáīµ
áīĨáīĥ
áĮĥáĬķ
ĠáīłáĬĲáīłáĪŃ
Ġáĭ¨áī°áīĭ
áĮīáĭ³áīµ
Ġáĭ«áĪ³áĪĪáįį
ĠðŁĳ
ĠáĪĺáĮ»áĪķáįįáīµáĬķ
áĪħáīłáīµ
ĠáĪ²áĪ³áĭŃ
ĠáĪĽáĪµáĭĪ
Ġwww
áįİáĪŃáĭµ
ĠáįĬáī±
ĠáĪĿáĮįáī¥áĬķ
áįįáĪ¨áĭį
ĠáĮĪáĪĺ
ĠáĬłáĭįáī¶áī¡
ĠáīłáĬ¥áĮĥáī¸áĭį
Ġáįįáī°áĪ»
áĭµáĪ®áĪµ
Ġáī°áĮłáĬĵáīħ
áĬłáĭµ
Ġáī£áĪĪáĪĺáī»
ĠáĪĺáĪ£áĪªáĭ«áĭį
ĠáīłáĬĲáīłáĪ©
ĠáĮĪáī¥áī¼
Ġde
ĠáīĢáĮ¥áĪİáĪĿ
ĠáĬ¥áĬķáĭ°áĪļáĭ«áĪµáįĪáĪįáĮį
áīĲ
áī£áĭįáĭ«áĬķ
Ġáĭ¨áĪļáĭ«áĮĭáĮ¥
ĠáĮ£áĮ£
ĠáĬ¥áĭŃáī³áĭİáī½
áĭŃáī±áĪĿ
ĠáĪĺáĪĨáĬĳáĪĿ
áĮĪáĭ°áīł
ĠáĭŃáīłáĪĭ
áīĢáĭ¨áĪŃ
áĪŀáīħ
ĠáĬłáī³áĪµ
Ġáĭ¨áĪĿáĪµáĪį
áĪ«áī±áĬķ
ĠáĪĪáĬ¥áĪ·
ĠáĬ¨áĪĺáĪ°
ĠáīłáĪ°áĪĻ
ĠáĮİáĭ³áĬĵáĭİáī½
áĭĺáĮĭáĮĥáĪį
Ġáī°áĪ°áĮ¥áī¶áī³áĪį
ĠáĪĺáĪĪáĬªáĭ«áĭİáī½
áĬĵáĪĿ
Ġáī°áĮ»áįĪ
Ġáĭ«áĪĪáĭī
ĠáĪĺáĪµáĭĭáĬ¥
áĬ¨áīłáĪ¨áĭį
Ġáī°áĬĲáĪµáī·áĪį
Ġáĭ¨áĪĺáįįáīµáĪĦ
áĪ³áĭŃáĭµ
áī°áĪ©
ĠáĪĿáĭ°áī£
Ġáĭ°áĪ¨áĮĥáĭįáĬķ
Ġáĭ¨áĭįáĪµ
ĠáĬ¦áī£áĪĽ
Ġáī£áī¡áĪ®áī½
ĠáĭŃáĪĺáĪĪáĬ¨áī³áĪī
Ġáī°áĬ¨áĪį
ME
Ġ"áį¢
áĭĬáĭ«áĭį
áįĭáī½áĬķ
ĠáīħáĬĲáĪ³
ĠáĬ¢áĬķáĪµ
ĠáīłáĮĨáĪ®
áĮłáĪİ
ĠáĪĺáĬķáĮĪáĪŃ
áĪľáĬĵáĭĬ
Ġáĭ¨áĬŃáĪŃáĪµáīµáĬĵ
ĠáĬ¥áĪŃáīħ
ĠáĪĽáĪµáĬ¨áīłáĪŃ
ĠáĪĺáĪŃáĪ³áīµ
Ġáīªáĭ²áĭ®áĭįáĬķ
áĪĬáĬķáĮį
áįįáīµáĪħ
Ġáĭ¨áī³áīĢáĭ°
áĮ¥áĪĪáĭį
ĠáĭŃáīº
áīĢáĪŃáĪĿ
ĠáĮįáĪªáĬŃ
ĠáĮ¥áĪªáĭİáī½
Ġáī³áĭ²áĭ«áĪµ
áĭ³áĬķáĬ¤áĪį
ĠáįĭáĭįáĬķáĭ´áĪ½áĬķ
áĪĪáĬł
Ġáī³áĪ³áī¢
ĠáĪĺáī³áĭĪáīħ
ĠáĮ¥áīħáĪŀáī½áĬķ
ĠáĭŃáĭŀáī³
Ġáĭ¨áīħáĭ±
Ġáĭ¨áĪ¶áįįáīµáĭĮáĪŃ
ĠáĪĬáĪ¨áĭ³áĪħ
ĠáĪĪáĭ²
ĠáĪĺáīĢáĪĮ
áĪ³áĭ©
Ġáĭ¨áī°áĮłáĪ«
ĠáĬłáĭŃáĭĪáĪµ
ĠáĪĪáīħáĪ¶
ĠáĬ¨áĬłáĭŃ
ĠáĭŃáĭĪáĬŃáĪĭáĪį
ĠáĮĪáĪĪáįĥ
ĠáĬ¥áīĥáĭİáī½áĬķ
ĠáĭŃáĪĿáĮ¡
ĠáīłáĮįáĪŃ
ĠáĪĺáĪ®áĮ¥
ĠáĬ¨áįĸáĪĪáī²áĬ«
áīªáĭ¬
ĠáĪĺáĮłáīĢáĪĻ
áī£áĪŃáīħ
áĪ»áĪ»áĪĪ
ĠáīłáĬłáĪĭ
Ġáĭ¨áĮ£áĪĬáĭ«áĬķ
áĪŃáĪŀ
Ġáĭ¨áĪļáĮĪáĭµ
ĠáĬ¥áĭ«áĪ°áī¥áĬ©
ĠáĭĺáĪĺáĭ¶
Ġáĭ¨áįĢáĮ¥áī³
ĠáĬ®áĪĿáįĴáĭį
ĠáĪĪáĪĽáĪµáī°áĬĵáĮĪáĭµ
áĪ°áī¤
áīªáĭ«
ðŁĺ
áįİáĪŃáĪľáĪ½áĬķ
ĠáīłáĮ¨áĪ¨áī³áĭį
ĠáĭĺáĪŃáĮį
Ġáĭ¨áĬłáĬķáĭ±
ĠáĪĪáī°áįĪ
ĠáĮ«áĮ«
ĠáĪĽáīłáĮĢáīµ
ĠáĬ¥áĭµáĪľáĭ«áī¸áĭį
ĠáĬłáĪĺáĪįáĬ«áī¾áī½
áī¸áĮįáĪŃ
ĠáĪĺáĮĪáĬķ
ĠáĬ¥áĬķáĭ°áĪļáĪĺáĪµáĪį
Ġáĭ«áĪµáī°áĪĭáĪį
ĠáĪ³áĪĿáĬķáī³áĭĬ
Ġáįĭáī¥áĪªáĬ«áĭİáī½
ĠáĪĿáĪģáĪŃ
ĠáĪĪáĪ¶áĪµáīµ
áĭµáĪ¨áĬ©
ĠáĬ¥áĪµáĪ«áīµ
ĠáĭĪáĮĪáĬĸáī¼
áĪ¨áĮİáī½
áīµáĬĵáĬķáīµ
Ġáĭ¨áīłáĪĪáįĢ
Ġáĭ«áĪµáĭĪáĮįáĭ±
ĠáīłáĬĲáĮĭ
áī°áĬĳ
ĠáĬĲáĮįáĪ¬
ĠáĪĽáī°áĪĿ
ĠáĭŃáĪłáĪ«áĪī
Ġáī°áīĪ
ams
ĠáīłáĪĺáĬķáĮĪáĭ±
ĠáĭĪáĭ«áĬĶáĬķ
ĠáĭŃáĪµáĪĲ
ĠáīłáĬ¥áĮħáĪħ
Ġ54
Ġáĭ°áī¥áĭ³áī¤áĭİáī½
Ġáĭ¨áī°áĭ°áĪ¨
ĠáĬłáĮĪáĬĽáĪĪáĪģ
áĪ·áī¸áĭį
ĠáĪķáĭŃáĭĪáī´
ĠáĪµáĪĭáĪįáī°
Ġáĭ¨áĪĦáĭµ
Ġáĭ«áĭ¨áĪģ
ĠáĬ¥áĬķáĪģáĬķ
ĠáĪĢáĪĭáįĬáĬĲáīµ
Ġáī±áĪªáĪµáī¶áī½
SE
áī°áĭįáī³áĪį
áĮłáĭ¨áīĢáĭį
ments
ĠáĬ¨áĮ¨áĪ¨
ĠáīłáĪĽáĮ¥
ĠáīĢáĪªáĭįáĬķ
áĪĺáĬķáĪĿ
Ġáīłáī°áĮłáīĢáĪ°áĭį
Ġáĭ¨áĪĽáĪĭáĭį
ĠáĪĺáī³áĮłáī¥
ĠáĪĪáĬ¥áĬĶáĪĿ
Ġáĭ¨áĪĺáĬĲáĪ»
áĪŃáī»
Ġáī°áĮłáĬĵáīĭáĪį
áĮĪáī£áĪĪáĬķ
áĪ¸áĪĽ
ĠáĭķáĭµáĪī
ĠáĪĺáĪ¨áĮł
ĠáĪħáĭ«áĭį
áĪ®áī½áĪĿ
ĠáĪĺáĮłáĬķáīĢáīħ
ĠáĭŃáĭĪáĭ±
Ġáī°áĪ¸áĬ«áĪļ
Ġáĭ¨áĮ£áī¢áĭ«
Ġáĭ¨áĪĽáĭķáĭµáĬķ
ĠáĬ¨áįĢáĪĲáĭŃ
Ġáĭ¨áĪļáĪĺáĪĪáĬ¨áī°áĭį
ĠáĬłáĪµáįĪáĪĪáĮĪ
ĠáĬ«áĪ¬
áĪĪáĭŃáĪĿ
ĠáĮĪáīłáī³
ĠáĪħáĮĪáĪĺ
áĬ³áĬ³
ĠáĪĺáĪµáĮ«
Ġáĭ¨áĭĪáĮ£áīµ
ĠáīĢáĪŃáīłáĭĭáĪį
ĠáīłáĮłáīħáĪĭáĪĭ
Ġáī³áĭ³áĪļáĭİáī½
ĠáĪįáĬ®
ĠáĪ²áĭ°áĪŃáĪ±
ĠáĬ¥áĬķáĭ³áĪĪáī¥áĭİ
Ġáĭķáīħáĭ¶áī½
ĠUSB
Ġáĭ«áĬĲáĮĭáĮįáĪ©áĬķ
áĬķáĭµáĪ®áĭį
áĮ¨áĭĭáī³
ĠáĪĪáĪĽáĭ³áĪĺáĮ¥
ĠáĬ¨áĪĭ
áĪ©áĪħ
ĠáĮįáĬĵ
ĠáĭĪáĭ°áĪĭáĭŃ
ĠáĬ¥áĬķáĭ²áĪĦáĭµ
áĬķáīħáĪĪ
ĠáĬłáī£áĪįáĬĲáīµ
áī£áĮĪáĬĲ
ĠáīµáĪª
ĠáĬ¥áĬķáīĢáīłáĪĭ
áī¦áĪŃ
ĠáĬ¨áī°áĮłáĬĵáīĢáīĢ
ĠáĪĲáĭ²áĭµ
ĠiCloud
Ġáīłáīħáĭ±áĪµ
ĠáĬłáĪµáī°áĭ³áĭ°áĪ©
ĠáĬ¨áįĪáī°
ĠáĭŃáĬ¨áįįáī³áĪį
ĠáĬłáĪ³áĪĽáĬĿ
ĠáĪĬáĮī
ĠáĬłáĭī
áĭĭáĪī
áĪľáīµáĪ®
Ġáĭ³áĭĬáīµáĬķ
áĪĭáĪģ
ĠáĬ¥áĬĽáĪµ
áīĦáĭ«áĪĪáĪģ
áĪ°áĪĽáī¸áĭį
áĪĺáĮ£áīµ
ĠáĭŃáĮ¨áĪĿáĪ©
ĠáīµáĬķáĬķ
Ġáĭ¨áĬ¥áĭŃáī³
áīĢáĬĵáīłáĪŃ
ĠáĬ¨áĭĿ
áīĥáī½áĬķ
ĠáīłáĬłáĪ³
áĪĥáĪĥ
ĠáĬ¥áĬķáĭ°áĪļáĮĪáĬĻ
ĠáĬ¥áĪŃáĪ±áĬķáĪĿ
ĠáĬ¨áĪĮáĪĪáĭį
Ġáī°áī¥áĪİáĪĿ
ĠáĪĿáĭµáĪ«áĭĬ
ĠáĬ¥áĬķáĮĥ
ĠSD
áĭİáī¼áĬķ
ĠáĪĬáĭĪ
áĪĽáĪªáĭį
ĠáĪĺáĭįáĮ£
áī³áĭ°áĪ«áĭĬ
áĪįáĭİáī³áĪį
ĠáīłáĬ¥áĪĿ
ĠáĪĺáĪłáĭĬáĭ«
Ġáĭ«áĪµáī°áĬ«
ĠáĬŃáĪ¬áĭ²áīµ
ĠáĪĪáĭķ
áĪ°áī£áī¸áĭį
áĪ³áĪ³áīµ
ĠáĪĺáĪµáĪĽáĪĽáīµ
áĪ¶áįįáīµ
Ġáĭ¨áĪĿáīµáįĪáĪįáĮĪáĭįáĬķ
ĠáĬ¢áĬķáĪ¹áĪ«áĬķáĪµ
ĠáīłáĪ´áīµ
Ġáĭµáįį
ĠáīłáĬłáī£áī±
ĠáĬłáĪħáĮī
áĬĲáĮįáĪŃáĪħ
ĠáĪĺáĪ²
áĪ°áĪįáĮ£
áĪªáĭµ
ĠáīłáĪ°áĭĵáīµ
áĭįáĭ«áĬĳ
ĠáĬłáĪĿáĪµáī°áĬĽ
ĠáĮ¥áīłáī¥áĬķ
ĠáĬ¨áĪħáĭĿáī¥
áĬķáĭĭáĪª
ĠáĬłáĭ«áĪµáįĪáĪįáĮĭáī¸áĭįáĪĿ
áĪªáĭ«áī¸áĭį
áĬ¨áī°áĪŀáī½
Ġ800
ĠáĬłáĪĭáĭįáīĢáĭįáĪĿ
Re
áī¸áĮĪáĪ©
áĪĺáĪµáĪĪáĭį
áĮĪáĮł
ĠáĪĪáĭ©
Ġáĭ¨áĬłáĭķáĪĿáĪ®
ĠáīģáĪįáīģ
áĪĺáĮ¡áĪĿ
áĮįáĪµ
ĠáĮĪáĮ£áĪļ
ĠáīłáĪļáĬ¨áī°áĪĪáĭį
Ġáĭ¨áīĢáĭ°
áĪĦáĭ±áĪĿ
Ġáī°áĮłáĪŃáĮ£áĪª
Ġáĭ¨áĮĢáĪŃáī£
Ġáĭ¨áī°áĪĪ
ĠáĪĦáĭ°áĪħ
Ġáĭ¨áĪĺáĪ¨áĮ¥
ĠáĬłáĮĪáĪ«áī¸áĭį
//
áĪĭáĮĨáī¹
áĮħáī¶
Ġ64
áī°áĬ©áĪŃ
ĠáīłáīłáĬ©áĪī
Ġáĭ¨áĮ¡áĬķáī»
áĪ®áĪľ
ĠáīłáĪħáĬķáĭµ
áĭĺáĭĭáĭĭáĪª
Ġáīłáī°áĬĵáĮłáĪį
ĠáīµáĬĵáĮĪáĪ«áĪĪáī½
ĠáĪĿáĪ¨áīĥ
áĪĮáīªáĭ¥
ĠáĪ°áĮªáĭİáī½
Ġáī°áĭ°áĪ«áĪ½áĬĲáīµ
Ġáī°áĮĪáĪŃ
ĠáĭĪáī°
Ġáĭ¨áī°áĬĵáĮĪáĪ¨áĭįáĬķ
ĠáĬłáĪµáī°áĪĿáĪħ
áįĵáĭµ
áĭįáīĥáī¸áĭį
ĠáĬłáĪĭáĮĪáĬĺáĪĿ
áĮłáĪ®
Ġáĭ¨áĪļáĬ«áĪĦáĭ°áĭį
ĠáĬ«áĭµáĪ¬
ĠáĬĥáĭ«
ĠáīłáĭµáįįáĪ¨áīµ
ĠáĭĪáĮĪáĬĸáī»áī½áĬķ
Ġáĭ¨áĪĺáĮįáĪĪ
ĠáīłáĬłáĪĺ
Ġáĭ¨áĪļáĭ«áīłáīĥ
ĠáĬ¨áĬłáī£áī±
Ġ59
ĠáĬĶáīµ
Ġáī°áįĪáī³áī³áĬĿ
áī¥áĪĥáĪį
áĭ³áįĬ
áĭĺáĬĳ
ĠáĮīáĭŀáĭį
ight
ial
ĠáĪĽáĭŃáĪį
áĮ¸áĬķ
Ġ78
ĠáĪĪáī°áĭĪáĪ°áĬĳ
ĠáĬłáĮĪáĪįáĮįáĪİáī±
ĠáĪĽáĪŃáī²áĬķ
ĠáĭŃáĬĵáĮĪáĪŃ
ĠáĪĽáĪĪáī³áī¸áĭį
áĪ°áīłáĪµ
ase
áĪ£áĪ¥
áī§áĪ«
ĠáĮŃáįįáĮ¨
ĠáĭĶ
áĮ¥áĪµ
Ġáĭ¨áĪļáĭ«áĪµáī¡
Ġáĭ¨áĬ«áĬķáĪ°áĪŃ
áī¦áī¹áĬķ
áĭ°áĮįáĪŀ
ĠáĭĪáĬķáĮĢáĪİáī½
Pl
Ġáĭ¨áĮĨáĪ®
ĠáĪķáĬķáĮ»
ĠáīłáįĸáĪĬáĪµ
ĠáĪĬáĬķ
ĠáĪ¥áĪĿ
áĭĭáĭĪáīģ
ĠáĬ¥áĬ©áĪĪ
Ġáĭ¨áĭ°áĪŃáĮį
áĬĲáī°áĬĽáĭį
áĬłáī£áīµ
ĠáīłáĭįáĬĳ
Ġáĭ¨áī¥áĪªáī³áĬķáĭ«
ĠáĬłáĭĽáĭįáĬķ
Ġáīłáĭļáī½
ght
ĠáĬłáī£áīµáĪħ
ĠáĪħáĭŃáĭĪáī³áī¸áĭį
Ġáĭ«áĮłáįĭáĪį
áĪįáĬķáĪĿ
áĪĺáĪł
Ġáĭ¨áī°áīĭáīĭáĪĺáĭį
ĠáĪĺáĭįáĭ°áīħ
ĠáĪĽáĪŃáī½
Ġáī£áĬķáĭ²áĪ«
áĮ¥áĬĵ
ĠáĪįáĬ¬
ĠáĪħáĭŃáĭĪáī´
ĠáīłáĭµáĬķáĮĭáĭŃ
ĠáĬĲáĮįáĪ¨áĭį
ĠáĭĪáĭ°áĬĲáīłáĪ¨áīłáīµ
Ġáī£áī¢
Ġáĭ¨áī³áī½
ĠáīłáĮįáī¥áĪŃ
ĠáīłáįĬáī´
ĠáĬ¥áĬĴ
ĠáĪĺáĪĪáĮłáįį
ĠáĪĺáĭĵáĭĽ
ĠáĬ¨áĭ°áĪ¨áĪ°
ĠáĪĪáī¢
ĠáĭįáĭµáĭµáĪ©
ĠáĬ¥áĬķáĪį
ĠáĬłáĪįáī»áĪĪáī½áĪĿ
ĠáīµáĪ«áĬķáĪµ
áĪĪáīħáĪµ
áĬĲáĭ±
Ġáĭ¨áĬłáĪįáĬ®áĪį
Ġáī¤áī°áĪĺáīħ
ĠáĮįáĬķáĬĻáĬĲáīµáĬķ
ĠáĬłáĪµáī°áĭ«áĭ¨áī¶áī½áĬķ
Ġáī°áįĪáĮ¥áĪ¯áĪį
ĠáįįáĬķáĮŃ
Ø§
áī³áĪįáĬĵ
Ġáįĳ
ĠáĪĪáĪĽáĬ¨áĪĿ
ĠáĪĺáĮĢáĪĺáĪªáĭ«áĭį
áĮ½áĬĵáĬĵ
Ġáīµáī³
Ġáĭ¨áĪĽáĭ¨áīµ
Ġáī°áĪ°áĬª
Ġáĭ¨áī°áĪĺáĪ°áĪ¨áī°áĭį
áĪĪáīĢáīħ
Ġáĭ¨áī°áĪ¨áĭ³
áĮ½áįī
Ġch
ĠáĪĪáĭľ
Ġáĭ¨áī°áīłáĪĭáĪ¸
ĠáĬĲáĮĪáĬķ
ĠáĬłáĪĪáĪĺáī»
áīĢáīłáĪĪ
Ġáĭ¨áĭĵáĪĪáĪĽáī½áĬķ
ime
áĪ°áĪ±
ĠáĪĽáĭĭáĪį
ĠáĪĬáĭĪáĪ°áĭµ
2017
ĠáĪĺáĬķáĮįáĪ¥áī³áĭĬ
ash
ĠáīłáĪ°áĬĶ
ĠáĪµáĬķáī±áĬķ
Ġáĭ¨áĭ²áĮĤáī³áĪį
áĬķáĮįáĪĬáĭĺáĬĽ
áīłáĪĪáĮł
Ġáī¤áīµáĭİ
ĠáĬłáĭµáĪŃáĮĭáī½áĪģ
ĠáīłáĪµáĭµáĪµáīµ
ĠáīłáĮįáĬķáī£
ĠáĪĺáĬķáĮįáĪ¥áīµáĪĿ
ĠáįĪáĮ¥áĪ¯áĪį
ĠáĪĪáĬłáī¥áĬĲáīµ
ĠáīłáĪģáĪī
áī¥áĪĬ
ĠáīµáĪĺáĮ£
ĠáĬ¨áĪĺáĮįáī£
ĠáĪĿáĬķáĭµáĪŃ
ĠáĪļáĪµáĮ¥áĪ«áĭĬ
ĠáĬ¥áĮłáīĢáĪĽ
áĬ©áĬĵ
áĪ¬áĭ³
ĠáĬłáĪ¸áĬĵáįĬáĭİáī½
ĠáĪĽáĪħáīłáĪ¨áĪ°áī¦áī½
áĬĸáīµ
ĠáīłáĬĭ
ĠáīłáĪĽáĭ°áĮį
Ġáĭ¨áĪµáįĶáĬķ
Ġáĭ«áĪĺáĪį
ĠáĭŃáĮĪáĭĽáĪį
Ġáĭ¨áĪĿáĬķáįĪáĪįáĮĪáĭįáĬķ
ĠáĭŃáĪĺáĪįáĪ³áĪį
ĠáĭŃáĪ°áĪĽáĬĵáĪį
áīĥáĭĪáĪĻ
ĠáīįáĮ£
ĠáĭĪáĬªáĪİáī½
áĭĪáīĢáĭį
ĠáĬłáĭŃáįİáĬķ
áīĨáī½áĬķ
ĠáįĸáĪĬáĪ²áĭİáī½
áĭĭáī¸áĭĭáĪį
ĠáĪĪáĬłáĪĪáĪĿ
ĠáĬ¨áĪļáĮĪáĬĺáĭį
Ġáĭ¨áĭĭáĪĪáĭį
ĠáĭįáĪµáĮ¡
Ġáīłáī»
áīĢáĪĭ
Ġáī£áĮĪáĬĺ
ĠáīħáĮł
ĠáĬłáĬķáīºáĪĿ
ĠáĪĽáĪµáī³áĭĪáĪ»áĭİáī½
ĠáĪĺáĮ½áĪĲáįĪ
áĭĲáīµ
ĠáĭĪáĬķáĮĮáĪįáĬķ
ĠáĪĺáĪµáįĪáĪŃáī¶áī½áĬķ
ĠáĪĺáĭĺáĮįáĭ¨áīµ
ĠáīłáĪĺáĮĭáī¢áīµ
Ġáĭ¨áī»áĪĪáĭį
ĠáīłáĪĽáĬķáĪĿ
ĠáĬ¨áĪĺáĮĢáĪĺáĪ©
ĠáĬ¥áĭįáīĤáĭ«áĭİáī½
ĠáĪĢáĭĺáĬķ
áįħáĭ³áīµ
ĠáĬ¥áĮħáĪħáĬķ
áĮĪáĪĪáįģ
ĠáĪĺáĪĺáĪµáĪ¨áīµ
Ġáī°áĪĺáĪįáĪ¼
Ġáī°áĮĪáĬĿáī¶
áĬ¢áĭ¨áĪ±áĪµáĪĿ
ĠáīłáĪĽáĪĪáĭ³
ĠáĪĺáĬ¾áĬĳáĬķ
áĪĿáĬĵáĪį
áĬ¥áī£áĬŃ
Ġáĭķáįħ
ĠáĪģáĪĪáī³áī½áĬķáĪĿ
ĠáĮ½áĮĮ
áĬķáĭ¶áĬĶ
ĠáĮłáĬķáĬ¨áĪŃ
St
ĠáĭĺáĪ®áī½
ĠáīłáĬ¥áĪ·
ĠáĬ¥áĭ¨áĪĦáĭµ
ĠáĬ¥áĬķáĭ³áĮĪáĬĺ
Ġáĭ¨áī°áĭĪáĪĪáĭ±
ĠáĬ¥áĮłáĪĭ
ĠáĬ¥áĬķáĭ°áĭĪáĭ°
áĪ¸áįį
Ġ2022
ĠáĪĺáįħáĪĥáįį
ĠáĪĬáĮĪáĬĻ
áĪħáĬķáĬĵ
Ġáĭ°áĪ¨áĮĥáĭİáī½áĬķ
ĠáĭŃáĪ°áĪĽáĪī
Ġáĭ¨áĪļáĪĺáĪµáĪī
Ġáĭ¨áĪĺáĭµáĬĥáĬĴáīµ
ĠáĪĬáĮĪáī£
áī²áĪĿ
Ġáĭ¨áĪĽáĪŃ
ĠáĪĺáĭĿáĮĪ
ĠáĪĽáĬħáīłáĪ©
ĠáĬłáĪįáĭ°áĪ¨áĪ°
áĬķáĭ«áĪĿ
ĠáīłáĪįáĮģ
áĪįáĪħáĪĿ
ĠáĮ¥áĬķáĭ¶áī½
Ġáĭ¨áĪĺáĬŃáįĪ
ĠáįĪáĪ©
ĠáĬ¤áįķáĪªáĪį
ĠáīłáĪĺáĮĢáĪĺáĪªáĭ«áĭİáī¹
ĠáĬĲáįįáĪ´áĬķ
ĠáĬłáĭŃáĮĪáī£áĭįáĪĿ
ĠáįķáĪ¬áĭļáĭ³áĬķ
ĠáĪĺáĪ«áĪ«
ĠáĬłáĮ¥áī¥áīĨ
áĪĺáĪĭáĪĪáĪµ
Ġáĭ¨áĬĲáīłáĪ«áī¸áĭį
ĠáĪĺáĪ°áĮłáīµ
Ġáĭ¨áī£áīµáĪª
áī·áĪĿ
Ġáĭ¨áĪĺáĪµáĮłáīµ
Ġáī°áīĢáĭŃáĪ¯áĪį
ĠáĬłáĬŃáĪµ
ĠáĪĽáĪŃáīĨáĪµ
ĠáĬłáĭĺáĭį
ĠáīłáįĴ
ĠáĪĺáĭĺáĮĭáĮĢáīµ
ĠáįŃ
áĪ°áī±
áī¢áĬķ
áĪĭáĪĪáĪµ
Ġáĭ¨áĮįáī¥áĪ¨
áĬĵáīĢáĪī
áīµáĪ¨áįĪáĪ¨
Ġáĭ°áĬķáĮį
ĠáĭµáĪĢ
ĠáĭĵáĪĺáīµáĪĿ
Ġáĭ¨áĪĮáĪĬáīµ
atch
áĪªáĬ©
áĮ¤áĬķáĬĲáīµ
áĭŃáĪħáĪĿ
ĠáĪĪáĬłáĬķáī£áī¢
áĪģáĬĵ
áī¥áĪ«áĭŃáĪµáĮ¥
ĠáĪĽáĭµáĪ¨áĮīáĬķ
ĠáĬŃáĪªáĪµáī¶
ĠáĬłáĭ«áĪĿáĬĳáĪĿ
áĪįáĬĿáĪĿ
áĮ¥áĪī
ĠáīłáĪĺáĭµ
Ġáĭ¨áĬ¾áĬĲ
áĪµáĪµ
ĠáĬ¨áĪŀáĪĭ
ĠáĬ¨áĬ¥áĭ«áĬķáĭ³áĬķáĭ±
ĠáĬŃáĪħáĪİáīµ
áĪĺáĭ³áĪį
áĪĭáī¹
Ġáī°áĪ°áīłáĪ°áī¡
ĠáĬ¥áĬķáĭ²áĪĺáĪĪáĪ±
ĠáĬłáĪĪáĪĺáĮįáī£áī£áīµ
Ġáĭ«áĪµáįĪáĪįáĮĭáĪī
ĠáĪĪáĪĽáĮ¥áĬĵáīµ
áĪ°áī¶áī½
áīłáĪ¨áīłáīµ
ĠáĪĺáĭįáĪĪáĭµ
ĠáĪĽáīĭáĪ¨áĮ¥
ĠáĪĪáĪĽáĬ¨áĪį
ĠáĪµáĪľáīµáĬķ
Ġáĭ¨áĪĺáĬķáĮĥ
Ġáĭ¨áĬłáī¥áĪŃáĪĥáĪĿ
ĠáĬłáīµáĪĮáī¶áī½
Ġáĭ¨áīĢáĪ©áīµ
ĠáĭŃáĭĺáīµáĬķ
ĠáĭŃáĪĺáĪĪáĪ±
ĠáĭĺáĬķ
áĭŀáī½áĬķ
Ġ57
ĠáĪµáĬķáĬ³
ĠáĮłáī¢áī¥
Ġáī°áĮĪáĪĪáįĢ
ĠáĪ´áīµáĭ®
ĠáĮ£áī¢áĭ«áĭİáī½áĬķ
áĭĪáĪŃáīħ
Ġáĭ¨áĭ°áĪ¨áĮĥ
per
áĭŃáĪ«
áĮłáĭįáĬķ
áĮĭáĮ¥áĪĿ
ĠáĪ°áĬĲáįį
Ġáĭ¨áĪĽáĪµáīłáĭį
ĠáĬ¨áĬ¥áĬĵáī±
ĠáīłáĬ¥áĪŃáĮįáĭĿáĬĵ
ĠáīłáĮ£áī¢áĭ«áĭį
ĠáĬłáĭµáĬĵáīĤáĭİáī½
áī¥áī¶
ĠáĪĪáĪĺáĪĿáĮ£áīµ
Ġ67
ĠáīłáĭŃáĪĸáĭĭ
Ġáī°áĪĪáĭĭáĮŃ
Ġáī¥áĪ«áĭļáĪį
ĠáĬłáĪįáįĪáĪĪáĮĪáĪĿ
ĠáĭŃáĪ³áī°
ĠáīłáĪļáĮĪáĬĿ
Ġáĭ¨áĮįáī¥áĮ½
áĬ¥áĮħ
áĭ®áī¹áĬķ
ĠáĬ¥áĭ¨áĪ°áĪĽ
ĠáĭĪáĮ£áī¶áī½áĬķ
áĬ¥áĬĶáĬķ
ĠáĭŃáĪŀáĬŃáĪ«áĪī
ĠáĭŃáĪįáīģáĬķáĪµ
ĠáīłáĬĲáĮ»áĬĲáīµ
Ġáī¥áĭĻáĬĥáĬķ
Ġáĭ¨áī°áĪĺáĪ°áĪ¨áī±
áĪįáĪĥáĪĪáĪģ
ĠáĪįáī£áī¸áĭį
ĠáĬłáĭįáĭµ
Ġáī°áĭĺáĪŃáĭĿ
IC
ĠáĪĽáĮłáĪ«áīĢáĪļáĭ«
ĠáĪ«áĬ¥
Ġáī°áĪĺáĪ³áĪ³áĭŃáĬĲáīµ
ĠLED
áī£áī½áĪģáĪĿ
Ġáĭ¨áĪģáĪĭáī½áĬķáĪĿ
Ġáĭ¨áĪĿáĪµáĪ«
ĠáĮīáĬķ
áī°áĪŃáįį
ĠáĪłáĪ«áĭĬ
ĠáĪĺáĪĿáĮ£áī±
Ġáĭ¨áĪ°áĪĽáĪģáīµ
áĪĽáī½áĬķáĬķ
ĠáĪĪáĪĺáĭĪáĮ£áīµ
áĪ¯áī¸áĭĭáĪį
ĠáĪĺáĬ®áĬķ
ĠáīħáĮłáĪį
ĠáĬłáĪ¸áĭĭ
áĮįáĬķáī¦áīµ
Ġáī°áĪ°áĪ«
Ġáī¥áĪµáĬŃ
Ġáĭ¨áī³áĭ¨áĭį
ĠáĪ¶áĪµáī±
ĠáĭŃáĬŃáįĪáī±
ĠáĬłáĭĺáĮĭ
áī¥áĭ³áī¤
ĠáīłáĭĺáĪĺáĬĳ
Ġáĭ¨áĮ½áĭµáīħ
ĠáīłáĮįáĪĪáĪ°áī¥
ĠáĬ¥áĬķáīĢáīłáĪĭáĪĪáĬķ
ĠáĬ¥áĬķáĭ²áĭ°áĪŃáĪµ
ĠáĪ¨áĬŃ
áĪĪáĬ«
ĠáĪĽáĮ«áĭĪáīµ
ĠáīµáĪ°áĮ£
Ġáī¤áīµáĬķ
áīµáĬĵáĪĿ
ĠáĬ¢áĬķáĭ±áĪµáīµáĪªáĭį
xBet
ĠáĬ¥áĬķáĮĢáĪĿ
ĠáĬ¨áĪĿáĪ½áī±
ĠáĬłáĭĽáĭįáĬķáīµ
Ġáī¥áĪŃáĭµ
ĠáīłáĬħ
ĠáĮīáĪ«
ĠáĪķáĮ»áĬĵáīµ
ĠáīłáĭįáĪµáĮ§
ĠáĬ¥áĮĢ
ĠáīłáĮ¨áĪ¨áī³
áĪ®áĭİáī½
ĠáĪµáĪĪáĪ±
ĠáĬŃáĭĭ
ĠáĬ¥áĭ«áĭ©
ĠáĬłáĪĺáĬŃáĬķáĭ®
áĮłáī¥áīħáĪĿ
ĠáĪĢáĮĪáĪ¬
ĠáĬłáĪµáī³áĭįáĪ±
áĬŃáī¥áĪ®áīµ
ĠáĪĽáĮ½áĭ³áīµ
áĬĵáī½áĬķáĬķ
ĠáĬ¨áī°áī»áĪĪ
ĠáĮįáĭµáī¡
ĠáĪįáĪĿáĪĿ
ĠáĪĿáĮ£áĬĶ
áĬķáĭµáĬķ
ĠáĬ¥áĬķáĭ²áīĨáĭ©
áĪµáī°áĭįáĪį
Ġáī¥áī¸áĬĿáĬĲáīµ
Ġáĭ¨áĪļáĪ°áĪĽáĭį
áĭĿáī£áĭĬ
áįĢáī£áĪŃ
ĠáĮİáĪ¨áī¤
ĠáīłáĭĪáĭ°
ĠáĪ«áĪ³áī½áĪģ
ĠáĬ®áĬķáįĪáĪ¨áĬķáĪµ
Ġáĭ«áīĢáĪ¨áī¥
ĠáĪģáĪĭáī½áĬķáĬķáĪĿ
ĠáĪ°áĪĭáĪĽ
ĠáĬ«áĪĪáīłáīµ
ĠáĬĥáĪĭáįĬáĭİáī½
áĪµáī³áĭįáĪ°áĭį
ĠáĭŃáĬ¨áī°áĪĭáĪį
ĠáĬ¥áĮ¦áīµ
áĬłáī£áī´
Ġáī£áĪĪáĬł
ĠáĬłáĪĿáĪµáī±
ĠSEO
áĭ¡
áīħáĪĭ
ĠáĬłáĪĭáĪ³
ĠáĪĺáįĪáĬŃáĪŃ
ĠáĪĺáĮ½áĬĵ
orex
áĮ´áĮ¥áĪ®
ĠáĬ¨áĪ´áī¶áī½
ĠáĬ¤áĪĬ
áĪŁáĪŁ
Ġáĭ¨áĪ«áĪ³áī½áĬķáĬķ
ĠáĬłáĬŃáĪĪáĭĭáĪį
ĠáĮĭáĭľáĮ¦áī½
ĠáĬłáĭĪáĭ³áĭµáĪ®
ĠáĪħáĮĪáĭĪáĮ¥
ĠáĪĿáĬŃáĬķáĭ«áīµáĪĿ
áĮ¦áĪ½
ĠáĬ¥áĪŃáĮįáĮłáĬŀáī½
ĠâĿ
ĠáīĢáĪªáĭį
ĠáĪ²áĪĺáĪĪáĬ¨áī±
Ġáī¢áīµ
áĪĪáĮłáĭį
Ġáī½áĪİáī³áĭİáī½
ĠáĪµáĪįáĬŃáĭİ
ĠáĬ¥áĮ¸áĪį
Ġáĭ¨áĪĺáĭ³
ĠáĬ¥áĬķáĭ°áĪļáĪĨáĬĳ
ĠáĬłáīĢáĬĵ
ĠáĭĭáĮĭáĭįáĬķ
ĠáĪĢáī¥áī³
Ġáĭ¨áī°áĪĽáĪ©
áĭķáĬŃáīµ
áĪĺáĪ¨áĪĿ
Ġáī°áĪµáįĭáĭİáī½
Ġáĭ¨áĬłáĬķáĭµáĬķ
áīłáĬ¥áĪŃáĮįáĮ¥
Ġáĭ®áĬĵáĪµ
áīĨáī¹
ĠáĪĬáĭ«áĭ°áĪŃáĮĪáĭį
Ġáĭ¨áĪŀáī°áĪŃ
ĠáĬłáĭ«áĭįáīģ
áĬĵáīĢáĪį
ĠáĮ¥áīģ
ĠáĪĪáĪĽáī¥
áīĢáĪĺáĮ¡áīµ
áĪµáĬŃáī¶áįķ
ĠáīµáĪĨáĬĵáĪĭáī½áĪģ
Ġáĭ¨áĬ¥áĬĲáĭļáĪħáĬķ
ĠáĬ¥áĪ°áĮ¥áĪĥáĪĪáĪģ
Ġáĭ¨áĪļáĮłáĭŃáīģ
Ġáĭ¨áĬłáĪĿáĪµáīµ
ĠáĬ¥áĭ«áĪ°áī¡
áĭ°áĪŃáĮĪáĭįáĪĿ
ĠáįĪáĪ«áĮħ
ld
áĬķáīĨ
áĪŀáĬŃáĪ«
áīĥáī¸áĭįáĬķ
Ġáĭ°áĭĪáĪį
áĪ¬áĪµ
ĠáīłáĪĽáĬĵáī¸áĭįáĪĿ
ĠáĪ®áĭĿ
áĪ¦áĪµáī°áĬĽ
ĠáĮĢáī¥áĭ±
Ä±
Ġáĭ¨áįįáĪ«
áĭ«áĪĪáĭį
ĠáĬ¥áĬķáĭ°áĮĪáī£
ĠáĬłáĭŃáĮłáįĭáĪĿ
ĠáĮĭáī¥
ĠáĮĪáĭ¢áĭİáī½
áĪ¸áĪ«áī°áīµ
áĪ»áĬķáĮī
ĠáĬ¥áĪµáĪ¨áĬĽ
ĠáĭĪáĬķáĭµáĬĵ
Ġáĭ«áĬĲáĪ±
ĠáĬłáĭŃáĪģáĬķ
áī¦áĪ«
áĮ»áĬķ
ky
ĠáĪĺáĭĪáĪ°
ĠáĬłáĭŃáĮłáīłáīħ
áĪĭáīĢáĪĪ
Ġáī«áĭŃáĪ¨áĪ±
Ġáĭ¨áī°áĮłáīĢáĪ±áīµáĬķ
áĬķáĭ¶áī½áĬķ
ĠáĪĺáĮ¥áĪ«áīµ
::"
ĠáĮįáī¥áĪŃáĬĵ
ĠáīłáĪĺáīĢáĮłáĪįáĪĿ
Ġáĭ¨áĬ¥áĭįáīĤáĭ«
Ġáī°áĬĲáĪµáī°áĭį
áĬŃáĪįáĬĿ
áĬ¨áĪ«áĬ¨áĪ©
ĠAb
Ġáī°áĮĵáĭ³áĬĿ
Ġáĭ°áĪĽáīħ
Ġáĭ¨áĪĺáīĭáīĭáĪĿ
ĠáĬłáĭŃáĭ°áĪĪáĪĿáĬĵ
ĠáĪĪáĪĿáĬķáĪµ
ĠáĪĪáĪĽáĪµáīĨáĪĿ
ĠáīłáĪķáĭŃáĭĪáīµáĪħ
ĠáīłáīĭáĬķáīĭ
áĪ«áĬŃ
ĠáīłáĬ¥áĪŃáĪ»
ĠáĬ¨áī°áĪĪáĪĺáĭ°áĭį
Ġáĭ¨áĪĽáĭŃáĮĪáī£
ĠáĪµáįĶáĬķ
Ġáĭ¨áĪĺáĬ¨áĪ«
ĠáīłáīłáīĤ
ĠáĬ¥áĭ¨áĪŀáĬ¨áĪ¨
ĠáĬłáĬĹáĬĹáĪŃ
ĠáĬłáĭŃáī£áĪįáĪĿ
ĠáīłáĪĺáĮłáĭ¨áīħ
ĠáīłáĬ¥áĮĦ
ĠáĪĺáĮĪáĪįáĮĪáĭ«
áĪĺáĬķáĬķ
áĮ¸áĪĪáĭŃ
Ġ58
áĪĺáĪ°áĪ¨áī°
ĠáĪĺáĪĪáĭĭáĭĪáĮ«
Ġáĭ¨áī°áī°
ĠáĬ¥áĬķáĭ²áįĪáĮłáĪŃ
Ġáĭ¨áĬłáĪłáĪ«áĪŃ
ĠáĪĪáĭĺáĪĪáĭĵáĪĪáĪĿ
ĠáīłáĬķáĮīáĪ¡
áĭ°áīģ
áĭĭáĪ³áīµ
áĮ¡áĪ¨áī³
ĠáīłáīħáĮ¡
ĠáĬłáĪµáīĢáĭ«áĪļ
ĠáįĪáīħ
Ġáĭ¨áĪħáĭ³áĪ´
ĠáĪĽáĪĿáĪ¨áī»
ĠáĬ¥áĬķáĭ°áĪĽáĪį
Ġáī£áĭ°áĪ¨áĮīáīµ
Ġáĭ¨áīµáī¥áī¥áĪŃ
ĠáīłáĪĿáī³
áĪĪáĪĽáĪĺáĭµ
áīħáĪ±
áĬĸáī¹áĬķ
ĠáĪµáĪ«áĬķ
ĠáĬłáĮĭáĬķ
Ġáĭ¨áĬłáĭ°áĮĭ
ĠáĬ¨áĬ¥áĪŃáĪµ
ĠLG
ĠáĪĽáįįáĪ«áīµ
áĭ«áĬķáĭ³áĬķáĭ³áī½áĬķ
áĬķáĭµáĬĲáĭį
áĪ°áĪĽáĪ«áīµ
ĠáĪĺáī¥áĪ«áī¶áī½
ĠáĭŃáįĪáĮ½
ĠáĬłáĭĽáĭ¥
ĠáĪ½áĪįáĪĽáī¶áī½áĬķ
áĪĺáĮ½áĪĲ
áĬĸáī»áī½áĬķ
ĠáĮ¥áĬķáĭµ
Ġ68
áĪĭáĬķáīµ
áĬłáī¸áĭįáĪĿ
ĠáĪĬáĬĸáĪ¨áĬķ
ĠáĬ¢áĪ³áīµ
ĠáĭķáĪŃáĪĿáĮĥ
ĠáĪĺáĭµáĪ¨áĬ©
Ġáĭ¨áĪ¶áĪµáīµ
ĠáĪĪáĪĺáįĪáįĢáĪĿ
ĠáĬ¥áĭįáīĢ
ĠáīłáīĢáĪį
Ġ72
ĠáĪĪáĪĽáĪµáĪ¨áĭ³áīµ
Ġáĭ¨áįĭáĭŃáĪį
áĬ«áĭµ
ĠáĬ¥áĬķáĭ²áīĨáĭŃ
ĠáĬ¨áĬłáĭ²áĪµ
ĠáīłáĮįáĪĽáĪ½
Ġáīłáī´áĬŃáĬĸáĪİáĮĤ
áĭ³áĪ½
ĠáĬĲáĮĪáĪŃáĮįáĬķ
Ġáĭ¨áĬłáĪĭ
ĠáĪľáīµáĪ®
ĠáĬłáīĭáĪŃ
ĠáĬłáĪ¨áĮĭáĮįáĮłáĭĭáĪį
ĠáĪ¶áĪµáī°áĬĽáĭį
ĠáĪĪáĪĽáĪµáīĢáĪ¨áīµ
ĠáĬłáĬŃáĪĪáĭįáĪĿ
áĪłáĪ©áīµáĬķ
ĠáĭŃáĬķáĬ¨áī£áĬ¨
Ġáĭ°áĮĭáĮįáĪĺáĭį
ĠáĬłáĪĺáĪįáĬŃáī·áĪį
ĠáĪįáĬ¡áĬŃ
ĠáĬ¥áĬķáĮĢáĪĿáĪ«áĪĪáĬķ
ĠáĭŃáīĢáĭ¨
ĠáĬ¥áĭ¨áĪŀáĬ¨áĪŃáĬ©
áīłáīĤáĭ«
áīªáĬķ
áīĢáĪŃáī¥áĪĿ
ĠáĬ¥áĮłáīĢáĪĽáĪĪáĪģ
ĠáĬłáīµáĮ¨áĬĲáīħ
ĠáĪĽáĪµáįĪáĪ«
áīĢáĪ¨áīłáĭį
ĠáĪĿáĪŃáĪĺáĪ«áĭİáī½
áĪ®áĮĮ
Ġáĭ¨áĪļáĭ«áĪµáįĪáĪ«
Ġáĭ¨áĪĪáī¥áĬĿáĪĿ
ĠáĬ®áĬ¨áī¦áī½
ĠAn
áĪĪáĪĺáĭ°
ĠáĬ¥áī£áĬŃáĪħáĬķ
ĠáĪĺáĬĵáįįáĪµáīµ
ĠáĪĬáĭ«áĮĭáĮ¥
ĠáĭĪáĭ²áĭ«áĭįáĪĿ
ĠáĭĵáĪŃáī¥
áĮŃáĪĿ
Ġáī¡áĬŃ
ĠáĪ°áĭĵáī±
ĠáĪĽáĭ³áīłáĪŃ
áī¥áĭ«
ĠáĪĪáĪĺáĪĻáĪĭáīµ
ĠáīłáĬ¥áĪµáĭ«
áĪµáīµáĪªáĭ«
ĠáĭµáĬķáĬ³
Ġáī°áĭ°áĪµáī»áĪĪáĪģ
ĠáĪĺáĪĨáĬĹ
ĠáĬłáĭĺáĮĭáĮĢ
áĭ¶áĬķ
Ġáĭ¨áĭĵáĭŃáĬķ
áĪ¨áī±áĬķ
áįĪáĪĪáĮĮ
ĠáĮİáĬĸáī½
ĠáĭŃáĮĪáĬĿ
Ġáĭ¨áĪ¥áĮĭ
ĠáįķáĪĭáĬĶáīµ
ĠáĭŃáĮĪáĪŃáĪĽáĪį
ĠáĬ¥áĪµáĬ¨áĪĺáĮ¨áĪ¨áĪ»áĭį
IT
Ġáī°áĮłáīĥ
Ġáĭ¨áĭŀ
áĬĵáĭįáīĢáĭį
ĠáīłáĪĺáĪĿáĪ¨áĮ¥
Ġ(âĨ
ĠáīłáĪ°áĮłáĭį
áĮ¥áįİ
áĬŃáĪĻ
Ġáīłáī°áĭĺáĭĭáĭĭáĪª
ĠáĮŃáĪĽ
ĠáĬłáĮ«áĮŃáĪŃ
ĠáĭįáĬŃáĪįáĬĵ
ĠáĬ¥áĬķáĮĪáĬĵáĬĿ
ĠáĬ¥áĬķáĭ°áī°áĮłáīĢáĪ°áĭį
ĠáįĪáīĥáĭ±
ĠáĬ¾áĬĸ
Ġáĭ¨áĭĪáīħáī±
áĬ¨áįĭáįĪ
ĠáĬ¨áĭĵáĪĺáī³áīµ
Ġáĭ¨áĭĿáĮįáĮħáīµ
Ġáĭ¨áĪļáĭ«áĪĺáĪĪáĬŃáīµ
ĠáĪĮáĪİáī½áĬķáĪĿ
Ġáī°áįĪáĮ¸áĪĺ
Ġáĭ¨áī±áĪªáĪµáīµ
ĠáĬ¥áĬķáĭ°áīĢáĮłáĪĪ
ĠáĪĿáĬķáĬĲáīµ
Ġáī¥áī»áī¸áĭįáĬķ
ĠáĪĺáĪŃáĭĽáĪĽ
Ġáī°áīĥáĭį
Ġáĭ¨áī°áĭ°áĪ«áĮĢ
áĭ°áĪ®áī½
ĠáĬ¥áĬķáĪĺáĪŃ
ĠáĪ²áĪ°áĪĽ
ĠáīłáĮ¥áĪŀáĬĵ
Ġáī°áĮłáīħáĪĺáĭį
ĠáīłáįĪáīĥáĭ°áĬĿáĬĲáīµ
Ġáī³áĬ«áĪļáĭİáī½
Ġáīłáī°áĪĪáĪĺáĭ°áĭį
Ġáĭ¨áĪĻáĪµáĪĬ
Ġáĭ¨áįĭáī¥áĪªáĬ«
io
ĠáĬĭ
ĠáĭĺáĮĭáī¢
Ġáĭ°áĮįáĪŀáĪµ
áĪĿáĬĳáīµ
Ġáĭįáĭ´
ĠáĬłáĭŃáĪ°
Ġáĭ¨áĭĺáĪĺáĬĳ
ĠáĪĺáīģáĮłáĪŃ
ĠáĭŃáĬ¨áįįáĪĭáĪį
áĪħáĪ«
áī¸áĭĭáĪĪáī½
ĠáĪŃáĮį
ĠII
ĠáĬłáĭŃáĭĪáĭµáĪĿ
ĠáĭŃáĪµáī°áĭĭ
Ġáī°áĪĺáĪłáĪ¨áī°
ĠáĬĲáįįáĪ±áĬķ
Ġáī³áĬŃ
Ġáī³áĭĪáīĢ
áįĥáįĪáĭį
áĪµáĮ¥áĬ¤áĪĽáĭįáĭ«áĬķ
áį²áį
áĬŃáĪ¬
Ġáĭ«áĪĺáĪĪáĬŃáī³áĪī
ĠáĪ¥áĭķáĪİáī½
ĠáĬłáĪ«áĭĬáīµ
ĠáĪĺáĭ«
áīĥáĭĬ
ĠáĬ¥áĬķáĪĽ
áĪ¬áī±
áĪķáĭĿáī¥
áĮĪáĪįáĮĭáĭŃ
Ġáī´áĭİ
ĠáīģáĪĿáįĬáĭİáī½
áĭľáĬķ
áī«áĬķ
áįĴáĬķáĪµ
mm
ĠáĪĽáĮŃáīłáĪŃáīłáĪŃ
áĬķáĭĺáī¡
Ġáī£áĭŃáĬĸáĪŃ
ĠáĬ¥áįİáĭŃáī³
ĠáĬ¥áĪµáĪįáĪĿáĬĵ
áĮ«áĭĪáī°áĭį
able
Ġáĭ«áīĢáĪ¨áīłáĭį
áĭŃáĪĸáĭĭ
ĠáĬ«áĪĪáįĪ
ĠáĬłáĭ°áĪ¨áĮĪáī½
Ġáī°áĪĿáĪ³áĪĮ
áĭ«áįĬ
ĠáĪĺáī³áĭĺáĭĿ
ĠáĭĪáĮªáĭİáī½áĬķ
áĮĢáĪįáī£
Ġáī°áĭĺáĮĭáĮħáī¶
Ġáī¥áįģáĭĵáĬķ
Ġáĭ¨áĪļáĭĭ
Ġáĭ¨áĪĺáĪ³áĪªáĭ«
Ġáĭ¨áĬ¥áĪŃáĭ³áī³
ĠáĬłáĮĭáĪŃáĬĲáīµ
ĠáĭŃáįĪáĪ«áĪī
ĠáĬłáĭ°áĪ¨áĮįáĬķ
ĠáĬłáįĵáĪŃ
Ġáĭ¨áī°áĮłáĬĵ
ĠáĪ²áįĪáĪįáĮī
Ġáīłáī³áĪħáĪ³áĪµ
Ġáĭ¨áĬĲáīłáĪ¨áīłáīµ
ĠáĭŃáīłáĪĭáĪī
áīµáĪŃáįį
ĠáĪĪáī¤áī°áĪ°áī¦
ĠáīłáĪĺáĮ¥áīĢáĪµ
ĠáĪĽáĬĵáī¸áĭįáĬķáĪĿ
áĮĪáī£áĬĽáĪį
ĠáīłáĪĽáĪĺáĬķ
Ġáĭĭáĭį
ĠáĬłáĪµáī°áĪĽáĪªáĭİáī½
Ġáĭ¨áī£áĪħ
ĠáĪķáĭŃáĭĪáī³áī¸áĭįáĬķ
Ġáī°áĮłáīħáĪ·áĪį
áĪ³áī¡
ĠáĪĽáĪª
áĪįáįİ
ĠáĪĬáĪĺáĪµáĪį
áĬĹáī¸áĭį
ĠáĬķáĮįáĪµáīµ
ĠáĪľáĬ«
ank
ĠáĮĪáĬķáī¢áĭİáī½
ĠáĬ¢áĬķáī¨áĪµáīµáĪĺáĬķ
ĠáĬłáĭŃáĭį
ated
ĠáįįáĪ«áĬķáĬŃ
ĠáĬłáĪĪáī£áīłáĪµ
ĠáīłáĪĿáĪŃáĮ«áĭį
áĪŃáĪŀáĬķ
ĠáīłáĬ¨
ĠáĪĺáĭĺáĭĿ
ĠáĪĺáĪµáįĭáįĭáīµ
ĠáĬłáįįáĪªáīĥ
Ġáī°áĮ«áĭĭáī¾áī½áĬķ
ĠáĬ¥áĬķáĭ°áĪĺáĪĨ
Ġáĭ«áĭµáĮĭáĪį
ĠáĪĺáĭĿáĬĵáĬĵáīµ
ĠáĪĪáĪĺáįĪáī°áĪ½
ĠáĮ¥áĪĿáīĢáīµ
áĬĴáĭį
áĮĮáī³áĭ¬
Ġáĭ¨áĪļáĭ«áĪµáĭ°áĪµáīµ
Ġáĭ«áĬķáī°áĬķ
áī¦áĪį
ĠáīłáīµáĪ«
ith
ĠáĪķáĭŃáĭĪáī³áī½áĬķ
áĮĪáĬĵáĬĺáĬķ
Ġáĭ²áĪŀáĬŃáĪ«áĪ²áĭ«áĭĬ
ĠáĬ¥áĮ¸áĪįáĭ«áĪĪáĪģ
ĠáĪµáĪĺáĪĪáĬ¨áīµ
Ġáĭ¨áĪĺáĬĵáĮĪáĪŃ
ĠáĬ¥áĬķáĭ°áĪļáĪĦáĭµ
ĠáīµáĭĿáī¥
ĠáĬłáĭ«áĪµáįĪáĪįáĮĪáĬķáĪĿ
ĠáĬłáĪįáī°áĪ³áĬ«áĪĿ
55
ĠáĪµáĬķáĭ´
ĠáīĢáĪ¨áĮ¥
Ġáĭ°áĬķáī¦áī½áĬķ
ĠáĪĺáĪįáĬ¥áĬŃáī¶áī½
ĠáĬ¥áĬķáĭ³áĬķáī°
ĠáĬ¨áī°áĭ°áĪ¨áĮĪ
áĮįáīłáĭĭáĪį
ĠáĪµáĪĽáī¸áĭįáĬķ
ĠáĬ¥áĬķáĭ²áĬĸáĪ¨áĬķ
Ġáī¡áĭµáĬĵáī½áĬķ
ĠáĮĪáĮłáĪĺáĬĿ
ĠáĪ°áįĪáĪ©
ĠáĬ¥áĬķáĭ´áīµáĪµ
ĠáĬłáĪ³áĭ¨áĬĿ
ĠáīłáĮ¥áĪ«áīµ
ĠáĬłáĮĪáĪŃáĬķ
áĭ«áĭ¨áĪŃ
ĠáĪĿáĪŃáĮ«áĭįáĬķ
Ġáī¡áĭµáĬĳáĬķ
ĠáĬ¥áĪįáīĤáīµ
ĠáĪĽáĪ°áĪªáĭ«
ĠáĬłáĮī
Ġáĭ¨áįķáĪ¬áĪµ
Ġáī¢áĪĺáĮ£
áĬķáĬķáĬĵ
ĠáĭŃáĭĺáī±
ĠáĭįáĪ³áĬĶáĭİáī½áĬķ
ĠáĮłáĭ¨áīģ
ĠáĪĽáīħáĪ¨áī¢áĭ«
Ġáĭ¨áĪļáĮĪáĭĽ
áĪ®áī³
Ġáĭ¨áĬ¢áĪħáĬłáĭ´áĮį
ĠáĬ¥áī½áĪĭáĪĪáĪģáĬķ
ĠáĭŃáĭĪáĪµáĬĵáĪį
Ġáĭ¨áĭµáĬķáīłáĪŃ
áĪŃáī»áĪ®
áĭĺáĬĲ
áĭĪáĭ³áīµ
ĠáĪĪáĬĲáĪŃáĪ±
Ġáĭ¨áĪļáĭĪáĪ°áĬķ
ĠáįĪáĭį
ĠáĮ£áĪªáĭ«
In
ĠáĪĺáĭĪáĮĪáĭµ
áīłáĮł
ĠáĪ²áĮĪáĬĿ
ĠáĬ¥áĪŃáĮīáĭĿ
Ġáĭ¨áĭĺáĪ¨
ĠáīłáĪĿáīµáĬ©
ĠáĬ®áĪļáī´áĭį
ĠáįĪáĪªáĪ³áĭįáĭ«áĬķ
lol
ĠáĮ§
Ġáī¥áĮ¤
ĠáĪįáĬ¬áīµ
ĠáĬłáĪĿáĬĵ
ĠáĪĺáĮłáĬĲáĬĽ
Ġáīłáĭ±áī£áĭŃ
Ġáĭ¨áĪļáĪ°áĮłáĭįáĬķ
áĮ¥áĪİ
Ġáī£áĮłáīĥáĪĭáĭŃ
áĬĲáĪ³áĪ³áīµ
ĠáīłáĪµáĪĻ
áĪĦáĭ±áīłáīµ
ĠáĪĺáĪ¸áĬ¨áĪĿ
Ġáĭ¨áīµáĭĬáī°áĪŃ
ĠáĬ¥áĬķáĭ²áī³áĭŃ
áĪºáĭ«
ĠáĭĺáĪĺáĭ¶áī½
Ġáĭ¨áĭĵáĪĪáĪĿáĬķ
ĠáīłáĭµáĪŃáĮħáī±
Ġáīłáī°áī»
Ġáĭ¨áĪĿáĬĵáĮĪáĪ¨áĭį
ĠáĭŃáīĨáĭ«áĪī
ĠáĮ³áĮ³áĪ³áīµ
ĠáĬŃáįĪáīµ
ĠáĭķáĭµáĪİáī½áĬķ
ĠáĪħáĭŃáĭĪáī±áĬķ
ĠáĮ£áī¶áī½
ĠáĪĪáĬ¨áįįáī°áĬĽ
Ġáīµáī°
ĠáĭĺáĮĪáī£áĭį
ĠáīłáĪ°áĪĭáĪĽáĭĬ
Ġáĭ¨áĮ¥áĪŃáĪµ
Ġáĭ¨áī¤áī°áĪ°áī¡
Ġáĭ«áĬ«áĪĤ
ĠáĪĽáĬĲ
ĠáĪ²áĪįáĪĿ
ĠáĭµáĪĨáī½
Ġáī¦áĪŃ
ĠáĬ¨áĪĺáĮłáīĢáĪĿ
ĠáĬłáĪ¨áįĭ
ĠáĮ½áĪģáįİáī½
Ġáĭ«áĪµáĬ¨áįįáĪĭáĪį
Ġáĭ¨áĭĬ
áĭĽáĪĪáĬķ
áĭķáĪ°
ĠáĬ¥áĭ¨áĪĺáĪ«
ĠáīłáĭįáĪį
ĠáĮĵáĭ°áĬĽáĭį
ĠáĮłáīħáĪ°áĭĭáĪį
ĠáĬ¨áĭĪáĭ«áĬĶ
ĠáīłáĬ¥áĬĶáĬĵ
áĪ³áĪ°áĪī
ke
Ġáĭ¨áĭįáĪ³áĬĶ
Ġáĭ¨áī¡áĭµáĬĳ
Ġáĭ¨áĭĪáĪ¨áīĢáīµ
ĠáĪŀáīĥáī³áĪĽ
ĠáĪ°áĮ¥áī¼
Ġáī¥áĪįáĪ¹
ĠáĭŃáĭ°áĪ°
ĠáĬ¨áĪł
ĠáĪĬáĭ«áĮĪáĬĿ
ĠáīłáĮ¨áĭĭáī³
ĠáĬ¥áīħáĭ¶áī½
áĪĽáĪĪáī½
áĬ¨áĪĪáĭį
áĮĨáī»áī½áĪģ
ĠáĭŃáĪĽáĪŃ
ĠáĪĪáĪĺáĮĪáĪĿáĮĪáĪĿ
áĬĵáĪįáĬĵ
ĠáĪĪáĬłáįįáĪªáĬ«
ĠáĪĽáĭķáĭµ
Ġáĭ±áĪĭ
ĠáĪ¥áĪŃáĭĵáī°
ĠáĪĥáĭŃáĪĽáĬĸáī¶áī½
ĠáĭĪáĭ¶
áĪĮáĪĿ
ĠáĪĽáĭķáĪ¨áĮį
ĠáĭŃáĪŀáĬŃáĪ©áīµ
Ġáīłáĭ³áĭĬáīµ
áĭ¨áĪĺáĮĢáĪĺáĪªáĭ«
PR
__
ĠáīłáĪİ
Ġáĭ¨áĪĺáĭ°
áĪĭáĭŃáīµ
ĠáĬłáĪĿáĬĲáĭį
ĠáĪĺáĮłáĭŃ
áĪĭáĬŃáĪ²
ĠáĪµáĪĿáĭĸáĬķ
áĪ³áī¸áĭįáĪĿ
ĠáĮĪáįħáī³
ĠáīłáĪļáĭ«áĪµáĭ°áĬķáīħ
ĠáīłáĬłáĬ«áī£áī¢áĭ«
ĠáĭŃáĮĢáĪĺ
áĪĨáĬķáĬ©
Ġ2002
ĠáĬłáĪ¨áįĪ
ĠáĬłáĭĿáĪĽáĪļáĭ«áĭİáī½
ĠáĪĺáĪĿáĮ£áī±áĬķ
ĠáĪĺáī¸áĪĿ
Ġáĭ¨áĬ¨áīłáĪ¨
áĬĵáĪŃ
ory
Ġáī°áĪ°áĮ¥áĬ¦
Ġáī°áĪŃáĪļ
Ġáī¤áī°áĪ°áī¦áī¼
fli
Ġáī»áĭŃáĬķáĬĽ
Ġáĭ¨áĬłáī£áī±áĬķ
áĮįáĭĿ
ĠáĭĪáĪİ
Ġáī³áĮĪ
áĮįáĬķáĬĲáīµ
áĭ°áī±áĬķ
áįįáĮ¥
Ġáĭ¨áĪļáĮłáīłáīĢáĭį
ĠáĬ¥áĬķáĭ°áĭ¨
ĠáĬłáĪĪáī¥áĭİ
ĠáĬłáĭ«áĮĪáĬĻáĪĿ
áīºáĭį
ĠáĬłáĮĪáĬĺáĪģáīµ
Ġáĭ¨áī°áĮĭáĪĪáĮ¡
ĠáĭŃáįĪáĮ¸áĪĽáĪį
ĠáĬłáĪ³áĭ¨
ĠáĭµáĮĭáĪļ
ĠáĬ¥áĪµáĪ«áĬ¤áĪįáĪĿ
áĪ¨áĪĺ
áīĢáĪ¨áī¥
áįĭáĮłáĬķ
áĮİáĪĽ
áĭĭáĮħ
ĠáĬ«áī¢áĬĶ
ĠáīłáĪŃáīĢáīµ
ĠáīłáĬĲáīłáĪ©áīµ
ĠáīħáĪ¬áī³áĭİáī½
Ġáĭ¨áĬ¢áĭ¨áĪ±áĪµáĬķ
ĠáĮİáī¥áĬļáĭİáī½
Ġ(âĨĲ
ĠáĮłáĮĭ
áĪĮáĭŃ
ĠáĬłáĬŃáĪ«áĪª
Ġáĭ¨áĬ¤áī½
ĠáĬ¥áĬķáĭ°áĪĮáĪĭáī¸áĭį
ĠáĮ¦áĪŃáĬĲáī¶áī½
áĮĪáĭĻáīµ
Ġáĭ«áĭ°áĪ¨áĮįáĬĲáĭį
ĠáīłáĪĽáĮįáĪµáī±
]áį¢
ĠáĪĥáĪĿáĪ³
ĠáĪĪáĪ¶áĪµáī°áĬĽ
ĠáĪµáĭįáĪŃ
áĪŃáĪµáīµáĭ«
ĠáĬłáĪŃáī²áĪµáī¶áī½
Ġáĭ¨áĬ¤áĪį
Ġáĭ¨áĪļáī£áĪīáīµ
Ġáī³áĭŃáĪĿ
ĠáĬ«áĭ°áĪ¨
Ġáī°áĮ«áĭĭáī¹
Ġáī£áĪįáĬķáĮĢáĪ«
áĭĪáĪµáĬķ
ĠáĬłáĭŃáįĪáīĢáĭµ
ĠáĪµáī±áĭ²áĭ®
ale
áĬłáĪĪáĪĿ
áĭ³áĭ°áĪªáĭ«
ĠáīłáĪĿáĪµáĪ«áīħ
ĠáĬ¥áįĪáĪ«áĪĪáĪģ
ĠáĭĺáĪĺáĬĵ
ĠáĬłáĬķáĭ³áī½áĬķ
áĪµáĪ«áĬ¤áĪĭáĭįáĭ«áĬķ
ĠáĪįáĭ©áĬĲáī±
ĠáĭŃáīłáīĥáĪį
Ġáĭ¨áĬķáī¥áĪ¨áīµ
ĠáĭŃáī°áĬĽ
áĬ©áĪ½
áĪįáįįáĪĿ
ĠáĪĪáĪĺáĬķáĬ¨áī£áĬ¨áī¥
Ġáĭ¨áī°áĪŀáĪī
ĠáĬłáĪĺáĪ°áĮįáĬķáĪĥáĪĪáĪģ
áĭĿáīħ
Ġáī°áĮłáīĥáĪļáĭİáī½áĬķ
ĠáĭŃáī³áĪ°
ĠáĪĽáĪįáīĢáĪµ
ĠáīłáĮĦ
áĪĺáĪ¨áĪĿáĪŃ
Ġáī£áĪĪáĪĻáĭ«áĭİáī½áĬķ
áĬĵáĪĽ
ĠáĬłáĪµáĬ¨áī£
ĠáĬłáĪĪáĪŃáĮĤ
ĠáīłáĬ¥áĪŃ
ĠáĪĪáĬłáĪģáĬĳ
Ġáĭ¨áĪħáĭĪáĪĥáīµ
ĠáĪ¸áĪ¹
Ġáĭ¨áĪģáĪĪáī±áĪĿ
Ġáĭ«áĪµáī¸áĮįáĪ«áĪį
áĪ°áĮ£áī½áĪģ
Ġáĭ«áĪµáĪ¨áĭ³áĪį
áĬķáĮħ
Ġáĭ¨áī°áĬĲáĮĪáĪ¨áĭį
áĮ½áīłáīµ
ĠáĬłáĮĪáĪįáĮįáĪıáĪį
ĠáĬ¥áĪĿáīħ
Ġáī£áĪĪáĪĺáĪĨáĬĳ
Ġáĭ°áĪ«áĪ²áĭį
áĬ«áįĪ
áĬĽáĪįáĬĵ
Ġáĭ¨áĪĨáĭµ
Ġáī°áĪµáī°áĬ«
ĠáĬłáĪįáī³áĭĪ
Ġáĭ¨áįĪáī°áĬĵ
áīłáĪ¨áī³áī³áīµ
ĠáĪĺáĪĪáĪ°áĪĪáīµ
áĪĽáĬĿáĬĲáīµ
ĠáĪ°áĮłáĬĿ
Ġáĭ¨áĬłáįķáĪį
ĠáĪĺáĪįáĪ¼
áĪłáĪį
ĠáĭĭáĪį
áī³áĭŃáĬķ
ĠáĮ£áī¢áĭ«áĭİáĬķ
Ġáĭ¨áĮīáĮįáĪį
ĠXNUMX
ĠáĮ¾áī³
ĠáīłáĪµáī¥áĪ°áī£áĭį
áī½áĪĪáĭįáĬķ
ĠáīłáĬ¢áĬķáĭ±áĪµáīµáĪªáĭį
áĬķáįį
áĬŃáĪİáī½
ĠáĮ¥áĪĿáĪŃ
Ġáĭ¨áĪĽáĭ¨áĭį
ĠáĪħáīµáĪĺáīµ
ĠáīħáĭµáĪĿ
ĠáĭĪáĪµáĭ·áĪį
Google
Ġáĭ¨áĬłáĮłáīĥáīĢáĪĿ
ĠáĪŀáĬ¨áĪ¨
ĠáĬłáĪ³áĪįáįĪáĭį
ĠáīłáĪĺáĮłáĬĳ
ĠáĭŃáĮłáīģáĪĽáĪį
áī¥áĬ©
áĭİáī¿
áĪĺáĪ°áĪ¨áīµ
áĬķáĭĽáĭ¥
Ġáī¥áĬķáĪĨáĬķ
Ġáĭ¨áĮ¸áĮ¥áī³
ĠáĭĪáĪŃáīĥáĪĽ
áĪ¯áī¸áĭįáĬķ
Ġáī°áĭ°áĪ«
Ġáĭ«áĮįáĭĽáĪį
ĠáĪĬáĪĪáĭĪáĮ¥
Ġáī°áīĢáīłáĪĪ
ĠáĬŃáĬķáįį
Ġáĭ°áĬħáĬķáĬĲáīµ
áĪįáĮĭ
Ġáīłáĭ°áĪŃáĮį
ĠáĪĺáĬ¨áįĭáįĪáĪį
ĠáĮĬáĭľáĭ«áī¸áĭįáĬķ
ĠáĪĬáĪ°áĮ¡
ĠáĮĪáĪĥáĬĲáĪĿ
ĠáĬłáĪįáĪĺ
áĪĬáĪµáīµ
ĠáĭµáĬķáĮĭáĮĮáĭİáī½
áĬŃáĪ«
áĬŃáįĪáĪį
áĪ³áĪŃ
áĭĪáĭ°áĭįáĬķ
Ġáĭ¨áĮįáĭµáĮįáĭ³
ĠáĪµáĪĿáĪĿáĬĲáī±
áĬķáĪĭáĭŃáĬķ
Ġáĭ¨áĭĺáĮĪ
áĭ¨áī´
áĭķáĭĿ
ĠáĬłáĪĭáĪĪáĪĿ
áĭ°áĪ¨áĮĪáĭįáĬķ
ĠáĪĺáĭ«áĭĻ
Ġáĭ¨áĪļáĮĵáĭĻ
áĬ«áĬ¨áĪĪáĬĽáĭį
ĠáĬ¥áĬķáĬĲáĮĭáĮĪáĪŃ
Ġáĭ¨áĪĽáĪ°áī¥
ĠáįĪáī³
áĬªáĬĵáĭį
ĠáĬ¨áĬłáĬķ
ĠáīµáĪĿáĪħáĪŃáī±
ĠáĬ¥áĬķáĪ°áĪĽ
áĬ®áĪĮáīµ
ĠáĪĽáĬķáĬĽ
ĠáĪĪáĬłáĪĭáĪħ
ĠCont
ĠáĪĲáĪ°áī°áĬĽ
ĠáĪķáĭĿáī¥áĪĿ
ĠáĬ¥áĬķáĭ°áĪĽáĭŃáī½áĪī
Ġáĭ¨áĬłáĭįáĪ®áįķáĪĭáĬķ
áĬŃáĬŃáĪĪáĬĽ
áĪ¸áĭį
ĠáĮīáī£áĬ¤áĭį
ĠáĬ¥áĪ³áī¸áĭįáĪĿ
ĠáĭĮáī¥
ĠáĬ¥áĬķáĭ°áĪļáī£áĪĪáĭį
áįķáĪ«áĭŃ
ĠáīłáīµáĮĭáīµ
ĠáĪĦáĭ°áĬķ
ĠáĮįáī¥áĭŃ
ĠáĭŃáīĢáĪĺáĮ£áĪī
ĠáĭĿáĪĽáĪ¬
áĮ£áįĭ
ĠáīłáĬłáĪ¸
ĠáĬ¨áįįáī¶
ĠáĭĪáĮ¥áī°áĭĭáĪį
ĠáĪĪáĪħáĭĿáī¡
ĠáįĪáĮ¥áĬĸ
ĠáĬ¥áĭ¨áĮłáīłáīħ
ĠáĭĭáĪ½áĬķáĮįáī°áĬķ
ĠáĮįáĪ«áĪĿ
áĬĲáĪŃáĮĤ
ĠáĬ¥áĬĵáĪµáī£áĪĪáĬķ
ĠáĬłáĪ»áĬķáĮīáĪĬ
áĬ¥áĭĽ
ĠáĬ¥áĬķáĭ²áĪ³áī°áįī
ĠáīłáĪĺáĪĭáĬŃ
ĠáĬ¨áĪ°áĪľáĬķ
ĠáĬ¨áĭĵáĪĺáīµ
ari
áĪµáįĴáī³áĪį
ĠáĭĪáĬķáĮĢáĪĪáĬĽ
rypt
ĠáīłáĮĪáĬĵ
ĠáĪĺáĭĺáĮĭ
áįĭáĪİáīµ
áĪĺáĬķáįĪáĪµ
ĠáĮŃáįįáĮ¨áįĭ
ĠáĬłáĪĭáĭĪáīħ
ĠáĬ¥áĪµáĬ¨áĬłáĪģáĬķ
Ġáĭ¨áĪļáĭ«áĪµáįĪáĪįáĮĭ
Ġáĭ²áĪµ
áĭĪáĭ«áĭ©
ĠáīłáĮłáĭĭáīµ
áĪ¨áĪ½
áĭ¨áĪļáĭ«
áĭ²áĭ«áĬķ
ĠáĬ®áįĴ
Ġáĭ«áĪįáī³áĭĪáīĢ
áĬ¸áĬķ
ĠáīłáĭĭáĮĭ
ĠáĬ¥áĬķáĭĪáĪµ
ĠáĪĺáĪµáĪ«áī½
Ġáĭ³áĬĽáĭį
ĠáĪĥáīħ
ĠáĮŃáĪ«
Ġáĭ¨áĪ«áĪµáĬķ
ĠáīłáīłáĪ½áī³áĭį
áĪĪáī¥áĪ±
Ġáī¥áĪįáĪħáĬĲáīµ
ĠáĭµáĪŃáĮ£áī¢áĭ«áĭİáī½
ĠáīĥáĪİáī½
áĪĭáĪĪáįĪáĭį
Ġáĭ°áĪŃáĪ°áĬĵáĪį
ĠáĮĵáĭ°áĬĽáĭİ
ĠáīģáĪŃáĬłáĬķ
ĠáĬ¥áĬķáĭ°áĭļáĭ«áĭį
Ġáĭ¨áĪ²áīªáĪį
ĠáĪĩ
Ġáĭ¨áĪŁ
Ġáī¥áĭĽ
Ġáī£áĪĪáĪģ
Ġáīłáī°áĮłáīĥáĪļ
áĪ³áĭįáīħ
ĠáĭĺáĮĪáī£áĭİáī½
ĠáįīáĬŃáĬŃáĪŃ
ĠáīłáĭĽáĭį
ĠáĪĪáĬłáĬķáĭ±
ĠáĭµáĬķáī½
ĠáĪĺáĪĿáī³áīµ
ĠáĬŃáĪįáĪĭáĭĬ
ĠáĬ¨áĭĪáĬķáĭ¶áī½
áĪĺáĪĪáĪ±áĪĿ
ĠáĪĺáįĪáī°áĪ½
áīĢáĪ¨áī¡áīµ
ĠáĪĺáĪĺáĪĪáĪ»
Ġáĭ¨áĪĿáĬĵáĮĪáĬĺáĭį
Ġáĭ¨áĬłáĬ¨áī£áī¢
ĠáĪĲáĭŃ
ĠáĬĸáĪ¨áĭĭáĪį
Ġáĭ¨áĬªáĬĲ
Ġáĭ¨áĪħáĪį
Ġáĭ¨áĭ®áĪĲáĬķáĪµ
Ġáĭ¨áĪļáīĥ
ĠáĬ«áĪĪáĬķ
ĠáĮįáĬķáĬĻáĬĲáī¶áī½áĬķ
ĠáĪĽáĭķáīĢáī¥
ĠáįķáĪ®áĮįáĪ«áĪŀáī½áĬķ
ĠáĬ¥áĮįáĪŃáĬ³áĪµ
áĮ´áĭĽáĭį
ĠáĪĪáĬķáĮīáĪ¡
ĠáĪĽáĬĲáĪµ
ĠáĬłáī£áī´áĬķ
áĮĭáī¥áĭĿ
ĠáĮ«áĮ«áī³
áĪ¨áĬ¨áī¥
ĠáīĢáĭį
Ġáī»áīµ
ĠáīłáįĪáĪ¨áĬķáĪ£áĭŃ
ĠáĪķáĭŃáĭĪáī±
ĠáĪ°áĬĲáĭ¶áī½áĬķ
áĮįáĪŃáĬĽ
Ġáī°áĭĵáĪĿáĪŃ
áĪŃáī·áĪį
áĭ³áĪĺáĮ¥
ĠáĮīáĭ³áī±
int
Ġáĭ¨áĬ«áī¶áĪĬáĬŃ
TA
áĪ¨áĬĽáĭį
ĠáĬķáĪµ
ĠáĬ¥áĮħáĮīáĬķ
ĠáĭĪáĭ³áĪĪáĭį
flix
áĭĭáĭĪáĮ¥
áĮ½áįĪáĭį
áĭ°áĪ¨áĮīáĪĿ
Ġáī°áĭ°áĪ«áĮħ
áĪİáĪªáĭ³
SS
ĠáīłáĬĲáĪ±
ĠáīłáĪĺáĮłáī£áīłáīħ
Ġáĭ¨áĮ¥áĪĭáī»
ĠáĪµáĪħáī°áī¶áī½áĬķ
ĠáĬ¨áīĢáĬĳ
ĠáĪĽáĬĶ
ĠáĮłáĪŃáĭĿ
Ġáī°áĬ¨áī³áĭ®áī½áĬķ
ĠáĮħáī¥
ĠáĬ¨áĪķáĮį
áĪªáī²
Ġáĭ«áĪµáįĪáĪįáĮī
ĠáīĨáĪ«
ĠáĪįáīµáĪĨáĬķ
ĠáĪīáīĥ
Ġáĭ¨áĪļáĪ°áĪ©áīµ
ĠáīħáĪŃáĬķáĮ«áįİáī½
áĪĿáĬŃáĬķáĭ«
áĪªáĬĿ
Ġáī³áĭĪ
ĠáĬ¥áĬķáĭ°áĪļáĬĸáĪ©
ĠáĪ¥áĪĭáĪ´
ĠáĬłáĬķáĭ±áĪĿ
ĠáĬ¨áĭ³
ĠáĪ¨áĮĭ
áĪŃáĭĿáĪ©
ĠáīłáĬ¥áĭįáīĢáīµ
áī³áī±
ĠáĬ¨áĪĺáĪį
ĠáĪĪáīģ
ork
ĠáĪĿáĬ¥áĪĺáĬĵáĬķ
ĠáĪµáĪķáī°áīµ
Ġáĭ«áĮĪáĬĻáīµ
ĠáīłáĪĺáī¶áĭį
Ġáĭ¨áĭĵáĪĺáī±
áĪ¨áīģ
áĮĢáĬķáī²
Ġáī°áĪĺáĬĺ
ĠáĪĪáĮĪáĬķáĭĺáī¥
Ġáĭ«áĮ¡
ĠáĪĪáĪĺáī°áĭį
ĠáīłáĪĿáĪĭ
ĠáĭĭáĮĭáĬķ
ĠáĬ¥áī£áī¥
ĠðŁĻĤ
ll
áĭĽáī½áĪģ
ĠáĬ¨áī°áĬ¨áĪ°áī°
ĠáĪĺáĬķáĮĪáĭµáĬķ
ĠáĭĪáĭ³áĮĨáī¼
ĠáĭŃáĪ°áĪĽáĭĭáĪį
Ġáĭ¨áī¢áĪ®
Ġáī°áĮĪáĭµáĪĪáĭĭáĪį
áīµáĪ¨áįĪáĪ¨áįĪ
áĭ°áĬĵ
áĬĻáīµ
áĪ°áī¥áĭĵáĭĬ
Ġ97
ĠáĬłáĮ¥áī°áĭĭáĪį
ens
Ġáĭ¨áĭĭáĪµáīµáĬĵ
ĠáĬłáĬķáĭ³áĬķáĭ´áĪĿ
áĪ°áĪī
ĠáīµáĪ°áĪĽ
áĪĻáĬĿ
Ġáīłáī°áī£áĪĪáĭį
ĠáĬ¥áĭ¨áĮłáīłáīĢ
Ġáĭ¨áĪįáī¥áĪµ
ĠáĬŃáī¥áĪŃáĬĵ
ĠáĭĲáĭŃáĬĲáīµ
áĪŃáįĸ
áĭ°áĭįáĪĿ
áĮłáĪĪáĮł
Ġáĭ¨áī°áĬ«áĪĦáĭ°
Ġáĭ¨áĪĺáĭĿ
Ġáī³áĮĭáĭŃ
áĭĪáĭ³áĮħ
ĠTh
Ġáĭ¨áĪŀáī°áĭį
ĠáĭŃáĬ¨áįįáĪĭáĪī
Ġáĭ¨áĬ«áĪŃáī¦áĬķ
ĠáĬłáĮĭáĬķáĬķáīµ
2006
Ġáĭ¨áī°áĬĲáĭ°áįĪ
ĠáĬ¥áĪµáīµáĬķáįĭáĪµ
ĠáĬĲáīłáĪįáī£áĪį
ĠáĬ®áĪļáĪ½
áī¥áī·áĪį
ĠáĭķáĬķáīģ
ĠáīĨáĪµ
Ġáī¥áįģáĭķ
ĠáĪĺáĪĦ
Ġáĭ¨áĮħ
Ġáĭ¨áĪļáĪ¹
ĠáĪĬáĭĪáĮ£
ĠáĬłáĮĪáĪªáī±áĬķ
ĠáĪĪáĭįáĮ¡áĬķ
ĠáĪĿáĭķáī°
ĠáĬ¥áĬ¤áĬł
ĠáĬłáĭĪáīĢ
Ġáīħáĭ±áĪ³áīµ
ĠáĬĥáĮ¢áĬłáī°áĬĽ
ĠáīłáĮ½áĭµáīħ
ĠáĪĻáĭļáĭ¨áĪĿ
ĠáĬłáĭįáī¶áĪĽáī²áĬŃ
ĠáĬ«áĪħáĬĵáī±
ĠáīµáĭķáĮįáĪµáīµ
DD
ĠáĪ²áīĢáĪŃ
ĠáĬ¥áĬĽáĬķáĪĿ
ĠáĪĪáĪļáīĢáĮ¥áĪĪáĭį
ĠáĬłáĭ«áĪµáĭ°áĬķ
ĠáīµáĪŀ
ĠáīłáĪĺáĪŀáĬ¨áĪŃ
áī£áī¸áĭįáĬĵ
ĠáĬ¥áĬķáĭµáĬķáī½áĪį
Ġáī°áĪµáĪĽáĪĿáī°áĭĭáĪį
ile
Ġáĭ¨áĪļáĪĺáĪ©
Ġáĭ¨áĪµáī¥
ĠáĬ¥áĬķáĭ°áĪĿáĬķáĪĿ
ĠáīłáĮŃáĬķáīħ
áĬĲáīłáĪ«áī¸áĭį
ĠáĬ¨áĪ¸
áĮĭáī½áĪģáīµ
ĠáĬłáĬ«áĭįáĬķáīµ
Ġáĭ¨áīĨáĭ¨áĭį
áĪ½áĬĵáĪį
ĠáĬ¥áĬķáĭ²áĪĺáĪĪáĪµ
ĠáĬķáĮ£áįį
Ġáĭ¨áĪļáĭ«áĪµáĮ¨
ĠáĬĲáįįáĪ³áīµ
ĠáĬłáĬĲáīłáī¥
áĭ·áī¸áĭįáĬķ
ĠáĪµáĪįáĮ£áĬĶ
áĪĭáī½
Ġáī¥áĪ¬
ĠáĬ¨áĪķáĭĿáī¥
Ġ"'
ĠáĭĽáĪ¬áĬķ
ĠáĪĪáĪĿáĮįáī¥
Ġáĭ¨áĪµáĬ¬áīµ
Ġáĭ¨áĭŃáĮĪáī£áĬĽáĪį
Ġáī°áīĨáĪŃ
ĠáĪĽáĪ°áĪµ
Ġáĭ¨áĪļáī³áĭĪáīģ
ĠáĪĪáĪĺáĮ¨áĪ¨áĪµ
áī¡áī²
áĮ¢áĭ«áīµ
Ġáĭ²áīª
áī¥áĭ°áīµ
ĠáĪµáĭį
áĭ³áĪ«áĭĬ
ĠáĬ¥áĭ¨áįĪ
Ġáĭ«áĪµáĪ±
ĠáĬłáī£áī·
ĠáĭķáĭµáĮĪ
áīµáĪ«
ĠáīĨáĮ£áĪª
ĠáĪįáī¥áĪ±áĬķ
ĠáĭĪáĪ°áĭ±
ĠáĭŃáĪµáĪĽáĪĽáĪī
ĠáĪĺáįĭ
áĭĺáĬĵ
Ġáī³áīħ
ĠáīłáĪŃáĬ¨áīµ
ĠáĪĺáĬķáĮĪáĭ°áĬŀáī½
ĠáīłáīħáĬķáĬĲáīµ
ĠáĮĪáī¥áĪŃáĬ¤áĪį
TM
Ġáĭ¨áī£áĪį
ĠáĪĽáĪ°áĪ«áĮ¨áīµ
ĠáĭĭáĪĪ
áįĢáĭį
áĪĪáĪĺáĪĨáĬĳ
ĠáĬłáĮ¥áīĤ
ĠáīłáĪĽáĪ³áĭ¨áīµ
ĠáĪ²áĪĿ
áī¥áĬĿáīµ
ĠáĬłáĪĿáĪĭáĬŃáĪĿ
ĠáĬ¥áĬķáĭ°áĪļáĭ«áĮĪáĬĻ
Ġáĭ¨áī°áĬĲáĪ³áĭį
ĠáīµáĪŃáĭĴáīµ
áĮīáĭ³áĭŃ
ĠáĭįáĪĥáĭį
Ġáĭ¨áĬ®áĬķ
ĠáĬłáĪħáĮīáĪŃ
Ġáī°áĮ£áī¥
ĠáĬ¨áĮłáĭĭáī±
áĭłáīµ
áĪĽáī´áĭİáĪµ
ĠáĮĭáĪ½
ĠáĬ¥áĪŃáĪ·áĬķ
Ġáĭ¨áī¦áĪŃáĭµ
ĠáĬ¥áĪ³áī±
áĪĭáī¸áĭĭáĪĪáĪģ
áĪ¨áįī
Ġáĭ¨áĪļáĭ«áĪµáįĪáĪįáĮĭáī¸áĭį
Ġáī´áĬŃáĬĸáĪİáĮĤáĬķ
ĠáĪĺáĮĪáĪĿáĮĪáĪĿ
ĠáĬ¨áĪ°áĮł
áĬĸáĬķ
ĠáĪĪáĬłáĮŃáĪŃ
ĠáĪĪáĬłáĭ°áĮĭ
Ġáĭ¨áĪįáĭ©
ĠáĬłáĮ¥áįį
ĠáĪ¬áĪ³
áĬ¨áī°áĪĽáĭŃáī±
áĭ°áĮĪáĪĿ
áĭĪáĪ«áĭį
Ġáĭ¨áĪļáĭ³
ĠáĪĪáĪĺáĬķáĮįáĪµáīµ
ĠáįĪáĮłáĪŃ
ĠáĬķáĮīáĪ±
ĠáĭŃáĪ¨áĭ³áĪĥáĪį
ĠáĪĺáĮ½áĪĢáįį
ĠáĪŀáĬŃáĪ¨áĭĭáĪį
ĠáĪĻáĪ½áĪ«
ĠáīłáĪ³áĭŃ
ĠáĬ¨áī°áĭĪáĪ°áĬĲ
ĠáĬ¨áī°áĪĽáĭĭáĬķ
ĠáĪĺáĬķáĮįáĪ¥áī°
Ġáĭ¨áĪļáĮłáīħáĪĿ
Ġáĭ¨áī°áĭĺáĪ¨áĭĺáĪ©áīµáĬķ
áĬłáįĵ
áįĥáįĢáĪĿ
ĠáĭŃáĭĺáĭĭáĪį
áĮĪáĬĽáī¸áĭį
áīªáĭ¬áĪ½áĬķ
ĠáĬłáĪĢ
áĬ¨áī£áĪĪ
ĠáĭŃáĪŀáĬŃáĪ«áĪį
áĪĹ
Ġáīłáĭ°áĪĺáĬĵ
ĠáĮĤáĬ¦
Ġáī¤áī°áĪ°áī¡áĬķ
ĠáĪ°áĬ¨áĬķáĭµ
áĭ°áĪ±
ĠáīłáĬłáĬ¨áī£áī¢áĭį
ĠáĬ®áĪİ
áī°áĭįáīµ
ĠáīµáĬķáĪ³áĬ¤
300
áī³áĭĬáĬĲáīµ
ĠáĭŃáĮĪáĮ¥
áĪĳáĭµ
Ġáī¢áīĢáĪŃ
ĠáīłáĪķáĮĭáĭĬ
áĮłáĪ¨áĮ´áĭĽ
Ġáī°áīĢáī¥áĪĪáĭį
Ġáī¥áĪŃáī±áĬ«áĬķ
ĠáĬ¥áĮ©áĭİáī½
Ġáĭ¨áĪĺáĪĿáĪ¨áĮ¥
ĠáĪ³áĬĵ
ĠáĬłáĬķáĮİáĪį
ĠáĭĪáĮĪáĬĶ
ĠáĭĭáĭŃ
áĪĺáĪµáĪĪáĬĿ
ĠáĬ¨áĪļáĪį
áįĪáĪ±
áĬĿáĪħ
áĬĸáĪ«áī½áĪģ
ĠáīłáĬłáĪĽáĪŃáĬĽ
ĠáīłáĪĻáĭļáīĥ
ĠáĪłáĪŃáĮį
ĠáĬ¥áĮįáĪ©
Luc
Ġáī¢áīłáĭĽ
ĠáĪĨáĬĲáĬĵáĪį
ĠáĭĪáĪĪáĭ°
ĠáĭĪáĪįáĭ°
Ġáĭ«áĭ°áĮĪáĭį
ĠáīµáĬ¨áĪ»
áĪŀáī³áĪį
áĪŃáĮįáĭĿáĬĵ
áĭ£áĪĪáĪģ
ĠáĬ¨áĪĺáĪµáĮłáīµ
ĠáĬ®áĪŃáĪ¶áī½
áĬłáĬķáĭ³
áĬ«áĪĤ
áīµáĬĵáĮĪáĪŃ
ĠáīłáĪ³áīħ
áĮ¨áĪĿáĪ©
¬ÙĦ
ĠáĬ¨áĮĮ
Ġáĭ«áĮ£áĪī
ĠáĬłáīµáĪģáĬķ
ĠáĮİáĭ°áĪį
ĠáĪĺáĮİ
áĪĭáĬ¨
áī¥áĪŃáīµ
ĠáĬ¨áĪĬ
ĠáĪĺáī°áĪĭáĪĪáįĬáĭ«
ĠáĪĪáĪµáĭµáĪµáīµ
own
áĭĪáĮ¡áīµ
áĬ¨áįįáĪĪáĭį
Ġáī£áĪĪáĪĢáī¥áī¶áī½
Ġáĭ¨áī°áĬ¨áĪ°
áĭĽáĭŃáĬķ
ĠáĬ«áĬĵ
ĠáĬ¨áī£áĪħáĪŃ
ĠáĬłáĪµáī°áĭ³áĭ³áĪªáĭİáī½
ĠáīłáĬ¥áĮĥáī½áĬķ
Ġáī°áĮłáĬķáīĢáīħ
oy
áĪ³áĭµ
Ġáĭ¨áī°áĪĺáĮ£áĮłáĬĲ
ĠáĪ³áĪħ
áī£áīłáĪªáĭ«
ĠáĭŃáĪĺáĪŃáĮ£áĪį
áī£áīłáĪ©
Ġáĭ¨áī°áĪµáī°áĬ«áĬ¨áĪĪ
Ġáĭ¨áĭĪáĮª
ĠáĪ°áĬĲáĭ±
áĪŀáī¹áĬķ
ĠáĪĽáĭµáĪ¨áĮįáĬķ
ĠáĮ¥áĪĭáĪģáĬķ
ĠáĬłáĪŀáĪĮ
ĠáĪĽáĮłáī¢áĭ«
Ġáĭ¨áĪļáīłáĪįáĮ¡
áĭĵáĪĺáīµ
ĠáĮłáĮ¥
áī»áĪįáĬķ
áĪµáī³áĭĪáĪ»
ĠáĬłáĪ¨áĮĭáĮįáĮ§áĪį
Ġáī°áĮłáī¥
áĬĴáĬ«áĪį
ĠáīģáĪµáĪį
ĠáīłáīĢáĪ¨
Ġáĭ°áĪ¨áĮĥáĪĿ
áĬħáĪ£áĪ¥
áĪĪáĪĽáĭĬ
ĠáĬłáĭŃáįĪáīĢáĭµáĪĿ
ĠáīłáįĵáĪŃáī²
ĠáĪĽáĪ¸áĮĬáĭ«
âĺ
Ġáĭ«áīłáīĥ
Ġáĭ¨áī°áĪ°áĪ«áĭį
ĠáĬłáĮĪáĪįáĮįáĪĪáĭĭáĪį
áĮłáīħáĪĭáĪĭ
áĭĿáīĥáĭľ
Ġáī°áĬ«áĪĤáĭ·áĪį
ĠáĬ¥áĭĪáīģ
áĬĲáĪ»
áĭ¨áĬĲ
ĠáĬ¥áĭ¨áĮİ
ons
rop
ĠáĮłáĬķáīĥ
ĠáĬ¨áĪĽáĪħ
ĠáĬ¥áĪµáĬªáĪĺáĮ£
áĮĭáĪªáĭİáī½
ĠáĬ¦áĪŃáī¶áĭ¶áĬŃáĪµ
áĮĪáĮįáī³
Ġáĭ¨áĪļáĭĪáĭ±áīµáĬķ
áĮłáĮ£áīµ
áĬłáĪµáī³áĭįáĪµ
ĠáĬ¥áĭ«áĪį
52
áĪĭáĬ¬
Ġáĭ¨áī¦áī³
áĪĽáĪĺáĬĳ
ĠáĪĲáĭįáĪįáīµ
ĠáĪĺáī°áī£áīłáĪŃ
ĠáĬłáīħáĪŃáī¦áī¶áī½
ĠáĭĪáĬķáĭŀáī½
FC
Ġáĭ¨áĪ¦áĪµáīµ
áĬ¨áĬ¥
áĬªáĭ®
Ġáĭ¨áĪĿáīµáįĪáĪįáĮĪáĭį
ĠáīłáĪ°áĬķáīłáīµ
ĠáīħáĬķáĮ£áīµ
Ġáĭ¨áĬķáī£áī¥
ĠáīĢáĮ£áĭ©áĬķ
Ġáĭ¨áī°áįĪáĮłáĪ¨áĭįáĬķ
áĬĲáĮįáĪ«áī½áĪģ
ĠáįĵáīµáĪŃáĭ«
áĪĿáī¤
áĪĺáĭ³áĬķ
ĠáĪĢáĬªáĪĿ
Ġáĭ¨áĪĺáī³áĮłáī¢áĭ«
ĠáįĲáĪŃ
:.
ĠáīłáįķáĪĭ
ĠáĭŃáĭĿ
áī£áī½
ĠáĪĮáīµ
ĠáĬ¨áĪĨáĬĲáĪĿ
ĠáĬłáīµáīłáĪī
Ġáī´áĭ²
ĠáĪĪáĪįáĮĨáī¹
Ġáīłáī±áĪŃáĬŃ
ĠáĪŀáĬ¨áĪŃáĬ©
áĭŃáĭµáĪ®
Ġáĭ¨áī°áĪ°áĮ£áī¸áĭį
ĠáĬ¥áĭ¨áĪĺáĮ¡
ĠáĬ¥áĪŃáĭ³áĬĿ
ĠáĪµáĪįáĬ©
áĮ®áĬ½
ĠáĬ¥áĬļáĪħ
áĪĺáĬķáĮįáĪ¥
ĠáĮłáĬķáīĭ
ĠáīłáĪĻáĭ«
ĠáĬłáĭ°áĪ¨áĪ³áī½áĪģ
ĠáīłáįĢáĪĲáĭŃ
ĠáĬ¥áīĢáĮ¥
Ġáī°áĬĲáĮĭáĮį
áĬĳáĬ¤áĪį
áī¤áī·
ĠáĬ¨áī°áĪ°
áĪµáī¥áĪ°áī£
áĪµáī³áĭĪáīµ
ĠáĬłáĪ®áĬķ
Ġáĭ¨áĪļáĮ£áĪį
ĠáīłáĪļáĪĨáĬĳ
ĠáĬ¨áĬłáī£áīµ
Ġáĭ¨áĮĪáĮłáĪŃ
ĠáĬłáĭ°áĮĭáĬķ
ĠðŁĳī
XX
áī¶áĪĿ
ĠáĮįáī¥áĭĵáīµ
Ġáĭ¨áĭĺáĪĺáĬķ
ĠáĬŃáĪŃáĪµáī²áĭ«áĬķáĬķ
ĠáĬłáĬŃáĪĬáĪį
ĠSams
Ġáī£áĪķáĪŃáĭ«áīµ
ĠáĭĪáĪ¨áĪŃáĪ½áĬĻ
ĠáĬ¥áĪĽáĪĽ
áĮłáĪ¨áĪĿ
áĪīáĬĵ
ĠáĪ²áĪ°áĪ©
âĢ²
áĬĥáĪį
áĬĲáĮįáĪ¨áĬĿ
ĠUn
ĠáĪĲáĬªáĪŀáī½
ĠáĬŃáįįáī°áī¶áī½
65
Ġáĭ¨áĪļáĪŀ
ĠáĪĢáĪĭáįĬ
ĠáĮ¥áĭ«áīĦáĬķ
ĠáĭŃáĪĺáĪµáĪĭáī½áĬĭáĪį
ĠAPS
ĠáĭľáĬĵáĭİáī½áĬķ
Ġáĭ«áĪĭáīµáĬķ
ĠáĭµáĬŃáĪĺáīµ
ĠáĭĪáĪ³
Ġáĭ¨áĪļáĭĪáĮ¡
ĠáĪ°áĬł
ĠáĬ¥áĬķáĬ©
áĪ¸áĮī
áĪ°áīłáĪ°áī¥
Ġáĭ¨áĬłáĮĪáĪªáī±áĬķ
áĮĭáĬĴáĪµáī³áĬķ
ĠáĬ¥áĬĵáī·
áĭ³áĪ®áī½
Ġáī¤áīµáĪħ
Ġáī¥áĬłáĭ´áĬķ
Ġáĭ¨áī°áĮįáī£áĪŃ
áĮįáī¥áĪ©
Ġáĭ¨áĪĿáīµáĪį
ĠáĬ¨áĪļáĬ¨áī°áĪīáīµ
ĠáĭµáĬķáīł
ĠáĭŃáĮĪáĪĪáĮ»áĪį
ĠáĭĪáĬķáĭĻ
ĠáĮİáĪŃáįį
ĠáĪĽáĪµáī°áĪŃ
ĠáīµáĪĿáĪħáĪŃáī³áī¸áĭįáĬķ
áĪ³áīµáĪĿ
áĭ¨áĪĽáĭŃ
ĠáĪĬáīĨáĭŃ
ĠáīłáĪŃáī±
ĠáĪŃáĬ©áĪµ
áĬķáĭ°áĪ©
áĭįáīĥáĪĪáĪģ
Ġáĭ¨áĪĦáĭ°
Ġáī°áĬ¨áī¥
ĠáīłáĪĺáįį
ĠáĬłáĪĪáīĢáĪ°
ĠáĬłáĪįáĬ®áĪį
ĠáĬ¥áĬķáĭ³áĭ°áĪ¨áĮį
Ġáī°áĭĪáĭ³áĮħáĬĲáīµ
ĠáīłáĪĥáĭŃáĪĽáĬĸáīµ
áĮłáįīáĪĿ
ĠáĮłáĬķáĬŃáĪ®
ĠáĬ¥áĬķáĪ°áĮ¥áĭİáī³áĪĪáĬķ
ĠáīłáĭĿáĪĿáī³
ĠáĬ¥áĬķáĭ²áĮ¨áĪĿáĪŃ
áįĢáīµ
ĠáĪĺáĮĭáī£áīµ
ĠáĪĺáīĨáĭ¨
Ġáī°áĭ«áĭŃáĭĺáĭĭáĪį
ĠáīģáĪįáįİáī½
Ġáĭ¨áįķáĪ¬áĭļ
ĠáĬ¥áīĢ
ĠáīłáīłáĪŃ
Ġáī³áĭĿ
Ġáī°áĮįáī£áĪ©
ĠáĭĭáĬĵáĭİáī¹
ĠáĪĿáĪ¥áĮĭáĬĵ
ĠáĬ¨áĬĲáĭļáĪħáĪĿ
ĠáĬłáĮ¥áī¥áīĢáĭį
Ġáĭ¨áĪļáĬĲáĪ³
áĭ¨áĪĿáĬķ
ĠáīłáĬłáĮĪáĪįáĮįáĪİáīµ
ĠáĮłáĪ«áĭį
Ġáīħáī¤
Ġáĭ«áĪĪáī¥áĭİ
ĠáĬ¨áĬłáĬķáīº
ĠáīłáĪµáĪħáī°áīµ
áĪ¨áī½
ĠáĭŃáĬ¸áĭįáĪįáĭİáīµ
ĠáĪģáĬĸ
áĬĸáī¼
ĠáĬ«áįĮ
áĪ¾áĪĻ
ĠáĪĨáĪµáįĴáī³áĪİáī½
ĠáĬłáīłáĭį
ĠáĪĽáīĢáĬĲ
ĠáĪµáĪĪáĭĪáĭ°
ĠáīłáīĢáĮ£áĭ®áī¹
ĠáĬ¦áĭ²
Ġáī°áī£áĪ¨
Ġáĭ³áĬķáĪµ
ĠáĮĥáĬķ
ĠáīħáĮ½áĪį
áĬłáĭİáĬķ
Ġáī£áĪĮ
áįħáĪĿ
ĠáĪĺáī¥áīµáĬķ
Ġáī°áįĪáįĥáĪļ
ĠáĪĽáĭķáĭĺáĬķ
Ġáĭ¨áĮłáįī
Ġáĭ¨áĬłáĭįáĪµáīµáĪ«áĪĬáĭ«
Ġáī°áĬŃáĪĪ
ĠáĬłáĪĺáī³áĭĬ
Ġáĭ¨áĪħáīµáĪĺáīµ
ĠáĬ¦áĭ²áĭ®
Ġáī°áĪĪáĭįáĮ§áĪį
ĠáĬłáĮīáĪį
Ġáĭ¨áĬłáĪ³
ĠáĮĵáĮī
ĠáĪĪáĪĽáĪµáĮĢáĪĺáĪŃ
áĭ¨áĪ©áĪ³áĪĮáĪĿáĪĿ
ĠáĭįáĪĤáī¥áĭİáĬķ
áĪĬáĭ®
ĠáĪĺáįįáī»
Ġáĭ¨áīĥáĪĭáīµ
ĠáĭŃáįĪáīµáĪ¹
ĠáĬłáĬ¨áįĭ
áī£áī±áĬķ
Ġáī°áĬ®
áī¶áĬĿ
áĪĿáĪħáĪŃ
ĠáĮĮáĮ¥
ĠáīłáĮ¥áĪ¬
Ġáĭ¨áĭľáĮİáī½
Ġáĭ¨áĪļáĮ£
áĬĳáīłáīµ
ĠáĬ¥áĬķáĬ³áĬķáĪµ
ĠáĬŃáįįáĭ«áĭİáī½áĬķ
Ġáĭ«áīłáĪ¨
Ġáī¥áī»áĪĿ
Ġáĭ«áĪįáī°áĮĪáĭ°áīł
ĠáĬ¥áĬķáīħáĪµáīĥáĪ´áĬķ
áĬ¨áĪĽáī¸áīµ
áĪħáĪ«áĪĦ
ĠáĭŃáĮĢáĪĺáĪ«áĪį
ĠáĬ¥áĭ°áĮį
ĠáīłáĪĽáĪŃ
ĠáĬ«áĪĪáįīáīµ
ĠáĬ¥áĭįáīĢáīµáĬķ
ĠáįįáĪĭáĮİáī±
Ġsh
ĠáĪĺáĪ¬áī±
ĠáĭŃáīħ
ĠáĪ³áĭŃáī³
ĠáĬłáĪŃáīłáĬŀáī½
Ġáī¼áĬŃ
ĠáĬłáīµáĪģáĬĳ
ĠáĪĭáĪįáī°
ĠáĬłáĭ°áĬķáīĥáĪĪáĪģ
Ùĩ
ĠáīłáĬŃáĪįáĪį
Ġáĭ¨áĪļáĬ¨áĪ°áī°áĭį
ĠáĬ¥áĭ¨áįĪáĪĪáĮį
ĠáĭŃáįĪáīħáĭµ
Ġáĭ¨áĪļáĪĺáĮ£áĭįáĬķ
Ġáĭ«áīĢáĪ¨áī¡áīµ
ĠáĬķáĮ¥áĪİáī½
ĠáĬ¨áĬłáįįáĪªáĬ«
áĪ°áĪ«áĪŃ
ĠáĬłáĭŃáįĪáīħáĭµáĪĿ
ĠáĬ¥áĪŃáĪ¾
ĠáĪĪáĬłáĬķáĭ³
ĠáīĨáĭŃáī»áĪĪáĪģ
ĠáĪĦáĭ°áī½
ĠáīģáĪĿáĬĲáĮĪáĪŃ
ĠáĬłáĪµáī°áĭĭáįħáĭĸ
ĠáĪĺáĪ¥áĪ«
ĠáĬ¥áĬķáĭ²áĭĪáĪµáĭ±
Ġáī°áīĢáĪĺáĮ¥
Ġáĭ¨áĪļáĭĪáĪµáĭ±
Ġáĭ¨áĪĺáĪ³áĪ°áĪīáīµ
Ġáĭ¨áįķáĪĭáĪµáī²áĬŃ
ĠNetflix
áĪĿáĭ¨áĪŃ
Ġáĭ«áĭ°áĮį
áįįáįį
ĠáĪĭáĪĽ
áĭĽáĪĿ
áĪĻáĪĭ
áĪĺáĬĵáī½áĪģ
ĠáīĢáĮ¥áĪĪáĭĭáĪį
ĠáĭŃáī°áĪĭáĪĪ
Ġáĭ«áĭ©áī³áĪį
ĠáĭŃáĪĸáĭĭáĬķ
Ġáīłáī°áĬķáīĢáĪ³áīĥáĪ½
áī½áĬĭáĪįáĬĵ
Ġáī°áĬķáĪ¸áĪ«
ĠáĪĪáĬ«áĪµ
Ġáī°áĬ³áĪĥáĬĿáĬĲáīµ
ĠáĬłáĬķáĭ³áĬķáĭ¶áī¹áĬķ
áįĪáĪ°
ĠáĪŀáĮĪáĭµ
Ġáĭ¨áĭĺáĪĺ
ĠáĭŃáĬĸáĪŃáĭİáī³áĪį
ersáī½
ĠáĬ¥áĬķáĪ¨áĭ³áĪĪáĬķ
Ġáĭ¨áĬŃáĪį
áĭľáĪ½áĬķ
áĪĿáĬķáīłáīµ
áĪ¶áī¹áĬķ
ĠáĪ´áīµáĬķ
ĠáĪĪáĪįáĮģ
ĠáīłáĪļáī£áĪį
ĠáĪĺáĬĸáĪŃáĬķ
áĬĲáĪªáĬķáĮį
áīĢáįī
Ġáī°áĬ®áĪŃ
áĬ¥áĭ¨
ĠáĬ¨áĬĲáīłáĪ©
Ġáĭ¨áī°áĪ³áĪ³áī±
Ġáīłáī´áĬŃ
áĬŃáī³áĪŃ
Ġáĭ«áĪĺáĪĪ
ĠáĪ²áĭ²
ĠáĬ¨áĬ¥áĭįáĬĲáīµ
ĠáĭľáĪ®
ĠáĬłáĭ°áĮĪ
Ġáĭ¨áĮįáĪĪáĪ°áī¥
áĪįáĪ°áĬķ
ĠáīłáĪłáĪ«
ĠáĪĺáįĢ
ĠáĪĽáĪ½áĬ¨áĪŃáĬ¨áĪŃ
Ġáī¥áĪĪáĬĵáĪį
ĠáĬķáĮĪáĪ©áĬĿ
ĠáĪįáĮħáī·
ĠáĪµáĪĻáĬĿ
Ġáĭ«áĪ³áĭ©
ĠáĪĴáĪ³áī¥
Lucas
áĭµáĬĲáĭį
ĠáĬ¨áĮłáĪĭ
inue
ĠáįķáĪ¬áĭļáĭ³áĬķáī±
Ġáī°áĪ¨áĭµáī»áĪĪáĪģ
ĠáĭŃáĪĺáĪ¨áĮ£áĪį
ĠáĬ¨áĬ¥áĬķáīħáĪį
áĪ«áĬķáĬķ
ĠáĬłáĪįáĪĺáĪ°
Ġáĭ¨áīµáĪŃ
ĠáĬ¥áĮįáĪ®
ĠáĬłáĬķáĮĢáĪĪáĪµ
_"
Ġáĭ¨áĬ¢áīµáĭ®
ĠáĪĦáĭŃ
Ġâŀ
ĠáĪ£áĮ¥áĬķ
áĭĽáĪĪáĪģ
ĠáīłáĬłáĮł
ĠáĬłáĪįáĮł
ĠáįĮáĪµáī²
áĪĿáĮįáĪį
ĠáīłáĮłáĪĭ
áĮ¥áįĭ
Ġáī°áĬĲáĪ±
Ġáĭ¨áĪļáĭįáĪī
Ġ2001
ĠáĪĶáĭĭáĬķ
áĪļáĬ«áĪį
ĠáĭŃáĭĺáĮĭáĪį
ĠáĪĪáĪłáĪ«
Ġáī£áĬķáĭ³
ĠáĬłáī¥áĪ«áī½áĪģ
ĠáĬłáĪīáĭİáīµ
Ġáī°áīĭáīģ
áĭ°áĮĪáįī
ĠáĪµáī³áĭ²áĭ¨áĪĿ
áī¶áī½áĭİ
ĠáīħáĬĵáīµ
áĮįáĪ«áįį
ĠáĪ¨áĮį
ĠáĮ¸áĪį
ĠáīĢáĭ°áĪĿáīµ
ĠáĭĪáĭ«áĬĶáĭİáī½
Ġáīµáī£
ĠáīłáĭļáĪħáĬķ
ĠáĭĽáĪ¬áĭį
ĠáīłáĪķáĬŃáĪĿáĬĵ
Ġáī°áĬ¨áĪ«áĭŃ
ĠáĬłáĬĥ
áīģáĮłáĪŃ
ĠáĪĿáĬŃáĬķáĭ«áī±áĬķ
ĠáĮ¸áĬķáī¶
......
ĠáĮįáĬķáĭµ
Ġáĭ¨áĬĲáįįáĪµ
áĬĲáĮĭáĮĪáĪ¨
ĠáĬŃáĪįáĪī
Ġáĭ«áĮĪáĬĺáĬĲáĭį
Ġáĭ¨áĬłáĪµáī°áĪ³áĪ°áī¥
áĪ«áĬĿ
ĠáĪ²áīªáĪį
Ġáĭ¨áĪļáĭ«áĮĪáĬĻáīµ
Ġáĭ¨áīłáĪ½áī³
ĠáĭŃáĪĿáĮ£
áī£áĬ¤áĭį
ĠáĬĲáī£áĪ«áĭĬ
ĠáįĪáĪĭáĪµáįĭ
Ġáĭ¨áī°áĪĪáĮł
ĠáĭĻáĪŃáĭ«
ĠáĮĬáĭ®áĪŃáĮĬáĪµ
ĠáīłáĬłáĭįáĪ®áįķáĪĭáĬķ
ĠáĪµáĪĦáĭµ
áĪªáĭ«áī½áĬķ
ĠáĮĪáĪ¨
Ġáī°áĮĵáĭ¥
ĠáĪĽáĪĽáĬ¨áĪŃ
Ġáĭ¨áĪļáĬķáīĢáĪ³áīĢáĪ±
ĠáĪ°áĪ¨áĮĪ
ĠáĪĪáĪĺáĪ¸áįĪáĬķ
Ġáĭ¨áĮĢáĪĺáĪ©áīµ
áĬ¥áĬŃ
Ġáĭ¨áĬłáĬķáī°áĬķ
áī£áĪįáĬĲáīµ
ĠáĬłáĭ°áĪ¨áĮįáĪģ
Ġáī¥áĪ®
ĠáīµáĮ¥áīħ
ĠáĬ¥áĬķáī½áĪį
ĠáĬłáĭ«áĭµáĪŃ
ĠáĪĺáĪµáĭĭáĭķáīµáĬĲáīµ
Ġáĭ¨áĪĺáī¥áīµ
...âĢºâĢº
áĮ¢áįĭ
ĠáĮłáĬķáīĥáīĥ
ĠáīłáĮĤ
áīłáī³áĭĬ
Ġáī³áĪŃ
ĠáĬ¥áĭ«áĪĪáĬķ
Ġáī¥áĪİáĬĿ
ĠáĪµáĭ°áī°áĬŀáī½áĬķ
ĠáĬ¥áĬķáĪµáĪ³áīµáĬķ
ĠáĬłáĬķáĮĭáįĭ
ĠáĪĪáįķáĪ®
ĠáĬ¥áĬķáĭ°áĭĪáĮ£
ĠáĪ²áĪĺáĪĪáĪµ
Ġáĭ¨áĬłáĭ²áĪ±
Ġáīħáĭ±áĪ³
ĠáĪĺáĭ°áĭĪáĪį
ĠáĬ¥áįħ
Ġáĭ¨áĪļáĮłáīĢáĪĻáīłáīµ
ĠáĪĪáĪĽáī¥áĪ«áĪ«áīµ
ĠáīłáĬ¥áĪ¨áįįáīµ
áī°áĬĽáĪĿ
áĪĿáĬķáĬĵ
áī¨áĬķ
ĠáĬ¥áĬķáĭ³áĪįáĪĨáĬĳ
Ġáī«áĭŃáĪ¨
ĠáīĢáĪļáĪµ
Ġáĭ¨áĭ°áĪĺáĭĪáĭĿ
áĪĺáĭįáĬķ
ĠáĪĽáĮĪ
áįĪáĪ¨áĭį
ĠáĬłáĪĪáĪĺáĪµ
ĠáĬ¥áĭ¨áĪłáĪ©
ĠáĪĻáī³
Ġáĭ¨áĪĽáĭŃáįĪáĪįáĮį
ĠáĪ´áī²
Ġáĭ¶áĬĵáĪįáĭµ
Ġáīłáī¸
áĪĺáĭĺáĮĪáīł
áĮĭáī¸áĭįáĬķ
Ġáī£áĪĪáĪĻáĭ«áĭį
ĠáĪµáīĥ
Ġáĭ¨áī°áĪĺáĪĪáĬ¨áī°
Ġáī°áĬĵáĮįáĪ«
ĠáĪĺáĭĽáĪĻáĪŃáī±áĪĿ
ĠáĭĺáįĭáĬĿ
ĠáĭķáĪįáī£áīµ
áĪ¸áĬĲáįĪ
ĠáĪµáĪ«áī¸áĭįáĬķ
áĬĲáĭĿ
áĪ°áī¥áĬŃ
Ġáĭ«áĪĪáĭįáĪĿ
ĠáĬ¨áĪĿáĮįáī¥
áĪµáī²áĬķ
áī°áĪŃáĪµ
ĠáīĥáĪĭáī¶áī½
Ġáĭ¨áī³áĭ°áĪ°
ĠáĪĺáĮĭáĪ¨áĮĥ
ĠáĪĪáīłáĪĪáĮł
ĠáīłáĪµáĬĲ
ĠáĭµáĬķáĮĭáĮ¤
ĠáīłáĪ³áĬķ
ĠáĬ¥áĪ«áĪµáĬķ
ĠáīłáĪĽáĪµáīĢáĪĺáĮ¥
Ġáĭ¨áĮ¨áĪĪáĪĽ
ĠáįĪáĪĪáĮī
ĠáĬłáĪįáĬĲáīłáĪŃáĬ©áĪĿ
Ġáĭ¨áįĨáī³
ĠáĪĽáĮłáĬĵáĬ¨áĪŃ
ĠáīłáĪĺáĮ½áĪĲáįī
ĠáĭĵáĪ¦
ĠáĮłáĮ£
Ġáĭ¨áī°áĪ°áĪĽáĪ©
ĠáĪĬáīĥáĬĲ
áĭµáĬ©áīµ
áĮīáĭ³
ĠáĪĬáĭ«áĮłáįĭ
ĠáĬ«áĪĿáįĵáĪµ
ĠáįĵáĬĲáĪį
ĠáĬ©áĬªáĭİáī½áĬķ
ĠáīµáĬķáĬķáĪ½
áĪ¬áĭ³áĭĭ
áĭ®áĪŃáĭ³áĬĸáĪµ
ĠáĬķáīĥ
Ġáī¥áĪŃáĪĢáĬķ
Ġáĭ´áīªáĭµ
ĠáĪĺáĪĨáĬĵáī½áĬķ
áī¥áĪĦáĪŃ
áīłáĪ½
ĠáĪĪáĬ¥áĭļáĪħ
ĠáīłáĪµáĭ°áīµ
áĮ§áīµ
Ġáĭ¨áĮīáĪįáīłáīµ
ĠáĪĪáĪĺáĪįáĬ«áĪĿ
ĠáĮĪáīłáĪ¬áĭİáī½
Ġáīłáī«áĭŃáĪ¨áĪ±
ĠáĮįáĪ©
ĠáĭĺáĪħáĪį
ĠáĬ¥áĭ¨áī°áĬķ
Ġáĭ¨áĪĿáīµáĮĪáĬĿ
áĭĺáĮĪáĭŃ
Ġáĭ°áĮĥáįį
ĠáĭĺáĪħáĪįáīį
Ġáĭ¨áī°áĮĪáī£
Ġáĭ¨áĪļáĭ«áĮĪáĬĻ
ĠáĭĿáĮįáĮħáī±
ĠáĪ¸áĬŃ
áĬ¥áĬĽáĪĿ
ĠáīµáįĪáĪįáĮĭáĪĪáī½
act
áĭ«áĪħ
Ġáĭ¨áĪĺáĪĪáĭ«
Ġáĭ«áĪµáįĪáĪ«
áĮłáīĥáĪĪáĪį
Ġáī°áįĪáĬĵáīĥ
ĠáĭĪáĮ£áĪģ
ĠáĬłáĬķáīĢáĮ¾áī½
Ġáī²áĭ«áīµáĪŃ
ĠáĭŃáįĪáĮ¥áĪ«áĪī
ĠáĪĪáĪĽáĪĿáĪĪáĮ¥
ĠáĬ¨áĮ«
Ġit
ĠáĪĺáī¶áĬĽ
ĠáīłáĬĥáĮ¢áĬł
ĠáĬłáĭ«áĪµáĭ°áĬķáīħáĪĿ
ĠáĮ²
áĪħáīµ
ĠáĬ¨áĪĺáĬķáĮįáĪ¥áīµ
Ġáĭ¨áī´áĪĮ
Ġáīłáī¤áīµáĭİ
áīłáĪ³áĮ¨
áĬķáī°áĭį
áĮĵáĭĺ
ĠáĪĺáĪŃáĭĿ
ĠáīłáĭµáĮĭáĪľ
ĠáĮĦáĪĿáĪµ
ĠáĬłáįĢ
áĬ¥áĭĽáĭĿ
áī»áĪįáĪĿ
áīĨáĭ¨
ĠáĬ¢áĪĿ
ĠáĬ¨áī°áĪĺáĪ¨
ĠáĬłáĬķáī¶
Ġáī°áĪĽáĪªáĭį
ĠáīłáĮĪáĮłáĪŃ
Ġáĭ¨áĬłáĪĿáĪĭáĬ«
Ġáĭ«áīĢáĪ¨áīł
Ġáĭ¨áĪĺáĮĢáĪĺáĪŃáĭ«áĭį
ĠáīħáĮħ
ĠáīłáĪ°áĮ¡áīµ
áĭ³áĪļáĭį
Ġáĭ¨áĪĿáī³áĪµ
áĭĺáĭĭáĭĪáĪŃ
ĠáĪĺáĪµáĬ®áī¶áī½
áĪĢáĬĲáĪĿ
Ġáĭ¨áĭĪáĪ¨áĭ°
ĠáĬ¥áĮħáĪħ
ĠáĪĿáĪħáĬķáĭµáĪµáĬĵ
áĭ°áĬĲáīģ
ĠáĬ¥áĪµáĬ¨áĪĺáī¼
ĠáĮ»áĭµáīĥáĬķ
ĠáĬ¨áī£áĪį
Ġáĭįáĭ³áĪ´
ĠáĪįáī¥áĬķ
Ġáī¢áĪĭ
áĭ°áĭįáĪį
áĭĪáĭ³áĭ°áĪ©
ĠáĬłáĭįáĮ¥áī·áĪį
Ġáĭ«áĪµáĭĪáĮįáĭ³áĪį
ph
ĠáĬ¨áĪĺáī³
ĠáĪĺáĭĭáĮĭáīµ
Ġáī«áĪį
ĠáīłáĬ®áĪ®áĬĵ
Ġáī°áĪŃáįİáĪĿ
Ġáĭ¨áĮłáĪĭ
áĪĨáĭŃ
Ġáī°áĪĽáĪªáĭİáī¹
áī°áĪ¨áĮİ
IO
áĪĺáĭµáĬķ
ĠáĭŃáĮ¸
ĠáĪĪáĪŃáĪ±
ĠáĬłáĪįáįĭ
ĠáĬ¥áĪ«áĪ´
Ġáĭ¨áĮ¥áīłáīĥ
áī¬áĪĿáīłáĪŃ
ĠáĬ¨áĮ¸
áī¸áĬĿáĬĲáīµ
áįįáĬĲáĭį
ĠáĪ°áĪĻ
Ġáĭķáī¥áĪ«áĭįáĭ«áĬķ
ĠáįĬáī´áĬķ
ĠáīłáĭµáĪį
ĠáīłáĬĲáĮĪáĪ©
ĠáĬ¨áĪµáĪŃ
áĪªáī±áĪĿ
áĬ¨áī¥áĭµ
ĠáīłáĬ¤áĪĮáĬŃáīµáĪªáĬŃ
ĠáĬłáĪµáī°áĭ³áĭ°áĪ«áĭĬ
ĠáĪµáĬķáĪĺáĪĪáĬ¨áīµ
ĠTr
ĠáĬ¥áįĪáĪįáĮĭáĪĪáĭį
ĠáĬ¥áĬķáĭ°áĪļáĭ«áĭ°áĪŃáĮī
ĠDe
ĠáīłáįĮáĭ´áĪ«áĪį
Ġáĭ¨áįķáĪ®áĮįáĪ«áĪĿ
Ġáĭ«áĪµáĪ¨áĭ³áĪī
ĠáĪģáĪĭ
áĭľáĪĿ
ĠáĪ²áĬķ
áĪĢáĮĪáĪŃ
áĬ¨áīµáĪī
Ġáĭ¨áĪķáĭĿáī¡
ĠáĪįáĮĨáī¼áĬķ
ĠáīłáĬ«áĪŃ
ĠáīłáĪ°áī£áī°áĬĽáĭį
áĮĪáĪ³
ĠáĮłáĪĺáĬķáĮĥ
ĠáīłáĪ°áĭĵáī±
áĪĭáĭĬáĭį
ĠáĪĺáĬ¨áĪ«áĬķ
ĠáĬ¥áĬķáĭµáĬĵáĭ°áĪŃáĮį
áī¥áĬķáĬķ
áĪ»áĪĪáĬķ
ĠáĬķáĮĪáĪ¨áĬķ
ĠáĪĺáĪµáĮłáī±
ĠáīłáĪ¦áĪµáī°áĬĽ
áĪĺáĭįáĪĿ
Ġáī°áĬĵáĮĪáĪ¨áĭį
Ġáĭ¨áĪļáįĪáĪ«
ĠáĬ¨áĬ¥áĬĲ
ĠáīłáĮ¥áīģáĪŃ
Ġáĭ¨áĮ¥áīģáĪŃ
ĠáĬ¥áĬķáĭ³áĪįáĬ©áīµ
ĠáĬ¨áĪĿáī³
ĠáĭŃáĪ¸áĮ£áĪį
Ġáĭ¨áĬ¨áīł
ĠáīµáīĢ
ĠáįįáĪ©
áĪ²áĪ²
ĠáĪĦáĭ·áĪį
ĠáĮ¡áĪŃ
ĠáĬ¥áįĪáĪįáĮį
Ġáī¤áī°áĪĺáĬķáĮįáĪµáīµ
ĠáīłáĪĿáĪ½áīµ
ĠáĪ°áī¥áĪµ
ĠØ¬ÙĦ
ĠáĮ³áĮ³áĪµ
ĠáĮ¢áĪŀáī´áĭİáĪµ
áĪŀáĬķáĪĿ
áĪĥáĭį
áĭĪáīħáĬķ
ĠáĭįáĪ³áĬĶáĭįáĬķ
ĠáĭŃáĭĪáĮĪ
áĬķáĭ¶áĬĶáĭ¥áĭ«
ĠSe
ĠáīłáĬ¥áĮįáĭļáĬłáī¥áĪĶáĪŃáĪĿ
ĠáĪĽáĪ¨áĪļáĭ«
áīĥáĮ¨
Ġáīłáī°áĪĺáĮ£áĮ£áĬĿ
Ġáī°áĮłáīĥáĪļáĬĲáīµ
ĠáĬ¨áĭįáĪµ
ĠáĪĽáįĪ
ĠáĪĿáĪ¥áĪ«
áĬĸáī½áĪĿ
ĠáĮ¸áĪĪáĭ¨
ĠáīłáĬĥáĮ¢áĬłáīµ
ĠáĪĬáī³áĭĪáīħ
51
áĪĪáįīáīµ
áĪĨáĪĿ
ĠáĪµáĪĺ
ĠáĬ¥áĬķáĪĺáĪĪ
ĠáĬłáīµáĪĮáīµ
áĬ©áĪŃáīµ
Ġáĭ¨áĪĿáĪį
ĠáĪĪáĪĽáĪµáĭ°áĪ°áīµ
ĠáĬ¨áĮįáī¥áĮ½
ĠáĬłáī³áĭµáĪŃáĮī
ĠáĪĪáĪĺáīĨáĮłáī¥
áĭ®áī¥
áĭĵáĭŃ
áĪ¨áī¥áĬĽ
ĠáĪ²áĭ«áĭ©
ĠáĪĽáĪŃáĬŃ
Ġáĭ¨áĪļáĮłáĭŃ
áĬĸáĪ«áīµ
Ġáĭ¨áĪĨáĬĲáī½áĭį
Ġáĭ¨áįįáĮ¥áĬĲáīµ
áĭĺáĪ¨áĭĺáĪ©áīµ
áĬ¥áĬķáĭ³
ĠáĪĺáĮ¥áī¼
ĠáĬłáĪįáī°áĭ°áĪ¨áĮĪáĪĿ
ĠáĪµáįįáĪ«áĭį
ĠáĭµáĪŃáĮĬáī±áĬķ
ĠáĬ¥áĮĪáĬĽ
Ġáĭ«áīħ
ĠáĭĪáĮ¥áī³
áĪİáī³áĪį
ĠáīłáĪĺáĬĵáĮĪáĪŃ
áĪ¸áĬ¨
áĪ°áĪ«áīłáīµ
ĠáĮ½áĪħáįĪáīµ
ĠáįĸáĪŃ
ĠáĪĺáĭµáĪĢ
ĠáĬ¥áĪĽáĭ¬
ĠáĪĺáĪ³áĭŃ
áĪħáīµáĬĵ
ĠáĮ½áĬķáįĪ
ĠáĬ¨áĪįáī¤
Ġáĭ¨áĬĶáĬķ
ĠáĬłáĪµáī°áĪĿáĪħáĪ®
áĪĺáĮ½áĪĲáįį
Ġáĭ¨áĪļáĬĲáĮĪáĪŃ
ĠáīłáĬłáĮĪ
ĠáĬ¢áĪ«áĬķ
áĮĪáĪįáĬķ
ick
ĠáīħáĬķáī¥áĪŃ
ĠáīģáĪ³áīģáĪ¶áī½áĬķ
áīłáĪĭáĪ½
ĠáĬ¨áī£áī¢
Ġáĭ«áīµ
Ġáī£áĪ¨
áĭ±áĪį
Ġáĭ¶áĬŃáī°áĪ®áī½
ace
ĠáĭįáĪĤ
áĪŃáĪµáĪĿ
áĭĵáī°
ĠáĬ¥áĭ¨áĭ°
ĠáĬ¥áĬķáĭ°áĪļáĮłáīĢáĪĻ
áĪ¸áĪŃ
Ġáĭ«áĪįáī°áĮłáīłáīĢ
Ġáī¤áī°áĪ°áī¦áī¹
ĠáĬ¥áīĢáĮ¥áĪĭáĪĪáĪģ
áĬĲáĮ¥
ĠáĪĪáĬĲáĭļáĪħ
ĠáĪ²áĪ°áĪĻ
ĠáīĨáĭ©
ĠáĪłáĪŃáī¶
Ġáĭ¨áĪķáĭĿáī¡áĬķ
áĪ³áī°áįĪ
áĪ¦áĪŃ
ĠáĬłáĪįáĮĪáī£áĪĿ
Ġáĭ¨áĮłáīĢáĪµ
áĪ«áĪ³áī½áĬķ
Ġáĭ¨áĪļáĪĺáĪĪáĬ¨áī³áī¸áĭį
Ġáĭ¨áī°áĬĵáĮĪáĪ¨
áįĢáĪĺáĭį
ĠMO
ĠáīłáĮįáįį
ĠáīłáīĥáĪĭáīµ
Ġáĭ«áĪ³áĭµáĪ«áĪį
áīħáĪ©
ĠáĪĽáĪ¨áĪĿ
ĠáĬ¥áĬķáĭ³áĭŃáĬĸáĪŃ
Ġáī°áĬķáĬ¨áī£
Ġáĭ¨áĮĢáĪĺáĪŃáĬ©áīµ
ĠáĬłáĪįáī³áĭĪáīĢáĪĿ
ĠSamsung
68
áĭļáĬŃáĪµ
ĠáĪĽáĮĪáĭµ
áĪİáī»áī½áĬķ
ĠáĪ²áĬĸáĪ©
Ġáĭ¨áĪĺáĪł
ĠáĬłáĪĺáĬĳ
ĠáĮ¥áīħáĪĽ
ĠáĬłáĪ³áĪµáīłáĭĭáĪį
Ġáĭ¨áī°áĮİ
ĠáīĢáīłáī¶
ĠáįĵáĪŃáĬ®áī½
Ġáī°áĪ°áĮł
ĠáĪĪáĪĽáĪµáī³
ĠáĪĢáĮĪáĪ«
ĠáĭŃáĮĪáĪĿ
Ġáīłáīħáĭ°áĪĿ
ĠáĭŃáĪ¨áĭ³áĪī
ĠáĬłáĭµáĪŃáĮĮáĭ«áĪĪáĪģ
ĠáĬ¥áĬķáĭ°áĪļáĭ«áĪ³áĭ¨áĭį
ĠáĬķáĮįáĮįáĪ®áī½
ĠáĬ¥áīĨ
Ġáī£áĭµáĪĽ
áī¢áī±
Ġáĭ°áĪĺáīĢ
ĠComments
ĠáĬ¥áĬĲáĮįáĪ«áī½áĬĭáĪĪáĪģ
ĠáĪĪáĪĽáĮ«áĭĪáīµ
Ġáĭ¨áĪļáĭ«áĭĪáĮ£
áĪ´áī²áī±
áĮĪáĪĪáĪį
ĠáĪ©áĭĿ
ĠáĬłáĪĺáĪįáĬ«áī½
Ġáĭ®áĪ´áįįáĪĿ
Ġáī£áĭ°áĪ¨
ĠáīłáĪĽáĭĪáīħ
áĬĵáĮĪáĪ©áĪĿ
ĠáĭŃáĮłáĮ¡
áĭĭáĭĪáīµ
Ø¨
Ġáĭ«áĪĽáĪ¨
áī´áĪī
ĠáĭŃáĮłáī¥áīĥáĪī
Ġáĭ¨áĪļáĮłáĮ£
ĠáĬ¥áĭįáĬĲáī³áĭįáĬķ
Ġáī°áĮįáĭ³áĪ®áīµ
Ġáīłáī£áĪį
áĭµáīĥáĬķ
áĭ«áĭĿáĬĲáĭį
ĠáīłáĭĪáĬķáĭ¶áī½
áĬ«áĬ¨áĪĪáĬĽ
ĠáĬłáįĦ
áīłáĬłáĬķáĭµ
Ġáĭ«áĪĪáĪħáĬķ
ĠáĬĲáĮĪáĭ¶áī½
ĠáĮŃáĪµ
2019
áĪ°áĮ¥áĪħ
ĠáīłáĮĢáĪŃáī£
Ġ98
ĠáīħáĪŃáīłáīµ
ĠáĪµáĪĪáĭļáĭ«áī½
pr
Ġáĭ¨áĪļáĭ«áĭ©
Ġáĭ¨áĪĿáīµáįĪáĪįáĮī
Ġáĭ¨áī°áĪ»áĪĪáĭįáĬķ
ĠáĭŃáĬĸáĪŃáī¥áĪĥáĪį
ĠáĪĽáĭ³áĪĺ
ĠáįįáīħáĪ¬
Ġáĭ¨áĭĪáĪ°áĭ°
áĮłáĭįáĪĿ
Ġáī¤áī±áĪĿ
ĠáĬłáĭįáīĦ
ĠáĬ©áī£
ĠáīłáĭįáĪµáĮ£áī½áĬķ
ĠáīłáĪĤáĭ°áī±
ĠáĪĽáĪŁáĭ«
áĭ®áī°
Ġáĭ¨áĪĿáĭķáĪ«
ĠáĪĿáĬķáĮ©
Ġáĭ°áĮįáĬĲáīµ
áĮ¸áī£áĪŃ
ĠáĪĺáĪŃáĭ¶
ĠáĪĪáĪļáĭ«áĪµ
Ġáĭ¨áĪ±áĭ³áĬķ
bet
áĭµáĮĪ
Ġáĭ«áĭĺáĮĭáĮĢ
ĠáīłáĪĺáĮĢáĪĺáĪŃáĭ«
ĠáĮĭáĪĭáĬŃáĪ²
áĭĽáĭĪáĪŃ
Ġáīłáī°áĪ°áĮłáĭį
áī´áĬķáĪĿ
Ġáĭ¨áįĸáĪĬáĪ²
ĠáīłáĪĲáĪĿáĪĮ
Ġáī°áĪ°áī¥áĪµ
Ġáīłáī¤áī´
ĠáĭŃáĬĵáįį
áĭĽáĮĭáī¢
ĠáĭĺáĪ¨áĬĽ
ĠáĬ¥áĬķáĭ°áĪļáĪłáĪ«
ĠáĬłáĬķáĮİ
áįĢáī£áĪ¨
ĠáĭķáĭµáĪĪáĬĽ
ĠáĪ°áĪĭáĪ³
ĠáīµáĭįáĪįáĭ¶áī½
áįĵáĪŃáīµáĪĺáĬķáīµ
ĠáīµáĪĨáĬķ
ĠáįĵáĪĿáįķ
Ġáĭ¨áĭĭáĪĪ
ĠáĬłáĭŃáĪģáĭ³áĭįáĭ«áĬķ
ĠáĪ³áĬ¦áĪįáĪĿ
ĠáĬ¥áĮ¥
ĠáĪĪáĮ¸
ĠáĭŃáĮĪáĬĲ
Ġáĭ¨áĪ°áĭ°áĭ°
ĠáĪĺáĮ£áĪħ
áĪ°áīĥáĭ©
ĠáĬ¥áĬķáĭ³áĪĪáĪħ
ĠáĮĵáĭ°áĬĽáĪŀáī½
ĠáĪĺáįįáīµáĪĶáĭį
ĠáĪĿáĪµáĮ¢áĪ«áĭĬ
ĠáīłáĬłáīµáĬŃáĪį
áĭĿáī£áī½áĬķ
ĠáĬ¥áĪŃáĮ¥áī¥
ĠáĮĪáĭĽáĪģ
Ġáĭ¨áīłáĪŃ
ĠáĬłáĭŃáĪĨáĬķ
ĠáĭĿáĪŃ
ĠáīµáĬķáįĭáĪ½
ĠáīłáĪĿáĭµáĪªáī±
ĠáĬ¥áĬķáī³
ĠáĬłáĭµáĬ«áĪļ
Ġáĭ«áĬķáĬĳ
áī¸áĭīáĪĿ
Ġáĭ¨áĪĭáīģ
ĠáĬ¨áįĬáĪį
Ġáī°áĮ«áĭįáī·áĪį
ĠáĬĲáī¢
áīĢáĭ³
ĠáĬ¥áĬķáĭ²áīĨáĪĿ
áĮħáī¶áī½
ĠáĬłáĪµáī´áĪŃ
áĬ³áī¸áĭįáĬķ
ĠáīłáĪŃáĪ³áī½áĬķ
ĠáĪĲáĭĺáĬķ
ĠáīłáĪįáĮħáĬĲáīµ
ĠáĮĪáĪįáĮ¾
áĭ°áĪ«áĭ°áĪŃ
ĠáĭŃáĭ°áĪ¨áĮĭáĪī
ĠáĬ¹áĪī
ĠáĬ¨áī°áĪ«
ĠáĬłáĮĪáĭĽ
ĠáĬĥáĮ¢áĬłáī°áĬŀáī½
ĠáīłáĮ£áī¢áĭ«
ĠáĭŃáĬ¨áįĪáĪĭáĪį
TO
ĠáĬ¥áĬķáĭ²áĭįáĪį
Ġáį£...
ĠáĪĪáĪĽáĬ«áįĪáĪį
Ġáī³áĬĵ
ĠáĬ¥áĬĶáĭį
ĠáĮ£áĭĸ
ĠáĪ¨áĮħ
ĠáĬłáĭµáĬĲáĬĿ
ĠáĭŃáĬķáĮĪáĪ©áĬķ
ĠáĮ²áĪĭ
áĭŃáīħáĪŃáī³
ĠáĪĺáĭĪáĭ³áĭ°áĪŃ
Ġáĭ¨áĪĿáīµáĬĸáĪŃ
ĠáĪĺáīħáĪ¨áīµ
Ġáĭ¨áī°áĮĪáĭ°áīł
ĠáĪĺáĮłáīĢáĪļáĭ«
áĭĭáīĢáĪŃ
ĠáĬłáī¥áĪ¨áĭįáīµ
Ġáĭ®áĬĵáī³áĬķ
Ġáĭ¨áĬ£
Ġáĭ¨áī°áĬĲáĪ±
Ġáĭ¨áī°áīµáĪ¨áįĪáĪ¨áįĪ
áĪĮáī²áĬŃáĪµ
Ġáīħáī£áīµ
ĠáīĢáĬķáĬķ
ĠáĪĺáĪªáĭİáī½áĬķ
ĠáĮłáī¥áī³
áĮ¨áī¥
ĠáĪħáĭĪáĪĵ
ĠáĬłáĮĭáĬķáĬķ
Ġáĭ¨áĮ¥áĭ«áīĦ
Ġáĭ¨áī¼
ĠáĬ¥áĬķáĪ¸
ĠáĪĺáĪµáĮĬ
ĠáĬłáĭµáĬĸ
áĪĪáĪĽáĪµáī°áĬ«áĬ¨áĪį
ĠáĭĪáĪµáĭ°áĭĭáĪį
ĠáīłáĪģáĬĶáī³
áĭ¨áĪĲ
ĠáīłáĪĺáĮĪáĬķáī£áīµ
ĠáĬłáĪįáĬ³áī¸áĭį
áĪ´áĪĿáīłáĪŃ
ĠáĬ¨áĪĺáĪĭáĭį
ĠáĮ¥áīħáĪĻ
Ġáī¥áĪįáīµ
áĬķáĭĪáĮ£
Ġáĭ¨áĬłáĪĿáĪįáĬ®
áĬłáĬķáĭ³áĬķáĭµ
ĠáĪĺáī¥áī¶áī½áĬķ
Ġáĭ«áĮĪáĪĪáĮĪáĪī
ĠáĪ²áĮĢáĪĿáĪ©
áĪ«áī½áĪģáīµ
ĠáĭŃáĪīáĬĽáĪį
ĠáįĪáĪĭáĮĬáĭİáī½
ĠáĪĿáĮ¥
Ġáĭ¨áĪ°áĭŃáĮ£áĬķ
ĠáĮĪáĭ¢áĭį
ĠáĪĽáĪµáī°áĭĭáĭĪáīĤáĭ«
ĠáĬ¥áĬķáĭįáĪ°áĭµ
Ġáī°áĬĲáĮĪáĪ¨
áĪªáĭİáī½áĬķ
ĠáĪĺáįįáīµáĪĶáĭİáī½
ĠáĪİáī°áĪª
Ġáĭ¨áĪļáīłáĪį
ĠáīµáĭĪáĮ£
ĠáĪĿáĬķáĪµ
ĠáĪĺáĭįáĪ¨áĭµ
ĠáĬłáĮ¥áįĬ
ĠáĬ®áĪļáĪ½áĬĳ
Ġáĭ¨áī°áī£áĪīáīµ
Ġáī¥áĪŃáĪĥáĬķáĬķ
ĠáīµáĮįáĪīáĬķ
ĠáĪ³áī¢
ĠáįįáīħáĪŃáĬĵ
ĠáĪĪáĪķáĭŃáĭĪáīµ
ĠáĬ¥áĪĺáĪį
Ġáĭ¨áĬ¥áĬķáīħáĪįáįį
ĠáĮłáīłáīħ
ĠáĪĺáĪįáĬ¨
ĠáįķáĪ®áī²áĬķ
ĠáĬłáĪĪáĪĺáī»áĪį
ĠáĪ°áĪĽáĭķ
áĪįáĪİ
ĠáīµáĮĪáī£
ĠáĬ¥áĬķáĪłáĪ«
ĠáĬ¥áĬķáĮĪáī£áĪĪáĬķ
ĠáĪĺáī³áĪĺáĬķ
ĠáĬ¨áĪ«áĪ´
Ġáīłáĭ²áĮĤáī³áĪį
Ġáĭ«áĬĲáīłáī¥áĬ©áīµ
ĠáĬ¥áĭ©
ĠáĬłáĪ°áī£
ĠáĬłáĪįáĭĵáĭĽ
ĠáĬłáĭµáĪŃáĮĲ
Ġáĭ¨áĮİáĭ³áĬĵ
Ġáĭ«áĭķáīĨáī¥áĪĿ
ĠáĬ¥áĬĵáī´áĬķ
ĠáĪĨáĬĽáĪĪáĪģ
Ġcont
Ġáĭ¨áīĢáĪ¨áīłáĭįáĬķ
áĮ¥áī¥áĮ¥
Ġ700
Ġáĭ¨áī£áĪĪáī¤áīµáĬĲáīµ
ĠáĬłáī¥áĭĿáī¶
ĠáĬ¥áĬķáĭĪáĪµáĭ³áĪĪáĬķ
ĠáĬ¥áĬķáĪĺáĪĪáĪ³áĪĪáĬķ
ĠáĬ¨áĭ²
áĭĭáĬŃáī¥áīµ
Ġáĭ¨áĬłáĪ«áīµ
áĪĿáĪŃáĮ«
Ġáĭ¨áĬŃáįįáĪį
ĠáīłáĭĿáī¶
ĠáīµáĪħáĬĲáĮį
Ġáĭ¨áī°áįĪáĮ¸áĪĺáĭį
Ġáĭ¨áīħáĭµ
áĪ°áī½
Ġáī°áĪ°áĮłáĭį
ĠáĪĽáĪµáĪ¨áĭ³áīµ
ĠáĭŃáī£áĪŃ
Ġáĭ¨áįĵáĪŃáī²áĭį
Ġ***
Ġáĭ¨áĬŃáīµáī£áīµ
áĪªáįķáīµ
Ġáĭ¨áĭĿáĬĵáī¥
ĠáĬ¥áĭĪ
ĠáĬłáĭŃáĪ»
áĪĪáĪĿáĬĵ
ĠáĪ²áĮłáĬĵáīĢáīħ
Ġáī³áī¦
Ġáĭ¨áĪļáĭ«áĮĪáĪĪáĮįáĪī
ĠáĪ¥áĮĭáīµ
Ġáĭ«áĪĪáĭİáīµáĬķ
ĠáįĭáĪ²áĬ«
ĠáĬłáįįáī³
Ġáĭ¨áĮİáĪ«
ĠOS
áĬŃáī·áĪį
áĪĥáĬĳ
itors
Ġyou
áĪĿáĪ³áĪĮ
ĠáĬ¥áĬķáĭ²áĪĺ
ĠáĬ¥áĭ«áĪįáĬŃ
ĠáīłáĬĲáĮĪáĪŃ
ics
Ġáĭ¨áĪĺáĪĽáĪªáĭ«
ĠáĬłáĪįáĪĪ
ĠáĬ«áĮĪáĬĻ
áī·áīµ
ĠáĪĺáĮłáĮ¦áī½
ĠáīłáĮĪáĬĲáīµ
Ġáī°áĬķáĬ®
ĠáĬ¾áĬĲ
áĭ«áī¸áĭįáĪĿ
áī¸áĬĿ
áīĥáĭĭáĪļ
Ġáĭ¨áīłáĪ°áĪĪ
ĠáĬłáĪĪáĪĿáĬķ
áī°áĪĺáĭį
ĠáĬ¨áĮ½
áĭĪáĪ°áĭ°áĭį
ĠáĭŃáīĢáīłáĪī
ĠáĭŃáĬĲáĬ«áĪį
ĠáĬŃáĪħáĭ°áīµ
ĠáĪĺáĪĺáĭĺáĬĽáĭİáī½
ĠáĪĽáĪµáĭĪáĮĪáĮĥ
áĮĪáįī
áī¥áīĥ
ĠáĬłáĪĪáįį
áįħáĮįáĬĵ
áĬķáĭ³áĬķáĭ·
ĠáĪĻáĭļáīĥáĬķ
Ġáĭ¨áĭµáĪį
Ġáī°áĪ»áĪ½áĪıáĪį
ĠáĬ¨áĭµáĬķ
áĪ®áĬĴ
ĠáĬ¨áĬłáĭ¨áĪŃ
áĬ¢áĬķ
ĠáĮŃáĬ«áĬĶ
ĠáīłáĪĻáĪµáĬĵ
ood
ĠáĪĺáĭĽáĮįáī¥
ĠáĪ¨áĭµáī¶áĬĽáĪį
áĪŃáī±áĮĭáĪį
ĠáīµáĭŃáĭ©
Ġáī¢áĪĺáĪµáĪįáĪĿ
áĪķáįįáīµ
áĭŃáĬĵáī½áĬķ
ĠáīµáįĪáĪįáĮĭáĪĭáī½áĪģ
ĠáĪĺáĪĺáĪµ
Ġáĭ¨áĪļáĭĪáĪ°áĬĲáĭį
áĪĥáĭ±
ĠáĬłáī£áī³áī½áĪģ
Ġáĭ¨áī¥áĪį
áī¥áĭµ
ĠáĪĪáĪĽáĪĺáī»áī¸áīµ
ĠáĪĮáĭĭáĭįáĭ«áĬķ
áĮĪáĬĵáĬĽáĭį
áĮįáĪįáĬĿ
Ġáĭ¨áĪĺáĪµáīĢáĪį
ĠáĬ«áĪħáĬĳ
ĠáĪĪáĪĺáĮĪáĪĺáīµ
Ġáĭ¨áĬłáīłáī£
ĠáĬ«áĭĪ
ĠáĬ¥áĪµáī´áīµ
ĠáĪŃáĬµ
ĠáĪĺáĪĪáĭĭáĭĪáĮ¥
ĠáīłáĪķáĭŃáĭĪáīµáĭİ
ĠáĬ¥áĮĪáĪĮ
ĠáĬłáī°áĮĪáī£
95
Ġli
áĭĺáĪĺáĬĳ
áĪµáī°áĬĵáĪį
ĠáĬķáĮįáĪ¥
ĠáĬłáĪįáĬĲáīłáĪ¨áĬķáĪĿ
ĠáĪĽáĪĪáįĬáĭ«
ĠáĪĺáĪ«áīħ
://
Ġáīłáī¥áĪŃáĪĥáĬķ
áĪ³áĪĭáī½áĪģ
áĪĺáĬķáĮĪáĭµ
ĠáĪ«áīģ
ĠáĮŃáīĥ
ĠáĬłáĬĲáĪ£
áĬķáīĢáĪ³áīħ
ĠáĬ«áĪŃáī³áĭİáī½
ĠáĬŃáįįáĪĪáĭĺáĪĺáĬķ
ĠáĪįáĮĩáĬķ
ĠáĭĪáĭ«
ĠáĪįáĬ¨
ĠáĭķáĭĿ
ĠáĮłáī¥áīĢáĭį
asáĪį
ĠáĪĺáĮĪáĪĪáĮ«áĭİ
ĠáĪĺáįĪáĪ«
áĮŃáī±
áī§áĬķáī§
Ġáĭ«áĪµáī½áĪĪáĬĵáĪį
ĠáĬ¥áĮĪáĪį
áĪ³áĪ°áĪį
ĠáīłáĪįáī¥áĪħ
ĠáĪĽáĪµáī°áĪĭáĪĪáįĬáĭ«
ĠáĬłáīħáĪŃáī¤
Ġáīłáī²
ĠáĬ¥áĬĵáĪµáī¥
ĠáīłáĬłáĬĲáĪµáī°áĬĽ
ĠáĮĪáĭ°áĪĪ
áĮłáĪ«áĮłáĪŃáĪĿ
ĠÐ
áĪļáīµ
ĠáĪ²áĪŀáīµ
ĠáĬ¥áĭ¨áĬĸáĪŃ
ĠáĪĪáĬłáĭį
Ġ190
ĠáīłáĪ¥áĬĲ
ĠáĬĲáīłáĪŃáĬŃ
ĠáĬ¥áĪŃáĪ¶
ĠáĬ¨áĬłáī£áī´
áĬħáĬķáĬĲáīµ
ĠáĬ¥áĪ«áĪ·áĬķ
ĠFre
Ġáĭ¨áīģáĮ¥áĮ¥áĪŃ
ĠáĮłáĭŃáīĢáĭį
ĠáĪµáĬ¬áī¶áī½
ĠáĬłáĬŃáī¥áĪ®
ĠáĭŃáĬ¨áī³áī°
ĠáĪĭáĪĭ
ĠáĪįáĭĳ
ĠáīłáĮİáĭ³áĬĵ
MA
áĪĿáĪ«
ĠáĪĿáĪĭáĪ¾áī½
ĠáĪĿáĪ½áĮį
Ġáī°áĪĽáĪ¨
áī¶áī»áī½áĪģáĬķ
áī´áĬŃáĬĸáĪİáĮĤ
ĠáĪĺáĪŃáĮĥ
ĠáĭŃáīĢáĪŃáī£áĪī
ĠáĪĽáĪĿáĪĪáĮ¥
lo
ĠáĪĪáĪł
Ġáĭ«áĭ°áĮĪ
ĠáĪĭáĪ³
ĠáĬ¨áĬłáĪģáĬĳ
ĠáĭŃáī³áĪ°áī£áĪį
áĮĪáĭ´
áĭ°áĪĭ
ĠáĬłáĭŃáĬĵáĮĪáĪŃáĪĿ
áĮŃáĭį
Ġ62
áĪħáĪĿáĭ«
Ġáīłáī£áĪķ
ĠáīłáĪ¨áĬ¨áī¶áī½
áĬ¨áĪĽáī½
ĠáĬŃáīµáī£áī¶áī½
áĪŃáĮĤáĭ«
Ġáī°áīĭáĪĽáīµáĬķ
áīĲáĪĪ
áĮįáĭ±
ĠáĪµáĪļáĭĿ
ĠáĪ°áīĨáīĥ
ĠáĬ¥áĪµáĪ«áĬ¤
ĠáĪĴáĭ°áīµ
ĠáĬ¥áĪįáĬŃ
áĮĪáĪħ
áĪ¨áĮłáĭį
ĠáĪµáįįáĪŃ
áĮĢáĪĿáĪ®
áĪĺáĪĪáĬ«áĬ¨áīµ
ator
Ġ04
ĠáĬ¨áĭ°áī¡áī¥
Ġáĭ³áī³
ĠáĪĲáĬĵ
ĠáįįáīħáĪ©
ĠáĬ¨áīłáĪŃáĬ«áī³
áĪµáī°áĭ³áĭµáĪ©
ĠáĪĬáī³áĪ°áī¥
ĠáĮĬáĭľáĭİáĬķ
ĠáĬłáĪµáĬĲáĪ³
ĠáĪ´áī¶áī¹
ĠáĪĺáĪįáĬłáĬ©
áĪĭáĪĿáĬĵ
áīĨáĮ¥áĪŃ
áĬĲáĮĭáĪĿ
Ġáĭ©áĬ¤áĪµ
ĠáĭŃáĮįáī£áĭį
Ġáĭ¨áĬĲáĮ»áĬĲáīµ
ĠáĪĪáįĸáĪĪáī²áĬ«
Ġáī°áĮłáĭŃ
ĠáĭĪáĭ°áĭį
ĠáĮīáĭ³áĭŃáĪĿ
áĬ©áĪįáī²
Ġáīłáī¤áī°áĬŃáĪŃáĪµáī²áĭ«áĬķ
ĠáĬłáĬĳ
Ġáī¢áĬķ
Ġáĭ¨áĪĽáĬķáĪĿ
Ġáĭ«áĪĪáįī
ĠáĪµáĪĪáĪļáī½áĪī
áīħáĭ±áĪ³áĬķ
ĠáĬ¥áī³
ĠáĬłáĬ¨áĬĵáĭį
áĬĲáī¡áīµ
ĠáĬłáĪįáĪ°
ĠáĬłáĪįáĬ³áīµ
ĠáĮīáĪį
ĠáĬ¥áĬķáĭ°áī°áĬĵáĮĪáĪ¨áĭį
áĪ°áīłáĪµáī¥
ĠáĮįáĪįáĮ½áĬĲáīµ
Ġáī£áĪĪáĬķáīłáīµ
ĠáĪļáĭ«áĭļáĭ«
ĠContinue
áĮ¥áĪ«áīµ
ĠáĪ°áĮĪáĭ±
ĠáĬ¥áĭ¨áĮ£
ĠáĬ¨áĬ¥áĬķ
Ġáĭ«áĪµáĮĪáĭµ
áĬ¨áī°áĭį
áĬķáĭ´áĪĭ
ĠáĮłáĭŃáīĭáĪį
Ġ87
áī³áĭĪáīģáīµ
ĠáĪĪáĪĽáĪµáĮłáīłáīħ
ĠáĪĽáĭķáĭµáĬķ
áĪ¨áĮĭáĮįáĮ¡
ĠáĪĪáĪĺáĪĺáĮĪáī¥
Ġáī°áĪĺáĭĿáĮįáī§áĪį
ĠáĬ¨áĭ°áĪ¨
Ġáį®
áĭ¨áī¥
áĪĨáĬķáĬķ
ĠáīłáĪŃáī³
ĠáīłáĪįáī£áī¸áĭį
ish
Ġáĭ¨áĭĪáĮ£áī¶áī½
Ġáĭ¨áī°áĪĭáĬ¨
ĠáĪįáĬķáĮĪáĪŃáĪħ
ĠáĪĪáĬĲáįį
Ġ88
ĠáĪĿáĪµáĪ¨áī³
ĠáĭŃáĬ¨áĪĭáĬ¨áĪĭáĪį
Ġáĭ¨áĪļáĪ³
Ġáĭ°áĭĮ
Ġáĭ¨áĪļáĭ«áĭ°áĪŃáĮĭáī¸áĭį
áĪĿáĬķáī³áīµ
áĮĨáī¹áĬķ
ĠáĬłáĭįáīĢáĭį
ĠáĬłáĭ«áĭ°áĪŃáĮīáĪĿ
Ġáī°áĪĺáĪįáĬ«áī¾áī½
ĠáĭŃáī°áĮĪáīł
áĬķáĮ®
Ġáĭ¨áī°áĪĽáĪªáĭİáī½
Ġáĭ°áĮįáĬĲáī±
ĠáĪ«áīµ
Ġáĭ¨áĭĪáĪĭáĮħ
ĠáĬłáī£áī³áī¸áĭį
ĠáĪĺáĪ°áĪĪáĪħ
Ġáĭ¨áĬŃáĪŃáĪµáī²áĭ«áĬķ
Ġáī°áĬ¨áīµáĪĪáĭį
ĠáĪĺáĪĦáĭ±
áī£áĪĭáī½áĪģ
ĠáĪĽáĭ°áĪŃ
áĪĮáĪİáī½
Ġáĭ¨áĬĲáĪŃáīŃ
Ġáĭ¶áĪŃ
Ġáĭ¨áī¥áĪĶáĪŃ
áīĥáī¸áĭĭáĪį
ĠáĮīáĭ³áī°áĬŀáī½
áįĮáĭ´
Ġáĭ²áįķáĪİáĪĽáĪ²
áĪļáĭį
ĠáĪµáĪŀáī½áĬķ
áĬĲáīµáĪħ
Ġáĭ¨áĪĿáĪħ
ĠáĬ¥áĪµáĬ¨áī°
ĠáĪĢáĪ³áī¡áĬķ
ĠáĬłáĬĲáĮĭáĮį
áīħáĭĿ
áĭ¨áī³
ĠáĪĽáĪµáĬŃ
áįĴáī³áĪį
ĠáĬ¨áĪ°áĪŀáĬĳ
ĠáĪĽáĭ³áīłáĪªáĭ«
ÙĦÙĩ
ĠáĪĺáĬĵáĮĪ
ĠáĮİáī³
ĠáĬłáĭ«áĪĮ
ĠáĮ´áĮ¥áĪ®áĪµáĪĿ
áĪŃáĮĭáĬĴáĬŃ
ĠáĪĪáĪĺáĪĪáĬ«áīµ
ĠáĬłáĪµáĮ¨áĬĵáīĤ
ĠáĬłáĪµáĮłáĬķáīħ
ge
áĪĪáĮį
áĭĪáĭ«áĬĶ
ĠáĬ«áī¶áĪĬáĬŃ
ĠáĬ¦áĭ²áīµ
Ġáĭ¨áī°áĪĺáĪ¨áĮł
áĪĪáīµáĬĵ
áĪ¸áĮĬáĭ«
ĠáĬłáī£áĪĭáī±
ĠáĬłáĮ£áĪģ
Ġáĭ¨áĪļáĪ¸áĮ¥
ĠáĮįáĪİ
áī»áī¸
ĠáĬłáĪĭáĮĪáĬĻáĪĿ
ĠáīĥáĮłáĪİ
ĠáĬłáĪĽáĪ«áĭį
ĠáīģáĪĿáįĬ
ĠáĪĺáĮ¨áĪ¨áĪµ
ĠáĪĺáĪĽ
ĠáĭŃáĬŃ
Ġáĭ¨áĪļáĭ«áĮĪáĬĺáĭį
ĠáĮŃáĬķ
ĠáĪĿáĪµáĬª
Ġáĭ«áĭµáĪŃáĮį
Ġpl
ĠáīłáĪºáĪħ
ĠáĪĪáĬķáī£áī¥
Ġáĭ¨áĪļáįĪáĮ¸áĪĿ
ĠáīµáĪ¸
áĮ»áĮ»áįį
ĠáĬłáīµáĪŃ
ĠáįįáīµáĪĲáĭĬ
áīĢáĭŃáĪŃ
ĠáīłáĪĺáīĥáĭĪáĪĿ
[...]
