<unk>
<s>
</s>
<pad>
<mask>
!
"
#
$
%
&
'
(
)
*
+
,
-
.
/
0
1
2
3
4
5
6
7
8
9
:
;
<
=
>
?
@
A
B
C
D
E
F
G
H
I
J
K
L
M
N
O
P
Q
R
S
T
U
V
W
X
Y
Z
[
\
]
^
_
a
b
c
d
e
f
g
h
i
j
k
l
m
n
o
p
q
r
s
t
u
v
w
x
y
z
{
|
}
~
¡
¢
£
¤
¥
¦
§
¨
©
ª
«
¬
®
¯
°
±
²
³
´
µ
¶
·
¸
¹
º
»
¼
½
¾
¿
Â
Ã
Ä
Å
Æ
Ç
É
Ê
Ë
Ì
Î
Ï
Ð
Ñ
Ò
Ö
×
Ø
Ù
Ú
Û
Ü
ß
à
á
â
ã
ä
å
æ
ç
è
é
ê
ë
ì
í
ï
ð
Ġ
Ģ
ģ
Ĥ
ĥ
Ħ
ħ
Ĩ
ĩ
Ī
ī
Ĭ
ĭ
Į
į
İ
ı
Ĳ
ĳ
Ĵ
ĵ
Ķ
ķ
ĸ
Ĺ
ĺ
Ļ
ļ
Ľ
ľ
Ŀ
ŀ
Ł
ł
Ń
áĪ
áĬ
áĭ
áī
ĠáĬ
áį
áĮ
ĠáĪ
Ġáĭ
áĬķ
áī¥
áīµ
áĪĿ
áĭŃ
ĠáĬ£
ĠáĬ¥
áį¢
áĪį
áĪŃ
áī°
áĪµ
ĠáĮ
áĪĪ
áĬĵ
áīł
ĠáĬ¥áĭ
áī²
ĠáĭĿ
ĠáĬķ
áī³
áĬĲ
áį¡
Ġáī¥
áĬ¥
ĠáĪĺ
ĠáĬŃ
áĬ£
ĠáĪĿ
áĭµ
ĠáĬ¨
ĠáĬ£áī¥
áĪ¨
áī£
áĪĺ
áĪķ
áĪĭ
áĪ«
áįį
áĮĪ
áĭį
áĭķ
áĪĽ
áĮį
áĭ°
áĪī
Ġáĭĺ
Ġáī
áĪİ
ĠáĬĲ
Ġáī°
áĬ½
áĬ«
ĠáĬĵ
ĠáĪĵ
áĭĿ
áĪĵ
ĠáĭŃ
ĠáĬ¥áĭ©
áĭ«
áĪ°
áĭļ
ĠáĬ¢
áįĪ
ĠáĪ°
áĭĵ
ĠáĪµ
Ġáĭµ
áĪª
áĪ³
áĮ½
áĭĪ
ĠáĬ«
ĠáĮį
ĠáĬ¨áĪĿ
áĭ³
ĠáĬ¥áĬķ
ĠáĬ£áĭŃ
áī¶
áĪĬ
áĬŃ
áī³áīµ
ĠáĭĪ
Ġáĭĵ
áĬ»
áĭ©
áĭİ
áĭĬ
Ġáīµ
áĪ©
ĠáĬĵáĭŃ
áĪħ
áĭ¨
áĬ¨
áĮ¥
áīķ
áĬ©
áĬ¡
áĬ¸
ĠáĬ«áī¥
áĭĽ
áĭĺ
ĠáĬ¥áī²
ĠáĪķ
áĭĭ
Ġ"
áī¢
Ġáīł
ĠáĭµáĪĽ
áĮĭ
áĭ®
áĭįáĬķ
áĬĴ
Ġáĭ°
áĪ®
áĬ¹
áĭ²
ĠáĬ¥áĭļ
ĠáĮĪ
áĪĥ
ĠáĪĿáĪµ
áĪļ
áĬĳ
áį£
áī¶áĪĿ
áī¡
áĬĲáīµ
Ġáĭ¨
áī±
áĪ±
áĪ²
ĠáĪħ
áĮ¸
áĮ»
áĬ©áĪĿ
áĮł
ĠáĪĽ
ĠáĭĺáĭŃ
áī¦
ĠáĬ¥áĬķáī°
ĠáĬĵáī¥
áĬ¦
áĪ½
ĠáĪĥ
áĪŀ
ĠáĪĺáĬķ
Ġáįį
Ġáĭį
ĠáĪµáĪĪ
ĠáĬ¸
Ġ1
Ġáį
áīµáĬķ
áĭ±
áĪİáĪĿ
Ġáĭļ
ĠáĭĿáī°
áīłáĪŃ
ĠáĬ£áĪĪ
áĪĻ
áĪĿáĪĭ
áīħ
Ġáīħ
áī¥áĪį
áīĲ
ĠáĮ¥
áĬ½áĬ¥
áīĢ
áĬ¾
áĬ®
ĠáĪ°áī¥
áī³áĭŃ
ĠáĬŃáīµ
ĠáĪĵáĭ°
Ġáĭķ
ĠáĬ©
ĠáĬŃáĬķ
áĬ¢
áĪĿáĪĭáĬ½
áĮĪáĪŃ
ĠáĮ¸
áīłáĪ¨
ĠáĬ¨áĬ£
ĠáĪį
ĠáĬ£áĪİ
áĬł
áĭĻ
Ġ2
ĠáīĢ
áĭī
áįĭ
áīĤ
Ġáī£
ĠáĬª
ĠáĭĺáĪĪ
ĠáĬ®
áĭ¶
áĭľ
ĠáĮ½
áī¥áĪŃ
áĮº
áĭĵáĪį
áĬ½áĬ¥áĪį
ĠáĪŃ
áĭĳ
áĪĿáĬķ
áī£áīµ
Ġ(
ĠáĭĺáĪİ
ĠáĬ¥áĭ¨
ĠáĬ£áĪĿáĪĭáĬ½
ĠáĮįáĬķ
áĬª
áĬ¹áĪĿ
ĠáĬ¥áĭ®
ĠáĬł
ĠáįĪ
ĠáĬĲáī²
ĠáĬ¥áĭį
áīĥ
ĠáĬ¥áĭįáĬķ
áĮ£
ĠáĬ¥áĭ®áĪĿ
áĪ«áīµ
áĪĳ
ĠáĭĪáĭŃ
áįĪáĪį
ĠáĬĲáĭŃ
áĪĴ
ĠáĮįáĬĵ
Ġáī¤
ĠáĬķáĪĿ
áĮĬ
áĭ«áĬķ
áĪ«áĪķ
áĮ¢
ĠáĪħáĭĿ
ĠáĭĵáĪĺ
Ġ-
..
áĮī
áĬĸ
áĬ¤
áĬ¸áĭįáĬķ
ĠáĭĿáĬĲ
áĬ¦áĪĿ
áĬ¾áĬĲ
áĬ£áī¥
áĪĪáīµ
ĠáĬ¥áĬķáī³áĭŃ
Ġ'
áīĵ
ĠáĬ¢áĬĵ
áĭķáī£
áĪ«áĭŃ
Ġáī¥áĪĿ
áĭ«áīµ
áĬķáī²
ĠáĬ¥áĪĿ
Ġáī¥áĭĻ
áĬĽ
áĬº
ĠáĮįáĭľ
áĭŃáĬĳ
ĠáĬ¤
áĪĪáĪĿ
ĠáĪ½
ĠáĬ½
ĠáĬ«áĪį
áĪµáī²
áĪĺáĭŃ
áĪįáĬĵ
áĮ¹
ĠáĭĿáīł
áĬĲáĬķ
ĭáĬķ
áĮįáĭļ
áĭ®áĪĿ
ĠáĮī
ĠáĬ¢áĭ©
áĭİáĪĿ
áīłáĭŃ
áįĬ
áĭĪáīµ
áĪĭáīµ
Ġáī¥áĭĽ
áĭĺáĭŃ
áįī
áĪĺáĬķ
áĭĴ
ĠáĪ°áī£áīµ
áĪ®áĪĿ
ĠáĪĺáĭĵáĪį
áĮĤ
ĠáĬ¸áĬ£
áĮĪáĪį
áĪķáĪª
Ġáī¥áĭĽáĭķáī£
ĠáĬ©áĪī
ĠáĬ£áĬĲ
ĠáĬ¥áī¶áĪĿ
áį§
áĪ¨áīµ
Ġáį¡
áĪĵáīµ
ĠáĬ¨áĭŃ
áĬĵáĬķ
áĭĵáīµ
áĮĪáī¥
áĪµáī°
áĪ³áī¥
áĭĥ
áī£áĪŃ
ĠáĬĲáĭļ
áĪĪáĬķ
ĠáĬķáĪ±
áĭķáĪĬ
áĮİ
áĪŃáĪµ
áĭŃáĬķ
Ġáį¢
ĠáĬ¥áī°
Ġáīĥ
ĠáĬ¥áĬĵ
ĠáĬĲáĮĪáĪŃ
ĠáĬ¥áĮįáĭļ
ĠáĬ£áĭŃáĬ®
áĪĺáĪµ
áī³áĭĬ
áĪĲ
áĪ«áĭĬ
ĠáĬ£áī¥áĭļ
ĠáĬ¥áĭ«
ĠáĬ¥áĪŀ
áĪ¬
ĠáĬķáĪµ
áĪ°áĪŃ
áĪįáĬ«
áī¥áĪī
ĠáĪĪ
ĠáĪħáĭĿáī¢
Ġáīħáĭµ
áĪ¶
áĪħáĪŃ
ĠáĭĵáĪĺáīµ
ĠáĬŃáĪį
áĪĨ
áĪĺáĪŃ
ĠáĪ¨
Ġáī¥áĪĵ
Ġáĭľ
áĬ³
áĪŃáĬ¨
ĠáĬ¥áīµ
Ġáī¤áīµ
áĪ±áĪµ
áĪŃáĬ¥
ĠáĪĿáĭµ
áĪĶ
ĠáĪŀ
ĠáĭĵáĪĪáĪĿ
ĠáĬĲáĭŃáĪ©
ĠáĬ£áĭŃáīµ
áĮ¡
áįħ
ĠáĬ£áĬķ
ĠáĪķáĮĤ
Ġ3
áį¥
ĠáĬ¢áĪī
áĪįáĬķ
ĠáĪİ
ĠáĬ¨áĪĿáĭĿ
áĬĵáīµ
áį¤
ĠáĪĿáĬ½
Ġ20
áĪ¸
ĠáĪĥáĮĪáĪŃ
áĪŃáīµ
ĠáĪ³
áĮĢ
ĠáĬ¢áĬ»
áī°áĭŃ
áĬ£áĭŃ
áĭįáĭ«áĬķ
ĠáĪĿáĭĥ
Ġáĭĭ
ĠáĭĿáĪĵ
ĠáĮĢ
Ġáī°áĪĺ
ĠáĬ¥áī³
ĠáĬ¥áĭĭáĬķ
Ġáī¥áĭĻáĪķ
ĠáĪµáĪĪáĭļ
ĠáĬ£áī¥áī²
áĮĪáī¥áĪŃ
ĠáĪĺáĪį
ĠáĪŃáĬ¥
ĠáĪĺáĭĵáĪįáī²
ĠáĮ¥áĪ«áĭŃ
Ġáī¥áĭĿ
ĠáĬµ
ĠáĪĥáĮĪ
ĠáĪĽáĪĪáīµ
Ġáĭ³
áĪĶáĪŃ
áĪĿáĪħáĪŃ
áĪĪáĭŃ
ĠáĬ¨áī°
ĠáĬ¨áĪĿáĭļ
ĠáĬ¨áĪĿáĬ¡
áĪĵáįį
áĬĵáĭŃ
áįĪáĪįáĮ¥
áĪĮ
áĪľ
ĠáĪļ
áĭĽáĪ¨
ĠáĬķáĬ£
ĠáĪĺáĮ½
ĠáĪĺáĪ°
ĠáĪİáĪļ
áĭµáĪį
ĠáĬ£áĭŃáĬ®áĬĲáĬķ
ĠáĪĺáĬķáĮį
áĭŃáĭĪáīµ
áīłáĪ©
áĭŀ
áĪĤ
áĮħ
Ġáī³
Ġáīħáĭ±
áī°áĬķ
áīłáĪį
ĠáĮł
ĠáĪĿáĬ¥
áĪ»
Ġáī¦
áĪĽáĭŃ
ĠáĪĿáĬķ
áĪ°áī¥
ĠáĭĿáĬ¾áĬĲ
áĬķáĬķ
ĠáĪĺáĪµ
áĭĢ
ĠáĬ¥áĮįáĭļáĬ£áī¥
ĠáĭµáĪķáĪª
Ġáĭ¶
ĠáĪµáĪ«áĪķ
ĠáĭĿáī¥áĪį
ĠáĬķáĭĵ
ĠáĬ¥áĪµ
áĪĭáĭŃ
ĠáīħáĭµáĪļ
áĮ½áĬ¥
áĭ³áĭŃ
áĬ¹áĬķ
ĠáĬº
áĪĿáĪŃ
ĠáĬķáĪķ
áĭ³áĬ¥
ĠáĬ£áī¦
áįİ
áĬ£áīµ
áĮĪáĭ²
áīĳ
ĠáĬ®áĭŃáĬĳ
ĠáĭĿáĬĲáīłáĪ¨
áĪĥáĪį
ĠáĬ¸áĪĿ
áĮ¦
ĠáĪįáĭķáĪĬ
ĠáĬ£áī£
ĠáĬ£áįį
ĠáĭŃáĬ½áĬ¥áĪį
áī¦áĪĿ
áĭ°áĭŃ
áĪµáīµ
áĪŃáĭ«
áī¤
ĠáĬŃáĪ³áī¥
áĪĭáĪĪ
Ġáīħáĭ±áĪµ
Ġáĭ°áīĤ
ĠáĬŃáĪŃáĪµ
áīĨ
áĪŃáĬķ
áĪ¨áĬ½
ĠáĬ«áĪįáĬ¥
áĭĲ
ĠáĬ¨áĪĺáĭŃ
ĠáĭĿáĪĺ
áĮįáī£
ĠáīĥáĪį
áĬ¤áĪį
ĠáĬ»
ĠáĭĪáĭ²
Ġ4
ĠáĬĲáĮĪ
ĠáĪĿáĪŃ
áĪĦ
Ġáī¥áĪŃ
ĠáĪµáĪĿ
ĠáĬ¥áĪĿáīłáĪŃ
ĠáĭĵáĭŃ
áĭŃáī³
ĠáĬĲáīłáĪ¨
áĭ°áĪį
...
ĠáĬķáĪµáĬ»
ĠáĬķáĪĵ
áĬ°
ĠáĪĿáĬ½áĬķ
áĭµáĬķ
áĪŃáĬĵ
ĠáĬ£áĪĪáĭİ
ĠáĬ¤áĪŃáīµ
áĪŃáĬ¨áī¥
áĬĲáī³áīµ
ĠáĬŃáĪįáī°
áĪĭáĪĿ
ĠáīµáĪĿáĪħáĪŃ
áĭĸ
áĮĥ
áĪ´
ĠáĮĮ
ĠáĮĪáĪĪ
áīµáĬĵ
Ġáī¦áī³
áīĭ
ĠáĮİ
áĬ¦áīµ
áĭ°áĬķ
ĠáĬ£áĭĿ
ĠáĪĺáĮ½áĪĵáįį
ĠáĭŃáĬ¹áĬķ
ĠáĪµáĪŃ
áĬĸáĪĿ
Ġ.
ĠáĬ£áĮĪ
áī¥áĪ¨
áĬŃáī¥
ĠáĬŃáįį
ĠáĬ£áĭŃáī°
Ġáī¥áĭĺáĭŃ
ĠáĪķáī¶
áĪĿáĪį
Ġáĭ¨áĪ±áĪµ
áĪĽáīµ
ĠáĬ£áĭ¨
ĠáĬķáĪ³
áĭª
áĪŃáĬ«
ĠáĬ¥áĬ³
ĠáĮĪáĭĽ
Ġáĭ²
áĪµáĬķ
áĪĿáĬķáī³áĭŃ
ĠáĭĺáĪĪáĭİ
áĬ¨áĬ£
áĬ¥áī²
Ġáīłáĭļ
ĠáĪĻ
ĠáĬ£áĪµ
ĠáĬķáĭĿ
áįĥ
Ġáįĸ
áĪĽáĭķ
áĬŃáīµ
áĮĲ
áīµáĬ©áĪĿ
ĠáĪĿáĪ³
áī¡áīķ
áĪģ
Ġáīģ
ĠáĪĵáĬķáī²
ĠáĪĿáĭµáĪª
ĠáĬ¤áĪŃáīµáĪ«
áĭµáĪķ
áįĪáīµ
ĠáĬķáĬ½
00
áĪ¬áī³
áĬ«áĬķ
ĠáĬķáĬ¥
áī£áī¥
ĠáĬ£áĬ«
Ġ5
áīłáĪĪ
ĠáĮĲ
áĪ°áĪĿ
áĬķáĭĺ
áĪİáīµ
ĠáĭĿáĭĪ
ĠáĬ°
ĠáĪĽáĪķ
ĠáĪĿáĭĥáĬĳ
áĪīáĬ¥
ĠáĬ£áĪĺ
ĠáĪĺáĬķáĮįáĪµáī²
ĠáĪĵáīł
áī¥áĪª
ĠáĬ¢áĬ¹áĪĿ
áĮ£áĬķ
áĮĪáĪįáĮį
Ġáī°áĭĪ
áīłáīµ
áĮįáī£áĪŃ
ĠáĪĺáĪŃ
ĠáĬ¨áĪĿáī²
ĠáĭĿáĮĪ
ĠáĬŃáĬ¸áĭįáĬķ
ĠáĪ¸
ĠáīłáĪĪ
áī¥áĬķ
áĪ³áĭķ
ĠáĪĵáīĤ
áī³áīµáĬķ
ĠáĪĿáĬ¥áĬķáī²
áīģ
ĠáĮĪáĭŃ
áĭŃáī²
ĠáĬĲáī¶áĪĿ
áī¥áĪĪ
ĠáīµáĪĿáĪħáĪŃáī²
áĬ¥áĬķ
ĠáĪħáĭŃáĭĪáīµ
ĠáĬķáĪķáĬĵ
áĪīáĬķ
ĠáĮĬ
áĭµáĪ«
áĭŃáĭµ
Ġáī¥áĭĻáĪĵáīµ
áī£áĪį
Ġáī¤áī°
ĠáĪµáĪĪáĭĿ
áĮ¾
áĪħáĪį
áĪĦáĪŃ
ĠáĬĶ
áĪķáī²
ĠáĭĿáĬ£
áĪµáįĭ
ĠáĪĵáĭµ
áī°áĪŃ
ĠáīĨ
áī¶áĪµ
ĠáĭĵáĭŃáĬĲáīµ
áī£áĭķ
áĮįáĭ°
ĠáĬ¥áĭļáĬ£
áĮĵ
Ġáĭ°áĬ£
ĠáĬ¨áī°áĪĽ
Ġáī¥áĬ£
áĭ³áĬķ
ĠáĬ¥áĪµáĪ«
ĠáĪĵáīłáĪ¬áī³
áĪĸ
ĠáĮĪáĪĬ
ĠáĭįáĪ½
Ġáī°áīĲ
ĠáĪĿáĪķ
ĠáĪ½áĭĳ
ĠáĬ¢áĭ¨
ĠáĬ£áĪĪáĭī
áĬĽáī³áīµ
ĠáĭĪáĪŃ
ĠáĬ£áĪķ
ĠáĬ£áĭŃáĬĲ
áĪĥáĬķ
áĪĺáĪį
áĭ¶áĪĿ
ĠáĬ¨áĪĿáĭĺ
ĠáĪĺáĮį
Ġáī£áĭķ
áĪªáĬ«
ĠáĪĽáĬ¥
ĠáĭĿáīłáĪĪ
Ġáĭ®
áĪ°áĬķ
áī¥áĬĵ
áĪ°áĭŃ
ĠáĮ½áī¡áīķ
áĬŃáĬ¥
ĠáĬ£áĭį
ĠáĮīáĭ³áĭŃ
ĠáīĢáĭ³
ĠáĪĺáĭĪ
áįĢ
ĠáĬ¦
áįĪáĪĭáĪĪ
áĬŃáĪį
áī´
áĭ³áĬ¥áī³
áĮīáĪµ
áĮįáĪŃ
áĮĪáĪĿ
ĠáĭĿáĭĢ
áĭ°áĪĬ
ĠáĬ£áĪŃ
Ġáī¥áĬ¸
ĠáĬķáĪĺ
ĠáįįáĪŃ
Ġáīłáī²
ĠáĪĥáĮĪáĪ«áīµ
áĪµáĭķ
ĠáĪĵáĭŃ
ĠáĬĲáįį
áĪĨáĭĭ
ĠáĮĪáĬķáĭĺ
Ġáįķ
áīłáĪī
áĭ®áĬķ
ĠáĬ«áī¥áī²
áįĪáĪŃ
Ġáī°áĪµáįĭ
ĠáĬ«áĪįáĬ¦áīµ
áį¦
ĠáĬµáĪī
áĪŃáĬ¢
ĠáĪ°áĪĪ
Ġ201
ĠáĪĺáĭ°
ĠáĭĿáĬ¸
Ġ6
áĪĪáĪµ
áī£áĭŃ
áĭĬáīµ
áĪ¨áĬķ
áīĴ
áĪ«áĬķ
ĠáĬ»áī¥
ĠáĮĵ
ĠáĪķáĪĽ
áĬ½áĬ¥áĪī
áĮłáĬķ
ĠáĬ¢áĪİáĪĿ
ĠáĪ°áĪĭáĪĿ
ĠáĭŃáī¥áĪį
ĠáĬĲáĮĪáĪ«áīµ
ĠáĪµáĪį
áĭŀáĪĿ
áĬ®áĬĲ
áī°áĪĵ
áĪŃáī¥
áĬĲáī¥áĪŃ
Ġáī¥áįį
ĠáĪĺáĬķáįĪ
áĮ»áĬ¢
áĪĿáī²
ĠáĬ¥áĮįáĭļáĬ£áī¥áĪĶáĪŃ
ĠáįįáĪį
Ġáī³áĪª
áĭĽáĪ¨áī¥
Ġáī£áĪħ
áĪ¨áī£
Ġáī°áĪĵ
ĠáĬ¨áĪİ
ĠáĭĵáĪĺáī³áīµ
áĪĥáī¥
ĠáĬ¥áĭĽ
Ġ19
áĮ¸áĬķ
Ġáĭ¨áĪĪáĬķ
ĠáĪĿáĪĿ
ĠáĬ£áĬ¥
Ġáĭįáĭµ
áĪŃáĪķ
áīłáĭŃáī²
ĠáĬ½áīµ
ĠáĪĤ
ĠáĬ£áĭĿáĭ©
Ġáī¥áĪĺ
áīµáĭ®
áĮĪáĭĿ
áĪ¶áĪĿ
Ġáī¥áī°
ĠáĪĴ
áī£áī¢
áĭ°áīµ
áīłáĪ®
Ġáįįáīķ
áĮŃ
ĠáĪĿáĪį
áĪĭáĬ¥
áī£áĭĬ
áĮ«
áĬĶ
áĪĻáĬķ
áĮįáīłáĪŃ
ĠáĬŃáĪŃáĪµáī¶áĪµ
áĬłáī¥
áĪĭáĬķ
áĬ¨áįį
ĠáĪĺáĭĪáĭ³áĬ¥áī³
ĠáĬłáī¥
áĬ½áī²
ĠáĬ©áĬĲáī³áīµ
áĪĽáĬķ
Ġáī¥áĪµ
áĭħ
áĭµáĬĵ
áī¥áĪİ
ĠáĬ¥áĪµáĪ«áĬ¤áĪį
ĠáĬ¬
áĭķáĬĵ
ĠáĪĭ
ĠáĬ£áī¥áĬ¡
áĮĪáī¥áĪ®
áĪįáĬ©áĪĿ
áī¥áĪ©
áĪĿáĬĵ
ĠáĮĢáĪļ
Ġáī°áįĪ
áĪŃáĭµ
áĪ¨áĬ¸
ĠáĮĬáĭľ
Ġáĭµáĭ©
ĠáĮĪáĬķáĭĺáī¥
áĭŃáĬĵ
ĠáĭįáĬķ
áĬŃáĬķ
áī±áĬķ
áī²áĬ«
Ġáĭ¨áĪĨáĭĭ
áĭķáĪį
áīĸ
áĪĪáĮ¥
áĬ¾áĬĳ
ĠáĬ£áĪĪáĬ¹
Ġ8
áĪĵáĬķ
ĠáĭĺáĪĪáĭī
áįįáī²
áī³áĬķ
ĠáĭĿáĪĵáĪĪ
áĬłáī¥áĪĶáĪŃ
Ġáī°áī£
Ġáĭķáĭµ
áĪ¨áī¥
áĬŃáĪŃ
áīłáī¥
ĠáīµáĬ½áĬ¥áĪį
ĠáĪµáĪŃáĭĵáīµ
ĠáĬķáĭĺ
Ġáī°áĪ°
Ġ7
áĮįáī£áĬ¥
ĠáĪĺáĮĪáĭ²
áįĪáĪįáĮ¦
ĠáĬ¥áĮįáĭļáĬ£áī¥áĪĦáĪŃ
áĪįáĬ¥
ĠáĪĺáī¥
áĬ¨áīµ
áĪĭáĪĽ
ĠáĪµáĭµáĪ«
áĬ¨áĭįáĬķ
áĬĲáīµáĬķ
áĪķáĮį
ĠáĭĿáĭĵ
áĭĪáĪµ
áĭİáĬķ
áĮįáī¥
áĭ«áĭĬ
áĮµ
ĠáĮ½áĪĳ
ĠáĬ£áĪį
ĠáĬ£áĭŃáĬ°
áĭ«áī±
ĠáīĲ
ĠáĭĪáĪĪ
áĮĮ
ĠáĬ²
ĠáĬķáĪħ
ĠáĪµáĪĪáĪĿáĬķáī³áĭŃ
Ġ10
áĮĢáĪĺáĪŃ
ĠáĪķáĮĬ
áĭķáī²
áĬķáĬ«
áĬ©áĬķ
ĠáĬ£áĪĿ
áĭ´
ĠáįĢ
Ġáĭħ
áįĤ
ĠáĭĽ
ĠáĬ¥áĬķáĭ³
Ġáī¥áĬ¥
ĠáĪ°áĪĪáĪµáī°
ĠáĬ£áĮĭ
ĠáĬ£áī¢
ĠáĬķáī¥
ĠáĮ»
Ġáī°áĮĪ
ĠáĪĵáĭµáĪ½
ĠáĮ¥áĪ«áĪķ
áĮķ
Ġáī°áĬ£
áīµáĬ«
ĠáĬ¥áĬķáī°áĬ¾áĬĲ
áĪĿáĪµ
ĠáĬķáĬĲ
ĠáĪĿáĬ½áĬķáĭ«áīµ
áĮįáĭ°áįį
Ġáī¥áĬ¸áĪĺáĭŃ
ĠáĬŃáĪ³áĭķ
áĪ³áĭŃ
ĠáīłáĪį
ĠáĬĵáĭŃáī²
ĠáĬ£áīµ
áĮĪáĭµ
ĠáĬ£áĭŃáĬķ
áĪŀáĪĿ
ĠáĬ£áĮĪáĭ³
ĠáĬķáĮīáĪµ
ĠáĬķáĮį
ĠáĬ¢áīµáĭ®
áĪ°áĪŃáĪķ
ĠáĭĢ
áĪ³áīµ
ĠáĪĿáįį
ĠáĭµáĪĿ
ĠáĬ¢áĪĪ
ĠáīłáĭĵáĪį
áĪ¨áĬ£
ĠáĮĭ
áĪĪáī²áĬ«
ĠáĮĲáĭŃáī³
ĠáĪĿáĭį
ĠáĪ²
áĮ¥áīĢ
áĭĺáĬķ
áĬķáĭ²
ĠáĭĿáĭĢáĬĲ
ĭáĬķáīĭ
ĠáĪĽáĭŃ
ĠáĬ£áĭµ
áĪĺáĮ½áĬ¥
áĪµáĬĵ
Ġáī³áĪªáĬ½
áĪ¨áĬŃáī¥
ĠáĪĿáĭķ
Ġáĭĵáī¥
áī¥áĪīáĬķ
áĭ«áĭ³
ĠáĭĪáĪŃáĪĴ
ĠáĪĽáĭķ
ĠáĬķáĮĪ
ĠáĪ«
ĠáĬŃáĬķáĭ°áĭŃ
ĠáĬ£áĪĪáĬĵ
Ġáĭĵáī¢
ĠáĭįáĪ½áĮ¢
áĭŃáĭĪ
áįķ
ĠáīµáĮį
ĠáĬ£áĮĪáĪįáĮį
áī°áĬĽáī³áīµ
ĠáĭĭáĪĭ
áĭŃáī¶
áĬ¨áĬ£áĪį
ĠáĬ¨áĪĪ
ĠáĬ¥áĬķáĬ¨
áĬħ
ĠáĪĺáĭµ
ĠáīµáĬ«
ĠáĬ¢áĪįáĬ«
ĠáĪĲ
ĠáĬķáĪ³áī¶áĪĿ
áĪ¨áĮĭ
áĮ½áĪķ
ĠáĪĺáĬķáĬ¥
ĠáĪĿáĪīáĬ¥
áĪĭáĭĬ
áĮ½áĬķ
ŀáĪĿ
áĭ¨áĬķ
áĭ«áĪµ
áĭĪáĬķ
ĠáĬ¨áī£áī¢
áĪķáīµ
áĮĪáī¥áĪ¨
ĠáĬŃáī¥áĪį
áĮ½áĪį
ĠáĪĺáĭĵ
áĬĲáĭŃ
Ġáĭĵáĭ²
Ġáī¥áĪį
ĠáĭĿáįĪ
ĠáĬ¢áīµáĭ®áĮµ
ĠáĭĺáĭŃáī°
ĠáĬ¥áĭŀáĪĿ
áĪĵáĭ°
áĬŃáĭķ
áĮ³
ĠáĭĿáĪ°
áĬ£áĬķ
áĭ³áĪŃ
ĠáīłáĪİ
áĪ¥
Ġ9
ĠáĬ¥áĮįáĭļáĬłáī¥áĪĶáĪŃ
ĠáĪĺáĬķáĮİ
ĠáĬ¥áĪĿáĬĲáīµ
Ġ[
ĠáĬĲáī¥
ĠáĬ«áī¥áĭļ
áĮ»áĬ¥
ĠáĭŃáĬ¸áĭįáĬķ
ĠáĬĲáī³
áĪķáĭĿ
áĪĺáĪµáĪį
ĠáĬŃáĪħ
áīłáĬ£
ĠáįĸáĪĪáī²áĬ«
ĠáĪħáĮįáĭ°áįį
re
áīłáĬķ
áĮ»áĪķ
Ġáĭ°áĮĪ
áĪ¨áĮĥ
áĪĺáĪ«
Ġáī°áĮł
Ġáī¥áĭµ
ĠáĬ£áĭĭ
áĬ«áī¥
áĭĭáīµ
ĠáĬ¢áĬķ
áĭµáĪįáĭ¨
áĬ¨áĪį
áĭķáĬķ
áĭ°áĪĪ
ĠáĪŀáīµ
ĠáĮįáī¥
ĠáĬ¢áĭ¨áĪ±áĪµ
áįįáĬķ
Ġáī¥áĪĵáīĤ
áĬłáĬķ
ĠáĬŃáĬĲ
ĠáĬķáĭ°
ĠáįįáīķáĪª
ĠáĪ°áĪĽ
áįĭáĪį
áĪĭáĪį
Ġáī°áĭĭ
áĬ»áĬķ
áĪ«áĪŃ
ĠáīĭáĬķáīĭ
ĠáĭĿáĬĲáīłáĪ©
áĪµáĪĿ
áĬ»áīµáĬ©áĪĿ
Ġáī¥áĭĺ
áĭ°áĪĿ
ĠáĭĿáĬ½áĬ¥áĪį
áĪ³áĪµ
ĠáīµáĪŃ
Ġ12
ĠáįĬ
ĠáĬ¥áĭ¨áĬķ
ĠáĪĵáĭŃáĪĬ
áĪįáī¦
Ġáī°áī£áĪĤ
ĠáĪĿáīµ
ĠáĪĺáĮº
áĪįáĭĳ
ĠáĬķáĪ°
áĮĪáī¥áĪ©
Ġáĭ¨áī¥áĪīáĬķ
ĠáĬ£áĭŃáĬĲáīłáĪ¨
ĠáĪĿáĮį
ĠáĪĺáĪįáĪ²
ĠáĬķáĬ¹
ĠáĭĺáĪĪáĬĵ
ĠáĭĿáī°áįĪáĪĭáĪĪ
ĠáĮŃ
áĪ¨áĪµ
ĠáĬ£áĮĪáĭ³áĪ²
áīµáĭ«áĬķ
ĠáĭĺáĭŃáĬ®áĬĲ
áĪĪáĪĽ
ĠáĬ£áĪĽ
ĠáĬķáĭķ
Ġ15
ĠáĬªáĬ¸áĭįáĬķ
ĠáĪĿáĬ½áĬķáĭ«áī±
áĬ¼
ĠáĭĿáĪĿ
áĭµáĬ«
ĠáĪĵáĪ³áī¥
ĠáĬ©áĪİáĪĿ
ĠáĭĪáĪ²
ĠáĪĪáĭį
ĠáįįáĪī
ĠáĬ£áĪİáĬĵ
ĠáĪĵáĮĪáĭĿ
áĭµáĪĬ
áĪįáĪĿ
ĠáĪĺáĬķáĮĪáĭ²
Ġáĭ«
áįįáĪŃ
áĪ½áī°
Ġáĭĺáĭ¨
ĠáĪ°áĭĵáīµ
áĪĵáĪµ
áĪĢ
áĪķáĬķ
ĠáĪĺáĮįáĪĪ
ĠáīłáĪİáĪĿ
áĪ«áī¥
áįĪáĪįáĮ¡
ĠáĬ¢áīµáĭ®áĮµáĭ«
áĬĵáĭĬ
ĠáĪĵáĪĭ
ĠáĬ£áĪĭ
Ġáī°áĮĭ
ĠáĪĺáĪĪ
ĠáĪµáĬĲ
ĠáĪ°áĪĽáĭŃ
áī¡áĪŃ
áįĸ
ĠáĭĪáĪ¨
áī³áī¶áĪĿ
áĬ«áĭ¨
áĪķáĪį
áĪ³áĬº
áĮ¨
áĭµáĪŃ
áįįáīµ
ĠáĪĥáĭŃ
Ġáī°áĪ¨
áī¢áīµ
ĠáĪĺáĬķáįĪáĪµ
ĠáĬķáĪĭ
ĠáĪ°áī¥áĬ£áĭŃ
ĠáĪĬ
ĠáĬĲáĭŃáĪ®áĪĿ
áĭĵáī°
áįģ
Ġáī¥áĮį
Ġ11
áīłáĭ¨
áįįáīħ
Ġáĭ©
ĠáĬ£áĪľ
áĬ¸áĭŃáĭµ
áĮįáĮ½
áĬķáīĢ
áĪĵáĭŃ
ĠáĬ£áī¥áī³
Ġáī°áĬ¸
Ġ?
Ġáī°áĪ«
ĠáĬ¨áĬĲ
ĠáĬŃáįįáĪĬ
áī¥áĪĥáĪį
áĭĬáĪķ
Ġáī°áĭĵ
Ġáįĭ
ĠáĭĺáĪĭ
áĬķáī³
áĪĥáĪŃ
ĠáĭĿáĪĵáĪĪáįĪ
ĠáĪĺáĭĿ
ĠáĬ½áĬķ
ĠáĬĵáī¥áī²
ĠáĭĿáĪŃ
ĠáĬĲáīłáĪ©
ĠáĪĺáĮĢáĪĺáĪŃ
áīłáĪ«
ĠáĮ¸áĬĴ
ĠáĬĲáįįáĪ²
Ġáĭ°áīĢ
áī°áīµ
Ġ18
ĠáĭķáĪĪáīµ
ĠáĪĺáī¥áĭĽ
áī¥áĪĭ
áĬķáĪµ
ĠĠ
áĪĭáĭį
ĠáĪĺáĪįáĬ¥
Ġáĭ°áĭį
áĪįáĭĵ
áĭīáĬķ
áĪŃáī²
Ġáĭī
ĠáĬ£áīłáĭŃ
áĬĵáĪį
ĠáĪ±
áĮĪáĪįáĮ½
áī¥áĪİáĪĿ
áĭĿáī¢
Ġáįįáīĵ
ĠáĪĥáī¥
áĬ½áĬķ
ĠáĬ£áĭŃáĬ°áĬĲáĬķ
Ġ14
áĪ«áĭĬáīµ
ĠáĬ£áĮĪáĪįáĮįáĪİáīµ
áĬĵáĭ®
ĠáĬ£áĬ¼
áĪĿáĪįáĬ¨áīµ
áĭ³áĪĿ
ĠáĬ¥áĭĪ
ĠáĬĲáĭŃáĪ¨
ĠáĪµáĭ°
áĪĺáĪ¨
ĠáīµáĪķáī²
áĮ¥áĪĿ
ĠáĭŃáīķ
ĠáĬŃáĪŃ
áĪĺáīµ
áĪİáĬķ
ĠáĮ¨
ĠáīĢáĭ³áĪĽáĭŃ
ĠáĬķáĪĭáĭķáĪĬ
ĠáĬ£áĭ°
ĠáĭĪáĬ¨áįį
Ġáī¥áĭĵ
áĪŃáĬ¥áĭ®
ĠáĮĪáĬĵ
ĠáĪĺáĮłáĬķ
Ġáįĵ
ĠáĬ¥áĬķáī°áĭĺáĭŃ
Ġáī¥áĪ°
ĠáĪ°áīłáĭŃáī²
Ġáįįáīµ
áĬ¢áīµ
ĠáĮ¸áĮĪáĪĿ
::
ĠáĪĵáī¢
áĬ¡áĬķ
áĭŃáĬĸáĪĿ
áĪ³áĬķ
áĪħáīł
Ġáī¢
ĠáĭĪáĮ»áĬ¢
áĮįáĪ¨
ĠáĪĺáĪ°áĪį
áĮ¥áīĥ
Ġáī¥áĪķ
áī°áĭĪ
ĠáĬ«áĪįáĬ£áĭŃ
Ġáī°áĪĽ
áĭĸáĪĿ
ĠáĬŃáĪĿ
ĠáīµáĮįáĪ«áĭŃ
áįİáĪĿ
ĠáĭŃáĮįáī£áĬ¥
áĮĪáĬķ
áĪĿáīłáĪŃ
áīħáĪµ
áĪ½áĬķ
áī£áĪķ
ĠáĬ¨áī¢
Ġáī¥áīĲ
ĠáĬ£áĬ¼áī£
ĠáĬ¥áī°áĬķ
ĠáīµáĬķ
ĠáĪĿáĪħ
áĪĽáĬĸ
áĪŀáĬŃ
ĠáĪµáĪįáĮ£áĬķ
Ġáīķ
ĠáĬ£áĭŃáĬĲáīłáĪ¨áĬķ
áĪĿáĪ®
ĠáĭĿáīĲ
ĠáĬ£áī£áĪĭáīµ
ĠáĭĺáĭŃáīµ
áīĿ
áī¥áĪ¨áīµ
ĠáĪĺáĮįáĪĪáĮº
áĪ³áĭĬ
áī£áĬķ
áī¥áĪ«
ĠáĭĿáįį
ĠáĪĪáĭįáĮ¢
ĠáĪ°áĭĵ
ĠáĬ¥áĬķáĪĨ
Ġáĭ°áĪ¨áĮĥ
áĪ«áĬ¸
Ġ!
ĠáĮ¾
ĠáĭĿáĪĪ
áī¤áīµ
ĠáĪ°áĪį
áĮįáĪĿ
Ġáī°áīĵ
ĠáĪ°áī¥áĬ£
ĠáĬķáĬ½áĬ¥áĪį
ĠáĬ¾
ĠáĪŃáĬŃáī¥
áĬĳáĭķ
áĪĪáĭī
ĠáĪĿáĮ½
áĪŃáĮĭ
áĭ¨áīµ
ĠáĪ³áĭķ
ĠáįĪáī°
áĪ¬áīµ
ĠáĪ°áĪĻáĬķ
ĠáĬłáĭŃ
áĮłáįį
ĠáĬķáĬ£áī¥
ĠáĭįáĪ³
ĠáĬ£áĭŃáĬŃáĬ¥
áĭ°áĪŃ
ĠáĭĺáĪĪáĭİáĪĿ
ĠáĪ°áĪļ
ĠáĭħáĪī
áĭĪáĭŃ
ĠáĬ¥áĬĵáī°
áĮįáĬķ
áĮħáĪĪ
ĠáĪĺáĪĬ
ĠáĪľ
ĠáĮ³
Ġáįħ
ĠáĮĪáĭŃáĪ©
Ġáī°áĭĽ
áĪ¨áĭµ
ĠáĬ¢áĭ®áĪĿ
áĬĲáī±
ĠáĮ½áĪĳáįį
áĮ¥áįį
Ġáī¥áįįáĪĭáĭŃ
ĠáĭĿáĬ¸áĭįáĬķ
Ġáĭ°áĮĬ
ĠáĬ°áĭŃáĬĳ
ĠáĭĺáĪĺ
áĭ³áĭ«áīµ
ĠáĪĿáĭĿ
áĪĪáĬĴ
ĠáĬķáĬ£áĪĿáĪĭáĬ½
áĬ¥áĭĽ
ĠáĬ«áī¥áĬ¡
áīĲáīµ
áī¡áĪ«áīµ
áĮįáĪĪ
áĬ¨áĪĿ
ĠáĭĺáīłáĪĪ
ĠáĬ¨áĪĿáĭĺáĭŃ
áĪĻáĪŃ
áĪµáīµáĭ®
áīłáĬ£áĪŃ
áįĪáĪįáĮ¥áĬķ
ĠáĭľáĬĵ
áĪĸáĪĿ
ĠáĪµáĮĭ
ĠáĪķáĪĽáĪĿ
áĮįáĬ¥
áĬ»áĪį
ĠáĭµáĪķ
áīª
ĠáĪķáĭļ
áĪħáī¥
ĠáĪĵáĪĪ
áĮ¢áĬ£áīµ
áĬĳáĬķ
Ġáī£áĪķáĪª
ĠáĬ¢áĪįáĬĵ
áĭµáĪĿ
áī£áĭķáī°
ĠáĭķáĪĭáĪĽ
áĬŃáĭİ
áĭĺáĪŃ
áĭĭáĭŃ
ĠáĬ£áĪľáĪªáĬ«
Ġáī¥áīµ
:-
ĠáĬ£áīł
áĭķáĪĪ
áĪµáĭķáī¥
ĠáĭĪáĭŃáĪµ
Ġáĭ³áĭĬáīµ
áĪµáī³áīµ
ĠáĭķáĭµáĪį
áĬ©áĪĿáĬķ
ĠáĬ¹
Ġáĭĵáīķ
ĠáĪĥáĮĪáĪ«áĭĬ
Ġáī¥áĭĪ
ĠáĮĢáĪļáĪ©
Ġáīµáī¥áĪį
Ġ+
áĬŃáĪŃáĪµ
Ġáī°áī£áĪĤáĪī
ĠáĮĵáĪį
ĠáĮ¥áĭķáĬĵ
ĠáĬ£áįįáĪª
Ġ...
áĪ®áĮ³
ĠáĭĺáĭŃáĪĿ
ĠáĭĿáĭį
áĮ¥áĬķ
ĠáĬ£áĪĪáĭĭ
ĠáĪĺáĪĭáĬ¥
áĪĺáĪ°
ĠáĪĺáĪª
áĬ£áī±
ĠáĮįáĬĵáĬ¸
ĠáĪĵáĭ«
ĠáĭĿáĭ«áĭ³
áĭĭáĬķ
ĠáĪĺáĭ°áī¥
Ġ13
ĠáĪĻáĪ´
áĮīáĪĿ
áįĭáīµ
Ġáī¥áĪĿáī£áĪį
ĠáĪ¶
ĠáĬŃáĪħáĪį
áĪ³áī°
áį§"
ĠáĬ£áĭķ
ĠáĪĵáĭ²
20
áĪ¨áĭŃ
áĭķáĭŀ
ĠáĮķ
ĠáĪ¨áĬº
Ġáĭ°áĪŃ
áĬ«áĭ®
ĠáĬĲáīłáĪŃ
áĭĭáĪŃ
ĠáĬķáĬ£áī¥áĬĲáīµ
Ġáį£
áĬķáĮį
ĠáĬ£áĪ°
ĠáĭįáĪį
ĠáĬ£áĬ«áĪį
áĮ¥áĪ®
áĪįáī¦áĬķ
áĭ°áĪįáĭ©
áĮ»áĪŃ
áĮĭáī³áīµ
ĠáĬ¨áī¢áĭµ
áĮ¥áĪŃ
áĬĥ
ĠáĪĿáĮįáī£áĪŃ
Ġáĭŀ
ĠáĭĿáĮ¸
Ġ16
ĠáĮįáī¥áĪª
áĪĵáĪŃ
ĠáīĪ
ĠáĬ£áīĲ
ĠáĬķáĭħ
Ġáĭĺáī°
ĠáĪĿáĪµáĬ¡
Ġáī°áīł
ĠáĪĵáĪ³
áĮ½áĪª
ĠáĪĿáĪŃáĮ«
ĠáĬŃáĪįáī²
ĠáĭĺáĪĺáĬķ
áĬ£áī¶áĪĿ
Ġáīłáī¥
ĠáĬķáĭĪ
áĪĥáīł
ĠáĪįáĪĿ
ĠáĪĨ
Ġáĭĵáī¥áĭª
Ġáĭ¨áĪįáī¦áĬķ
áĭ³áīµ
ĠáĭŃáįį
ĠáĬ«áī¥áī¶áĪĿ
áĪŀáĬķ
áī³áĪķ
ĠáīĢáĬķáĭ²
ĠáĬ®áĬĲ
áĪŀáĬŃáĪ«
áĪĵáĪį
áĪªáī¡
ĠáĬ¢áĭµ
áī¡áĬ¥
ĠáĬłáĪİ
ĠáĪħáĭŃáĭĪ
ĠáĬ£áĪħ
ĠáĭĺáĭŃáī¥áĪī
ĠáĭŃáĪķ
ĠáĮĪáĮ½
Ġáīĵ
áī¨
áī°áĪĽ
áīłáĪĥáĪį
ĠáĬŃáĭĪ
áĪĬáįī
ĠáĬ£áĪĺáĪªáĬ«
ĠáįįáĪīáĭŃ
Ġ17
ĠáĮ¸áĪİáīµ
áĪ«áĪĿ
ĠáĪĺáĪ³
ĠáĬĥ
ĠáĪĵáĪĻ
áĪ©áī¥
áĬ£áĬĲ
Ġáĭįáĭµáī¥
áįĵ
áĪĪáĬĵ
áĮ½áīł
áĬĲáīłáĪ¨
ĠáĬĶáĪ©
ĠáĬ£áĮ¸
áĬ«áĭ¨áĭµ
en
ĠáĬ£áĬ½
ĠáĬŃáįĭáĪį
ĠáĬķáĪĵáĭ°
áīµáī³áīµ
ĠáĬ£áĪĪáĭİáĪĿ
ĠáĬķáĬ¸
ĠáĪķáĭŃáĭĪáīµ
ĠáĪĽáĪķáīł
áĪĿáĬ«
ĠáĭĪáīµ
ĠáīĥáĪįáĪ²
Ġáī£áĭķáĪī
ĠáĪįáī¢
áĬķáī¥
ĠáĬķáĪµáĬ»áīµáĬ©áĪĿ
ĠáĪ®
áĪįáī²
ĠáįĸáĪĬ
ĠáĪĥáĭŃáĪĽáĬĸ
ĠáĭĺáĪİáĬĵ
áĭĴáīµ
áĪ®áĬķ
áĭįáīµ
ĠáĭŃáĪµ
ĠáĬ¥áĬķáī°áĬ¾
áĮ£áĭķ
Ġ200
Ġáī¥áĪĺáĬķ
ĠáĬ£áĪŃáī£áĭķáī°
áĪ°áĪŃáī°
ĠáĬ£áįįáĪªáīĥ
ĠáĪ»
ĠáĬķáĭį
Ġáĭ°áĪĿ
ĠáĬ¥áĬķáĬ¨áĪİ
áĪĺáĭµ
áįįáĪį
áĬ¥áĭļ
áĮłáĪŃ
áĬ£áĬ½
áī£áĪħ
ĠáĬ¥áĪĿáīłáĬ£áĪŃ
ĠáĬ¥áĭĭ
áĪ¨áĪĿ
ĠáĪĿáĬĵáĪį
Ġáĭĳ
ĠáĬ¥áĬķáīµ
Ġáī¥áĪħ
áĪ³áĪĮ
ĠáįĸáĪĪáī²áĬ«áĭĬ
áĬµ
ĠáįķáĪ®
ĠáĪĺáīķ
ĠáĮ¸áĮĭ
áīķáĬķ
áĪµáĬĲáīµ
áĪĽáĪĿ
ĠáĬ£áĮĪáī£áī¥
ĠáĬķáĬ¹áĪī
ĠáĬĲáĭĬáĪķ
ĠáĪµáĪĪáĭĿáĬ¾áĬĲ
ĠáĬķáĭµ
ĠáĪļáĬĴ
ĠáĭĿáĬ½
ĠáĬ¢áĭ«
ĠáĭµáĪĿáĮº
áī£áĬ¤
áĪŃáĬ¨áī¡
ĠáĪĺáī¥áĭĽáĪķáīµ
on
áīĽ
ĠáĭĭáĮĭ
Ġáī¥áĭį
áĬ¥áīµ
áĮĴ
áĪµáī²áĭ«áĬķ
ĠáĭĪáĬķ
ĠáĬ¨áĭŃáī°
ĠáĭĿáĪŃáĬ¨áī¥
ĠáĬ£áĭŃáĬŃáĬ¥áĪįáĬķ
áĪµáĬ»
áĪµáĬ«
ĠáĬłáĪĿáĪĭáĬ½
áĮįáĪĬ
âĢ
ĠáĮĢáĪŃ
ĠáĭĿáĪµ
áĪŃáĭİ
áĪŃáĭ«áĪĿ
ĠáīłáĪī
ĠáĪ°áĭŃ
áĮįáĪŃáĬĽ
ĠáĭĿáī°áįĪ
áĪįáĭİ
ðŁ
ĠáĬ£áīķ
ĠáĪ°áĬķ
áĪ³áĪ³
ti
áĪİáĪµ
ĠáĬķáĮ¥
ĠáĪĵáĭ°áĮĭ
ĠáĪµáĬ¥
ĠáĬ£áĪĪáĭį
ĠáĬķáĪĺáĬķ
áĪŃáĬŃ
ĠáĪĵáĪĭáįį
áĪįáĭ«
áĪįáĬª
ĠáĭĿáī°áĭĪ
ĠáĭķáĭµáĪĺ
ĠáĪĺáĪįáĬ¥áĬ½áī²
ĠáĬ¥áĭĿ
ĠáĪĺáĪ¨
ĠáĪĺáĭĽ
áĪĭáīµáĬĵ
ĠáĪĺáĪ¬áīµ
ĠáĬķáĪĿáĬķáī³áĭŃ
áīłáĪª
áįĴ
áĭ°áĮĪ
ĠáĪ¥
ĠáĭŃáĪĿ
áĭ°áĬķáīµ
áĬ½áĬ¥áĪįáĬķ
ĠáĪ³áĪį
Ġáī¥áĪŃáĪĥáĬķ
Ġáī¥áĭĿáī°
ĠáĬķáĬŃ
ĠáĭĺáĪ¨áī£
ĠáĬŃáīķ
áĬ£áĪĪáĪĿ
ĠáĭŃáĬ½áĬ¥áĪī
ĠáĬĵáĭŃáĭļ
áĪ°áĭ«áīµ
áĪŀáīµ
áĪįáĭ©
áĪªáīµ
Ġáĭķáĭ®
áĪįáĭį
ĠáĮīáĮħáĪĪ
áĪ°áĪĿáĭķ
ĠáĬ£áī¦áĭŃ
ĠáĪ°áĬĵáĭŃ
áĪ¨áįĪ
ĠáĪķáī¶áī³áīµ
áĬķáĬĵ
ĠáįįáĪŃáĭ²
ĠáĬ«áī£
Ġáĭ¨áī¥áĪį
ĠáĬŃáĪŃáĪµáīµáĭ«áĬķ
ĠáĭĺáĪĪáĬ¹
áĪ°áīµ
ĠáĪķáī¡áĪ«áīµ
áĪĭáĮ¥
ĠáĬŃáĭį
Ġáī´
ĠáĮįáī¥áĮº
áĭ°áĪµ
19
ĠáĭĺáĮĭ
áĪŃáĮį
áĮ½áĬĲáīµ
ĠáĬ£áī°
ĠáĪķáī¥áĪ¨
ĠáĬ£áī³
ĠáĬ£áĭļ
ĠáĪĵáĬķ
ĠáĬŃáĬķáĭ²
ĠáĭŃáĬ¨áĬ£áĪį
ĠáĪ°áĬĲ
áĪĥáĪ®
ĠáĪĿáīķ
áĪ¹
áĪŃáĬ©áĪĿ
Ġáī¡
áĪĬáĪį
ĠáįĪáĮº
ĠáĪ½áĪķ
áĭĵáĪĪ
áĬ£áĪĿ
áĪĵáĭµ
ĠáĬ£áĭŃáĬ¨áĬ£
ĠáĬ¤áĭį
ĠáĬĲáĭĽ
áĪ¨áĬ½áī¡
áĪħáĬķ
ĠáīĥáĪĭáīµ
ĠáĪµáĭ°áī°áĬĽáī³áīµ
ĠáĮ£
áīĢáīµ
ĠáĬ£áĪİáĬ¹
Ġáī°áĮ»
áĬĵáī¥
ĠáįįáĪįáĮł
áĪĺáĪī
ĠáĬķáĮ½
ĠáĪĵáĪŃ
ĠáĬ£áĪĿáĪĭ
ĠáĪħáĭ«
ĠáĬ¢áĪĭ
áĪ³áĪ³áĪĬ
áĭĭáĭķ
Ġáīª
ĠM
ĠáĮīáī£áĬ¤
ĠáīµáĪĿ
ĠáĪ°áĪ«áĭĬáīµ
ĠáīĢáĪ¨áī£
er
ĠáĬµáĪİáĪĿ
Ġáīłáī³
áĭ°áĬĵ
ĠáĪħáĭĿáī¥
áĬŃáĬ¥áĪį
ĠáįķáĪ¨
ĠáĭĺáĪĪáĭĭ
Ġ/
áįįáĪ«
áīħáĬķ
áī³áĪį
áĭĿáĬķ
ĠáĭĺáĭŃáĬ°
Ġ30
áĭµáĪļ
Ġáī»
áĮ¸áĪĿ
ĠáĬ£áĪµáī°
ĠáĭµáĬ£
áĮ£áĭķáĪļ
áī°áĬĽ
ĠáĮ¸áī¥
áī³áĭį
ĠáĭĪáīµáĪ©
Ġáī¥áĪ°áĬķ
áĮ¹áĪĿ
ĠáīµáĬ¥áĭĽ
áĪĵáīµáīµ
ĠáĬķáĬ½áīµ
áĪįáĭµ
áĭµáĬ£
ĠáĭĵáīłáĭŃáī²
ĠáĪħáĮ»
ĠáĬĲáĮ»
Ġáī¥áĭķ
Ġ24
Ġáī£áĭŃáī¶
ĠáĪĺáĪ°áĪ¨áīµ
ĠáĮĢáĪŃáĪĺáĬķ
áĮ£áĪļ
ĠáĭĿáīłáĪĥáĪį
ĠáĮįáĭµáĬķ
ĠáĬĸ
ĠáĪĺáĮĢáĪĺáĪŃáī³
ĠáĬ£áĪŃáĬ¥
ĠáĮ¥áīķ
áĭµáĭ®
ĠáĭįáĮįáĬ¥
ĠáĭĿáĪķ
ĠáĭĵáĪ°áĪŃáī°
ĠáĭŃáĭį
ĠáĬŃáĪĺ
áĭŃáĭİ
ĠáĪįáĭĳ
ĠáĪĺáĪµáĪŃáĪķ
ĠáĪįáĬŃáĭķ
ĠáĬªáĭ³áĬķ
áĪŃáĪ²
áĭįáĪİáĪµ
Ġ25
ĠáĬĲáĮ¥
Ġ^
Ġáīį
Ġáī¥áīķ
ĠáĭŃáĪĺáĪµ
Ġáįįáīĵáĭµ
áĮįáĭļáĬ£áī¥
ĠáĪĽáĪķáīłáĪŃ
ĠáĪĿáĬĵáĪįáī£áīµ
ĠáĭĪáĪĭ
ĠáĪŃáĬ¥áĪ±
ĠáĬķáĭĵáĭŃ
Ġáī¥áĮ£áĭķáĪļ
ĠáĪĺáĮ¸
ĠáĭŃáĪŃáĬ¨áī¥
ĠáĬ£áī°áĪĵ
áĪ©áĪ³áĪĮ
ĠáĪĿáĪĿáĪķ
Ġáĭŀáī£
Ġáī°áĪĺáĪĬ
ĠáĪĺáĮ»áĬ¢
ĠáĭĿáĬĲáīłáĪŃ
áĬ¦áĬķ
áī³áī°
áĪ°áĭµ
áĮłáīķ
ĠáĬ¥áĬĲ
ĠáĭĿáĬ¾áĬĳ
áĪħáĪī
áĬĲáī¥áĪ©
áĭĽáī¥
ĠáĬ£áĭŃáĬŃ
ĠáĭĿáĬ¾
áĪĿáīµ
áĭĵáĭĿ
áĪĪáĭĪ
áĪķáĬĵ
áĭµáĪª
ĠáĭŃáī¥áĪī
áĭķáĪŃ
áĭ¨áĪ±áĪµ
ĠáĪķáī¥áĪ¨áī°
Ġáĭķáĭ³
áĪµáĪ³
áĭĽáĪ¨áī¡
áĮħáĪĿáĪŃ
Ġáī°áĭ°
ĠáĪĵáĭį
áĪĥáĭ°
áī¥áĬ«
ĠáĪ°áĪ«áĪķ
ĠáĪĥáĮĪáĪŃáĬĵ
áĪº
Ġáī°áĬķ
ĠáĪª
ĠáĪ©
ĠáīµáĮįáĪŃáĬĽ
ĠáĭĿáīķ
ĠáĬ£áī¥áĭĽ
ĠáĬ£áĪķáĭĭ
áĭĪáĪµáĭµ
ĠáĬŃáĪķ
ĠáĬ¥áĭĻ
ĠáĬ£áīĲáĭ²
ĠáĬŃáįī
ĠáĪĽáĬ¥áĬ¨áĪį
ĠáĬķáĪŃáĬ¥
ĠáĬ¤áĭįáĪ®áĮ³
áĪ¨áĬĵ
Ġáī¥áĭĺáĭŃáĬ«
áĪ¸áīµ
ĠáĮĪáĭĽáĬ¥
áĭĽáĬ¥
ĠáīµáĬ«áĪį
ĠáĬŃáĬ¥
ĠáĮ½áī£áĪķ
áĮ½áĪŃ
ĠáīĨáĪįáĭĳ
ĠáĬŃáĪµ
Ġ*
ĠT
áĪĿáĪĪ
Ġáī¥áĪĺáĪ°
ĠáĪķáĪį
áĬ©áĪī
áĬķáĭ³
ĠáĬ¥áĮį
ĠáĭĿáīłáĭĿ
áī³áī±
ĠáĬ¹áĪī
ĠáĪĿáĬ½áĪª
ĠáĮīáĭķáĭŀ
Ġáī¥áĪĵáī£áĪŃ
ĠáĪĿáī£áĪį
áĭĻáĭŃ
ĠA
ĠáĮ½áĪķ
áĪ¨áĬ½áī¦
ĠáĬŃáĮĪáī¥áĪŃ
Ġáĭ³áĪŃáĮĭ
ĠáĬ¥áī²áĬ£
ĠáīµáĪĽ
Ġáī¥áĪĵáĭ°
áĬ¬
ĠáĪĺáĬķáĬ¥áĪ°áĭ«áīµ
ĠáĪħáĭĿáī£áĭĬ
áĭįáī²
áĬ«áĪį
ĠN
áĬŃáĪ®
áīłáĬĵ
Ġáī°áĮ¸
áĮ¾áĪĿ
Ġáĭ°áĪµ
ĠáĬķáĭĺáĪĪ
in
áĪįáī³áīµ
....
ĠáĪĺáĬķáĬ¥áĪ°áĭŃ
áĬ£áĪį
ĠáĪ½áĭĪ
áĪħáī¦
áĪ©áĬķ
ĠáĭįáĮ½
ĠáĬķáĮ¹
ĠáĬ¸áĭŃ
ĠáĭŃáĮį
áĮ»áī¥
Ġáī¥áĪŃáĮįáĮ½
áī³áīµáĬĵ
Ġ23
Ġáī¥áī°áĭĪ
ĠáĪĿáĭķáĪ«
ĠáĬ£áĬ¥áĪĿáĪ®
áĪ¨áīł
ĠáĮ½áĬķ
ĠáĭĪáĬķáĮĮ
áī¸
Ġ21
ĠáĬķáĪ°áī¥
ĠáĪķáī¥áĪ¨áīµ
ĠáĬ£áĭ²
ĠáĪĪáĭŃáī²
áī¥áī²
áĪŃáĬł
áį¡-
áĪ©áĪ³áĪĮáĪĿ
ĠáĪĺáīĲ
áĬ£áĬĵ
ĠáĪĺáĭĵáĪįáī³áīµ
ĠáĪĿáĭĥáĬķ
áīķáĪŃ
ĠáĬ¼
ĠáĪĺáĪ«áĪķ
áĭ³áĪµ
áĮĭáĭĬ
ĠáĪĺáĪĵ
áį£+
ĠáĪ°áĪįáįĬ
ĠáīµáĪŃáĮīáĪĿ
Ġáī£áĪħáĪŃ
Ġáį¥
ĠáĪĵáĮ¢áĬ£áīµ
áī½
áĮįáĬĵ
Ġáī¥áĭ°
ĠáĮ³áĭįáĪİáĪµ
áī¦áīµ
ĠáįįáĪ¨
áĪķáĮįáĭĺ
ĠáĪĿáĪµáī²
ĠáĪĵáĭĬ
áĭĿáĪŃ
ĠáĪĽáĪķáīłáĪ«áĭĬ
ĠáĪĦ
Ġáī°áĬĲ
ĠáĭĿáī°áįĪáĪĭáĪĪáĭ©
áĭĢáĬĲ
ĠáĪĺáĭĵáĪµ
ĠáĬ£áĭĺ
ĠáĬ°áĬĲ
áĪ¶áīµ
ĠáĪĺáĪ°áĪ¨
áī¥áĪĵ
ĠáįĪáĪĬ
áĬŃáĬŃ
ĠáīµáĬ½áĬ¥áĪī
áĪĪáĬ«
Ġáĭĵáĭį
áĪ°áĪŃáĪĳ
áĭįáĭķ
áĭŃáĬĲ
or
áĭĶ
áĭĵáĬĴ
ĠáĪķáĪĽáīķ
áĬ£áĪĿáĬķ
ĠáĪĿáĬ»
Ġáī¥áĭµáĪķáĪª
Ġ22
Ġáī¥áĬķ
ĠáĬ¸áī°áĪĽ
ĠáĪŃáĬ¥áĭŃáī¶
ĠáĮĮáĮĭ
ĠáĭĢáĭŃáĬĳ
ĠáĬ£áī¥áĬĲáīµ
Ġáī¥áĬ½
Ġáĭİ
áĪįáĭ®áĬķ
áĬ©áĭİ
áįĪáĪ»
ĠáĭĿáĮį
áī¡áī¥
Ġáĭļáī¥áĪį
áĪ±áĬķ
ĠáīĢáĭ°áĪĿ
áĪ³áĬ¥
ĠáĮ¸áĮĪ
áĬĵáĭķáī²
ĠáĮĥ
ĠáĭĿáĮ¸áĬķ
áį¡+
ĠáĬ£áĭĴ
áĭµáīķ
ĠáĪĿáĬķáīħáĪµ
ĠáĬ£áī£áĪį
ĠáĮĮáĪŃáĬ«
áĭĪáĪŃ
ĠáĬĲáĭŃáĪ«
áĮĪáĪĪ
ĠáĬŃáī¥áĪª
ĠáĭĵáĭĪáīµ
ĠáĪĢ
ĠáĬķáĪĿáįį
ĠáĬ®áĭŃáĬĸáĪĿ
ĠáĬŃáĪŃáĪµáī²áĭ«áĬķ
ĠáĪĵáĪĭáįįáĬĲáīµ
áīĢáĪį
áĪ°áĬĲ
áĮłáĪĺ
Ġáī¥áī°áĭĪáĪ³áĬº
áīĥáĪµ
ĠáĬ£áĭŃáįĪáĪįáĮ¥áĬķ
áĪĽáĪŃ
ĠáįĬáĪįáĪĿ
ĠáĪĵáĪĻáĪ½áī°
ĠáĬ®áĬķ
Ġáī¥áī¥
000
ĠáĮĪáĭ²
ĠáĪ¨áĬ£
ĠáĭĿáĬ£áĪĺáĪ°
áĬ»áĬ½
áĮĲáĪµ
áįĪáĪĪ
áĪĪáĭİ
ĠáĪĽáĬ¥áĬ¨
Ġáĭ²áĬ»
áĪĭáī¶áĪĿ
ĠáĬŃáī°
Ġáī«
ĠáīłáĮĥ
áĬĲáī¶áĪĿ
ĠáĪĺáĬ¨
áī¥áĭİ
áĬªáĬĵ
áĪł
ĠáĪįáĭĳáĪį
ĠáĪĺáĪµáĭĭ
áĪŃáĪĥ
áĪĿáĪħ
an
ĠR
áĭ©áĬķ
ĠáĬĵáĮ½áĬĲáīµ
ĠáĭĿáĪĥ
áįĪáī±
ĠáĮ»áĭķ
ĠáĬ®áĭŃáĬĵ
áĭĵáĪįáī²
áī«
áĮįáĪĬáĭĿ
ĠáĬķáĬ¥áĪ½
ĠáĬ£áī¢áĪī
ĠáīħáĬĳáĭķ
áĮ¥áī³
ĠáĬĵáī£
ĠáĬ£áĮĭáĮ£áĪļ
Ġ_
áįĮ
áĭ°áĪī
Ġáī°áĮįáī£áĪŃ
áĬ¨áĪŃ
áĭĪáĪĵáīµ
áĪĿáĬĲáīµ
ĠáĬķáīķ
ĠáĬ¥áĭĻáĭŃ
áīĪ
ĠáĬ¨áĪĿáĭĺáĪİ
áĮ½áĪĳ
ĠáĭŃáĮ½
áĭįáĮ½
áĪĿáĭķ
ĠáĪ°áīłáĭŃ
Ġáī¥áĪ°áĬķáĬª
Ġáī¥áĬĵáĭŃ
ĠáĪ½áĭĪáĭ°áĬķ
ĠáĪĺáĮĭ
ĠáĭĿáĪĺáĮ½áĬ¥
áĪ°áĪī
ĠáĪĺáĮįáī¢
ĠáĪĺáĭµáĪ¨áĬ½
áĪ¨áĬĴ
ĠáĭķáĬķ
Ġáī°áĪ³
ĠáĪĿáĪµáĮ¢
ĠáĪĺáĪ«
ĠáīłáĪ¨
ĠáīłáĮº
áĮ¥áĪ¨áīµ
Ġáī°áĮįáī£
ĠáĬķáĭĵáĬ»
ĠáĮĪáĪĬáĬ¦áĪĿ
ĠáĬ£áĭŃáĪĿ
áĪįáĪį
ĠáĭĿáĪĿáĪįáĬ¨áīµ
ĠáĪµáĪĪáĭĺ
ĠáĭĪáĭ«
ĠáĪįáī¥
áĪĭáĬķáĭµ
áĭŃáĪ©
ĠáĭĿáĭ°
áī¡áĬķ
Ġáī°áĬ»
ĠáĬ£áĭŃáĪĺáĪµ
ĠáĬŃáīµáĬ¨áĭįáĬķ
áĬ«áĭŃ
ĠáĮ¥áĬķ
"áį¢
áĪįáĪĽáīµ
ĠáĬ£áĪĪáĬ«
ĠáīµáĪĽáĪĬ
áĪ¾
áĪĭáĬ¢
ĠáĮįáĭĿ
ĠáĪ°áĪª
áĪ«áīµáĬķ
ĠáĭĿáĮįáīłáĪŃ
ĠáĭŃáĪĺ
ĠáĮħ
ĠáĭįáĪī
ĠáĭĻ
ĠáĭĤ
áīłáĪĭ
ĠáīµáĪķáĭĿ
ĠáĪ°áī¥áĬ£áĭĬ
Ġáī¥áĪĿáĭĥ
ĠáĬ¥áĬķáĭµ
ĠáĬĵáī¥áĬ¡
áĪįáĮ¢
ĠáĭµáĪį
áĮİáĪµ
áĪĺáĬĵ
ĠáĭĿáĮĪáīłáĪ¨
áĪŃáĬ£
ĠáĭįáĪĳ
ĠáĬŃáĬķáĭµ
ĠáĬ£áĭ³
ĠáĬ£áĭĪ
Ġáī°áĮĪáĪĬ
áįįáĬĵ
áī±áĪĿ
ĠáĬŃáĬ¸
ĠáĮīáĭ³áĭ«áīµ
ĠáĪ°áĭŃáĮ£áĬķ
áĬĴáīµ
ĠáĭĿáī¥áĪī
áīĨáī¥
áĪįáī°
ĠáĬ¨áĪĺáĭŃáĪ²
áĭŃáīµ
ĠáĭĿáĮĪáīłáĪŃ
ĠáĪĿáĪ³áĭŃ
ĠáįįáĮ»
áĭķáī¥
ĠáĭŃáĭĪ
áĪĥáĬķáĪµ
ĠáĬķáī°
ĠáīĢáĮº
áĭļáĭ°áĬķáīµ
áĪįáĭĭ
áĪµáĪ«
ĠáĪĺáĬĵ
ĠáĪĺáīłáĪį
ĠáĬ£áĪµáĪĺáĪ«
ĠáĭĿáīłáĪİ
ĠáįįáīµáĪĴ
Ġáĭ¨áĭµáĪĬ
ĠáĪĵáīĢ
áįįáĬ«
áĮ¥áĪ¨
ĠáĭĿáĮĪáī¥áĪŃ
Ġáī°áĪĿ
áĭ«áī³áīµ
ĠáĮİáĭŃáī³
ad
ĠáĪĺáĪ²
áĪµáī°áĪŃ
ĠáĬ£áĭŃáĬ®áĬķ
áĪ´áįį
ĠáīµáĮ½
áĬķáĮ»
áīµáĭ«
ĠáĭŃáįĪáĪįáĮ¥
ĠáĬ£áįĪ
áĪĵáĭĿ
ĠáĪĿáĪµáĮĭ
Ġáĭ°áĮĬáĪĿ
om
ĠáįįáĪįáĮłáīµ
ĠáĪŃáĬ¥áĪ²
ĠáĪĤáĭĪáīµ
áīĺ
ĠáĮĭáĭľ
ĠáĬĴ
ĠáīµáĬ«áĪĭáīµ
ĠS
áĭ°áĪ«
áĭįáĬĲáīµ
áĮ½áĪĿ
áĪĪáĭį
ĠáĪĿáĭķáī£
Ġáī¥áĪī
ĠáĬķáĮī
áĭ«áī°
áĬŃáĪĿáĬĵ
ĠC
ĠáĪŀáĭŃ
ĠáĪĿáĪķáĪ¨áīµ
ĠáĬ¨áĭŃáīµ
ĠáįĪáĪª
áĬķáīµ
ĠáĭĵáĪŃ
áĭĵáĭŃ
ĠáĪĽáĪŃáĭ«áĪĿ
ĠáĬ£áī¥áĪŃáĪĥ
áīłáĪİ
ĠáĭĪáĮº
ĠáĪĿáī¥
ĠáĬ¥áĪµáĬ¨
áĮĭáĪļ
ĠáĬķáĭķáĬ¡
ĠáĭĺáĭŃáĬ°áĬĲ
ĠáĪĺáīł
Ġáī°áĭĪáĪ³áĬº
áĪ°áĪŃáī²
áĭµáĪķáĬķ
áĪĵáĪµáī¥
áĭ«áīµáĬķ
ĠáĭļáĬ½áĬ¥áĪį
ĠáĬ¡
áĪľáĬķ
ĠáĪĭáĭķáĪĬ
ĠáĬ£áĪµáī³áīµ
ar
ĠáĬ£áĮ½
Ġáī¥áĪĺáĪ°áĪ¨áīµ
áĭĭáĪŃáĭ«
ĠáīĢáĪĬáĪį
ĠáĬ¨áĪĿáĭĿáī°
ĠáĭµáĬķ
ĠáĭŃáĪĺáĪµáĪį
ĠáĪ°áĪĭ
ĠáĭįáĪįáīĢ
ĠáĬ¥áĬķáī°áī°
ĠáĬ²áĬĵáīµ
ĠáĭįáĪ³áĬĲ
Ġáīµáĭķ
áĭĺáĪ«
áĮ»áĪĬ
áĪĺáĪµáĮį
ĠáĬŃáĬ¢
ĠáĬ¸áĪĿáĭļ
ĠáĭĪáĪĪáĭ¶
ĠáĬ²áĪī
ĠáĭĪáĬķáĮĮáĪį
ĠáĪĺáĬķáīłáĪª
ĠáĪķáī¥áĪ¨áī°áĪ°áī¥
ĠáĭĽáĬķáī³
ĠáĭĺáĭŃáĬ®áĬĲáĪµ
ĠáĪħáĭĪáĪĵáīµ
Ġáī¥áĪ©
Ġáī°áĪĺáĪ³áĪ³áĪĬ
áĪµáī³
ĠáĭµáĬ»
Ġáī°áĪĺáĪį
ĠáĪ°áĭĵáī³áīµ
Ġáī£áĬķ
ĠáĭµáĪķáĪªáĬ¡
áĪģáĭ³
Ġáī°áĪª
áĮ¸áĪŃ
ĠáĭĿáī°áįĪáĪĭáĪĪáĭ¨
áĪģáĭµ
áĬ»áĭĬ
Ġáĭĺáįį
ĠáĬ£áĮĪáĪį
ĠáīĵáĪį
ĠáĭįáĪķ
ĠáĬ¥áĬ®
ĠáĬ®áĪĿ
ĠáĪĵáĮº
áī¢áĪ©
ĠáįįáĪįáĪį
áīłáĭĿ
ĠáĭĿáĮł
áĭµáĪįáĭ®
ĠáįįáĮ¹áĪĿ
ĠáĬ¤áĪŃáīµáĪ«áĭįáĭ«áĬķ
áĬŃáĪŃáĪµáīµáĭ«áĬķ
ĠáĪĿáĪ¸áīµ
áĪŀáĬŃáĪ«áĪ²
ĠP
áĪ¨áĬł
ĠáĪŃáĬ¢
áĪįáĭ®
áĭĢáĬĳ
ĠáĪĺáĮºáĬ¡
ĠáĬ¢áĬº
áĪĥáĪī
ĠáĬ£áĬķáĪµáīµáĭ®
ĠáīµáĪķáĭĿáī¶
ĠáīģáĮł
ĠáĭŃáĮĪáī¥áĪŃ
ĠáĪī
áĭĻáĪķ
ĠáĬ¢áĪ³
áĮĪáīłáĪ¨
áī£áĬ¥
ĠáĮīáĭµ
áĪĽáĭĬ
áĪĮáīµ
ĠE
áĭĵáĬķ
ĠáĬ®áĪļ
ĠáĬŃáī³
ĠáįĪáĪŃ
ĠáĪ°áĪĽáĭ«áīµ
ĠáĭĿáĭ°áĪĬ
ĠáĮįáĭ°
ĠáĪĴáĭĿ
Ġáĭ°áī¡áī¥
ĠáĬķáĭĵáĬĵ
10
áĪĪáĬķáĬķ
st
áĭ¨áĭŃ
ĠáĭĿáĭĵáīłáĭ¨
áĪĪáĪī
áĭĭáĪŃáĭ«áīµ
Ġáįįáīħ
áĪ³áĪµáī£
ĠáĭļáĬ¸áĭįáĬķ
áĬķáĬ©
ĠáĬŃáī¥
ĠáĮ½áĭµ
ĠáĬķáĪħáĭĿáī¢
áĪįáĭ°
áĪ¨áĮ½
áĪįáĬ»
ĠáĬķáĬ»áĪį
ĠáĬ£áĭŃáĬª
ĠáĭĿáĭµ
ĠáįĮ
ĠáĪĿáĬķáīħáĪµáīĵ
ĠáĮ¥áīł
Ġáī¥áĬ¥áĬ¡
áĪĪáĭ¨
áĬ¥áĪĿ
áĮįáĪµáī²
áĮłáĪ«
ĠáĭĺáĪĪáĭį
áĪŃáĪĴ
ĠáĪķáĬŃáĪĿáĬĵ
ĠáĬ¥áĭļáĬ¦áĪĿ
áĮłáĪ¨
áĭŃáī³áĭŃ
áĭĮ
áĪĭáĭķ
áĪ°áĪį
ĠáĬ¥áĭļáĬ£áī¶áĪĿ
áīķáī²
ĠáĭĿáīłáĪī
ĠáĪĺáĪµáĬ¨
ĠáĭĿáĪ¨áĬ£
áĬ¥áĬĵ
ou
ĠáĭĿáī°áĪĵ
áĭĤ
áĭĭáĪĿ
ĠáĬ¥áĪµáĪ«áĬ¤
ĠáĬ¥áĬķáĪµáĪ³
´áĮ¥áĪ®
áĪĪáĬ¹
ĠáĬŃáī¥áĪī
ĠáĮįáīłáĪŃ
ĠáĭĺáĭŃáĬķ
ĠáĬ¨áī¥
ĠáīµáįĪáĪįáĮ¥
áĬ£áĬŃáĪį
áĮĭáĮĪ
Ġm
ĠáĪĿáīħ
ĠáĭĿáĭ°áĪĪ
ĠáĪĿáĪ³áĬĵ
ĠáĬķáĪį
áĪĭáĭįáĭ«áĬķ
ĠáĭĪáī°
ĠáĪĿáĪµáĬŃáĪŃ
áĪĪáĭµ
ĠáĪĵáĪ³áī£áīµ
ĠáĪĿáĪįáĬŃáīµ
áī¥áĪ®
ĠáĪĵáī°
Ġ26
áĮĨ
áĭĽáĪ¨áī¦
ĠáĬĵáīµáĬ«
áįĪáĪµ
áĮª
ĠáĭĿáĪµáĭķáī¥
áĪĺáĭĿ
áĮłáĬĵ
ĠáĭĪáĪ°
ĠáĭľáĮĭáī³áīµ
áĬŃáĪµ
áī¥áĬ£
Ġáĭ©áĬĴ
ĠáĮĪáīłáĪŃ
áī¡áīħ
áĭįáĪŃ
ĠáĬŃáĪħáĪī
áĭ¨áĬĵ
ĠáĪļáĪįáĭ®áĬķ
ĠáĪĺáĮ½áĬĵáĭķáī²
ĠáĮĪáĭŃáĪ¨
ĠáĬ¥áĬķáī°áĬ¾áĭŃáĬĳ
áĮ¸áĪį
áĬķáī±
áĭŃáĪ¨áĪµ
áī¥áĭĽ
ĠáĬ¨áĭĵ
áĪ«áĬ¥
áįİáĬķ
áĮĪáĪµ
ĠáĮ¥áĭĳ
ĠáĪĿáĪ³áĬ»
áĭķáĪĭ
ĠáĬĵáī°áĭŃ
ĠáīµáĪķ
áĪ³áīĲ
ĠáĪĺáĬ£
ĠáĪħáĭĿáī¥áĬĵ
ĠáĪ°áĪĿ
ore
ĠáĬ£áĬ«áĪĭáīµ
ĠáĪµáī¥
áĪĿáĭµ
ĠáĪµáĬ¥áĪĬ
ĠáĪĺáĮ»
Ġáī°áĪĪ
ĠáĬ£áī¥áĭ«áī°
ĠáĬ£áĭĭáĪŃáĪķ
ĠáĬ¥áĭĺ
áĬ¥áĬ«
ĠáĪĿáĬķáī£áĪŃ
Ġáī¥áĮ¸
Ġ[.
ĠáĬ£áī²
áĮįáĪµ
ĠáĭĪáĭ°
ĠáĪµáĪĪáĭĺáĭŃ
ĠáĮ¥áĪŃ
ĠáĪĺáĬķáįĪáĪ³áĭĬ
áĪ¨áĮĭáĮĪ
Ġáī²
ĠáĭĵáīķáĪļ
áĭįáĭĵáī°
áĭİáĪµ
ĠáĭĺáĪĿ
ĠáĬ£áĬķáĮ»áĪŃ
ĠáĬ½áĪ³áĭķ
ĠáĪĺáĪĿáĪŃ
ĠáĬķáįĪ
ĠáĪĺáī¥áĭĽáĪķáīµáĬ¡
ĠáĮ¸áĬĴáĪĳ
ĠNe
ĠáĪĵáĪĬáįī
áĭĪáī³
áĮ¦áĪĿ
áĬ²
ĠáĭŃáĬĲ
ĠáĬŃáī¡áĪŃ
Ġáī»áĭŃáĬĵ
ĠáĪĺáĪ«áĪķáī²
áĮ½áĬ¡
ĠáĪĺáĬķáĮįáĪµ
áįĸáĪŃáīµ
ĠáĭĺáĬķ
áīĥáĪį
áĭĪáĬĵ
ĠáĬ¢áĬķáī°áĪŃ
ĠáĭŃáĬ¸
áĬłáīµ
ĠáĭĿáĪ¨áĬ¸
ĠáĬķáĬķ
Ġáĭ°áĬķ
áī£áĪħáĪĪ
áĪİáĪĿáĬķ
áĬ¤áĬķ
áĭįáĪµ
áĭ°áĬ£
áĬ¨áĭŃ
ĠáĬķáĭħáĪī
Ġáĭ°áī¥
Ġáī¥áĪĿáĪīáĬ¥
Ġáĭ°áĪĬ
áĪŃáĬ¥áĭ©
áĬ¥áī°
ĠáĮįáĪŃ
áĭ°áĪįáĬķ
áĮĪáĪįáĮįáĪį
ĠáĬ£áī¶
áĪ¨áįį
ĠáĬĲáĭŀáĪĿ
áĬ¹áĪį
ĠáĭķáĪĪ
ĠáĬķáĮ¥áįĪ
ĠáĬ£áĪĪáĬ»
ĠáīĢáĪįáĮ¢
ĠáĪ¨áī¥áĪĵ
ĠáĬĵáī±
ĠáĪĿáĪµáĪĬ
ĠáĮ¥áīłáī¥
áĬĵáĭķ
áĬĵáīµáĬķ
ĠáĪŀáĭ«
áįĭáĪµ
ĠáĬ£áīµáĪĴ
áī³áĭĬáīµ
ĠáĮ¸áī¥áĮ»áī¥
ĠáĬķáĬ¥áĪ½áī¶
áĪ¨áĪī
ĠáĭµáĪ®
Ġáĭĵáī£áĭŃ
ĠáĪŃáĬ¥áĪ°
áī£áīµáĬķ
áĪĬáĮ¡
ĠáĪĺáĭĵáĪįáīµáī³áīµ
ĠáĬķáĪĵáĭµáĪķ
áĪĭáĭī
ĠáĮ¸áĪİ
ĠáĬķáĬĲáįį
Ġâ
áĭįáĪŀ
ĠáĪĽáĬ¥áĪ°áĪŃáī²
áĪµáĭ«
ĠáĬ£áĪĪáĬĴ
ĠáĪµáĮī
ĠáĬ£áĪķáĭĭáīµ
áĪĪáĪį
ĠáĪĺáĮ¥áīĥ
ĠáĪ°áįĬ
Ġáĭ¨áī¥áĪįáĬĵáĬķ
ĠáĬķáĬ¥áĮįáĭļáĬ£áī¥
ĠáĪł
ĠáįĸáĪĬáĪµ
Ġáĭ©áĬĴáī¨
le
áĪĥáĭŃ
áįĭáĬķ
ĠáĬ¥áĬĵáīłáĪĪ
ĠáĭĢáĬĲ
Ġáĭ¨áĪ©áĪ³áĪĮáĪĿ
Ġáį¤
ĠáĭĿáĪĵáĭĺ
ĠáĪĺáĭĭ
áĪĬáĪī
ĠáĬ¨áĪĿáĭĿáĬ¾áĬĲ
ĠáĭĿáīłáĪį
ĠáĭĿáĪĺáĮ¸
áįĨ
ĠáįķáĪ¨áĭļáĭ°áĬķáīµ
ĠáĬķáĮ¸
ĠáĬ¾áĭŃáĬĳ
ĠáĪĵáī²
ĠáĮĪáĪĬáĮ¹
ĠáĬ¥áĭĺáĬķ
ĠáĪ½áĮįáĪŃ
ĠáĬĲáīłáĪ¨áīµ
ĠáīłáĪįáĭİ
áĪĺáĮ¥
ĠáĭĺáĪķ
ĠáĪĥáĭŃáĪĽáĬĸáīµ
áīłáĪįáĬĵ
ĠáĪĿáī¥áĪ«
Ġáĭ«áĬ¥
ĠáĭĭáĬĵ
áīĲáĬķ
Ġáĭ¶áĪĭ
áĭ¨áĪŃ
ĠáĮĪáĭŃáĪ®áĪĿ
ĠáĪĽáĭķáĪ¨
áĪĥáīµ
Ġs
Ġáĭ¨áĭµáĪįáĭ¨
ĠáĭĿáī°áĭĭ
ĠáīģáĮ½áĪª
Ġáī±
áĮĪáĪįáĮ¸
ĠáĭĿáīłáĪĪáĮ¸
ĠáĪĵáĪ«
ĠáĭľáĮĭ
ĠáĪĺáĪµáĬ¨áĪ¨áĪĿ
áĪĭáīµáĬķ
´áĮ¥áĪ®áĪµ
áĬ»áĪįáĬ¥
ĠáĬ¥áĬķáī°áĭĿ
ĠáĬŃáĪŃáĪµáīµáĭ«
Ġ28
ĠáīĢáĭŃ
ĠáĪĺáĪªáĪķ
áĭĵáĬĵ
Ġáĭ®áĪ´áįį
ĠáĪŃáĪĳ
áĪĽáĪį
áĪĪáĭŃáī²
áĪŃáĬ«áī¥
áĪŀáī±
ĠáĭĺáĪĪáĬ»
ĠáĭŃáī¥áĪĪ
ĠáĪĺáĪ«áĪĴ
ĠáĪĵáĪ¶áīµ
áĬ»áĭ¨
ĠáĪĿáĪĿáĪķáĭ³áĪŃ
ĠáĮĪáĪĿ
Ġáĭķáĭ³áĮĭ
ĠáĬ£áĭŃáįĪ
ĠáĬķáīµ
áĭķáĭµ
áī±áĭķ
áįĪáĪĭáĪĪáĭ¨
ĠáĪ³áĪįáĪ³áĭŃ
Ġáĭ¨áī¥áĪĪ
áĮ¸áĪĺ
áĬ¥áī³
áĪĪáĪµáī°
áīµáĬ»
Ġáī¶
ĠáįĪáī°áĬĵ
áīĥáĬķ
ĠáĪµáĮīáĪĿáī²
ĠáĬķáī£áĭķ
Ġáĭ°áīħ
ĠáĬ£áĮ¸áī¢
áĭ°áĪįáĭ®
áīłáĮ½áĪķ
ĠáĭĿáĬķ
Ġáī£áĪŃ
ĠáĬ¨áĭ¨
áĭĵáĪī
áĮ¢áĪ©
ĠáĪ±áĭ³áĬķ
ĠáĪĿáĮ¥
Ġáī°áĪ«áĬ¥
ĠáĪĵáĭ«áĪį
ĠáĬŃáĭµ
áĪµáĪŃ
áĬ¹áĪĿáĬķ
ĠáĪ«áĬ¥
ĠáĭĺáĪŃáĬ¢
ĠáĬ¨áĬł
Ġáī³áĪķ
ĠáĭĿáĬĲáīłáĪ¨áīµ
ĠáĪĽáĪķáīłáĪ¨
ĠáįĪáĪ¨áĬķ
Ġáī¥áĮ½
áĮĪáĪŃáĪĿ
ĠáĬ£áĪ¨
ĠáĪĺáĭ³áĭŃ
áĭ°áĮį
ĠáĬ©áĪįáĬĵ
áī¶áĬķ
ĠáĭĿáĬĲáīłáĪ®
áĪ®áĬĵ
ĠáīħáĪŃ
áīĨáĪĿ
Ġáī¥áĬ¢
ĠáĪķáĭĿáī¢
ĠáĪµáĭĴ
ĠáĬķáĬ»áĪįáĬ¦áīµ
áīĵáĭŃ
áĭĵáī¢
áĪĪáĪ±
15
áĪµáĪĪ
áįĪáĬķ
ĠáĬķáĪħáĭĿ
ĠáĪĺáĪµáĭĭáĬ¥áī²
Ġáĭ³áĮį
ĠáīĨáĪįáĭĵ
ĠáĪĿáĭķáĪ«áįį
Ġáī¥áĬĲ
ĠáĪĿáĭī
áĪĵáĭŃáĪ½
ĠáĬŃáĪįáī²áĬ¦áĪĿ
ĠáĬŃáĪįáĪį
ĠáĬ¥áĬ¹áĪį
ĠáĬŃáīµáĮĪáī¥áĪŃ
ĠáĬ¨áĪĿáĬ¡áĭįáĬķ
áĪµáĪį
áĮ¥áīĢáĪĿ
ĠáĬ¥áĬķáĮįáĪĬáĭĿ
áīĸáĪĿ
áĭĪáĬ«
ĠáĬĵáīµáĬĵ
ĠáĪįáīłáĭŃ
ĠáĬ£áĪħáĭĽáī¥
ĠáĪĺáĮĪ
ĠáįĪáĪĪáĪĽ
ĠáĬŃáī¥áĪŃ
áīµáĪª
áĪĭáĪ½
áĮ½áĬ£
Ġáī¥áĭĵáĪį
áĭ²áĬ¡
ĠáĬ£áī¥áĬ£
áĪĵáĪįáįį
Ġáī°áĭ³
ĠáĮ¸áĪĭáĬ¢
ĠáĮ¸áĮĪáĪĽáīµ
ĠáĭĿáĬ£áĪĺáĪ°áĪĪ
áĪ¨áī³
Ġáī£áĭŃáī³
Ġáĭ¨áĪİáĬķ
ĠáĪĽáĬķ
Ġáĭ¨áī¥áĪĪáĭŃáĬķ
ĠáĭŃáĬķ
Ġáī¥áĭĿáĭ«áĭ³
ĠáĪĺáĪĿáĪŃáĪĴ
ĠáĪĺáĭĵáĪįáī³áĭĬ
ĠáĭĿáĪĿáĭµáĬĵ
ĠáĪ¬
ĠáĪĺáīķáĭ°áĪµ
Ġáī¥áĬ¡
ĠáĬĲáī¢
Ġ27
áĪĵáĪī
ĠáĪĻáĪīáĬ¥
ĠáĪĺáĪŃáĭĵ
ĠáĪĺáĭĿáĪĻáĪŃ
áīķáĪŃáī¥
ĠáĪĺáĮĢáĪĺáĪŃáĭ«
ĠáĭĿáĮĪáīłáĪ®
áĮ¥áīĢáĪĺáĪī
ĠáĭĿáĬĲáī¥áĪŃ
ĠáĮ½áĪķáįĪáīµ
Ġáī°áĭĭáĪĤ
ĠáĬŃáĬ½
ĠáĪĵáĭµáĬĲáīµ
ĠáĬķáĮįáĪĨ
áĪĿáĪįáĬ¨
al
ĠáĪĺáįįáīµ
ĠáĬķáĪĿáĮįáī£áĪŃ
áĬ¥áĭĿ
Ġáĭĺáĭį
ĠáĬ£áĪİáĬĴ
Ġáī¥áĬ¸áĪĿ
ĠáĪĲáĭļ
ĠáĭŃáĭĿ
áĬ¸áĭŃ
áĪĪáī¥
ĠáĪŃáĮį
áĪķáĮįáĭĿ
ĠáĬķáĪĥ
áĭĵáĪŃ
ĠáĪ°áĬķáīłáīµ
ĠáĬķáĬĵáĭŃ
ĠáĪĺáĪ°áĪ¨áī³áĭĬ
áĭĽáīµ
áī³áĪĿ
áĪ¨áī¡
ĠáĪĺáĪ°áĪĭáīµ
áĮĪáīłáĪŃ
ĠáĮ½áĪĳáįĭáīµ
ĠáĭĪáĭ«áĬĲ
áĭĻáĪĵáīµ
ĠRe
Ġ0
áĪµáīµáĪª
áĮĭáĪĿ
ĠáĭĪáĭµ
ĠáĬ£áĮĭáĮ¢
ĠáĬŃáįīáĬ¥
ĠáĪĺáĪĿáĪħáĪŃ
áĬĸáĪµ
Ġáĭ¶áĪĭáĪŃ
áīłáĮ½
áįħáĬ¥
ĠáĬ£áī°áĪĵáĪ³áĪµáī£
áįįáĪª
áĮłáīĵ
ĠáĮĮáĪŃáĬĵ
ĠáĬŃáī³áīłáīµ
ĠáĬ«áī¥áī³
Ġáī£áĪħáĪĬ
ĠáĪĺáīµ
ĠáĮĪáīłáĪ¨
ĠáīĥáĪĪ
ĠáĭĿáĪĺáĪµ
ĠáĬ£áĭ¨áĪŃ
ĠáĪĴáĭĻ
ĠáĬķáĪĿáĪŃáĬ«áī¥
ĠáĬ¤áĪį
ĠáĪĺáĮ¥áīĥáĭķáī²
ĠáĬŃáĬķáī¥áĪį
áĮ£áĪª
ĠáĪ¸áĭįáĭĵáī°
áĮłáįįáĬ¥
áĬ½áĬ¥áĪİ
ĠáĪµáĪĿáĪĿáĭķ
áĪĿáĪĪáĪµ
áīļ
ĠáĬŃáīµáī¥áĪį
ĠáīħáĭµáĪĿ
Ġáĭ°áĮĪáįį
ĠáĬ®áįį
ĠáĭĪáĮĪáĬķ
áīłáĪ®áĪĿ
ĠáĮĢáĪĺáĪ¨
ĠáĭĿáĪŃáĬ¨áī¡
ĠáĪ°áĪľáĬķ
ĠáīłáĪĭ
ĠáĪĺáĪĭáĬ¥áĬ½áī²
ĠáĬ®áĭŃáĬķ
ĠáĬķáĪĿáĪµ
ĠáĪĺáĪįáĬ£áĬ½
áĭ°áĮĪáĬĵ
ĠáĪĺáĭĽáĪĻáĪŃ
ĠáĪĺáĬķáĬĲáīµ
Ġáĭ¨áī¥
áĭĵáĬ«
áī°áĪī
ĠáĬķáĬº
ĠáĬĵáī¥áĪ«
ĠáĭĵáĬķáīĢ
ĠáĪ¨áĬ¸
ĠáĪĺáĪŃáīłáī¥
ĠáĪĺáĬªáĬĵ
ĠáĬ¢áĭ±
ĠáĬ£áī¥áĪŃáĪĥáĪĿ
áī¶áĪĿáĬķ
ĠáĭĿáĪĵáĪ¸
áĪĪáĪĽáĭĬ
ĠáīµáĬ¸áĭįáĬķ
ĠáĮĭáĬķ
áĭ¨áĬĴ
ĠáĮ¸áĪĵáĭŃ
ĠáĪĿáĪįáĬŃ
ig
ĠáĬ¥áĪ±
ĠáĭĺáĪŃ
ĠáĭĪáī°áĪĥáĭ°
áĬ¾áĬķ
áĪ°áĪĿáĭĳ
áī¥áĪĪáĬ©áĪĿ
ĠáĪįáĬ¡
áĪĵáĭĬ
áĬŃáī°áĪŃ
ĠáĭĪáĪĪáĭ²
Ġáī°áĮłáīĴ
14
áīłáĬĴ
ĠáĮ«
áĭµáĬ©áĪĿ
áĬ¨áĭŃáĭµ
ĠáĬĵáīłáĭŃ
áĬ¦áĪį
áĭĵáī¥
ĠáĬ£áī±áĪĿ
ĠáĮįáĪĿáīµ
áĪĥáĭµ
Ġáī¦áī³áī³áīµ
ĠáĮ½áī¡áīħ
áĮįáĪĪáĮ½
áĪĺáĪĵ
ĠáĭįáĮ½áĬ¢áīµ
ĠáĪĵáīĢáĬĽ
Ġáī¥áĪħáĭŃáĭĪáīµ
áĪ«áĪŃáĪĵ
ĠáĬķáįį
ĠáīģáĪ©áī¥
áĭĵáīµáĬķ
ĠáĬŃáįįáĪĪ
ĠáĭĿáĮ½
áĭĪáĮ½áĬ¥
áīŃ
ĠáĬķáīł
áĬ½áĬķáĭ«áīµ
ĠáĮĪáĬĲáīµ
ĠáĬ£áĬ«áĭŃ
Ġ199
ĠáĪĿáĪµáĮĭáĬĵ
Ġáĭ°áī¥áĭ³
ĠáĪĿáĬķáīħáĪµáīĵáĪµ
ĠáĭĿáĮįáī¥
ĠáĭŃáĪģáĭ³
ĠáĭĿáī°áĬ£
ĠáĬ£áĬ¥áĭ³
áī¥áĪİáĪĿáĬķ
áĪįáĮ¡
ĠáĬĲáĮ¥áī¢
áĬ£áĭĬ
Ġc
ĠáĪĺáĪµáī°
áĭĽáĬķ
ĠáĭĭáĭķáĪĭ
ĠáĬŃáĬ£
áĮįáĮĭ
ĠáĪĵáĮºáĪŃ
áīłáĪįáĬ«
áĮįáĪį
ĠáĪµáīķ
Ġáįİ
áī£áĪ©
18
ĠáĬŃáĬĲáī¥áĪŃ
áĭ°áĭ°
Ġáīªáĭµáĭ®
ĠáīµáĬ¥áĭĽáĭĿ
âĢº
ĠáĪĵáĭ³áĪŃ
ĠáĪķáĭ«
Ġáī°áī£áĭķ
ĠáĬĵáĮ»
ĠáĪ°áĪ«áĪķáī°áĬĽáī³áīµ
ĠáįįáĪŃáīĤ
ĠáĭĿáĮĪáī¥áĪ®
áĪĺáĭŃáī²
áĮĲáĭŃáī³
ĠáĬ¥áĬ©
ĠáĪķáĪŃ
ĠáĪĺáĬ¨áĪ«
ĠáĪĭáĭķáĪĪ
ĠáĬ¨áįĬ
áĪĭáī³áīµ
ĠáĪĿáĮįáī¢
ĠáĭŃáĮįáī¥
áĬĲáī³
ĠáĮ¸áĪįáĪĽáīµ
ĠáĬ£áĪ¨áĮĭ
ĠáĮįáī¥áĪ¨
áĪĺáĪįáĬŃáīµ
ĠáĪµáĪĻ
ĠáĪĿáĭĥáĬĸáĪĿ
áĬķáīĤ
ĠáĬĲáĮĬ
ĠáĪ¾
áĭ¨áĪĨáĭĭ
Ġáī¥áĪµáĪĿ
ĠáĪĺáĮ»áĪķ
áĪĭáĬ¸
ĠáĬ¥áĬķáĭ°áĮĪáĬĵ
ĠáĪ½áĪĽ
12
áĪ°áĪĿáĭĸ
ĠáĭĿáĬ¸áįį
ĠáĬ£áīłáĪŃ
Ġáī°áīĵáĭįáĪŀ
ĠáĪļáĬ¥
ĠáĬ£áĪŃáĬ¥áĪµáī²
áīłáĬ«
ĠáĬĲáĬķ
ĠáĬĵáī¥áī³
Ġáĭĺáī¥
ĠáĭĺáĪį
Ġáĭ¶áī¥
ĠáĭĪáĮĪ
ĠáĬķáĪĿáĪķ
ĠáĭĵáĭŃáĬĴ
Ġáī°áīĲáī¢
ĠáĮįáī¡áĬ¥
ĠáĬŃáįįáĪĬáīµ
ĠáĭĿáĪĪáĭĵáĪĪ
áīį
ĠáĪķáĪįáĪļ
ĠáĬŃáĬķáĬ¨áĭįáĬķ
ĠáĬ¨áī°áĪĽáī³áīµ
áĪħáĬĵáīµ
áīĥáĭĬ
áĬĿ
ĠáĬŃáĬķáĮĪáī¥áĪŃ
ĠáįĢáĮĪáĪĿ
ĠáĭįáĪ³áĬĶ
áĭ³áĭµ
ĠáĬ£áĪĪáĬ©áĪĿ
ĠáĮ¥áīħ
ĠáĬ©áĪĪáĬķ
ĠáĮłáįĬ
ag
Ġáī¥áĪĿáĬķ
áĪķáī³
ĠáĬ£áĪİáĬ«
ĠáĪµáĪĿáĭĴáīµ
ĠáĬķáĭ°áīĤ
ĠáĬ£áĭŃáĪģáĭµ
ĠáĪįáĪĿáĭĵáīµ
ĠáĬ¥áįĪáĪįáĮ¥
ĠáĮįáĪį
áĬ¾áĪĿ
ĠáįĪáĮºáĪĻ
Ġáĭ´
ĠáĬ¨áĪĽ
Ġ29
ĠáĪĻáĭļ
ĠáĪħáĮ»áĬĵáīµ
ĠáįįáīħáĪª
ĠáĬŃáĭķ
ĠH
ĠáĪĵáĪĬ
áĭįáĭ«áĬķáĬķ
áĭ±áĬķ
ĠáĬ¨áĪĪáĬ¹
áĪ¨áĬ£áĬ¥
Ġ40
áĮ»áīµ
áĬŃáĪįáĬ»áĪį
ĠáĭĺáĭŃáĬ®
ĠáĪħáĭĿáī¥áĬķ
áĬ»áĬ½áĪŃ
ĠáĭĿáī¥
áīłáĪįáĭķ
ĠáĬŃáĪ°
áĭµáĭ«
ĠáįįáĮ¥áĪ¨áīµ
áĭ±áĪ½áī°
ĠáĬ£áĭ°áĭŃ
áĪ¨áī±
ĠáĬŃáĬ¸áĭŃáĭµ
ĠáįĪáī²
Ġ,
ĠáĬ£áĭŃáĬ®áĬĳáĬķ
ĠáĪĤáī¡
ĠáĮ´áĮ¥áĪ®áĪµ
ĠáĪķáĮį
Ġ50
áĪµáĭķáī¡
it
ĠáĬķáĭļ
áĭĪáĬ¨áįį
ĠáīłáĪĪáīµ
ĠáĪĺáĭĺ
ĠáĭĿáī¥áĪİ
Ġáīµáĭ°áĪĬ
ĠáĪįáĪĻ
áĭĴáĪī
ĠáįįáĪįáĪįáĭŃ
áī¥áī³áīµ
ĠáĬķáī¥áĪ¨áīµ
ĠáĬķáĬ¢
Ġáī¥áĮ¥
áĪĿáī£
Ġáī£áĪħáĪª
áĪĪáĭĭ
ĠáĭĪáĪª
ĠáĬ¸áĬł
ĠáĪĿáĪĿáĪĭ
áĮĪáĭµáĪµ
áĬ¥áĭİ
áĪİáĮĤ
ĠáĬ¢áĪįáĬ©áĪĿ
ĠáĭķáĪŃ
ĠáĭĿáĭĿ
áī°áĪį
Ġáī¥áĪŃáī±áĭķ
Ġáī¥áĪ°áĪĭáĪĿ
áĪ£
áĬ£áĪĪ
áĭ±áĪµ
ĠáĪĺáĭ°áī£áīµ
áī¥áī¥
áĪ«áĪħ
ĠáĪĿáĬķáĪĿ
áĪĲáĬķ
ĠáĭĿáįĪáĪįáĮ¦
áĪĭáĪĬ
Ġáĭķáī¥
áĪķáī¥
ĠáĬķáĪĿáĭį
áĭĪáĪį
Ġáī¥áĪĿáĪµ
ĠáĪĺáĪĬáĪ±
ĠáĪµáĭ°áīµ
ĠáĪĥáĮĪáĪ¨
ĠáĪµáĪĿáĭĴ
áĬ¥áĪĪ
ĠáĬ¨áī¶
áĪĿáĪħáĪŃáī²
áĪªáĭ«
áī¶áīµ
Ġáĭ¨áĪĽ
ĠáĭĿáī°áĪ¨
áĬ»áĭ¨áĭ°
ĠáĮĨ
áĪ°áĪĽ
Ġáī£áĪŃáĭ«
ĠáĮįáĬķáī¦áīµ
17
áĮ¸áĪ«
áĭ¨áĪī
áī¥áĪĪáĬ«
ĠáĬŃáĬ¾áĬĳ
áĮįáĭµ
Ġáī¤áī°áĬŃáĪŃáĪµáīµáĭ«áĬķ
áĬĵáĪµ
áĪ°áĬĵ
áī¥áĭ«
áĬķáĭ«
ĠáĭįáĪĭ
xt
áĭĵáī³áīµ
ĠáĭĿáī°áīĲ
áĪĥáī¦
áĮ£áĭĬ
ĠáĪĴáĭ°áīµ
áĬķáĭ°
áī»
Ġáī¥áĭĿáĬ¾áĬĲ
áĭµáĪķáĪŃ
ĠáīłáĪ¨áĬ»
áīµáĪŃ
ĠáĪĵáĮ¥
Ġáī¥áĭĪáĮĪ
ĠáĬĵáī¥áĭļ
ĠáĮ¥áīĵ
ĠáĭĴ
áĬ³áĬķ
ĠáĭĿáī¥áĪĥáĪį
áĪ¨áįįáī²
ĠáĬ´
ĠáĬ»áĪį
áį¡"
ĠáĬ«áĪŃ
áĪĥáĪ©
áĮĬáĭķ
11
áī£áĪª
ĠáĭĵáĪĪáĪĿáĬĵ
ĠáĭµáĪķáĬĲáīµ
áĬŃáī¶
ĠáĪĿáĬķáĮª
áĭŃáĪĬ
ĠáĬ¦áĪĿ
áĪįáĮ¦
Ġáĭµáĭ«
áīłáĬĽ
at
ĠáĬŃáĭĿ
ĠáĭĿáĪĺáĪµáĪį
Ġáī¥áĮ¾
ĠáĪĿáĪµáī¶áĪĿ
ĠáĬķáĮ¥áįĪáī³áīµ
ĠáĬķáī¡áĪŃ
ĠáĬĲáī°áĬķ
ĠáĪĽáĪŃ
ĠáĭĿáĬ£áĬŃáĪį
ĠáĮĪáīł
ĠáĪĺáĬķáĮįáĪµáī³áīµ
ĠáĪĺáĪµáīĢáĪį
ĠáĪĿáĪµáĮ¢áĪŃ
ĠB
áĬĲáĬ«
Ġáĭ¨áī¥áĪİáĪĿáĬķ
Ġáī³áĪķáī²
áĬŃáįį
áĪµáĬ¥
áĪĺáĬĴ
ĠáĪħáĭĿáī¥áī³áīµ
ĠáĬ¸áĪİ
Ġáī°áĪĽáĪĤ
ĠáĪĿáĪĥáī¥
Ġáī°áĪ¸
ĠáīłáĪ¨áĬ¸
ĠáĭļáĪŃáĬ¨áī¥
áĪĺáī³áīµ
áĮºáĪ©
ĠáĬ£áĬķáĪµáī²
ĠáĭĤáĪī
Ġáī¥áĪª
áĪ³áĬ¤
Ġáĭ«áĬ¥áīĨáī¥
áĬ£áĪĿáĬĳ
áĪµáįĴ
áĬ¦áĪĿáĬķ
áĮĭáĮĬ
áĮ¸áīµ
ĠáĪ³áĭķáī¤
ĠáĬ£áĪ¨áĬ£áĬ¥
Ġáī¥áīĢ
ĠáĪĿáĭµáĪŃáĬķ
áĬķáĬ©áĪĿ
ĠáĪ°áĪĽáĭķ
áĭĺáĭĿ
ĠáĬ£áī¡
ĠáĬ¥áĬķáī°áĭµáĬ£
ĠáįįáĪįáĪµ
áĪĺáĮł
ĠáĭŃáĪĵ
áĪªáī¦áĪĿ
ĠáĪŃáĬ¥áĪµáĬ»
áīħáĭķ
ĠáĬķáĪĿáĪĿ
ĠáĪĿáĪŃáĬ£áĭŃ
ĠáĪĵáī¢áĪ©
ĠáĬĸáĪŃ
ĠáĬ£áĭŃáĪĺáĪµáĪĪáĬķáĬķ
ĠáĪĺáĭĽáĪĻáĪŃáī±
ĠáīħáĬķ
ĠáĮįáĬķáī£áĪŃ
áĬ£áĪĿáĪĭáĬ½
Ġt
áīłáī£
ĠáĪĵáĪŃáĬĲáīµ
ĠáīħáĭµáĪľ
ĠáĬĵáĭŃáī¶áĪĿ
ĠáĬ¥áĮįáĪª
áĪ°áī£áīµ
ĠáĪµáĮį
ĠáīħáĭµáĪļáĬ¡
ĠáĬ£áĭĿáĭ®áĪĿ
ĠD
ĠáĬķáĬ¨
áĪĻáĬĵáīµ
ĠáĪĺáīĵ
ĠáĬ¥áĬķáĮĮ
Ġáī°áĭĺ
ĠáĬ£áĮį
ĠáĬ¥áĬķáī°áĪİ
Ġáĭ®áĪĥáĬķáĪµ
ĠáĭĿáĬ½áĬ¥áĪī
áĪ³áĭŃáĭ«áĪµ
áĪĺáĪĭáĪĪ
ĠáĬ£áĪħáĮī
ĠáĬ¤áĪŃáīµáĪ«áĭĬ
ĠáĬ£áĭŃáĪ¨áĬ¸
Ġáĭ°áĪĵáĬķ
áī°áĬ£
áĭ°áī¥
áįĭáĬ¥
ĠáĪĺáĪµáĪĺáĪŃ
ĠáĭĿáī°áĬ¸
Ġáĭĳáīķ
ĠáĮĭáĬķáī³
ĠáĬ£áĭ´
áī°áĭŃáĬķ
ĠáĪĺáĪĪáĪ°
ĠáĮ¸áĪĵ
ĠáĬ£áĭŃáĬĲáīłáĪ®
ĠáĬŃáĭĽáĪ¨áī¥
ĠáĬķáĬĲáĭĬáĪķ
áĬķáĮİ
Ġáī¥áĮĪ
Ġ31
ĠĠĠ
Ġáī°áĪĭ
áĪįáĬĵáĬķ
áĪĿáĭİ
ĠáĪĵáĮĲáĪµ
ĠáĭĦ
áĮĭáĮ¥
áĪ¨áĬ½áīł
áĬ£áĬĴ
áĭ°áĮĭ
ĠáĭĵáĪļ
Ġáī¤áī±
ĠáĪ¨áĪ²
ĠáĭĿáĬ«áĭ¨áĭµ
ĠáĪķáĮĭáĭĬ
Ġáī¥áĪĿáĮįáī£áĪŃ
áĪ¶áĬķ
ĠáīłáĪĬ
áĭ¬
ĠáĪĿáĬķáī³áĭŃ
áĬ£áĭ«
Ġáĭįáĭµáī£áīµ
áĬŃáĪŃáĪµáī¶áĪµ
áĭĪáĪ°
Ġáī°áĮĪáĪĬáĮ¹
ĠáĭĿáĭķ
áĭĲáĬķ
ĠáĬ¸áĭĵ
Ġáī«áĭŃáĪ¨áĪµ
áĪįáĭ¨
Ġáĭĵáĭµ
áįĪáī°
ĠáĪĽáĪħ
áįįáīĢ
Ġáī¥áĭĿáĪĴ
Ġáĭ³áĪķ
ĠáĪĨáĪµáįĴ
13
ĠáĮĪáīłáĬķ
ĠáĪĺáīĲáĪĪ
ĠáĭµáĬ½
áĮ¥áĬĵ
ĠáĪķáĮ»
áĪĭáĪµ
ĠáĪĵáĭ«áĪİ
ĠáĬ£áĭŃáĬ®áĬķáĬ©áĬķ
áĪ³áĭµ
16
áĪĭáĮ½
ĠáĮįáĮ¥
ĠáĬ£áĭŃáĪ°
áĮ£áĪŃ
áĬ¡áĪµ
ĠáĮ¥áĪª
áĪĴáįī
ĠáĭĽáĭķáī£
áĪ¨áĪŃ
ĠáĪĵáĭŃáĪįáī³áīµ
ĠáĪĮ
ĠáĭĵáĪ¨áī¥
ĠáįķáĪ®áĮĢ
ĠáĪħáĭĿáīłáĭŃ
Ġáī¥áĪĿáĬ½áĬķáĭ«áīµ
áįįáĪĪ
ĠáĭŃáĭ°áĪĬ
áĬŃáĬĸ
ĠáĭĪáĮį
ĠáĬ£áīµáĭ©
áĪĵáĪĪ
ĠáĭĪáĭŃáĬĴ
áĪĺáĬĲ
21
ĠáĬªáīķ
ĠáĭīáĬķ
ĠáīĢáĮºáĪī
ĠI
áĭįáĪį
ĠáĭĿáĪŃáĭĿáĪŃ
ðŁĩ
ĠáĬķáĪ¶áĪĿ
áĪĭáĪĽáĭĬ
áĭµáĪĺ
áĪĺáĮ¡
áĭįáĪ«
ĠáĬ¨áĭŃáĭ±
22
áįįáĭİ
áĪĵáĪ°
ĠáĭĵáĪĪ
áĭĺáī°
Ġ100
ĠáĮ½áĭµáīĤ
ĠáĪĺáĬĲ
áĬ»áīµ
Ġáī°áĭĪáĪĬ
áĪĬáĬ¥
ĠáĮ¥áįį
ĠáĪĿáĭķáī£áĪĪ
ĠáĬķáĭµáĪķáĪª
áĪĵáĬĵ
ĠáĭįáĪķáĪµáĬĲáīµ
ĠáįĪáĪŃáĬ¦áĬķ
áĭµáĪ½
áĬĲáī²
ĠáĬŃáĪĿáĪĪáĪµ
áĪ½áĪĵáīµ
áī¥áĪİáĪµ
ĠáĬķáĬĲáī¥
áįĥáĬ¢
ĠáĮįáĭ³
ĠáĭĿáĪ¨
áĪĺáĪµáĮįáĬķ
ĠáĬŃáĭ³
ĠáĬ£áĪĪáĬ¹áĪĿ
ĠáĬ£áĪĿáĪĭáĬ½áĬĵ
áī¥áĪĭáĭķ
ĠáĮ¸áĭĬ
áĬķáĭµ
ĠáĪĺáĪĭ
áĪĺáĭįáīµ
ĠáĭŃáĬ½
ĠáĬķáĪĿáĪŃ
ĠáĪĺáĪįáĬŃáĭķ
Ġáī°áĪ¨áĬº
ĠáĪ¹
áįĪáĪįáĮ¡áĬķ
áįĪáĪ»áĭĬ
áīłáĪ³
áĮĬáīµ
áĭĵáĭĬ
áĪ©áĬ½
ĠáĪĺáĪ«áĬ¸
ĠáĪĽáī´
ĠáĭĺáĭŃáĪķ
ĠáĬ£áĬ¨
áĪĬáīµ
ĠáĪĿáĭĥáĬĵ
ĠáĬĲáĮĭ
ĠáĪ½áĪĽáĮįáĪĪ
âĢ¹
áĪħáī¡
áĪħáī¦áĪĿ
áĮĢáĪĺáĪ¨
Ġáī¥áīĳ
ĠáĪŀáī°
ĠáĭĻáĪŃáĭ«
áĮįáĪ«
áĪµáĭ«áĭĬ
ĠáĪµáĪįáĮ£
ĠáĬ£áīĢ
Ġáĭ°áīģ
ĠáĬŃáĪĺáĮ½áĬ¥
Ġáī°áĬ½
ĠáĪ°áīł
áī¥áĬ¡
áī¥áĪĥ
ĠáĭĺáĭŃáĬ°áĬĲáĪµ
Ġáī¥áĬĵ
áĮĪáĭ°
ĠáĪĵáĪ²
ĠáĬ¥áĬķáĬ®
ĠáĭĪáĪ³
ĠáĭĿáī°áĪ°
ĠáĪĥáī¥áī²
áĬķáīĭ
áĬ£áĬ¸
áĪĭáįį
ĠáĭĿáĬĲáī¥áĪ©
áįĭáĭŃ
Ġáī¥áĮ»
áĪ¨áĭ°
Ġáī¥áĪŃáĪĥ
áĭĿáĪĿ
áĪĵáĬĴ
ĠáĭĺáĪİáĬ«
ĠáĬķáĭĵáĪĪáĪĿ
áĪĵáīķ
Ġáī°áĮĭáĭ³
ĠáĭĺáĪŃáĬ¥
Ġáĭķáĭī
Ġáīĺ
ĠáĭĪáĪį
áĮ¥áĭķ
ĠáĪķáĭĿ
áīĲáĪŃ
ĠáĬķáĮĪáĭĽáĬ¥
ĠáĭĿáĮįáī£áĬ¥
ĠáĭŃáĬĲáī¥áĪŃ
ĠáĭĿáĪĺáĪį
ĠRead
ĠáīµáĮ½áī¢áīµ
ĠáĬ£áĬĲáĬķ
ĠáĬ£áĭ³áĪĿ
ĠáĪ½áĭ±áĪ½áī°
áī²áīµ
ĠáīĢáĮ»áĪĬ
ĠáĪĺáĪŃáĪĺáĪ«
Ġáī¥áĭµáĪķáĪªáĬ¡
Ġáĭĺáĭ³
ĠáĭĪáĪĭáĭ²
ĠáīłáĪŃ
ĠáĬ£áī£áĭŃ
áįĪáīµáĭİ
Ġáī°áĭĽáĪªáī¡
áĪµáī¡
ĠáĬĲáįįáĪµ
áĪ«áĮ½
ĠáĮ¸áĭĪáī³
ĠáĪµáĪįáĮłáĬĵ
ĠáĬķáĮįáĭ²
áĬªáĪĿ
áĪįáĮ¡áįį
áīĲáĪŃáī¥
ĠáĪĺáĮ»áĪķáįįáī²
áĪªáĬ½
áĪ®áīµ
áĮ¹áĮ½
áĮ»áĪį
áĪįáĭ«áĬķ
Ġáī°áīĢ
áĪħáĬĵ
Ġáī¥áĭĺáĭ¨
ĠáĭŃáīµ
ĠNext
Ġp
áĪµáī¥
áĪĬáĪĿ
ĠáĬ£áĬķáī³
áĪŀáĬķáī°
áĮĪáīµ
ĠáĬ£áĪļ
ĠáĮ¾áī³áĭĬ
ĠáĭµáĪķáĪŃ
Ġ2020
ĠáĪĽáĬ¥áĬ¨áĪĭáĭŃ
ĠáĬ£áĪ¨áĬ£áĬ¥áĭ«
ĠáĬķáĭĿáī°
áĮĪáĭµáī³áīµ
áĪĭáĭª
ĠáĬ£áĮ¥
áĭµáĬ¥
ĠáĪĺáĪ°áĬ»áĬ½áĪŃ
ĠáĬķáĭĺáĭŃ
áĭĵáĪĪáĪĿ
ĠáĬķáĮ¹áĪŃ
ĠáĬķáĭµáĪķáĪªáīµ
Ġ2018
ĠáĪħáĭ«áĭį
ĠáĭŃáįįáĪĪáĮ¥
ĠáĪĺáįįáīµáĪĴ
ĠáĬ¥áĬķáĬ½áĬ¥áĪį
ĠáĪĺáĪªáĪķáĬĲáīµ
áĭ¨áĬ«
ĠáĪĿáįįáĪĭáĮ¥
áĪ³áī°áįī
áĬ£áĬ«
ĠáĬ£áĪĽáĪ«
áīķáĬ«
ĠáĭŃáīķáĪ¨
ĠáĪĺáĪ³áĪŃáĪĴ
áĪ½áī±
is
ĠáĬŃáīµáĪ¨áĬŃáī¥
áĮİáĪĿ
Ġáīħáĭ±áĪ³áĬķ
áĪŃáĭµáĬ¦
ĠáĬķáĭĺáĪĪáĬ£áĪĪáĪĿ
áĭįáĭķáĪį
áĪ©áĭŃ
ĠáĮ¸áĪĭáĬ¥
ĠáįĪáĮ£áĪª
ĠáĬ£áĮĪáĪįáĮįáĪİ
áĪĽáĭįáĭ«áĬķ
ĠáĭĪáĪ¨áīĲáīµ
ĠáĪĺáįħ
áĭ°áĪ¨
ĠáĪŃáĬł
Ġáī¥áĭĿáī¥áĪį
ĠáĪĺáī¥áĭĽáĪķáīµáĬ¦áĪĿ
áĪĪáĪĺ
Ġáī¥áĬ»áĪįáĬ¥
ĠáĬŃáĪ°áĪŃáĪķ
ĠáĪĵáĭĪáĭŃ
ĠáĪĪáīł
áĪŃáĬª
áĪĽáī´
áĪĵáīµáĬķ
ĠáĮįáĪĿ
ĠáĭĺáĭŃáī¥áĪį
ĠáĬķáĪ°áī£áīµ
ĠáĭĿáĪĺáĪŃ
áĬ£áĪī
áĪµáīµáĪ«
ĠáĬ£áĭŃáĬķáĬ½áĬ¥áĪįáĬķ
ĠáĬ¢áĬķáī°áĪŃáĬĲáīµ
áĮĪáĪ¨
áĭįáĭĵáĪį
ĠáĪĵáī£áĪŃ
ĠáĪµáĭµáĪ«áī¤
ĠáĪĿáĪ³áĪĮ
ĠáĪķáĪī
ĠáĪĿáĪµáĪ«áĪķ
ĠáĪŃáĪķ
áĪĺáĪ©
Ġáī°áĪ°áĪļ
ĠáĪĵáĭ²áĪ½
ĠáīĪáĪįáĭĳ
ĠáĪĿáī¥áĪ«áīķ
Ġáī¥áĪĽ
áĮ¥áīĢáĪĻ
ĠáĭĺáĭŃáī¥áĪİáĪĿ
áĬ®áĬĲáĬķ
ĠáĬ¥áĬķáĮĮáĪ«
áĪŃáĪĿ
áĮ»áĭĪ
ĠáĭĪáĪ²áĭ±
áĪĪáĬ©áĪĿ
ĠáĪĵáĮ¢
ĠáĭĺáĮĭáĮłáĪĺ
Ġáī£áĭķáĪįáĬ»
ĠáĬŃáĪŃáĪµáīµáĭ«áĬĵáīµ
ĠáĬķáįĪáĪįáĮ¥
áĬ¨áī³áī°
ĠáĬ©áĪĭáīµáĬĵ
ĠáĬ¥áĪĻáĬķ
áī°áĬĵ
áĪĪáĬ»
ĠáĬŃáĮ½
áĮĪáĭ³
áĪķáĬ«
ĠáĪµáĬ¢
ĠáĬ¥áĪĿáĬĴ
áĬ£áīµáĭī
áĬĲáĮį
áĭµáĪķáĪª
ĠáĪįáĭķáĪį
ĠáĬķáĪĽ
áī¥áĪįáĬķ
ĠáīĢáĪªáī¡
áįĢáĬķ
ĠáĬ£áĪ³
30
ĠáĬ£áī¦áĬĵ
Ġ2017
ĠáĬķáĭħáĪİáĪĿ
áĮĭáĬĳ
Ġáĭĳáīķáī£
áĭįáĪķ
áįĪáĪī
Ġáĭ±
ĠáĭĺáĭµáĪĬ
ĠáĭµáīĥáĪµ
Ġ32
áĬ¹áĪī
áĭµáĪįáĭ®áĪĿ
ed
áĪ«áĪĿáįķ
áĮłáĭį
ĠáĬķáĪĿáĭµ
áĭ³áĭĬ
áĬĲáįį
ĠáĬŃáĪ¨áĬŃáī¥
ĠáĬ¥áĬĵáīłáĪī
ĠáĭįáĪīáĭµ
ĠáĬ£áĮĭáĮ¢áĪĻ
áįįáĪĪáĮ¥
ĠáĬĵáī£áĭŃ
ĠáĭĪáĭ°áĭŃ
áī°áĪŃáįį
ĠáĪ´
ĠáĬŃáĮį
ĠáĭŃáīłáĪį
ĠáįįáĪ«áĬķ
Ġáī°áĪĺáĪµ
áĬ®áĭŃáĬĳ
áĪĿáĬĲ
ĠáĬŃáīłáĪĥáĪį
Ġáī°áĮłáĬķ
ĠáĬ«áīłáĭŃ
ĠáĪĵáĭ°áĮĪ
ĠáĬ½áĪįáī°
ĠáĭĿáĬ¸áĭŃáĭµ
Ġáī¥áĪĦ
ĠáĭĿáī°áĬ»áĭ¨áĭ°
ĠáĬ®áĪ®áĬĵ
áĪ½áī²
áĬŃáĬĸáĪİáĮĤ
áĭĿáĭ«
áĮ¸áĬķáĪķ
ĠáĬ¥áĪµáĪ«áĬ¤áĪĭáĭįáĭ«áĬķ
ĠáĬķáĪĻ
áĬ£áĪµ
áĮ¹áĪŃ
Ġáī¥áĪ½
ĠáĭŃáĮĪáĪįáĮ½
Ġáĭ°áĪĵáĪŃ
ĠáįķáĪ®áĮĢáĬŃáīµ
áĭ°áĭµ
ĠáĪĨáĪµáįĴáī³áĪį
ĠáĬ¢áĭµáĬ«
Ġáī¥áĬ¸áĪĿáĭļ
ĠáĪĺáĭķ
ic
ĠáĮįáĭµ
áī³áī²
ĠáĪĵáĮİáĪµ
ĠáĭķáĪ¨áįįáī²
áĪĽáīµáĬķ
ĠáĪķáĮī
ĠáĬķáĪĿáĭĥ
igr
ĠáĬŃáĪĵ
ĠáĭĪáĪŃáīĤ
áĬķáī¥áī¥
Ġáī°áĮĵ
ĠáĪµáĪ«
ĠáīĭáĬķáīĭáī³áīµ
áĬĲáĮįáĪ¨
áĪĺáĬ«
ĠáĪĵáįĪáĪ»áĭĬ
ĠáĪ°áįĬáĪķ
áįĨáĪĿ
ĠáĬ¢áĪ³áĭŃáĭ«áĪµ
áĭĺáī¥
ĠáĪĺáĮĭáī¢áīµ
áĪ«áĬ¸áī¥
áī°áĬ«
áī³áī³
ĠáĪĺáĪĿ
ĠáĭĿáĬĲáīłáĪŃáĬ©
áĭŃáĪ½
ĠáįįáĮ»áĪľ
Ġ)
ĠáĭŃáĭµ
áĪ»áĭŃ
ĠáīłáĪĪáĬĴ
ĠáĭŃáĮįáīłáĪŃ
ĠáĬ£áīĲáĭ²áĪĻ
ĠáĭŃáīłáĪĥáĪį
áĬ»áĭ®
ĠáĭĺáĪĪáĬ¹áĪĿ
ĠáĪĻáĭļáīĥ
ĠÂ
áĮįáĪ«áĪĿ
áī³áīµáĬ«
ĠáĮĪáĭĿ
ĠáĪĺáĬ«
ĠáĬ£áĭļáĭ©
ĠáĭŃáĪ°
ĠáĮĭáĭľáĮł
ĠáĬ¢áĪ³áĭ«áĪµ
ĠáĭŃáĬ¹
áĭ³áĭ²
áĬķáĭĺáī¥
ĠáĬ£áĪī
ĠáīµáįĪáĪįáĮ¡
ĠáĪ¨áĬł
Ġáĭ³áĮįáĪĿ
ĠáĭĿáĮ¸áĬķáĪĲ
áĬ¥áī¶áĪĿ
Ġáĭ°áĭŃ
áĮ¸áĪ©
ĠáĪĥáĭĭáĪŃáĭ«
áīłáĪ¨áĪī
áĬ¥áĬķáī³áĭŃ
ĠáĪįáĪĻáĭµ
ay
ĠáĬ¨áĪĪáĬ»
ĠáĬ£áĭ²áĪµ
ĠáĭĿáįĪáĪįáĮ¥
ĠáĪĺáĪ¸
ĠáĪĵáĮĭ
áĪļáĪ©
áĪ¨áĮį
ĠáīµáĪ«áĪĿáįķ
ĠáĪĿáĪŃáĬ«áī¥
Ġáī¥áĪĺáĪį
áĭ«áĭŃ
áĬ¥áĬ¨
ĠáĭįáĪħ
Ġáĭ³áĮįáĪĽáĭŃ
ĠáĬķáĬł
ĠáĬ«áĬ£
ĠáĬĶáĪŃáĬĵ
Ġáī°áĬķáĪ²
áĪ³áĭįáĭ«áĬķ
áįĪáĪįáĮł
ĠáĪĪáĭŃ
ĠáĪ«áĬ¥áĭŃ
áĪįáĭķ
áĬĲáī³áĭĬ
ĠáĪķáĭŃáĭĪ
ĠáĮ½áĪĿ
ĠáĪĪáĬ«
ĠáīµáĬķáĪ³áĬ¤
áī¡áĪį
áĮįáĭļáĬłáī¥áĪĶáĪŃ
áĪİáĪŀáĬķ
ĠáĬ£áįįáĪįáĮ¦
ĠáĪĽáĬ¥áĬ¸
ĠáĭĵáĪ³
ĠáĪķáĪįáĬĵ
Ġáĭ³áĬķ
ent
ĠáĭĵáĬķáīĢáĮ½
áīħáĪŃ
ĠáĬ£áī¦áĬ¡
ĠáĬķáĭĳ
ĠáĮįáĭĺ
áĪŀáī°
Ġáī¥áĪĿáĭĥáĬĳ
ĠáĪĺáĭµáĪĥ
ĠáĪĺáī³áĬķ
ĠáĭĺáĭŃáĬĲ
Ġáįįáī³áĪķ
ĠáĪįáĭķ
ĠáĬ£áĭ¨áĬĵáĭŃ
Ġáī¥áĮįáī¡áĬ¥
ĠáĪļáĬĴáĪµáī°áĪŃ
ĠáĬŃáĮįáīłáĪŃ
áĭĿáĮĬ
ĠáĪħáĬķ
ĠáĪŀáĬķáĮİ
Ġáī¥áĪµáĪ«áīµ
ĠáĪĺáĪįáĬ¥áĬ½
áĮ¥áīĥáĪĿ
ĠáĬ¥áī¥áĪĪáĬ©áĪĿ
áĪµáĬ®
ĠáĪĵáĪĿ
ĠáĭŃáįĪ
ĠáĬ¥áĬķáīĭ
ĠáīµáĬ½
áĮĪáī¥áĪ¨áĪī
áī¥áĭĵ
ĠáĬķáĬ½áĬķ
ĠáĮ¥áĭĳáĪĿ
áĬĵáĪķ
áĪ«áĪį
ĠáĬĵáĭŃáī³
ĠáĭįáĭµáĭµáĪŃ
ĠáĮĮáĪ©
Ġáī¥áĭµáĪĨ
ĠáĪħáĭŃáĭĪáī°áĭŃ
ĠáĭŃáĭĽáĪ¨áī¥
áīĢáīķ
áĬ¤áīµ
áĭĽáĪ¨áīł
ĠáĮĪáĪĬáĬ¡
ĠáĭĪáĪ¨áĭ³
áĭķáĬ«
ĠáĭŃáĪĵáĭŃáĪ½
Ġáī¥áĭĿáĪĿáĪįáĬ¨áīµ
ĠáĬ£áīłáī£
áĮĪáĪįáĮ¾
áĮłáīħ
ĠáĬµáĬĲáī³áīµ
ĠáĪĿáĪ³áĬ»áīµáĬ©áĪĿ
ĠáīĢáĭ³áĪŀáīµ
áīĥáĪĪáĪµ
Ġáī¥áĪĵáįĪáĪ»
ĠáīµáĪŃáĮī
áĭŃáĭŃ
ĠáĭļáĪĺáĮ½áĬ¥
ĠáĮ¥áĪĿ
ĠáĭĿáĪĥáīł
áĮĪáīł
ĠáĭŃáĪµáĪĿ
ĠáīĲáĭ³
ĠáĪĺáĪŃáĬ¨áī¥
ĠáĬŃáĪ³
ĠáĪĿáĪĭáĪ½
áĪķáĭĿáĬķ
ĠáĬķáĬ£áĭŃ
áĬ«áĭŃáĭµ
ĠáĪµáĭĬ
ĠáĭĿáī°áĪĺ
áĪįáĭįáĪĭáĭį
ĠáįĸáĪĬáĪ²
ĠáĮ»áĭķáĪª
ĠáĪĳ
ĠáĬķáĪĿáĬķ
áĪŃáĪ²áī²
áĪİáĪļ
Ġ2016
ĠáĭĿáĭĪáĪµ
ĠáĭĺáĪµ
áĪ«áĪ²
ĠáĬĲáĭį
Ġáī°áĬ½áĬ¥áĪİ
ĠáĬĲáīłáĪŃáĬ©
áĮįáĭĴ
áī¦áĬķ
ĠáĪįáĭ°áīµ
ĠáĬĳ
ĠáĭĿáī°áī£áĪħáĪĪ
Ġáī°áĮĪáĭŃáĪ©
vi
Ġáĭĵáī¢áĭŃ
áĭµáĪļáīµ
ĠáĬ¨áĭ°
Ġáĭĺáīķ
Ġáįĥ
Ġáī°áĮĭáĪ©
áĪĽáĪµ
ĠáĮĪáī¥áĪ¨
ĠáĪĵáī¢áĪ®áĪĿ
Ġmore
ĠáįįáĮ¡
áįĲ
áĭ°áĪĻ
ĠáĪĵáīħ
áĪ«áĭķ
ĠáīĬ
ĠáĭįáĭķáĪį
Ġáīĳ
áįĪáĬĴ
áĮĭáĮ¥áĪĿ
áĬĸáīµ
áĪ©áĬĴ
ĠáĬ£áĭŃáīµáĬ½áĬ¥áĪįáĬķ
ĠáĭĿáĪµáĭķáī¡
áĪ¨áĮĪ
ĠáįįáĪ½
ĠáĭĿáī°áĭĵ
áĪ°áĪŃáĪĲ
áĭįáĭĵ
Ġáī¥áĬ¥áĪĿáĬĲáīµ
ĠáĬŃáīµáīħ
ĠáĬŃáĪįáī²áĬ¡
áĭķáĭİ
áĬ½áĭİ
ĠáįĪáĪĭ
ĠáĪµáĪ«áĪķáī²
ĠáĮĪáĮ¹
áĭĿáĪĴ
áĭįáĬķáī²
Ġáī°áĮĭáĭ³áĪĭáĭŃ
áīµáĬ¡
ĠáĪĺáĪįáĬŃ
ĠáĪĵáĪĭáįĬ
ĠáĭĿáĬ¾áĬĲáīµ
ĠáĬŃáįĪ
áĮĪáĪ²
áĪ³áĪ°
ĠáĬ¥áīµáī¥áĪį
Ġáīµáī¥
áĪ©áĭķ
ĠáĬķáĪĿáĭķ
ĠáĮĴ
ĠáĭĺáĭµáĪįáĭ¨
áĭĪáĪĿáī²
ĠáĬ£áĭŃáĭ°áĪįáĬķ
áĪĴáī±
ĠáĮįáī¥áĪŃ
áĪħáĪĭ
áĬ©áĪĿáĭİ
ĠáĮĲáĭŃáī³áĭŃ
ĠáĭŃáĪĺáĮ½áĬ¥
ĠáĪļáĪĬ
ĠáĭµáĪŃ
ĠáĬ£áĭĭáĪįáĭµ
ĠáĪħáĮ»áĬķ
áĪľáīµ
ĠáĭĿáĪĵáĪĪáįī
ĠáĪĿáĭĿáĪ«áī¥
ĠáĪķáĮīáĪµ
ĠáĪĿáĬŃáĪįáĬ»áĪį
ĠáĪµáįĸáĪŃáīµ
áĭİáīµ
ĠáĬ¸áī°
ĠáĪĺáĪ«áĬ¸áī¢
ĠáĭĿáĭĢáĬĳ
Ġáī°áĪĵáī¢áĪ©
áĭĺáĪŃáĪĭáĬķáĭµ
ĠáĮ½áĪįáĭĭ
Ġáī¥áĭĺáĭ¨áĮĪáĭµáĪµ
áī£áĪ«áĭĬ
ĠáĪĵáĭĺáĬķ
áĭ°áĪįáī²
áĬ«áĭĬ
áĪ³áī°áįį
ĠáĪĵáĭ°áĮĪáĬĽ
áĪħáĪįáĭİ
áī°áī±
ĠáĭĪáĭ±
áĬ»áī¥
áīķáĪª
ĠáĬ£áĪĿáĪį
áĭįáĪĿ
ĠáĪļáĬ¥áī²
áĬĲáīķ
ĠáĮĢáĮĭáĬĳ
ĠáĬ¨áĪĪáĭī
áī¢áĪ²
ĠáĭŃáĪĺáĪµáĪĪáĬĴ
ĠáĪĿáĪµáīµ
he
Ġáĭĺáįįáīħ
ĠáĭĪáįĥáĬ¢
ĠáĬ¥áīµáĬ½áĬ¥áĪį
ĠáĪĺáĬķáĮįáĪµáīµ
áĮĪáĪįáĮįáĪī
ĠáĬ£áĭįáĮº
ĠáĬ¨áĪĪáĬĵ
ĠáĪ°áĪĭáĪĿáĬķ
ĠáĭĿáĭĽáĪ¨áī¥
áĬ¢áĪī
ĠáĪŀáĭŃáī±
ĠáĪµáįįáĪ«
Ġáĭ¶áĬŃáī°áĪŃ
ĠáĪĺáĮĵ
ĠáĭĪáĭĺáī°
ĠáĬ®áĭŃáĬĲ
Ġáī¥áĪĺáĬķáįĪáĪµ
ĠáĬĲáĮ¥áī¥áī³áīµ
áĪŃáĭİáĪĿ
ĠáĭļáĮĪáī¥áĪŃ
Ġáī¥áĪĿáĪķ
ĠáĪĺáĪŃáĮĪ
ĠáĬ£áĭįáĪ«
ĠáĮ¾áĪĿ
ĠáīłáĪ¨áĬ¸áīµ
ĠáĬķáĭ¨áĪ±áĪµ
áĬŃáĭ«
áīķáĬĵ
ĠáĭĺáĭŃáĬŃáĬ¥áĪį
áįĭáĪŃ
áĪŃáĬ¨áī£
áĭ¥
ĠáĪĵáĬªáĪĿ
áĬ¢áī³áĭĬ
ĠáĭĬ
áĬķáĪ±
ĠáĬ¥áĭ°
áĪĺáĮ¸
Ġáī¥áīĵ
ĠTigr
áĬĲáĬ½
áĬĲáĮ½
áįĪáĪįáĭ¨
ĠáĬ£áĭŃáĬ¨áĬ£áĪĪáĬķ
áĪŃáĬĴ
ĠáĪĺáĮºáĬ¦áĪĿ
áĪĺáĮ½
áĭĭáĪħ
Ġáĭ¨áĪķ
áĬĵáĭ³
ĠáĪķáĭµáĪª
ĠáĮ¥áīħáĪĿáī²
Ġáī¥áĪªáĮ£áĬķ
ĠáĪµáĬķ
áĭĳáĬĴ
Ġáĭµáĭ®áĪĿ
áĪµáīµáĪŃ
ĠáĭĿáī£
ĠáĪĿáĪģ
áĪ¨áī°
ĠáĪķáĮĪ
áĭĪáĪµáĭ°
ĠáīłáĮĥáĬ»
ĠáĬ«áī£áĭŃ
ĠáĬĲáīłáĪŃáī²
áĪķáĮįáĭĺáĬ«
áĪ³áĪį
áĪ¨áĮĭáĮį
ĠáĬŃáĪħáĪįáĭİ
ĠáĭĪáĪ³áĬĴ
áĪ¨áĬ«
ĠáĭĿáĪ°áĪĽáĭķ
ĠáīłáĮ½
ĠáĪĥáĭĭáĪŃáĭ«áīµ
ĠáĬ¥áĪĿáī¥áĬ£
ĠáĬŃáĬķáĬŃáĬķ
ĠáĪĿáĪµáī°
ĠáĭŃáĬ¸áĭŃáĭµ
áĮ¥áĭĵ
ĠáĪĺáĪĽ
ĠáīĽ
ĠáĬ«áī¥áī°áĬķ
áĪĪáĮ¡
áĮ½áĬ¦
ĠáīłáĭŃáĬĳ
ĠáĭķáĪ½
Ġáī°áī³
áĪ°áĭŃáī²
ĠáĪĥáĮĪáĪŃáĬķ
ĠáĭĪáĮĪáĬĵáīµ
áīµáĪĿáĪħáĪŃáī²
ĠáĬªáĭµ
ĠáĭĵáĪ»
áĭĭáĪµ
ĠáĬ£áĬĵ
ĠáĮ»áĭµ
ĠáĪŃáĮįáĮ¸
Ġáī°áĪ°áĪĿ
ĠáĭµáĪĮáīµ
áĮ½áĭķ
ĠáĬ£áĭŃáīł
ĠáĬķáĬ¥áĪµáĪ«
áĪŃáĭ³
Ġáĭĺáīł
áīłáĪįáĬ©
ĠáĬķáī¥áĭĻáĪĵáīµ
ĠáĬ¨áĭį
ĠáĪ½áĮį
áĪįáįį
áĮįáĬ¡
ĠáĪŃáĬ¥áĪ¶áĪĿ
ĠáĪĽáĬķáĪĿ
áĬĲáĭŃáī²
ĠáĭŃáĭķ
áĪµáī°áĭŃáī²
áĬŃáĪįáī°
ĠáīģáĮłáī£áĭĬ
ĠáĪº
ĠáĬ£áĪķáĪĬ
ĠáĬ£áĭŃáĬŃáīµ
áĮ½áĪķáįį
ĠáĬ£áĭĭáĮħ
ĠáĭĿáĬĵ
ĠáĬ£áĭŃáĭĪ
áī¤áī°
ĠáĬ£áĮĨ
áī¦áĭŃ
ĠáĭĿáĬ¨áĬ£áĪį
ĠáĬķáįĭáĪµ
áĪĬáĬķ
ĠáīħáĭĭáĪĿ
Ġáĭ°áīĢáĬķ
ĠáĭĿáįįáĪĪáĮ¥
ĠáĪ°áĬĲáĭµ
ĠáĬ¥áĬ½áĬ¥áĪį
Ġáī°áī°
ĠáīĢáĭ³áĪĺáĭŃáī²
Ġáī°áĭĭáĪĤáī¡
ĠáĬ£áĪ¸
áįĪáĪŃáī²
ĠáĪĵáĪĿáĪĪ
ĠáĬ¥áĬķáĭµáĪķáĪŃ
Ġ33
áĮįáī£áĬ¥áĬķ
ĠáĬ«áī£áĬĵ
ĠáĮ¥áīķáĪļ
ĠáĪĽáĪķáīłáĪ¨áĪ°áī¥
ĠáĪĭáĭķáĪĪáĭĭáĭŃ
24
áĪĪáĪ°
áĬ£áīµáĬķ
áĭµáĪµ
áĪĴáīµ
Ġáī°áįĪáĮ¥áĪ®
Ġáī°áĮįáī£áĪ«áīµ
ĠáĭįáĪĳáĭ³áīµ
áīłáĭ©
áĮ½áĭĵ
ĠáĬķáĪĿáĮį
ĠáĭĿáĬĲáīłáĪ«
ĠáĬ£áĭŃáĬ°áĬķ
ĠáĪĺáīłáĮĪáĪ²
áĭŃáĪŃ
áĪĳáīµ
Ġáī³áĪķáĪ³áĪµ
áĪĪáĪĪ
ĠáĪĵáĪ¨áĪµ
áĪµáĪķ
ĠáĪįáī¥áĬĵ
ĠáĪķáĪŃáĪ»
áĪ«áĭįáĭ«áĬķ
áįĪáĪĪáĮ¥
áĭµáĬ¡
Ġáī¥áĪĵáĭµáĪ½
ĠáĭĿáĪĺáĮ¹
áĪĿáĪ©
ĠáĭĿáīµ
ĠáĬŃáĪĺáĪŃ
ĠáįĴ
áĪĺáĬĳ
áĬ«áĬ¤áĪį
ĠáĪ¨áĬºáīł
áĬķáĭĽ
áī¥áĭĵáī°
Ġáī¥áĮ¹
áĮįáĪ¶
Ġáī°áĪĺáĪŃ
ĠáĭĪáĪ°áĬķ
ĠáĪ°áī¥áĬ¡
áĪ°áĪµ
ĠáĪĿáīµáĬ¥
ĠáĮįáīłáĪ©
áĮĭáĭĿ
ĠáĪħáĭ«áī¥
ĠáĪ°áĭ²
Ġáĭ°áĪŀ
ĠáĭĿáĮĪáĪĪ
Ġáī¥áīĲáĪĬáĪī
áĪįáĪļ
ĠáĭĺáĪİáĬ¹
áĬķáĮ»áĪ©
áĮłáĭŃ
Ġáī°áĪĺáĪ«
ĠáĭļáĪķ
áĬ®áĬĸ
ĠáĬķáĬ¥áĮįáĭļáĬ£áī¥áĪĶáĪŃ
áī²áĬķ
áĬĲáī°áĭŃ
ĠáĬ¨áĪĿáīµ
áįīáĬķ
áĮ¸áĮį
Ġáī°áĬ£áĪĿ
ĠáĪķáĪīáįį
ĠáĭĿáĪ°áĪŃáĪķ
ĠáĪĺáĪ¨áĭ³áĬ¥áī³
ĠáĪ°áĪİáĪŀáĬķ
ĠáĬłáĬķ
ĠáĪ°áĪĽáĭŃáĬķ
ĠáįįáĪīáĮ¥
ĠáĪĿáĬŃáĬķ
ĠáĬ£áĪĽáĪ«áĮº
ĠáĬķáĬ©áĪī
áĭĳáĬķ
ĠáĪŃáĪĳáīķ
ĠáĬŃáĮĪáī¥áĪ©
ĠáĮķáĭ³áĭŃ
Ġáī¥áĭļ
Ġáī°áĪĺáĪĬáĪ±
Ġáĭ©áĬĴáī¨áĪŃáĪ²áī²
ĠáĪĿáĪħáĪĭ
áīµáĪ«
áįįáī³áīµ
ĠáĪ°áĪŃ
Ġáĭ°áĪŃáįĬ
ĠáĮįáĭ´
ĠáĬ£áĬķáī¢
ĠáĪįáī¥áĬ»
ĠáĬĸáĪŃáĭĪáĭŃ
ĠáĬ£áĪĥ
áĬ½áī¥
áĬ¨áĪµ
ĠáĬªáĭĢáĬĳ
Ġáī¥áĪĻ
ĠáĪĿáĮħ
ĠáĬ¥áĬķáī°áĭ°áĬ£
ĠáĬ£áīµáĪĴáĭĻ
áĮĭáĪį
ĠáĭļáĬĲáī¥áĪ©
áįīáĬ¥
áĪīáĪµ
ĠáĪ³áĪĭ
ĠáĪĵáĬķáĪ³áī¥
ĠáĭŃáĬ£áĬŃáĪį
áĮĪáĪįáĮ¹
ĠáĬ£áĪĽáĪį
ĠáĬ£áĭĴáĬķ
áĬ¥áĪ°áĭŃ
ĠáĬ£áĭµáĪĭáĭª
tion
ĠáĪĵáĭ³áĪµ
ĠáĪĺáĬ½
ĠáĪįáī¡
ĠáĬ»áĪįáĬ¥
ĠáĭĿáī°áĮĪáī¥áĪ¨
ĠáĭįáĪ½áĮ£áĭĬ
Ġáī°áīĲáĪļ
ĠáĬ¨áĪĭ
áĮĭáĪŃ
áĭ¶áĬķ
Ġáī°áĪĿáĪĥáĪ®
ĠáĬķáĬĲáįįáĪ²
áĪįáī£
ĠáĬķáĬ©
ĠáĬ¨áĭŃáĬķ
ĠáĪļáĭ«
ĠáĮİáĬķ
ĠáĬŃáįĭ
áĪĺáĮ¹
áĭ±áĪ½
es
áįįáīµáĬķ
áĮłáīĲ
ĠáĪķáĭ³áĪŃ
ĠáĮįáĮ¥áĪļ
ĠáĬŃáīł
áĮĪáī¥áĪ«
Ġáī¥áĪīáĮ½
ĠáĪ°áī¥áĬķ
Ġ2019
áĭµáĭİ
ĠáĭĵáĪĪáĪĿáĪĪ
ĠáĭĿáĬ¸áįįáĬł
ĠáĪĽáĪĪ
ĠáīħáĭµáĪĺ
Ġáīłáĭ°
áĪĥáī¦áĪĿ
ĠáĮ½áī¥
áĪŀáĬŃáĪ«áĪµáĭ«áĭĬ
áĮģ
ĠáĬķáĭ°áĪĬ
Ġáĭ²áĬ¹áĪĿ
Ġáī£áĪķ
ĠáĭįáĪįáīĥáĭĬ
ĠáĭĿáĪĥáī¦
áĪĥáĪ«áĭŃ
ĠáĮłáĮłáĭį
ĠáĬłáĪİáĬ¹
ĠáĭĿáĬ½áĪª
ĠáĬķáĭ³
áĭĭáĪ©
ĠáĮ½áĪį
ĠáĬ£áĬĲáĪµ
ĠáīĨáĮ¸áĪ«
ĠáĪĿáĭīáī³áīµ
ĠáĭĿáĪĥáī¥
ĠáĬĶáĪ®áĪĿ
áįĪáĪĭáĪĪáĭ©
ĠáĬłáī¥áĭļ
ĠáĪķáĮįáī³áīµ
ĠáĬ¥áĬķáī°áĭĢáĬĲ
ĠáĭĺáĪĪáĬ«
ĠáĪĺáī¥áĭĽáĪķ
ĠáĪĿáĬ»áĬĳ
áĬĵáĭįáĭ«áĬķ
áĪ«áĪµ
áĮĪáĪ©
áĪīáĭį
ĠáĬ£áĭŃáĬ¨
ĠáĬŃáĪĬ
ĠáĬŃáĮĪáī¥áĪ®
áĪ«áĪª
áĪĵáĭĺ
Ġáĭ¨áĮį
áī³áī°áĭŃ
áĪĺáĪĥáĪŃ
áĭ©áĬĴ
áĮ¸áĪī
ĠáĭĿáĭĪáĪ°
áĬ®áĬĳ
Ġáī³áĭŃ
ĠáĬķáĪµáĭµáĪ«
ĠáĬ¥áī£
áĪĪáįį
áĭķáĬĵáĬķ
Ġáī°áĪŃ
ĠáĭŃáĪĺáĪŃ
ĠáĪĺáĪ²áĪī
áĪ¨áĬ©áĪĿ
ĠáĬ«áĪħáĬĵáīµ
ĠáĬ©áī£áĬķ
ĠáīħáĪįáĭįáĪĭáĭį
Ġ35
ĠáĬķáĬ¹áĪİáĪĿ
áĪªáĬ«áĬķ
áĬ®áĪŃ
ĠáĬķáĮĪáī¥áĪŃ
áĪĭáĪĭ
áīĭáĪŃ
áĬ¥áĬķáī°
ĠáįĪáī°áĬĲ
ĠáĬķáĭ¨áĪĨáĭĭ
áĭĭáĪķ
áĮĭáĪµ
ĠáĬ£áĪįáī¦
ĠáĭŃáĬ¥
áĬŃáĪĪ
ĠáīłáĭŃáĬķ
ĠáĪŃáĬ¥áĪµáĬĵ
áĭħáĪī
ĠáįĭáĭŃ
ĠáĬ¥áĭĭáĬĵáĭĬ
ĠáįĪáīµ
áĪĵáĬķáĪµ
ing
áīĬ
ĠáĬ£áĭµáĪ«
áĪªáĪµ
ĠáĬ£áī¦áī³áīµ
ĠáĪĵáįį
ĠáĬ£áĪĿáĪĭáĬŃ
ĠáīłáĮºáĪĳ
ĠáĬ£áĪĿáĪĭáĬ½áĬķ
ĠáĪħáĭŃáĭĪáīµáĬĵ
Ġáī°áīĸ
ĠáĪŃáĬ¥áĭ¨
áĪħáīłáĬ«
ĠâĨ
ĠáĬĲáįĭ
ĠáĬ©áĬĲáīµ
ĠáĪĽáĪķáīłáĪ«áīµ
ĠáĭĵáĪĺáĮ½
áĪįáĭĪ
ĠáĪĽáĭķáĮ¾
ĠáĭĺáĪĪáĬ£áĪĪáĪĿ
áĭ±áĬ¥
áĬ¥áĪĿáĪ®
ĠáĬ£áī¥áī°áĬķ
áīłáĪİáĪĿ
ĠáĭĵáĬķ
áĭįáĭĴ
Ġáĭįáįħ
ĠáĪĿáĪįáĬŃáī³áīµ
ĠáĭŃáī¥
ĠáĭµáĬķáĮį
áĮ½áĪĬ
ĠáĬĲáĭŃáĪŃáĭİ
ĠáĮĢáĬĲ
ĠáĬ£áĭ¨áĭµáĪįáĭ¨
Ġáīµáī¥áĪī
ĠáīµáĪŃáĬ¨áī¥
Ġáĭ°áīĴ
áĮĢáĪĺ
ĠáĮĢáĪļáĪ®áĪĿ
ĠáĪĺáĭĿáĮĪáī¥
ĠáīµáĬķáī¢áīµ
ĠáĭµáĪĮ
áĪ³áĪ²
ĠáĬ£áĮĪáĭ°
áĬĶáīµ
ĠáĪĺáĬķáīłáĪŃ
ĠáĬ£áĭĿáĭ¨
ĠáĭĿáĬ£áī°
ĠáĪ¾áī¥áĭĵáī°
áĬ¥áī±
Ġáĭ¨áĪĪ
ĠáĪ¸áī¶
ĠáĬĲáĮ»áĬĲáīµ
áĪįáī¥
áĪįáĮł
ĠáĪħáĮ¹áĮ½
áįįáĪķ
ĠáĪ°áĪ«áĪķáī°áĬĽ
áĬĲáĬĵ
ĠáĬķáĪµáĬº
ĠáĪ¸áĪŀáĬķáī°
áĬ©áĬ¹áĪĿ
ĠáīģáĮłáī£
ĠáĬķáĬŃáīµ
ĠáĭĵáĪµ
ĠáĬķáįĪáĪĪáĪĽ
áĭŃáĪ®
áĪħáĭĪ
Ġáī°áĪĺáĪĪáĪµ
Ġ<
...]
Ġáī¥áī°áĪĺ
ĠáĬ£áĪİáĭİ
ĠáĬķáĪĿáīķ
Ġ[...]
áĪ«áĪŃáī£
ĠáĮ¥áįįáĬ£áīµ
Ġáī¥áĪªáĮ£áĬķáĭ«
ĠáĭĿáĪħáī¥
ĠáĬ¥áĬķáĬŃ
áĬ£áī°
áī¥áĪŃáĪĥ
áĮ»áĮ¸
ĠáįķáĪ®áĮįáĪ«áĪĿ
Ġáĭĵáĭįáĭ²
ê¬
áĬ¨áĪĺáĭŃ
ĠáĪħáĪį
Ġáĭ²áĪŀáĬŃáĪ«áĪ²
ĠáĮįáĭ²
ĠáĭĲ
áĭ«áĪŃ
ĠáĪĿáĬķáī£áĪ©
ĠáĬķáĪ½
Ġáī°áĮĭáĭ°áĪįáī²
áī¡áĪµ
ĠáĬ£áĪħáĮīáĪ«áĭĬ
ĠáĬŃáĬ«áĭ¨áĭµ
ĠáĪĵáĭ°áĪµáī²
ĠáĭĵáĪĺáī°
áĪŃáĬ¥áĭŃáĭİ
ĠáĪµáĪŃáĭĵáī°
Ġ2013
áĮĭáĪĬ
ĠáĬŃáīµáĪķ
ĠðŁ
ĠáĬ£áĪĿáĪĭáĬ¸áĭŃ
Ġáī¥áįģ
ĠáĬ£áĭŃáĪĺ
áĭĽáĬ¥áī²
áĪķáĮįáĭĻ
áĬ©áĪ®
ĠáĬ£áĪİáĬ»
áįĭáĪ½
ĠáĪĥáī¥áī³áĪĿ
ĠáĭŃáĪŃáĬ¨áī¡
ĠáīµáĮĪáī¥áĪŃ
ct
ĠáĪĥáĬķáĭ°
ĠáĬ¥áī°áĭĪ
ĠáĬ£áĪķáĪĬáįī
áĪħáīłáĬĵ
ĠáĬķáī£áī¥
li
ĠáĪĺáĬ¥áī°
ĠáĮİáĪ¨
áī£áĪįáĬĲáīµ
áĪĿáĪĿ
ĠáĬķáĬ¤
ĠáĬķáīĵ
ĠáįĪáĪ¨áĬķáĪ³
ĠáĭĿáĪ°áĪŃ
áīĵáīµ
Ġáī´áĬŃáĬĸáĪİáĮĤ
ĠáĬ£áĭĽ
ĠáĪĿáīģ
ĠáĪµáĭī
áĭ²áīµ
áĮ¥áįįáĬ¥
ĠáĬķáī¥áĪį
áĭķáĪī
Ġáīħáĭ³
ĠáĪĿáĭµáĪĵáĬķ
ĠáĪĺáĬķáĮįáĪ¥
ĠáĬ¾áĬĲ
áĮ¸áīł
ĠáĬ¥áĬķáī°áĭĪ
áĪ¨áĮĭáĮįáĮ½
áĮ»áĪķáįĪ
ĠáĬ£áĮĢ
áĪªáĬŃ
Ġáī°áĪĺáĪĥáĪ®
ĠáĭĭáĬķ
ĠáĬ£áĮĪáĭ°áĪµáī²
áī³áĭįáĬķ
áĬ£áĭ©
áĭµáĭµ
ĠáĪĵáĭĪ
ĠáĭµáĪķáĪŃáĭļ
ĠáĬ«áĪĬáĬ¥
ĠáĭĺáĭŃáįĪáĪįáĮ¥
ĠáĮĢáĪĺáĪŃ
ĠáĬ£áĭµáĪĭáĭŃ
áĪµáĬ¹áĪĿ
Ġáīĸ
áįĪáĭŃ
áīĥáĭĪ
Ġ2015
ĠáĮłáįĬáĬ¡
ĠáĮłáĬķáīĤ
ĠáĪĵáī£áĪ«áĭĬ
áĭ¨áĪĪ
ĠáĪķáĪĻ
Ġáī¥áĪĿáĭį
ĠáĭĿáĭĪáĪĥáī¥
Ġáī°áĭĪáĪ²
ĠáĬ¨áĪĿáĭĺáĪĪáĭİ
ĠáĬķáĪĺáĮĢáĪĺáĪŃ
ĠáĬķáĪĵáĭµáĪķáĭ¶áĪĿ
ĠáĬ£áĭŃáĬĲáīłáĪ®áĬķ
áĭ¨áĬĵáĭŃ
áĪµáī°áĬķ
ĠáĭĿáĭĪáĮ¸
ĠáĬ£áĪĺáĪįáĬª
Ġáī°áĭĽáĪª
áī¥áĭµ
ĠáĮįáįį
Ġáī¥áĭĻáĬħ
ĠáĪµáĭµáĪ«áī¤áīµ
áĭįáĬĵ
ĠáĬ£áĭŃáĮįáī£áĬ¥áĬķ
Ġáīłáĭĵ
ĠáĪħáĬķáĮ»
ĠáĭĺáĪİáĬĴ
ĠáĪĿáĪĿáĪĭáĪµ
áĪİáĪĽ
ĠáĭŃáĪ°áĪŃáĪķ
áī¥áĪŃáĬķ
ĠáĬ£áĭŃáĬ®áĬĲáīµáĬķ
áĬŃáĬ¥áĪī
Ġáī°áĪªáįī
áĪĻáĬĵ
ĠáĪħáĭŃáĭĪáī±
ĠáĭĵáĪŃáī¢
ĠáĭĿáĮĪáĪįáĮ½
áĬ¸áīµ
Ġáĭļáĭį
ĠáĪ¥áĮĭ
Ġáī°áĬ£áĪ²
Ġáī°áīłáĮĬ
ĠáĭĺáĭµáĪįáĭ®
ĠáīµáĬ¸
Ġáĭ®áĪĥ
ĠáĬ£áīĥ
Ġáĭĺáī¥áĪį
Ġáĭ°áĮĭáĮĬ
ĠáĬķáĪŃáĬł
ĠáĮįáĭ³áĭŃ
ĠáįĭáĪķ
ĠáĬĵáī£áĬ»
ĠáĬŃáī¥áĪ¨
áĪĽáĪļ
áīĢáĪŃ
áĪĿáĮ½áĬ¥
áĭŃáĭ±
áĪįáĭ®áĪĿ
ĠáįķáĪ¬
ĠáĬ¥áĬķáīłáĪŃ
áĪ©áĬĵ
áĬ¨áĪĭáĬ¸
ĠáĪ½áĪĿ
Ġáī¥áĭĿáīłáĪĪ
ĠáīłáĪįáĬ©
ĠáĪ©áĪµáĭ«
Ġáĭ°áĪĬáĬ»
Ġ=
ĠáĬ¸áĪĺáĭŃ
ĠáĬ¥áĭĭáĬĵáīµ
áĭĽáĪŃ
ĠáĪĿáĬķáī£áī¥
ĠáĬĲáī¥áĭª
Ġd
ĠáĪĺáĪĺ
áĮ¸áĭŃ
Ġáī¥áĭĽáĭķáī£áĬ¡
áĮłáįįáĬ¡
ĠáĬ¥áĬ½
ĠáĬŃáĭ³áĬķ
áĬ£áī³
ĠáĪĿáĪ½
ĠáĭĿáī°áĪ¨áįĪ
áĪĻáĬĴ
áī¥áĪĪáĬĴ
ĠáĭĦáĬķáĬ«
áĪĪáĭ©
áįįáĪ¨
áĮįáĪª
áĭ³áĪĪáĭĪ
ĠáĪķáĬķ
ĠáĬ£áĪ½áĪĵáīµ
ĠáĮĪáĬķ
ĠáĬķáĬ¥áĬ¡
áĬŃáĪŃáĪµáī²áĭ«áĬķ
ĠáĬ£áĭµáĪ«áĪ»
ĠáĪĵáī°áīµ
ĠáĪ°áĪĭáĪĽáĭĬ
ĠáĪļáĬĴáĪµáīµáĪŃ
Ġáī°áĪĺáĬķ
áįĥáĬ¥
ĠáĪ°áī¥áĬ£áĭŃáĬķ
ĠáĪĵáĭ³
ĠáĬ¸áĪĿáĬ¡
ĠáĮĮáĪŃáĬ©áĪĿ
áī¥áĬ©
áĪįáĭİáĪĿ
áĬĲáīłáĪ©
áĪ°áĭ«áĪµ
áĪĬáĬĵ
Ġáī¥áĪĵáĬķ
ĠáĬĶáĪ¨
áĪŃáĬĲáīµ
ĠáīłáĭŃ
áĮ»áĪĿ
ĠáĮħáĮįáĬĵ
et
áĪĪáĮł
ĠáĬķáīħ
ĠáĭįáĪŃ
ĠáīĢáĪª
ĠáĪĪáī£
Ġáī¥áĭĺáĪİ
ĠáĪĿáĬ»áĭµ
ĠáĬķáĬ¥áĮįáĭļáĬ£áī¥áĪĦáĪŃ
Ġáī¥áĪĿáĬ¥
áī¥áĪ¨áĪī
ĠáįĵáĪŃáī²
Ġáī£áĬķáĬŃ
ĠáĭĿáįĪáīµ
áĭĪáĭ²
áĬĴáĬķ
ĠáĪħáĪĭ
ro
ĠáĪĿáĪµáĪĽáĭķ
ĠáĭĿáīłáĪįáĬ«
ĠáĮĭáĭľáĮ£
ĠáĬŃáĪ¨
ĠáīµáĪŃáĬ¢
ĠáĮ¸áĪ¨
ĠáĬķáĪĿáįįáĪĭáĮ¥
ĠáĬ£áĭŃáĬ¨áĬ£áĪįáĬķ
ĠáĬ¨áĪĺ
Ġáī¥áīĲáĮ¥áī³
áĮ¥áĬ¤
ĠáĬ£áĮ¸áĮĭáĪļ
ĠáĭĿáīłáĭĿáĪķ
áĪŃáĭķ
ĠáĬ£áĭŃáīµáįįáĪŃ
áĮ»áĭĪáīµ
ĠáĬªáĭ³
Ġáī¥áĪĽáĭķ
áĪĽáĭµ
áĬ«áĪįáĬ¥
Ġáī¥áĪĿáĪį
áĪŃáĬ¨áĭŃ
ĠáĬ¥áĬ¨áĭŃ
ĠáĬ«áĬķ
áĬ¨áĪĿáī²
Ġáĭįáĭ³
áį§'
ĠáĪ³áĬ¦áĪį
Ġáī¥áĭĺáĭŃáĬ«áĭļ
áī¥áĬ©áĪĿ
ĠáĬ£áī³áĭĬ
ĠáĪ°áĪ«
ĠáĮ¸áĮ¥áī³
áĪĲáĮķ
Ġ#
ĠáĬ¨áĬ¨áĪĿ
ĠáĬķáĪĿáĬ¥
ĠáĪĺáĪķ
áĭĿáĬĵ
ĠáĭĪáįįáĪª
ĠáīµáĬ¥
áĮ¢áĪŃ
ĠáĬ£áįįáĬķ
ĠáĬ»áī£
Ġáī£áĪħáĪŃáĭ«áīµ
áī¥áĪĬ
áĪīáĭŃ
ĠáĬĲáī¦
áįĶ
ĠáĬĲáĭŃáĪŃáĬĵ
ĠáĭŃáī¥áĪĪáĬĵ
áĬķáĪķáĬĵ
áĭ°áįį
ĠáĭķáĪĭáĪį
áĬłáĭŃ
áĪĳáĬķ
ĠáīłáĪĪáī¶
áĪ®áįĵ
ĠáĬ£áįįáĪĬáĮ¡
áī¥áĬĵáĭ®
ĠáĬ£áĪ°áĪ«áĪŃáĪĵ
Ġáī¥áĬķáĮ¹áĪŃ
áīħáĪį
ĠáĬ£áī£áĭŃáī²
ĠáĪĿáĬ½áĬķáĭ«áī³áīµ
ĠáĪĵáĪĪáĭĭ
ĠáĪ¶áĪŃáĭ«
ĠáĬķáīłáĭŃ
áĭĭáĬ¥
ĠáĬ¨áĪĿáĭĿáĬĲáīłáĪ¨
ĠáĮłáĭį
ĠáĬ£áĭįáĪµáīµáĪ«
ĠáĬ£áĪĿáĮº
ĠáĬ¥áĪ±áĪ«áīµ
ĠáĮĤ
áįħáĪį
ĠáĬķáĭ°áīĢ
ĠáĭŃáĮįáīłáĪ¨
ĠáĬķáĭĤ
áī¶áĪĬ
áĪŃáĬ¥áĭŃ
áĪĮáįİáĬķ
ĠáĬ£áĪĽáĪįáĬ½áī²
Ġáĭ¨áĮįáĭ³áĪµ
ĠáĭĿáĪĿáĪįáĬ¨
Ġáī°áĬķáĪµ
áĮĭáįį
ĠáĪįáī¦áĪĿ
Ġáī¥áĪĿáīķ
Ġáī°áĮĪáĪĬáįģ
ĠáĪļáĬ¥áī³áĭĬáīµ
áĪªáĬ¡
ĠáĪĺáĭĵáĪįáīµáĬķ
ous
ĠáĭĪáī°áĪĥáĭ°áĪ«áĭĬ
ĠáĭļáĮĪáĪįáĮ½
ĠáĪ¨áĭµ
ĠÂ·
áī¥áĭİáĪĿ
ĠáĬ¸áĪĪáĭī
ĠáĬŃáĬķáĭµáĭļ
ĠáĪ¬áĪ³
ĠáĪµáĮįáĬ£áīµ
el
ĠáĪĺáĮ¹
áįįáĮ¸áĪĿ
ĠáĬķáĪĿáĭĿ
áĪŃáīµáĭĸ
Ġáī¥áīķáĭĵáīµ
ĠáīµáĪ½
Ġáī°áĪ°áĪª
ĠáĬ¨áĭŃáī°áĪ¨áįĪ
ĠáĬŃáĬ¥áĪĪáīµ
ĠáĬ£áĪĿáĪįáĬ¾
áĪ«áĪ½
áĪĻáĬ¤áĪį
ĠáĪŃáĬŃ
ĠáĪħáĭŃáĭĪáīµáĬ«
ĠáĬŃáĭĪáĪµáĭµ
ĠáīµáĭĿ
ĠáĪĺáīĵáī¥áĪŃ
na
ĠáīĢáĬķ
Ġáī¥áĪĵáĭŃáĪĬ
Ġáī¥áī°áĪĺáĪ³áĪ³áĪĬ
áĮ½áĬĵ
ĠáĪŀáĭŃáī¶áĪĿ
áĪįáī¢
ĠáīħáĪį
áĪĿáĪįáĪµ
ome
áĬ®áĬĸáĪļ
ĠáĭĪáĮĭ
Ġáīµáĭį
ĠáĬ¨áĬķ
áĬ«áĪįáĬ¦áīµ
ĠáĪĿáĬŃáīµ
ĠáĬ£áī¥áī¶áĪĿ
áĪ®áĪµ
áĬĲáīµáĬĵ
ĠáĬ»áī¥áī²
ĠáĭŃáĬ¾áĬĳ
áĮĭáĪ«
ĠáĭĿáī°áīł
ĠáĭĵáĪĺáī³áĭĬ
ĠáĭĿáīĳ
ĠáīĢáĭŃáĪķ
ĠáįĪáĪ¨
áĪĨáĪĿ
ĠáĪ°áĭįáĪ«
Ġáī°áįĪáĮ¢áĪ©
Ġáī¥áĭĵáĭŃ
áĬŃáĪ©
áĬŃáĭİáĪĿ
Ġáī¤áīµáĬ«
ĠáĬ£áĭŃáīµáĪķ
ĠáĭĭáĪķ
áĬµáĪī
ĠáĪĺáĬ¥áī°áĭĬ
Ġáī£áĭķáĪĪáĭŃ
ĠáĭĺáĮĪáĪŃáĪĿ
ĠáĪķáĭµ
Ġ34
ĠáĪĿáĬ¥áī³áĭį
áĮķáĪĿ
ĠáĭĪáĮºáĬ¡
Ġáĭ¨áĭµáĪįáĭ¨áĬĵ
áĭ°áĮĭáĮĭáĪļ
Ġáī°áĪįáĬ¥
áĭĵáĪĺ
Ġ"'
áĪ±áĪĿ
Ġáī¥áĪĿáĪĿ
ĠáĬ¥áĬķáīĭáĭķ
ĠF
áĭ«áĪ½
ĠáĬ¸áĭ°
ĠáĬķáĪĻáĪ´
Ġáĭļáīķ
áīĦ
áĬ«áĬĴ
ĠáĪĵáĭĭáĪŃáĭ«
ĠáĭĵáĪĿ
áįįáī³
ĠáĭŃáīħ
áĮŃáīµ
áĮ¤
ĠáĪĺáĭļ
tic
ĠáĮĪáĪĿáĮĭáĪĿ
ĠáĪļáĭ«áĭĿáĭ«
ĠáĭµáĬķáĮįáĪį
áĮ¸áĪĪ
áĪĭáīµáĬ©áĪĿ
ĠáĪĴáĭŀáĪĿ
ĠáĮĢáĪļáĪ¨
ĠáĬ¨áĪ¨áĬķ
ĠáĭŃáĪħáī¥
áī¦áĬĵ
Ġ2014
ĠáĬķáĪįáĭķáĪĬ
Ġáī°áĪ«áĬ¥áĭ©
ĠáĬ¥áī¥
ĠáĪĺáĪŃáīµáĭĸ
áĪĭáĭŃáĬķ
Ġ38
áīłáĪįáĬ©áĪĿ
áĪįáĮ£áĬķ
ĠáĬ¢áĭ°áĭŃ
ĠáīĢáĭ³áĪĿ
ĠáĪĺáĭĽáĪĻ
ĠáĬ£áĭŃáĬ¨áĬ£áĪį
ĠáĪįáĭķáĪĬáĬ¡
áĭķáĭĿ
ĠáĬĵáī¶áĪĿ
ĠáĭŃáīł
ĠáĬ£áĬ«áĭŃáĭ³
ĠáĬ£áī°áĭĪ
áĮĪáī¡
áĭ®áĪµ
ĠáĭĺáĭŃáĬ¨áĬ£
ĠáĬķáĪµáĬ¹áĪĿ
Ġáī°áĪĺáĬŃáĪ®
ĠáĬŃáĪ²
ĠáĪĿáĭķáĪ«áī¥
Ġáįħáī¡áīķ
ĠáĭĿáĪ¨áĬł
áĭķáĪ¶
ĠáįįáĪ½áĬ½
áĭįáĭĴáīµ
áĬ®áĬķ
áī¤áĪį
23
áĭµáĪĽ
Ġáī°áĪµ
Ġáī£áī¢
ĠáĬ£áĭŃáĬ®áĬĵáĬķ
ĠáĬĲáĮĪáĪµáī³áīµ
ĠáĬķáĪĵáĭĭáĪ©
ĠáĪĵáĬķáĮİ
áĪķáī¥áī£áĪŃ
ĠáĭŃáī¥áĪĥáĪį
áįĭáĪķ
ĠáĮĲáĭŃáī³áĬĵ
ĠáĬķáĪŃáĬ¥áĪ±
ĠáĪĿáī¥áĮ»áĪķ
áĪįáĭ®áĬĵáīµ
ĠáįįáĪįáĪµáĮ¥áĬ¤
id
ĠáĪĺáĪĥ
ĠáĬŃáįĪáĪįáĮ¥
ĠáĭĺáĪİáĬ»
Ġáī°áī³áĪĴ
áĪįáĬ¹áĪĿ
ĠáĪµáĪĺáĭŃ
ĠáĭĪáĮ¸
ĠáĪŃáĮįáĮ½
ĠáĬ¥áĪµáĬª
áĪĺáĪĭáĪĪáĪµ
ĠáĭįáĪħáīłáīµ
áĪįáīĢ
áĪĺáī°
ĠáįĪáĮ¢áĪ©
Ġáī¥áĪķáĮĬ
ĠáĪħáĬķáĭ²
ĠáĬŃáīµáĭĪ
Ġáĭ²áĭ©
áĭįáī³
áĭ°áĬķáīķ
ĠáĬ«áī¶áĪĬ
ĠáĭĵáĪĮ
ĠáĪĤáĭĪ
ĠáĪľáĭ³
ĠáĪķáĮīáĪ³áīµ
áīµáĪĪáīµ
áĪµáĪµ
áĬĵáįį
ĠáĭĺáĮ¸
ĠáĪĿáĭĥáĬĲáĭŃ
ĠáĭĿáīĲáĪ¨áīł
ĠáĭĿáīłáĭĿáĪĲ
ĠáĬ£áĭįáī¶
ĠáĬłáĪİáĬĵ
áī²áĬ«áĬķ
ĠáĭĿáįĪáĪŃ
áĬĲáĬĴ
ĠáĮįáĭļ
ĠáĮįáĭ³áĭ«áīµ
Ġáĭ°áĪ´
ĠáĪĿáĪµáĬ£
ĠáĬ£áĬķáī¥áī¥
ĠáĪĿáĬ¥áĬķáī³
Ġ60
ĠáĪ¨áĬ£áĭ¨
áĬķáĪ³
áĬ©áĪŃ
áĭĽáĭĿ
áĭĸáĬķ
ĠáĪµáĭ°áī°áĬĽ
ĠáĬ£áĮĪáĪįáĮĪáĪį
Ġáī°áĮĢ
áĬĳáĭŃ
ĠáĪĿáĪķáĭ°áĪ«
ĠáĪĪáĭŃáīµáĬķ
áīĭáĬķáīĭ
áĬ¥áĭĪ
áĮ½áĪİ
áįĪáĪįáĮ£
Ġáī£áĭķáĪİáĪĿ
Ġáī°áįĪáĪĬáĮ¡
ĠáĬ£áĪĿáĪĵ
áĬķáĮĭ
ĠáĪĺáĮ»áĬ¥
áįĪáĪ¨
áĮ¦áĪµ
Ġáĭ®áĪĵáĬķáĪµ
Ġáī¥áī°áĭ°áĮĭáĮĭáĪļ
ĠáĪĿáĪħáĪĭáĭī
ĠáĪĵáĭ±áĪ½
ĠáĬ¢áĪĪáĬķ
ĠáĭļáĮįáīłáĪŃ
ĠáĬªáĬ¸
ĠáĬķáĪĿáī¥
áĪĺáĪŃáī²
áĮĵáĪµ
revi
áĪ³áī°áįįáī²
ĠáĬ£áĪ¨áĮĭáĮĬ
áĭĭáĪļ
Ġáī¥áĪĿáīµ
ĠáĬ£áĭĿáĭ«
áĭĪáĪµáĭ¶
ĠáĭķáĪĭ
ĠáĪŃáĬ¥áĪ°áĭŃ
Ġáīħáĭ±áĪ³áīµ
ĠáĪµáĪĿáĭĳ
áįĪáĪįáĮ¦áĬķ
ww
áĬĲáĪī
ĠáĭĵáĪ°áĪŃáī°áĭį
áī°áĪĿ
áįįáĮ½áĪĿ
áĬĽáĬķ
áĮĪáī¥áĪ®áĪĿ
áĪ¨áĬ¸áīł
ĠáĮ»áĭµáīķ
ĠáĪ°áĪĽáĬ¥
ĠáĮ¨áĬķ
ĠMore
ĠáĬĲáī¢áĭŃ
ĠáĬķáįī
ĠáĬ®áĪŃáĭ«
ĠáĬŃáĪĪ
ĠáĬŃáīµáĭķ
Ġáī¥áĬ£áĬķáĮ»áĪ©
Ġáī°áįĪáĮº
Ġ70
Ġáĭ°áīĢáĭŃ
ĠáĬ£áĭķáĪ©áĬ½
áĪĺáĬĵáĬķ
áĭ°áīķ
ĠáĭĺáĭŃáĬŃ
ĠáĪĺáī¥áĪ«áĪħ
Ġáī°áīłáĮįáĪ¶
ĠáĬ£áĭŃáĬ¨áĬ£áĪįáĬ©áĬķ
ĠáĬķáī³
ĠáĬĲáįĪáĪŃáī²
áĪįáĬ«áĬķ
ĠáĪ¨áĬºáī¡
áĪĺáĪĭ
áĮ¥áīħ
ĠáĬŃáĪŃáĪµáīµáĬĵ
Ġáĭ²áįķ
áĬ¥áĬķáĪĨ
Ġáĭĵáī¥áĭŃ
ĠáĪĵáī¢áĪŃáĬĵ
ĠáĬķáĬķáĮīáĪµ
ĠáĬķáī£áĭķáĪī
ĠáĮ¡
áĬ«áĪŃ
ĠáĭĪáī¥
ĠáĪ®áĪľ
ĠáĪµáĪĽáĭķ
ĠáĬ£áĭŃáĪĵ
áĮ»áĭķáī²
ĠáĬ¥áīµáĪŃáĬ¨áī¥
ĠáĬķáĪµáĬ»áĬķ
áĭĪáĪµáĭ±
áĬ£áĬķáĪµáīµáĭ®
Ġáī°áĭĽáĪ¨áī¥
áĬ¥áĪĿáĪĽáĬķ
áĪ°áĪĭ
áīłáĪįáĭĳ
ĠáĬ£áĪĺáĬĵ
áĬķáĪµáĬ»áīµáĬ©áĪĿ
áĪĺáĪµáĮįáĬĲáĬ«
revious
ĠáĬ¨áĭŃáĭ°
áĪĲáīµ
am
ĠáĪĿáī°
áĭĪáĪī
Ġáĭ°áī¥áĪ¨
ĠáĪĿáĭµáĪĭáĭį
Ġáī¥áĭ°áĪ¨áĮĥ
ĠáĪŃáĮįáĮ¸áĬĽ
ĠáĭµáĪĴ
ĠáĬ¸áĬĲ
ĠáĬ£áĭįáĪ®áĮ³
ĠáĭķáĭµáĪļ
áīķáĮ¢
ĠáĪŀáīµáĬķ
Ġáĭ²áĬĵ
ĠáĪĬáī¥áĭ«
Ġn
áīµáĭ©
ĠáĬ¢áĮ£
ĠáĪµáĪĿáĬ«
Ġáī¥áī¥áĭĻáĪķ
ĠáĬĲáįĭáĪªáīµ
áĮĪáĬĵ
ĠáĬłáĬĲ
ĠáĭĿáīłáĮ½
ĠáīħáĭµáĪĺáĭŃ
ĠáĬ£áĪĿáī£
ĠáĬķáĮĪáĪĪ
Ġáī¥áĪĥ
áĬŃáĪ²
Ġáī¥áĪŃáĬŃáīµ
Ġáįįáīĵáĭ°
ĠáīĵáĪĭáīµ
ĠáĬ¬áĬķáĭ«
Ġáī¥áĭĿáī°áįĪáĪĭáĪĪáĭ¨
áĭ³áĪį
ĠáĬ£áĪĿáĪĭáĬ½áĬ«
Ġáī¥áī¥áĭĿáĪĴ
ĠáĭĿáĬ¥
áĪĭáĭįáĬķ
áĭĺáĬĴ
áĮĭáĬ¥
ĠáĬ®áĪļáī´
áĪµáīµáĭ®áĬķ
ĠáĬĥáĮ¢áĬ£áīµ
ĠáĪ°áįĪáĪŃ
ĠáĪķáĪ°
ĠáĪ°áĪļáĭĲ
ĠáīĪáĪįáĭĵ
áĮįáĭĿ
Ġáī°áĪŃáĬ¥áĭ®
áĭµáĪķáĭµ
ĠáĭĵáĪĬ
ĠáīħáĪ©áī¥
ĠáĬķáĪĿáĭµáĪª
ĠáĬ¥áĭ°áĪĬ
ĠáĬķáĭĺáĪİ
ĠáĭĽáĮĬáīµ
ĠáĬ£áĮĪáĪįáĮĭáĪĬ
ĠW
ĠáĬ©áĬķ
Ġáī¤áī°áĭŃ
ĠáĪĺáĬĵáĬ¥áĪ°áĭŃ
ĠáĭĿáĪį
ĠáĭĺáĪ«
Ġáī°áĪ³áīµ
as
áĪŃáĭĵáīµ
Ġáī°áĮĪáĭ²
ĠáīµáĬĲáī¥áĪŃ
ĠáĭĿáī°áĮłáīķ
ĠáĬ¥áĪĿáī£
áĬķáĭ±
Ġáī°áĪĥ
ĠáĭŃáĮĪáī¥áĪ©
áĪĲáĭŃ
ĠáĪĿáĭĥáĬķáĬ«
Ġáī°áĪĺáĪª
Ġáī¥áĮįáĭľ
áīªáĭµ
ĠáĮ¥áīķáĪ²
áĪĭáī±
ĠáĬ£áĭįáĪ«áĮĥ
25
áĭµáĮį
ĠáĬ£áĪµáĭĴ
ĠáĭħáĪİáĪĿ
ĠáĪĺáī£áĬ¥
áĭ°áĪĺ
ĠáĪµáĭį
ĠáĪĺáĭ³
ĠáĪĺáĭĵáīµ
ĠáĪĿáī£
ĠáĮ¸áĬķ
Ġáī°áĪ¨áĬºáī¡
Ġáī¥áĪļ
áĪĥáī¡
ĠáĬ£áįįáĪªáĬ«
áĪĪáĭİáĪĿ
ĠáĭĿáĭ°áĪįáĭ©
áĬĲáīłáĪŃ
áĪĵáĪĭáĪĪ
ĠáĪĺáĬķáĮįáĪµáī°
ĠáĭįáĮ½áĬ¢
Ġáī£áĪŃáĬĲáīµ
Ġáĭķáī¥áĭ¨áīµ
áĪµáĬ½
ĠáĭŃáīĢ
áĭļáĬ£
áĪħáĪĪ
ĠáĬŃáĬķáīħ
Ġáĭ°áīĢáĬķáĪµáīµáĭ®
ĠáĪĺáĪ¬
áĮĪáĪ°
ĠáĭķáĪĽáĪĿ
áĮĢáīµ
ĠáĬŃáĪħáī¥
Ġáĭ°áī¥áĭ³áīł
Ġáĭĺáĭķ
ĠáĬ¨áĪĿáĭĿáĬ½áĬ¥áĪį
ĠáĪķáĮ»áĬķ
áĭ®áĪĵ
ĠáĪĵáĭ°áĪ«
ĠáĬ°áĬķ
ĠáĬ²áĪİáĪĿ
ĠáįĪáĪĬáĮ¥
áĪĿáĪĥáĪŃ
ĠáĪĺáĮĪáĭµáī³áīµ
Ġ37
ĠáĪĬáīĢ
ĠáĬ£áĪĺáĪµ
áīłáĪµ
áĪĵáī±
ĠáĬ£áīµáĭ®áĪĿ
áī¸áĪµáĬ®
ĠáįįáĮ»áĪĺ
áĬ»áĬ¸
áįįáīħáĪŃ
ĠáĬŃáĬŃáĬŃ
áĬŃáī³
ĠáĪķáĪ«áĭŃ
ĠáĬ¨áĭŃáĭ²
ĠáĪļáĪµ
Ġ198
ĠáĭĪáĮĭáĪķáī³
áī¹
ĠáĪĺáī¸
ĠáīĢáīµáĪª
ĠáĮĪáĪĬáįĨáĪĿ
ĠáĭĪáĪ²áĬ¹
Ġáī£áī¢áĪİáĬķ
ĠL
áĪĭáĭķáĪĪ
ĠáĮįáĭĿáĬ£áīµ
áīµáĪ®
áīłáĬ¦
ĠáĬŃáĬ£áī±
áįįáī°
ĠáĮ¸áĪĵáįį
ĠáĪĿáĪŃáĮįáĮĭ
Ġ197
ĠáĮŃáĬķáīĢ
áįĸáĪŃ
ĠáĭµáĬķáĬ³áĬķ
ĠáĬ£áīłáĪŃáĬŃáī¶
áĪŃáĭ³áĬ¥
ĠáĪĵáĪļ
áī¡áĭķ
ĠáĪļáĬ«áĬ¤áĪį
áĪħáīłáĬĴ
ĠáĪľáĪĭ
Ġáī°áĬ»áĭŃáĭ±
áįĪáĬĵ
áĬŃáĪĿ
Ġáĭ°áīĵáĭŃ
ĠáĮłáīķ
ĠáĭįáĪĳáĭµ
ĠáĪĺáĭµáĪĥáĬĴáīµ
ch
ĠáĭĿáĮİ
áĪķáĭĭ
ĠáĭĿáĪŃáĪŃáī¥
ĠáĭµáĪįáĭ¨áīµ
ĠáĮįáĭ´áī³
áĬĵáĬ¸
ĠáĬĲáĪĵáĪ°
áĭĿáī¥
ĠáĬ©áĬĵáīµ
ĠáĭķáĪĪáī°
ĠáĪĪáīłáĭ³
áĭįáĭĳ
ĠáĭĺáĬ½áĬ¥áĪį
ĠHome
ĠáĪ°áī¥áĬ¡áīµ
ĠáĪĺáĪĪáĪµ
áĭ°áĭ±
áĬŃáĭĭ
ĠáĬŃáĬķáĪŃáĬ¢
ĠáĪ³áĪĻáĬ¤áĪį
ĠáĭĿáĭĵáīł
Ġáī¥áĭįáĪĳ
áĬ»áĬ¥áĪĪ
ĠáĪħáĪįáĭį
Ġáī¥áĪŃáĬª
ĠáĬĲáī£áĪª
ĠáĭµáĪ«
áįĬáīµ
áīłáĭĿáĪķ
Ġáĭ°áĪŀáĭĿ
ĠáĬķáĭ®
Ġáī¥áĪĥáĬķ
áĮ¥áĪķ
áĭĺáĪİ
áī¢áĭŃ
ĠáĬ£áĬĲáĭįáĬķ
Ġáī°áĮ£
ĠáĪĺáĮ¥
ĠáĬŃáĭįáĬķ
ĠáĭĵáĭµáĬĵ
ĠáĬķáĬ£áī¦
ĠáĬłáĭŃáĬ®áĬĲáĬķ
ĠáĪĺáĪĿáĪħ
ĠáĪĿáĮ¥áīĥáĪĿ
ĠáĭĵáĭĪ
ĠáĭĺáĭŃáĭĪ
ĠáĬŃáĬķáĭ³
áĬĸáĬķ
ĠáĪĥáĮĪáĪ®áĪĿ
áī¥áĪĪáĬĵ
Ġáī£áĭķáĪįáĬĵ
ĠáĪĺáĪ¨áįĥ
ĠáĬ¥áĬķáĭµáĭ©
ĠáĮ¥áīłáīłáĬĽ
áĭµáĬ©
ĠáĭĺáĬ½
ĠáĬ©áī£áĬķáĭ«
áĪŃáįĬ
ĠáĭŃáĬŃ
ĠáĭµáĬħ
áĭĽáĭĺ
áĭ²áĪĻ
áĬ¨áĪĿáĭļ
ĠáĭĿáĪ°áĪŃáĪĳ
ĠáĭŃáĭĽáĪ¨áī¡
áĪ®áĪĿáĬķ
áįĭáįį
ĠáĭĿáĬ¸áīłáĪŃ
ĠáįĢáĮĪ
ĠáĭĿáīłáĭĿáĪĳ
ĠáĭĪáĪªáĭ±
Ġáī¥áĪ«
ĠáĬŃáĪŃáĬ¢
ĠáĬĲáĭ³áĭ²
Ġáī°áĭĺáĪŃ
Ġáĭ°áĪĥáĭŃ
áĪĥáĪħáĪĭ
ĠáĬŃáīµáĪ¨áĬ½áī¡
áĮīáĭŃ
Ġáī¥áĪĵáĭĬ
áĮ¡áĬķ
ĠáĬŃáįīáīµ
ĠáīħáĭµáĪľáĬ»
ĠáĭĵáĪŃáĬ¨áĭŃ
ĠáīĥáĬķáĭĽ
Ġ36
áĮĭáī¥
áĬłáĬĵ
ĠáĮĪáĪĬáĮ¾áĪĿ
ĠáīłáĭĵáĪįáī²
Ġáī¥áīħ
Ġáī°áĪ³áī°áįįáī²
ĠáĪĵáĮĬ
ĠáĬ«áī¥áĭŀáĪĿ
ĠáĭĺáĪĺáĬĲ
ĠâĢ¹
áĬĲáĪŃ
ĠáĭŃáĮ¸
ĠáĪĬáīĥ
ĠáĪĿáĪħáĪĭáĭį
áĭĺáĪ«áĪ¨áī¥
Ġáī°áįĪáĮºáĪĻ
ĠáĬķáĬ¡áĪµ
áĬ¥áĮįáĭļáĬ£áī¥
áĪķáĭµ
áįįáĮ½
ĠáĬ£áĭŃáįĭ
áĬ®áīµ
ĠáĮ½áĬĳáĭķ
áĪĺáĭĵ
ĠáĬŃáīµáĭį
áī°áĬķáĪµ
Ġáī°áīĲáī£áĪįáĬĲáīµ
ĠáĮ³áĮ³
ĠáĬķáīķáĭµáĪļáīµ
ĠáĬ®áĭŃáĬķáĬ«
ĠáįįáĪ«áĬķáī¸áĪµáĬ®
áī°áī°
ĠáĬķáīłáĪį
ĠáĬ£áī¥áĭĺáĬķ
áĪīáĬ¡
Ġáīłáī¶áĪĿ
ĠáĬ£áĪĺáĬķáī²
ĠáĭĿáīķáĮ½áĪį
ĠáĮ¥áĬķáĪ²
Ġáī°áĮĢáĪļáĪ©
áĬ£áĬ©áĪĿ
ĠáīĿ
ĠáĪĵáĪ°
áĪ°áĪĪ
áĬªáĬķ
ĠáĬķáĭĿáĬ¾áĬĲ
Ġ80
Ġáī¡áĬķ
áĮ½áĪĳáįį
ĠáĬħ
ĠáĬķáī¤áī°
ĠáĬ¢áĭ®
ĠáĬ°áĭŃáĬĸáĪĿ
ĠáĪĺáĮ¨
ĠáĬĲáĪ©
ĠáĭĺáĭŃáī¥
ĠáĭĿáįĪáĮł
ĠáĭĿáĪŃáĬł
ĠMe
áĬ¥áĪį
áĪĭáĪ´
ĠáĬ«áĪħáĬķ
áĬ½áĬ¥áĪīáĬķ
ĠáĬ£áĬķáįĪáīµ
ĠáĪ°áīłáĭŃáī±
ĠáĪĪáĬ«áī²áīµ
Ġ....
ĠáĪĵáĭĭáĪŃáĭ«áīµ
ĠáĪķáĮ½
ĠáĭĺáĮĭáĮł
ĠáĬ¥áĭī
áĪĬáĬ¡
áĪłáĪŃ
ĠáĭķáĮ½
Ġáī°áĭĪáĪįáĭ°
ĠáĪ°áĪĽáĭ«áĭĬ
áĪĪáĬ¹áĪĿ
ĠáĭµáĪ«áĪŃ
ĠáĬ£áĭŃáĭ°áĪĪ
Ġáīµáīķ
Ġáĭ°áĭµáĪķáĪª
26
áĭĭáĬ½
ĠáĪĵáĭ°áĪ½áī²
Ġáī°áīĲáī²
ĠáĬķáī¥áĭĵáīµ
Ġáī¥áĬ¥áĬķ
ĠáĭŃáĮįáī£
áĪªáĬķ
Ġáįįáīĥ
ĠáĮ½áĪĴ
ĠáĬķáĪĿáīµ
ĠáĭĿáĬĲáīłáĪ®áĪĿ
áīĵáĪķ
áĮįáĪ¨áĬĵ
ĠáĭµáĬ»áī³áīµ
ĠáĭĿáĪŀáī±
ĠáĬĲáīłáĪ«
Ġáĭ°áĪįáĭ¨
ĠáĬŃáīµáĬķ
ĠáĮįáĪ«áīµ
ĠáįįáĪŃáĪĴ
ĠáĬ£áĭŃáĬŃáĬ¥áĪīáĬķ
ĠáĮ¸áī¥áĮ»
ĠPrevious
ĠáĬķáĮİ
áįĪáĪ©
áĮ½áĭİ
ĠáĪĿáĪ³áī³áī¶áĪĿ
ĠáĪĺáĮ»áĪĿáĭµ
Ġáī¥áĪĤ
ĠáĬŃáĪĺáĪį
ĠáĬŃáĬķáĮĪáī¥áĪ®
ĠáĭĵáĭŃáĬĲáī³áīµ
ĠáĪĵáĪĪáīĵ
Ġ>
ĠáĬķáĮĲáĭŃáī³
ĠáĪĺáī°
ĠáĪĺáĬ¸
Ġáĭĺáĭµ
ĠáĬ£áĭŃáĪķ
áĬķáĪµáĬ»
ĠáĪĵáĪĪáįįáī²
áĪķáĭµáĪķ
Ġáĭ°áĪ«áĪ²
áĬ½áĬ¥áĪĭ
ĠáĭĿáĮĪáī¥áĪ©
ĠáĬ£áī¥áĭĿ
Ġáīµáĭ°áĪįáĭ©
áĬ©áĪŀ
ĠáĪ«áī¥
ĠáĪĺáĬķáĮįáĪµáīµáĬķ
28
ĠáĬķáĬ¸áĭįáĬķ
ĠáĪĿáĮī
áĪ¨áĪµáĭķ
áĮĪáī£
ĠáĮ¥áĬķáī²
ĠáĪĺáĪ°áĭį
Ġáī¤áī°áĪ°áī¥
Ġáī³áĪªáĬ»áĭĬ
ĠáĮ¸áĭĬáĭĳ
áĪµáī¡áĬŃ
áĪķáĮĤ
áĪĽáĪª
áĮ½áĮ»áĪŃ
áĮĭáĬķ
áĮ¹áĬķ
ĠáĬ£áĪįáĭĴ
Ġáĭ°áīĵáĭŃáīķ
áīµáĪµ
áĪįáĪĿáĬĵ
ĠáĬķáī¤áīµ
áĭ«áĭ¨
áĭĽáĭŃ
áĪ½áĮ¢
ĠáĬµáĬĵáīµ
ĠáĭĪáĬ¨áįįáĬĵ
ĠáĭĿáĬ¾áĬĵ
ĠáĬŃáĬ¥áĪĪ
ĠáĬ¥áĬķáĪµáĪ³áī³áīµ
áĮłáīĵáĪįáĪį
áīłáĬĽáī³áīµ
Ġáī¥áĮī
Ġáī¥áĮĢ
ĠáĪµáĪ©áĭķ
ĠáĬ¥áī°áīĲ
áĪŃáĬ¥áĭ«
áīłáĪįáĭİ
ĠáĬķáĬ¥áĪµáĪ«áĬ¤áĪį
ĠáĭĿáīĢ
áĮ»áĭķ
Ġáį¦
áī´áĪŃ
Ġáī°áĬ£áĬª
Ġáī°áĪ¨áĭ²
ĠáĬ£áĮ½áĭĭáĪŃ
ĠáįįáĮ¡áĪŃ
ĠáĬŃáī¥áĪ¨áīµ
Ġáī°áīĥ
Ġ39
ĠáĮĢáĪĺáĪ©
ĠáĭĿáī°áĪ¨áįī
ĠáĮįáĭľáĬķ
ĠáĬ£áĪķáĪĺáĭµ
ĠáĬ£áĬ½áĪ«áĬķ
ĠáĬķáīłáĭŃáĬĳ
ĠáĬ¥áĮĪáĭ³
ĠáĪ°áī£áīµáĬķ
áĪ©áĪĿ
ĠáĪĿáĪµáĭļ
ĠáĬ£áĬķáīłáī¥
áĮ¸áĪ¨
Ġáī¥áĭĺáĭŃáĪĿ
Ġáīģáįħ
áĭ³áĪĿáĬĲáīµ
un
áĬŃáī±
ĠáĬ£áĬ«áĪĭáĭĬ
ĠáĬĴáĭį
ĠG
ĠáĭĿáĪĲ
Ġáī¥áī¥áĪŃ
Ġáī¥áĬ¹áĪī
áĪķáĭİ
Ġáīłáĭ°áĪį
ĠáĮ¥áĪľáīµ
ĠáĬķáĬ£áĬ»
ĠáĮİáĭ°áĬĵ
ĠáĪĺáĮįáĭĽáĬ¥áī²
áĪ¨áĭµáĬ¥
áĪ°áĪĽáĪĽáĭķ
ĠáĭµáĬ½áĬĲáīµ
áĭŃáĭİáĪĿ
áĬ£áī¦
áĪ°áĬĴ
ĠáĪħáĭŃáĭĪáī¶áĪĿ
Ġ2009
ĠáĬ¥áĭĭáĬĳ
áĭįáĭİ
ĠáĬ¥áĬĵáĪ°
ĠáĬĲáī¥áĭ«áīµ
Ġáĭ²áįķáĪİáĪĽ
ĠáĬ¥áĪĽ
ĠáĬŃáĮĪáī¥áĪ¨
ĠáĪĵáĪįáĭ®
Ġáīłáīĥ
Ġáĭ¨áĪĺáĬķ
áīĲáĪĿ
ĠáĮ¸áīłáī£
ĠáĪĺáĭ°áĪĿ
ĠáĪķáĪĽáĪĽáīµ
Ġáĭ¨áī¥áĪįáĬ«áĬķ
ĠáĪĽáĪį
ĠáĭįáĭĴ
ĠáĬ¨áĭŃáĭ¶áĪĿ
áĪķáĮįáĭĺáĬĵ
ĠáīµáĪŃáĮīáĪĻ
ĠáĪĵáĪĺáĭµ
ĠáĬ¨áĪĿáī¶áĪĿ
ĠáĬ£áĭŃáĬ½áĬ¥áĪįáĬķ
ĠáĮĪáĭļ
áĬ¾áĬĵ
ĠáĪĿáĪŃáĭ³áĬ¥
200
ĠáĭĺáĪĪáĬĴ
ri
ĠáĪķáĪ°áī¥
ĠáĬĲáĭŃáĪ¨áĬķ
áĮĪáĮ½
Ġáĭ¨áī¥áĪĭáĬķ
ĠáĬķáĪĺáĪŃ
ĠáĭĺáĪĪáĭĪáĬķ
ĠáĭĿáĮĢáĪĺáĪ¨
áĪ«áĪ¨
ĠáĮĪáĭ³áĪĿ
ĠáĮ¸áīķáĮ¢
ĠáĪĿáĪķáĪ³áī¥
áĬ¨áĪįáī²
ĠáĬ¥áĪµáĪ«áĬ¤áĪįáĬķ
áī¥áĭĽáĭķáī£
ĠáĭĿáĭ°áĪį
áī³áī³áīµ
ĠáĬ¥áĬķáī³
ĠáĪįáĬ¢
áīķáĪŃáī¡
áĬŃáĭ«áĭµ
Ġáĭĵáīħ
ĠáĭļáĬĲáī¥áĪŃ
áĪĵáĪµáī¡
ĠáĪĺáĮįáĪĪáįĤ
Ġáī¥áĮįáī¥áĪª
ĠáĮ»áĭķáĭ³
Ġáī¥áĬĲáĮ»
Ġáī°áĪ³áīµáįİ
ĠáĬ³
áĭķáī¢
áĭķáĬ©áĪĿ
Ġ45
Ġáī£áĬķáĬª
ĠáĪµáĭĴáī¡
ĠáĬ¨áĬķáī±
áĭĵáĪĿ
ĠáĭĪáĬª
ĠáĬ«áī¥áĬ£
áĭĲáīµ
ĠáĬ£áĬ¥áĮĭ
ĠáĭħáĬĲáī³áīµ
ĠáĭµáĪĿáįĤ
Ġáī°áĮłáīĢ
áĭ°áĪĭ
ĠáĭĪáĪĬ
áĭ©áĬĵ
áĪļáĬķ
áīłáĪŃáī²
ĠáĬµáĪĪáĬķ
ĠáĪĿáĬķáī£
ĠáĬĶáĪ«
Ġ2012
ĠáĬ¥áĬķáī°áĭĺáĭŃáĬ®áĭŃáĬĳ
ws
Ġáī°áĭį
ĠáĮįáĮ¥áĪĿ
ĠáĬ£áĬķáīłáĪ³
áĭĽáĪ¨áī¦áĪĿ
ĠáĬ£áĬ¥áĭ³áĭį
ĠáĬ¢áĪħáĭĪ
áĬ¨áī¡
ĠáĬ£áĮĪáĭ³áĪµáĬĲáīµ
áĮ¥áįįáĬ¡
ĠáĭĺáĪķáĭĿáĬķ
áīłáĪ©áĬķ
áįĪáĪįáĮ¦áĪĿ
áĭĵáĭĿáĭ«
ĠáĮ»áĭµáīĥáĬķ
ĠáĬ¢áĪ°áĭ«áĪµ
ĠáĬ£áĬķáĪµ
ĠáĭŃáīķáĮ½áĪį
Ġáī°áĬķáĪ²áĬ¡
ĠáįįáĪįáĪµáĮ¥áĬ¤áĪĽáĭįáĭ«áĬķ
áĬ©áĬ»
ĠáĭĿáī°áĭĽáĪ¨áī¦
áĬºáĪī
ĠáĬ¥áĭīáĬķ
ĠáĬ£áĭŃáįįáīĢ
Ġáĭ°áīĨáĪĿ
áī¡áĮ¥
ĠáĪ°áī¥áĬĲáīµ
ĠáĬķáĭĿáī¥áĪį
áī³áĭįáĭ«áĬķ
áĬ¨áī¥
áĮ¥áī³áīµ
ĠáĭĿáī°áĪĺáĪŃ
ĠáĪĿáĪŃáĪĿáĪŃ
áĪĺáĪįáĬ¨
Ġáī°áĪµáįĭáĭŃ
áĪĽáĬķáĬĲáīµ
Ġáī¢áī¢áĪ²
áĪŃáĮįáĮĭ
ĠáĬŃáī¥áĪŃáĬķ
áĪ¨áīµáĬķ
áĭĺáĬĵ
ĠáĬ£áĮĢáĬķáĭ³
áī³áī°áĬķ
ĠáĪĺáī¥áĪŃ
áĮ¸áī¥
áīĥáĪŃ
ĠáĬ¥áī¶áīµ
ĠáĭĿáĬ®áĬĲ
áĪħáī£
áĮĪáĭĿáĬ¥
ĠáĬ¥áĬĴ
áĬ«áĪµ
áĪĵáī¥
ĠáĪ°áĪ«áĭĬ
ĠáĪĵáĮ¥áĭ«áīµ
áĪµáĬŃ
ĠáĪµáīĵáĭŃ
ĠáĪĥáĮĪáĪ©
Ġáī£áĪħáĪĭáĭĬ
ĠáĬ¨áī£áī¢áī³áīµ
áįįáĪī
Ġáĭµáĭ¨
Ġáī³áī¦áīµ
áĪĿáĪŃáĭĵ
ĠáĬ£áī£áĮĬáĭķ
ĠáįįáĪįáĭŃ
Ġáī°áīĵáĭĪáĪĿáī²
Ġáī¥áĪĵáĬķáĪ³áī¥
ĠáĬ£áĪĿáī£áĪ³
ĠáĪħáĭį
Ġáĭ²áĭ«
áīłáĭ®
áīłáīµáĬķ
áĭ³áĭ°
ĠáĭļáĭĪ
ĠáĮłáīĵ
--
ĠáĬķáī¥áĪ¨
ĠáĪµáĭĳ
áĭĪáĬ©áĪĿ
áĪħáĪįáĭĪáĬ«
Ġáĭµáĭ«áī¥áĪİáĪµ
ĠáĬķáĪĿáĭĥáĬĳ
áĪŃáĪµáī²
ĠáĭĿáīĸ
ĠáīłáĪĥ
ĠáĪĿáĪµáī³
áīķáĪŃáī¦
ĠáĪĵáįĭáĪ½
áĪŃáĮĭáĪķ
Ġáī¥áĭĪáĮĪáĬĲáĭŃ
áĪŃáī£
áĪŃáī¶
ĠáĭĪáĪĥáī¥
ĠáĭļáĪµáĭķáī¥
ĠáĬ£áĪįáĬ®
ĠáĪĺáĮĪáĪ»
ĠáĪĵáī¥
Ġáĭ°áĪĿáīł
ĠáĪĺáĭĽáĪĻáĪŃáī²
ĠU
ĠáĬ¥áĮĥ
áĭľáĬ¡
ĠáĪ²áīª
Ġáĭĵáĭįáĭ°
áĪµáĪ«áĪķ
áĭ°áĪİáĪĿ
ĠáĪĥáī¦áĪĿ
ĠáīĥáĪī
ĠáĬ¥áĬĵáĪĥ
áĪŃáĬ¨áĪµ
ĠáĪĵáĭµáĪĵáĭ°
ĠáĬŃáĭĪáĮ½áĬ¥
ĠáĬķáĭµáĬ»
ĠáĬ¢áĬ®áĬĸáĪļ
ĠáīµáĬ½áĬ¥
ĠáĬµáĪĭáīµáĬĵ
áĮµáĭ«
Ġáī¥áĪįáĬŃáĭķ
Ġáĭĺáĭ¨áĪĪ
áįįáīħáĪ®
áĪĪáĭ®
áīłáĪĪáīµ
Ġáī¥áīĭáĬķáīĭ
áĮ½áĬ«
áĬŃáī²
ĠáĭĺáĪİáĬķ
áĪ°áĪĿáĭĵ
Ġáī£áĪħáĪŃáĭ«áĭĬ
áĪµáĪįáĮ£áĬķ
ĠáĭįáĪĭáĭµ
ĠáĭĵáĪĪáĪĿáĪĪáĬ»áĭĬ
ĠáĭĵáĪĪáĪĽáĭĬ
ĠáĪĥáįįáī²
áĮĲáĪ±
ĠáĬķáĬ¥áĮįáĭļáĬłáī¥áĪĶáĪŃ
ĠáĬ¨áĪĿáĭĺáĪĪáĭī
ĠáĭµáĪįáĭ¨
ĠáĭļáĪµáĪĿ
ĠáĬ¥áī°áįĪáĪĭáĪĪáĭ¨
ĠáĪĿáĪŃáĪĺáĪ«
ĠáĪ¸áĬĲáĬ½
ĠáĬ¥áī¶
áĭįáīµáĬķ
ĠáĬ«áĪŃáĭµ
ĠáĮ¥áĭķáĬĵáĬķ
áĭµáĪįáĭ¨áĬĵ
áīłáĭ°
Ġáī¥áĪĪáĭŃáī²
ĠáīµáĪĺáĪµáĪį
áĪļáīµ
ĠáĬ»áī¥áī¶áĪĿ
Ġáī¥áĪĺáĮĪáĭ²
ĠáĪĺáĭ°áĪĿáĭ°áĪĿ
ĠáĪ½áĮĭáĪ«
ĠáĪĺáĭ°áĪ¨
ĠáīµáĮįáĪ«
áįįáĪ«áĪħ
ĠáĪĺáĬ£áĭ²
áĪįáĬŃ
ĠáĭĿáĭ°áĪįáĭ®
áĮ½áĪī
áĮ½áĪĵáįį
áĮłáī£áĭĬ
áīĥáĪĪ
ĠáĬ¥áĬķáī°áĭĺáĭŃáī°
ĠáĭĺáĪ°
ĠáĪ°áĪĻáĬĵáīµ
áĭ©áĪĿ
áĪŃáīµáĪ«
áī£áī¥áĪ®
Ġáī°áĮ»áĪĴáįī
ĠáĬ£áĭĴáĬķáī²
ĠáĪĺáĬķáĮįáĪµáī³áĭĬ
ĠáĮ¨áĬķáįĪáĪŃ
áĪµáī³áĬķ
áĮĭáĭķ
ĠáįĪáĪªáĪ³áĭįáĭ«áĬķ
__
áĭŃáĭĭ
ĠáĬ£áĪ«áĭĬáīµ
áĪ¨áĬŃ
ĠáīµáĪĳáīµ
ĠáĬķáĪĿáī£áĪį
ĠáĪµáĪĪáĭĿáĬĲáīłáĪ¨
ĠáĪĺáī¸áĪĿ
em
ĠáĭĮ
ĠáĬŃáĪĿáĪµ
ĠáĬĲáīĴ
áī³áīµáĬ©áĪĿ
ĠáĭĺáĭŃáĬ£
áĬłáĪį
ĠáĪ³áĭŃ
Ġáī¥áĬ£áĬ«áĪį
ĠáīįáĮ½áĪª
Ġáī¥áĬ¡áī¥áĬ¡
áĭ¥áĬķ
ĠáĮģ
áĪŃáĬ¥áĭ®áĪĿ
ĠáĬ¥áįĪáī±
Ġáī¥áĬŃáĪŃáĪµáī¶áĪµ
áĭĭáįį
ĠáĪĿáĪµáĪĭ
áĪĺáĬķáĮįáĪµáī²
ĠáĬ«áī£áĬ»
ĠáĪ°áīłáĭŃáīµáĬķ
Ġáī°áĪĺáĪµáĮĪáĬķ
ĠáĪµáīµáĪ«
áĬ¦áīµáĬķ
ĠáĪŀáī£áĭŃ
ĠáĪµáĪĪáĭĿáī°
ĠáĪĴáĭĿáĬ«
ĠáĮĪáīłáĬĲ
ĠáĪĵáĮĭáĭļ
ªðŁĩ
ĠáĭŃáĬ«áĭ¨áĭµ
áĭĪáĬĴ
áī¢áĭµ
Ġáĭ°áĭ¨
ĠáĮĪáĭµáĪĬ
ĠáĪĿáĪµáĬ¦áĪĿ
ĠáĬ®áĪļáĪ½áĬķ
ĠáīĢáĪįáĮ¢áįī
27
ĠáĬ£áĭ«
áīłáĬ©áĪĿ
ĠáĪĥáĬĵ
ĠáĬ¤áĪŃ
ĠáĬķáĭĵáĪĺáī³áīµ
ĠáĬ£áī£áĬĵ
ĠáĮĪáĭĽáĬĵ
ĠáĭķáĭµáĪľ
ĠáĬķáĪħáĭŃáĭĪáīµ
áĬĥáīµ
ĠáĬĸáĪħ
ĠáĪįáī¥áĬ¹áĪĿ
ĠáĭĪáĮįáĭĵáĭĬ
áĭµáĪįáĬķ
áĬ£áī¥áĭļ
ĠáĬ£áĪ°áĬĵ
ĠáĪļáĬĴáĪµáīµáĪª
ĠáĬŃáĪĵáĪįáįį
áįĪáĪ«
áī«áĭŃáĪ¨áĪµ
áĮ¥áīł
Ġáĭ°áīĥ
áĮ¸áĪĻ
áĮłáĪĿ
Ġáī°áĪ«áĬº
ĠáĬ£áĬ¼áī£áī³áīµ
ĠáĪĺáĪĵáĭĻ
Ġáī¥áīĳáĭķ
ĠáĪĽáĬ¥áĬ¸áĪį
ĠáĪĥáĬķáĭ°áīłáīµ
áĪĽáīķ
áĭ°áīĲ
ĠáĪµáĮķ
ĠáĪŃáĭ±áĬ¥
ĠáĬ¥áĬĵáĬ£
Ġ44
ĠáįĸáĪĪ
Ġáī¥áĪĿáĭĥáĬķ
ĠáĭĿáĪŀáī°
ĠáĭŃáĮ½áīł
ĠáĪķáĪ³áī¥
ĠáĭĺáĭŃáĬ¨áĬ£áĪį
ĠáĪŃáĪĴ
ĠáĬŃáĬĲáĮįáĪ¨
ĠáĭĿáĭµáĪĪ
ðŁĩªðŁĩ
ĠáĪĿáĪĤ
áĭ³áĪª
Ġáĭ°áĪ¨áīµ
ĠáĪħáĭĿáī£
Ġáĭ«áĭķ
ĠáĪ³áĭķáī¤áĬķ
ĠáĭĪáī³
áĬ¸áĭįáĬķáĬķ
Ġáī¥áī°áĮįáī£áĪŃ
Ġáī¥áĪ©áĪħ
ĠáĭĪáī°áĪĥáĭ°áĪ«áīµ
ĠáĪĺáĪ°áĭįáĬ¢
áĬ¥áĪµ
áĪ°áĬ«
áĭĵáĭª
ĠáĬķáĪĺáĮ»áĬ¢
Ġáī¥áĮ»áĭŃ
ĠáĪĵáĮĪ
ĠáĪŃáĬ¥áĭ©
ĠáĪĵáĬķáĪ³áĬ¥
ĠáĬ»áĪįáĬ£áĭŃ
áīº
ĠáĬ£áĭĪáĬķ
áĪŃáĬ»
áĬĲáĭļ
ĠáĪĺáįĤ
ĠáĪĿáĮįáī£
ĠáĬ©áĬĳ
Ġáī¥áĭĽáĭķáī¥
áĪµáĪĿáĭķ
ĠáĪĿáīµáĬ¥áĪĿáĪĽáĬķ
ĠáĭĿáĬ£áĪĺáĪ°áĪī
ĠáĭĿáĮįáī¥áĬ¦
Ġáī°áĭĪáĪĬáĭ±
ĠáĪĺáĮ¨áĪ¨
ĠáĭĿáĪĿáĪµ
Ġ2011
ĠáĪħáĭŃáĭĪáīµáĬķ
ĠáĬĥáĮ¢
ĠáĪĺáĪ¨áĮ»
ĠáĬĲáĬķáĪķáĭµáĪķ
ĠáĬķáīĳ
áĮįáĭķ
áĬ½áĪįáī²
ĠáĭĿáī¥áĪįáĭİ
Ġáī°áĭĭáĪ³
ĠáīµáĬ¥áĭĽáĭĽáīµ
ĠáĬ£áĮ¸áī¢áīĳ
ĠáĬ£áīĭ
ĠáĭĺáĬŃáĪŃ
áĪĵáīĤ
ĠáĬ¢áĭ¨áĬķ
áī²áĬ«áĭĬ
ĠáĭķáĭµáĪĭáīµ
ĠáīķáĭµáĪļ
Ġb
ĠáĬŃáĪ«áĭŃ
áĪĺáĪ¨áīµ
ĠáĪµáĪŃáĪĳ
Ġáī°áĪĽáĪĥáĪ®
áī¥áĭĴ
ĠáĬ¥áī¥áĪį
ĠáĬķáīĲ
áĬ«áīµ
áĪĵáĭ¨
ĠáĬ£áĪĪáĭĪáĬķ
ĠáĮīáĭ³
ĠáĮĮáĪ¨
áīĽáĬķáīĭ
ĠáĬ¥áĭĿáĪµ
ĠáĭĵáĪĪáĪĿáĬķ
ðŁĩªðŁĩ·
áĪħáĭ¶
áĬ¨áĪĪ
ĠáĬ«áī¥áĬ£áī¶áĪĿ
Ġáĭ¨áĭķ
ĠáĬ¥áĬķáī°áĭŃ
ĠáĬŃáĬķáĪķ
ĠáĪļáĬ¢
ĠáĬ£áĪĺáĪ«áĪŃáĪĵ
ĠáĭĿáĬĲáīłáĪŃáĬĵ
Ġáī°áĬ£áĪĿáĪ«áīµ
ĠáĬķáĬĵ
áĪĺáīķ
áįįáĪ¨áīµ
ĠáĭĺáĭŃáī¥áĪĭ
ĠáĮĪáĭĽáĬ¢
ĠáįķáĪ¨áĪ²
ĠáĮ½áĬķáĭĵáīµ
Ġáī°áĮ¨
áĮ¸áī£áĪŃ
Ġáī¥áĪĿáĮį
ĠáĭľáĮį
ĠáĬķáĬ¸áĭŃ
ĠáĪīáīĥ
ĠáĮĢáĪĺáĪŃáĬ©
ĠáĪĺáī¥áĪŃáĪĤ
ĠáīµáĬ½áĬ¥áĪĬ
áĮĪáĭ±
Ġáī°áįĭ
ĠáĭµáĪĵáĪŃ
áĪĬáĪµ
ĠáĭĺáĭŃáĪ°
ĠáĬķáĪĿáĪŃáĮįáĮĭ
áĪĺáĬķáīµ
áĮħáĪĺáĪŃ
ĠáĬ£áĪīáī³áĭĬ
Ġáī°áĬĵ
ĠáĭŃáĬĲáī¥áĪ©
áīĢáĬķ
Ġáī¥áĪĵáĮºáĪ©
ĠáĬ£áĭŃáīµáįĪáĪįáĮ¡áĬķ
ĠáĬ£áĬķáĪµáī°áĭŃáī²
áĪ¸áĪį
ĠáĪĺáĭµáĪĵáĬĴ
áĪķáīµáīµ
ĠáĬ«áī£áĬ»áīµáĬ©áĪĿ
ĠáīĲáĭ³áĪĽáĭŃ
ĠáīłáĭŃáĬķáĬ»
áĬ¢áĭ¨áĪ±áĪµ
ĠáĮĢáĪļáĪ«
ĠáĪĥáĭŃáĪĪ
ĠáĭŃáĪµáĪĥ
ĠáĭĿáī°áįĪáĮ¸áĪĺ
ĠáĬŃáīķáĮ½áĪį
ĠáĬĵáī£áĬ»áīµáĬ©áĪĿ
ĠáĬŃáĮħáĪĿáĪŃ
Ġáĭ°áĪĪáĭŃáī²
ĠáĬ£áįįáĪĬ
Ġáī°áĪĺáĪįáĪ°
áīµáĬ¹áĪĿ
áĪĽáĪħ
Ġáĭįáĭķ
ĠáĬ£áĪİáĭī
ĠáĮİáī¦
áĪ«áĬ¸áī¡
ĠáīµáĬ¥áĭĽáĭĽ
áĪµáĪĪáĪĿáĬķáī³áĭŃ
áĭ«áĪį
ĠáĭĵáĮĪáī¥
áīħáĭµáĪļ
áīĥáīĲ
áĭ°áĪįáĭ¨
ĠáĪµáĪŃáĭĵáī³áīµ
ĠáįįáĪŃáĪĥáīµ
ĠáĮ»áĭįáĭĴáīµ
Ġáī°áī£áĪĤáĪİáĪĿ
ĠáĬ£áī¡áĬĲ
ĠáĪĺáĪĭáĬº
ĠáĭĿáĬĵáī¥
áĬĲáĬ©áĪĿ
ĠáĭŃáĭ°áĪįáĭ©
ĠáīµáĬ¹
Ġáĭ¨áĭµáĪįáĭ®
ĠáįĨ
ĠáĬķáĪĵáĬķáī²
ĠáĪĴáĭĺ
ĠáįįáīķáĪŃáĬķ
ĠáĬŃáĪŃáĬ¨áī¥
ĠáĬ£áĭŃáĬ£
ĠáĬ®áĪŃ
ĠáĬ£áįī
ĠáĬŃáĪ¨áĬ½áī¡
Ġáĭ¨áĬķ
ĠáĬ©áĭķáĪ¶
ĠáĬªáĭĪ
ĠáĭĿáĪĺáĮ»áĬ¥
ĠáĬ£áī¢áĪİáĪĿ
áĪŃáĭ³áĬĸáĪµ
Ġáĭ°áīĴáīķ
áĮįáĪ®
áĭĵáĪµ
ĠáĮįáī¡
áĭ²áĭ«
áĪ½áĭĳ
áĬ³áĬĳ
ĠáĮłáīĴ
Ġ48
ĠáĪĿáĭįáĮ»áĬ¥
ĠáĪĽáĭķáĬ¨
ĠáĪłáĪĪáĪµáī°
ĠáĬŃáīħ
ĠáĬ¨áĪĿáī³
áĪĬáĭ«
ĠáĮ½áĭ®áĬķ
ĠáĪŃáĪµáī²
Ġ43
ĠáĪĺáī¥áĮ½áĭĵ
ĠáĭĿáĭĵáī¢
ĠáĬ¢áĮ£áĪįáĭ«
áĪ¨áīķ
ĠáĭĵáĪª
áĪĺáĪŃáĮ½
ticle
áĪ«áī³áīµ
áĬŃáī°
Ġáĭ°áĪŀáĬŃáĪ«áĪ²
áĪįáĬĵáĭ®
ĠáĬ¢áĪīáĬĴ
Ġ42
áĬ£áī±áĪĿ
ĠáĭįáįħáĬ¢áīµ
ĠáĪĺáĭ°áĪĿáĭ°áĪĿáī³
50
ĠáĬŃáįĪáīµ
ĠáĭŃáĪŃ
ĠáīµáĭĽáĪ¨áī¥
ĠáĬ«áī¥áĬ¦áĪĿ
áīłáĪŃáīµ
áĪĺáĪįáĬ¥
áī°áĭĪáĪ°áĬĲ
ĠáĪĺáīķáĮ»áĭķáī²
áĬ£áĭĿ
áī£áī£
Ġáīħáī¡áĪį
ĠáĬ£áĭĭáĪį
ĠO
ĠáĬ¥áĪĻáĬĵáīµ
áįĪáĪ¨áĬķ
ĠáĬ«áĪķ
ĠáĬ£áĭŃáĪ¨áĬ£
ĠáĪĥáī¡
ĠáĮīáĭµáĬ£áīµ
ĠáĬķáĪĥáĮĪáĪŃ
ĠáĪĺáĪįáĬŃáĭĳ
áĪķáĭ±
áĭĵáĭĻ
ĠáĪįáĭķáĪĮ
ĠáĪĿáīµáĬ¥áĪµáĪ³
áĭŃáĪį
ĠáĬ«áĬĵáĭ³
ĠáĭĺáĭŃáĬĲáīłáĪ¨
ĠáĬµáĪĭ
ĠáĪĽáĪķáīłáĪ«
ĠáĭĿáĮĪáīłáĪ©
ĠáĬ¥áĬĲáĪĨ
áĪĿáĬ©áĪĿ
áįĪáĪª
ĠáĭĵáĭŃáĬķ
ĠáĮ½áī£
ĠáĮĮáĬĵ
Ġáī¥áĬ£áĪĿáĪĭáĬ½
ĠCor
ĠáĪįáĬ¡áĬ½
ĠáĭŃáīµáĪ¨áįį
ĠáĬķáĭ³áĭĬáīµ
ha
áĪµáĭİ
áĪµáĮĭ
áīĵáĬķ
áĬ£áĭŃáĭİ
ĠáĮłáĬķ
ĠáĮłáĪĪáī¥
rect
ĠáĬķáĭįáĪī
ĠáĪļáĪĬáĭ®áĬķ
áĬķáĭļ
ĠáĪĿáĪħáĪŃ
áĪĵáĪ¸
áĬŃáĪ¨
áīĥáĭķ
ĠáĬķáĪĿáĪĿáĪĭ
áĮįáĭļáĬ¡
ĠáĭŃáĪĵáīµáīµ
Ġáĭļáī¥áĪĥáĪį
ĠáĬ¥áĪĿáī¥áĭĽ
ĠáĪ²áĬ¦áĪį
ĠáĬ£áĭµáĪį
ĠáĭĺáīłáĬķ
áīħáĬĵ
ĠáĬŃáīµáĮĪáī¥áĪ®
ĠáįĪáĪ«
ĠáĬ½áįīáĬ¥
ĠáĬ£áĭŃáīµáįĪáĪįáĮ¥áĬķ
áĪķáĪįáįį
ĠáĪĥáĭŃáĪĽáĬĸáī³áĭĬ
ĠáĮĭáĭľáĮłáĬĽ
Ġar
áĭĿáī°
áĪ°áĪĭáĪĿ
Ġáī¥áĭĪáĮĪáĬķ
ĠáĮĥáįĵ
ĠáĬ¤áĪįáĭ«áĪµ
ĠáīłáĭŃáĬĲáĭŃ
ĠáĭĿáĬ¨áĬ£
ĠáĮłáĪĪ
ĠáĪĺáĭĵáĪŃ
ĠáĪĺáĪĪáĪ°áĪī
ĠáĪĺáĪĪáĪ°áĪİáĪĿ
Ġáī¥áĪĺáĪįáĬŃáĭķ
²áį
ĠáĬ£áīĵ
áī³áī±áĬķ
áĭ°áĬ«
ĠáĭŃáĭĪáĪµáĭµ
ĠáĭµáĪĻ
áĪĬáĬ¦áĪĿ
ĠáĬ«áī¥áĭĽ
ĠáĪķáĮįáĬķ
áĮĭáĭµ
ĠáĭįáĪ«áĭŃ
áĪĴáī³áīµ
Ġáī¥áĭĺáĪĭ
Ġcom
ĠáĬķáĮįáīłáĪŃ
áĬĲáĭĪ
Ġáī¥áĮŃ
ĠáĬĲáīłáĪ®
áĪ³áĪŃ
áĬŃáĪķ
ĠáĬĲáĭŃáĪ©áĬĴ
ĠáĭĿáĬ£áĪĿáĬķ
ĠáĬķáĪŃáĬ¢
áĪĺáĭĵáĬĴ
ĠáĬ¨áĪĿáĬ¥áīµ
áī¢áī¥
ĠáĭįáĮ¹
ĠáĬŃáīµáĬĲáī¥áĪŃ
Ġáī£áĪ®áīµ
ĠáĬķáĬ¥áĪµ
ĠáĭĵáĪŃáĬª
ĠáĮįáīłáĪŃáĭİ
ĠáīĽáĬķáīĭ
áīłáĬ½
ĠáĪķáĮĭ
ĠáĬŃáĬķáĬĲáī¥áĪŃ
ĠáĬ®áīªáĭµ
áĪĶáīµ
ĠáĪµáĪ«áĪķáĬķ
ĠáĮĪáĭŃáĪ«
Ġáĭĳáĭ°áīµ
Ġo
áĪīáĪį
áĮ½áĬł
ĠáĮĪáīłáĪ©
ĠáīħáĬĳ
ĠáĪªáĬ¢
áī«áĪį
ĠáĪŃáĬ¢áĬĵ
áĮłáīħáĪĿ
TV
áĪŃáīłáīµ
áĭįáĮ½áĬ¥
ĠáĬ¤áįį
ĠáīµáĪĿáĪħáĪŃáīµáĬķ
ĠáĬ¨áĪİáĬĵ
ĠáĭĪáĮ»áĬ¥
áĮłáī£
ĠáĭĿáįįáĮ¸áĪĿ
ĠáĭĺáĪĺáĬĵáĭĬ
ĠáĬŃáĪħáĪįáĭĪáĬĵ
ĠáĭĺáĮĭáĮ¥áĪĿ
áĭŃáĬĲáĬķ
ĠáĭĿáĮ½áīł
áĪ«áĬ½
ĠáĭĺáĪĽ
áįĥáįħ
ĠáĬ£áī¢áĪĪ
Ġáī°áĮłáīĥ
áĬķáīĢáĪ³áīĲ
ĠáĪ°áĪĿáĭĳ
ĠáĬ£áĪ®áĬķ
áĪįáĮ£
ĠáĬķáī£
áĬ£áĪ°
ĠáĪĿáĪ¥
áĬ½áī¥áĪŃ
áĪ°áĭ±
ĠáĭĵáĪ«áīµ
ĠáĪĽáĭ«áīµ
ĠáĬķáĪĿáĬ½
áĮĬáĭµ
ĠáĬķáĪµáĪĿ
ĠáĭĭáĭŃ
ĠáĬ£áĪĺáĪĵ
ĠáĪĿáĪķáī³áīµ
ĠáĮįáī¥áĮ»
ĠáĬ£áīłáĪĥáĪħáĪĭ
áĭĭáĭķáī³
Ġáī¥áĬ£áĭŃ
áĪĭáĬ¥áī²
áĮĵáĭµ
ĠáīĢáĭ³áĪĿáĬĲáīµ
ĠáĪłáĬĵáĭŃ
ĠáĪĺáīµáĬ¨
Ġáī°áī£áĭķáīµáĭ®
ĠáĪµáĮķáĪĿáī²
áĪĭáĭ©
áĭĵáĭ®
Ġáĭķáī¤áīµ
Ġáīķáĭ±áĪµ
ost
ĠáĪĿáīµáĬ«
áĪħáĪīáĬķ
ĠáĭļáĪĿ
áīħáĭµ
ĠáĬ½áĬ£
ĠáĬ¥áī°áĭĭ
áĪħáĪįáĭĪáĬĵ
ĠáĬ£áĭŃáĬ°áĬĳáĬķ
ĠáĭµáĪķáĪ¨
ĠCorrect
ĠáĬ£áĪ°áĪŃ
ĠáĪĺáĭĲ
ĠáĬķáĬ½áī¥áĪª
ĠáĬ£áī¢áĪįáĬ«
Ġáĭ°áī¥áĭ³áī¤
29
ĠáĬ£áįĭ
ĠáĬķáĬ»áĪįáĬ¥
ĠáĮ¸áĬĴáĪĸáĪĿ
ĠáĭŃáīķáĪ¬áī³
ĠáĪµáīħ
áĬ®áĪµ
áĪĿáĪŃáĪĿáĪŃ
ĠáĮĭáĪ»
áĭµáĬħ
ĠáįįáĪŃáĭ«áīµ
ĠáĭĿáī°áįĪáĪĭáĪĪáĭ«
ĠáĬ¥áĬ½áĪĬ
ĠáĬ£áĪ²
áĬĲáīĳ
Ġáī¥áĪĿáĬķáī³áĭŃ
áī£áĪµ
áĭįáĭµ
áĮ»áĮ½
áīĢáĪµ
ĠáĪ°áĪįáįįáī³áīµ
Ġto
ke
áĪŃáĪĳ
áĪĪáĭŃáĬķ
áĪĵáĮİ
áĭİáĪĿáĬķ
ĠáĬĵáĭŃáĭĽ
ĠáįĪáĮ»
Ġáī¥áįįáĮ¹áĪĿ
áĪĭáĭįáĬĲáīµ
Ġ2008
áįĪáĪĪáĮł
Ġáī¥áĪŃáĪĥáĬĲ
ĠáĪ¨áĭµáĬ¤áīµ
áĪĽáĪĿáĬķ
ĠáĪµáĪļ
ĠáĬ£áĭŃáįĪáĪįáĮ¡áĬķ
ĠáĭĺáĭŃáīħ
ĠáĬŃáīµáįĪáĪįáĮ¥
ĠáīĢáĪµ
áįĬáĪĳ
ĠáĮ½áĪĳáįĭ
ĠáĬ£áĭµáĪĽ
Ġáī°áĬ¸áįĬ
ĠáĭĿáī°áĭĪáĪ°áĬĲ
ĠáĪŃáĬ¤
Ġáī¥áĪĺáĭĵáĪįáī²
ĠáĭĺáĪĪáĬĵáĭ®
ĠáĮŃáĪŃ
ĠáĬ£áĭŃáĬŃáĪĵáĭµ
ĠV
áĪ«áī±
áĭ°áīłáīµ
ĠáĪĵáĭī
ĠáĭĺáĭŃáĪĿáĪŃ
ĠáĪ¨áīĽ
ĠáĬ£áĮ¥áįĬ
ĠáĬķáĪŀáīµ
ĠáĬĵáĬ¥
ĠáĭĪáĭ®
áĭ¶áĪĿáĬķ
ĠáĮ½áĪ©áĭŃ
ĠáĪ³áĪĿ
ĠáįįáīµáĪķáĬķ
ĠáĭŃáī¥áĪĪáĬĴ
ation
áĪµáĪĺáĭŃ
ĠáĮ¢
ĠáĬķáĬĲáī¥áĪŃ
áĮįáįį
áĪªáĬ¦
ĠáīµáĭĬ
Ġáī¥áįįáīķáĪª
ĠáīĨáĪįáĭĳáīµ
ĠáĬŃáĬ¢áĪī
áĮ¥áĪª
ĠáĮĮáĮĭáī³áīµ
áĪķáĮįáĭŀáĪĿ
áĪ³áĭŃáīµ
áĪķáĪįáįİ
ĠáĮķáĭµ
ĠáĬķáĬ¢áĭ¨áĪ±áĪµ
ĠáįĢáĮĪáĪĽáīµ
áĬ£áĭ¨
áĬ£áĭ®
áĪ«áĭįáĬķ
áĪ°áī¥áĬ©
Ġáī¥áīĲáĮ»áĪĬ
ĠáĪµáĪĪáĭĺáĪİ
Ġáī°áĪĺáĪ«áĪĺáĪŃáī²
áĮ©
áī°áĭ¨
ĠáĭĿáĮħáĪĿáĪŃ
áĬĲáī¥
ĠáĪķáī¥áĪª
Ġáī¤áī°áĬŃáĪŃáĪµáī²áĭ«áĬķ
Ġáī°áĭĵáĮ½
ĠáĪĺáĪł
ĠáĪĿáĮ½áĬķ
áĭµáĪ½áī°
áĭĿáĮĪáī¥
ĠáĬ£áĭŃáīłáĪį
ĠáīµáĪ°áĪŃáĪķ
áĬ¸áī¥
ĠáĬłáĭ©
áīĨáĪ®
ĠáĬķáĭĺáĪį
ĠáĪ«áī¥áĭĵáĭŃ
áī¥áĮ½
áĭµáīħ
ĠáĬĲáĭĺáĬķ
ĠáĭŃáĮįáĭ°
áĪ³áĪķ
ĠáĭĺáĪĪáĬ©áĪĿ
ĠáĬ£áī¦áĬ¹áĪĿ
ĠáĮĵáĪ³
Ġáī°áĮįáī£áĪ«áĭĬ
ĠáĪĵáīĢáĭŃ
áĪĪáĭ«
ĠáĬķáĬ«áĪįáĬ¦áīµ
ĠáĪĵáĮİ
ĠáĭŃáĬ¨
ĠáĪĪáĪĿ
áĪ¨áĬ½áī£
Ġáī°áĬ¸áī³áī°
ĠáĪķáĭŃáĭĪáīµáĬĵ
Ġáī¥áīķáĪįáĮ¡áįį
ĠáĬ£áĭ²áĬ¡
ĠáīłáĮĥáĬ¹áĪĿ
ĠáĪĺáĬĵáįį
th
ĠáĬķáĪİáĪļ
ĠáīµáĪįáĪļ
Ġáī£áī¡áĪŃ
ĠáįĸáĪİ
ĠáĪĿáĪĿáĪĥáĪŃ
ĠáĪĴáĭĽ
ĠáĪĿáĭįáĪ³áĭµ
ĠáĪĺáīµáĬ¨áĪį
ĠáĬ£áīĳ
áī³áĪĽáīµ
ĠáĬĲáīĲ
ĠáīµáĪķáīµáĬĵ
Ġáī¥áĪ¨
ĠáĪ°áĪľ
áīķáįĭ
áĬ¹áĭİ
Ġáī¥áĪĿáįį
Ġáī°áĪĵáĮĴ
áĪĺáĪµáĮįáĬĸ
ĠáĬ¥áĬķáī°áĭĪáĪĵáĭ°
áĭĭáĬ½áī¥áī²
áĭ±áĪ³áīµ
ĠáĬŃáīµáĬ¨áĭŃáĭµ
ĠáĬķáĪ±áĬķ
ĠáĪ³áĪįáĪ°áĭŃáī²
ĠáĪ°áĬĲáĭ³áīµ
ĠâĢ¹âĢ¹
áĪįáĪµ
áĬ¸áįį
áĭĺáĭĺ
ĠáĪķáĬĲ
áĪ®áĬķáĬķ
Ġáī£áĭŃ
ĠáĬķáĭĪáĭ²
Ġáĭ³áĬķáĬ¤áĪį
ĠáĭĿáĭĭ
áĬ©áĭĭ
ĠáĬŃáĬķáĭĿ
áĪĪáĪĿáī²
ĠáĬ£áĭŃáī°áĪŃ
ĠáĪĿáĪµáīµáĭįáĭĵáĪį
ĠáĬ¥áĮĪáī¥áĪŃ
áī£áĪ½
áĭĿáĬ¾áĬĲ
ĠáīµáįĪáĪįáĮ¦
áĭĽáĪĿ
áīµáĬķáĪµ
áĪĻáĪī
ĠáĭĺáĪİáĭİ
Ġáī°áĪĺáĬ©áĪ®
Ġ2010
ĠáĬĲáī¥áĪ±
Ġáī°áĪĺáĪĬáĪ¶áĪĿ
ĠáĪŃáĬŃáī£áīµ
áįįáĬķáī²
ĠáīłáĪª
áĪĻáĪ½áī°
ĠáĬ£áī¦áī³áīµáĬĵ
ĠáĪĿáīµáĪķáī¥áī£áĪŃ
ĠáįħáĪķ
áįįáĪįáĮł
ĠáĬ¥áĬ©áĭŃ
ĠáĭĿáĬł
ĠáĭĿáĪŃáĬ¨áī£
áĪķáīµáĬĵ
ĠáĭŃáįĪáĪįáĮ¡
ĠáĪĵáīłáĪ¬áī³áī³áīµ
Ġáī°áĪ°áĪĽáĪļ
ĠáĪįáĪĿáĭ²
áĪĺáĪĿ
ĠáīłáĭĽ
ĠáĬ¥áĭļáĬłáĬķ
ĠáĬ£áĪĪáĪĿ
ĠáĭĺáĪİáĬ¹áĪĿ
ĠáĮłáīł
áĭµáĪķáĬĳ
áĮ¥áīĥáĪµ
áĪĥáīłáĬ«
áĪŃáĭĭ
áīłáĭ«
ĠáĭĿáĭĺ
ĠáĪĺáĭ³áĭ«áīµ
ĠáĬªáĬķ
ĠáĬ¥áĬķáĭ³áī°
ĠáĮ¥áīłáī¥áĬķ
Ġf
áĭ°áĬĴ
ĠáĭĪáĭ³
áĬ®áĪĿ
ĠáĬ¥áĭ®áī¥
Ġáī¥áĪĿáĪŃ
ĠáĪ½áĪįáĪĽáīµ
Ġáĭ®áĪŃáĭ³áĬĸáĪµ
ĠáĮ¾áĪŃ
Ġáī¥áĪĺáĬķáĮĪáĭ²
áĬ£áĪĿáĬĸ
áī°áĪĪ
áĪĺáĭĵáĪį
áĪ°áī²
ĠáĬ¥áĬķáī°áĪĥ
ĠáĬ¥áĬķáī°áĭ°áĪĬ
ĠáīµáĬķáĪ£
ĠáĭŃáĪĿáĪħ
ĠáĮ½áĪįáĬ¢
áĬ¥áĭĭ
áĭ°áīł
ĠáĪµáĭµ
ĠáĬ¥áĭ«áĪ±
áĮĪáī¥áĪŃáĬķ
áĬĶáĬķ
áĪħáīłáĬ©áĪĿ
Ġáī¥áĪĿáĬ¥áī³áĭį
áĪįáĭķáĪį
áĪĭáĪĭáĭŃ
ĠáĬŃáīµáĪŃáĬ¢
ĠáĬŃáīµáĮĪáī¥áĪ©
ĠáĬ½áīµáĬ¨áĭįáĬķ
ĠáĮ¸áĪĵáįĬ
ĠáĮ¹
áĪĺáĪĥ
ĠáĭŃáĪĥáī¥
ĠáĪ°áĮĬ
ĠáīµáĪĵ
áĮ¸áĬĵáĬķ
ĠáĬķáĬ£áĪ½áī±
ĠáĪĺáĮ½áĪĵáįįáī²
ĠáĬķáĬ½áĪįáī°
ĠáĭĿáĬ¸áĬ£áĪĪ
ĠáĪĺáĮłáĬķáīĢáīķ
áĬĵáĬĴ
áĪĽáĪŃáĭ«áĪĿ
áĪ³áĭį
ĠáīµáĬ¸áĭŃáĭµ
ĠáĭĺáĭŃáĪĵ
ĠáįĪáĭį
ĠáĬ£áĭŃáĬķáįĪáĪįáĮ¥áĬķ
ĠáĪĿáįįáĮ£áĪŃ
ĠáĬķáĪĺáĬķáĮįáĪµáī²
Ġáĭķáĭīáīµ
ĠáĬŃáįĭáĪĭáīµ
ĠáĪĺáĪ¨áĮĭáĮĪ
ĠáĬŃáĬ¾áĬĲ
áĪĭáĭµ
Ġáī°áĪŀáĬŃ
ĠáĪĵáīħáĬķ
ĠáĬ¢áĪ«áĬķ
áĮĭáĬķáĭ³
áĪĿáĪŃáĭĸ
Ġáī°áī£áĪĤáĪĭ
ĠáĪĿáĪĿáĪķáĭ³
ĠáĬķáĮ¹áĪħ
Ġáī¥áĬĵáĮ»
il
ss
áĭĪáĪĪ
áĪħáĬ¤
áĬĴáĬĵ
áĪµáī°áĭįáĭķ
ĠáĪĺáĪµáįįáĬķ
ĠáīģáĮ½
ĠáĬ£áĮ½áĬĴ
ĠáĪĿáĮħáĪĽáĪŃ
ĠáĮłáīĵáĪļ
áĮ²
áī°áī£áī¥
ĠáĪĺáĮł
áĬŃáĬĴ
ĠáĭĪáĪįáĭµ
ĠáĮĪáĪĭáĭī
ĠáīħáĭµáĪµáī²
ĠáĪŀáī±
Ġáī¦áī³áĬķ
ĠáīĲáĪªáī¡
ĠáĬ¤áĭįáĪ®áĮ³áĭĬ
áĮįáĪ©
áĬ¨áĪ¨
ĠáĪĽáĬªáĬĵ
ĠáĪĺáĪªáĪŃ
ĠáĪĴáĭĿáĬĵ
ĠáĪĿáĬŃáĬķáĭ«áī±
ĠáĭĵáĪµáī¢
ĠáĬ£áįįáĬķáĮ«
áīłáĪĬ
áĪ«áī¢
ĠáĪµáĪĴ
ĠáĭĵáĪĮáīµ
ĠáīłáĮĬáĭķ
ĠáĪĿáĮįáĪĭáĮ½
Ġáī°áīĵáĪĬ
Ġáī«áī²áĬ«áĬķ
ĠáĬķáĬ¥áĪ½áī°áĭŃ
ĠáĪµáĭĬáĭĺáĪŃáĪĭáĬķáĭµ
ĠáĬ¥áĪĿáī¥áĬ£áĪŃáĪ²
áĭµáĬĴ
ĠáĭŃáĭĵáī¢
ĠáĬ¥áĬķáĭ²
áĪĥáī¢
áĮłáī¥
ĠáĬ¥áĬķáī°áĪĥáĪį
ĠáĬ£áī³áĬ½áĪįáī²
ĠáĪµáī¥áĬ¨áīµ
ĠáĪĺáī¥áĪ«áĪħáī²
Ġáĭĺáĭĺ
ĠáīµáĬ¹áĬķ
Ġáī³áĪªáĬŃ
ĠáįĢáī¥
ĠáĭĿáĮ¸áĬķáĪĳ
ĠáĪķáĭ«áĭį
ĠáĬķáĮĵ
Ġáī¥áĭħáĪī
áĭĵáĪ¨
Ġáįįáīĳ
ĠáĪŃáĬ¹
ĠáĬ¥áī°áĮĪáī¥áĪ¨
Ġ196
áĪ¨áĬ£áĭ©
ĠáĬŃáĪ°áĪŃáĪĳ
áĪħáī¥áĬķ
ĠáīħáĭµáĪµáīµ
áīĨáĪµ
ĠáĬ£áĭŃáĬĲáīłáĪŃ
áĭŃáīķ
Ġáī¥áĪŃáĬ¥
áĭ°áĪİ
ĠáĪħáįĥ
áĪµáī°áĭįáĭķáĪį
áĭŃáĬķáĬ«
ĠáĬĲáĮĪáĭµ
ĠáĬŃáĪįáī²áĬłáĬķ
ĠáĬ£áĪĥáĭ±
ĠáĬ£áĮĪáĪįáĮĪáĪįáī²
ac
áĬķáī°
Ġáī¥áĪŀáīµ
ĠáĪĿáĪĥ
áĪĵáĬ«
ĠáĬĶáĪŃáĬ«
áĮŃáī³áīµ
ĠáĬŃáĪ½
Ġáĭ°áĪįáĭ©
ĠáĪĥáĭ¨
ĠáĪĿáĭµáĪ¨
áįĪáĪŃáĪħ
ĠáĭĿáĮłáįį
ĠáĬ«áĪĿ
áĬ»áĭµ
áĭ¨áĪ¨
ĠáĪŃáĬ½
ĠáĪŃáĬ¥áĭ®áĪĿ
ĠáĪĥáĮĪáĪ¨áĭŃ
áīģáĬķ
áī¥áĪħ
Ġáī¥áĪķáĪį
áĭµáĭ©
áĪ¨áīłáĪī
Ġáī°áīĺ
Ġáīłáĭ³
Ġáīłáī¢
ĠáĪĥáī¦
áīĢáĬĴ
ĠáĮķáĮħáĪĪ
ĠáĪĿáīķáĪ«áī¥
ĠáįįáĪįáĪįáĭ«áīµ
ĠáĭļáĪµ
Ġáī£áĬ¥
ĠáĪĵáĭ²áĪµ
ĠáĭĿáĮĪáī¥áĪŃáĭİ
ĠáĬ£áĪĺáĪįáĬªáī±
ĠáĭŃáįĪáī±
ĠáĭĪáĪįáĭ°
áīķáĪį
ĠáįĪáĪĪ
ĠáĬ½áįį
Ġ2021
ĠáĬ£áĪŃáī¥áĭĵ
ĠáĪĺáĬķáĬ¥áĪ°
ĠáīµáĪĿáĬĴáīµ
ĠáĬ£áĭŃáĪĺáĪµáĪįáĬķ
Ġáī¥áĪīáĭŃ
ĠáĬ£áĭŃáĪ¨áĬ¸áī¥
Ġáī¥áĭĵáĭŃáĬĴ
ĠáĬ£áĪ»
áī°áĪİ
ĠáĬŃáī¡áĪ«áīµ
áĪĵáĭĻ
ĠáĭŃáĮħáĪĿáĪŃ
ĠáĪħáĭĿáī¡
áĭĥáĬĳ
Ġáī£áĪħáĮĬ
ĠáĪ±áĪŃ
ĠáĬ£áĬħ
ĠáĬķáĪµáĪĵ
ĠáĬ£áī¦áĬ»
ĠáĭĪáĪŃáĪĵáĭĬ
ĠáįķáĪĭ
Ġáī°áĪĵáī¢
ĠáĬķáĪ°áĪĪáĪµáī°
ĠáĬķáĭĪáĪĪ
Ġáī¥áĮ¸áĪİáīµ
áī¥áĪĥáĪĪ
áĬĢ
áĬĲáĭ¨
áį£"
áĮĬáĪĳ
ĠáĪĵáĪĻáĪµ
ĠáĬ£áĭįáī¶áī¡áĪµ
áĬ»áĬ¥
áĪħáĪ«
ĠáĭķáĪĿ
ĠáĪŃáĬ¥áĪ³
áĪĭáĪĪáĪµ
ĠáĭĿáĭĪáĪ¨áĭ°
ĠáĪĤáī¦áĪĿ
ĠáĬ£áĪįáĬ£
Ġáī°áĭĽáĪªáī¦áĪĿ
ĠáĬķáĮīáĪ¥
Ġáī±áĪŃáĬª
Ġ<<
ĠáĭĿáĮĪáĪŃáĪĿ
Ġáĭĵáĭĭ
ĠáĬ¥áĬķáī°áĭĺ
ĠáĪ¸áĭŃ
ĠáĬ£áĮĭáĭŃáĪ½
ĠáĮķáĭķáĭŀ
ĠáĬ£áĬª
áĮĪáįį
Ġáĭĵáĭ±
ĠáĪ¨áĬ£áĭ©
áĬĲáĪµ
áĬ£áĪĪáĪĽáĭĬ
ĠáĬĵáīķáįĭ
áĭ²áĭ®
ĠáĭķáĮ¡
áī´áĬĵ
ĠáĪĿáĭįáĪ³
áīĲáīµáĪī
ĠNews
ĠáĭĺáĭŃáĪķáĮĭáĭĬ
ĠáīĺáĪįáĭĵ
áĭ³áĪī
ĠáĬŃáīµáĪ°áĪŃáĪķ
ĠáĬŃáĬķáĪŃáĬ¥áĭ®
áĮĪáĪįáĮįáĪİáīµ
ĠáĬ¥áĬķáĬ¨áĪĪáĭī
ĠáĬ¢áĬķáĭ±
áĪĿáĪħáĪ®
áĪŃáīĤ
ĠáĬŃáĮĪáĪįáĮ½
áĭĺáĭŀ
ĠáĭļáĬ£áĬŃáĪį
ĠáįĪáī³áĭĬ
ĠáĮĪáĭĽáĬ»
ĠáĬ¢áĭ¨áĪ©áĪ³áĪĮáĪĿ
ĠáĮĥáĪįáī£
ĠáĪĺáĬĲáī£áī¥áĪ®
Ġáī¥áīĽáĬķáīĭ
ĠáįĪáĬķ
ĠáįĪáĮłáĪ¨
áĮ£áīµ
ĠáĬķáĬ£áĬ»áīµáĬ©áĪĿ
Ġáī°áīĲáĪĺáĮł
ĠáįįáĪŃáĭµ
ĠáĭįáĭµáīĢáīµ
ĠáĬ£áĭ³áĪ«áĪ½
ĠáĪĿáīµáĬ¥áĪµáĪ³áĪŃ
ĠáĬķáĭĺáĪįáĬ£áĪĪáĪĿ
ĠáĬ£áīłáĭ¨
áĬ¥áĬ©áĪĿ
ĠáĭŃáĮĪáī¥áĪ®
ĠáĭŃáĮįáĪĪáĮ½
áĮ»áĮ¸áĪŃ
ĠáĭĿáī°áī£áĪħ
ĠáĮ¸áī£
áĮĵáĭĵáĭĿ
áĪĥáĭ°áĪ«áĭĬ
áĪ¨áįī
ĠáĬ¢áĬ«
áĪ³áīµáĬķ
ĠáĭĿáįĪáĮłáĪ¨
ĠáĬ¥áĭĿáĬĴ
ĠáĮĢáĬĲáĪ«áĪį
ĠáĭĿáĪ¸
ĠáĭĿáĪ°áĪĿáĭķ
áį¡*
ĠáĬ¥áĬķáĮįáĪĬ
áĬŃáĭ®
áĪ®áĪľ
áĪŃáĬ¨áī¦
ĠáĬµáĪĭáī¶áĪĿ
áĮ½áĪķáįĪáīµ
ĠáĬ£áĪķáĭĭáī±
ĠáĭķáĬķáīħ
ĠáĮįáĪĪ
ĠáĭĪáĪµ
ĠáĮİáĬĴ
áįįáĪŃáĭ²
Ġáī¥áĭķáĭµáĪĺ
31
lo
ĠáĪĺáĪ®
áĭµáĭ³áĬ¥
ĠáĬŃáīµáĪĿ
ve
ĠáĬķáĭ¨
ĠáĭŃáįĪáĪįáĮ¦
áĬ©áĪį
ĠáĬ¥áĬķáī°áīµ
ĠáĬĵáī¥áĬ£
áĪĺáĪŃáĪķ
áįħáĬķ
ĠáĬ£áī£áĬ»
áī°áĪĵáĪ³áĪµ
ĠáĭĿáī°áįĪáĮ¥áĪ¨
ĠáĬ£áĭŃáĬ¨áĬ£áĪīáĬķ
áĪįáĮ¥
ĠáĬ£áī¥áĭŃ
ĠáĮįáĮīáĭŃ
áĭĺáįį
Ġáī¥áĪĿáĬ½
ĠáĬ¥áĪµáĪįáĪĿáĬĵ
Ġáī°áĪ°áĭĬ
Ġ90
Ġáĭ°áĮĪáįįáī²
áįĸáĪĪáī²áĬ«
ĠáįĵáĪŃ
Ġáī¥áĪĺáĪ°áĪ¨áī±
ĠáĮ¥áĭĳáĭŃ
ĠáĭķáĪŃáīĤ
Ġáī°áĮłáīĢáĪĿáī²
Ġarticle
ĠáĭĿáĪħáī¦
ĠáĪĵáĭĺ
áĮłáĪ©
ĠáĪĽáĭŃáĬķ
ĠáĭĿáī°áĪĺáĪµ
ĠáĪ¶áĪĽ
ĠáĬĲáīłáĪŃáĬĵ
ĠáĭĺáĮĭáĮ¥
áĬ¬áīµ
ĠáįķáĪ¨áĪ²áĭ°áĬķáīµ
áĪĪáįĪ
Ġáī¥áĪ¨áīµ
ĠáĬŃáĭĭ
ĠáĬŃáĪ°áĪŃ
ĠáīĤ
áĮłáīĢ
ĠáĬĲáĮĪáĪ©
ĠáĮįáĪįáĮĭ
áĪµáįĸáĪŃáīµ
áī£áĭįáĭ«áĬķ
ĠáīµáĪ«
ĠáĭĺáĭŃáī²
ĠáĮ¥áĪįáĭ«áĬķ
ĠáĪįáī¦áĬĵ
áĪŃáĬĵáĭ®
Ġáĭ®áĬĵáĪµ
ĠáĪĺáĭĿáĪĻ
áĮ¥áĪĿáīµ
Ġáĭ¨áĭµáĪįáĭ¨áĬ«
Ġáī¥áĮĢáĬ«
ĠáĬĲáĬĵ
áĪŃáĪĿáĭ«áĪµ
áĪŃáįį
áī°áĮĤ
ĠáĭĿáĪµáĪĿ
áĪĥáĬĲ
áįħáĪķ
Ġáĭ³áĬ£
áĪŃáĬ«áĭ®
áĬŃáīµáĪªáĬŃ
ĠáĬķáĪĿáįįáī³áĪķ
áĭķáī¥áĭ«
ĠáĭĺáĪŃáĬ¥áĪµáī³
ĠáĬ£áĪŀ
áĬĲáī±áĬķ
áĭµáī¥
áĪķáĭĽ
ĠáĭŃáĪŃáĬł
ĠáĭįáĮį
ĠáĭļáĭĽáĪ¨áī¥
ĠáįĪáĮ¢
ĠáĪ½áĬ®áĪŃ
ĠáĬ¥áīµáĬ¸áĭįáĬķ
ĠáĪŀáĭ«áĭĬ
áįħáĪŃ
ĠáĪĽáĭķáīłáĪį
ĠáĬķáĭ°áĪĵáĪŃ
ĠáĭŃáĪķáī¥áĪŃ
ĠáĮįáĪŃáĪĿ
áĬķáī³áĭŃ
ĠáĬ£áĪĿáĪŃ
ĠáĬ¥áĪĿáĬķ
Ġáĭ¨áĪĺáĪįáĬŃáīµ
ĠáĪĿáĪŃáĬ»áī¥
ĠáĮĪáĪĬáĬ£áī¶áĪĿ
ĠáĮŃáī¥
áĬ«áĭŃáĭ±
ĠáĮ¸áĪİáīµáĬķ
ĠáĭĿáĪ½
Ġáī¥áĮĲáĭŃáī³
ĠáĬ¨áĭ±
áĪ«áīķ
áĪ³áĪ°áĪį
ĠáĬķáĬ£áĪĿáĬķ
ĠáĮĮáĪ®áĪĿ
Ġáī¥áĬ¥áī°
ĠáĬķáĮĪáĪ¨áĬĴ
Ġáī¥áĭįáĪķáĭ±
ĠáĪĵáĪ¨áĪµáī¶áīµ
Ġti
áĮ®
ĠáĬķáįĪáĪįáĮ¦
áĪĽáī±
áĪĵáįĪ
áĬŃáĪįáĬĵ
áĮĲáĭŃáī³áĭŃ
ĠáĬ¤áĪŃáīµáĪ«áĬķ
ĠáĬķáĬĲáī¢áĭŃ
ĠáĪµáĮĭáĭĬ
ĠáĬŃáĪħáĪįáĭİáĪĿ
ĠáĮİáĪ¨áī£áī¥
ĠáĮŃáĬķáīĢáīµ
ĠáĬŃáĭĵ
áĭ°áĪ°
áĮ¥áĪ©
ĠáĬŃáĬķáĬ¨áĭŃáĭµ
Ġáĭľáĭ°áĬķáīķ
ĠáĬĲáī¥áĪµáĬ»
ĠáĪĿáĬĵáĪįáī£áĪ½
áĪĵáĪĪáįĪ
ĠáĪĽáī´áĭİáĪµ
ĠáĬķáĪĿáĭĥáĬķ
Ġáī¥áĪĻáĪīáĬ¥
Ġáīħáĭ³áĪ´
ĠáĬ¥áĪĺ
Ġáī°áĪĲ
ĠáĬĵáīµ
áĭĪáī²
Ġáĭ°áĬº
ĠáĬ¥áĪŀáĬ¸
áĬ°áĬĳ
ĠáīģáĪŃ
ĠáĪ«áĪħ
Ġáī¥áĮįáĪį
Ġáī¥áĭĪáĮįáĭĴ
ĠáĬŃáĬ¸áĭīáĬķ
Ġáī°áī£áĭķáī³áĭŃ
ĠáĬ£áĭŃáĬ°áĬķáĬ©áĬķ
ĠáĭŃáīĲ
áī±áī¥
ĠáĮ¸áĪįáĭ©
ĠáĬªáĪİ
ĠáĬķáĪµáĪ«áĪķ
ĠáĬķáĪĵáīĤ
áīłáĬ£áĬĵ
ĠáĬķáĪ°áīłáĭŃ
áįįáĬ©áĪĿ
ĠáĮįáĬ¥áĭĿ
Ġáīµáī¥áĪİ
ĠáĮ¥áĪ«
ĠáĬ£áĭŃáīµáįįáĪ«áĪħ
Ġáĭ³áĭŃ
Ġáī¥áĬ£áĬ»
ĠáĪĨáī´
ĠáĪ®áĪĽ
ĠáĬķáĮ½áī£
Ġáī¥áĭ°áĪĵáĬķ
ĠáĬ»áĪįáĬ¦áīµ
ĠáĮįáĭµáī¥
ĠáĮĪáĭĿáĬ¡
Ġw
áĬ¥áĪĺáĬķ
áįĭáĭķ
áĭĽáĪ¨áīłáĪī
Ġáī¦áĪŃáĭµ
Ġáĭ®áĬĵ
Ġáī¥áĭĿáī°áĬ»áĬ¥áĪĪ
ĠáīµáĪĿáĬĴ
Ġáī°áĪĺáĪĬáĪ°
Ġáīµáī¥áĭĵáīµ
ĠáĪĽáĪĪáī°áĭŃ
áĪįáĪ²
áĭįáĭĲ
áĮįáī¥áĪŃ
áįĪáĮ¸áĪĺ
ĠáĮįáĮŃáīµ
Ġáĭĵáĭ°áĭŃ
áĪ©áīµ
ĠáĬĲáī¥áĪ²
ĠáĪĿáĮ½áĪĵáįį
ĠáįĮáĭ°áĪ«
Ġáī°áĮłáĬķáīĢ
ĠáĬ£áĪĿáĪĵáĪ«
ĠáĬ£áĪĿáī£áĪ³áĭ°áĪŃ
ĠáįħáĪķáįĪáīµ
ĠáĪĺáĮłáĬķáīĢáīķáī³
áĪµáįĪ
ĠáĬŃáīłáĮ½áĪķ
ĠáĭĺáĭµáĪį
ĠáĭĵáĬķáĭ²
áĮ¥áĭĴ
ĠáĭļáĪĿáĪįáĬ¨áīµ
ĠáĭĿáī°áĮ¸
ĠáĭĪáĮ»áĬ¢áī³áīµ
ĠáĪŃáĬ¢áī¶
ĠáĮ¥áĪĿáīĢáīµ
Ġáī°áīĲáĪļáĮ¡
ĠáĬķáĪĺáĮĢáĪĺáĪŃáĭ«
ĠáĭĺáĪŃáĬ£
ĠáĬ¥áĬķáĭ¶
ĠáĬ£áĭŃáįĪáĪĪ
áĮ¥áĪŃáĬķ
ĠáĪĥáĪĪ
áį§+
áĪĺáĪµáĪĪáĬĴ
áĮħáĬķ
ĠáĬ£áĭįáĪ®áįĵ
ĠáĮ£áĭķ
ĠáĪħáĭĿáī¥áĬ»
ĠáĬ£áĪķáĭĭáīµáĬķ
ĠáĬķáĭĭ
Ġáī¥áĪĺáĪµ
Ġáī¥áĬ¨áĪĺáĭŃ
áĪĺáĪĪ
ĠáĪĵáĪª
áĪ³áĬĲ
ĠáĭĵáĮ½
áĪ½áī³
áĪħáĪįáĭİáĪĿ
áĪĵáĭ°áĪŃ
ĠáĭķáĪĪáī³áĭĬ
Ġa
ĠáĪĺáįĪ
áĮĪáĮ¥
áĪħáĬĵáīµáĬķ
ĠáĪķáĭ°
Ġáĭ°áĮĭ
ĠáĮĪáĮ»áīµ
ĠáĪįáĭ°
ĠáĪļáĭĽáĬķ
áĮħáĪĿáĪ©
ĠáĬķáĭĵáĬ¹áĪĿ
ĠáĬ£áĭĿáĪĽ
ĠáĬ£áīķáĪĵ
ĠáĪŃáĪĳáĪµ
âĢºâĢº
ĠáĭķáĪ½áĬĲáīµ
ĠJ
áĭŃáī¥
ĠáĭŃáī¥áĪİ
ĠáĬ¨áĭŃáĭĪ
ĠáĬŃáįįáĪįáī³áīµ
ĠáĭįáĪ½áĮ¥
ĠáĭĿáĬ¸áĭ±
ĠáĭĿáī°áĭĪáĪĪáĭµ
ĠáĬķáĪħáĭĿáī¡
ĠáĬķáĪĿáĪŃáĬ£áĭŃ
áĪ¨áĭ¨
áĪ¨áĭ®
áĪĵáĬķáī²
ĠáĪ°áĬĳáĭŃ
Ġáĭ°áīłáĬĵ
ĠáĪŃáĪµ
ĠáĪĺáĪµáĪĪáĬĴ
áī¥áĪªáĬ«
áĪ°áĭŃáĮ£áĬķ
áĭįáĮ½áĬ¦
ĠáĭµáĪ«áĪĽ
áĬ£áĭµ
áĪ¨áĮ¸
áĪ«áĪ¨áī¥
áĪĵáĪ³áī¥
ĠáĬ¥áĬĵáīłáĪįáĬĵ
Ġáī°áĭĵáĭĬ
ĠáĪ°áĪļáĬĵ
and
ĠáĬ£áĭŃáĬĲáīłáĪ®áĪĿáĬķ
ĠáĮ¸áī¥áĮ»áī£áīµ
Ġáī¥áī³
áĬ¥áĪ°áĭ«áīµ
áĭįáĭĭ
áĪ°áĪ°
áĭĺáĬ«
áĭĺáĮ½
ĠáĬŃáĬķáĭĽáĪ¨áī¥
ĠáĮ¸áĪį
ĠáĪĥáĮĪáĪ«áīµáĬķ
ĠáĬ¢áīµáĭ®áĮµáĭ«áĬķ
ĠáĬ£áĭŃáįĪáĪĪáĮ¥
Ġáī°áĪ°áĪĿáĭ©
ĠâĨĲ
ĠáĮįáįįáĭĴ
ĠáĮłáĭįáīĳ
ĠáĭĿáįĪáĮłáĪ®
áĪŃáĪĽ
áĮįáīłáĪ¨
ĠáīµáĪµ
ĠáĭĿáīłáĪĭ
ĠáĬ°áĭŃáĬĵ
ĠáĪĿáĪĿáĮ»áĬ¥
ĠáĬķáī¥áĭĻáĪķ
Ġáī¥áĮ½áī¡áīķ
ĠáĭįáĮ½áĬ¢áī±
áĬķáĬŃ
ĠáĭŃáĭ°áĪį
Ġáĭ°áįĬ
ĠáĬ¥áīµáĮĪáī¥áĪ®
ĠáĬłáĭŃáīµ
áĪĺáĪĵáĪĭáĪį
ĠáĬ¥áĬ©áĭ«áīµ
Ġ;
ĠáĪĿáĬŃ
ĠáĪµáĪķ
áĪĥáĪĪ
ĠáĪĿáĪµáĭĿ
ĠáĪĽáĪ«
ĠáĮ¸áĪĬ
ĠáĬªáĮĪáī¥áĪŃ
ĠáĬķáĪĿáĮ¥
ĠáĭĿáĮĪáĭ°áĭ°
ĠáĮĪáĭŃáĪŃáĬ«
áĬŃáĪįáī²
áĪµáĭķáĪŃ
Ġáīłáĭ°áĪįáĬ«
ĠáīµáĪ½áĭĵáī°
ĠáĪ°áĪĽáĬ¥áī³áīµ
áĬĲáĮĪ
ĠáĬŃáĪĿáĪį
áĪĺáĪİáĪĿ
ĠáĬĵáīµáĬ©áĪĿ
ĠáĬ¥áĬķáĮĪáī¥áĪ®
ĠáĭĪáĬ¨
Ġáīħáī¥
ĠáĬŃáīµáĬ¨áįį
ĠáĬ£áĬķáī¥
Ġáī¥áĪĺáĮĢáĪĺáĪŃ
ĠáĪĺáĭµáĪ¨
Ġáī¥áĪ°áĪª
ĠáĪĺáĭĺáĬĵ
áĪįáĭĪáĮ¥
áī°áĬĴ
ĠáĭĿáĬ¨
ĠáĭŃáĪģ
áĭ¨áīµáĬķ
áĭĺáĭĻ
ĠáĪ³áĭŃáĬķ
Ġ41
ĠáĭįáĪ½áĮłáĭŃ
áĪŃáĪķáīķ
ĠáĪĲáĭ°
ĠáĬ£áĭŃáĬ®áĬķáĬ«áĬķ
Ġáī¥áĭĿáīłáĪĪáĮ¸
ĠáĬŃáĪ¨áĪĿáī²
ĠáĬ£áĭĪáĬķáī³áĭĬ
ĠáĬ¢áĬķáĭ±áĪµáīµáĪª
áĪīáīĥ
Ġáĭ¨áĪĽáĬķ
ĠáĭįáĮ¥áĬķ
áįħáĬ¡
Ġáī¥áįįáĪīáĭŃ
ĠáĪĿáĪįáĬª
ĠáīµáĪŃáĮķáĪĿ
ĠáĪµáĬ¥áĪįáī³áīµ
ĠáĪĺáīħ
áĪ¨áĮ¹
áĬ¹áĭİáĬķ
áīĲáĪī
ĠáĬŃáĬķáĭķ
áĬłáĭŃáī²
ĠáĪĿáĭµáĪĭ
ĠáĭĿáĭĢáĬĲáīµ
ĠáĪĺáĪĬáĬ¡
Ġáįĥáĭķ
Ġáī¥áĪĽáĭķáĪ¨
Ġáī°áĪŀáĬŃáĪ®
áĪĿáĪ³
áĪįáĭī
áĪĪáīµáĬķ
ĠáĬŃáĮ¸
ĠáĬŃáī¥áĪİ
ĠáĪĵáĮį
áįĥáĪĬ
áī´áĬ¹áĪĿ
ĠáĭĿáĭĵáĭŃ
ĠáĬ£áĭµáĮĬ
áĮįáĮĭáĪŃ
áĮ»áĭĪáī±
ĠáĬķáįīáĭķ
áĬ£áĬķáĬķ
ĠáĬĲáĭĿ
ĠáĭŃáįĪáīµ
áĭ«áĪĿ
áĭļáĪĻ
ĠáĭµáĪīáĭį
áĭ³áīµáĬķ
ĠáĬ£áĭŃáĪµ
ĠáįįáĮ¥áĪ¨
ĠáĭĿáī°áįĪáĪįáĭ¨
ĠáīĢáī²
ĠáĬªáīµ
ĠáĭĿáīłáĮ½áĪķ
Ġáī£áĭķáĪĭ
áīłáĮ½áĪĸ
ĠáĭĿáĭĪáĪµáĭµ
Ġáī¥áĪĦáĪŃ
ĠáĪĺáĮĪáĭµ
áĮĪáĪ«áĭĬ
áįĪáĮ¥áĪŃ
áĭĭáĪª
áĭĭáĭįáĭ«áĬķ
áī¦áĪĿáĬķ
ĠáīĢáĪŃáĬĴ
ĠáĬ®áĪĪ
ĠáīĥáĪįáĬ«
ĠáĪĿáĭµáĪĭáĭŃ
ĠáĮŃáįįáĪ«
ĠáĭĪáĪ²áĭ¶áĪĿ
ĠáĭĿáī°áĪĵáī°
áĪµáĪŃáĭĵáīµ
ĠáĪļáĬ¥áīµáĬķ
Ġáī¥áĭµáĪĨáī³áīµ
ĠáīłáĮ½áĪĲ
op
áĭŃáĪĭ
ĠáĬ£áĬŃ
áĪĭáĪħ
áĬ½áī¥áĪ®
áĬ¸áĪµ
áĭĭáĬķáĬķ
áĮłáīħáĪµ
ĠáĬ«áĪįáĬ¦áīµáĬķ
áĮĲáĭµ
ĠáĮĵáĪĪáĭŃ
ĠáĭŃáīķáĪ¨áī³
ĠáĪķáĭ«áĭĭáĭŃ
ĠáĪµáĪ«áĪĵáīµ
áĪķáĪī
áĪĽáĬ¥
áĪĥáĭµáĪĿ
ĠáįįáĪĪáĮ¥
ĠáīħáīµáĪĪáīµ
áĪ«áĭŃáĬķ
ĠáĪĺáĮ½áĬĵáĭķ
ĠáĪ«áĭķ
Ġáī¥áĪ©áĬ½
ĠáĮĨáĬķ
áĪįáĪĿáĬķ
áĭįáĭį
áīħáĬ»
ĠáĬłáĪ¨
ĠáĪĿáĪ³áĬ¹áĪĿ
Ġáįĭáī¥áĪªáĬ«
áĪĿáī£áĪ²
ĠáĪĵáĪ¨áĪµáī³áĭŃ
ĠáīµáĬķáĪ£áĬ¤
áĬĵáĭį
ĠáĬ¥áĭµ
ĠáĬ£áī¥áĪª
áĬ½áĪª
ĠáĭĪáĪĵáĭ°
ĠáĭĪáĬ¨áĪįáī²
ĠáĭįáĭĴáĪī
áĭ±áī¥
ĠáĭĿáĬĲáīłáĪ¨áĬĴ
ĠáĬĲáįįáĪ°áĭŃ
ĠáĪ°áĪĭáĪĿáī³
ĠáĮĪáĮ½áĬ«
ĠáĬ£áĬ½áī¥áĪ®
ĠáĬ£áĭĺáĪ«áĪŃáī£
Ġáī°áĪĺáĪįáĪ±
ub
ĠáĬ£áĮłáīĵ
ĠáĬĲáįĥ
ĠáĬ»áĪħáĬĵáīµ
ĠáĬłáī¥áī²
ĠáĬķáĪħáĭŃáĭĪ
ĠáĪ°áī¥áĬ£áĭ«
ĠáĪįáĪĿáĪĿáĭµ
ĠáĪ°áĭŃáįĬ
ĠATV
ĠáĭĺáįįáīĢ
ĠáĭĺáĬ«
áĪħáĪª
ĠáĬĵáī¥áī¶áĪĿ
ĠáĬªáĪĺáĮ½áĬ¥
ĠáĪļáĭµáĭ«
ĠáĬ£áĪµáĪĽáīµ
ĠáĭĿáįĪáī±
áĪ¨áĪĻ
áĬ¸áĬ£
Ġáĭ°áĭĬ
ĠáĬŃáīµáĪĵ
áīĨáīµ
áĪģáĬķ
ĠáĪ¸áĪĪáĪį
ĠáĬ¥áĭļáĬ£áī°áĬķ
Ġáī°áĬ£áĪĿáĪŃ
ĠáĬŃáĪŃáĬł
ĠáĮ£áĪįáĭ«áĬķ
ĠáįįáĪįáĮłáīµáĬķ
Ġáĭ°áīģáĬķ
ĠY
áĪªáī±
ĠáĬŃáīµáĭµ
ĠáĬŃáĬķáĪĿáĪĪáĪµ
Ġáī£áĭ¶
áĪĳáįį
ĠáĭľáĪĽ
ĠáĬ£áī£áĬ»áīµáĬ©áĪĿ
ĠáĪĿáĪŃáĬ¢áīµ
ĠáĪĵáĪĪáįĭ
áĪ«áĬ¥áĭ¨
ĠáĬķáĪĺáĪµ
áĪĵáĭµáĪķ
ĠáĪ°áĪ¨áĮĪ
áĪħáĭĿ
Ġáī¤áī³
ĠáĭĿáīłáĪĪáīµ
Ġáī£áĪħáĪŃáĭŃ
áī¬
Ġáī¥áīķáĬķ
áĭįáĬķáĬķ
áĪĥáĪĥ
ĠáĬ£áĪİáĬ¹áĪĿ
ĠáĪĿáĬ¥áĪĺáĬĵáĬķ
ĠáĪĿáįįáĪį
ĠáĪĺáĪ¨áĮĭáĮĪáĮº
Ġ@
áĪŃáī£áĭķáī°
Ġáī¥áĭĭ
ĠáįįáĬķ
áīĢáĪ³áīĲ
ĠáĮīáĪį
áĮĪáĪįáĬ«áĬķ
ĠáĪ³áĬķ
áĬ£áīµáĬĵ
ĠáĪĿáĪĿáĪµ
ĠáĬ£áīķáĪª
ĠáĪĺáīłáīĨ
áĪĥáĭŃáĪĽáĬĸ
ĠáĪ°áĭ²áĪħáĬ¤
Ġáįįáīĵáĭ°áĬĽ
áīłáĭµ
áįįáĬ¥
ĠáĭŃáĬŃáĬ¥áĪį
ĠáĬŃáīµáĭĽáĪ¨áī¥
áįĭáįĬ
ĠáĮ½áĪĭáĪį
ĠáĬ¤áĪµ
áĪ¨áĬ½áīłáĪī
ĠáĮĪáĭŃáĪŃáĬĵ
ĠáĪĿáĭįáĭ³
Ġáī´áĪĮ
ĠáĭĿáīłáĪįáĬ«áĭ®
ĠáĪģ
ĠáĪĺáī°áĬ«
áĪĺáĮ»
Ġáī°áĭĺáĪ«
áĪ®áĪŀ
áĪµáĭķáī¦
ĠáĪĻáĪ´áĬķ
Ġáĭ³áĮįáĪĺ
ĠáĮŃáĪŃáĪĸ
áĭ²áĬķ
áī¥áĪŃáĪĥáĬķ
áĪµáī²áī«áĪį
Ġáī£áĪħáĪįáĬķ
ĠáĪĭáĭŃ
ĠáĪĭáĭķ
ĠáĮĪáīłáĪŃáĬ©áĪĿ
Ġáĭ©áĬĴáī¨áĪŃáĪµáī²
ĠáĭŃáĮįáī¥áĬ¦
ĠáĪķáĮ»áĬĵáīµ
ĠáĬ®áĪ®áĬĵáī«áĭŃáĪ¨áĪµ
áĪĿáī¥
áīłáĭŃáĬĳ
áĬ£áĭŃáĬķ
áĪ¨áĭ³
áĪ¨áī¦
Ġáī°áĭĺáĭŃ
áĭĿáĬ«
ĠáĭµáĪķáĬķ
ĠáīµáĭĪ
ĠáĪĥáĪ¨áĪŃ
Ġáī¤áīµáĬĵ
áĪħáĪįáĭī
Ġáī°áīĲáĪĽ
ĠáĬ¨áĪĿáĭĺáĭŃáĬ®áĬĲ
ĠáīħáĪŃáĮº
ĠáĬķáĭĤáĪī
Ġáī¥áĭįáĪĳáĭ±
ĠáĬ£áĭŃáĬŃáĪĵáĭµáĮĪáĪįáĬ«áĬķ
Ġáĭª
ĠáĮĪáĭ°áī¥
Ġáĭ¨áĭµáĪį
ĠáĬªáĭ±
ĠáĬ£áĪĿáĪĭáĬ½áĬ©áĪĿ
ĠáĬłáĪĪáĭİ
Ġáī¥áĪĿáĭµ
ĠáĭĪáĪĪáĭµ
ĠáĭĺáĭŃáĬ®áĬĳ
ĠáĬ´áĬķáĬ«
ĠáĬ£áĪĵáīµáĬķ
ĠáĭĿáī°áĮĪáīłáĪ¨
áīĵáīķ
ĠáĬķáī¥áĭĺáĪİ
ĠáĮŃáī¡áĮ¥
ĠáĬ£áĪľáĪªáĬ«áĬķ
Ġáī¥áĭĵáī¢
ĠáĪħáĪĭáĭĪ
Ġáįįáīĥáĭµ
ĠáĬŃáĬ½áĬ¥áĪį
áĪ«áĭµ
ĠáĬ£áĭŃáīĢ
ĠáĪħáĮį
ĠáĭĺáĭŃáĬ¨
ĠáĪµáĮĭáī¥
ĠáĬ£áĭĴáĬķáīµ
áĪŃáĬ©
ĠáĭĿáĪĵáīµáīµ
ĠáĬ¨áĪŃ
ĠáĭµáĪĵáĬķ
ĠáĭĵáīĲáĬķ
Ġáīµáįħ
Ġáīłáī°áĬķ
ĠáĭĿáī°áĪ¨áĬ½áīł
ĠáĬªáĭį
Ġáī¥áĪµáĪĺáĭŃ
ĠáĬķáĭĪáĭ±
áĪĽáĪĿáĭĳ
Ġáī¥áĭķáĪĪáīµ
ĠáĪĺáĪ¸áįĪáĬĴ
ĠâĨĴ
Ġáī¥áĪĥáĬķáĭ°áīłáīµ
ĠáĪĿáĪħáĪŃáī²
áīµáĪį
áĪŃáĬ½
ĠáĬķáīĢ
áĪĵáįī
ĠáĬ£áĭŃáī¥áĪįáĬķ
ĠáīłáĪŃáīµ
ĠáĭļáĮįáī¥
ĠáĭĵáĪĺáīµáĬķ
áĪĭáīµáĬĴ
ĠáĪ¨áī¡áĭķ
áīĨáī¥áĬķ
Ġáī°áĭĪáĪ°
áīªáĭ¥áĬķ
ĠáįĪáĪĬáĮł
Ġáī¥áĬ½áī¥áĪª
ĠáĬŃáĬ¢áĪĭ
ĠáīĢáĭŃáĭ²
áĭĵáĪĺáī±
ĠáĭĿáĭĵáĭŃáĬĲáī±
Ġáī°áĮİ
ĠáĭŃáĬ«
Ġáĭĵáĭ¶áĪĿ
ĠáīĥáĪįáĪµáĬĵ
áĮ¸áĬķáĪĳ
ĠáĬĲáįįáĪµáĭĪáĬ¨áįį
ĠáįĭáĭŃáĬĵáĬķ
ĠáĮĥáįĵáĬķ
áī°áĬ½
áĭµáĪĪ
áĪĵáīĲ
áīķáĬ©áĪĿ
Ġáĭļáĭ°áĪĬ
ĠáįĢáĪĵáĭŃ
ĠáĭįáĪ³áĬĲáī³áīµ
ĠáĬ£áĭļáĬĵ
ĠáīµáĬ¹áĪ¨áīµ
áī°áĭį
áĪ¨áĬº
áĭįáĭĸ
áĭĿáĬĲáīµ
ĠáīµáĪ¨áĬŃáī¥
ĠáĮ¸áĪĭáĬ¥áī²
áĮ£áĭŃ
ĠáĬ£áĪµáī°áī¥
áĪĿáĬĲáĮĪáĪŃ
ĠáĪĺáĪŃáĮĪáĮº
ĠáĪĺáĭ²
ĠáĭŃáĪĿáĪµ
ĠáĪĺáĪįáĪ±
ĠáĮĪáĭĽáĭŃ
Ġáĭ°áĪŃáĮĬ
ĠáĪ½áĮįáĪ«áīµ
áī¥áĪĬáĬŃ
áĬĵáĮ½
ĠáīħáĪ³
áĮĢáĪŃ
áĮĪáĭĿáĬ¡
ĠáĪĪáĭįáĮ¥áī³áīµ
ĠáĪ¶áĪĽáĪį
ĠáĮ«áįį
ĠáīµáĮįáĪ«áĭĭáĭŃ
BC
ĠáĪĺáĭį
ĠáĬĵáĮ½
ĠáĭŃáĬ£áĬ½
ĠáīµáĮĪáĪįáĮ½
Ġáĭ¨áĮĭáĮ¥
ĠáĬŃáĬķáĪ¨áĬŃáī¥
ĠáĬ¤áĪ¨áīµ
ĠáĪİáĪĿ
ĠáĬķáĭĵáĬ»áīµáĬ©áĪĿ
ĠáĮ½áī¡áīķáĬķ
ĠáĬ£áĪŃáĬ£áĭ«
ĠáĬ¨áĪĽáĬ»
ĠáĪļáĬ¢áī³áĭĬáīµ
ĠáĭľáĮįáĬĲáīµ
áĪĿáĪķ
áĭ°áĪĭáīµ
ĠáĭĺáīłáĪī
áĭĵáīł
Ġáĭ°áĪ¨
ĠáīĢáĪ¨áī¥
ĠáĪĪáĪļ
ĠáĪĥáĮĪáĪ«
Ġ46
ĠáĬĲáĮĪáĪ¨
áĪĥáĬķáĮ½
ĠáĮĪáĬķáĭĺáī£áĭĬ
áī°áĪĵáī£
ĠáĪ¥áĪįáĮ£áĬķ
ĠTag
Ġáī°áĪĽáĪĤáĪ¨
oo
áĬķáī°áĪŃ
ĠáĬ£áĬºáĪī
Ġáĭ°áī¡
ĠáĭĿáī°áĭį
ĠáĬķáĪĿáĪį
ĠáĬŃáįįáĪĪáĮ¥
ĠáĬ£áĭŃáī°áīĲ
ĠáĪĻáĪµ
ĠáĬŃáĪħáĪįáĭĪáĬ«
ĠáĪĺáĭĵáĪµáĬ¨áĪŃ
ĠáĬ£áĭĴáĬķáī¶áĪĿ
ĠáĬ£áĭįáĪµáīµáĪ«áĪįáĭ«
ĠáĬ£áĪĵáīµ
ĠáĭĿáīħ
áĮĪáĪĭ
Ġáī°áĬ¾
ĠáĭĵáīłáĭŃ
áīµáĬķáĪµáĬ¥
ĠáĬŃáīµáĬ¨
ĠáĬŃáĬķáĪ°áĪŃáĪķ
ĠáĬ£áĭŃáīµáĪ¨áĪµ
Ġáī°áĪĺáĭĿáĮĬ
ĠáĭĿáĬ£áī°áĭĪ
ĠáĪĺáĮºáĬ¥áĬ«
ĠáĬķáĬłáĪĿáĪĭáĬ½
Ġli
áĪįáī³
ĠáĬķáĬŃáĪŃáĪµáī¶áĪµ
Ġáī°áĬł
áĭĿáĭİ
ĠáĪĺáĬķáĮĲ
ĠáīĢáĭ²
ĠáĭĿáīłáĪİáĪĿ
ĠáĭįáĪ½áĮ¡
áĮ¸áĬķáĪĲ
ĠáĪ°áĪªáĪĳ
ĠáĭĿáī°áĭĭáĪħáīł
Ġáĭ°áīħáĬĵ
ĠáĪĺáĬķáĮįáĪµáīµáī³áīµ
áī°áī£áĭķ
ĠáĪĿáĭŃáĭŃ
ĠáĭĺáĮĪáĭµ
áĮ¥áĭİ
ĠáĬķáĪĿáĮ½
ĠáĬ¤áįĮ
ĠáĬ£áĭŃáīµáĪ¨áĪµáĭķ
ĠáĭĿáĪĵáĪ°
ĠáĬ£áīµáĭ¨
áĪĥáīłáĬĵ
ðŁĺ
ĠáĪ³áĪįáĪķ
ĠáĪĭáĭķáĪĪáĭİáīµ
ĠáīµáĭĬáī°áĪŃ
áī²áĬ¨
áĮłáĪį
ĠáĬ£áĪĪáĬ©
ĠáĪŃáĭµ
ĠáĪļáĬ¢áī³áĭĬ
ĠáĬ¸áĪĿáī²
ĠáĬ£áĪµáįĬ
ĠáĬķáĪĺáĪĭáĬ¥
áĭ´áĪ«
Ġáī¥áįģáĭķ
ĠáĬ¥áī±
ĠáĪĿáįħ
áĭ¨áĪĿ
ĠáīĢáĭĭáĪļ
áĪ¨áĬ½áī¦áĪĿ
ĠáīłáĪĪáĪµ
ĠáĬ¨áĪİáĬ»
áĬ¨áĭįáĬķáĬķ
ĠáĪĵáĪ³áī£
ĠáĬķáĪĿáĪŃáĮįáĮĭáĮ½
ĠáĮįáĭ³áĪĿ
áĭ¨áĬ©áĪĿ
áĭ¨áĪĪáĭŃ
áĬĳáĬ¤áĪį
Ġáĭ¨áįįáīħ
ĠáĪĺáĬķáĮĪ
ĠáĭļáĬĲ
áĬłáĪŃ
ĠáĬłáĭļ
ĠáĬķáĪĿáĪīáĬ¥
Ġáī¥áĪĵáĬķáī²
ĠáĬ½áĬķáĭ°áĭŃ
ĠáĮ¸áĬĴáĪĲ
ĠáĪ¨áĬºáī¥áĬĵ
ĠáĬĵáī£áĬĵ
ĠáĬķáĬºáĭµ
ĠáĪĺáĬ«áĭŃáĬķ
ĠáĭĿáĪĥáīłáĬĵ
ĠáĬķáĪĿáī¥áĮ»áĪķ
Ġv
Ġáĭĺáīµ
ĠáĬĲáĬĵáī¥
ĠáĮįáĪªáĬ½
ĠáĬ£áĭŃáĮį
ĠáĭĵáĭŃáĬĳ
áĮĭáĪª
áī±áĪŃ
ĠáĭĿáī°áĭ³áĪĪáĭĪ
ĠáīħáĪįáĮ¡áįį
ĠáĭĿáīłáĪĥáĪī
áĪįáĬ«áĭĬ
Ġáĭľáįįáīħ
áĭ³áĬķáīµ
Ġáī¥áĪįáĪ½
Ġáī¥áĪ¸
ĠáĬ¨áĪµ
áĮ¥áĬ«
ĠáĭķáĮį
áīµáĭ®áĮµáĭ«
ĠáĮīáĮħáĪĪáī³áīµ
ĠáĪ¨áĬ£áĬ¹
Ġáĭ¨áĪĽáĬĲ
áĪĿáĬĳ
áĪŃáĪŃ
ĠáĭĺáĬ«áĭ¨
áīĢáī¥
Ġáī¥áĪĿáĮ¥
Ġáĭľáī¥áĪį
áī¥áĪ«áĭįáĭ«áĬķ
ĠáĮĪáīłáĬĵáīµ
ment
ĠáĬ£áī¤
áĪ«áĬķáĬķ
áĬ½áīµ
áįĪáīķ
ĠáĭĵáĪĽ
Ġáĭĵáĭ«
áĬ¨áī±
áĮ¸áĪĭ
ĠáĭĿáī°áĭĺáĪŃ
ĠáĭķáĪµáĪ«
ĠáīĢáĮ¥
ĠáĬ¥áĪĿáīłáĬ£
ĠáĬ¥áīµáĭ°áĪĬ
áįĢáīµ
ĠáĭŃáĪķáĪ¸
ĠáĭĿáĮĪáīłáĪŃáĭİ
áĪ¨áĮĭáĮĪáĮ½
ĠáĮįáĪįáĮĭáĪİáīµ
ĠáĬ£áĬ¸
ĠáĬŃáĮ¸áĬķáĪķ
áĪĽáĪĽáĭķ
ĠáĭĺáĭµáĪįáĭ®áĪĿ
ĠáĭŃáĮĪáĪįáĮ¹
ĠáĬ¢áĭ¶áĪĿ
ĠáĭµáĮĭáįį
áĮ¥áīłáī¥
Ġáī¥áĪĿáĪĥáī¥
ĠáĭĺáĪĪáĭİáĬķ
áĮ¨áĬķ
ĠáĬķáĮ½áī¥
ĠáĭŃáĪĺáĪµáĪĪáĬ«
ĠáĪĿáĪĿáĪķáĭ«áĪ½
ĠáĬŃáĭ³áĭįáĬķ
Ġáī°áĪ°áĪļáĭĳáĬĴ
Ġáī°áīĲáī²áĪİáĪĿ
ĠáĬķáĮĭ
Ġáī¥áī£
ĠáĪĿáĮŃ
ĠáĪ°áĭ°
ĠáĪµáĬĴ
ĠáĮįáĭĻ
áĭ³áĬ¢
áĬ©áĭİáĬķ
ĠáĬ¸áĪ¨áĬķ
ĠáĭļáĮĪáī¥áĪ®
ĠáĮĪáĪĬáĪĭ
ĠáĬ£áĮĭáĬķ
Ġáįįáīĵáĭ±
Ġáī¥áīĲáĭ³áĪĿáĬĲáīµ
ĠáĭĿáī°áįĪáĪĪáĭ¨
Ġáī¥áĮ¸áĮĭ
ĠáĭĿáĪĺáĪµáĪĪáĬĴ
áĬķáīĽ
ĠáĬķáĬ¡
áĭµáĬĲáīµ
áĭ³áĪĽáĭŃ
ĠáĬªáīĲáīµ
ĠáĪĿáĭĥáĬķáĬĵ
ĠáĪĵáīłáĪ¬áī³áĬķ
ĠáĬ£áĮĭáĮ£áĪļáī³áīµ
ĠáĬ¥áĬķáĮįáĪĬáĭĿáĬĽ
ĠáĪĪáī£áĪĿ
ĠáĭŃáĮĪáī¥áĪ¨
ĠáĬ¥áĬķáĪµ
Ġáįī
ĠáĬªáī¥áĪĥáĪį
áĬ¤áĪĭáĭįáĭ«áĬķ
ĠáĬ£áĬķáīł
ĠáĭĿáĭĪáĪĪ
ĠáĪĺáĭ°áīłáĪŃ
ĠáĬķáī¥áĮ»
ĠáĪĿáīķáī£áĪį
ĠáĪĵáī°áī¶
ĠáĭŃáĬĲáĮįáĪ¨áĬĵ
Ġáī¥áĮĪáĭĽáĬ¥
ĠáĪµáĪįáĮ£áĬĳ
ĠáĬķáĪ¨áĬŃáī¥
áįįáĪµ
áĮĪáĪ±
ĠáĬ£áĭŃáĪ¨
Ġáīłáĭ¨
ĠáĭļáĪĺáĪµáĪį
ĠáĬ¤áĪĪ
ĠáĬ¥áīµáĮĪáī¥áĪŃ
ĠáĬ¨áĪĿáĭļáĬ¦áĪĿ
ĠáĪĺáĭµáĬĥ
ĠáĬ¥áĪĿáĬĲáīµáĬĵ
ĠáĭĿáĪĪáĬ£áĬ¸
ĠáĪĦáĬķ
áĮłáĪ«áĮ¥áĪŃ
Ġáī¥áĬ¢áĭµ
áĪŃáĭĿáĪŃ
áīłáĪ«áĭĬ
ĠáĬŃáĪ°áĪĿáĭķ
áĬ£áĬ¹
Ġáī°áĭĽáĪ¨áīł
ĠáĭŃáī£
ĠáĬ¢áĪįáĬª
áĭ®áĪĥáĬķáĪµ
ĠáįĪáĪĪáĮ¥
ĠáĬ¦áĪªáīµ
áĬķáĬª
ĠáĬ£áĪĺáĬķ
ĠáĪĿáĪ©
áĭĪáĪ¨
ĠáĬ£áĭŃáįĭáĪį
ĠáĭĵáĪ¨
ĠáĬ¸áī£áī¢
ĠáĭĢáĭŃáĬĸáĪĿ
ĠáĬŃáĪħáīłáĬ«
Ġáī¥áĪĺáĬķáįĪ
ĠáĬ£áĪķáĭĭáīµáĬĵ
ĠáĭĪáĮºáĬ¦áĪĿ
ĠáįĮáĪµáī¡áĬŃ
ĠáĬ£áĪµáĭĴáī¡
ĠáĬŃáĬŃáĬŃáĬŃáĬŃ
ĠáĪĺáī°áĬ«áĬ¥áī³
áĭŃáĪµ
áĭµáīģ
Ġáĭ°áĬĵ
ĠáĬ©áĪį
ĠáĬªáĮĪáī¥áĪ©
ĠáĮ½áĪŃáĮį
ĠáĬ£áĭŃáīµáĪµ
áĮĢáĭį
ĠáĬķáĭĵáĬº
áĪĿáĪŃáī²
áĭħáĪª
Ġáī°áĮĪáĭ³
Ġáī°áĮłáīĤ
ĠáĬ£áĭŃáĬĲáīłáĪ¨áĬķáĬķ
Ġáī°áĭĵáĭĺ
ĠáĭĿáĮłáīĲ
ĠáĪĵáī²áī±
Ġáĭ¨áĪĽáĬĵáĭŃ
Ġáī°áĬ½áĪĬ
Ġáī°áĮĵáĭĴ
áĪĬáĬ»
áīħáī²
ĠáĮłáī£áĭŃ
ĠáĬķáĭĵáĬ£
ĠáĮĪáĭĽáĭįáī²
Ġáĭ°áĮĬáĪĺ
áĬ£áĪĿáĬķáĬķ
Ġáī¥áĬ½áĪįáī°
ĠáĬ£áĮłáĬķ
ĠáĬķáĬŃáĬķ
Ġáī¸
ĠáĭŃáĮĪáĪį
ĠáĭŃáī¥áĪĭ
áĪĻáīµ
Ġáī£áĬ¥áī³
áĮĮáĮĭ
ĠáĬ£áīĲáĭ²áĪĺ
ĠáĬ£áĭŃáĪ°áĪĽáĭķ
ĠáĮĭáĭľáĮłáĬĽáī³áīµ
ĠáĪķáĮ½áĪ¨áīµ
áī¥áĬ»
Ġáī¥áīģ
ĠáĬŃáī¥áĪĥáĪį
áī£áĪĭáīµ
áĭ°áī£
áĪ³áĪ°áĪŃ
áĭĭáĪį
ĠáĪµáĪĪáī²
ĠáĮĲáĭ°áĬĵ
ĠáĪĺáĪŃáĮĪáĪĿ
ĠáĬ£áĪľáĬķ
ĠáĭĿáĮįáīłáĬ¦
ĠáĬ´áĬķáĬĵ
áĮ¶
ĠáĬ£áįķ
áĪ¨áĪ¨
áĭĵáī±
ĠáĪµáĪĽ
ĠáĪĥáĭ²
áĪ¨áĬ½áī¥áĭİ
ĠáĪĿáĭĥáĬĳáĬķ
ĠáĬ¢áĬķáī¨
ĠáĮ¨áĭį
ĠáĬ¥áĭĭáĭŃ
Ġáī°áĪįáĬ¥áĬ¾
ĠáĬķáįĭ
ĠáīĦ
áĪĵáīħ
áĬŃáĭĳ
áĬŃáĭĴ
Ġáīłáĭ²
ĠáĬłáĭ¨
Ġáī¥áĭĿáĮįáī£áĬ¥
ĠáĬ£áĭ¨áĬĸáīµ
Ġáī°áĭ³áĪįáĭ©
ĠáĭŃáĬ¹áĬĳ
ays
ĠáĭŃáĪģáĭ³áĬķ
ĠáĬ£áĪ«
Ġáī¥áĬł
ĠáĭŃáĪ½
ĠáĬ¢áĪįáĭİ
ĠáĬ¤áĪĮ
ĠáĬ£áĭ¨áĭµáĪįáĬķ
Ġ500
ĠáĬ£áĭĴáĬķáī±
áĬ«áĭŃáĭ¶
ĠáĪ¬áĭµáĭ®
40
ki
ĠáĭĿáĭĽáĪ¨áī¡
áĬ¥áĪŀ
áĭ°áīĤ
ĠáĮįáĪ©áĪĿ
áĬĴáĭ«
ĠáĮĪáįħ
áĮĢáĬķ
áĪ¨áĬ¸áī¡
ĠáĪ©áī£
ĠáĪĺáĭµáĪķáĬķ
ĠáĪĿáĬĵ
Ġáī°áįĥ
ĠáĪĵáĪ¨áĮį
ĠáĮĪáĮ¢
ĠáĭķáĪĽ
áīĥáī¥
Ġáī¥áĪĿáĭķ
áĪŃáĭµáĬ¡
ĠáĬ¢áīµáĭ®áĮµáĭ«áĭįáĭ«áĬķ
ĠáĬ£áįĪáĪĭáĪĭáĭŃ
áīłáĭĿáĪĳ
ĠáĭĿáĪĺáĪįáĬ¦
áĬķáĪ³áī¶áĪĿ
áĪŃáĬ¹áĪĿ
ĠáĭĺáĬĲ
áīĲáĭ°
Ġáī¥áĪĿáĭĿ
ĠáĬ£áĪĺáĪªáĬ«áĬķ
Ġáī°áĭĪáĬ¨
áįĪáĪŃáĭµ
áĭ´áĮį
ĠáĬĲáī¥áĪ°áĭŃ
áĮ½áīłáĭ®
áĬ¥áīµáī³áĭį
ĠáĬŃáĬ¢áĪĭáī³áīµ
ĠáĬ£áĭįáĮºáĬ¡
ĠáĮ½áī¥áīķáī²
ĠáĪµáĭĳáĭ²
ĠáĭĿáĪĿáĪŃ
ĠáĪĿáĪĵáĭĿ
ĠáĭĺáĬª
ĠáĪĵáīłáĪ¨
ĠáĭĺáĪĪáĭĵ
ĠáĬ£áĬķáĮ»
áĬĵáĭŃáīµ
ĠáĭĿáĬ¾áĬĲáĪī
ĠáĭĿáĬ£áī±
ĠáįĢáĬĴ
áįįáīµáĬĳ
ĠáĪĺáįħáĬĵáĭķáī²
ĠáĬķáĮ½áī£áĪĴáī±
ĠáĬķáĪŃáĬ¥áĭ®
Ġáī¥áįħ
áĭµáĪİ
ĠáĭŃáĪĵáĪį
ĠáĬ¨áĪĿáĭĽ
áĬ¨áīł
ĠáĭįáĪ±áĬķ
ĠáĬĶáĪŃáĬ©áĪĿ
áĮ½áĬķáĭķ
ĠáĮ¨áĬĵ
ĠáĭĵáīķáĪĿ
áĪŃáĭ©
áīłáī²
ĠáĬŃáīĲ
ĠáĬ¨áī£áī¥
ĠáĬ£áī¥áĬĲáī³áīµ
ĠáĭµáĪŃáī¥
ĠáĪķáī°áīµ
ĠáĭļáĮ½
ĠáĪĿáĮħáĪĽ
Ġon
áĮĦ
áĬ£áĬĳ
ĠáĪĥáīł
ĠáĬºáĭµ
Ġ47
Ġáĭ²áĮįáĪª
áĬĵáĪįáĭµ
Ġh
ĠáĭĿáĪĽ
ĠáĬ¨áĪķ
ĠáĬ¢áĭµáĬĵ
ĠáĪµáī³
áĬ©áĪµ
áĬ¸áĭ±
áĭĺáĪĺáĬķ
ĠáĪħáĪŀáīµ
áĭĻáĬĴ
áī´áĭİáĪµ
Ġáī¥áĭµáĪĿ
ĠáĬłáī²
ĠáĬķáĪĿáĮįáĪĭáĮ½
ĠáĪĿáĪħáĪĭáĭİáĪĿ
EA
áĪ©áĪī
ĠáĪķáĮħ
Ġáĭ°áĪĪáĭ¨
ĠáĮĬáĪįáĭ«
ĠáĮĵáĬĵ
ĠáĬ½áīµáĮĪáī¥áĪŃ
ĠáĭĿáĪĵáĪĪáįĭ
áĬħáĬķ
Ġáī¥áĪķáī³áĭĬ
ĠáĬķáĪŃáĬ¥áĪµáĬ»
Ġáĭ³áĪķáĪ®áīµ
ĠáĬķáĪĿáĭµáĪĵáĬķ
ĠáĪĺáĮĵáĪ°
³áį
áĬķáĬ»
ĠáĭĿáįĭ
ĠáĭĿáĮįáĪĪáĮ½
ĠáĪ°áĪīáĪµ
áĪªáĮ¹
ĠáĭĿáī°áĬĲ
ĠáĬ®áĪŃáĪµ
áīĵáĭµ
áĪ¬áĪĿ
áĪ¶áĪŃ
ĠáĪ¨áĪµ
ĠáĭľáĪĲáĮķ
Ġáī¥áĪįáĮ½
Ġáī¢áĪ®
ĠáĪ»áīķ
ĠáĬķáĮ¸áĪĬ
ĠáĬ£áĮł
áĭįáĪĪ
ĠáĭĺáĮĪáĪįáĮįáĪį
áĭ«áĬ¥
áĮ¥áĬķáīĢ
áĭ²áĪµ
ĠáĬ©áĬĲ
Ġáī¥áĪĿáĪīáĬ¡
áĬ³áĭķ
áĮĪáĪįáĮįáĪİ
ĠáĪĬáī£
ĠáĮ¥áĬķáī³áĭĬ
Ġáī°áĭĺáĬŃáĪ®
ĠáĭŃáĬŃáĬ£áĪį
Ġ$
áĬĵáī³áīµ
Ġáī¥áĭ¨
áĮĪáīłáĪ©
áĭļáĬķ
ĠáĪ°áĪĻ
áĮ»áĬķ
ĠáĭĿáī°áĪĪ
ĠáĬķáĪĿáĪĥáī¥
áĬ£áī¥áī²
áĬ£áĭŃáīµ
áįĥáĪŃ
áĮ½áĪįáĭ©
ĠáĬŃáĬĲáī¥áĪ©
áīłáĮ¥
ĠáĬ¨áĭ³
áĭķáī³
áĪĽáĪĺáĬķ
áĭĵáīłáĭ¨
áĭĪáī±
áĮĭáĮĪáĪŃ
Ġáī¤áī¶áĪĿ
ĠáĪ°áĪļáĭĳ
ĠáĭĺáĪĺáĬĵáīµ
ate
ĠáįĪáĭįáĪ²
ĠáĪĶ
áīµáĭ®áĬķ
áĬŃáĭİáĬķ
ĠáĭĪáįĤ
ĠáĭĵáĪłáĪŃ
ĠáĭĿáĭĪáĭ°
ĠáįįáīµáĪĵáĭĬ
ĠáįĪáĪĬáĮ¡
ĠáĪĿáĪįáĬŃáī³
Ġáī°áĪ°áĪļáĭĳ
ĠáĪĵáīħáī³áīµ
áī¥áĪŃáĪĥáĪĿ
áĪįáįĬ
áĪµáĮ¢
ĠáĭĿáī¥áĪĭ
ĠáĬ¨áĪĽáĭŃ
Ġáĭ°áĪŃáī¥
ĠáĬ¥áĬķáī°áĪĭáĭŃ
Ġáĭļáĭ°áĪįáĭ©
ĠáĬ£áĪŃáĪĴ
ĠáĪĵáĭŃáĪįáĬķ
Ġáī¢áĪįáĭ®áĬķ
Ġáī¥áīµáĪķáīµáĬĵ
ĠáīģáįħáĪª
ĠáĮįáī¥áĮ»áĭįáĭ«áĬķ
áī¥áĬ¦
ĠáĪµáĭķ
ĠáĪķáĪįáĪĿ
ĠáĪĿáĪµáĮįáĮĭáĪŃ
ĠáĪĺáĬķáĮĪáĭµáī³áīµ
ĠáĪĺáĬķáĭ°áīķ
áįĪáĪįáĮ¥áĭİ
ĠáĭĿáĪŃáĭĿ
ĠáĭķáĬķáĭĪáīµ
ĠáĪķáĬŃáĪĿáĬĵáĭĬ
áĪ¨áĮĭáĮĪáĮ¸
ĠáĬ¤áĪįáĪ³áĬ¥
Ġáī¥áĭĽáĭķáī¥áĬ¡
ur
áĪĿáĮ½áĬ£
ĠáĬŃáĪ«
ĠáĭŃáī£áĪŃ
ĠáĪµáĬŃáįį
ĠáīłáĮĢáīµ
áĪ²áĪ±
ĠáĪĥáĮĪáĪŃáĬ«
ĠáĬĲáĮĪáĪ®
ĠáĬ£áĪĺáĪį
ĠáĮ¾áī³
ĠáĬ¥áĬķáīµáĬ¸áĭįáĬķ
ĠáĪĺáĪĿáĪĥ
ĠáĬķáĬ©áĪİáĪĿ
áī¥áĬ¥
áĭŃáĪī
áĬĵáĪī
áīłáī³áīµ
ĠáĭĿáīĨ
Ġáī°áī°áĪĵ
ĠáĬ£áĭŃáĭ°
áĮ»áĪ¨
ĠáĭĿáī°áīĵ
áĮ¦áĬķ
ĠáĪµáĪŃáĪĴáīµ
Ġáī°áįĪáī²
ĠáĭįáĪīáĭ³áīµ
ĠáĬ£áĬķáīłáī¥áī²
Ġy
áĪŃáĪ«áī¥
ĠáĬķáĪ¨áĬ½áī¦
ĠáĬŃáĪµáī°
ĠáĭĪáįĪ
áĬ¨áĪĭ
ĠáĬªáĪ°
ĠáĬķáĭĵáī³áī¶áĪĿ
áĪĭáĪĪáĪ±
ĠáĬ£áĮĪáī£
ĠáĪķáĪĽáīħ
Ġáī¥áī°áĬ£
áĮ¥áĭķáĪĿ
ĠáįĪáĮ»áĪļ
¸ı
ï¸ı
áĮįáĪ¥
áĬ½áĪį
ĠáĬŃáįįáīµáĬķ
áĬ¥áĭĽáĭĿ
áĬ¨áĪĿáĬ¡
ĠáĬŃáĬ¸áĭ±
ĠáĬĲáĭįáĪª
ĠáĪħáĪįáĭįáĬĵ
ĠáĪĺáĬķáĬ¥áĪ°áĭ«áīµáĬķ
ĠÃ
ĠáĬ£áĪ®áĬķáĬķ
áī°áĪ«
Ġáī¥áĪ°áī¥
áĪĽáĭŃáĬķ
ĠáīµáĪĺ
áīķáĪĽ
áĬ¢áĪİáĪĿ
ĠáĬķáĪĿáĬŃáĪįáĬ»áĪį
ĠáĪļáĭĽ
áĪŃáĭ«áĪĿáĬķ
ĠáĪĺáĪŃáĬ£áĭ«
áįķáĭ©
ĠáĪĺáĪĪáĬŃáĭĴ
ĠáīªáĭĽ
áĪķáĮįáĭĺáĬ©áĪĿ
ĠáĭķáĮ½áįĬ
ĠáĬ¥áĪįáĪį
áĬĵáĮį
ĠáĭŃáĭ°
ĠáĪµáĮīáĪĿ
ĠáĮįáīłáĪ¨
ĠáĬ©áĪĭ
ĠáĭĿáĭĵáĪĪáĪĺ
ĠáĮ¸áĬĴáĪĵ
Ġáī¥áīµáĮįáĪŃáĬĽ
Ġáĭ³áĪķáĪ¨
Ġáī°áī³áĪĴáĭĻ
ĠáĪµáīµáĪ«áī°áĮĤ
ĠáĬ£áĭŃáī°áĪŃáįįáĬķ
ĠáĪĺáĪ®áĪŃ
ĠáįĵáĪŃáĪĭáĪĽ
Ŀ¤
ĠáĭĿáįĭáĬķ
ĠáĭĿáĪķáĮįáĭĿ
ĠáĬ¤áĪ¨áĭŃ
ĠáĬ¨áĭŃáĬ¨áĭįáĬķ
ĠáĭĵáĭŃáĬĲáĭŃ
ĠáĭµáĪĿáĮ½
ĠáĬķáĬ¸áĪĿ
ĠáĬ¨áĭįáĪĴ
ê¬ĥ
ĠáĭĪáĬªáĪį
áĬĲáĮĪáĪŃ
ĠáĬŃáīĲáĪŃáī¥
ĠáĬ¨áĮĭáĮ¥áĪĿ
áĪ«áįį
ĠáĭĪáĪĥáī¢
ĠáĪĥáĭĭáĪħ
ĠáĬŃáĬķáįĪáĪįáĮ¥
ĠáĮ½áĪĴáįī
ĠáĪ³áĪ«
áĭĽáĪ¨áī¥áĬķ
áĬ£áīµáĭį
ĠáĬ°áĭŃáĬĲ
áīģáĪį
Ġáī°áĪĵáī³áī²
ĠáĭĪáĪ²áĬĳ
ĠáĪķáĪĻáĪĽáīµ
ĠáĬķáĭµáĪķ
ĠáĪĺáĮĢáĪĺ
áĪĵáĪĭ
ĠáĪ°áĬ£áĬķ
ĠáīµáĬĲ
Ġáĭ°áĬł
áī³áĭŃáĬķ
ĠáĬķáĪ±áĭįáĬķ
ĠáĬ£áĭŃáīµáīłáĪį
ĠáĪĺáĮ½áĪĶáīµ
ĠáĬ£áĭŃáĬĲáīłáĪ©áĬķ
áĬķáīĢáĪ³
ĠáĬ£áīłáĪ³
ĠáĬ¥áĬķáĭµáĪķáĪª
ĠáĭįáĪĳáĪµ
ĠáĭŃáĬ¸áĭ±
ĠáĮįáĭļáĬ¡
ĠáĬķáĮ½áī¥áĪĴáī±
35
eb
áī¥áĭĿ
ĠáĬ£áīħ
áī°áī¶
áĬĵáĭĬáīµ
ĠáĪĺáĮİ
áĭµáĬĲ
áĭµáī³áīµ
áĭĵáĪĺáīµ
ĠáĭµáĬ¹áĪĿ
ĠáĬ¨áĪĿáĭĻáĭŃ
áĬ¸áĪī
áĬ¾áĬĲáīµ
áīĥáĪķ
áĪĳáĪį
áĪ¨áĬ½áīłáĬķ
ĠáįĬáĭ°áĪĭáīµ
ĠáĮĪáĭ²áįī
Ġáī°áĪ³áī²
ĠáįįáĮ»áĪĺáī³áīµ
ĠáĮ¦
áĪĪáĬĽ
áīłáĮ½áĪĳ
ĠáĭĿáĬ«áĭ¨
ĠáĭĿáįĢáĬķ
ĠáĬķáĮĪáĪŃ
ĠáĪĺáĬł
áĮįáīłáĪ©
Ġáī°áįĪáĪį
áĭĿáĭ°áĬķáīµ
ĠáĬ£áĭŃáīħ
ĠáīĢáĪĪ
áĮįáĭ°áĭµ
ĠáĬ£áĪŃáī£áĭķ
ĠáĬ¥áĬķáĬ¨áĪĭ
ĠáĮ¥áĪŃáĮ£
ĠáĬķáĭµáĬ»áī³áīµ
áĪĵáĭ¨áĪ½
áįĳ
ĠáĭĺáĬ¥
áĭ³áĭįáĭ«áĬķ
ĠáĬ©áĪĭáī¶áĪĿ
ĠáĭĵáĪĺáī±
ĠáĪĿáĪ³áĬº
ĠáĬŃáĪħáī¡
ĠáĪĿáĮįáĪĭ
ĠáĭĿáĭįáĭķáĪį
áīĭáĪŃáĮ½
ĠáĪĵáĭĪáĪįáī²
ĠáĭĿáĭĵáīłáĬ¹áĭİáĬķ
ĠáĭĿáī°áĭĪáĪĪáĭµáĬ©áĭİ
Ġáī°áĮĪáĭ³áĪµáĬĲáīµ
te
áĪĽáĪķ
ĠáĮįáĪī
áĬ©áĪĭ
ĠáĪħáĪīáĭį
ĠáĪĵáĭįáĬĵ
Ġáī²áīª
ĠáĪĺáĬķáĮįáĪ¥áī²
ĠáĬ«áī¶áĪĬáĬ«
áĪįáĮĭáĪį
áĮĪáĪ«áīµ
ĠáĬĲáĮº
ĠáĭµáĪĭáĭŃ
ĠáĬ¨áĪĿáĮ½áĬ¥
áĬĴáĬĳ
ĠáĬłáī¦
áī£áĪŃáĬķ
ĠáĪŀáĮĪáĪµ
áĮħáĪĿ
ĠáĪµáĪŃáĪĵáīµ
ĠáĬ£áĭ¨áĭµáĪį
áīģáĪŃ
ĠáĬŃáĪĿáĪĪáĪ±
áĪĵáĭµáĮĪ
ĠáĬŃáĪĭ
áĪħáĭ²
áīĳáĬķ
Ġáī°áĪĵáī²
ĠáĪĿáĮ½áī£áĭŃ
ĠáĪĿáĪµáĬŃáĪŃáĬĲáīµ
Ġáī°áĬ½áĪĪ
ĠK
Ġ00
ĠáĬŃáī¥áĪĪáĬ«
áĪĺáĪĺ
áĮĪáĭĽ
Ġáīħáĭĭ
ĠáĮįáĭľáĬĵ
ĠáĬ£áī¦áĬ¦áĪĿ
Ġáī¥áĪįáĭĴ
áĭµáĪįáĭ¨áĬ«
Ġáĭ°áĮĬáĪĻ
ĠáĭŃáĭĿáĬ¨áĪŃ
ĠáĪķáĭŃáĭĪáīµáĬķ
Ġáĭ°áĪ´áīµ
ĠáĬ£áĭŃáīµáĪ¨áĪµáĭĳ
áīµáĬĲáīµ
áĬ£áī³áīµ
áĮįáĪķ
áĭĭáĪĭ
ĠáĭķáĪĭáĭĬ
ĠáĮ¸áĪĬáĪĿ
ĠáĬ¥áī°áĮ»áĪķáįĪ
ĠáĪĺáĮºáĬł
Ġáī°áĭĵáĭļ
ĠáĮĪáĭ²áįįáĬ«
áĪĪáĭª
ĠáĭĿáĮĢáĪĺáĪŃ
áĭįáĪĥáĬķáĪµ
Ġáĭĵáĭ°
áĪħáĭ®
áĪħáĭĿáī¢
Ġáī¥áĭĿáĪŃáĭĿáĪŃ
ĠáĮłáĪĺáī°
ĠáĪĿáĬ¥áĪĽáĬķ
ĠáīĲáĪ¨áī£
ĠáįįáīµáĪķ
Ġáī¥áīµáĭķ
ĠáĪ»áĭķáī¥áĭ«
áĬµáĪŃ
áĪĿáĪĪáĪ±
ĠáĬ£áĭĪáĭ³áīµ
ĠáĪĺáįįáīµáĪķ
Ġáī°áīĲáī¢áĪī
áīµáĬķáĪµáĬ¡
Ã¤
áīłáĪ«áĬķ
áĬ¥áĭ³
áĭĿáĬŃ
áĭĺáĪ®
áĭ¶áĪµ
ĠáĬ¥áĮįáĭļáĬ£
Ġ55
áĪ¥áĬ¥
ĠáĭĿáīĲáĪŃáī¥
áī¨áĪŃ
ĠáĭĿáī°áĭĪáĪ°
ĠáĪĿáĪģáĪŃ
ĠáĭĿáīĳáĮ¸áĪ©
32
áī°áĪĺ
áĪµáī´áĪŃ
ĠáĬķáįĪáĪŃ
áĮ½áĪĻ
ĠáĪķáī³áĪĿ
Ġáī¥áĪµáĮĭ
ĠáĬ¢áĬķáī°áĪŃáĬĶáīµ
ĠáĭŃáĮįáī¥áĬ£áĬĵ
Ġáī¥áĪĦáĪ«áĭĬ
Ġáī¥áĮ¹áĬ£áĬķ
Ġáĭĵáĭĭáī°
ĠáĭĶ
ĠáĭĺáĪħ
ĠáĭŃáĭĢáĬĳ
áīĢáĪī
ĠáįĪáĮł
ĠáĬ¤áĪŃáĪĿáĭ«áĪµ
áĮİáĬķ
áīłáĪįáĮ½
Ġáĭ²áĬº
ĠáĮĢáĪļáĪŃáĬ«
ĠáĬ½áĬķáĮĪáī¥áĪŃ
ĠáĬŃáĪħáĪįáĭī
ĠáĬ®áĪĿáįĴ
áĪĺáĪĵáĭ¨
ĠáĭĿáĭķáĭµáĪļ
ĠáĬķáĪĺáĮĢáĪĺáĪŃáī³
áī¥áĭķ
ĠáĬķáĪ°áĪŃáĪķ
áĪĺáĬķáī²
áĮįáĪ³
Ġáī°áīĽ
áĪ°áĪ¨
áĭ³áĪİ
ĠáīµáĭįáĪį
áĪ®áĬĴ
ĠáĭįáĪ°áĭµ
ĠáīĢáĪ¨
áĭĥáĬķ
ĠáĮĢáĪļáĪŃáĬĵ
ĠáĪĺáī¥áĭĽáĪķáī²
Ġáī¥áīĲáĬķáĭ±
ĠáĪĺáĪ³áĪŃáĪķ
ĠáĪīáīĥáĪµ
ĠáĪ°áĪĿáĭĲ
ĠáĭĺáĪįáĬ£áĪĪáĪĿ
ĠáĪĺáĪĿáĪħáĪ«áĬķ
Ġáī¥áĮ¥áĬķ
Ġáĭĺáĭĭ
ĠáĭŃáĬ£áĪĿáĬĳ
ĠáĬ£áĭŃáĪŃ
Ġáĭ¨áĮĪáĪįáĮįáĪį
ĠáĭĿáī°áĪ°áĪŃáĪĲ
áī¥áĪŃáĪħ
ĠáĭĪáĭŃáĭįáĬķ
áĪµáī²áĭ«
Ġáīħáĭ±áĪµáĬķ
ĠáĪħáĭ«áĭĭáĬķ
ĠáĬ¥áĮįáĭĿ
ĠáĬ£áĮĪáĪįáĮįáĪİáī³áīµ
ĠáĮĪáĬķáĪ¸áĪį
ĠáĭĮáī¥
ĠáĪŀáī£áĭŃáĪį
ĠáĬķáĬ¹áĬķ
áĬ«áĭ«
ĠáĪĵáĮĲ
ĠáĪĵáĪĭáĭĬ
áĭ³áĮį
áī¢áĪī
ĠáĮĪáĪ¨áī¥
ĠáĮ¥áī¥
ĠáīĢáĭ°
ĠáĬ½áĮĪáī¥áĪŃ
áĪĥáīłáĬ©áĪĿ
ĠáĭĿáĬĵáĪĿ
áĪĺáĭ°
ĠáĭĺáĪĲ
ĠáĭĺáįįáĪŃ
ĠáįĲ
áī¥áĪŃáīµ
áĮīáĪį
ĠáĬ¥áīµáīķ
ĠáĬŃáįįáĮłáĪŃ
ĠáĮ»áĭķáĪŃ
áĭ°áĪĪáĬ¹
ĠáĪ°áĪļáĭķáĬĵ
Ġáī¥áĭįáĪ½
ĠáĭĺáĭŃáī¥áĪįáĬ«
ĠáĭĺáĭµáĪįáĭ¨áĬ«
ĠáĭŃáĮįáīłáĪ¨áĪįáĬĵ
ĠáĬķáĬŃáĪįáī°
Ġáī¥áĪ±
áĪĺáī³
áįįáĮłáĪŃ
áĮ½áīłáīµ
ĠáīµáĪĳ
ĠáĬ¥áĬķáī°áĬ£
ĠáĬŃáīµáĪŃ
ĠáĬ®áĭŃáĬĲáĬķ
ĠáĮįáĭľáĬ¡
ĠáĬ¤áĪ¨
ĠáĪĺáĮºáĬ£
ĠáįĪáī°áĭį
Ġáĭŀáī£áī³áīµ
ĠáĪĺáĪĵáĪĺáĭµ
ĠáĭĿáĭ°áĪĪáĭ®
ĠáĪĿáĪģáĪ«áīµ
ĠáĬ£áĮĭáĬķáĬķáī²
ĠáĭĵáĪłáĪŃáī°
Ġ]
ĠáĬ£áĭŃáĮ¸
ĠáĭĵáĪĭáĪĽ
áĬ¨áī°
áį£-
ĠáīĢáĮ½áĪį
áįĭáī±
ĠáĬ¨áĪĿáĭĿáĭĪ
ĠáĬ¥áĬķáĬ¨áĪĪáĬ¹
ĠáĬĲáī¥áĪ°
Ġáī°áĭĭáĪħáĭ¶
Ġáī¥áĬ½áī¥áĪ¨áīµ
ĠáĬķáĮįáĭļáĬ¡
ĠáĬ¨áĪĽáĬķ
áĮįáĭ±
áĮįáĭľ
áĪ°áĪįáĬ«
áĬ»áĬº
ĠáīµáĬķáī³
ĠáĭļáĬ½áĬ¥áĪī
ĠáĬ®áĪĻáĬķ
áĪŃáĪµáĭķ
ĠáĮĪáĬķáĭĺáī¥áĬķ
áīĴáĭ±
ĠáĪĺáĬķáĮįáĪµáī±
ĠáĬ£áī¡áĬ¡
ĠáĪįáĬ¢áĬ¹
Ġáīµáįħáī¢áīµ
áīµáĪĿ
ĠáĪĿáī¥áĪĭáĭķ
ĠáĭĺáĪ¨
ĠáĪ°áĭį
ĠáĮĪáĪ¨
ĠáĪĥáĪį
Ġáī¥áĭĽáĭķáī£áĭŃ
ĠáĬºáĭĪ
Ġáī¥áĪŃáī³
ĠáĪ²áĪ¶
ĠáįĵáĪµáįĸáĪŃáīµ
Ġáī¥áĪ°áĪĪáĪµáī°
ont
ĠáĮįáĭĿáĭ«áĭĬ
ĠáĭŃáĬ¹áĬĲ
ĠáĪĺáĮĵáĭĵáĭĿáĭ«
áĪĿáĬ¥
áĪ½áĪ®
ĠáĭļáĬ£áĪĿáĬĳ
Ġáī¥áĪĿáĮ½
ĠáĬ¥áĮįáĭļáĬ¦
ĠáĬķáĪ°áĪĭáĪĿ
áĪĵáĪµáī¦
Ġáī°áĭ°áįĬ
ĠáĬ£áī²áĬ»
www
33
ol
áĮįáĪ®áĪĿ
ĠáĭŃáĬ£áĪĿáĬķ
ĠáĬĵáĭŃáĭŀáĪĿ
ĠáīłáīµáĪª
ĠáĭļáĬķ
ĠáĮ¥áĪį
áĭīáĭ«áĬķ
Ġáĭ¶áĬĵáĪįáĭµ
áĪ´áĬķ
ĠáĬ»áī¥áĬ¡
ĠáĪĿáĪĿáĪ«áĮ½
ĠáīĲáĬķáĭ²
ĠáĪ±áĭ³
ĠáīµáĬķáī¢
áĮįáĬķáĬĲáīµ
ĠáĬ£áī°áĭī
ĠáīĢáĪįáĮ¢áįįáĬ«
Ġáī£áĪŃáĭķ
ĠáĬ£áĭ¨áĭµáĪįáĭ¨áĬ«áĬķ
áĮ¸áī£áĪŃáīķ
de
áĪĪáĪĬ
áĪĭáĮ¦áĪµ
áĭ¨áĮ¥
áīķáĪĪ
ĠáĬŃáīµáĪĵáīµáīµ
ĠáĭĪáĭŃáĪį
Ġáī¥áĭĻáĬĥáīµ
ĠáĪĺáĪŃáĪĵ
ĠáĪĺáĭĪáĭ³áĬ¥áī³áĬ¡
áĭħáĬķ
ĠáĬ£áĭŃáĪĿáī°
ĠáĬķáī³áĪķáī²
áĪĺáĭĵáĪįáī±
ia
ĠáĬ¥áĬ¨
ĠáĮ²
ĠáĬŃáĪĵáĪµáī¥
ĠáĪĵáĬ«áĭŃ
ĠáĪµáĪ¨
áĬ»áĪŃ
áĭ¨áĭµ
ĠáīłáĮ»
ĠáīłáĭħáĪª
áĭ²áĭ±
áīĲáĪį
ĠáĭķáĪµ
ĠáĬ¥áĬĵáĪĵ
ĠáĬķáĬ£áĬĵ
áī£áī¥áĪ«
Ġáī°áĪ°áĬª
áĪķáĪįáĭī
ĠáĪ±áīķ
ĠáĭĿáīĲáĪŃ
ĠáĪĿáĭĿáĮĪáī£
ĠáĭŃáĪĺáĪµáĪĪáĬ©áĪĿ
ĠáĬķáĭĺáĪĪáĭĵáĪĪáĪĿ
áĮ¥áīĢáĪĻáĪī
ĠáĪĺáĬĵáįįáĪµáī²
Ġáī°áĮłáĬķáīĢáīĳ
ĠáĬ¥áĬ¹áĪĿ
áĬ¥áĪ°
ĠáĬŃáīĲáīµ
áĪ¨áĭ©
áĪĭáĪķáī³
áįįáĬ¡
Ġáī°áĪŀ
áĪ²áĪī
ĠáĬŃáīµáĬĲ
ĠáĭķáĪĭáĪĿ
áįĭáĭĬ
ĠáĬªáĪĿ
ĠáĬ¥áīµáĬĲáī¥áĪŃ
Ġáĭ³áĪħ
Ġáĭ¶áī£áīµ
Ġáĭŀáī£áĭĬ
ĠáĪĺáĬ¨áĪĭáĬ¸
ĠáĬ¥áĬķáī°áĪĥáĪįáĭ©
ĠáĪĬáī£áĬĸáĪµ
ĠáĬķáĭĽáĪ¨áī¥
Ġáī¥áĮ½áĪĳáįį
ĠáĬŃáĪĵáīµáīµ
Ġáī¨
ĠáĬĵáĭįáī²
ĠáĪĵáĪĵ
ĠáĭŃáĪį
ĠáĪµáįĸáĪŃ
áĬ¡áĭŃ
ĠáĬŃáīµáĬ®áĬĳ
áĮĪáī¥áĪª
ĠáĪĪáĬķ
ĠáĭĿáĭĪáĮ½áĬ¥
ĠáĭįáĪ½áĮ¥áĬĵ
áĮ¥áīĢáĪµ
Ġáīłáī¥áĭĵáĪĺáī±
ĠáĪ¥áĪ«áĪķ
Ġáī¥áĬ¸áĪĿáĬ¡
ĠáĭĪáĬ¨áįİáĪĿ
áĭŃáĬĵáĬķ
ĠáĬ£áĭ°áĬķ
ĠáĬ¨áĬķáī¥
áĭįáĭ©
áĮįáī¦
ĠáĭŃáĪ³
áįĪáĮ¥áĪ®
áīĤáīķ
ĠáĬ®áĬķáĬ«
ĠáįĪáĭ°áĪ«
áĭµáĪķáĬĲáĬĵ
Ġáī°áĪĵáī³áīµ
ĠáĬ¥áĬķáĭ³áīłáĪĪ
Ġáī¥áĭĵáĭĪáīµ
áĮįáĪĬáĭĿáĬĽ
ĠáĬ£áĪ¨áĮĬáīµ
ĠáĪĵáĮĭáĭŃ
ĠáĬ£áīĵáĪįáī¦
ĠáįĸáĪİáī²áĬ«áĭĬ
ĠáĪĨáī´áĪį
ĠáĬ£áĮ£
Ġáī¥áĪ°áĭŃ
áĬ£áĪ½áī±
ĠáĭĺáĭĿ
Ġáĭĺáĭ°áĬķ
ĠáĬ¢áĬ©áĪĿ
Ġáĭ°áĪŀáĬŃáĪ«áĪµáĭ«áĭĬ
ĠáĮĪáĪ©
ĠáĬŃáīµáĪµ
ĠáĬ®áī³
ĠáĬ¤áĪĿáī£áĪ²
ĠáĪ¨áĮĬ
áĪľáĪªáĬ«
áįĥáĪķ
ĠáĭĪáĪ¨áĭ°
ĠáĬ£áĭķáĭĭáįį
ĠáĬĥáĭŃáĪĬ
ĠáĬ®áĪĿáĭ©áĬķ
ĠáĪĺáĮĪáĭ±
ĠáĬ«áĪŃáī³
ow
áĬķáĭĵ
áĬĵáĭ®áĬķ
áįįáĪĭáĮ¥
ĠáĭĺáĪµáī°
ĠáĭļáĪ°
ĠáĪĵáĭ°áĬ³
áĪ¸áĭŃ
Ġáī°áĪĺáĪĪáĪ±
Ġ49
ĠáĪ°áĪļáĭĸáĪĿ
ĠáĪĿáīķáĭ«áĪŃ
áĭĪáĪŃáīĤ
Ġáī¥áĪīáĮ»áīµ
ĠáĭĿáĭ°áĪĪáĭ¨
Ġpost
ĠáĮ¸áĪĵáįįáī²
ĠáĪĿáĭŃáĭŃáĮ¥
ĠáĬķáĭĴ
ĠáĬ¨áīķáĪŃáī¥
Ġáī°áĭĽáĪ¨áī¦áĪĿ
ĠáĪĵáĪ³áĭĬ
áįĪáĮ¥
ĠáīµáĪķáīµ
ĠáĮ¸áĪŃáįĬ
ĠáĬªáĬ¸áĭŃáĭµ
áĪĲáĭµ
ĠáīħáĭµáĪļáīµ
áĪ«áĬķáĪµ
áįķáĪ¨
Ġáī°áĪ¨áĭ²áĬ¡
ĠáĪĿáĪħáĭŀ
áīĿáĮ¸áĪ©
ĠáĮīáĭµáĪĪáīµ
ĠáĬ¢áĬķáī¨áĪµáīµ
ĠáĬ¨áīµ
ĠáĬĲáĬĲ
áĪ°áĪİáĪĿ
áįĪáĬ«
áĮ»áĬĵáīµ
ĠáĬ¥áĬķáī°áĪµ
ĠáĬ¨áĭŃáĪĵ
ĠáĬķáĪµáĪĪ
áĮ½áĬ¥áĭİ
ĠáĬ£áįįáĭ°áĮĪ
áī¥áĪĪáĪī
ĠáĮĪáĪĬáįģ
Ġáī°áīĲáĭŃáĪ©
áįĢáĪĿ
ĠáĪĵáĭŃáĪī
áĮŃáĬĲáīķ
ĠáĪĺáįħáĪĵáįį
ĠáĪŃáĪķáīĢáīµ
ĠáĪ°áĪľáĬĵáĭĬ
áĪŁ
áĭŃáĪ®áĪĿ
áī³áĪĬ
ĠáīµáĮĪáī¥áĪ®
ĠáĪķáĪ±áĪĿ
ĠáīłáĪĭáĭķ
ĠáĭļáĮĪáī¥áĪ©
ĠáĭķáĮįáĪŃ
ĠáĪŃáĬ£áĭ©
áīĸáīµ
ĠáĮ¸áĬĴáĪķáĬĵ
Ġáī°áĭĽáĭļáĪĻ
ĠáĬ£áĬ½áī¢
ĠáĭĿáī°áĭĪáĪĪ
199
ĠáĭĤáĪİáĪĿ
ĠáĬ£áĭĴáĬķáī°áĭŃ
ĠáĬ£áĭŃáīµáįįáĪŃáĪģ
ĠáĪĿáįįáĪįáĪĭáĭŃ
"áį¡
//
us
áĬĤ
ĠáĬ£áĪĵ
ĠáĬķáĭľ
ĠáĪĵáĭµáĪķáĭµ
ĠáĪķáĪ±
áĭ²áĪī
áĬłáĪĪáĪĿ
ĠáĪŃáĮī
ĠáĭĿáĪĵáĪµáī¥
ĠáĬķáĪ³áī°áĬķ
Ġáī°áįĪáĮ¢
ĠáĬ£áī¢áĭŃ
ĠáĮįáī¥áĪ«áĭĬ
Ġáī¥áĭĿáī°áįĪáĪĭáĪĪáĭ©
ĠáĬ«áī£áī³áī¶áĪĿ
ĠáĭĺáįįáĮ¥áĪ¨áīµ
ĠáĭĺáīķáĪ¨áī¥
ĠáĭŃáĪ¨áĬŃáī¥
áĮĭáīµ
ĠáĭĺáĭŃáĬ¨áĭįáĬķ
ĠáĭĿáī°áĭĪáĪµáĭ°
áĮĪáĪŃáĪĺáĬĴ
ĠáĮ¸áĮ¥
ĠáĬªáī¥áĪį
ĠáĪŃáī¥áĭĴ
ĠáĪ¨áĬºáī¦áĪĿ
ĠáĪĿáĪŃáĮ«áī³áīµ
ĠáĭŃáĮ½áĭĭáĭķ
ĠáĬ®áĭŃáĬķáĬĵ
ĠáĬ£áĬ«áĭŃáĭ±
ĠáĭŃáīłáĪįáĮ½
ĠáīłáĭĵáĪĭáīµ
ĠáĮ³áĮ³áĪ³áīµ
áĪŃáī¶áĭ¶
áĬ¥áĪ½
áĪĺáī±
áĪĭáī³
ĠáĬĲáĪħ
Ġáī°áĭĽáĪ¨áī¡
ĠáĭŃáĪħáĪī
ĠáĭĪáĪĪáĬķ
ĠáĬ½áĬĲ
ĠáĭĪáĪĪáĭ°áĭŃ
áĪ¨áĮĭáĮĬ
Ġáī¥áĪ°áĪĽáĭŃ
ĠáĪĵáĪŃáīłáĬĽ
Ġáī¥áĪĿáĬķáī£áĪ©
ĠDe
ĠáĬ£áĭ´áī³áīµ
Ġáĭĵáĭµáī³áīµ
ĠáĬ¥áĬķáĬŃáī¥áĪī
áĬ¥áĮįáĭļáĬ£áī¥áĪĦáĪŃ
Ġáī¥áĮĬ
Ġáī¥áĪ¥
áĭµáĬ¦
áįĪáĪĭ
áĪªáĬ£
Ġáīµáĭ°áĪį
ĠáīłáĭļáĪĳ
Ġáī°áĮĪáĪª
ĠáĬķáĮįáĪµáī²
ĠáįĬáĪį
Ġáī°áĬ¸áī²
ĠáĭŃáĭįáĪµáĬ½
ĠáĬ£áĬķáĪµáīµáĬķ
>>
ĠáĬ¥áĬ«
áĪĪáī³áīµ
Ġáī¥áīµáĬķ
Ġáī¥áĬ¤
áĬ¥áĬŃ
ĠáĪĺáĪĲ
áĬ£áĬ¥áĪĿáĪ®
áĪ«áī¶áĪĿ
ĠáĪĵáĭļ
áĪĵáĭļ
ĠáĬ£áĭŃáĪģáĭ³
áĬ¸áĬķ
ĠáĬ¥áĬķáī°áĪĵ
ĠáĭĿáī°áĮĪáĪįáĮ¸
áĪĻáĬķáĬķ
ĠáĬªáĪµ
ĠáįĪáĬĲáĭĪ
Ġáĭ³áĭĬ
ĠáĪĿáĭįáĪħ
áīĿáī£
ĠáĬ£áĭŃáĬŃáĬ£
ĠáĬ£áīĲáĭ²áĪĿáĬ«
ĠáĪĺáĪĵáĪª
ĠáĬķáĪĵáĭµáĪķáĭµáĬĵ
ĠáįĸáĪĪáī²áĬ¨
ĠáĬķáĪĿáĪĿáĪĭáĪµ
ĠáĮłáīłáīĵ
ver
áīłáĪ¬áī³
ĠáĪĿáĪįáĬ«áĭĬ
ĠáĬ¨áĮĭáĮ¥
áĪĺáĬ©áĪĿ
áĬŃáĪī
áĮĭáĮłáĪĺ
áĪĥáĪĿ
áĮĵáĪĿ
ĠáĬ¨áĪĿáĭĺáĭ¨
ĠáĪĺáīķáĭ°
tin
ĠáīµáĮ½áī¢
ĠáĭľáĮĭáĮ¥
ĠBBC
ĠáĪºáĪķ
Ġáī°áĭĭáĪ³áĬ¥áī²
ĠáĭĿáĪĪáĬ£áĬ¸áĬĴ
áĪķáĬ©áĪĿ
ĠáĮįáī¥áĪ©
ĠáĭĪáĪ«áĪŃ
Ġáĭ°áĪįáĭ®áĪĿ
ĠáĮĪáīłáĪ®
ĠáĪĽáĬħ
ĠáĬŃáīµáĬ£áī±
ĠáĭķáĪ¨áįį
ĠáĭĵáĪĺáĮ»
ĠáĭµáĪķáĪªáīµ
Ġáī¥áĪ°áįĬáĪĳ
ĠáįĪáĮºáĪĺ
ĠáĭĿáĪ¨áĬ£áĭ¨
Ġáĭ°áīħáĬ¹áĪĿ
ĠáĭĽáĭķáī£áī³áīµ
ĠáĮįáĪĿáī¢
ĠáĮĪáĭļáįį
ĠáĬ¥áĬĶ
áīłáĬª
Ġáī¥áĬ«áĪįáĬ¥
ĠáĪĿáĪ°
áĪ¨áĭ«
áįĪáĪİ
ĠáĭĿáī°áĮ»áĪķáįĪ
áĬĸáĪĿáĬķ
áĬ£áī¥áĬĲáīµ
áĪ°áĪŃáĪĸ
ĠáĬ£áī¢áĪĭ
âĢ¢
ĠáĬ£áĪµáī°áĪĿáĪħáĪ®
ĠáĬ¨áī¥áĭ²
ĠáĪĺáĭĭáĬ¥áĪį
ĠáĭĿáĬķáī£
Ġáī°áĪĭáĭĴáĪī
ĠáĬ£áĮĨáĬ»
áī¥áī£áĭķ
ĠáĭĿáĮ¥
áĭµáĬł
áĪķáĪŃ
ĠáĬĵáĭĿ
ĠáĪµáĭµáĪŃ
ĠáĬ¥áĬķáī°áĭĢ
ĠáĬ¥áĪĿáĬĲáīµáĬķ
ĠáĬĲáįįáĪ°
ĠáĬķáĪĽáĪķ
ĠáĭĿáī£áĪĥáĪį
áĮ¥áĪķáĪ±
ĠáĪĺáĬ¨áĪĭáĬ¸áĪĬ
RE
Ġáī¥áĪŀ
Ġáīĭ
ĠáĬĵáĭķáī¢
áĬ¨áĪ²
ĠáĪĽáĭĵáĪįáī²
ĠáĭįáĮº
ĠáĮ¸áĭĵáīµ
ĠáįĪáĪ¨áĪµ
ĠáĬķáĪĿáīħ
ĠáĬ¤áĪĬ
ĠáĪĪáĬ£áĬ¸
ĠáĪŃáĬ¥áĪµáĬ¹áĪĿ
ĠáĪĺáĪ°áĪī
ĠáĮłáĪĬ
áĪ»áī¥
ĠáĬ£áī¦áĬķ
ĠáĪĿáĪ³áĪķ
áĭ°áĪĪáĭ¨
ĠáĪĺáĪµáī°áĬķ
ĠáĮ¤
Ġáī¥áī£áĪħ
áįĪáĪĬ
áĮ½áī¡áīķ
ĠáĮĪáĮłáĪŃ
ĠáĮĪáĮ¾áĪĿ
ĠáĭĿáī°áīĢ
áįĬáĪį
áĪ»áĬķ
Ġáĭ°áĪŃáĪĨ
ĠáĭĿáĮ¸áĪį
Ġáī¥áĪ©áĪŃ
ĠáĭĿáĬ¸áīłáĪŃáĬ©áĪĿ
áį²áį
áĪĪáĪŃ
ĠáĪĿáīµáĬķ
ĠáĭŃáĭĵ
ĠáĭĺáĭŃáĭį
áīłáĪŃáĬķ
áĬ¢áĬĳ
áĭĳáĭŃ
ĠáĬ¥áĬĵáīłáĪįáĬ«
áĪĮáĬķ
áĪ°áī¥áĬķ
áĪŃáĬĵáĭķ
ĠáĬ£áī¢áĪįáĬĵ
Ġáī¥áĪįáī¢
ĠáĬ£áīĲáĪļ
ĠáĪĺáĪ³áįįáĬķáī²
ĠáĬ¸áĭŃáīµ
ĠáĪ°áĪĽáĭķáĬ©
áī°áĬĲ
ĠáĭĿáĪħáĪī
ĠáĬķáįįáĪŃ
ĠáĭĺáĪĺáĪįáĬŃáīµ
Ġáī°áĪĮáįİáĬķ
ĠáĬ£áĭŃáĬ¨áĭįáĬķáĬķ
áĬ©áĪİáĪĿ
ĠáįįáĪĪáĮ¡
ĠáīħáĮ¥áĭĴ
áĬ¢áĬĵ
áĮ£áĬķáĬķ
ĠáĪ³áī¥
ĠáĬŃáįįáĮ¸áĪĿ
ĠáīģáĪĿáĬĲáĮĪáĪŃ
Ġáī°áĭĪáĭ²áĬ¡
áĭķáĪįáĪį
ĠáĬ£áĪįáĭĴáĪī
ĠáĬķáĪħáĮįáĭ°áįį
ĠáīµáĬ«áĪĭáīµáĬķ
ĠáĪĺáĪĪáĪ±
ĠáĬ£áī°áĪĵáĪķáĭĽ
ĠáĪ°áĪĭáĪ³
ĠáĬ®áĪĿáįķáĭ©
ĠáĮįáĪŃáĪĽ
ĠáĪµáĪĿáĭĴáī³áīµ
Ġof
ĠáĬ¨áĪįáī¢
áĪĭáĪķ
áĪīáĭĭáīµ
ĠáīĭáĬķ
ĠáĭŃáĬ½áĬ¥áĪĭ
ĠáĬ¢áĪįáĭİáĪĿ
áĮ½áĪ©
ĠáĭĪáīķ
áĭĺáĬĽ
áĮ¸áī£
áĪŀáĬĵ
ĠáĭļáĬ½
ĠáĬ¥áī°áĮłáīķ
ĠáĬ¥áĬĵáĭĪáĪ°
ĠáĬ£áĬķáĮĬ
Ġáī°áĭĪáĭ²
Ġáī°áĪĽáĪĥáĪ«áĭŃ
ĠáĬ¥áĬķáĭµáĭĴ
ĠáĪĵáĪįáĭ®áīµ
ĠáĬ¥áĪĿáīłáĬ£áĪŃáĬ¨áĪµ
áİ
ĠáĬ¥áĬķáĬ³áĭķ
ĠáĭĪáĮ¹
áĬ»áĬĳ
ĠáĭĺáĭŃáĮį
ĠáĭĺáĭŃáĬŃáĬ¥áĪī
ĠáĭļáĪħáīłáĬĴ
áĭķáī£áĪį
Ġáī¥áĪĿáī¥
ĠáĬ¥áĪĿáĬĲáī¶áĪĿ
áĮĪáĪįáĮĪáĪį
ĠáĪŀáĬ£áī¥
ĠáĬ£áĬķáĪµáīµáĭ®áĬķ
áīĨáĬķ
ĠáĭĿáĭĪáĪ¨
ĠáĬĲáįįáĪ±
ĠáĭŃáįįáĮ¸áĪĿ
Ġ2007
ĠáĬķáĪĵáĭµáĪķáĭµáĬ©áĪĿ
ĠáĮĪáĪĿáĮĪáĪĿ
ĠáĪ°áĪ«áīĴ
ĠáĪĿáĬŃáīµáī³áĪį
ĠáįĢáī¥áįĥ
Ġáī¥áĭľ
áĪĽáĬĴ
ĠáĬĲáĭĬ
Ġáĭ°áĪ«
áĮłáĪŃáĬĵ
ĠáĭļáĮįáī£áĬ¥
ĠáĭĿáī°áĪĭáĭķáĪĪ
ĠáĬ¨áĪĿáĭĿáĬ¾áĬĳ
ĠáĪĿáĪŃáĬ®
ĠáĬ¥áĬķáĬ¨áĪĪáĬĵ
ĠáĬ£áĪĽáĬĴ
Ġáī¥áĪĺáĬķáĮ½áĪŃ
áĪŃáĬŃáĬĲáīµ
Ġáī°áĮłáīĴáĪ±
Ġáī¥áįģáĭĵáĬķ
ĠáĪ°áĪ¨áĮĪáĪĭ
Ġáī°áīĲáĪĽáĮ¦
ĠáĭĿáĪŃáĬ¢
ĠáĬķáĪ¸
Ġáī¥áĭĵáĪįáī²
Ġáī¥áĭµáĪķáĪŃ
áĪ°áĪ©
ĠáĪĥáĭĭ
ĠáīĢáĪ¨áĮ½
ĠáĬªáĬ¢
áįĬáĪķ
áĪĺáĬķáīłáĪŃ
ĠáĪ³áĪļ
Ġáī°áĪĺáĭ²
áĭĲáĭŃ
ĠáĭĿáĪĺáĮ»
ĠáĬ»áĪħáĬķ
ĠáĪĿáĪŃáĭµáĭ³áĬ¥
áĬ°áĬĲ
ĠáĬŃáįįáīµ
ĠáĬķáĬ¹áĪįáĬĵ
áĪįáĭĵáĪĪ
ĠáĭĿáįįáĮłáĪŃ
Ġáĭ°áĪŃáī¢
ĠáĬ¥áĭĿáĬķ
ĠáĬ£áĪķáĭĭáī°áĭŃ
ĠáīłáĮºáĪķáĬĵ
áĮĭáĮĪáĪª
áīĲáĪŃáī¡
Ġáĭ²áĭ«áī¥áĪİáĪµ
Ġáĭ«áĭķáīĨáī¥
áĬĵáĭŃáīµáĭµ
ĠáĪĥáĭĭáĪħáĭį
ĠáĬŃáĪµáĭķ
Ġáĭĵáī£
ĠáĪµáĪĿáĪ¨áīµ
ĠáĪĺáĭĪáĭ³áĬ¥áī³áĬķ
Ġáī°áįĪáĮ¸áĪĺ
ĠáĪĿáīµáĬ¥áīµáī³áĭį
Ġáī¡áĭĻáĪķ
ĠáĪ½áĪĽáĮįáĪĪáī³áīµ
ĠáĪĵáĮĪáĭĽáīµ
ĠáĭŃáĪµáĪĥáīħ
áīµáĭİ
ĠáĭĿáĪŀ
áĭ¨áĪİáĪĿ
ĠáĬķáĪ±áĪµ
ĠáĪ¨áĭ²
ĠáĬ£áī¦áī³áī¶áĪĿ
ĠáĪĺáĪŃáĭĵáīµ
ĠáĪĺáĬķáĮİáĬ¦áĪĿ
Ġáī°áĪ¨áįį
ĠáĬ¥áĮįáĪ©
ĠáĪ°áĪªáĪĲ
Ġáĭ«áĬ¥áīĨáī¥áĬķ
ĠáĪįáĬ¡áĬ»áīµ
Ġáī¥áĭĪáĮĪáĬĳ
ĠáĪ³áĭķáī¤áĬĵáīµ
ĠáĪµáĭµáĪ«áī¤áī³áīµ
ĠáĪĵáĮ¢áĬ£
ĠáĪĿáīµáĬ¥áĬ½
ĠáĬķáĪŃáĬ¨áī¥
ĠáĪ°áĬĵ
ĠáīµáīłáĪĥáĪį
áĬ¨áĪ©
ĠáĪĺáĬķáīĢ
áĬ®áī³áĭĬ
áĮºáĪŃ
áĪĴáĭĻ
áĮĬáĪ©
ĠáĬ¥áī°áįĪáĪįáĭ¨
Ġ300
ĠáĪĿáĪķáĮĭáĭĿ
ĠáĬ«áī¥áĭļáĬ¦áĪĿ
ĠáĬ£áĭŃáĬĲáīłáĪ¨áīµáĬķ
ĠáĪŃáĬ¢áĬ»
ĠáĭĪáĭ°áī¥
áĬ¨áī³áī°áĪį
ĠáĭļáĮĪáī¥áĪŃáĭİ
ĠáĭĭáĬķáĮ«
áī¥áĪµ
ĠáĬŃáĪŃáĬ¥áĭ®
áĬ£áĬ¾
ĠáĪĿáī¹
ĠáĭĺáĮ½
ĠáĭŃáīłáĭĿáĪķ
áĪĥáĪµ
áĪĥáĮĪáĪŃ
áī¡áī²
ĠáĭĺáĭŃáĪµ
ĠáĬªáĪķ
Ġáī¤áī±áĬķ
ĠáĪ¨áī¢
ĠáĬºáĭ³áĬķ
ĠáĭĪáĪĪáĭ±
ĠáĬ£áĪĿáĮ½áĬ¡
ĠáĬŃáĪħáī¦
Ġáī¥áīµáĬ½
ĠáĭŃáĪµáĪĽáĭķ
ĠáįĪáĮºáĪŀáĪĿ
ĠáĬŃáĪ³áĪ«
ĠáĬ¢áĪħáĭĪáĭ°áĮį
ĠáĬ«áĪķáĪ³
áĪµáĬ©áĪĿ
ĠáĭĿáĮĪáī¥áĪ¨
Ġáī¥áĪĽáĭŃ
áĪķáĮĬ
ĠáĪ°áĪ¨
ĠáĭµáĪįáĭį
ĠáīłáĮ»áĪķ
áĮĭáĬĴ
áĮ¸áĬĵ
ĠáĭķáĮ«
ĠáīĢáĬĴ
ĠáīĢáĪº
áĪĺáĪŃáĭĵ
ĠáĪ¨áī¥
áĭ°áĪįáĬ©áĪĿ
ĠáĬ°áĬķáĬ©
Ġáī¥áįįáĪŃ
Ġáī£áĪħáĪįáĬĵ
Ġáī¥áĪħáĭŃáĭĪ
ĠáĪĿáĬķáīħáĪµáīĥáĪµ
áī³áī³áĪĬ
áĬ¥áĮįáĭļáĬ£áī¥áĪĶáĪŃ
áĪķáĭ¶
ĠáĭŃáĪ°áĪŃáĪĳ
ĠáĪķáĪ©
ĠáĭķáĮ¥
ĠáĮ½áĭĭáĬ¥
áĮĬáĪĻ
ĠáĪµáĪ«áĪķáĬ«
ĠáĬķáĮĪáĪ¨áĬĵ
ĠáĬ£áīĲáĭ²áĪĿáĬĵ
ĠáĪĺáĬ£áĪµ
áĬŃáĪĪáī³
ĠáīµáĪŃáĬ¢áīµ
ĠáĪķáĪ°áī¡
áĬķáīłáī¥
áī¥áĭĻáĪķ
ĠáĬ£áĪĽáĭķ
ĠáĭĺáĭĪ
áĪªáĬ¹
áĭĭáĭĬ
Ġáĭ¨áīĲáĬķ
áīħáĭ«
ĠáĭĿáĬĲáĮĪáĪŃ
áĪĺáĭŃáĪį
ĠáĮłáī£
ĠáĬ¦áĪŃáī¶áĭ¶
ĠáĬķáĮĪáĭĽ
ĠáįįáīĵáĭµáĬ«
ĠáĪľáīµáĪ®
áĮ¥áįįáĬ¦
áĪŃáĬ£áĭ©
Ġáī°áĪĺáĪįáĬ¨áīµ
Ġáĭ°áĪĬáĬ¹áĪĿ
áĪµáĪĪáĭļ
Ġáĭ³áĪķáĪ«áĭŃ
áĪĽáī´áĭİáĪµ
ĠáĮĪáīłáĬĲáĬĽ
ĠáĬ£áĭĭáĪįáĭµáĬķ
ĠáĬ¥áĬĸ
ĠáĪĺáįĭáĪŃ
ĠáĬ£áī¥áĪĬ
ĠáĭŃáįĪáĪĭáĪĪ
áĭ²áīĳ
áī¡áĬ¡
ĠáĪĵáĭ°áĮĭáī³áīµ
ĠáĬĲáĮĪáĪ®áĪĿ
áĮįáī¥áĪ®
ĠáĭĪáĪĪáĭµáĬĵ
ĠáĭĿáĬ½áįĪáĪį
ĠáĬ£áī²áĬĵ
Ġáĭ´áĪŀáĬŃáĪ«áĪ²
ĠáĮĴáĭķáĭŀ
ĠáĮ½áĪŃáĮįáĭ«
áī¥áĭĵáīµ
ĠáĬ¥áįĪáĪįáĮ¦
áĬĵáĭ®áĪĿ
ĠáĪµáĪŀáĪĿ
ĠáĭĵáĪĽáĭĬ
ĠáĭĺáĭŃáī°áĪŃáįį
ĠáĭļáĭĢáĬĳ
ĠáĭĿáī°áĪĺáĪį
áĪĻáĪµ
ĠáĬŃáĬķáĭ°
Ġáī¥áĭĽáĭķáī£áĬ»
áĪŃáĬ¥áĬķ
áĪŃáĬ¥áĭ®áĬķ
ĠáĪ³áĪĿáĬķ
ĠáĬ£áĭįáĪª
ĠáĪĿáįįáĮ»áĪĿ
ĠáįĸáĪĪáī²áĬ«áĭįáĬķ
áĬ«áĪįáĬ£áĭŃ
ĠáĪĬáīĥáĭįáĬķáī²
Ġáĭ®áĬĵáī³áĬķ
áĪĪáĭĵáĪį
Ġáī¥áĭµáĪķ
ĠáĪĺáīĢ
ĠáĬŃáĪ¨áĬł
ĠáĪĿáĪĴ
ĠáĪĿáĬ³áĬĳ
áįįáīķ
ĠáĮĪáĭ³
áīłáĪŃáĪħ
Ġáī¥áĪĿáĬ»áĭµ
ĠáĬ£áī¥áĭļáĬ£
ĠáĬ£áĭŃáīµáĮįáīłáĪŃ
ĠáĪķáĮĤáĭįáĬķ
ĠáĪļáĬķ
ĠáĭĿáĪĺáĪĥ
áī¥áĪ¨áĬĵ
ĠáĬķáĪķáĬĵáĭįáĬķ
áįĢáĪŃ
ĠáĪĺáĭĵáĪĻ
ĠáĪĥáĭŃáĪĽáĬĸáī³áīµ
ĠáĪ¥áĪŃ
ĠáĬ£áĪķáĭĭáī°áĭ¨
áĭįáĭĵáĪĬ
áĪµáī°áĬķáīµáĬķ
ĠáĭŃáĮįáī£áĭŃ
ðŁĩªðŁĩ·ðŁĩªðŁĩ·
ĠáĪĺáĪłáĪ¨áīµ
ĠáĭĵáīłáĭŃáīµáĬķ
ĠáĭĿáĪŃáĬ¨
ĠáĭĿáĪĢ
áĪĺáĪĪáĪµ
áĪ«áīħ
áĪİáĪŀ
áĪİáīµáĬķ
áĭĪáĭ¨
áĭ³áĪ°
ĠáĬ¥áĬķáī°áĬĲáīłáĪ¨
ĠáĪŃáīµ
ĠáįĪáĪµáī²áī«áĪį
áĮįáĭ°áĪµ
áĬŃáĬ¥áĪįáĬķ
ĠáĬ®áĪĿáĪ½áĬķ
ĠáĪĵáī²áī°
ĠáĬŃáĪŃáĪµáīµáĭ«áĬĵáĭĬ
ĠáĬķáĪĿáĪĿáĪķ
ĠáĪĿáĪŃáĮįáĮĭáĮ½
ĠáĪĿáĪĿáĪµáĪ«áīµ
39
ĠáĬ¥áī¥áĪĪáĬ«
ĠáĭĿáįĪáĪį
ĠáĬ¨áĭĭáĬ½áī¥áī²
áįįáĪİ
Ġáī¬
ĠáĬĵáī³
ĠáĮĪáĮł
ĠáĭĺáĭŃáīł
áĬ®áĪ°
áĪ°áĪŃáĪĵ
áĪ°áī¥áĬ½
ĠáĪ°áĪĪáĪµáī²
ĠáĬ£áĬ¥áĭĭáĪĿ
ĠáĭµáĪĿáĮ¹
ĠáĭŃáĪĺáĮ¹
ĠáĬ£áĪ¸áĮĭáĪª
áĪŃáĮĬ
ĠáĬķáĪĺáĪį
Ġáī¥áĬĥ
áĭµáĬ»
áī£áī£áĭŃ
áĭĺáīµ
ĠáĭĺáĪĪáĭĵáĪĪáĪĿ
ĠáĮ½áĭĴ
ĠáĬ¤áĪ³áĭį
áĪĲáįį
ĠáĪ³áĭŃáīµ
ĠáĮİáĭŃáī³áĭŃ
ĠáĪĺáĭĪáĭ³áĬ¥
ĠáĬ£áĪĿáĪª
ĠáĬķáĭķáĬ¦áĪĿ
ĠáĪĺáĪĪáĪĪáĭª
Ġáī¥áĭķáĪ«áĭŃ
ĠáīłáĪ¨áĪ«
ĠáĭĿáĪ¨áĬ¸áī¥
ĠáĮįáĭµáĬĲáīµ
ĠáĭķáĬķáīħáįĭáīµ
34
ĠáĬŃáĭĽáĪ¨áī¡
áĬ£áĪİáĪĿ
áĪĭáĭĬáīµ
áĪ«áī¥áĬķ
ĠáĭŃáī°áĪĵ
áĪĥáĭ°áĪŃ
áĪ½áĪ½
ĠáĪĺáĬķáĪ½áĪ®
ĠáĪįáĭķáĪĬáĬ¦áĪĿ
ĠáĬ£áĪµáĪĺ
ĠáĪĺáĪŃáĪĥ
Ġáī°áī£áĪħáĪĪ
áĪ¨áī¥áĪĵ
ĠáĪĺáĭĽáĮįáī¥
áĪĿáĪĪáĪµáĬķ
ĠáĪĺáĪµáĭĭáĬ¥
Ġáĭ°áīħáĬ»
ĠáĬ£áĭµáĪįáĭİ
áĪ¢
áĬ«áĪī
ĠáĬ£áĭŃáĮĪáīłáĪ¨
ĠáĭĪáīķáī²
áĭĺáī¦
Ġáīłáĭ¨áĬĵáĭŃ
áīĢáĭŃ
Ġáī¥áĪĿáĭµáĪª
ĠáĬĲáĭļáĬ£
ĠáīħáĭµáĪµáĬĵ
ĠáĪĿáĬ¥áī³
ĠáĪµáĪŃáĭĵáīµáĬķ
ĠáĭĪáĪĪáĭ°
ĠáĪĿáįįáĪĭ
Ġáī¥áĪķáĮĤ
ĠáĪĵáĭ«áĪĭáīµ
ĠáĪħáĪĭáĭĮ
ĠáĪĵáĬ«áĭŃáĪĿ
ĠáĭĿáĬ¥áĭĿ
ĠáĬķáĮ½áīł
ĠáĬķáĪ°áĭŃáĮ£áĬķ
áĬĲáīłáĪ®
ĠáĬŃáĬ¨áĭįáĬķ
Ġáī°áĬ¨
ĠáĭŃáĭĭ
áĮ½áĭķáĪŃ
ĠáĪķáĭµáĪķáĭµ
ĠáįĶ
áīĲáĪĪ
ĠáĮ¥áĪĴ
áĪŃáĭ«áĪµ
ĠáĭĿáĪĺáįħáĬ¥
áīłáĪĪáĬĴ
áĪ°áĪĿáĭĲ
ĠáįįáīķáĪ©
áĪ°áĪŃáĪķáĬķ
ĠáĭĿáĮ¸áĪĵáįį
ĠáĬķáĪŃáĬ¥áĪµáĬĵ
áĪĪáĭįáĮ¢
ĠáĬ£áĮĪáĪįáĮĬ
áĮłáĪ«áĮłáĪŃ
áĭ¯
áĭŃáī°
ĠáĬ£áĪª
áĪĺáĭĵáĪįáī²
ĠáĭŃáĪĥáĪį
áĭĪáī°
áĭĪáĪĭ
ĠáĬ¥áĬķáĪŃáĬ¥áĭ®
áĭĭáĬ¥áī²
ĠáīłáīłáĭŃáĬĳ
áīĢáĭµ
ĠáĪĪáĬ¸
ĠáĬķáĪķáī¶
ĠáĬĲáĮĪáĪ«áīµáĬķ
áĪŃáĬ«áĬĴ
Ġ194
Ġáī¥áī°áĪµáįĭ
ĠáĬ£áĪĽáĬĳáĬ¤áĪį
Ġáįħáī£áĪķ
áĭįáĮ½áĬ¡
Ġáī°áĪ³áī³
Ġáī¥áĪĦáĪ¨
Ġáī¥áĪĺáĪįáĬŃáĭĳ
ĠáĬ£áĭµáĪĭáĭŃáĬĲáīµ
ĠáĪ°áĪļáĬĵáĪŃ
áī¥áĭĺáĭŃ
áĪįáĭ±
ĠáĭĿáī¥áĪĪáĬ«
ĠáĬķáĮĢ
Ġáĭ¨áĭµáĪįáĭ®áĪĿ
ĠáįįáĪ¬
ĠáĬŃáĬķáĬŃáĬ¥áĪį
ĠáĭĿáĬĲáīłáĪ¨áĪī
áĭĲáĬĽ
ĠáĪµáĪįáĬª
ĠáĬ¨áĪİáĬ¹
Ġáī¥áĪĺáĬķáĮįáĪµáī²
Ġáĭ¨áī¥áĪįáĬ©áĪĿáĬķ
Ġáĭ°áĬķáīł
ĠáĭĿáĪĺáĪµáĪī
ĠáĬĲáĮĭáĭ¶
ĠáĬ¥áĪĿáī¥áĬ£áĪŃ
ĠáĪŃáĬ¹áĪµ
áĭ«áĬ¥áīĨáī¥
ĠáĭĿáĪŃáĬ¥áĭ®
ĠáĬķáīĨ
ĠáĭŃáī°
ĠáĭĵáĮĭ
áī¢áĭ«
ĠáīĢáī¢
ĠáĪ°áĭĵáī¥
Ġsays
áĬ¨áĪĭáĬ¸áĪį
ĠáįįáĮ¥áĪ¨áī³áīµ
ĠáĮ²áĪĭáĮ¦áĪµ
Ġin
ĠáĬ£áĪ½
ĠáĭĿáįĪáīµáĭİ
ĠáĬķáĬ«
ĠáĬķáī¢
ĠáĬķáĬ«áĪįáĬ¥
ĠáĪĿáĬŃáĭ«áĭµ
áįįáīķáĪª
áĭĵáīķ
áĬ¹áĬĳ
áĪĥáĪĤ
ĠáĬĵáī¥áĭĽ
Ġáĭįáĭ²áīµ
ĠáīĢáī¥áĪª
ĠáĮĪáĪĪáĮ¸
ĠáĭĢáĭŃáĬĲ
ĠáĬ£áĭµáĪĴ
Ġáī³áĪªáĬ½áĬĵ
ĠáĬŃáĪĿáĪħ
ĠáĬ£áĭķáĪ©
Ġáĭĺáī°áĬ£
ĠáįĬáĪįáĪĿáī³áīµ
art
ĠáĪ¨áī¥áĪĵáī³áīµ
ĠðŁĻ
ĠáĪĿáĬŃáīµáĪį
ĠáĭĪáĪĥáī¥áī²
ĠáĭķáĮ¡áīĵáīµ
áĪĥáĬĲáĪĿ
áįĪáīµáĬķ
ĠáĪ°áĪĺ
ĠáĪĥáīłáĬĴ
áĪĺáĬķáįĪáĪµ
ĠáīĥáĪĪáĭŃ
ĠáĪİáĪĿáĪµ
Ġáī¥áĭįáĪį
ĠáĬ£áĭĺáĭĿ
ĠáĬ£áįĪáįĥáįħ
ĠáĭµáĬ»áĪĿ
ĠáĪĵáī°áī³
ĠáĪĵáĪĬáįİáĪĿ
ĠáĪĵáĪĿáĪ³
ĠáĮİáĬķáĮº
ĠáĬ£áĭŃáįįáīĢáĭµáĬķ
ĠáĭĿáĪĭ
ĠáĭĿáĬŃ
ĠáĬķáĮ
Ġáī¥áĭī
ĠáĬŃáĮĪáī¥áĪ«
ĠáĪĿáīĳ
ĠáĭĺáīĲ
áĭĿáĪ«
áī¡áĬĵ
áĮ¸áĬĴ
áīĢáĪŃáī¥
ĠáĬ¥áī°áĬ£
ĠáĬ£áĭŃáīµáĬ½áĬ¥áĪīáĬķ
Ġáī°áīĲáĪĺáĮ¡
ĠáĬķáīķáĪĳ
ĠáĬ¥áĬķáī°áĭĿáĬ¸áĭįáĬķ
ĠáĬķáĪĿáĪķáĮĭáĭĿ
Ġáī¥áĮĪáĬķáĭĺáī¥
ĠáĭļáĪķáī¥áĪŃ
Ġáī¥áĪļáĪįáĭ®áĬĵáīµ
ĠáĭķáĪµáĪ«áĬķ
áīĭáĬķ
áĬķáĭħáĪī
áĪįáĪ³áĭŃ
áī°áĪįáī²
áĪĪáĪĭ
áĪĪáĪµáī²
áĬ£áĪŃ
áĭįáĪİ
ĠáĬ£áĭŃáĭį
ĠáīµáĪĺáĮ½áĬ¥
áĮłáĪī
áīłáĪŃáĬŃáīµ
áīĢáĪ²
ĠáĪħáĭĿáīħ
áīĵáĭķ
ĠáĬ£áįįáīħ
ĠáĪĽáĭķáĪŃáĬĲáīµ
áĭķáĬķáīĢ
ĠáĬĲáįįáĪ²áĭĪáĬ¨áįį
ĠáĭīáĪ½
ĠáĪĽáĬ¥áĬ¨áĪĭáīµ
áĭĺáĪ«áĪ¨áī¡
Ġáī¥áĬĲáī¥
ĠáĪ¨áĬ¸áīł
ĠáĪµáĭµáĪ«áĭŃ
áĬķáĪĿáĬķáī³áĭŃ
áĪµáĬª
áĮĪáĪĽ
áĬ¨áĪ«
ĠáĬŃáīµáįĪáĪįáĮ¡
ĠáĭķáīĿáī£
áĬ¢áĪįáĬ«
áĬªáĭ³áĬķ
áĮĢáĪŃáĭ«
ĠáĬŃáįįáī³áĪķ
ĠáįĬáĭ°áĪį
ĠáĬŃáĭįáĭķáĪį
ĠáĬŃáĪĺáĭįáīµ
ĠáīĽáĬķáīĽ
Ġáī¥áī°áĬ£áĪĽáĬķáĬĲáīµ
,,
ĠáĭĿáĭĺáĪŃ
Ġáī¥áĮĮáĮĭ
ĠáĬŃáĮ¥
ĠáĬĲáĪĺáĪµáĮįáĬķ
ĠáĭŃáī¥áĪİáĪĿ
ĠáĭŃáĪĿáĪįáĬ¨áīµ
ĠáĭŃáĮłáįįáĬ¥
áįĪáĮ¥áĪ¨
áĭĪáĭ°
ĠáĭĪáĮ»
ĠáīłáįĤ
áĭ®áĪĥ
ĠáĮĪáĮ¸áĭŃ
áĮłáĭĵ
ĠáĬŃáīµáĬŃ
ĠáĬ¥áĪĿáĬĲ
áĪŃáĬ¥áĭ¨áĬ«
ĠáĮĢáĪĺáĪ¨áīµ
ĠáĪĿáĬķáīħ
ĠáĬºáĮĪáī¥áĪŃ
ĠáįįáīķáĪŃáĬ»
Ġáī°áįĪáĪª
áĪ¨áįĪáĬķ
ĠáĮ¥áĪŃáĭĵáĬķ
áĭįáĪµáī¦
ĠáĪĿáĮ¥áįĭáĬ¥
ĠáĬķáĪĿáĪµáĪ«áĪķ
áĮ¤áĪ«
ĠáĬ£áĪįáĬ®áĪĭáĭĬ
ĠáĮ¥áĪŃáĮ£áĪ¨
ĠáĭĿáĭķáĭµ
ĠáĬķáĪŃ
ĠáĬŃáĪŃáĭµ
Ġáī°áĬª
áĭĪáĮ¥
ĠáĮĪáĪĽ
ĠáĭįáĪĴ
áīĥáĭŃ
áĮīáĬķ
ĠáĪĿáĬ½áī£áĪŃ
ĠáĪĺáĪ°áĪįáĬķ
ĠáĮłáįį
Ġ400
ĠáĬķáĬ¥áīµ
ĠáĭĿáĮĪáĭĿ
Ġáī£áĭķáĪį
ĠáĮ½áĪĳáįĪáĭŃ
ĠáīķáĬĳáĭķ
áĬŃáĪŃáĪµáīµáĭ«
ĠáĬĲáī¢áĭ«áīµ
ĠáĮłáĪĪáī£áīµ
Ġáī¥áĮĪáĪĪ
áĭµáĪĭ
ĠáĭŃáĬ©áĬķ
áĮ½áĪŀ
Ġáĭ¨áĬĴ
Ġáĭļáī°
ĠáĬŃáīµáĪŃáĬ¥áĭ®
ĠáĪĺáĪįáĬ£
ĠáĬķáĬ£áĪµáī³áīµ
ĠáĬ£áįįáīĤ
áĪ°áĪĿáĭĸáĪĿ
Ġ65
áĪ¨áī¥áĪķ
ĠáĭĿáĪķáī¥áĪŃ
ĠáĬŃáĪĺáĪĥáĪŃ
ĠáĮ½áĪķáįįáī²
ĠáĪĺáĪ²áĪķ
áĪĺáĭĿáĪĻáĪŃ
ĠáįĪáī²áĬĲ
ĠáĬķáĪĿáĪŃáĭ³áĬ¥
Ġáī°áĮłáĬķáīĢáīķ
ĠáĬķáĬ¥áĪµáĪ«áĬ¤áĪĭáĭįáĭ«áĬķ
ĠáĭķáĭµáĪļáĬ¡
ĠáĪĽáĭķáĬ¨áĬĵáīµ
ĠáīħáĬĳáĭķáĬķ
Ġáī°áĭĪáĪ°áĬ½áī²
se
áĪ¨áĪĺ
ĠáĪµáī°
áĬ»áĪª
áĬ»áĭįáĬķ
Ġáĭ°áĪĻ
ĠáĬ£áĪİáĬ©áĪĿ
áĮºáĪī
ĠáĬĲáĭŃáĪŃáĭİáĪĿ
áĮīáĭĵáĭĿ
ĠáĬķáĬ¥áĪµáĬĲáīµ
Ġáī¥áĪįáĭĳ
ĠáĭĿáįĪáĮ¥áĪŃ
Ġáī°áĬ¸áĭ²
áĪŃáī²áĬķ
ĠáĪĵáĭ²áĪ©
áĪ°áĭµáĭİ
ĠáĭĻáĪŃ
ĠáĪĺáīłáĪĪáīµ
ĠáĪµáĬ¢áĬĳ
Ġáī¥áĪ¨áī³áĭĬ
Ã¥
áĬķáĬº
ĠáĪĿáĪĵ
áĪ¨áĬĽ
áĭ°áīµáĬķ
ĠáĪĵáĪĽ
ĠáĪµáīĵ
áĭ¨áĪįáĬĵ
ĠáĪķáĮ¹
ĠáĬŃáĬķáĮ½áīł
ĠáĪ¨áĬ£áĭŃáĭİ
ĠáĬ£áĬķáī°
ĠáĪĺáĪµáĪŃáĭķ
ĠáĪĺáĭĪáĬ¨áĪ²
ĠáĬŃáĬķáĭµáĬ¡
ĠáĭĺáĪķáĪĪ
áĮ½áĬ£áĪī
Ġáī£áĪķáĪŃáĬķ
ĠáĬ¥áī°áĭĪáĪ°áĬĲ
ĠáĬķáīĵáĪį
ĠáĬŃáĬķáĭ³áĬ¡áĪµ
Ġáī°áĬ¸áįĬáī±
ĠáĪĺáįĭáĪŃáīķ
ul
áĬĲáĬĲ
áĪĺáĭļ
áĪĽáĭ²
áĬ«áĬĵ
áĭĬáĬķ
áīħáī¥
áĪŃáĪµáĭĸ
áĮĢáĪ«
ĠáĬķáĬ£áĭ³áĪĿ
Ġáĭ¶áĪŃ
ĠáīħáĭµáĪļáĬ¦áĪĿ
áĪŃáĬ¨áī¥áĬķ
ĠáĪĽáĪķáĭ°áĪŃ
ĠáĬ£áĭįáĭ«áīµ
ĠáĪµáĪĪáĪĿáĬķáī³áĭŃáĬ¨
ĠáīłáĪįáĭİáĪĿ
Ġáī¥áĪįáĮ«
áīłáĮ½áĪĲ
ĠáĭĿáĭĪáĪ°áĭ°
áĭĽáĭĺáĪĿ
Ġáī¥áĪ«áĭļ
ĠáĪĿáīµáĬ«áĬ½
áĬ¥áĮįáĭļáĬłáī¥áĪĶáĪŃ
ĠáĪĺáĪ¥
ĠáĬŃáī£
áĭ«áĪİ
ĠáĪ°áĪĮ
áĮ£áīł
ĠáĪ½áĭµáĪ½áī°
áĬ³áĬĵáīµ
ĠáĪĺáĬķáįĪáĪµáĬķ
ĠáĬ£áĪįáĭ©
Ġáĭĵáī¥áĭ©
áĪ¾áĪĿ
ĠáĭĪáĪ°áĬ½
ĠáĭĵáĪĪáĪĿáĪĪáĬ¸
ĠáĪĿáĭµáĪĭáĭĭáīµ
ĠáīħáĪ³áĬĲáīµ
áĮ´
áĪĿáĮ¥
áīłáĬ¦áĪĿ
áĬ£áĪįáĬĵ
áĬ«áĭ®áĪĿ
ĠáĬ«áĪħáĬĵáīµáĬķ
ĠáīµáĪĵáĪµáī¥
Ġáīħáĭ²
ĠáĪĵáĭ°áĬķ
ĠáĮ½áĪĭ
ĠáĬķáĪĿáĭķáī£
áįĬáĬŃ
ĠáĬ¥áī°áĪ°
ĠáĪ³áĭĭ
Ġáĭ°áīĤáĪ±
áīĨáįį
ĠáĪĿáĪķáĪ¨áī±
ĠáĬ£áĭŃáĬķáĭ°áĪįáĬķ
áĪµáĪĿáĭĵ
ĠáĮ¸áĮĭáĪĿ
ĠáĬ£áīķáĪªáī¡
áĮ¥áīĢáĪĿáĪī
ĠáīłáĮ»áĪķáī²
Ġag
Ġáī°áīłáĪ«
áĪ°áĭ¶
Ġáĭµáīĥ
áĭ³áĭ°áĪŃ
ĠáīµáĪį
ĠáĮĪáĮ»
áĪĥáĭ¨
áīłáĪŃáĭİ
ĠáĮ¥áĪªáīµ
ĠáĬŃáīµáĪĺ
ĠáĭĪáĭŃáĭĺáĪ®
ĠáĬ½áī¥áĪª
ĠáĬĲáĭļáĬ¦áĪĿ
ĠáĬ¥áĬĵáĬ¸
ĠáĪĿáĬ¥áĬķáīµ
áī¥áĪ¨áĪĭ
áī°áĪĵáĪĵáĭĺ
ĠáĬ£áĭŃáĬ°áĬĲáīµáĬķ
áĪķáīµáĬ¡
ĠáĭľáĬĵáī³áīµ
áĪĺáĭĿáĮĪáīł
Ġse
áĮĪáĪįáĮ¸áĪī
ĠáĬ¤áįįáĪ¬áĪĿ
áīłáĪīáĬķ
ĠáĬŃáĮİ
ĠáĬŃáĪŃáĬ¥áĭ©
áī£áĪķáī²
ĠáĪĵáĭµáĪķ
áĪĵáĪķ
ĠáĭŃáĪ¨áĬł
áĪ°áĬ©áĪĿ
áĪ°áĪĪáĭŃ
ĠáĪ°áī£
ĠáĬ«áĪľ
ĠáĮįáĪ«
ĠáĬ£áĭŃáĮĪáīłáĪŃ
ĠáīµáĬ¾áĬĳ
ĠáĮĪáĪª
áĪ°áĪŃáĪĵáĪī
ĠáĪĿáĭµáĪ«áĭĬ
ĠáĭĿáĮ¸áĪĵ
ĠáĬ£áĪĿáĪĭáĬ¹
ĠáĪŃáĬ¥áĭŃáī¶áī³áīµ
ĠáįĪáĪ¨áĬķáĪ³áĭŃ
ĠáĭŃáĪµáĪĿáĭĵáĬĴ
ĠáīĲáĭ³áĪĺáĭŃáī²
áī¥áĭ©
ĠáĬ£áī¥áĪ«
ĠáĭŃáĪķáĮįáĭĿ
ĠáĬ¢áīµ
áĭĵáī³áĭĬ
ĠáĬ¨áĪĿáĬ¥
áĪħáĭŃáĭĪáīµ
áĮ¸áĪįáĬ¥
ĠáīĢáĭ°áĪĻ
ĠáĬ¥áĪĿáī¥
áĭĴáĬķ
ĠáĪĿáĪķáĪĭáįį
ĠáĬķáĪĺáĪĪáĪµ
ĠáĬķáĭĺáĪĪáĭī
Ġáīłáī¥áĪĺáĭĵáĪįáī±
ĠAss
Ġáī¥áĮįáĪįáĮº
ĠáĭĿáįĪáĪįáĮ¡
ĠáĬŃáī¡
Ġáīº
áĬ½áĪī
ĠáĪĵáĮ»áĪŃ
ĠáĭŃáĪħ
áįĪáĬĲ
ĠáĪ°áĪĵ
ĠáĬ£áĭŃáĪĤ
áĮ»áĭĬ
Ġáĭķáĭįáīµ
ĠáĪįáīĵáĪķ
áīĤáīµ
Ġáī£áĮ½áĭķ
áĪĺáĪįáĬŃáī±
áī°áĪĵáĪĵáĭĿ
ĠáĭĺáĭŃáīµáĬ½áĬ¥áĪį
ĠáĪĺáĬ¨áĪ«áĬķ
ĠáĭŃáĭĪáĮ½áĬ¥
ĠáĮ¸áĪİáī°
áĬ¥áĬ¨áī¡
ĠáĮ½áī£áīĲ
ĠáĭįáĪ«áĭŃáĬĵ
]>
áĭµáĪ«áīµ
áĪķáĪĬ
ĠáĬĲáī£
ĠáĬĲáīłáĪ®áĪĿ
ĠáĭŃáĮİ
ĠáĪµáĮ³
ĠáĬ¥áĬķáĬĲáī¥áĪŃ
áĭĺáĪĿ
ĠáĭĺáĭŃáįį
ĠáĭĿáī°áĪĽ
áĮ£áĭ¨
ĠáĮłáįĪáĪŃ
Ġáĭ²áĬŃáī³
ĠáĬķáĪĺáĮ½áĪĵáįį
ĠáįįáĪŃáĪĤ
ĠáĬ£áĬ¥áĭĽ
áĮĪáĭµáįİ
ĠáĪ«áĬ¢
Ġáī¥áĪħáĭĿáī¢
ĠáĬŃáĭįáĪ°áĭµ
ĠáįĪáĪĬáĮ¥áĬĵ
ĠáĬ£áįĪáĭŃ
Ġáī£áĬķáĭ´áĪ«
ĠáĪĺáĪ¸áĮ£
ĠáĪĵáįįáī°áĭŃ
áĮ»áĮ¸áĪ®
áĬķáīĢáĪ³áīĲáĪµ
ab
Ġg
áĪĿáĭ²
ĠáĬ£áĮķ
ĠáĭĿáī£áĬķ
Ġáī¥áĪĺáĪŃ
ĠáĪĺáĪ»
ĠáĬŃáĪĪáī¥
áįįáĭ«
áĮįáĭ¶
áĭ°áĪĪáĭŃ
ĠáĬĲáĪ®áĪĿ
ĠáĭŃáĪ°áĪĿáĭķ
ĠáĬ¢áĪļ
ĠáĭĺáĭŃáįĪáĪįáĮ¡
ĠáīĢáĪªáī¦áĪĿ
áĪ«áĭŃáĪµáĮ¢
ĠáĬ½áī¡áĪŃ
áĪ¬áĪ½áĬķ
ĠáĬĲáĭŃáĪ©áĭİ
ĠáĭĭáĪħáĭ®
Ġáĭ³áĬĽ
ĠáĪĽáĪħáĮ¸áĬķ
ĠáĪ«áĪħáĭĭ
rit
ĠáĬ£áĪ¶áĪŃ
áĮįáĪĲ
áĪīáĬĵ
áĪ°áī¡
ĠáĮįáīłáĪ®
áĭ³áĪķ
ĠáĭļáĪħáī¥
áĪĿáĪĭáĬŃ
ĠáĬŃáīµáĬ°áĬĳ
áĭĳáīµ
áĪ¬áĬķ
ĠáĬŃáĪŃáĪµáī¶
áī¥áĪ¨áī°
áįĥáĪį
ĠáĮ¨áĪ¨áī³
ĠáĪĺáĭĭáī²
ĠáĮĭáĬķáī³áī³áīµ
ĠáĪ¸áī¶áī³áīµ
ĠáĬŃáĬ¾áĬķ
áĪķáĪµ
áįįáĪ½
áĪĽáĬķáĬķ
áĭĽáī°
ĠáĪĿáĪµáĬĵáĭŃ
ĠáĬ£áĪĪáĬª
ĠáĬŃáīµáĮįáīłáĪŃ
ĠáĭĿáĬĲáĮĪ
ĠáĪĿáĬ½áĬĴ
ĠáĭįáĪ½áĮ£
ĠáĬķáĪĺáĭĵáĪįáī²
ĠáĮĵáĬĸáīµ
ĠáĪĺáĬķáįĪáĪ³
ĠáĭŃáĪķáī¥áĪ©
ĠMO
ĠáĪĿáĭīáīµ
ĠáĬŃáĭ³áĭįáĬķáī²
ĠáĭĺáĭŃáī¥áĪįáĬĵ
ĠáĮįáī¥áĪŃáī³áīµ
ĠáĬ¥áĪĽáĪĺ
Ġáī°áĮłáīĥáĪļ
áįĸáĪĪáī²áĬ«áĭĬ
ue
áĭŃáĪ¨
ĠáĬķáī²
ĠáĬ£áĭŃáĭĵ
áĪĬáĭ©
ĠáĪķáįĥ
áĮ¸áĭµáīķ
áĪĻáĭµ
áĭĪáīµáī²
ĠáĬ¨áĪĿáĭĿáĬ¸áĭįáĬķ
ĠáĬ£áī¦áĬ£
ĠáĬ£áĮĪáĪĭáĪį
ĠáĪ¸áĬĲ
ĠáĬ¨áĪĿáĭĺáĪĪáĭİáĪĿ
ĠáĬ£áĬ¥áī°
Ġáī¥áĪµáĪ©
ĠáĪĿáįįáī³áĬķ
áī¥áĪ«áīķ
ĠáĭķáĪĭáĪĽáī³áīµ
ĠREA
ĠáĭĿáĪ¨áĬ¸áīł
ĠáĪĽáĪŃáīĨáĪµ
ĠáĪķáĪĻáĪĿ
ĠáĬªáĭ³áĬĲ
kip
Ġáī¥áĬ¨
ĠáĭŃáĪĲ
áĪ°áī°
áĬŃáĪ«
Ġáĭ¨áĭĺ
ĠáĭļáĪĲ
Ġáĭļáĭ°áĪį
ĠáĭĿáī°áĬķ
ĠáĬªáĬĲáī¥áĪŃ
ĠáĬķáĪµáĬ«
ĠáĬ£áĭŃáīµáĮ¨
ĠáĭĿáĪĵáĪį
ĠáĪĿáĪķáĪĭáĭį
ĠáĭīáĪĳ
ĠáĮĪáīłáĪŃáī²
áĭķáĭµáĮį
ĠáĪĺáĪĿáĪŃáĪĴáī³áīµ
ĠáĭĿáī°áĬ£áĪ³áĪ°
ĠáĪħáĬķáįĢáīµ
áĪ¼
ĠáĬŃáī¥áĪĭ
ĠáĭĺáĪĮ
ĠáīµáĮĪáī¥áĪ©
ĠáĪįáī¥áĬķ
ĠáĬ£áĪİáĭ¶
ĠáĪŀáĪ«
Ġáī£áĭķáĪįáĬ¹áĪĿ
ĠáĮĵáĪĤ
Ġáī°áĪĵáĮĲáĪ±
Ġáĭ©áĬĵáĭŃáīµáĭµ
ĠáĪ°áĭĵáī¥áī²
ĠáĮķáĭ³áĭ«áīµ
ĠáĪ¨áĬºáī¥áĬ«
Ġáī°áĮ¸áĭĬ
ĠáĬķáĭĺáĪĪáĬłáĪĪáĪĿ
áĪ«áĬ¥áĭŃ
ĠáĪĺáĬ¸áī°
ĠáĬ£áĬ½áī¥áĪ®áīµ
áīłáĮĥ
Ġáī¥áīĥ
áĬ£áĪĭ
áĪ¨áįĬ
áįįáĪĭ
Ġáī°áĪ¨áĮĭáĮĬ
ĠáĪµáĬķáĬ©
Ġáīµáĭµ
Ġáī£áĪħáĪį
ĠáĬ¥áī°áĭĽáĪ¨áī¦
áĪįáĬ«áĭ®
ĠáĭĿáĪĵáĪ°áī¥
ĠáĪĽáĬ¥áĪĪáĭ«
áįĪáĪŃáĪģ
áįįáīµáĪĴ
Ġáī¥áĮįáĭ²
ĠáĪĥáī¥áī°
ĠáįĪáī°áĭįáī²
ĠáĮ¸áĮĭáĪĽáĭŃ
ĠáĭĿáĪµáĭķáī£
áĪĵáĭµáĪ½
Ġáī¥áĬķáĭ«áĪĿ
ĠáĪĵáĬķáĮİáĪį
ĠáĭĿáī°áĮłáīķáĪ°
Ġáī°áĬ£áĬªáī¦áĪĿ
ĠáĬ£áĮĪáī£áī£áīµ
ĠáĬ£áĭ©
ĠáĭĿáĪ³
ĠáĬķáĮ¡
Ġáī°áĮ½
áĪĵáī¶
ĠáĬ¥áĭ©áĪŀ
ĠáĬ¥áĬķáįĪáĪįáĮ¦
Ġáĭ¨áĪĭáĬķ
áĮ£áĮ¥
áįĪáĪįáĬ©áĪĿ
Ġáī¥áĪĵáĮİáĪµ
áĭĽáĪ¨áī£
áĮĵáĬĲ
ĠáĪĽáĭķáĭ¶
ĠáĬķáĮĪáĪĬáĬ¦áĪĿ
áĮ³áĭįáĪİáĪµ
áĮ¨áĭŃáī²
ĠáĭĺáĭŃáĪĿáĬ½
enna
Ġ2006
ĠáįįáĪįáĪµáįįáĬĵ
ĠáĭįáĪŃáĭ°áīµ
Ġáĭ°áĭ¨áīł
ĠáĬ£áĪĺáĪĵáĭ³áĪª
áĮ¶áĪµ
-?
áī¥áĭĭ
ĠáĬ¥áĪĪ
áĪŃáĮ½
Ġáī¥áĭĤ
áĬ£áĪİ
áĪĺáĭ±
Ġáī°áī°áĪŃ
áįĪáĪİáĪĿ
áĮĭáĭŃ
áĬĴáĬŃ
áĪŀáĪµ
Ġáįĳ
áīłáĭŃáĭİ
áĪµáī°áī¥
Ġ2000
ĠáĬ¨áī°áĮĪáĪįáĮįáĪī
ĠáĪĺáĪ°áĮĭáĮĪáĪª
ĠáĪĿáĬ¥áĪĭáĭŃ
áĪĦáĪį
ĠáĭĿáĬ¸áĭ°
ĠáĪĤáī¥áĬ«
ĠáĭĿáĪĿáĪĪáĪµ
ĠáīµáĬķáįĭáĪµ
áĪµáĬ«áĪķ
ĠáĮĪáĭĿáĬ¦áĪĿ
ĠáĬŃáįĪáĮ¥áĪŃ
ĠáĪķáĭµáĮĪáīµ
ber
ĠáĬ¥áĬ¸áĭŃáĭµ
áĪµáįį
ĠáĬķáī£áĪŃ
ĠáĬĲáĭĻáĭŃ
áĭ«áĬĲ
áīħáĪĿ
ĠáĬŃáīµáĬŃáĬ¥áĪį
ĠáĬ¢áĪīáĬĵ
Ġáĭ³áĪµ
áĪĮáĬĵ
ĠáĬ£áįįáĮĭáĬĴ
ĠáĭĪáĭ²áīĳ
áĪĿáĪµáĬŃáĪŃ
áĭĪáĬķáĮĮ
Ġáī¥áīµáī¥áĭĵáīµ
ĠáĪ¶áįįáīµ
Ġáī¥áĭķáĪĿ
ĠáĬ£áĭ²áĬ£
ĠáĪĿáīħáĪĭáĪµ
ĠáĬ¤áĪįáĪ³
ĠáĬķáĪĿáĪµáĪĽáĭķ
ĠáīĢáĪªáī£
37
ĠáĬ¥áĮįáĪ¨
áī³áĬķáĬķ
ĠáĬŃáĪĵáĪį
ĠáĬŃáĬ£áīµáĭī
ĠáĬŃáĮ½áĪķáįį
ĠáĬ¥áĬķáī°áĬĲ
ĠáĬ½áįĭáĪį
ĠáĬĲáĮĪáĪŃáĭļ
áĪ¶áĪĿáĬķ
ĠáĪĿáĬķáĮŃáī³áīµ
ĠáĬ«áĪįáĬ¥áĬķ
Ġáī¥áĪµáĪĿáĬ«
ĠáĭķáĭµáĪĺáĬķ
ĠáĪ³áĭķáĪª
ĠáĪĺáĪĬáĪ¶áĪĿ
ĠáįĪáĮºáĪĿáĬ«
ĠáĭĿáĪ¨áĬ£áĭ®
ĠáĪĪáī£áĪĽáīµ
'áį¢
ĠáĭĿáĮĲ
ĠáĪĺáĪķáīµáīµ
ĠáĬŃáĪ¨áĬ½áī¦
ĠáĬŃáĮįáĪĪáĮ½
áĭķáĪ©
áĭĭáī³
ĠáĪħáĭµ
ĠáĮ¥áĪ¨
ĠáĬŃáĬķáī¥áĪİ
ĠáĬªáĬ½
Ġáī¥áĭĽáĭķáī£áĬĵ
ĠáĬ¥áĬĵáīłáĪįáĬ©
ĠáĬ£áĬķáī±áĪĿ
áĪķáĮįáĭŀ
ĠáĬ¥áĬķáĬ¨áĪĪáĬ»
Ġáī°áĭĭáįĬ
áī³áī¶áĪĿáĬķ
ĠáĪĵáī¢áĪŃáĬ«
ĠáĬ¸áĭŃáĭ±
ĠáĪ°áĪªáĪĸáĪĿ
áĪĵáĪĭáĪĪáįį
ĠáĬ£áĪĺáĪµáĮĬ
ĠYou
ĠáĭķáĮįáīłáīµ
36
um
ĠáĬ£áī°áĬķ
áĪ«áī¶
ĠáĪµáĭĵáīµ
ĠáĬ«áĪĪ
Ġáĭ°áĪĭáĭŃ
áĪ®áī³
áĮłáĬĳ
ĠáĪĥáĪĪáĭĭ
ĠáįĪáĭŃ
Ġáī¥áĪĿáīħ
ĠáĪŃáĬ¥áĪµ
ĠáĮİáĪµ
ĠáĬ¨áĪĿáĭĺáĭ¨áĪĪ
ĠáĪĥáī¥áī³áĪĽáīµ
ĠáĭĿáĬĲáīłáĪŃáĬ«
ĠáĬ£áī¥áĪŃáĪĥáĪĿáĬķ
ĠáīµáĭķáĮįáĪµáī²
ĠáīħáĭµáĪľáĬĵ
ĠáĭĺáĭµáĪįáĭ¨áĬĵ
ĠáĬªáĬ¸áĭ±
ĠáĮ¢áĪŀ
ĠáĬ¤áĪ¨áīµáĪ«
ĠREAD
áī¼
áĬķáĬ£
áī¥áĬª
áĭŃáĬ«
ĠáĬŃáĪĺáĪµáĪį
ĠáĭĺáĮłáĪ«áĮ¥áĪŃ
ĠáĭŃáĪŃáĭµ
ĠáĪµáī´
ĠáĮįáĪħ
ĠáĭĪáĬĲ
ĠáĭĵáĪ°áī¥
ĠáĪķáī¡áĬ¥
ĠáīłáĭĿ
ĠáĮĪáĪŃ
ĠáĬŃáĬķáĪ°
ĠáīĢáīħáĭµáĪļ
ĠáĬ®áĪĮ
ĠáĪŃáī£
áīĥáīķ
áĪµáī°áĭŃ
ĠáĬ¥áĬĵáĬĲ
áĪ¸áĬķ
ĠáĮłáĪĺ
ĠáĪĺáĪĬáĪ°
ĠáĭĿáĪµáĪķ
ĠáĬķáĪĿáįįáĮ£áĪŃ
ĠáĬ£áĪįáĬ£áĭĽáĪŃ
ĠáįĥáĭķáĪª
Ġago
ĠáĬ£áĬ»
áĪĪáĭĵáĪĪ
Ġáī¥áĪĭáĭķ
ĠáĬŃáī°áĪĵ
ĠáĪĿáĪĿáĪį
ĠáĭµáĪ©áīµ
áĭ©áįį
áĭ²áįį
ĠáĮĪáĪĭ
ĠáĬŃáīµáĭĪáĪµáĭµ
ĠáįĪáĪĪáĮł
ĠáĬķáĪķáĮĬ
ĠáĭĿáĬĲáīłáĪ¨áĬķ
Ġáī¥áĪŃáĮį
ĠáĬķáĭĿáĭ«áĭ³
ĠáĭĪáĪŃáīħáĬķ
Ġáī°áĪµáįĭáĬķ
áĪ¨áĬŃáī¥áĬķ
ĠáĬ«áĪįáĬ£áĭŃáī²
ĠáĪĵáĪ³áī¡
ĠáĮİáĭŃáī³áĬĵ
Ġáī¥áīĢáĮ¥áī³
Ġáī°áĬ£áĪ²áĪ®áĪĿ
ĠáĪĵáĭĭáĪŃáĭ«áĭĬ
ĠáĪĺáĭĺáĬĵáĮįáĭĴ
ĠáĬ¤áįĮáĪ¶áĬķ
áī¥áĪĿ
áĪįáĬ©
ĠáĭĿáĬ«
ĠáĬķáĭ²
Ġáī¥áīĿ
áĬ¥áĭĺáĭĿ
Ġáī°áĭĽáĪ¨áī¦
ĠáĭŃáĪĿáĪŃ
áĬ¸áĪĿ
ĠáīłáĭŃáĬĵ
áī¡áĬĴ
ĠáĬŃáīµáĭĿ
ĠáĬ©áī£
áĬ¢áī³áīµ
ĠáĪįáī£
ĠáĬªáĬĲ
áĪ«áĪķáī²
Ġáĭ³áĪŃ
áĪĤáĭĪáīµ
ĠáĮİáĪį
ĠáĮĪáĭĽáĬ¥áī²
áĮĲáĪį
áĮ½áĪķáįİ
ĠáĬŃáĪħáĬĲáīµ
ĠáĭīáĪ½áĮ¢
áĮ¥áīĥáĮ¥
ĠáĬ£áĭĪáĭ³áĭµ
ĠáīĵáĪįáĪ²
ĠáĭŃáĬķáĮĪáĪŃ
ĠáĭĿáī¥áĮĪáĪµ
ĠáĭĵáīħáĪļ
Ġáī£áĬ¥áĪ²
ĠáįĮáĭ°áĪ«áĪį
áĭŃáĪĻ
ĠáĭĿáĪħ
Ġáī¥áĪ³
ĠáĬ¨áĭĺ
áĭ°áĮĬ
ĠáĬ¨áĪĿáĬ¥áī°
ĠáįįáĪµ
ĠáįįáĪŃáĭ«
ĠáĮ¥áĭķ
ĠáĭĺáĪİáĭī
áĪ»áĭķ
áĪĿáĪŃáĪķ
ĠáĬķáĪĺáī¥áĭĽ
ĠáĬĲáįįáĪµáĬ»
ĠáĪĿáĪįáĪµ
ĠáĭĽáĮĬáĭµ
Ġáī¥áĭĿáī°áĪ¨áįĪ
ĠáĬ£áī£áĪįáĬĲáīµ
ĠáĪĿáĭķáī£áĪĪáī³áīµ
ĠáĬ£áĪķáĪĬáįĪ
ĠáīµáĬ¥áĪĿáĪŃáī²
ĠáĬķáĪĿáĭĿáĪ«áī¥
ĠáĭµáĪĴáĪ©
ĠáĬ£áĮłáīĵáīķáĪĽ
ĠMORE
ĠáĬ¥áĪķ
ĠáĬķáĪ°áĬķ
Ġáī¥áĪ®
ĠáĪĿáĭ±áī¥
áĮ¥áĬĲáīµ
áĬ¡áĬĴ
ĠáĬ¥áĭļáĬł
ĠáĬŃáĬķáĭ®
ĠáĪįáĪ³áĬķ
ĠáĭľáĭµáĪĬ
ĠáĬ¨áĪĿáĭĿáĮįáī£áĬ¥
ĠáĪĥáĮĪáĪŃáĬĵáĬķ
ĠáĭĿáĮĪáĭ°
ĠáĪĿáĪķáĭĿáĬĲáīµ
áĪĺáĪįáĪ²
ĠáĪĿáĮ½áĭĭáīµ
ĠáĬ¨áĪĿáĭĺáĭŃáī¥áĪī
ĠáĬ£áīķáĪŃ
ĠáĬķáĮ½áī£áĪķ
ĠáĬ£áĭĺáĭĺ
ĠáīµáįĪáĪįáĮ¥áĭ¶
ĠáĮĨáĪŃ
ĠáĬ´áĬķáĬ©áĪĿ
Ġáī°áĮłáĬķáīĤ
ĠáįįáĮ»áĪľáī³áīµ
ĠáīµáĭįáĪįáĭ²
ĠAssenna
áĪŃáįİ
Ġáī¥áĪĭ
ĠáĬŃáĪ³áī°áįī
áĭ³áĪļ
ĠáĭĿáī°áī£
ĠáĬŃáīµáĪĿáĪĪáĪµ
ĠáĮ¸áĪĭáĪĿ
áĭĻáĬķ
ĠáĬªáĬĲáī¥áĪ©
áĬ¹áĪĿáĭİ
Ġáĭ°áĬ£áĪĿáīłáĪŃ
ĠáĬ£áĬ¥áīµ
ĠáĪĭáĪĿ
Ġáī¥áĬ¥áĮįáĭļáĬ£áī¥
Ġáī°áĬ£áĪļ
ĠáįĬáĪĬ
ĠáĭĿáĪĿáĪ«áĪķ
ĠáĭĪáĪ²áĬĲ
ĠáĪĥáī¥áīµáĬķ
ĠáįħáĪĳáįį
ĠáĬ¥áĬķáĬ¨áĪİáĬĵ
ĠáĪĺáĬ£áĭĿáĬķ
ĠáĮ¸áĪİáī°áĭŃ
áĪĺáĪĵáĪĭáĪĪ
Ġcont
ĠáĬ£áīłáĪŃáī²
Ġáī°áĬ£áĪ²áĪ©
ĠáĪ¨áīĽáĪĴáī³áīµ
ĠáĪ»áīķáĪİáīµ
ĠáĬķáĬ¸áĪĿáĭļ
ĠáīłáĪĭáĭķáĬ©áĪĿ
Ġáĭ³áĭĬáīµáĬķ
ĠáĬķáīłáĪ¨
áį¡.
áĭµáīĥáĬķ
ĠáĬ¨áĪį
áĭķáĪ®
Ġáī°áĬ«
ĠáĪ°áī´áĬ¹áĪĿ
ĠáĪµáĬ½
áĬ¨áĪī
áĬ¨áĪ¨áĬĴ
áĪįáĬ«áīµ
áĪ¸áī£
áĪ´áĪİáĪĿ
ĠáĪĿáĪĿáĭĿ
ĠáĬ½áīµáįĪáĪįáĮ¥
ĠáĭĺáĪĭáī¶
Ġáī°áĪĽáĪħ
ĠáĪªáįĵ
áĭįáĭķáĪİ
ĠáīłáĪŃáĪĢ
áĬ¥áĬ¨áī¥
ĠáĬķáĪ½áĭĳ
Ġáīłáĭĵáī²
ĠáĪĺáĭµáĪ¨áĬ»áīµ
ĠáĭľáĪĲáĮķáĪµ
ĠáĪĪáĬķáĭ°áĬķ
áĬķáĭ¶
ĠáĬ£áĭµáĬĵ
áĪįáīĥ
áĪĪáĬª
ĠáĭĿáīĺ
áĭµáĪ¶
áĭ«áĭĬáīµ
ĠáĬ¢áĪĽ
áįĪáī³áīµ
ĠáĬ£áĭŃáĬ«
áīķáīłáĪį
ĠáĪħáĭĭ
áĮ¸áĬ¦
áīħáīķ
áĬªáĪ©
ĠáĬ¨áĭŃáĭ³
ĠáĪĺáĪ°áĪİáĪĿ
ĠáĭĿáĪĺáĪ¨áĮ½
ĠáĬ£áĭŃáī°áĪ¨áĬ½áīłáĬķ
Ġ51
ĠáĮĭáĬĶáĬķ
ĠáĪĵáĪĪáįĪ
Ġáī»áĪŃ
ĠáĬ£áīµáĪĴáĭŀáĪĿ
ĠáĪĺáĮ¨áĪ¨áĪ½áī³
Ġáĭ°áĬĵáĮįáĪį
ter
áĭŃáĪ«
áĪŃáī³áīµ
áĪŃáī£áĬķ
áĬĵáī±
ĠáĬŃáĬ¾
áĮĪáīłáĪ®
áĬ©áĭİáĪĿ
áĪ²áĬ«
áĮ¸áĪŀ
ĠáĭĺáĭŃáĪŃ
ĠáĭļáĭĿ
ĠáįĪáīĲ
ĠáĮīáĭ«
ĠáĬ²áĪĭáī¶áĪĿ
ĠáĪĺáĭĵáĪµáĬķ
Ġáī±áĪª
ĠáĭķáĭīáĪŃ
ĠáĭĿáĮĪáĪĪáĮ½
Ġáī°áīłáĮĬáĪ±
ĠáĭĿáĪĿáĪįáĬ¨áī¶áĪĿ
Ġáī¥áĪĿáĮįáĪĭáĮ½
Ġ|
áĪįáĪķ
áĪĺáĬĸ
áĪĺáĪªáĬ«
áįįáī¶
áĭįáĭĸáĪĿ
áĭ°áī¡
ĠáĬ£áĭŃáī¥
ĠáĬ£áĭŃáįĪáĪįáĮ¦áĬķ
ĠáĭĵáīĲ
ĠáīµáĪ°
áīķáĪĬ
áĭĺáĪĭ
áĮĭáĮł
ĠáĪĿáĪµáĬ£áī¶áĪĿ
áĬĲáīµáĬ«
Ġáĭļáī¥
áĮ£áĪĿ
Ġáī¥áĪĿáĪħ
áĬĵáīµáĬĵ
ĠáĭĿáĪĵáĪįáįį
áĪĮáĬŃ
..."
ĠáĭĿáĭĪáĮ¹
Ġáī°áīĲáīłáĪį
ĠáĪ°áĪĽáĭĴ
áĪĢáī¥
ĠáĭĿáĪµáĪĻ
Ġáīµáĭķáī¢áīµ
ĠáĪĵáī°áī°
ĠáĭĿáĪĿáĭµáĬĵáī³áīµ
ĠáĪ¨áĪ²áĬ£áĬķ
ĠáĪĳáĮ»
ĠáĪĺáĬ½áĪ°áī¥
ĠáĬķáīħáĭµáĪļáīµ
ĠáĪĻáĪµáĪĬáĪĿ
áĬģ
ĠáĪ¼
ĠáĭĿáĮłáįįáĬ¡
Ġáī¥áĮİ
ĠáĬ£áī¥áĭª
áĪĺáĭĽ
áĪĽáī¶áĪĿ
ĠáĬĵáįį
áĮ½áĬ¦áĪĿ
ĠáĬ£áĭŃáīµáĬķ
áĬŃáī³áīµ
áĭĭáī³áĭŃ
ĠáīłáĮ½áĪĳ
ĠáĭļáĬ¸áĭŃáĭµ
áīħáī£
áīħáĪŃáī¥
áĬ®áĪ¨
ĠáĬŃáīµáĮ½
ĠáĬ®áĬ¾
áįĪáĪįáĮłáĬķ
ĠáīĥáĬķ
ĠáĪĪáĪĺáĬķ
ĠáĪļáĪįáĭ®áĬĵáīµ
ĠáĬ£áĪĪáĭīáĬĵ
Ġáī¥áĪµáĬĲ
áĪįáĬ¥áĬ½
áĭ´áĪį
ĠáĬ¨áĪĪáĭį
Ġáĭ°áīĢáī£áīµ
ĠáĪ°áĪļáĪŃ
ĠáĪħáĮ»áĬĵáīµáĬķ
ĠáĪĦáĪ®
ĠáĬķáĮīáĪµáĬķ
ĠáĮįáĪįáĮ½
ĠáĬŃáĭķáĭĪáīµ
ĠáĬŃáĬĲáĮįáĪ¨áĬ«
38
io
ra
ĠáĪĺáĭŃ
áĬ½áĬ«
ĠáĭµáĬ¹
áĭĭáīµáĬķ
ĠáīłáĭĵáĪĪ
Ġáĭ°áīł
ĠáĮĪáī¥áĪŃ
ĠáĮĪáĪĺáĭµ
Ġáĭ¨áĮłáīĵáĪįáĪį
áĬ®áĪį
Ġáī£áĮ¤áĪ«
ĠáīģáĪµ
áįĪáīµáĪĸ
ĠáĬĶáĭĺáĪŃáĪĭáĬķáĭµ
Ġáī¥áĬ£áĮĭ
ĠáĪĽáĬ¥áĪ°áĪŃ
ĠáĪĿáĪįáĪĭáĭŃ
Ġáī°áĮĪáĬķáĭļ
ĠáĭĿáĪ°áĭĵ
Ġáī°áĮłáīĲ
ĠáĬŃáĪŃáĪµáī²áĭ«
ĠáįķáĪ¨áĭļ
ĠáĪĺáĮ¸áĭĭáĭķáī³
ĠáĭĽáĬķáī³áī³áīµ
ĠáīħáĪŃáĪº
Ġthe
ĠáĪħáĬķáĮ¸áīµ
ĠáĪĽáĪķáīłáĪ«áĭįáĬķ
ĠáįĪáĪĪáĮį
Ġáĭ¬
áĪ¨áĪ°
áĪĵáĮ¥
ĠáĭŃáĪĵáĪµáī¥
Ġáĭ¨áĬ«
Ġáĭļáī¥áĪī
ĠáĭĿáī°áĮĪáĪĪ
ĠáĭĿáī°áī¥áĪĥáĪĪ
ĠáĮĲáĪ¨
ĠáĭĿáĭĢáĬķáĬ©
ĠáĬŃáĬĲáĪ±
ĠáĪĿáĮįáĪįáĮĭáĪį
ĠáįįáĪīáĭ«áīµ
Ġáĭĺáĭ¨áĪİ
áĬµáĪ®
ĠáĪļáĬĴáĪµáī´áĪŃ
ĠáĮ¥áīķáĪµáī³áīµ
ĠáĪĿáĭķáī£áĭŃ
ĠáĭĿáī°áĪĵáĪĭáĪĪ
ĠáĭĪáĪįáįĬ
ĠáĭĿáĬ£áī°áĭī
ĠáĬ£áĪįáĬ®áĪį
ĠáĪĺáĮ¨áĪ¨áĪ»
ĠáĬ£áīłáĭ¨áĬĵáĭŃ
Ġáī¥áīķáĬķáĭķáĬĵ
Ã¶
áĪĿáĪĥ
ĠáĬ¥áī¥áĪ«áĭįáĭ«áĬķ
ĠáĬķáĬ¨áĭŃ
ĠáĬ¥áĬķáĬĲ
ĠáĭĪáĮ¥áĪª
ĠáīµáĮ¥áĪķáĪ±
áĮ¸áĪįáĬĵ
ĠáĬŃáīµáĭĪáĮ½áĬ¥
ĠáĬŃáīµáĮ¥áįįáĬ¡
ĠáīĢáįĥáĪĬ
áĪŃáĬ¥áĭ¨áĬĵ
áī¤áī±
ĠáĮĪáĪĬáĮ»
ĠáĬ¨áĪĿáĭĺáĭŃáīµ
áĪŃáĮįáĪķ
Ġáī¥áĪ©áĪŃáĬķ
ĠáīµáįĪáĪįáĮ¥áĭİ
ĠáĬŃáĭµáīħáĪµ
Ġáī°áĪĺáĪµáĪªáī±
ĠáĬ£áĭŃáĬĲáīłáĪŃáĬ©áĬķ
ĠáĪŃáĭµáĬ¢áīµ
ĠáĭĪáĭŃáĪįáĪŃáĬ¹áĪĿ
ĠáĬ£áįĪáįĥáįħáĪĽ
Ġ×
áĪĩ
ĠáĬ£áĭĬ
ĠáĬ£áįİáĪĿ
ĠáĮĦ
ĠáĬķáīłáĪİ
ĠáĪĺáī³
ĠáĬŃáĬĵ
ĠáĬŃáĪĽ
ĠáĪĿáĪĪ
ĠáĮįáĪª
ĠáĬ¨áĪĿáĬ£
áī¶áĬŃ
ĠáĬĵáĭŃáī°áĬķ
ĠáĪĿáĪŃáĬ«
ĠáĭĪáĪŃáĪķáĬķ
áĮĪáī¥áĪ¨áĪİáĪĿ
ĠáĬĲáī¥áĭ«áīµáĬķ
ĠáĭŃáĪµáĪķ
áĭĺáĪ«áĪ¨
Ġáī°áĪªáĪŃ
ĠáĬ¨áįĬáī±
ĠáĭķáĪ½áĪ½
ĠáĪµáĭįáĬ£áīµ
Ġáī¥áĪ°áĭŃáįĬ
ĠáįĢáī¥áįĥáī¥
ĠáĬŃáī¥áĪ©
áĪ¨áĭ±
áĮĪáĭŃ
áĪĵáĪ³
áĪĵáĪĭáĪį
ĠáĭŃáĮ¥
áĪ°áĪĽáĭķ
áĭĵáĮ½
áĬ¡áĬĵ
ĠáīłáĪ¨áĭµ
áĮłáĮ¥
ĠáĬ¥áĬķáī°áĬ¾áĬĳ
ĠáĬŃáīµáĪĺáĮ½áĬ¥
ĠáĭķáĪŃáĬŃáĬĲáīµ
ĠáĬ¥áĪĿáīłáĭŃ
ĠáĬ£áĭŃáīµáĬ¹áĬĳ
ĠáīĨáĪŃáīłáīµ
áĮĵáĬķ
ĠáĪĿáĪħáĬĵáĮ½
ĠáĪ°áĪļáĭķ
ĠáĬŃáĪįáī²áĬ¤áĬķ
ĠáĬ£áīĲáĭ²áĪŀáĪĿ
ĠáĬ£áĭĪáĭ³áīµáĬķ
ĠáĬ¥áĪ±áĪŃ
ĠIn
Ġáī¥áĪĦáĪ«áīµ
ĠáĪĺáĪĿáĭĺáĬĴ
ĠáĪĵáīħáĬĲáīµ
Ġáī¥áīĵáĪį
Ġáī°áĭĪáĪ²áĭ±
ĠáĮ¡áī¥
ĠáĪĵáĮĬáĭĻáĬĴ
Ġáī£áĭŃáĭ°áĬķ
ĠáĮĪáĪĽáĮįáĪĿ
ĠáĬŃáĮ½áīł
áĬ£áĪĪáĭŃ
áĪĺáĮ£
ĠáĪķáĪŃáĪ²
ĠáĪĿáĪµáĬŃ
Ġ--
ĠáĬ¤áī½
áĮİáĪį
ĠáĪĿáĬ½áįĭáĪį
áĬŃáīµáĪ®áĬĴ
ĠáĬ°áĬĳ
ĠáĬ¨áī£áī¢áĬĵ
áįĸáĪĬáĪµ
ĠáĭµáĪįáĭ±
ĠáĬ£áĭ³áĪĿáĬķ
ĠSkip
ĠáĪĺáĪŃáĭĵáĭĬ
Ġáī°áĬ½áĬ¥áĪİáī³áīµ
ĠáĭĵáĪĿáĭ²
Ġáįįáīĵáĭ°áĬĽáī³áīµ
ĠáĬ¢áĪħáĭĪáĭ´áĮį
ĠáĬķáī¢áī¢áĪ²
Ġcontent
ĠáĬķáĪ¨áī¥áĪĵ
ĠáĪĺáĭįáĪµáī¦
ĠáĬ¨áĮĪáĪįáĮįáĪį
áĮįáī¢
ĠáĪĵáīĨáįį
ĠáĭŃáĪ¨áĬ½áī¡
ĠáĭµáĪīáĭĭáīµ
áĬ¨áĭ¨
áĮĭáĮį
ĠáĬ¥áĬķáī°áĪįáĭ©
ĠáĮ¸áĭĵ
ĠáįĪáīĥáĪŃ
áīĥáĪĪáĪ±
ĠáĮĵáĪ¶áīµ
ĠáĪĺáĭµáĪĵ
Ġáī¥áĪķáĪĽáĪĿ
Ġáī°áĬ»áĬ¢áĪī
áĪ³áīĲáĭ©
ĠáĬĲáĮĭáĭ³áĭŃ
ĠáĪĺáĬķáĮįáĪ¥áī°
Ġre
ĠáĬķáĪļ
ĠáĪĿáĪ¨
áĪ¨áĬ¹
áĪķáĭŀ
ĠáĬ£áĭŃáĮ½
áĭ²áĮī
ĠáĮĪáĭ°
ĠáĮĪáĪŃáĬ«
ĠáįĪáīµáĬķ
ĠáĭĿáīłáĪįáĭİ
áĮ¡áī¥
ĠáĮłáĪļ
Ġáī¦áīµáĬ¡
áĪ´áīµ
ĠáĪĻáĪī
ĠáīģáĪĿ
ĠáĭĿáĬ£áĪĺáĬķ
Ġáī¥áĬ£áĪ½áĪĵáīµ
áĭĪáĪµáĭ³
ĠáĪĵáĮĪáĭĿáĬķ
ĠáĭĵáīķáĪĿáĬĵ
Ġ2005
ĠáĬ£áįįáĪªáīĥáĭįáĭ«áĬķ
ĠáĬķáĮ¥áįĪáīµ
ĠáĬŃáīķáĭ¨áĪŃ
ĠáīįáĪ©áī¥
ĠáĪĿáĬķáīħáĪµáīĵáĪ³áīµ
Ġáī¥áĪ½áĬŃáĪĪáī³
ĠáĭĿáĪ°áĪŃáĪĸ
Ġlike
ĠáĭķáĮįáĪŃáĮįáĪŃ
ĠáĬ£áīĨ
ĠáĬ¥áĪŃáĮĭ
áīłáĭĵáĪį
áĬ£áĪįáī¦
áĪĭáĬ½
áĭįáĬĲáīµáĬķ
áĪīáĬĴ
ĠáĬŃáĬķáĪµ
ĠáĬ£áĪµáĭķáī¥
áĮ¥áīĢáĪĺáĪİáĪĿ
ĠáĬ£áĭµáĪĵ
áĬ¥áīµáĭİ
ĠáĬ£áīĢáĪ«áĪŃáī£
ĠáĪĺáĮ»áĬ¥áĬ©áĪĿ
Ġáī¥áĪķáĪįáįĬ
áĬķáī°áĪŃáĬĲáīµ
áĮįáī²
áĪªáĬ¢
áīķáī³
ĠáĪķáī¥
ĠáĮ¸áĮī
ĠáīĢáĪį
áĪĺáĬķáĬķ
áĪŃáĬ¥áĭ©áĬķ
áĭĢáĬĵ
áĭ³áĬ¥áĬķ
áĮ¨áĭį
áĮįáĪĿáīµ
áĪ°áīµáĭ©
ĠáĮ«áĪĽ
Ġáī¥áĮ¥áīłáī¥
ĠáĭµáĬħáĪª
Ġáī°áĭĵáĮ½áĭ©
ĠáĬķáĪ°áīłáĭŃáī±
Re
áĮ¼
ĠáĪĿáĬ¾áĬĲ
áĭµáĪ¨
áĭµáĪ©
áĭµáīĤ
áĪĵáĪĵ
áĪ°áĪ³
áĭ©áĭİ
ĠáĪĿáĪµáīµáĬķ
Ġáį§
ĠáĬŃáīµáĪ°
ĠáĬŃáĬķáĬŃ
Ġáī°áĭĪáįĭáĭŃ
Ġáī°áĬ¸áĪ²
áī¥áĪ«áĪħ
Ġáĭ°áĪŃáįįáī³áīµ
ĠáĬķáĪŃáĬ¥áĪ°áĭŃ
ĠáĪµáī¥áĪĵáīµ
Ġáĭ©áĬĴáī¨áĪŃáĪµ
ĠáĪĤáī¡áĬĵ
Ġáĭĵáĭµáĭĭ
ĠáĪ¨áĬłáĭ¨
ĠáĭĿáįĪáīµáĭĭ
ĠáĬķáĭ®áĪ´áįį
ĠáĪĺáĭĲáīĢáĬĴ
áĮ»áĮ½áĪ«
ĠáĪµáĭķáĪ¨áīµ
ĠáĪĺáĮĢáĪĺáĪªáĭ«
ĠðŁĻĤ
ĠáĭĿáĪµáī°
ĠáĭĿáĪħáī¡
áĪĭáī¶
áĮĪáĪī
ĠáĭŃáĬ¨áĬ£
ĠáĭŃáĪŃáĬ¨áī£
Ġáĭ°áĪļ
áĪĻáĭİ
ĠáīĢáĭ«
ĠáĪĿáĭµáĬķ
ĠáĬ£áĪµáĪļ
ĠáĬ£áĪķáĭĽáī¥
ĠáĪ²áĬĵ
Ġáī°áĪĽáĪķ
ĠáĪµáĮĭáĬķ
ĠáĬķáĪĿáįįáĮ»áĪĿ
Ġáĭ°áĪĬáĬĵ
ĠáĪĪáīłáĭĭ
ĠáĬ£áįįáĬķáĮ«áĬķ
Ġáī¥áĮ¥áĬķáīĥáīĲ
ĠáĬŃáĭīáĬķ
áĬ£áĭ°
áĭĿáĪĵ
ĠáĭŃáĬ£áī±
ĠáĬ¢áī²
áĮ½áĪ®
áĭĭáī²
ĠáīĢáĮ¸áĪĪ
áĮ£áī¥
áĭµáĬĵáĭ®
áĪįáĬ©áĪĿáĬķ
áĪ¨áĬ£áĭ¨
ĠáĪĿáīµáĪķáĮį
ĠáĬ£áĭ°áī£áī£áĭŃ
Ġáĭ°áĪµáī³
ĠáĬķáĮ¹áĪĥáīµ
ĠáĮĪáĭ²áįįáĬĵ
ĠáĬ£áįĪáĭĪáĪŃáīĤ
ĠáĪĺáĬ£áĭĿ
ĠáĭĺáĭŃáī¥áĪĪáĭŃ
Ġáī¥áīµáĬ½áĬŃáĪį
áĭŃáĬ¡
ĠáĬ£áįħ
áīłáī³
Ġáī¥áĭķáĪĬ
ĠáĪĿáĬ¸
áĭķáĬĲáīµ
ĠáĪĵáįĤ
ĠáĭŃáĭħáĬķ
áĬ»áĪµ
áĭĺáĬ¨áĪŃ
ĠáĪķáĪ°áĪĿ
Ġáĭ¨áĮĭáĮ¥áĪĿ
áĬłáĬĴ
ĠáĮįáĬķáĭĽ
ĠáįĪáįĤ
áįħáĬ¦
Ġáī°áĪĺáĪĥáĪ«áĭŃ
áĭĽáĪ¨áīłáĬĴ
áī¤áī³áĭĬ
áįĢáĪĺ
áĮ¸áĬķáĭķ
ĠáīµáĮįáĪ«áĭŃáĬķ
ĠáĪĿáĮ½áĬĵáĪķ
Ġáĭ°áĮĬáĪĿáĬĵ
áĭµáĪĿáĮº
ĠáĭĵáīķáĪĻ
ĠáĪĺáĪĭáĬ¥áĬ½
ĠáĮ¥áĬķáīĥáīĲ
áĬ¥áĪĿáīłáĬ£áĪŃ
ĠáĬ£áĮ¸áī¢áīĲ
ĠáĭĵáĪļáīĿ
ĠáĪĿáĬ¥áĬķáī³áĬĵ
ĠáįĪáĪĬáĮ¥áĬ«
ĠáĮĪáīłáĬĲáĬĽáī³áīµ
ĠáĬĥáĮ¢áĬłáīµ
ĠáĬ¥áĬķáī°áĭĺáĭ¨
ĠáĬ¢áĬķáī¨áĪµáīµáĪĺáĬķáīµ
áĪĪáĪģ
Ġáī¥áĬ®
áĬ½áĪ²
ĠáĭŃáĪĥáĪī
áĭ«áĭįáĬķ
ĠáĪ°áī¡
áĭĪáĪĿ
ĠáīµáįĪáīµ
ĠáĪķáī°áī±
ĠáīłáĬ¸
áĮĭáĮĪáĭĿ
ĠáĬŃáīµáĪ¨áĬ½áī¦
ĠáĬ£áĭŃáīµáīķ
ĠáĪĿáĬ½áĬ£áĪį
Ġáīħáĭ±áĪµáĬĲáī¶áĪĿ
ĠáīµáĪĿáĪħáĪŃáīµáī³áīµ
áĭĸáĪĿáĬķ
ĠáĬ£áĪµáĪ«
Ġáī¥áĬ¥áĬ£
ĠáĬ¢áĪĪáĭ®
áįģáįħ
Ġáĭ°áĪ¨áĮĥáī³áīµ
ĠáĪįáĪĿáĭĵáī³áĭĬ
ĠáĬķáĪĺáĬķáĬ¥áĪ°áĭ«áīµ
ĠáĮĪáĭ²áįĪ
Ġ1991
ĠáĪĵáĮ¥áĬ£áĬķ
ĠáįĪáĪ¨áīĵáĬķ
Ġáī¥áĪĤáĪį
ĠáĬ£áĭ¨áĭµáĪįáĭ®áĬķ
áīłáĪįáĬķ
áīłáĪİáĬķ
ĠáĬŃáįĪáĪįáĮ¡
ĠáĬ¨áĬĵ
Ġáĭ°áĮį
ĠáĭĺáĭŃáī°áĪĵ
ĠáĬ¥áĪĿáī¢
ĠáĬ¥áīµáī¥áĪĥáĪį
ĠáĪĺáĪįáĪĵáĪµ
áĭĲáĪŃ
áīµáĬ©áĪĿáĬķ
ĠáĪĵáīłáĬķ
Ġáī°áĭĪáĬ¨áĪµ
áīłáī¥áĭ«
áįķáĪ®
áĮ¥áįįáĬ£
ĠáĪĨáĭŃ
ĠáĪ»áĪĤ
ĠáĭŃáĪĺáĪµáĪī
Ġáī°áĪĿáĪĥáĪ«áĭŃ
Ġáī¶áĪĿ
ĠáĬ«áī¶áĪĬáĬ«áĭĬáīµ
áĭĦ
ĠáĬ£áĮī
ĠáĭĿáĮĪáĪį
ĠáĬ¨áĭµáĬ©
áĪĽáĮ¥
áĭĵáĬ©áĪĿ
áĮ½áĪĿáī²
áĭĪáīµáĬķ
áĭĪáĭ³áĬ¥áī³
áĭ³áĭµáĪŃ
ĠáĭĵáĪŃáĬŃ
ĠáīµáĬª
áĮ¥áī¥
ĠáĭĺáĭŃáĭ°áĪĬ
ĠáįįáĮ¹
ĠáĮ½áī¡
ĠáĬ£áĭŃáī°áĪ¨áĭµ
Ġáĭ²áĪŀáĬŃáĪ«
áĪ¨áĬķáī¶áĪµ
áĬłáī¥áĪĦáĪŃ
ĠáĬķáĮįáĭ³áĭĬ
ĠáĬ¢áĬķáī°
ĠáįĵáĪªáĪµ
ĠáĬ¥áĬķáī°áĭĺáĭŃáĬ®áĬĲ
ĠáĪĿáĪħáĪ®
ĠáįķáĪ®áĮįáĪ«
ĠáĬķáĪĺáĬķáįĪ
áī³áĭįáĬĲáīµ
ĠáĭŃáĪĺáĪµáĮĪáĬķ
Ġáī°áĮłáīĴáĪĻ
ĠáĬķáīłáĭĵáĪį
ĠáĭįáĪ³áĬĶáī³áīµ
ĠáĬ£áīĢáĭ²
ĠáĬ£áĮĨáĬ¹áĪĿ
ĠáĭĭáĪķáĪµ
ĠáĭµáĪķáĬķáĬĲáīµ
Ġyou
ĠáĬŃáĪµáī°áīµ
áī°áī³
ĠáĬķáĬ¸áĭŃáĭµ
ĠáĬŃáĭĪáĪµáĭ±
áĪĺáĮ¢
áĪĭáī°áĭŃ
Ġáī°áĭ°áĪŃ
áĪĵáįĬ
ĠáīłáĭŀáĪĿ
Ġáĭ¨áĭį
áĮ»áĮ»
ĠáĬ¥áĬķáī°áīĲ
áĬłáĪĿáĬķ
Ġáī£áĭµáĪĺ
ĠáĬķáĪµáĭ°
ĠáĬ£áĭŃáīµáĬ¥
ĠáĬķáĪķáĮį
Ġáī¥áĬ£áĬķ
ĠáĬ£áīµáĭ«
ĠáĪĿáīµáĭķáĪŃ
ĠáįĭáĪµáĮĭ
áĬ½áĬķáĭ«áī±
ĠáĪ°áĪļáĭķáĬ«
Ġáīłáī¥áĪĵáĭ°
ĠáĬķáī£áĭķáĪĪáĭŃ
Ġáī°áĪ¨áĬºáī¦áĪĿ
ĠáĪĿáī¹áĬ¥
Ġwww
ĠáĬķáĮĬ
ĠáĬķáĪĪáĭįáĮ¢
Ġáī¥áĬ¨áĪĿáĭļ
ĠáĬ¨áĭĭ
ĠáĭŃáĪĺáĪį
ĠáĪµáĪī
ĠáĬ«áĪĬ
ĠáĬ¥áĬķáĮĢáĪ«
ĠáĬ£áĭŃáįĪáĪŃ
áĮ¸áĪİáĪĿ
ĠáĭļáĪĺ
ĠáĬŃáīµáī¥áĪī
Ġáĭķáĭ±
ĠáĮ¸áī¢áī¥
Ġáī£áĪ®
ĠáĬªáĪħáĪī
áĪµáī°áĪ«áīµ
ĠáĬ£áĭŃáīµáĬ¹áĬķ
ĠáĪĺáĪ°áĪĭáīµáĬķ
ĠáĬŃáįįáĮ½áĪĿ
áī¥áĪİáĬķ
ĠáĭĪáĪĪáĭ°áīµ
ĠáĬķáĭ°áīĨáĪĿ
ĠáĪĺáĪĪáĬ¸áīµ
ĠáĭīáĪī
áĮ¥áįįáĬ¦áĪĿ
ĠáĭĺáĭŃáĪĿáĪħ
ĠáĭĿáĪµáĪ«áĪķ
ĠáĭįáĪįáīĢáĪ°áī¥
áĮĪáĪįáĮ¸áĪįáĬĵ
ĠáįĪáĪ¨áĬķáĮĤ
ĠáĭĵáĬķáīĢáĮ»áīµ
ĠáĪ³áĭķáī¤áĬĳ
Ġth
ĠáĭĦáĬķáĬĵ
ĠáĬ«áī¶áĪĬáĬŃ
ĠáĭķáĭµáĪļáĬ¦áĪĿ
ĠáĪħáįĥáĬĵáīµ
ĠáĪ«áĭķáĭ²
Ġáī¥áĪįáĪ½áĭįáĬĵ
ĠáĭĿáįĢ
áĭįáĪī
áĭįáĬ«
áĪ°áĬĵáĭŃ
ĠáĬ¢áĭĽ
áĭ®áĪĿáĬķ
áĪĥáīµáĬķ
ĠáĪĽáĭĵáĪį
ĠáĬ¥áĬķáī°áĬ®
ĠáĭļáĬ¸
ĠáĭļáįįáĮ¸áĪĿ
ĠáĬŃáĬķáĭĪ
ĠáĪįáĪ³
ĠáĬªáĬĲáĮį
ĠáĬ¥áĬĵáīĲ
ĠáĬ¥áīµáĬĲ
áĬ£áīµáĭĭ
ĠáĬłáī¥áĬ¡
ĠáĬ£áĪĽáĬ¢áīµ
Ġáī¥áĪķáĭŃáĭĪáīµ
Ġ..."
ĠáĪĵáĭ²áĮį
áĬķáī¥áī¦
ĠáĭĿáĪ¨áĬ¸áī¥áĬĵáĭ®
ĠáīĢáĪįáĮ¢áįĪ
ĠáĪĮáĭĭáĭįáĭ«áĬķ
ĠáĪµáĭīáĬ£áīµ
ĠáĬ»áī£áī³áī¶áĪĿ
ĠáĬ£áĪ¨áĮĭáĮĬáĮ¹
ĠáĭĺáĮĭáĮłáĪŀ
ĠáĬ¥áĮĥáĪĿ
ĠáĪŃáĬ¤áĬ¹
ĠáĮŃáī¥áĮ¢
Ġor
ĠáĬķáįħ
ĠáĬŃáĮĪáĪįáĮ¾
áĪĺáĪª
ĠáĭĺáĪ³
Ġáī°áĪĥáĬķ
áįĪáī²
Ġáĭ¨áīķáĪŃáī¥
ĠáĪħáĪŃ
ĠáĭļáįĪáĪįáĮ¥
ĠáīħáĬĲ
ĠáĬŃáĬķáĭį
ĠáīĢáĮ»áĪį
áīĵáĪį
ĠáĬ«áĪįáĬłáĭŃáī²
ĠáĬķáĭĵáĪ°áĪŃáī°
ĠáĬ£áĭŃáĬĲáīłáĪ«áĬķ
Ġ75
ĠáĬ£áīµáĪª
ĠáĮ¨áĬ«áĬķ
ĠáĪĿáĮ½áĪĭáĭŃ
ĠáĪĨáĪĭáĬķáĭµ
ĠáĬķáĭįáĪĵáīµ
ĠáĮĪáĪĿáĮĭ
Ġáī°áīĲáī¢áĪİáĪĿ
Ġáī°áĪĽáĪĤáĪŃáĬĵ
ĠáįįáĮ¡áĪ«áīµ
ĠáĬ£áĭĽáĭļ
ĠáĮłáīķáĪĭáĪĭ
Ġáĭ²áįķáĪİáĪĽáĪ²
ĠáĪĿáĭįáĪħáĪĥáĭµ
áĭįáĪĴ
áĭķáĬ¡
Ġáĭĵáīĥ
áĪļáĬ«áĬ¤áĪį
ĠáĪħáĮįáĭ°
ĠáĭĿáī°áĮĭ
áī£áīµáĬĵ
áĪĽáĭķáī¥áĪį
áĭµáĪķáĬĸ
áĭµáĪķáĬĲáĬĴ
ĠáĬ¨áĪĿáĭĺáĪĭ
ĠáĬ²áĬĲáī³áīµ
Ġáī¥áĪįáī¡
ĠáĭĿáīłáĪįáĬ©
Ġáī¥áĪĽáĪĪáīµ
ĠáĬķáĬ¤áĪŃáīµáĪ«
ĠáįįáĪ½áĬ½áī³
ĠáĪĿáĪ¥áĮ¢áĪŃ
áįįáĪįáĮłáīµ
ĠáĮİáĪ¨áī£áī¥áī²
ĠáĬĢ
áĪµáĬ¨
áĬĲáĪį
ĠáĬ¨áįį
áĪ²áīµ
ĠáīĢáįĤ
ĠáĬŃáĪįáĪĭáīµ
áĭĲáĭŃáī²
áĮįáī£áĪ©
ĠáĬ©áĬĲáī³áīµáĬķ
ĠáĬ£áĭ°áĭŃáĬķ
ĠáĬŃáĪµáĪ«áĪķ
ĠáĪĵáī²áī¶áĪĿ
ĠáĪĺáĪ³áĪŃáĪĴáī³áīµ
ĠáĬ£áĪĿáĮºáĬ¡
áĬ»áĬ¸áĪª
ĠáĪĿáĮ½áĬķáĬĵáĭķ
ĠáĪ¨áĪµáĬĴ
ĠâĢ¢
áĪĿáĪ«
ĠáĭĿáĮĢáĪĺ
ĠáĭĿáĪĳáĪį
Ġáī¥áĮĭ
áĮĪáĪĻ
áĪĽáĭĿ
áĭ°áĪįáĬĵ
ĠáĭĪáĮ½áĭĵ
ĠáĮĪáĪĥáĬĲáĪĿ
ĠáĪĥáĪįáĭ©
Ġáįª
ĠáĬªáĭĭ
ĠáĬłáĪĪáĭī
áĬ£áī¥áĪĦáĪŃ
ĠáīĥáĬĵ
ĠáĭľáĭµáĪįáĭ¨áĬĵ
ĠáĬ¥áīµáĭ°áĪįáĭ©
Ġáĭ²áĪŀáĬŃáĪ«áĪµáĭ«áĭĬ
ĠáĬķáĬ½áĪįáī²
ĠáīĲáĪįáĮ¢
ĠáĪ²áĬĸ
Ġáĭĵáī¥áĭŃáĬķ
áįįáĪįáĮ¥
ĠáĬ£áĪµáī°áĭĭ
Ġáī°áĮ¸áĪļ
ĠáĭĪáĪĪáĭ¶áī³áīµ
áīłáĮ½áĪĵ
ĠáĪĺáĪĽáĪ¨
Ġáĭ°áĪ´áī³áīµ
áĬ¥áĭĭáĬĳ
âĿ¤
ĠáĬ£áĮ»
áĪįáĭŃ
áĪµáī¦
áĬĵáĪĽ
ĠáĭĿáĪ«
ĠáĭĿáĭĽ
ĠáĭĿáĬŃáĬ¥áĪį
Ġáī¥áĭ°áĪĿ
ĠáĬŃáĭĵáī¢
áĬ£áī£
ĠáĬ¨áī¥áĪį
áĪĺáīµáĬķ
áĮĪáĬķáĭĺáī¥
ĠáĪĿáĪµáĪķ
ĠáĪĺáĬķáĭ©
ĠáĬŃáĬķáĮ½áĪĬ
áĬłáī±
ĠáĪ½áĬ®
ĠáĭĿáīłáĮ½áĪĳ
áĭ³áĬ¥áī²
ĠáĪµáĪĿáĬ¦áĬķ
ĠáĬ£áĪŃáĬª
Ġáī£áĪħáī³
ĠáĬ¬áĭµáĬ«
ĠáĮĲáĭŃáī³áĬ¡
áĪĢáĬķ
ĠáĪ°áĭĵáīµáĬķ
ĠáĪĿáĮ½áĪ«áĭŃ
ĠáĪĵáĪĪáĭįáī²
Ġáī°áĮ»áĭĬ
ĠáĭŃáĮįáīłáĬ£áĬĵ
ĠáĮĪáĭ²áįİáĪĿ
áĪŃáĬ£áĭ¨
ĠáĭĿáĭĿáĬ¨áĪŃ
ĠáĪĽáĪĪáī±
ĠáĭĭáĬķáĬĲáīµ
ĠáĭĿáī°áĪĺáĪµáĪ¨áī°
Ġáĭ°áī¡áī£áĭĬ
Ġáĭĵáĭ«áĪ¹
Ġk
ĠáĬ£áĬ¥áī²
ĠáĬ¥áĮįáĪŃ
ĠáĬ¥áĪĽáĬķ
áĪŃáī±
áĬ¥áĭŀáĪĿ
áĪĭáĪĿáĬķ
áĭķáĪİ
ĠáĭŃáĪŃáĬ¢
áĪ°áī£
Ġáĭ¨áĪ¨áĭµáĬ¥
Ġáī¤áīµáĬķ
áĪħáĪįáĭĭ
ĠáĪĺáĮįáī¥áĬķ
ĠáĪĿáĪįáĬ¥áī²
Ġáī¥áĭµáĪĿáĪŃ
ĠáĭĿáĬĲáīłáĪ©áĬķ
Ġáī¥áĭĺáĪĺáĬķ
ĠáĬŃáĪħáĪįáĭį
ĠáĬ£áĪŃáĬ¥áĭ©
Ġáī°áĪĪáĭĬ
ĠáĪĽáĬ¥áĬ¸áĪĭáĭŃ
Ġáī¥áĮ¹áĬ¥
Ġáīħáĭ³áĪķ
áįįáĮ½áĪŀ
áĭ°áĪįáĭ¨áĬķáĬķ
ĠáĭįáĪ½áĮ¥áĬ»
ĠáĭĿáī¥áĪĭáĭķ
Ġáī¥áĬ¹
áĬ£áīłáĭŃ
áĮįáĪŃáĬķ
Ġáī°áįĢ
ĠáĪ°áĪĺáĪ¨
ĠáĪµáĭ©áĪĿ
áĪħáĪ«áĬķ
Ġáĭ¨áĪŃáĬ¢
áĪ²áĭ«
ĠáĬŃáĬķáĪ«áĬ¸áī¥
ĠáīĢáĮ½áĪª
ĠáĬ¤áĬķ
ĠáĬ¥áī°áĪĺ
Ġáī¤áīµáīµáĪĿáĪħáĪŃáī²
ĠáĪĿáĭµáĪŃ
Ġáī°áĪĺáĭĽ
ĠáĪĿáĬ¥áĬ«áī¥
ĠáīµáĪĿáĪħáĪŃáī¶áĪĿ
ĠáīĨáĪŃ
ĠáĪĿáĭįáĪ³áĬķ
Ġáī°áĪ¨áįĪ
ĠáĪĬáĮį
Ġáī¥áīĲáĪ¨áī£
ĠáĪ°áĪļáĭķáĬ©áĪĿ
ĠáĬķáĮ¥áĭķáĬĵ
ĠáĭĪáĭµáĬ»
áĪĺáĮ½áĪĵáįį
ĠáĪ¨áĬºáīłáĭ®
Ġáī°áĪ°áĪªáĪĳ
ĠáĭĭáĪķáĭļ
ĠáĪ°áĪĽáĬ¥áī³áīµáĬĵ
ĠáīĢáĮ¥áī³áĭĬ
ĠáĪµáĬŃáįįáī³
ĠáĬ£áĪĽáĬķ
áĪŃáĪ³
áĪĭáĮį
áĪ«áī¡
áĭįáĬ¡
áĪ°áĪĪáīµ
áĭĵáĭĺ
áĬ¨áĬķ
áĭ®áĪŃáĬŃ
áĮłáĪĭ
ĠáĭĿáī°áĪ«áĬ¥áĭ¨
ĠáĪįáĪĽáĬĸ
ĠáĬłáī£
ĠáĬ½áĮ¸áĭµáīķ
ĠáĬ¨áĭŃáĬ®áĬĲ
ĠáĪĪáĬ»áĭĬ
ĠáĭĭáĬĴáĬķ
ĠáĪµáĪĿáĪĿ
ĠáĪµáĪŃáĪĸáĪĿ
Ġ53
Ġ195
áĭĺáĬķáī±
ĠáĪĺáĪĬáĪµáĬ«
ĠáĬ£áīłáĭį
ĠáĮ£áī¥áĭ«
Ġáī»áĭŃáĬĵáĬķ
ĠáĬŃáĪĺáĮ¹
ĠáĭĪáĭ«áĬĶ
age
ĠáĬ¥áī¥áĪ«áĭŃáĪµáĮ¢
ĠáĭķáĪĭáĪĽáĬķ
ĠáĪĿáĬķáī£áĪ®áĪĿ
Ġáĭ°áĮĭáįĬ
ĠáĬĲáĬĲáĭĮ
ĠáĮº
áĪĪáįī
ĠáĬķáīĥáĪĪáĪµ
áĬĲáīĲ
áĬ¥áĭ©
ĠáĪĺáĬ»
áĪ¨áĭŃáī²
ĠáĪµáįį
ĠáĪµáĭĵ
ĠáĭµáĪĿáĪŃ
ĠáĮįáĭķáĭĿ
áĪĬáĪİáĪĿ
ĠáĭĪáĬł
áĬ¸áĬĵ
áī¡áĪī
Ġáįįáī±
ĠáĪįáĭĿáī¥
ĠáĭĺáĪĪáĬ£áĪĪáĪĽáĭĬ
ĠáĭĿáīłáĪĥ
ĠáĪĪáī¢
ĠáĪĿáĭµáī¥
ĠáĬ¨áĪĿáĭĿáĪĵ
ĠáĭķáĭµáĪĺáĭŃ
ĠáĬķáĪ°áĪĽ
ĠáĬ£áīłáĭŃáĬķ
ĠáĪĿáīħáĭŃ
ĠáĬķáĪħáĭĿáī¥áĬĵ
ĠáĬ¥áĬ©áī¥
áĬĲáįįáĪ²
ĠáĪĺáīłáīĨáĪį
ĠáĪĿáĬķáīħáĮ¥áīĥáĮ¥
;;
áĪĿáĭİáĪĿ
ĠáĭĿáī¥áĪĪáĬĵ
Ġáī¥áī»
áĮįáĪ«áĭŃ
ĠáĪµáĭĭ
áĮ½áĪ¨
ĠáĭĿáī°áĭ³
ĠáĭķáĮī
ĠáĬŃáĬķáĪŃáĭµáĬ¦
ĠáĬ¥áī°áĮ¸
ĠáĬ¥áĬĵáĪĺáĪ°
ĠáĪĺáĪµáīĢ
áī¤áī°áĭŃ
áĮįáī£áĪ¨
áĪĦáĪĿ
áĭµáĬķáĮį
Ġ."
áĪ°áĪĿáĭĵáĬĴ
ĠáĪĺáĭ°áīĢáĪ²
Ġáī°áĮĪáĪ¨áĪĻ
Ġáī¥áĬ¸áĪĺáĭŃáĬķ
ĠáĭĢáĭŃáĬĵ
áĭĺáĬķáīµ
áĪµáĪĿáĭĳ
Ġáīķáĭµ
ĠáĬ¹áĬķ
ĠáĭŃáĪĿáĪĪáĪµ
Ġáī°áĪ³áĭĴ
ĠáĭķáĪĪáī±
ĠáĬķáĬĲáįįáĪ°áĭŃ
Ġáī°áĪ«áĬ¥áĭ®áĪĿ
áĪĺáĪĭáĪĪáĪ±
ĠáĪĵáĪ²áīł
Ġáĭ¨áĪķáĭĭáīµ
Ġáī°áĭĪáĪ²áĬĳ
Ġáĭ°áĮĭáĮĬáĪĺ
ĠáĬŃáĪĪáĭĵáĪį
ĠáĪĵáīłáĪ¨áī³
áĭĪáĬķáĮĮáĪį
áī°áĭĭáĭŃ
áįįáī±
áĮįáī¥áĪª
áĬ«áĭķ
áĪ³áĬĶ
ĠáĭĪáĬĵáĬĴ
áīķáĭĳ
áī¡áĭİ
ĠáĪħáī¡áī¥
ĠáĬŃáīµáĪ°áĪĿáĭķ
ĠáĭķáĪĿáī£
ĠáĪĺáĪ°áĬĵ
áĪ»áĪį
áĭĢáĬķ
ĠáĬ£áī£áĮĬ
Ġáī¦áī³áĬ¡
Ġáī°áĪ«áĬ¸
ĠáĬ£áĪĿáĪĭáĬ¸
ĠáīµáĭķáĭĿ
ĠáĬķáĪįáī¢
ĠáĪĺáĭĭáĬ¥áĪĪ
ĠáĬŃáī¥áĪŃáī³áīµ
ĠáĪļáĪĬáĭ¨áĬķ
ĠáĭĪáī¥áĪ³áĭŃáīµ
Ġáī¥áĪĺáĮĢáĪĺáĪŃáī³
44
oc
áĬķáĮ£
áīµáĬĵáĬķ
ĠáĬ¥áĪĻáĬķáĬķ
ĠáĬķáĪ«áĬ¸áī¥
ĠáĬŃáĪķáĮįáĭĿ
ĠáĬ¨áĪ¨
ĠáĬĲáĬĵáĭŃ
áĭĿáĪķ
ĠáĬ¥áĬķáĭ°áĪĬ
áĬŃáĪķáī²
ĠáĬ¸áī¢áĭµ
ĠáĬ£áĪĪáĬº
ĠáĬŃáĬķáĮ¥áīĢáĪĺáĪī
áīĤáĭĳ
áĪĺáĪµáĪī
áĪľáīµáĬķ
ĠáĪĿáĬķáĮ»
áī¤áĬķ
ĠáĭĿáĪĺáįĢ
ĠáĪĽáĪķáī°áĪĿ
ĠáĮĵáĪī
áī°áĪĵáĪ³áĪµáī£
Ġáī°áĬ£áĬ¨áī¡
ĠáĮ¾áĪĺ
ĠáĭĿáĭįáĪµ
ĠáĪĿáĭķáĪ«áī£áĭĬ
ĠáĪĿáĭķáĪ«áī£áĭįáĭ«áĬķ
ĠáĪĿáĭĥáĬķáĬ©áĪĿ
ĠáĪĺáĪĵáĭĽ
áĪķáĮįáĭĺáĬĴ
ĠáĪĦáĭĭáĬķáĬķ
ĠáĭµáĪįáĭµáĪį
ĠCom
ĠáĪĵáĮºáĬķ
áīĥáĭĪáĪĿ
ĠáĬķáĪĿáĬ¥áī³áĭį
Ġáī¥áĪĿáīķáĮ»áĪį
ĠáĮİáĭ°áĬĵáī³áīµ
ĠáĪĺáįĤáĬ¡
ĠáĭĺáĪĪáĭĵáĪĪáĪĽáĭĬ
ĠáĪ°áĪĮáĭ³
ĠáĬķáīłáĪŃ
Ġáī¥áĬŃáĪįáī°
ĠáĪĺáī°áĪĵ
ĠáĬŃáĪķáĮįáĭĻ
áĪ¨áĭ²
áĪķáĬĲáīµ
áįįáĪĴ
ĠáĭŃáĮŃ
ĠáĭŃáĮ¸áĪį
ĠáĬ¨áĪĿáĬķ
ĠáĬ£áĭŃáĬŃáĬķ
áĬ¸áĬĴ
áĪ²áĪµ
ĠáĪħáī¦
áĬ©áĪĿáĬĴ
ĠáĭĺáĭŃáĪĺ
áĮºáĪĳ
ĠáĬ£áĭŃáĬ®áĬĲ
ĠáĬ¥áīµáĭ°áĪįáĭ®
ĠáĬ£áĭŃáīµáĭ°áĪįáĭ¨áĬķáĬķ
ĠáĬºáī¥áĪĥáĪį
ĠáĭĿáĪĺáĪ¨
ĠáĬ£áĭŃáī°áĬ£
ĠáĪµáĪĪáĭĿáĬ¾áĬĳ
ĠáĭĿáĬ£áĪĿáĬĳ
ĠáĬ¨áĪĿáĭĺáĪĪáĬĵ
ĠáĬŃáĪħáī¦áĪĿ
áĭķáĬķáīħ
Ġáī¥áĭĺáĪĪáĭİ
Ġáīķáĭ±áĪ³áīµ
ĠáĮīáī£áĬ¤áī³áīµ
ĠáĬ£áĬ¥áĪĿáĪ®áĭŃ
ĠáĪ°áīłáĭŃáī°áĭŃ
ĠáĪ°áĪĿáĭĶ
Ġáī¥áĪĿáĪŃáĬ£áĭŃ
Ġáī°áĪĺáĭĿáĮĬáī¡
áī¥áī¦
áĪĭáĪ°
Ġáī°áī¥
áĭ³áĬ£
áĪĬáĪ±
ĠáĪĽáĪŃáĭ«áĪĿáĬķ
ĠáĬ¥áĬķáī°áĬķ
ĠáĬ¸áī¶
Ġáį©
ĠáĬŃáĬķáĪ°áĪĿáĭķ
Ġáī£áĭĵáĪį
ĠáĪŃáĬ¡áĭŃ
ĠáĬ¨áĭŃáĮ¸áĬķáĪĲ
ĠáĮĮáī³
Ġáī³áĪªáĬ½áĬķ
Ġáī°áĮĭáĭµáĪİ
ĠáĭĺáĪĺáĭµ
ĠáĭĿáĮįáīłáĪ¨áĪī
ĠáĪĿáĭķáī£áĪĪáĬķ
ĠáĬŃáī¥áĭ°áīµ
ĠáįĪáī°áĬĵáī³áīµ
Ġáī¥áĪ½áĪĿ
ĠáĭĵáĭĪáī³áīµ
ĠáĭĿáĭķáĭµáĪļáĬ¦áĪĿ
Ġáī¥áĬ½áī¥áĪ¨áīµáĬ©áĪĿ
ĠáĬ®áĪĿáįķáĭ©áī°áĪŃ
Ġáī¥áĪ«áĭļáĪį
áī®
áī¥áĮ¥
Ġáī°áĪ¨áĬ½áīł
ĠáĭŃáĭĺ
áĭĵáī°áĭŃ
ĠáĬ£áĭŃáĮįáī¥
Ġáĭ°áĪį
ĠáĬ¥áĬķáī°áīłáĪįáĬĵ
ĠáĪĺáĬķáĭ°
ĠáĮįáĬķáĬ¨
áĪ»áīµ
áĪĥáĪįáī²
áīĴáĪī
ĠáĪĿáįįáī³áĪķ
ĠáĬĲáī¥áĪ¶áĪĿ
Ġáī°áĪĺáĪĬáĪµáĬ«
ĠáĭĺáĭŃáĬķáĬ½áĬ¥áĪį
ĠáĮįáĪŃáĪĽáĭŃ
ĠáĮ¸áĪİáīµáĬĵ
áįįáĪĪáĮ¥áĬķ
Ġáī¥áīĵáĪī
Ġáī°áĪįáĬ¥áĬ®
ĠáĬŃáĪŃáĪµáī¶áĪµáĬķ
ut
áĪĿáĮ½
Ġáī¥áĬ»
áĮįáĪŀ
áĪĵáĪĿ
ĠáĭŃáīĲáĪŃáī¥
ĠáĬ£áĭŃáĮĪáī¥áĪŃáĬķ
áĭ¨áĭ°
áĮłáĬĲ
ĠáĬ¥áĬĵáīłáĪĪáīµ
áĪ´áįįáĬķ
Ġáī¤áī°áĭŃáĬķ
áĪħáĪįáĭį
Ġáĭįáĭµáī£áīµáĬķ
áĭ´áĪµ
áĪĵáĪµáī¥áĬķ
ĠáĭĿáĭįáĪ°áĭµ
áĪ¹áĬ½
Ġáī°áĮ»áĪ¨
ĠáĭĿáĮĪáīłáĪŃáĬŃáĭİ
ĠáĬķáĬĲáįįáĪµ
ĠáĪ°áįĬáĪ©
Ġáĭ¨áĭµáĪįáĭ¨áĬĴ
ĠáĬ£áĭįáĪµáīµáĪ«áĪĬáĭ«
ĠáĬ£áĪĬ
ĠáĬ£áĭ¶
ĠáĬķáįĪáī±
áī³áĬ¥
ĠáĬŃáĭ°
áĪ°áĪ±
ĠáĬ¢áĭļ
áĭ³áĪ«
Ġáį³áį
ĠáĭļáīĿáĮ¸áĪ©
ĠáĮ¸áĮķ
ĠáĮ¸áĪĪáĭ¨
ĠáĬ¤áĭ°áĬķ
áĪĭáīµáĬ«
ĠáĬ¨áĪĿáĭĿáĬĲáīłáĪ©
ĠáĭĭáĭĽ
áĭĽáĪ¨áī¢
ĠáĬ£áī¦áĭŃáĬķ
ĠáĬķáĪĵáĭ«áĪİ
ĠáĬ£áĪµáī´áĪŃ
áĪħáĪįáĭĪáĬ©áĪĿ
ĠáįĵáĪŃáĬŃ
áĮłáįįáĬ¥áĬķ
áĬķáīµáĬĸ
ĠáĮįáĪŃáĮŃáīµ
ĠáĬ«áĪŃáĭ²
ĠáĬ£áĬ¨áī£áī¢
ĠáĪĺáĪįáĬ¥áĬ½áī±
ĠáĬ£áĭŃáīłáĪĪáĬķ
ĠáĬķáįīáĭĵáīµ
áī¥áĬ«áĭ®
ĠáĬ£áĮ»áī¥
áĬ¥áĬ»
áī£áī³áīµ
áĪĵáĭµáĪŃ
ĠáĭŃáĭķáĭµ
áĭļáĬ¡
ĠáĬ¢áĪľ
áįĪáĪ½
áīķáĭİ
áĭĻáĭĿ
áĬºáĪ©
ĠáĪĿáĭµáĪ¨áīł
ĠáĬ£áĭ¨áĬķáīłáī¥
ĠáĬ£áĪķáĭ²
ĠáĬķáĭ°áīħ
ĠáĭĿáĪĿáĪħ
ĠáĪĺáĪĪáĬ®áī³áĭĬ
ĠáĭĺáĭŃáĪĿáĬ¥
ĠáĬ£áī°áĪĵáĪ³áĪµ
ĠáĭįáĮ½áĬ¢áī³áĭĬ
ĠáĭĺáĪŃáĮĬ
ĠáĬŃáĮįáīłáĪ¨
ĠáĭĿáĪĥáī¥áĭİ
ĠáĭµáĬħáĬĲáīµ
Ġáī¥áĭĭáĮĭ
ĠáĪ°áĪĻáĬĵáĭĬ
ĠáĬ½áĮ¸áĭµáīķáĭ¶
áī¾
áĭŃáĪķ
ĠáĬ£áĬĵáī¥
áī°áĪįáĭİ
áĬĵáĭįáĬķ
ĠáĬķáīĥáĪį
ĠáĬķáĭ«áĬ¥áīĨáī¥
áį¡'
ĠáĬ¨áĬ«áĭŃáĭµ
áĭķáī¥áĪį
ĠáĭĺáĬ½áĬ¥
ĠáĭŃáĪħáĪįáĭİ
áĪĥáĪŃáĬķ
áĪļáĭ«
ĠáĭĺáĭŃáĬ¥
ĠáĬ®áĪİ
ĠáĬķáĪµáĪĿáĬ«
áĮħáĪĿáĪ®
ĠáĪĿáĬķáīķ
ĠáĬ£áĪĺáĬĳ
ĠáĪĺáĪŃáīł
ĠáĬ¨áĪĿáĭĺáĪĪ
ĠáĬ¬áįį
ĠáĭĭáĪĭáĪµ
Ġáī°áĭĵáĭ²
ĠáĭĿáĭįáĭ³áĬ¥
Ġáī´áĪĮáįİáĬķ
ers
ĠáĬ£áĪŃáĬ¥áĪµáīµ
ĠáĪĵáĭįáĬ»
ĠáĪ©áīµ
áĭįáĭķáĪī
ĠáĮħáĮįáĬķáĬĲáīµ
Ġáĭ°áĭŃáī¡
Ġáĭ°áĭŃáĬ°
ĠáĬĲáīĲáįĮ
áĭŃáī¡
ĠáĬķáī¥áĪİ
ĠáĬŃáĮłáįįáĬ¥
ĠáĬ£áī¥áĭĻáĭŃ
Ġáī°áĮĮ
áĬŃáĪª
Ġáīµáī¥áĪĥáĪį
áĪħáĭµ
áĪħáĭİ
ĠáĪĺáĬķáĬ¨
ĠáĮ¥áĪ®áī³
ĠáĪŃáĬ¸
áĬĸáĬŃ
áĬ¤áĪŃáīµáĪ«
ĠáĮīáĬķ
ĠáĬ¥áīµáĭį
áĭŀáĬķ
ĠáĬºáĭį
ĠáĬ£áįįáĬ«
áĪ°áĪĿáĭķáĬķ
Ġáī°áĪµáįĭáī³áīµ
ĠáĮĵáĭŃáĪĭ
ĠáĪĺáĬķáĮİáĭŃáĬķ
ĠáĬ¨áĬĲáĬ£áĬķ
áī¥áĪ«áĪĤ
Ġ2001
ĠáĬķáĭįáĮįáĬ¥
áĪ©áĪ³áĪĮáĪĿáĬķ
áĭķáĪŃáįį
áĭĪáĪŃáĭ±
ĠáĬķáĮīáĪĨ
ĠáĬ®áĪļáī°
ĠáĭĿáĪ¨áĬ£áĭ©
ĠáĬ¨áī¥áīħáĭķ
ĠáĬ£áĮ¸áī¢áīķáĬ«
ĠáĮ¸áĪĭáĬ¥áī±
ĠáĬ£áĭŃáįįáīĢáĭ°
ĠáĭĪáī³áĭ°
ĠáĮ»áĭķáĪŃáī³áīµ
Ġáī¥áĪĿáī¥áĮĭáĪµ
45
Ġe
ĠáĪĭáĬķ
ĠáĬķáĬª
ĠáĬķáĮįáĭ°
ĠáĪĺáĬŃ
ĠáĪĿáĪĿáĪŃ
ĠáĭĺáĪ¨áī¥
ĠáĪ°áĪĭáĪĽ
áĭĪáĭµ
ĠáīłáīĴ
áĬĴáīĳ
áĮ»áĭį
áĮ»áĪ¨áĪŃ
áįĭáĬĸáĪµ
ĠáĬ¥áī°áĭĪáĪį
Ġáī¤áīµáĬ«áĬķ
Ġáĭ³áĬĴ
áĪĪáĭŃáĭİ
ĠáĬºáĮĪáī¥áĪ©
áĮĥáīµ
ĠáĬķáĬ¥áī°
ĠáĪ¸áįĭáī±
Ġáĭ®áĭįáĪĥáĬķáĪµ
áĪĽáĬķáĪĿ
áįĤáĪ©
ĠáĭĿáĪ°áĪ«áĪķ
ĠáĪ°áĪļáĭĶ
ĠáįħáĬķ
ĠáĪĺáĪªáĮ¹
ĠáĬ£áīķáĪªáī¦áĪĿ
áĪ°áĭµáĭµ
ĠáīłáĮºáĪĵ
ĠáĭµáĪįáĭĭáīµ
ĠáĬŃáĬķáĭµáī²
ĠáĭĪáī°áĪĥáĭ°áĪŃ
áĮ¸áĪįáī³
ĠáĪĺáĭµáĪĥáĬĴ
Ġáī°áĪĺáĪŃáĭķ
ĠáĪĵáĭ³áĪ½
ĠáįĪáĪ«áĭ²
Ġáī°áĭĵáĭĺáī¥áī²
ĠáĮįáĪīáĮ½
fe
Ġ&
áī°áĬ©áĪĿ
ĠáĭĿáĭ³
ĠáĬķáĮ»
ĠáĬ¨áĪ²
ĠáĪĵáĭĿ
ĠáĬ¥áĭļáĭįáĬķ
áī¦áī³
ĠáĬ¥áĬķáī°áīłáĪĪ
ĠáĬ¥áĬķáī°áĭĦ
ĠáĮ¥áĪŃáĬĵ
ĠáĬŃáīµáī¥áĪİ
ĠáĬ®áĭµ
ĠáĬŃáĪįáī°áĬķ
áĪ¨áĬ½áī¥
ĠáĮĲáĬķáĬº
Ġáī¥áĬ£áī¦
ĠáįĬáĪįáĪļ
áĪ½áĬķáĮį
áĪĵáĭµáĮį
ĠáĪĵáĭĬáĪ±
ĠáĮīáĭµáĮĵáĭµ
ĠáĮįáĭ°áįį
ĠáĬŃáī¥áĪŃáī²
ĠáĪµáĪįáĮ£áĬķáĬķ
ĠáĭĿáĪ°áĪĽáĭķáĬ©áĪĿáĭİ
ĠáĪĺáĮ¥áī£áĪķáī²
ĠáĭŃáĪµáĪĥáīħáĬķ
ĠáīģáĮ½áĮ½áĪŃ
ĠáĬķáĭµáĪķáĬĲáīµ
Ġáĭ²áĬŃáī³áī¶
ĠáĬ¥áĪĺáīµ
áī°áĪŃáĬķ
áīłáīł
áīłáī±
ĠáĬŃáįĪáĪįáĮ¦
áĪ°áĪįáĬ©áĪĿ
áĮ½áĪ®áĪĿ
ĠáĬ£áĭŃáĬ¹áĬķ
ĠáĭĪáĮ½
ĠáĪķáīµ
ĠáĮĪáī£
Ġáī£áĮĢáīµ
ĠáĪ½áĪķáĬķ
áĪŃáĪµáĬķ
áĪĤáĪī
áĮĵáĪļ
Ġáī°áĪ°áĭ²
ĠáĬ¨áĪĪáĬ¹áĪĿ
Ġáī°áĭĭáĮĭ
ĠáĪĿáĭĿáĪŃáĪ«áī¥
ĠáĬ£áī°áĬ£
Ġáī¥áĪ°áĬķáīłáīµ
ĠáĬ£áĭĺáĭįáī²
ĠáĪ°áīłáĭŃáī±áĬķ
ĠáĪĤáĭĪáīµáĬĵ
áĪĺáĪµáĮįáĬĳ
ĠáĬĲáĬķáĪĵáĭµáĪķ
ĠáĭĺáĭŃáĬ®áĭŃáĬĳ
ĠáĪĺáī¥áĭĽáĪķáīµáĬĵ
ĠáĬŃáĭįáĬķáĬĲáīµ
ĠáĬ¥áĬĵáĭĪáĪ°áĬ¸
ĠáĪĿáīµáĬ¥áĬ½áĬ»áī¥
ĠáĪ¶áįįáīµáĭĮ
Ġáī¥áĪŃáĮįáįħ
ĠáīµáĭķáĭĿáī¥áī²
tt
ĠáĬķáĪŀ
ĠáĬŃáĪĿáĪŃ
áĬ£áī¦áĭŃ
ĠáĪĿáĭĵáĪįáī²
ĠáĪĿáĪ¨áĮ½
áĭķáī³áīµ
áĭ°áĬł
áĭ°áĪįáĬ«
Ġáī°áĮįáĪ³
ĠáĪĵáĪ¸
ĠáĭŃáĪħáīłáĬĵ
áĭĵáī£áī¥
áĭ³áįį
Ġáĭ°áĪĽáĪµ
ĠáĮĪáīłáĪį
Ġáĭįáįī
ĠáĭļáįįáĪĪáĮ¥
ĠáĮ¸áĮĭáī³áīµ
ĠáĬªáĪķáĮįáĭĺáĬ«
ĠáĮ½áĭ©áįį
ĠáĭľáĪŃáĬ¢
ĠáĪĿáĬ½áĪŃáĬķ
ĠáĬķáĪķáĪ°áī¥
ĠáĪµáĪŃáĬĵáĭŃ
Ġáĭ²áĪ²
ĠáįįáĪįáĭŃáī²
ĠáĪĭáī£áĬķ
áĪķáĪįáĪĭáįį
Ġáī¢áĪ«
ĠáĭŃáĭĪáĪĥáī¥
ĠáĭµáĬķáīĤ
áĪ°áĪĿáĭĳáĬķ
ity
ĠáĭįáĪħáĭ°áīµ
ĠáīµáĬ½áĬŃáĪį
ĠáĬķáĪĿáĭķáĭĭáīµ
ĠáĬĲáī¦áĬ¡
Ġ>>
ĠáīłáĪĥáĪĭáĭŃ
ĠáĪįáĭķáĪĮáĬĵ
ĠáĬ¤áĪĮáĬŃáīµáĪªáĬŃ
áĪĪáĭ±
ĠáĭĿáĮŃ
ĠáĬ¨áĬ«
ĠáĬĲáĭĵ
ĠáĪĵáī³áī²
áĪĵáĭ®
ĠáĬ«áĪ³
ĠáĬ£áĭŃáĮ¸áĬķ
áīķáĮ½áĪį
áĮłáĪŃáĬķ
áĪĿáĪĭáĬ¸áĭŃ
ĠáĬķáĪĿáĪħáĬĵ
ĠáĬķáĪĿáĬŃáĭ«áĭµ
ĠáĬ¥áīµáĪĺáĮ½áĬ¥
ĠáĬĲáĭŃáĪ©áĬĵ
ĠáĪ³áĪķáĪį
ĠáĬķáĬ£áī¥áĪŃáĪĥáĪĿ
ĠáīµáĪĿáĪħáĪŃáī±
Ġ54
Ġáī³áĪªáĬ¹
áĪķáĮįáĭĽ
ĠáĪħáĮįáĭ°áįįáĬķ
ĠáĬ¢áĬķáĭ³
ĠáĪľáĪĭáī³áīµ
áĪĺáĪµáĮįáĬĲáĬ©áĪĿ
Ġáĭĺáĭ³áĮįáĪĿ
ĠáĮ¸áĭĪáī³áī³áīµ
Ġáī°áĬķáĪµáĬ¥
Ġáī°áĬķáĪµáĬ¡
ĠáĭĿáīłáĮ½áĪĲ
ĠáĬ£áīĭáĪª
ĠáĬ£áĭŃáĪ¨áĬ¸áī¥áĬ©áĬķ
ĠáĭŃáĬ«áĬ£áĪį
ĠáĪķáĮħáĪµ
Ġáī°áĪĵáī³áīµáĬĲáīµ
ĠáĪĿáĭµáĪ¨áīłáĭ³
áĬŀ
áĪŃáī³
ĠáĭĿáīµáĬķ
ĠáĭĿáĪħáĪįáĭİ
ĠáĬ¨áįįáĪŃ
áĪĽáĬ¢áīµ
áĮįáĪµáīµ
áĮ½áī£áĪķ
ĠáĪķáįįáĪ¨áīµ
áĪ²áĪİáĪĿ
ĠáĭĿáī°áĪŃáįį
ĠáĪ°áī¥áĭĵ
Ġáĭķáīĳ
ĠáĭĺáĪİáĭİáĪĿ
áįĪáĪįáī²
áīĨáĪŃ
ĠáĬ£áĭŃáī°áĪ«áĬ¥
ĠáĭĿáĭĪáĪŃáĭµ
áĪµáĬĵáĭ®
ĠáĬĲáī¥áĪµ
ĠáĭĪáĪ²áĭµáĬ«
áĬĥáĬķ
ĠáĭĿáĪĥáī¦áĪĿ
ĠáĬŃáĬ¸áįįáĪį
ĠáĮ¥áīłáīłáĬĽáī³áīµ
ĠáĬķáĬĲáī¥áĪ°áĭŃ
ĠáĭķáĭµáĪľáĬ»
áĪįáĭĵáĪį
áī³áĬĴ
Ġáī¥áĭ°áĮĪ
áĬ£áī¶
áĭįáĪĭ
ĠáĭĺáĪ°áĬķ
ĠáĪĵáīĴ
ĠáĪĵáī¥áī²
áįĪáĮłáĪ¨
ĠáĬ£áĭŃáĬ½áĬ¥áĪīáĬķ
áĪĥáī£
áĬ¤áįį
áīĵáĪµ
Ġáī¥áĪĿáĮ¥áīĥáĪĿ
ĠáĬ©áĪīáĬ¹áĪĿ
ĠáĭľáĪķáĭĿáĬķ
ĠáĭĿáĪĵáĭ°
áīĨáĪĿáĬķ
áĮĲáĭĵáĭĿ
Ġ52
ĠáĭĿáĬ£áĭĺáĭŀ
ĠáįķáĪ¨áĪµ
áįĪáĪŃáĪķ
Ġáī¥áĪĺáĮłáĬĳ
ĠáĭķáĭµáĪĪáĬĽ
ĠáĭĪáĪĪáĭ¶áĪĿ
áĭµáĪįáĭ¨áĬĴ
ĠáĮŃáīĨ
ĠáĭĪáĪ²áĭ°
áĪĢáĪį
ĠáīĪáĪ¨áĬķáī¶áĪµ
Ġáĭĺáī°áĬ®áĪ¨
ĠáĪµáĬ¥áĪĪ
ĠáĪµáĬ¥áĬĲáīµ
Ġáīªáĭ²áĭ®
ĠáįĪáĪĬáĮ¦áĪĿ
áĭįáĮ½áĬ£áĬ©áĪĿ
ĠáĪĿáĪµáĮ¢áĪ«áĭĬ
ĠáĪĿáĪµáĮĭáĬĵáĬķ
ĠáĬķáĬ¥áĪ½áī¶áĭŃ
Ġáī°áĭĭáĪĤáī¥áĭİ
áĪ°áĪĿáĭĸáĬķ
áĬĿáĬĲáīµ
Ġáī°áīĢáī¢
ĠáĪĺáĪ«áĬ¸áī¢áī³áīµ
ĠáĪĿáĬŃáĬķáĭ«áīµ
ĠáĪĤáĭĪáī°áĭŃ
áĬĲáīłáĪŃáĬ©
ĠáĬ£áįįáĮĭáĬĴáĪµáī³áĬķ
ÙĦ
ĠáĬ£áĪĭáīµáĬĴ
ĠáĭĿáĪ¨áĬŃáī¥
ĠáĭĿáĮ¨
ĠáĬķáĮł
ĠáĬķáĮįáī¥
Ġáī¥áī´
ĠáĬŃáĪķáĭĿ
áĮĪáĭ°áĭ°
Ġáī°áĪ¨áī£
áĬ«áĭįáĬķ
ĠáĭŃáĪĿáĪį
ĠáĪµáĪĭáĪ´
ĠáīµáĪª
áĮĭáĮĭ
ĠáĮĪáī¢
ĠáĮĪáĮ¸
áī¡áĬ«
ĠáĬŃáīµáįĪáĪįáĮ¦
Ġáī£áĪķáī²
ĠáĪĺáĭĵáĪįáī±
ĠáĪ¨áīĤáīķ
Ġáī¥áĪĵáĪ³áī¥
áįħáĪī
ĠáįķáĪª
áįĸáĪĬ
ĠáĪ»áĭµ
áī¸áĭį
ĠáĭĿáĮ¸áĬķáĪķ
ĠáĭįáĪįáīĢáĪ°áī£áīµ
Ġáĭ¨áĭµáĪįáĭ¨áĬ©áĪĿ
Ġáī¶áĪĽáĪµ
Ġáįİáī¶
áĪĺáĮłáĭŃáīķ
ĠáĬ£áĭ´áĬ»áĬķ
ĠáĭĪáĪĭáĭ²áīµ
ĠáĬ£áĪĽáĪ«áĮºáī³áīµ
ĠáĪĺáĪ²áĪīáĬĴ
ĠáĪŃáĬ¥áĭ¨áĭ®
ĠáįķáĪ¬áĭļ
iden
ĠáĪĬáīĥáĬĲ
ĠáĬ¥áĬķáī°áĭ°áĪĬáĬ»
Ġáī°áĭĪáĬ¨áĪ±
ĠáĪµáĮ³áĬĽ
áĪĿáĭ«
ĠáĬ£áĭī
ĠáĬ¥áĪ³áīµ
ĠáĬ¥áĬ£áĪĿáĬķ
áĪĪáĪĻ
ĠáĬķáīģ
ĠáĬ¨áīłáĪ³
áĪķáĭį
ĠáĭŃáĪĵáĪįáįį
áįĪáĮł
áĭ³áĮĭ
ĠáīłáĮ¥
Ġáĭ°áĭĪáĪį
áī¡áĬ£áīµ
áĪŀáī°áĬķ
ĠáĭĿáī°áĪ¸
áīĲáĬĵ
ĠáĪįáĪĽ
ĠáīĢáĪĬ
áĭľáĬĵ
ĠáĬ¥áĪĿáīł
áĪµáī°áĪĽ
ĠáĭľáĮĪáĪŃáĪĿ
áĪŃáĬ«áĬķ
ĠáĪĵáĭµáĬĲáīµáĬķ
Ġáĭįáĭµáī£áĭĬ
ĠáĬ£áī¢áĪįáĬ©áĪĿ
ĠáĬ«áī¥áĭļáĬ£áī¶áĪĿ
ĠáĭĪáĬ¨áįįáĬ©áĪĿ
Ġáĭĺáī°áĪµáįĪ
Ġáī´áĪĪ
ĠáĬ£áī°áĪĵáĪ³áĪ²
áĪĿáĪĪáĪ±áĬķ
ĠáĭĪáĪ°áĭ°
ĠáĪµáĭīáĬ¥
ĠáĮ³áĮ³áĪµ
ĠáĬ£áĬ¥áĮĭáĪ©
ĠáĪĽáĭķáĬ¨áĬķ
ĠáĪ³áĭŃáĬķáĪµ
be
áĪĿáĬĸ
ĠáĪĺáĮłáĭŃ
ĠáĬŃáĮĪ
áĪĺáĭĲ
áĪķáī°áīµ
áĭįáĪĲ
ĠáĬĲáĮ¸
Ġáī°áĭĿ
Ġáī°áĭĲ
ĠáĭŃáĮłáīķ
ĠáĬ¢áĪį
áįĪáĪĭáĪį
ĠáĭµáĪĭáĭ©
ĠáĬŃáīµáĪŃáĬ¥áĭ©
áĪĺáĪµáĪİ
ĠáĪµáĪ«áĪķáĬĵ
ĠáĬŃáįįáĬ£áīµ
ĠáĬ£áĪĺáĪĪ
áī¥áĪĪáĪį
ĠáĭĿáĬ¸áīłáĭ°
ĠáĬłáĭŃáĬŃ
ĠáĬ£áĪ°áĪ«áĪŃ
áįĴáĬŃ
ĠáĬŃáĬ¢áĪİáĪĿ
ĠáĪķáī¥áĪ¨áī°áĪ°áī¥áĬĵ
Ġ1990
Ġáĭ¨áĪĽáĬĲáĭŃáī²
ĠáĮ½áĪĿáī¥áĪį
ĠáĪĿáīģáĮ½áĮ»áĪŃ
ĠáĬ£áĭĴáĬķáīµáĬ»
ĠáĬķáĮ´áĮ¥áĪ®áĪµ
ĠáĬ®áĬ¾áī¥
ĠáĪĺáĭµáĪĵáĬĴáīµ
-"
ĠáĪ£
ĠáĬķáĮĪáī¥áĪ®
áĪ«áī°áĭŃ
áĭĿáĮĪáī¡
áĭ¨áĭį
áĮĭáĬĵ
áĪĥáĪ«
Ġáĭ¨áī°
ĠáĭĺáĭŃáĪĿáĪµ
ĠáĭĿáī°áĮĢáĪĺáĪ¨
áĪĿáĪĭáĬ¥
ĠáīĢáĮ½áĪİ
ĠáĬ£áī£áĪĭáī±
ĠáĬĲáī¥áĪµáĬĵ
ĠáĬŃáĪħáīłáĬ©áĪĿ
Ġáĭ°áĮĪáįįáĬķ
áĪķáĪįáįī
ĠáĪ¨áĬºáī£
ĠáĬ¥áĭĿáĮĬ
ĠáīµáĪķáī°
ĠáĭĺáĪĿáĮ½áĬ¦
ĠáĭįáĪĭáĭµáĬ«
ĠáĪįáĭķáĪĪáĭŃ
ĠáĭĿáĪĿáĪįáĬ¨áī¶
ĠáĬ½áįįáĪĬ
ĠáĪŃáĪµáī±
Ġ]]>
áīµáĪŃáĭ«
áĪĪáīł
ĠáĪĿáĬµ
áĭµáĪī
ĠáĬ£áī¥áĭŀáĪĿ
ĠáĬ¢áĭ³
ĠáĬ¥áĬķáīµáĬķ
ĠáĬ¥áĬķáī¥áĪİ
ĠáĬ£áĭŃáĭµ
ĠáīłáĭŃáĬĸáĪĿ
Ġáĭ°áĪĺ
ĠáĭķáĪį
Ġáĭķáī¡
ĠáĬŃáĪįáĬ©áĪį
áĪŃáĬ¥áĭ¨áĬĴ
ĠáĮĢáī¥áĪĥ
ĠáĬ¦áī£
ĠáĪĿáĪĿáĭķáī£áĪį
ĠáĪĺáĬķáĮİáĬĵ
ĠáīķáĬķ
Ġáī°áīĵáĪĭ
ĠáĬķáīķáĪĵáīµ
ĠáĭĺáĪķáĪĪáįį
Ġáĭ°áī¥áĭ³áī¥
ĠáĪ°áīłáĪµáĪįáĮ£áĬķ
ĠáįįáĪ«áĬķáĬŃ
ĠáīĬáĮ½áĪª
Ġáī¥áĭĵáī¢áĬ¡
lin
Ġáĭĸ
áīłáįħ
ĠáĬ¥áĭª
ĠáĬķáīłáĪ©
áĪ«áĬĵ
áĭķáĭİáĪĿ
áĪ³áī³áīµ
áĮ½áĭ®áĬķ
áĪĥáĪĥáĪī
ĠáĬ¥áĬķáī°áĬ®áĭŃáĬĳ
ĠáĪĥáĬĴ
Ġáĭįáĭ²
áĪĻáīķ
ĠáĪįáĪĽáĭµ
ĠáĬ¥áī°áĬ¸
ĠáĬ¥áī°áĭ³áĪĪáĭĪ
ĠáĪ¸áĪŃáįĬ
ĠáĬ£áĬ¥áĪĽáĬķ
ĠáīĲáĪĬáĪį
ĠáĪĿáīµáī¥áī£áĭķ
áĪĢáĪŃ
ĠáĬ£áĪľáĪªáĬ«áĭĬ
ĠáĭĿáī°áĭĪáĪįáĭ°
ĠáīįáĮłáī£áĭĬ
Ġáī°áĪĺáĪĬáĪ³
ĠáįĮáĭ´
ĠáĪļáĬ¥áī³áĭĬ
Ġáĭ¨áĪĪáĭīáĬķ
ĠáĬķáĪĿáīķáĪ«áī¥
Ġáĭįáĭ³áīł
ĠáĬ»áī£áĬ»áīµáĬ©áĪĿ
ĠáĪĺáĪĵáĭĻáīµ
ĠáĬķáĬĵáĮ½áĬĲáīµ
ĠáĭĪáĮ»áĬ¥áī°áĬĽáī³áīµ
áī¥áĪŃáīµáĭķ
ĠáĪ¨áĭ²áĬ¤áīµ
Ġáī°áĮ½áĪĴáįī
áĪŃáĪĵ
áĬĵáĭĪ
ĠáĬķáĮŃ
ĠáĪĺáĪĺáĪįáĬ¨
ĠáĬŃáĪ³áī°áįį
ĠáĪĿáĭĵáĪį
Ġáĭĵáīłáĭ¨
áĭĭáĮ¥
Ġáį²áį
áīłáĪ¨áĬķ
ĠáĬĲáĭŃáĪŃáĬ«
ĠáĪĺáĭĵáĪįáīµ
ĠáĪ¨áĭļáĬķ
ĠáĭľáĪĺáĪįáĬŃáīµ
ĠáĭĭáĮĭáī³áīµ
Ġáī¥áĭĿáĭĢáĬĲ
áĪĮáī³áīµ
ĠáĬķáĪķáĬĵáĬķ
áĪĽáĭķáĬķ
ĠáĪĽáĪķáĪĭ
ĠáĪ°áĪĪáĪĽáĭĬ
ĠáĪĺáī¥áĮ½
ĠáīµáĪŃáįĬ
Ġáĭ°áĪŃáĮį
ĠáĭĿáī°áĬ£áĪ³áĪ°áĪŃ
ĠáĪĽáĪŃáī³
ĠáĭŃáįĪáĮ¥áĪŃ
ĠáįĪáĪĭáĪļ
ĠáĪĺáĮ»áĪĿáĭµáīµáĬ»
ĠáĬ¥áĬĵáĪĥáĪĪáĭĪ
ĠáĬŃáĬĲáĮįáĪ¨áĬ©áĪĿ
áĬ£áĭĿáĭ«áĬķ
ĠáĪĽáĪķáīłáĪ«áīµáĬķ
áĪµáĬ«áĪķáĬŃáĪķ
60
ĠáĬ¥áĪĺáĬĳ
áī°áī²
áĬ£áĬĵáĬķ
áįįáī³áĪķ
ĠáĬĲáĭ¨áĬĵáĭŃ
ĠáĭŃáĪħáī¡
áĭ«áī¶áĪĿ
áĪ³áĭŃáĬķ
áĪĬáĪĻ
áĬŃáĪ³
ĠáĪĥáĪ°áĪµ
ĠáĭĿáī°áĪ¨áĬ¸áīł
ĠáĬķáĪĿáĪħ
áĪģáĭµáĬķ
Ġáī¥áĪµáĪĻ
Ġáī°áĬ£áĪĽáĬķáĬĲáīµ
ĠáĭĺáĭŃáī°áīĲ
áĬķáī¥áī¡
ĠáĬ£áĭļáĭĻ
ĠáĬ£áĭŃáĬ¨áĬ£áĪĪáīµáĬķ
Ġáī¥áīķáĮ½áīłáīµ
ĠáĬ£áĭĺáĭŀáĪĿ
ĠáīĢáĮºáĪİáĪĿ
ĠáĪĺáĮ»áĭĪáī²
Ġáī¥áĮ¾áīµ
ĠáĬ£áĪļáĬĳ
ĠðŁĺ
ĠáĪĿáī£áĪī
áĮ¥áĬķáīĢáīķ
ĠáĪµáĮīáĪĿáīµáī³áīµ
ĠáīĢáĮ½áĪįáĭİ
500
áĪįáĭ°áīµ
áī³áĭķ
Ġáī¥áĭħ
ĠáĬ¨áĭĪ
áįįáįį
ĠáĭĺáĮ¥
Ġáĭĺáī°áĬķ
Ġáī°áīµ
ĠáĪĽáĪŃáī²áĬķ
áĪ½áĬ¨
Ġáįįáīģ
ĠáĪµáĪĪáĭ«
ĠáĬªáī¥áĪī
ĠáĭĿáĪĺáĪ°
Ġáĭ²áĮĤ
Ġáī£áĭķáĪĭáī¶áĪĿ
ĠáĬ£áĪŃáĬ¢
ĠáĮ»áĪĽ
áĪĵáĪµáīłáĪī
ĠáĪ³áĭķáĪµ
áĬ¥áīµáĭī
áĬ£áĪĿáĬĳáĬķ
áĪĥáĭ°áĪ«áīµ
ĠáĭĿáĪĵáĭĺáīµ
ĠáĪ¹áĪĿ
ĠáĪµáĬ¢áĬĲ
ĠáĭĵáĪĮáī³áīµ
ĠáĬ®áĪĪáĮħ
ĠáĭķáĪĭáĪĿáĬ¡
ĠáĭĵáĮĭáĪĺ
Read
os
Ġj
áī¥áīķ
áĪĿáĭĭ
ĠáĬ£áī¤áĪį
ĠáĬķáĮ¥áīĢáĪĺáĪī
ĠáĪĺáī¥áĪį
ĠáĬ¨áĪ°
áĮĪáĬĲ
áĪĽáīµáĬĵ
ĠáĭĺáĭįáĮ½áĬ¦
ĠáĭŃáĪĭ
áĮ¥áīĭ
ĠáĪķáĪĺáĪ¨áīµ
ĠáĮĪáĪŃáĬĵ
ĠáĪħáĭµáĬ¥
ĠáĭĺáĭŃáĮ½
ĠáĬ©áĪŃáĬĵáĭķ
áĬ¾áĬĲáĬķ
áī°áĬķáĬķ
ĠáĬºáĪĺáĮ½áĬ¥
Ġ600
ĠáĬ½áīµáĮĪáī¥áĪ®
ĠáĪĿáĭįáī³áīµ
áĮ½áĪķáįī
ĠáĭĿáįĪáĪĪáĮ¥
ĠáĬķáĭ°áīģ
ĠáĬķáĬ¸áī°
ĠáĬķáĬŃáĬ¸áĭįáĬķ
ĠáĬŃáĪĺáįħáĬ¥
ĠáĬŃáĪĺáĪĵáĭ¨áĪ½
ĠáĬ£áĬ¥áĪĿáĪ®áĬ£áĭĬ
Ġáī¥áĬ¢áĬķáī°áĪŃáĬĲáīµ
Ġáī¥áĭĪáĮĪáĬĵ
Ġáī¥áīĳáĭĵáīµ
Ġáī¥áĪĽáĪķ
ĠáĮ½áī¥áīķ
Ġáī¥áĬ¥áĬķáĮįáĪĬáĭĿáĬĽ
ĠáĬķáĪĿáīµáĮįáī£áĪŃ
ĠáĭķáĪĽáĪĽáīµ
Ġand
ĠáĭĿáĮĭ
áĪĺáĭĵáĬ«
áįįáĪ©
áĭ°áĬ¦
Ġáī°áĮĪáī¥áĪ¨
Ġáī°áĬķáīĢáĪ³
ĠáĮįáĪĭáĭĬ
áĬŃáĬ½
ĠáĬ«áī¥áĭĺáĬķ
áĮĭáĬķáĬķ
ĠáĪħáĭĪ
ĠáĪħáĭ³áĪ°
áĮ»áĭĪáĪŃ
ĠáĪĥáĭ°
ĠáĭļáįĪáīµ
ĠáĬŃáĬķáĪĿ
ĠáĬŃáĬķáĪĵáĪµáī¥
ĠáĬ¨áĭŃáĬĲ
ĠáĬ¨áĪĿáĭĿáĬ¸
áĪĸáĬķ
ĠáĭįáĭµáĭµáĪ«áīµ
Ġáī¥áĪµáĪ«áĪķ
Ġ99
ĠáĭķáĪĭáĪĽáĬĵ
ĠáĪĵáĪ³áīłáĭŃ
áĪĥáīłáĬĴ
ĠáĬ£áĬ½áī¥áĪŃ
áĬ¥áĭļáĬ£
Ġáī°áĮ»áī¥áĬ¦
áįĪáĪĪáĮ¡
ĠáĪĽáĬ¥áĬ¨áĪİáĪĿ
áĪĽáĪįáĬ¡
ĠáĪĺáĬ«áīłáī¥áĭ«
ĠáīµáĬ½áĬŃáĪĪ
Ġáī¥áĪĥáĮĪáĪŃ
ĠáĪĥáĪįáĪĥáĪį
áĪĿáĬ¥áĬķáī²
):
Ġ000
áī¥áĭĻáĪĵáīµ
áĪµáĪ¨
áĪĪáī£
ĠáĭĿáĭī
ĠáĪĺáĬª
áĭķáīµ
áĮįáĭĳ
áĭ°áĬ©áĪĿ
Ġáī°áĪĮ
ĠáĬ¢áī¥áĪ«áĪĤ
áī¶áī³áīµ
Ġáĭļáī¥áĪİ
ĠáĭĿáī°áĮłáīĲ
ĠáĬŃáīµáĪħáī¥
ĠáīĢáĪĭáĭŃ
ĠáĪħáĭĿáīł
Ġáī¥áĭĻáĪĵáĬķ
Ġáī¥áĪĵáĪ¶áīµ
Ġáī¥áĭĻáĪķáĬĲáīµ
ĠáĪĺáĪįáĬł
ĠáĪµáĪĿáĭĳáĬĴ
ĠáĪķáī¶áī³áīµáĬķ
ĠáĪĻáīĲáīµ
áī¥áĪĪáĬª
Ġáĭ®áĬ£áī¥
ĠáĪĤáī¥áĭİáĪĿ
áīĿáĮ¸áĪŃ
áĮłáįįáĬł
ĠáĭĵáīķáĪĬ
ĠáĪĿáĮįáī£áĪŃáĬķ
ĠáĪįáĪĿáĭĵáīµáĬķ
Ġáī¥áĮ½áĬĳáĭķ
ĠáĪĵáĮ¥áĬ¥
áĬĲáĮįáĪ¨áĬĴ
ĠáĮİáĬķáįĤ
ĠáĪĺáī£áĬ¥áī³
ĠáĮ½áĪĴáįĪ
ĠáĮģáī£
áĮ¥áīłáī£áĭĬ
áİĵ
ĠáĬ£áĪĺáĪĪáĬ»áĬ½
Ø§
áī¥áĭ¨
áĪĪáĪĺáĬķ
ĠáĬķáĪįáĪĿ
ĠáĬķáįķáĪ¨
áĬ¥áĭİáĪĿ
ĠáĪĿáīłáĪŃ
áĪ¨áĪĿáī²
áįįáĬĵáĬķ
áĬ½áĬĵ
ĠáĭŃáĬ£
ĠáĬĵáĭŃáĮĢáĪŃáĭ«
áĭ²áĪ½
ĠáĬ¥áĬķáī°áĪ°
ĠáĭĭáĪ½áĬķáĮį
Ġáī°áĪĺáĪ³áĪ°
ĠáĮłáĪĿ
ĠáĭĵáĭŃáĬĲ
ĠáĪµáĪĪáĭĿáĭĢáĬĲ
áĪµáįĭáĪķ
áĮĵáĪį
Ġáī°áīĲáĪĺáĮ¥
ĠáĬ£áĭŃáĬĲáī¥áĪŃáĬķ
áĪĺáĪįáĪ¶
Ġáī°áĪ°áĬĵ
Ġáī¥áĬ¥áĭĭ
ĠáĪ«áĭµáĭ®
ĠáĬ¢áĬķáĪ¹
ĠáĮŃáĬķáīĤ
ĠáĬŃáĭĪáĪĥáī¥
ĠáĬŃáĭĪáĪŃáĭµ
ĠáĬ¥áĬķáī°áĬ¾áĬķáĬ«
ort
ĠCon
ĠáĭĿáĮįáī¥áĬ¦áĪĿ
ĠáĭĺáĪįáĬ£áĪĪáĪĽáĭĬ
ĠáĮįáĪįáĮº
ĠáįĪáī²áĬĳ
ĠáīħáĬķáĭķáĬĵ
ĠáĪķáĭŃáĭĪáī±
ĠáĪ°áī¥áĬ¡áīµáĬķ
áĪįáĮłáįĪ
áī°áĬķáĪµáĬ¦
áĭŃáĪĿ
Ġáī¥áĪİ
ĠáĬŃáĬ¨
áĬ£áĭļ
áįįáĬĲáīµ
ĠáĭĺáĮĪáĪį
ĠáĭĺáĪ¨áĮĭáĮįáĮ½
ĠáĭŃáĮł
ĠáīłáĪįáĬ«
ĠáĭĺáĭŃáĬ½áĬ¥áĪį
ĠáĬ¸áĪĪáĬ¹
ĠáĪįáĮį
áĬ¤áĪįáĬķ
ĠáĬ½áĭ³
ĠáĮĪáĪĬáĮ½áĭİ
ĠáĬĲáįįáĪ³áīµ
áĪĭáĬķáĭµáĬķ
ĠáįĢáĭĪáī³
ĠáĮŃáĬ«
ĠáįķáĪ®áįĮ
ĠáĪħáĭĿáī¥áĬĵáĬķ
ĠáīįáĮ¥áĭĵ
áĮįáĬĵáĪĪáĬķ
ĠáĭĿáĮĪáīłáĪŃáĬ«áĭ®
ĠáĬ¡áĮĭáĬķáĭ³
ĠáĬķáĮ¸áĪĭáĬ¥
ĠáĬ£áĭŃáĪ¨áĬ¸áīłáĬķ
ĠáĭĺáĭŃáĪķáĪ°áī¥
ĠáĪµáĬ¢áĬĸáĪĿ
ĠáīĸáĪįáĭĵ
Ġáī¥áĪĿáĪįáĬ¡
ĠáĬĲáĬķáĪķáĭµáĪķáĭ¶áĪĿ
ĠáĮ¢áĪŀáī´áĭİáĪµ
IS
áīłáĭ®áĪĿ
áīłáī³áĭĬ
ĠáĬķáĮ³áĭįáĪİáĪµ
ĠáĬŃáĭĽ
áĭķáĭĺ
ĠáĪĵáĪ¶
áĭĿáĭ©
ĠáĭŃáĪŀáī±
áĪªáī¥áĬĵ
ĠáĬ¥áĬķáĪ¨áĬ½áī¦
Ġáīłáīµ
áĮ¸áĪŃáī²
áĪ½áĬ«
ĠáĭįáĪ¨áĭµ
ĠáĭļáĪŃáĬł
ĠáĪ°áī¥áĬłáĭŃ
ĠáĬŃáĬķáįĪáĪįáĮ¦
ĠáĬŃáĬķáĪĵáīµáīµ
ĠáįĪáĪį
ĠáĬ¨áĭŃáĪħáĪī
ĠáĬŃáĪįáĪįáĬĵ
ĠáĪļáĭµ
ĠáĮĪáĭŃáĪŃáĭİ
ĠáĮĬáĭľáĬ¡
Ġáī°áĭĭáĪµ
ĠáĪĺáĮºáĬ¥áĬĵ
ĠáĭĿáĪŃáĬ¤
ĠáĬķáĭįáĪ°áĭµ
Ġáĭĳáīħáī£
ĠáĪĺáĮ¸áīµ
ĠáĬ¤áĭįáĪ®áĮ³áĬķ
ĠáĪĴáĭĿáĭİ
áĮĪáīłáĪŃáĬ«
ĠáĭĵáĭµáĬ»
áĬ¨áī³áī°áĪī
ĠáĪħáĪįáīĤáīµ
ĠáĬ¥áī°áĭĪáĪįáĭ°
ĠáĪĺáī£áĬ¥áī³áĭĬ
ĠáĭĵáĭĪáīµáĬķ
ĠáĮłáīĴáĪ±
ĠáĭŃáĪĿáĪħáĪ¨áĬĵ
ĠáĪĥáĪĪáĭĭáīµ
áīłáī¡
áĬ£áĬ¥
áĮįáīłáĪª
áĭ°áĪĵáĬķ
ĠáĭĺáįĪáĪŃ
ĠáīµáĬ£áĪĿáĬķ
áĬ¨áĪİ
áĭĽáī¥áĬķ
ĠáĪħáįģáįħ
ĠáĭļáīµáĬķáĪµáĬ¡
ĠáĭĿáī°áĪ°áĪŃ
áĪĦáīµ
ĠáĪĻáĪģ
áĭµáĪķáĬķáĬķ
ĠáĭħáĪĭáī¶áĪĿ
ĠáĪĬáĬķáĬŃ
áĬ¬áĪ½áĬķ
ĠáĪĺáĮĭáĪ¨áĮĥ
ĠáĭĿáĮĪáīłáĪŃáĬĵáĭ®
ĠáĭįáĪķáĮħ
´áĮ¥áĪ®áĪµáĬķ
áĪªáĭ«áĪĿ
ĠáĮ¸áĪĵáįĪ
Ġáĭ±áĪŃ
ĠáĮįáĮ¥áĪĿáī³áīµ
ĠáĪħáĭįáĬ¨áīµ
áĪĥáĭŃáĪĽáĬĸáīµ
ĠáĪĺáĪĿáĪĥáĪª
ĠáĬ£áĮĪáĪĭáĪįáĮ»
áĭ°áĮĬáĪĿ
ĠáĬķáĪĲ
ĠáĬķáĮ½áĪį
Ġáī¥áīĥáĪį
áįįáĪĲ
Ġáī°áĮ¸áĬķ
ĠáĪĵáīģ
ĠáĬ«áĬĵ
Ġ"-
Ġáĭ°áĪĪáĬ¹
ĠáĮĪáī¥áĪ©
ĠáĪ°áī¥áĪ²
ĠáĭķáĮ¹
ĠáĬŃáĬķáĬ£áī±
ĠáĬ®áĬĲáīµ
áĬĵáīµáĬ«
ĠáĪĺáĪįáĪµáī³áīµ
áī°áĬķáĪµáĬ¥
ĠáĬ£áĭŃáī°áĪ¨áįĪáĬķ
Ġáī¤áī°áĪ°
ĠáĭįáĪ½áĮ¥áĬķ
ĠáĪĵáĭŃáĪįáĬ»
áĮŃáĭĭ
áĮĪáĭµáįį
ĠáĮĲáĭŃáī³áĭ¨
ĠáĬ¢áīµáĭ®áĮµáĭ«áĭĬ
Ġ150
ĠáĪĺáĭĿáĮĪáīł
ĠáĪĺáĪįáĬ¥áĬŃáī²
áĮįáĪĪáįħ
áĪħáī¥áĭİ
áīĽáĪĿ
Ġáī°áĪĪáįİáĬķ
ĠáĪµáīķáī³
Ġáī¥áĮ¥áĪľáīµ
áĪĭáįįáĬĲáīµ
ĠáĪŃáĮįáĮ¸áĬĽáī³áīµ
Ġáī°áĭĺáĪŃáĮĬáĪĳ
ĠáĭĿáī°áĭĪáĪ°áĬĳ
ap
áĬķáĪĿ
ĠáĬ£áĬķáī²
ĠáĪĺáĭķáĪĪ
ĠáĬŃáĪ¸
áĭµáįį
áĪĺáĪĻ
áĮĪáī£áī¥
áĭķáĪ½
áĪĽáĪĽ
ĠáĭįáĪħáīł
ĠáĭļáĪħáĪī
ĠáĭĿáī°áĪĽáĪħ
áīłáĪŃáĭ«
áīĢáĭįáī³
ĠáĬŃáĬķáĬ¨
ĠáĬ£áĪĿáĪĭáĬ½áĪ²
áĪĭáĭŃáīµ
ĠáĬ£áī¦áĪĵáĮİ
ĠáĬķáĪķáĬĵáĪµ
Ġáĭ®áĪĲ
ĠáĪ«áĪĦáĪį
áĪķáĪįáĭİ
Ġáĭ°áīĢáĭ¨
ĠáĬłáĭŃáī°
ĠáĭķáĪĭáĪĽáĬ¡
ĠáĬ£áĪľáĪªáĬ«áĭįáĭ«áĬķ
ĠáĬĥáĮ¥
ĠáĬ£áįįáĪªáīĥáĬķ
ĠáĬŃáĭįáĪµ
ĠáĭįáĪīáĭµáĬ«
ĠáĭĵáĪĪáī£
ĠáĬłáĬķáī°
ĠáīĸáĪįáĭĳ
ĠáįķáĪ¬áĭļáĭ°áĬķáīµ
ĠáĪĿáĪ½áīµ
ĠáįĪáĪ¨áĪ°
Ġáī°áĭĺáĪŃáĭļ
ĠáīµáĪ«áįĬáĬŃ
ĠáĬ¥áĬķáĪµáĪ³áĬķ
ĠáĬķáįĪáĪŃáĬ¦áĬķ
nd
âĪ
ĠâĢº
áī¥áĪĶáĪŃ
áīµáĪĿáĪħáĪŃ
ĠáĬ£áĭķáĬĵ
Ġáī¥áĭ¨áĪ±áĪµ
áĪĺáĭįáīµáĬķ
áĭįáĭ«
Ġáī°áĪĥáĭµ
áĪĵáīłáĪ¬áī³
ĠáĬ¢áĭ°
áįĪáĮłáĪŃ
ĠáĬ£áĭŃáįĪáĪįáĮ¥
ĠáĭļáīłáĪįáĮ½
ĠáĬŃáĬķáĪĺáĪĥáĪŃ
ĠáįĪáī°áĬķ
áĪĪáĬķáīµ
ĠáĬµáĬĲáīµ
ĠáĪķáī¶áĬķ
Ġáī°áĪµáįĭáĬĵ
Ġáī°áĬ£áĭļ
Ġáī¥áĭĵáĪĪáĪĿ
ĠáĬ£áĬ½áĪĬáĪį
ĠáĪĥáĭŃáĪĽáĬĸáīµáĬķ
ĠáĬķáĪĺáĬķáįĪáĪµ
ĠáįĪáĮºáĪĿáĬĵ
ĠáĭŃáĭįáĭķáĪį
áĪĪáĭĪáĮł
ĠáĪĦáĭĭáĬķ
áĭįáĭķáĭİ
ĠáĮ¥áīłáī£áĭĬ
ĠáĭĿáī°áĭĭáĪħáī¦
ĠáīħáĬķáĭ«áīµ
áįĢáĬķáĪķ
ĠáĮ¥áĪĿáĭ¨áīµ
ĠáĭŃáī¥áĮ»áĪķ
ĠáĬķáĪĿáĪĿáĪķáĭ«áĪ½
ĠáĬ¥áĬĵáĬķ
áĪĪáĭĵ
áī³áĪŃ
ĠáĪĿáĮķ
ĠáĪĿáĮ¥áīĥ
áĪĵáĬĳ
áįĪáī³
ĠáĭµáĪĪáĭ©
ĠáĬ£áĭŃáįį
áĬŃáĪ³áī¥
áĬ¡áīµ
ĠáĭĺáĭŃáįįáīµ
ĠáĭļáĮį
ĠáĬªáĭĢáĬĲ
ĠáĮ½áĮį
ĠáĬłáĪĪáĬ¹
áīĥáĭįáĭ«áĬķ
ĠáĬĲáĮĪáĪŃáĭİ
ĠáĪ³áĬķáī²
ĠáĬķáĬ£áī³áī¶áĪĿ
ĠáĪµáĪŃáĭĵ
ĠáĬ£áĬ«áĪĭáīµáĬĵ
áĬ«áī¥áī²
ĠáĬķáĭ°áĮĪ
áįįáīħáĪ®áĪĿ
áĪ¨áĭµáĬ¦
ĠáĪķáĭŃáĭĪáīµáĬ«
ĠáĭĪáīµáĪĥáĭ°áĪ«áĭĬ
ĠáĭŃáĪµáĪĺáĭĵáĬĴ
ĠáĬ£áĭŃáĬ¨áĬ£áĪįáĬĵáĬķ
ĠáĭĿáĬ¾áĬķáĬ«
ĠáĬ£áĭŃáĬªáĬ¸áĭįáĬķáĬķ
ĠáĬķáįĪáĮ£áĪª
ĠáĬ£áĬ¥áĭ³áĭī
ĠáĬķáĭĤáĪİáĪĿ
ĠáĭĵáĪĮáī³áĭĬ
Ġáī¥áĪĿáīµáĪķáī¥áī£áĪŃ
ĠáīłáĪĥáĪĬ
ĠáĪ¨áīĽáĪĴ
ĠáĭĵáĪĽáĮº
ĠáĬ£áĬķáīłáĮ£
ĠáĬ£áĮłáĬķáīĤ
ĠáīĭáĪķ
áĭķáĬķáīĢáįį
ĠáĬ¥áĪĿáī¥áĬłáĪŃ
ĠáĪĺáĪĺáĪįáĬ¨áī²
42
ĠáĬ£áįĢ
áī°áĪİáĪĿ
Ġáī¥áĬ©
ĠáĬŃáĪŃáĭµáĬ¦
ĠáĬŃáĪĿáĪįáĪµ
ĠáĬ¨áĬķáī²
ĠáĬĵáĪħáĪª
ĠáĪĵáĪī
ĠáĭŃáĭĽ
ĠáĭŃáĪŃáĬ£
áĪªáĬĵ
ĠáĭĪáįĬ
ĠáĪķáĪĿ
áĭĭáĭŃáĬķ
áĭĭáĮħ
ĠáīłáĭĿáĪĴ
ĠáĮĪáī£áĪŃ
ĠáĭļáīĲáĪŃáī¥
áīĲáĬĴ
áĬ¢áĬķ
áĮ£áĪķ
áĮĬáĭ±
áĬºáĭµ
áĪĺáĬķáĮįáĪµ
áĪŃáĬ¥áĭ¨
ĠáĬ¨áĪĿáĭĿáĬ½áĬ¥áĪī
ĠáĮłáĪŃ
ĠáĭĿáĬĲáīłáĪ¨áĬĵ
ĠáīĢáĭ³áĪĺ
ĠáĪĺáĭĵáĪŃáĮį
rea
ĠáīµáĬķáī°áĬĵ
Ġáī¥áĭįáĪįáīĢ
Ġáī´áĬŃáĬĴ
Ġáī°áĭ°áĮĭ
ĠáĬķáĪŃáĬ¥áĪ¶áĪĿ
ĠáĬ£áĬ¥áĪĿáĪ®áĬĵ
ĠáĪĺáīĲáĪĺáĮ¢
áĭįáĮ½áĬ¦áĪĿ
ĠáĬķáīµáĪĿáĪħáĪŃáī²
ĠáĭĴáĪ«áīķ
ĠáĭĿáĪĺáĪŃáĪķ
ĠáĮĭáĭľáĮ£áī³áīµ
ĠáĭĿáī°áīłáĮĪáĪ°
áĬŃáĪ²áĬ®
Ġáī¥áī¥áĪŃáī±áĭķ
ĠáĪĿáĪµáī³áįį
Ġáī¥áĮ»áĭŃáĬ«
ĠáĬķáĪĥáĮĪáĪŃáĬĵ
ĠáĬ£áĭŃáįĪáĪĪáĮ¥áĬ©áĬķ
áĭµáĬĲáĮ»áĪŃ
Ġáĭ¨áīĲáĬķáĭ¨áĪĪáĭŃ
Ġáĭ°áĪĽáĪµáīĨ
ĠáĬ¦áī£áĪĽ
áĮ¥áīĭáĮ¥
ĠáĬķáĬĸ
ĠáĪĺáī£
áĭĿáĪŃáĬĵ
áĭĿáĬŃáĪŃ
áĭ«áĪµáĬķ
ĠáĬ¢áĪµ
ĠáĪ°áī¡áĬķ
ĠáĬ«áī¢
ĠáĬ£áĭŃáĪĥ
áĮ¥áįī
áĭĺáĬĲ
ĠáĭĺáĪİáĬĵáĭ®
Ġáī¥áĪĵáĮĲáĪµ
ĠáĬ£áĭŃáīµáīłáĪī
ĠáĪµáĪĪáĭļáĪħ
áī¤áī³áīµ
áĭ°áĬķáī³áĭĬ
ĠáĪĵáīłáĪ¬
áī£áĭŃáī¶
áī³áĬķáĭ«
Ġáĭĵáī¥áĭ±
áĭµáĪįáĭ¨áĬ©áĪĿ
ĠáĭĿáĭįáĪĪáĭµ
áĭ°áĪįáĭ©áĬķ
ĠáĬŃáĬ¢áĪĪ
ĠáĬ£áĬ¥áĭ³áĭİáĪĿ
ĠáĬ£áĪ¨áĮĭáĭįáĭ«áĬķ
ĠáĭĵáĭŃáĬķáĬ»
ĠáĪĿáĪ¥áĮ¢
ĠáĬ£áī¤áĪ´áĪİáĪĿ
áĮĢáĬķáĪ²
Ġi
ĠáĬ£áĭĺáĬķ
áī°áĭī
áĪĪáī±
áĬĵáĬĵ
ĠáĬķáĪĵáīµáīµ
ĠáĬŃáĪµáĪĿ
áĪĭáĭ²
áĪ«áĭ©
áĮĪáĪĲ
áĭįáĪ®áĮ³
ĠáĭŃáīłáĮ½áĪķ
ĠáĭĵáĮº
ĠáĪķáĭįáĬĲáīµ
Ġáĭ°áĪĿáĬķ
áĪ½áĪĿ
áĪĻáĭĿ
áįĪáĪįáĬĵ
áĬ¤áĪµ
áīĵáĭķáī²
áĭŃáĬķáĬĵ
ĠáĬ¥áīµáī¥áĪİ
áīĭáĪ¨
ĠáĪ¸áīĥ
áĬ£áĬķáĪµáīµáĭ®áĬķ
ĠáįĬáĬķ
Ġáī¢áĪĬ
ĠáĬ£áĭ²áĬ¡áĬķ
áĮįáĬĵáĬ¸
ĠáĮĭáĭľáĮ£áĭĬ
ĠáĮ¥áĪŃáĮ¥áĪŃ
ĠáĬķáĪĥáĮĪáĪ«áĭĬ
ĠáĪµáĪĿáĭĴáī³áĭĬ
ĠáĭĺáīķáĪ¨áī¦
ĠáįĪáĪĭáĪĽáĭŃ
Ġáĭįáĭ³áĪ°
ĠáĪĭáĭŃáĬŃ
ĠáĪĺáĭĵáĪĻáīĿ
Ġáī¥áĭĤáĪī
áĪįáĪĦáĪĿ
áĪĪáĬ½
áīłáĬ¹
ĠáĬķáĬ»
áĪ¨áīĳ
áĭįáī°áĪŃ
ĠáĭĺáĬĵ
ĠáĬĲáĭ²
ĠáĭŃáī°áĬ£
áĪ°áīµáĬķ
áĭĵáī°áĬķ
ĠáĭµáĬ³áĬķ
ĠáĭµáĬ³áĬĵáīµ
ĠáīµáĮ½áīł
ĠáĭļáĪħáī¦
ĠáĮ¥áĭŃáīµ
ĠáĬŃáīµáĮħáĪĿáĪŃ
áīĥáĭµ
ĠáĭĿáĬĲáĮįáĪ¨
ĠáĮįáĭľáĬ»
ĠáĬ¤áĪĿ
ĠáĬ¥áĮįáĭļáĬłáī¥áĪĦáĪŃ
ĠáĭľáĭµáĪįáĭ®áĪĿ
ĠáĭĭáĪįáī³
áīłáĪįáĭĸ
áĪ¨áĬ¸áī¥
áĭ´áĬķ
ĠáįĢáĪĭáĬ¢
ĠáĪ°áĪįáįĪ
ĠáĬŃáĭĪáĮ¹
áĬµáĪİáĪĿ
ĠáĭĿáĭĵáīłáĭ¨áīµ
ĠáĭĿáī°áĭĭáĪħáī¦áĪĿ
ĠáĬķáĪħáĭĿáīłáĭŃ
Ġáī°áī£áĭķáīµáĭ®áĬķ
ĠáĬ¨áĪĽáĬĵ
ĠáĪĺáĪŃáĮĪáĮ½
ĠáĭįáĮįáĬ¥áĬķ
áīµáĭ«áīµ
ĠáĭĿáĪĽáĭķ
ĠáĭĿáĮłáīķ
Ġáī¥áī³áĪķ
áĮįáĪ«áīµ
ĠáĭĺáĬŃáĪ®
áĪ°áĪįáĬĵ
ĠáĪ°áĪ¨áīµ
ĠáĭĵáĮ¸
áĬ¨áĪĺ
ĠáīłáĬķáĮ»áĪ©
Ġáĭ°áĪĺáĬĵ
ĠáĭĺáĭŃáĪŃáĬł
áĭ±áĬĴ
ĠáĭĪáĭŃáĬķáĬķ
ĠáĮįáĭľáĭŃ
ĠáĬ¥áĬĵáĭĵáīłáĭ¨
ĠáĬķáĪµáĪĻ
áī¥áĪ¨áĬ«
Ġáĭ®áĪ´áįįáĬķ
ĠáĪĿáįįáī³
ĠáĬ£áĭµáĪĤ
ĠáĬ¨áī£áī¢áĬ»
ĠáĪĵáĪ³áī¥áĬķ
Ġáī¥áĭĵáīķ
áī°áĭĪáĪ³áĬº
ĠáĪ»áĪĿ
ĠáĭĪáĬķáīłáĪŃ
ĠáīĢáĮºáĪįáĬĵ
Ġsiden
ĠáĬ¨áįĬáĪī
ĠáĬķáĬ¢áīµáĭ®áĮµáĭ«
ĠáĪ¨áĪ²áĭĸáĪĿ
ĠáĬķáĬĲáī¥áĪ±
áĪĺáĪµáĮįáĬķáĭİ
ĠáĭĺáįįáīħáĪ®
ĠáĬŃáĪĺáĪŃáĪķ
áĪĿáĪŃáĭĵáĭī
ĠáĪħáĭįáĪĵáīµ
áĭ³áĭ°áĪŃáī²
ĠáīħáĬĳáĭĵáīµ
ĠáĬĵáĬ¥áĪ½áī±
ĠáĪħáĭĿáīħáĭ«áĪµ
80
áĪĿáĮ½áĬ¡
áĪŃáĭŃ
ĠáĭĿáĮĵ
Ġáī¥áĮłáīķ
ĠáĬŃáĪ³áĭµ
ĠáĪĿáĪĵáĪ¸
áĭµáĪ®
áĪīáīĥáĪµ
áĬ½áĪŃ
ĠáĭŃáĪ¨
ĠáĬ£áĭŃáĭĪáĪ°
áĪħáīłáĪī
ĠáĭĺáĭŃáīĢ
ĠáĭĺáĭŃáĮįáī¥
ĠáĪĥáĪª
ĠáĪµáĪĪáĭĻáĭŃ
áīĲáĭįáĪĿ
ĠáĬŃáĬķáĮ½
ĠáĬŃáĬķáĮħáĪĿáĪŃ
ĠáĮ½áĪĭáīµ
áįĪáĪįáĮ¢
ĠáĭĿáīłáįħ
áĮİáīµ
áĮİáĪ±
áĪĨáĬķ
ĠáĬķáĬ£áī£
ĠáĬķáĬ£áĬ«
áĪ°áī¥áĬĵ
ĠáĬ£áĭŃáī°áĭĵ
ĠáĪĻáĭĥáĬĳ
ĠáĭĿáĬ¸áĭ¶
ĠáĪĿáĪįáĭįáĭĭ
áĪĭáĪįáĭ©
ĠáĬ£áĭ°áī³áīµ
ĠáįįáīµáĪĵ
ĠáĬ¾áĭŃáĬĸáĪĿ
ĠáĬķáĪµáĬ»áīµáĬ©áĪĿáĭįáĬķ
ĠáĭĿáī°áįĪáĮłáĪ¨
Ġáī´áĪĽ
Ġáī°áĪªáįĭ
ĠáĬ£áĪ³áĪįáĮ¦
ĠáĪĺáĭķáĪ¨áįĬ
ĠáĪĤáĭĪáī¶áĪĿ
ĠáĬ£áĭŃáĮĪáīłáĪ¨áĬķ
ce
áĬĺ
ĠáĬ£áĬº
ĠáĬ¥áĪµáī²
áī°áĪ°
áĪµáī±
áĪµáīµáĬķ
ĠáĬŃáīłáĪįáĭķ
áĬ£áĭįáĬķ
ĠáĪĿáĪ¸
áĭµáĪ®áĪµ
ĠáĬĵáī³áī¶áĪĿ
áĪ°áĪ«
áĪªáĬ¦áĪĿ
áĬ¦áĪįáĬķ
áĪ½áī°áĬķ
ĠáĬ¸áĭ±
áĬ½áĬ¥áĪĪáĪī
ĠáĬŃáĬķáĬ¥
áĬ¢áĪįáĬĵ
ĠáĮ¸áĮĬ
ĠáīĢáĭįáĭĴ
áĬ¤áįĮ
ĠáĭľáĭµáĪįáĭ®
ĠáĪļáĭ²áĭ«
ĠáĪĺáĪµáĪĺ
ĠáĬķáĪµáĬ»áĬ¸
áĪĿáĪįáĬ¾
ĠáĪĻáĮĭ
ĠáĪĵáīłáĪ«áĭĬ
ĠáĭĿáĬ¸áĬ£
ĠáĬ»áī¥áĭļ
ĠáĭĢáĬĳ
áĬ«áī¥áĭļ
Ġáī°áĮĭáĮį
áĮįáĪĿáī¶
áĭķáĪĪáĪī
áīķáĪŃáīłáĪįáĬ©áĪĿ
ĠáīĢáĪįáĮ¢áįİáĪĿ
ĠáĭĿáĮ½áĭĭáĭķ
ĠáįĪáī²áĬĸáĪĿ
ĠáĬŃáĮįáīłáĪ¨áĪī
ĠáĭįáĪŃáĪ»
ĠáĭĿáīĸáĪĺ
ĠáĪĺáĭĵáĪŃáįİ
ĠáĬ¤áĪĪáĬŃáīµáĪªáĬŃ
ĠáĪĺáĪŃáĪĵáī£
ĠáĭĿáĭįáĬķ
Ġáī¥áĬŃ
áĬ¥áĪĿáĬĲáīµ
ĠáĬŃáĮŃ
ĠáĪĿáĭ°áĪĪáĬ¹
áī£áĪ«
áĪĵáĬ©áĪĿ
ĠáĪ°áĬĴ
ĠáĬ£áĭŃáĪŃáĭµ
ĠáīµáĪ°áĪĿáĭķ
áĪħáĭ°
ĠáĪķáįħ
ĠáĪĥáīłáĬĵ
ĠáĭļáĭĪáĮ½áĬ¥
ĠáĭĿáī°áĪ°áĬĲ
ĠáīħáĮ«
áī¥áĪįáĬĵ
ĠáĮ½áĭįáĮ½
áī¥áĪŃáī²
áįīáĬĵ
ĠáĬ¥áī°áĪĺáĪµ
ĠáĪİáĮ¥
ĠáĭĿáĪĵáĮ¸áĪ¨
ĠáĬķáĭĵáīłáĭŃáī²
ĠáĮİáĪŃ
áįĥáįĢ
ĠáĭĿáĬ£áĭĺáĭĿ
ĠáĭŃáī¥áĪįáĭİ
ĠáĪĿáĪįáĬ£áīµ
Ġáī°áįĪáīĴáĭ±
áĪŃáĭµáĬ¥áĭİ
ĠáīĲáĬķ
ĠáĬķáĪħáī¢
ĠáĬķáĮįáĭµ
Ġáī°áĮłáĪĿ
Ġ120
Ġáī¢áĭĿ
áĪĵáĪŃáĬĽ
ĠáĬ¥áĬķáī°áĬ¾áĭŃáĬĸáĪĿ
ĠáĬŃáīķáįħáĪį
197
ĠáĪķáĪįáįį
áĬ£áĪįáĭ®
ĠáĭĿáĮĪáīłáĪŃáĬ«
Ġáī¥áĪŃáĪĥáĬķáĬķ
Ġáī°áī³áĪĴáĭŀáĪĿ
ĠáĬ£áįįáĪĬáĮ¦áĪĿ
ĠáĭĵáĪĽáĭĬáĪį
áī¥áĪķ
áī°áī¥
ĠáĬŃáĪ°áĪĿáĭĳ
ĠáĬ£áī¥áĭĺáĭŃ
áĭķáĭĻ
Ġáĭĺáīħ
ĠáĬĲáĭĭ
Ġáī°áĬ¹
áĪĵáĪ¨
áįĪáĬ©áĪĿ
ĠáĮįáĭ±
áĪĥáĬĵ
áĬĳáĭµ
ĠáĭļáĭĢáĬĲ
ĠáĬŃáīµáĪĺáĪĥáĪŃ
ĠáĬłáĪį
ĠáĬķáĪĿáĮ¥áīĥáĪµ
ĠáĪ½áīłáĪ«
áįīáīµ
ĠáĬŃáĪįáī´áĬĵ
Ġáĭľáī¥áĪī
ĠáĪĥáĮĪáĪ«áĭįáĭ«áĬķ
ĠáĬ¨áĪĿáĭļáĬ£
ĠáĬ¥áĪµáĪĽ
áī¤áĮ¥
ĠáĬķáĪµáĬ»áĪµ
áĭµáĪķáĬĸáĪĿ
ĠáĬķáĪĺáĪĥáĪŃ
ĠáĪĿáĭįáĪĭáĭµ
ĠáĮŃáĪ«
Ġáĭĺáĭ¨áĭµáĪĬ
ĠáĭĵáĪ°áĪŃáī°áī³áīµ
ĠáĬŃáĪķáĭ°áīµ
ĠáĬĵáī£áī³áī¶áĪĿ
ĠáĪ°áīłáĭŃáīµáĬ»
ĠáĭŃáĬ¸áĭīáĬķ
ĠáĬ£áĭŃáįĪáī±áĬķ
áĪµáĪĪáĭĻáĭŃ
ĠáĬķáĪĿáĪµáĬŃáĪŃ
ĠáĪ¨áĪ²áĬ¥
ĠáĪĺáĭķáīĨ
ĠáĪµáĬķáĬŃáĪįáĬĵ
Ġáī¥áĪĿáĪįáĬ£áīµ
ĠáĬŃáīµáĬ¨áįįáĪį
ĠáĮįáĪħáĪ°áīµ
ĠáĬ£áĭĪáĭ³áĭµáī£
Ġáī°áĪĺáĪ³áĪ°áĪįáī²
áĪµáĭ«áĬķ
ĠáĭĿáĮłáĪĺ
ĠáĬķáĬ¤áĪį
ĠáĬŃáīĨ
ĠáĬŃáĪµáĭķáī¥
ĠáĬŃáĮħáĪĺáĪŃ
áĬ£áĪįáĬķ
ĠáĬ¨áĬķáī¥áī¥
áįįáĬĸ
Ġáĭĺáī¤áī³áĭĬ
áĭĪáĪ³
ĠáĬ£áĭŃáįĪáīµ
ĠáĬ£áĭŃáĪħáī¥áĬķ
áĪĬáĭķ
Ġáĭĵáĭ³
Ġáīµáī¥áĪĪáĬĴ
ĠáīłáĪįáĬĵ
Ġáĭ°áĭª
Ġáĭ°áĪŀáĬŃáĪ«
ĠáĭįáĭĳáĭŃ
ĠáĭļáĬ¨áĬ£
ĠáĬŃáīµáĬ«
ĠáĪĵáĭ°áĪĵáĭ°
ĠáĬŃáĬķáĪķáĮįáĭĺáĬ©áĪĿ
áĬ¢áĪ³
ĠáĬ£áĪİáĭİáĪĿ
áĮ£áĪ«
ĠáĬ«áĪįáĬ£áĭŃáĬķ
ĠáĬĲáĮĪáĪŃáĬķ
ĠáĬ¥áīµáĬ¸
ĠáĬ¥áĭĭáĬķáĭļ
Ġáī³áĬŃáĪ²
ĠáĬ£áĪµáĪĭáĪĿ
áĪ°áĪĿáĭĵáĬ«
áī´áĬķ
ĠáĪ°áĪĪáĪĻáĬķ
ĠáĬķáĮįáĭľ
ĠáĬķáĮįáĭľáĬ¡
Ġáī°áĮłáĪ«
áĪ¨áĭµáĬ¡
áĭĭáĬķáĭ³
ĠáĬ¥áĪĿáīłáĬ£áĪŃáĪ²
ĠáĪĺáĭĽáĭĺ
ĠáĪ¥áĪŃáĭĵáīµ
ĠáĪµáĪĪáĭĺáĭ¨
ĠáĪµáĪĪáĭĺáĪĪáĭİ
ĠáĭķáĪĪáī³áīµ
ĠáĭĪáĭµáĪ°áī¥
ĠáĮ«áĬ«
ĠáĬķáĪĿáĪĿáĮ»áĬ¥
ĠáĬ£áĮįáĪ«áī¥
áĪ¨áĮĭáĮįáĮ¹
ĠáĭŃáĬ¥áĪĺáĬķ
ĠáĬ£áĬ¥áĭ³áĭįáĬ«
ĠáĪŃáĬ½áĪ°áīµ
Ġáī¥áĪĺáĬķáįĪáĪ³áĭĬ
Ġáī¥áĪķáī²
ĠáĬ¨áĭµáĪĬ
áī£áĪįáĬķ
áįįáĪŃáĬĵ
ĠáĬ¥áĭ©áĪĿ
áĭ«áī¥
ĠáĪ°áĭĲ
áĭĪáĭŃáī²
áĬŃáĪ®áĬķ
Ġáĭ°áĪĪ
ĠáĪĿáĪµáĪį
ĠáĪĺáĬķáĬĲáī±
ĠáĭĿáī°áĮ»áĪķ
ĠáĬ®áĬĳ
áĪĳáĪŃ
áįİáĪŃ
ĠáĬķáĪĵáĮ¥
ĠáĬ¨áĪĿáĭĺáĪĪáĭĭ
ĠáĬ¦áĪ®
áįģáĪĿ
áĪįáĭĵáĭµ
ĠáįĵáīµáĪŃáĭ«
ĠáĪ°áī¥áĬ£áĭįáĬĲáīµ
ĠáĪ°áĭŃáĮ£áĬķáĬķ
ĠáĪĺáĪ«áĬ½áī¥
ĠáĭĿáĭ°áĪĪáĬ¹
ĠáĪµáī¥áĬ¨
ĠáĬ£áĬ«áĭŃáĭ¶áĪĿ
Ġáī¥áĪĿáĬķáī£áĪŃ
ĠáĭĪáĮįáĭĴ
Ġáī°áĭĪáĪĬáĭ°
ĠáĪĵáĮ¢áĬ£áīµáĬķ
ĠáĬ©áī£áĬķáĭ«áī³áīµ
Ġáī°áĭĽáĪ¨áī¥áī²
Ġáī°áĬ¸áī³áī°áĪįáī²
ĠáĬķáĪĿáĮ¥áįĭáĬ¥
ĠáĬķáĪħáĭŃáĭĪáī°áĭŃ
ĠáĪħáĮįáĭ²áįį
ĠáĬ£áĮłáĪĽáĪĿ
ĠáĬ¥áĮįáĭļáĬ£áĬłáī¥áĪĶáĪŃ
ĠáĪªáįĵáī¥áĪĬáĬŃ
ĠáīµáĬ½áĬŃáĪĪáĬĽ
áĬķáĬ£áī¥áĬĲáīµ
ĠáĭĿáĬĥ
ĠáĬŃáĪķáĮįáĭĺáĬ«
ĠáĬŃáĬ¾áĬĵ
ĠáĪĿáĮ¥áĬķ
áĪ¨áīłáīµ
áĪĺáĪķáīµáīµ
áĭįáī¶
ĠáĭĺáĮĪáĭµáĪµ
ĠáĬĵáįĥ
ĠáĭŃáįħ
ĠáĬ£áĭŃáĬ¬
áĬŃáĪ³áĭķ
ĠáĬ«áī¥áĭĿ
áĮłáīµ
ĠáĭĺáĭŃáįĪ
áĪ½áĪķ
Ġ1000
áĭĳáīķ
ĠáĪ½áĪĻ
ĠáĪĺáĪįáĪµ
ĠáĬķáĭĿáī°áĭĪáĪ°áĬĲ
ĠáĬ¨áĪĿáĭĺáĪĪáĭį
áĮŃáĪ®
áĭ«áĪµáįĸ
Ġáī°áĮłáīĲáĪĿ
áįįáĪŃáĪħ
ĠáĪĺáĪĪáĪĪáĭŃ
ĠáĪĿáĭĿáĬ«áĪŃ
ĠáĬ¢áĭµáĬ©áĪĿ
áī¥áĪĵáīĤ
ĠáĬ®áĬķáĬ©áĪĿ
ĠáĬ®áĬķáįĪáĪ¨áĬķ
ĠáĮħáī¡áī²
ĠáįĪáĪŃáĪģ
áĪĺáĭĿáĮĪáī¡
Ġáĭĺáī¥áĮ½áĪķ
ĠáĬķáĭĳáĬ¡
Ġáī°áīĲáĪļáĮ¦áĪĿ
ĠáĪĺáĪ¬áīµáĬķ
áīłáĪµáĪ¨áĬ©áĪĿ
ĠáĪĥáĬĵáĮº
Ġáī¥áĪĺáĮĢáĪĺáĪŃáĭ«
ĠáĪ±áĭ³áĬķáĬķ
ĠáĭķáĮ¥áīĤ
Ġáī°áĪĥáĭµáĪ¶
áī°áĪ«áīµ
ĠáĬķáĪ²
áĬĲáĭ©
ĠáĬŃáīĢ
ĠáĬŃáĮ¥áīĢáĪĿ
ĠáĬŃáī°áĪŃáįį
áĪ«áįħ
áĮĪáĪĬ
ĠáĭĺáīĥáĪį
ĠáĬĵáĭĵ
áĪ°áĭį
ĠáĭĪáĪ°áĬĲ
áĮłáĬĴ
ĠáĮ¥áī¡áīķ
áīĢáīµáĬķ
ĠáĬłáĭ°
ĠáĬłáĭŃáĬķ
ĠáĭĪáĭŃáĪĪ
Ġáī¤áīµáĮ½áĪķáįĪáīµ
ĠáĬ¨áĪĿáĭĿáīłáĪī
ĠáĪ³áĪķáī²
Ġáī¥áĭĿáĭĪ
Ġáĭ°áīĤáīħ
ĠáĪµáĪŃáīĤ
ĠáĪĿáĪĿáĪ«áĪķ
Ġáī°áĪ°áĪĬ
ĠáĭŃáĪµáĪ«áĪķ
ĠáĮ¸áĮĭáĬķ
Ġáī¥áĭķáī±áī¥
ĠáĪªáįĸáĪŃáīµ
áĭĶáĬķ
ĠáĬŃáī³áīłáī³áīµ
ĠáĭĿáĭ°áĪĪáĬ»áĭ®
ĠáĪĵáĪĬáįĭ
Ġáī¥áĮ¾áī±
ĠáīħáĭµáĪľáĬ¹áĪĿ
ĠáĬ£áĭ´áĬ»
ĠáĪķáĭŃáĭĪáī°áĭŃ
áĬĵáĪķáĬ©
Ġáī°áĪĺáĪŃáĭĵ
ĠáĪĵáī°áīµáĭİ
ĠáĭŃáĪĥáī¥áĬ©áĪĿ
tinue
áīµáĬ»áĬķ
ĠáĬ¥áĪĵáĪµáī¥
áĪįáĭ¨áĬķ
ĠáĭĿáĪĿáĬķ
ĠáĬķáĪĽáĬķáĪĿ
áĭµáĪĻ
ĠáĬ£áī¥áĭ«
Ġáī°áĪį
Ġáī°áĬŃáĬĸáĪİáĮĤ
ĠáĭŃáĪĵáĪµáī¡
áī¶áĭŃ
áĬŃáĪįáĬķ
áĮ¸áĪĺáĪī
áĪŀáĪĿáĬķ
Ġáĭļáī¥áĪĭáĭķ
áīĢáĪ³
ĠáīĢáĪ¨áīł
ĠáĭĺáĪİáĬ©áĪĿ
ĠáĬłáĪĿ
ĠáĬ¥áīµáĭĪ
áĬ£áīµáĭİ
áĪµáīµáĭįáĭĵáĪį
ĠáĭĿáĪĺáĮ½áĬ¡
Ġáĭ®áĪĵ
ĠáĮīáĭ³áĭŃáĬĵ
ĠáĪĺáĬķáįĪáĪ±
ĠáĪĥáī¥áĭİ
Ġáīłáī¥áĬ¥áĭĭáĬĳ
ĠáĬ£áĭļáĭ®áĪĿ
ĠáĬ£áĪķáĭĭáī°áĭŃáĬķ
ĠáĪĺáĮĭáī£áĬ¥
ĠáĪĴáĭĿáĬĵáĭ®
ĠáĭĺáĪĪáĭįáĭİ
ĠáĭŃáī¥áĪĪáĬ«
Ġ1998
ĠáįİáĪŃáĪĿ
ĠáįĸáĪĪáī²áĬ«áĬķ
áīĢáĪ³áīĲáĪµ
Ġáī¥áĭ¨áĪĽ
Ġáī¥áĪŃáī³áĭĲ
ĠáĮ¥áĪįáĪĺáīµ
43
ie
áĬķáī³áĬķ
áĪĿáī³áīµ
áīłáīħáĭķ
ĠáĬ¥áĭĥ
ĠáĬķáīĥ
ĠáĬķáĪŃáĬ£
áī£áĪī
áįįáĬĵáĭ®
áĮĪáĪ«
Ġáī°áīĨ
Ġáī°áĪĭáĬ¢
ĠáĬ¥áĬķáĪĥ
ĠáĬ¥áī²áĬłáĬķ
áĮĭáĪ©
Ġáĭ°áĪĮ
Ġáĭ¨áĪ±
Ġáĭ¨áĪ©áĪ³áĪĮáĪĿáĬķ
ĠáįįáĪĭ
ĠáĬ£áĪİáĭĭ
áĭīáīµ
ĠáĬłáīł
ĠáĬ¥áĪĿáĬĲáī±
áĬĽáī³áīµáĬķ
ĠáĬ¨áĭŃáĬ¨
ĠáĬķáĬ£áĮĪáĪįáĮįáĪİáīµ
Ġáī³áĭķáĪĬ
ĠáĬ¥áĪµáĪĺ
Ġáī¥áĪŃáī±
ĠáĮĮáĪ«
ĠáĮĪáĪĬáĬłáĬķ
áĮĪáĪĿáĮĭáĪĿ
ĠáĬ£áĬ¥áĮĭáĪŃ
ĠáĪĿáīµáĮįáī£áĪŃ
ĠáĬ£áīķáĪĳ
ĠáĭŃáĮįáĪĺáīµ
ĠáĬ£áĭŃáĬ®áĬķáĬĵáĬķ
áĪĭáĪĬáĬĵ
Ġáī°áĪ¸áĭŃ
ĠáīħáĬķáĬ¢
ĠáĬ£áĪħáĮīáĪŃ
ĠáīĺáĪįáĭĳ
ĠáĭĿáĪĺáĪįáĬł
ĠáĬ£áĭŃáĭ°áĪĪáĭ¨áĬķ
ĠáĪĺáīµáĬ¨áĪĭáīµ
ĠáĭļáĪĿáī£áī¥
ĠáįĸáĪĪáī²áĬ¨áĬĽáī³áīµ
ot
ĠáĬ£áīĿ
ĠáĬ¥áĬ¨áĪĪ
áĪµáĪĺáĪ«
ĠáĭĿáĭŃ
áįįáĭ©
Ġáĭĺáī°áĪĵáĪ³áĪµ
áĪİáĬĵ
áĬ«áĪĿ
ĠáĭµáĪĪ
ĠáĬ¨áĪĿáī°
ĠáīµáĪ¨áĬ½áī¦
áĭ¨áĪ©
áĭĽáĭĬ
Ġáĭ°áĪĪáĭ©
ĠáĭķáĪįáĭĭ
ĠáĬ®áĬĵ
ĠáįĪáī³áĭį
áīĵáĭĬ
áĪŃáīµáĪ«áĭįáĭ«áĬķ
ĠáĬķáĬ£áī¦áĭŃ
ĠáĭĿáĬ¾áĬĲáĬķ
ĠáĪĺáĪµáĪŃ
ĠáĬºáįįáĮ¸áĪĿ
ĠáĬķáĪķáĬĵáĬ¸
ĠáĪĵáĪ³áī¥áĬ«
ĠáĪĵáĭ²áĬ¦áĪĿ
ĠáĪĵáĪ³áī£áīµáĬķ
áĪ¨áĬ½áī¡áĬķ
áĬĵáī¥áī²
ĠáīĨáĪįáĭĳáĬķ
ĠáĭĿáĮįáĪĺáīµ
ĠáĬķáĮīáĭ³áĭŃ
áĬĲáĮįáĪ®áĪĿ
ĠáĪįáĭķáĪįáĬĵ
ĠáĭĿáĪ°áĪŃáĪĵ
ung
Ġáī°áĭĵáĭĬáī±
áĮįáĪ¥áī²
Ġáī°áĪ¨áĮĭáĮĬáĮ¹
ĠáĪ²áĬĸáĭ¶áĪµ
ĠáĭĿáĪķáĮįáĭĻ
ĠáĬķáĪ°áĪĿáĭķ
Ġáī¥áĭŃáĬķ
ĠáĪĿáĬ»áĬķ
ĠáĬ¨áĭµáĪķáĬķ
áĪ¨áĬ»
Ġáĭĺáī°áĪĵ
Ġáī°áĪ»
ĠáĪµáįĵ
áĭ³áĪ´
ĠáĬ£áĭŃáįįáĪĪáĮ¥áĬķ
áĬŃáĪŀ
ĠáĭĵáįĭáĪŃ
Ġáĭ¨áĪµ
ĠáĭĺáĭŃáįĪáĪįáĮ¦
ĠáĬ¥áĬķáī°áĬ¸
ĠáĭļáĮ¸áĪį
áĭīáĪŃ
Ġáī£áī£
áĪ¬áĭµ
ĠáĪŀáĭŃáī³
áįħáī²
Ġáī¥áĭĿáĪĪáĭĵáĪĪ
ĠáĮłáī¢
ĠáĬ¥áĪµáĪĭáĪĽáĭĬ
Ġáĭ°áīĤáĪ°áī£áīµ
áĭªáĭ±
Ġáĭ°áĬ£áĪµ
áĮĪáī¥áĪ®áĬķ
ĠáĪ²áĪĿ
ĠáįįáĪīáĮ£áīµ
ĠáĭĿáįįáīµáĬķ
ĠáĭĺáĭŃáĪĿáįįáĪĭáĮ¥
áĪĺáĪ°áĪĪ
ĠáĮīáĭķáĭŀáĬĵ
ĠáĬ¥áĬķáĭµáĭ¨
áĪĥáĭµáĪĻ
Ġáī°áĪĽáĪĤáĪ©
ĠáīĳáĮ½áĪª
áĪķáĭĭáī±
ĠáĪĺáĮ»áĪĿáĭµáī²
áĪĺáĪĵáĪĭáĪįáįį
Ġáī¥áĭµáĪĿáĮº
ĠáĬ¥áĬķáī°áĭĢáĭŃáĬĳ
ĠáĪ³áĪĿáĬķáī³áīµ
ĠáĪĿáīµáĪķáĮįáĮĭáĭĿ
ĠComment
áĪı
ĠáĬ¥áĪĭ
ĠáĬ¥áĪĺáĪµáĪĪáĬĴ
áĬĵáĭ«
ĠáĭĿáĮįáī£
ĠáĭĿáĭĽáĪ¨áī¦
Ġáī¥áī¤áīµ
áĬ£áī²
áĭµáĭĭ
áĪ«áĭª
áĮįáĭİ
áĮįáĭľáĬ¡
Ġáī°áīĭ
ĠáĭŃáĮĪáīłáĪŃ
ĠáĪµáĪİ
ĠáĬ£áĭŃáĪĿáĪįáĬ¨
áĪ©áī£áīµ
áĭĺáĪĺ
ĠáĪķáĮķ
áĪĥáĭ®
Ġáĭįáīħáĭ«
ĠáĬ¨áĭŃáĪĺáĪµ
áĮĪáī¥áĪ¨áĬķ
Ġáĭľáī¥
ĠáĬ£áĭŃáīµáĪĿ
áįħáĬł
ĠáĬķáĬ£áĬķ
áī¤áīµáĬ«
áīłáĪĪáĬĵ
áĪĺáĪįáĪµ
Ġáī¥áĪĺáĭĵáĪį
ĠáĪ°áĪĽáĪŃáĭ«
ĠáĬ£áĪĿáĪĭáĬ¾áĪĿ
ĠáĭĪáĭ«áĬĵáĭŃ
ĠáĬ®áĭŃáĬķáĬ©áĪĿ
ĠáĬ£áĭ´áĬĵ
ĠáĬķáĬĲáī¥áĪµáĬ»
ĠáĮįáĪĿáī£áĪŃ
ĠáĬķáĮİáĭŃáī³
áī°áī£áĭķáīµáĭ®
ĠáĬ¨áĬķáī²áī£
Ġáī°áĭ°áĮĭáĮĭáĪļ
"!
ion
ĠáĭĿáįħ
ĠáĪĺáįįáĪ¨
áī£áī±
áĪ«áī²
áĭķáĭĪáīµ
áĭ°áĪ©
áĪīáĭķ
ĠáĭĺáĬ«áĭŃáĭµ
ĠáĭŃáĮĪáĪįáĮ¾
áĬŃáī¡
áĬŃáĪĮ
áĭĽáĪķ
áĭĺáĬ¨
ĠáĪĥáĬķáīĢ
Ġáĭļáĭĵáī¢
Ġáīħáĭ«
ĠáĭķáĪ¨
ĠáĮ¸áĭĭáĭķáī³
ĠáīĢáĮł
áįĬáī±
ĠáĪŀáĪ³
ĠáĬķáĭĵáĬ»áĬķ
áĬĲáī³áīµáĬķ
ĠáīµáĪĿáĪħáĪŃáī³áĭĬ
ĠáīĨáĪĭáĪķáī³
Ġáĭ®áĪĿ
ĠáĬ£áĭįáĮ½áĬ£
áĪĭáĬ¥áī³
ĠáĪĿáįįáĪ«áĪµ
ĠáĭĿáįĪáī°
ĠáĪ°áĪĽáĭ«áīµáĬķ
ĠáĪĿáĮ½áĭĭáĭķ
ĠáĪĺáĪªáĮ¸
ĠáįķáĪ¨áĭĿáĭ°áĬķáīµ
ĠáĮ½áĬķáĬ©áĪŃ
ĠáĭĪáĮºáĬł
áĪµáī³áįį
ĠáĬķáĬ»áĪįáĬ£áĭŃ
ĠáĪĵáī°áī¶áĪĿ
ĠáĭĿáĪ¨áĬ¸áī¦
ĠáĪĿáĪĿáĪĭáĬ¥
Ġáī¥áīĢáĪĬáĪī
ĠáĪĿáĮħáĪĽáĪ©
ĠáĭĪáįĪáĭ«
ĠáĭĪáĮ»áĬ¥áĬķ
ĠáĬ¥áĬĵáĪĺáĪ°áĮįáĬĵáĪĪáĬķ
Ġáī¥áĬ»áĪį
ĠáĬ¨áĮ½áĬķ
áĪĽáĪŃáĬŃ
ĠáĭĺáīłáĪŃ
ĠáĭĺáīķáĪŃáī¥
ĠáĪ°áĮĪ
ĠáĪµáĮįáĪŃ
áĪ³áĭįáĭ«áĬķáĬķ
ĠáĮįáĪ²
ĠáĬ£áĭŃáĬ£áĪĿáĬķáĬķ
ĠáĭĵáīĤ
áĭĭáĭķáī²
áĭ®áīµ
Ġáĭ¨áĬ½áĬ¥
áĪ²áī¡
áĬ¾áĬĴ
ĠáĬŃáĬķáĪħáī¥
áįĭáīĲ
ĠáĬ¤áĪª
ĠáĬ¤áĪªáīµ
áĭĴáĬķáīµ
ĠáĭĭáĬĴ
ĠáĪŃáĬ¥áĭ«
ĠáĬķáĪ³áĪįáĪ³áĭŃ
ĠáĬķáĭĿáĬĲáīłáĪ¨
ĠáĪĺáī¥áĭĿ
ĠáĪĿáįįáĪŃ
ĠáĪĺáĭĵáĭĿ
ĠáĬ£áĪĽáĬ»áĪª
ĠáįĭáĪ²áĬ«
ĠáĮ¸áĮĪáĪĿáĬĵ
ĠáĭĺáĭŃáĪĿáĭĥ
ĠáĪĵáĭ²áĮī
áīłáĪĭáĪ¸
ĠáĭĪáĮºáĬ£
ĠáīµáĭķáĭĿáī¥
ĠáįİáĪŃ
ĠáĪ¾áĪŀáĬķáī°
ĠáīłáĪĬáĪķ
ĠáĪĮáĪĭ
ĠáĮ¸áĭĬáĭĸáĪĿ
Ġáī¥áĮ»áĭ©
ĠáĮ¸áĪĭáĬ¥áīµáĬĵ
Ġáī°áĮĵáĭĵáĭĿ
ĠáĪĤáĭĪáī±
ĠáĪĿáĮįáī£áĪ©
hai
ĠáĪĪáĪĿáĪĪáĪĿ
ĠáįĭáĭŃáĬĵáĬķáĪµ
ĠáĬĵáĮ½áĬĲáīµáĬķ
Ġáīłáĭ¨áĬĲ
ĠáĪĿáĬ½áĬĴáĭ«áī±
áī¡áĬ«áĭµáĬĲáĮ»áĪŃ
sp
ĠáĭĿáĪ°áĪĿáĭĸ
ĠáĬķáĪ¥
áī³áĬĵ
ĠáĪĺáįĥ
ĠáĪĺáĪ¨áī¥
ĠáĬŃáĭĪáĪµáĭ°
áĬ£áĪĺáĬķ
ĠáĬĲáī£áĪŃ
áĬ«áĪĭ
ĠáĪĵáĪ°áī¥áĬ©
áĪĵáĭį
ĠáĭµáĪĭ
ĠáĬ«áĪ«
ĠáĬ£áĭŃáĪŃáĪµ
áĬ»áĬĴ
ĠáīµáĪ¨áĬ½áī¡
áĮĭáĮįáī£
áĪ²áĬ¡
ĠáĪĥáĪĿ
ĠáĬ¥áī°áĭĺáĪŃ
áĪĨáĪįáĪĿ
Ġáī¥áĪĵáĮĪáĭĿ
áĮĢáĪĺáĪ©
ĠáĬ¨áī°áĬķáī¥áī¥
ĠáĬķáĪµáĬ»áĭįáĬķ
Ġ56
ĠáĮĲáĭŃ
Ġáĭ®áĪŃáĬŃ
ĠáĪĤáī¥áĭİ
ĠáĪĽáĭķáīĢáī¥
Ġáī¥áĭĺáĪ¨áī£
ĠáĬķáĬ¹áĪĭáīµáĬĵ
ĠáĪĵáĪĭáīĳ
ĠáĮ¸áĬĴáĭĳ
ĠĠĠĠ
ĠáĪĥáī¥áī³
ĠáĪĿáĮ½áĬ£áīµ
Ġ2003
ĠáĬłáĪĿáĪĭáĬ½áĬĵ
ĠáĪĵáĮ¢áĬ£áīµáĬĵ
ĠáīłáĮºáĪĸáĪĿ
Ġáī°áĪĺáĪįáĬ¨áī±
Ġáĭĺáī¥áĭĲáĬĽ
ĠáĪĺáĭĺáĬ»áĬ¸áĪª
ĠáĬ£áĮĪáĪįáĮįáĪİáīµáĬķ
ĠáĭĺáĭŃáĬĲáīłáĪ®
ĠáĬ£áīĥáĪĬ
ĠáĭĺáĭŃáĬ¨áĬ£áĪĪ
ĠáĪĵáĪļáĪĻ
ĠáĬ£áĭŃáįĭáĪīáĬķ
ĠáĬķáī¥áĪ¨áīµáĬķ
ĠáĪ¶áĪĽáĪįáĭ«
ĠáĮ½áĪĭáĪİáīµ
ĠáĭµáĬ¹áĪĽáīµ
ĠáĪħáī¦áī¥áĪĭ
ĠáĬ£áī¤áīµ
ĠáĬ¥áĪ°
ĠáĬ¥áĪĺáĬķ
ĠáĬ¥áĪ¾
ĠáĭĿáĪħáīłáĬĵ
ĠáĬŃáīłáĪįáĭĳ
áĭµáĭ®áĪĿ
áĪķáĭĭáīµ
áĪĭáĮ¢
ĠáĭĺáĮ½áĬķ
áĭ«áī°áĭŃ
ĠáĭĵáĭµáĬķ
áĭĺáįįáī²
Ġáĭ¨áĭĭ
ĠáĪĺáĬķáĮ½áĪŃ
ĠáĭĿáī°áĪĺáĪ¨
ĠáĬ©áī¡áĪŃ
ĠáĮ¸áīł
áįħáĪª
Ġáī¥áĭĿáīĲ
ĠáĬ£áįįáīĥ
áĪµáīµáĪŃáĭ«
ĠáĮİáĭµáĬĴ
áĬŃáī¥áĪª
ĠáĬķáĭĿáĪĺáĮ½áĬ¥
Ġáī°áĭĪáĮ¢
áĪħáĪįáĭĪ
Ġáī°áĪĵáī£
ĠáĪĤáī¥áĬĵ
ĠáĬ¬áĬķ
ĠáĬķáĮįáĭµáĬķ
áĮĪáī¥áĪ¨áĬ«
ĠáĪĵáĪĭáĭį
ĠáĪĥáī¥áĭİáĪĿ
ĠáĭĺáĭŃáīµáįĪáĪįáĮ¦
ĠáĪĵáĪŃáīłáĬĽáī³áīµ
Ġáī°áĪĺáĪĬáĪµáĬĵ
ĠáĭįáĪķáĪµ
ĠáĪŃáĬ¢áĬĵáĭ®
ĠáĪĺáĭĺáĬ¨áĪŃ
ĠáįĭáĭŃáĭ³
ĠáĪ¶áĪŃáĭ«áĭįáĭ«áĬķ
ĠáĪļáĪµáĭ®
Ġáĭ°áĭµáĪķáĪªáĬ¡
ĠáĬ¥áĬķáī°áĪĥáĪĪáĭĪ
ĠáĪķáįĥáĬķ
Ġáī¥áĭķáĪĿáīĨáīµ
Ġorg
ĠáĪ³áĬķáī²áĪĿ
ĠáĬ¥áĪº
áī°áĪ¨
ĠáĬŃáī£áĪŃ
ĠáĬŃáĮ¥áīĢáĪĺáĪī
ĠáĪĿáĬĴ
ĠáĬ¨áīł
ĠáĬ£áī¥áĭĺ
áĪĺáĪĥáĪ®
áĪķáĪ²
áĮĪáĪ®áĪĿ
Ġáĭĺáī£
ĠáĭŃáĪ¨áĬ£
ĠáĬ£áĭŃáĪŃáĬ¨áī¥áĬķ
Ġáĭ°áĪª
ĠáĬ¥áĭļáĬ¤áĬķ
ĠáĪĽáĪµ
áĬ¦áī³áīµ
ĠáįįáĪĪ
ĠáĭļáĪ°áĪĿáĭķ
ĠáĭĿáī°áĭ°
ĠáįĪáįĥ
ĠáĭĿáīłáĪįáĬĵ
ĠáĬķáĪµáĪĽáĭķ
ĠáĪĪáĭī
ĠáĬµáĪĭáīµáĬ©áĪĿ
ĠáĪĺáĮ½áĪĵ
áī°áĬķáĬ¨
ĠáĬķáĪķáĮĤ
ĠáĭĪáĭ²áĪ°áī¥
Ġáī¥áĬ¸áĬķáī±
ĠáĬ²áĪĪáĬķ
áīµáĬ«áĬ¥
ĠáĮŃáĬķ
ĠáĭĿáīĲáĮ¸áĪĪ
ĠáĬķáĭµáįĬ
ĠáĬ¤áĭįáĪ®áįĵ
ĠáĭĵáĪŃáĬ©
ĠáĬ®áĪļáĪ½
ĠáĭĿáĮįáī¥áĬ£áĬĵ
ĠáĬ£áĪ¨áĮĭáĭĬ
ĠáĬķáĪĿáĭįáĮ»áĬ¥
ĠáĬ£áĮįáĬ£áĭĿáĭ«áĬķ
áĪĵáĪĪáįī
ĠáĪĺáĭķáīĪ
ĠáĭįáĭķáĪİ
ĠáĭĪáĬĲáĬķáī²
ĠáĬ£áĭŃáī°áĪ«áĬ¥áĭ¨áĬķ
Ġáī¥áĮłáīķáĪĭáĪĭ
ĠáĪĺáĭķáīĨáī¢
tr
Ġst
áĬķáĭİ
ĠáĭĿáĮłáįįáĬ¥
ĠáĬŃáĭī
ĠáĬŃáĬ£áĪĿáĬķ
áĪ¨áīĲ
áī£áī³
ĠáĪ°áĪĽáĬķ
áĮ½áĮ½áĪŃ
áĮ¥áīķ
Ġáį«
áĭ±áĪĪáĭŃ
áįĭáĮ¥
ĠáĬ¤áĮĢáĬķáĪ²
ĠáĬ£áĭŃáī°áįĪáĪįáĮłáĬķ
Ġ57
Ġáī°áĭĪáĭ³áĭ°áĪŃáī²
ĠáĭĿáĬ£áĪĺáĬĲ
ĠáĪĿáĪķáĪ¨áīµáĬķ
ĠáĭĿáĭĢáĬķáĬĵ
áĭµáĬ«áĭ®
áĬ«áĭ¨áĭ±
Ġáī°áĭĽáĪ«
ĠáĬ¨áĪĿáĭĺáĭŃáī°
ĠáĬŃáĪħáĪįáĭĭ
ĠáĬŃáĭĪáĪŃ
ĠáĬ£áĪĺáĪªáĬ«áĭįáĭ«áĬķ
ĠáĬķáĬ¸áĭŃáīµ
Ġ2004
ĠáīµáĪĿáĬŃáĪķáī²
Ġáī°áĭ°áĪª
ĠáĬŃáĮĪáī¥áĪŃáĭİ
Ġáī¥áĪĽáĬ¥
áī¥áĭĵáĪĿ
ĠáĭŃáĪµáĪĿáĭĵáĬ«
Ġáī¥áĪĵáĬķáĪ³áĬ¥
ĠáĭĺáĮ¸áĮįáĪĿ
Ġne
Ġáī¥áĪĥáĬķáīĢáĭįáī³
ĠáĪĵáĪįáĭ®áīµáĬķ
Ġáī¥áĪķáĪįáĪļ
ĠáĬ£áĪŃáī£áĭķáī°áĬķ
Ġáī¥áĭµáĪķáĪŃáĭļ
ĠáĪĺáĭĪáĭ³áĬ¥áīµáĬ¡
ĠáĮįáĬķáĭĽáīł
ĠáĪĺáĮłáĭŃáīķ
ĠáįķáĪ®áįĮáĪ°áĪŃ
ht
áĬĵáĪķáĬĵ
ĠáĬķáĭ¶
ĠáĪĺáĮī
áĮĪáĪĺ
ĠáĪĵáĭĭ
ĠáĭŃáĮ¥áīĢáĪĻ
ĠáĪ°áī²
ĠáĬ¨áĪĿáĭŃ
áĭ¨áĭ®
áĭĺáĬ©áĪĿ
áĪ®áĪĽ
Ġáĭ¨áĭµ
áĬ©áĪĿáĭİáĬķ
áĭ±áĪŃ
ĠáĮ¥áĬķáī³
ĠáĬŃáĬķáĮį
ĠáĬŃáĬķáĮ¥áīĢáĪĿ
ĠáĭĪáĭŃáĭµáĪĽ
áĮĬáĪ±
ĠáĪħáĭĿáī¦áĪĿ
áįīáĬĴ
ĠáĬ¨áĭŃáįĪáĪĪáĮ¥
Ġáī°áĪĺáĪĭáĪĪáĪ±
ĠáĪĺáĪįáĬ¨áįį
áĮħáĪĽáĪŃ
ĠáĬ£áįįáīĢ
ĠáĪµáĪŃáĪĵ
Ġáī¥áĬ£áįį
ĠáĭĿáīłáĪĪáįĢ
áĪŃáĪķáĬķ
ĠáĪĭáī²áĬķ
ĠáįĢáĪ¨
ĠáĪĿáĭįáĪ«áĭµ
áĬķáī³áĪį
ĠáįĵáĬª
ĠáĬ£áĪ°áĪįáĮ£
ĠáĬĥáĭŃ
ĠáĬ£áĪĪáĭįáĭİ
ĠáĪĵáĭįáĬ«
Ġáī¥áĬ½áĭ«áīµ
ĠáĭĿáĮįáīłáĬ£áĬĵ
ĠáĮĥáĬķáĭ³
ĠáĪĽáĬ¥áĬ¨áĪįáĬ©áĪĿ
Ġáī°áĪ³áĬ¢áĬĳ
Ġáī¥áĪĿáĭĥáĬĸáĪĿ
Ġáī¶áĬķ
áĭĪáĮ½áĬ¥áĬķ
Ġáī°áĪĭáĭĴ
áĭ°áĪ¨áĪ½áĬķ
ĠáĮ½áĪĿáĭĭ
Ġáī¥áĭļáĪĿáĪįáĬ¨áīµ
ĠáĭŃáĪĺáĪŃáĪķ
ĠáĬ£áĭ¨áĭµáĪįáĭ¨áĬĵáĬķ
ĠáĪħáĬķáĮ»áī³áīµ
ĠáĪ°áĪ«áĭĬáīµáĬķ
ĠáīµáĬ¥áĭĽáĭĽáīµáĬ«
ĠáįķáĪĭáĬĶáīµ
ĠáĬªáīĲáīµáĪįáĭİ
ĠáīĭáĬķáīĭáĬķ
ĠáĬ¢áĬķáĭ³áĪµáīµáĪª
ĠáĬ¢áĬķáĪ¹áĪ«áĬķáĪµ
Ġáī³áĭķáĪĬáĪĿ
ĠáĬĤ
áĬķáĪµáīµáĭ®
ĠáĬ¥áĭŃ
áīłáĪĪáĬķ
ĠáĬķáĮ¥áįį
áĬĲáī°áĬķ
ĠáĪĿáĬĵáĭ³
áĪĺáĪĥáĪ©
áįįáīĵáĭµ
áĮįáĪĽ
ĠáĭĺáĪµáĪĿáĭķ
ĠáĬĲáĬķáī¥áī¥
áĪĵáĪĴ
áĪ°áĪ«áĪķ
áĭ³áĬĵ
ĠáĬ£áĭŃáĮĪáĭ°
áĪħáĪħ
áĭ¨áĭ©
áĬĳáĪµ
ĠáĭįáĪ»
ĠáĭĿáī°áĬ»áĭ¨
áīħáīħ
áīĢáĪ°
áĬ®áĬĵ
ĠáĬ®áĪĪáĪį
ĠáĮ½áĪĵáįį
áĭĳáĪĿ
áĮ¢áĪŀ
áįĥáīµ
ĠáīĨáĪª
ĠáĬ¦áĪİáĪĿ
Ġ66
ĠáĪĴáĪ³áī¥
áĬŃáĬķáĭ°áĭŃ
ĠáĬķáĬĲáĮĢáĭį
ĠáĬ£áĮĪáĭ³áĪµ
Ġáī°áĬ¸áī³áī³áĪĬ
ĠáĭķáĬķáī£áī£
ĠáĮ¥áĬķáīģ
ĠáĮ¥áĪŃáĭĵ
Ġáī¥áĪĿáĪµáĮ¢áĪŃ
ĠáĪ¹áĭµáĪ½áī°
ĠáĬłáĬķáī³áĭŃ
ĠáĪħáĪįáĭĬ
ĠáĬ£áįįáĪĬáĮ£
ube
ĠáĬ¦áĪŃáī¶áĭ¶áĬŃáĪµ
kk
áĪŃáĬĵáĬķ
ĠáĬŃáīĳ
ĠáĪĿáĪī
áĪĺáĪ«áĬķ
áĮ½áĪĵáĬĵ
ĠáīµáĮįáī£áĪ¨
áĮ¥áĭĲ
áĭĭáī±
ĠáĪĽáĪµáĬŃ
ĠáĭįáĪµáī°
ĠáĭļáĪŃáĬ¨áī¡
ĠáĭĿáī°áĪ³áī°áįī
ĠáĬŃáīµáĬ¥
Ġáĭķáĭį
áĭľáĪĽ
áĪŃáĪµáĭĭ
áĪĺáĪŃáĮ¹
áĪľáĪĮáĬŃ
áįĪáīµáĪĲ
Ġáī¥áįįáīķ
Ġáī¥áī°áįĪáĮ¥áĪ®
ĠáĬ½áĬķáĬĲáī¥áĪŃ
Ġáī¥áĭĵáī¥
ĠáĭĿáįįáĮ½áĪĿ
ĠáĬŃáĭĪáĪĥáī¦
ĠáĬŃáĭįáĪµáĬ½
ĠáĪĿáĭķáĪ«áįĭáīµ
Ġáī°áĬĲáĮĬ
ĠáĮ½áĭµáīħáĬķ
ĠáĭĺáĪķáįįáĪŃ
ĠáĪµáĪĿáĪĿáĭķáĬĲáīµ
ĠáĭĿáī¥áĬ¢
áĬŃáī¶áĪŃ
ĠáĪħáĬķáįĥ
ĠáĬŃáĬŃáĬŃáĬŃ
ĠáĭĿáĬ¸áīłáĪŃáĬ«
Ġáĭ¨áĭķáĪ©áĬ½
ĠáĬ£áĮ¥áįĬáĬ¡
ĠáĮķáĭµáĮĵáĭµ
ĠáĮįáĪĪáĮ½
ĠáĭĵáĪ¨áī¥áĬķ
ĠáĭĿáįĢáĬķáĪĲ
ĠáĪĿáĪĿáĪįáĪĭáĪµ
ĠáĪ¶áįįáīµáĭĮáĪŃ
ĠáĪĺáĭĽáĭĺáĪļ
sc
áĬķáĪķ
áīµáĪī
áĪµáĪ©
ĠáĭĿáĮįáĭ°
áĬ¥áĬª
ĠáĪĿáĬ³
ĠáĪĿáĪ»
áĪ©áĪµ
áĬ¸áĬ«
áĪĥáĪįáĬķ
áĮ¸áī¡
áĮłáĪĪ
ĠáĬ¥áĬķáī°áĪĺ
áīĢáĪĪ
ĠáĬŃáīµáĮ¥áīĢáĪĿ
áĭīáĭķ
áįĭáĪķáī²
ĠáĬ¥áī°áĪĵ
ĠáĬ£áĭŃáīµáĭį
áĭĽáĪ¨áīłáĬĵ
áĪĤáĬķ
áīĨáĪį
ĠáĬ»áī£áĭŃ
ĠáĬķáĭĿáīłáĪĪ
ĠáĮĲáĭµáĬĴ
ĠáīĨáĬķ
ĠáĬ£áĮĪáĭ³áĪµáĬķ
ĠáĬķáĮĪáĪ©
áīłáĭ¨áĬĵ
Ġáĭ°áĮĬáĪĿáĬ«
ĠáĬ£áįįáĪªáīĥáĭĬ
ĠáĭĿáĭµáĮį
Ġáī¥áĮ¥áĭŃáīµ
Ġáī¥áĪŃáĪĥáĬĳ
ĠáĪĺáĪĽáĪħáĪ«áĬķ
ĠáĪĥáĬķáĭ°áīłáī³áĭĬ
Ġáī°áīĲáī²áĪī
ĠáĭĺáĬ«áĪŃáĭ«áĪµ
Ġáī£áĬ¥áī³áī³áīµ
Ġáī¥áīµáĭķáĮįáĪµáī²
ĠáĬ«áĪĪáĬ¦áīµ
ĠáĬ®áĪĮáĮħ
áĪŃáĬŃáĬķ
ĠáĭĿáĮħáĪĺáĪŃ
ĠáĬŃáĮ»áĭĪáīµ
áĪĺáĬĵáĭĬ
áĮĪáĪª
áĭ°áĪĪáĬķ
ĠáĭŃáĮĲ
ĠáĭŃáĪķáĮįáĭĺáĬĵ
ĠáĬ¢áī³
ĠáīµáĮħáĪĿáĪŃ
áĪħáĬĲáīµ
áĭ¨áĪį
ĠáĮĪáĪį
ĠáĮĪáįĬáĪķ
ĠáĭļáĬ£áĪĿáĬķ
áĮĪáĪŃáĪĿáĬķ
áĪ«áīµáĬĴ
ĠáĭĵáĪĺáĮ½áĬķ
Ġáī¥áĪĿáĪįáĬ¥
ĠáĬ¥áī°áī£áĪħáĪĪ
ĠáĪŀáĪ«áĪį
ĠáĬķáĭĵáĪĺáī³
áĮĲáĮķ
ĠáĬĲáįįáĪµáĬĵ
áĮŃáĬķ
ĠáĭĽáĭļ
ĠáĮĭáĪħáĭ²
ĠáĬķáĮĪáĪ®áĪĿ
ĠáĮįáī¥áĮ½áĬķ
ĠáĭĺáĪĭáīĴ
Ġáī¥áĪħáĭĿ
ĠáĬ«áī£áĬ¹áĪĿ
Ġáī°áĮ»áĭĭáī³áĭŃ
ĠáĬķáĮ½áĪħáĬĵ
ĠáĬķáĭĺáĪĪáĭİ
ĠáĭĿáĭ°áĭ¨
áĭķáī¥áĭ®
ĠáĪ¨áĬ¸áī¡
ĠáĭŃáĪĵáī±
edia
ĠáĬ£áĪķáĪĬáįİáĪĿ
ĠáĬ£áĭŃáĬ°áĬķáĬĵáĬķ
ĠáīłáĭŃáĬķáĬĵ
ĠáĭĿáĪĿáĪįáĬ¨áī±
ĠáĬŃáĬ¥áĪĪáīµáĬķ
ĠáĭŃáĮ½áīłáĭ©
ĠáĪĥáī¡áĬĴ
ĠáĪªáĬ¢áī¶
áĭ«áĪµáįĸáĪ«
*+
áĪĪáĬĵáĬķ
áĪĪáĭįáī²
ĠáĭĿáĪĿáĪį
Ġáī¥áĮĥ
áĬ£áī±áĬķ
áĮĪáĬĳ
Ġáī°áįįáīħ
ĠáĪ°áĬ£
ĠáĪ°áĭ°áĭµ
áĪªáĬ®
áĭĪáĭ°áĬķ
ĠáīµáįĪáī±
Ġáĭ°áĪĺáĭŃ
ĠáĪħáĮĤ
ĠáĭĺáĭŃáĭĵ
ĠáĭĺáĭŃáĪ¨áĬ£
áĪ½áī±áĬķ
Ġáĭįáĭ°áī£
ĠáĬŃáīµáįįáĮ½áĪĿ
áĬ¢áī±
ĠáĭĿáĬĲáī¥áĪ¨áĪī
ĠáĪķáĮĤáĬ¸
ĠáĬ¨áĪĿáĭĿáī¥áĪį
ĠáĬµáĬĲ
ĠáĬ£áĭŃáī°áĪĺáĪį
ĠáĪĵáīłáĪ»
ĠáĮĪáĬķáĭĺáī¡
ĠáĬ¬áī¥
ĠáĭµáĪĿáĮ»
ĠáĭĭáĪĭáĬ³
ĠáĭĿáĪ°áĬ£áĬĲ
ĠáĬ£áĮĪáĭ³áĪ²áīµ
áĪįáĭĵáĪī
ĠáĪĵáī¢áĪ¨áĬķ
Ġáī¥áĪķáī¡áĬ¥
ĠáĬ¥áĬķáī°áĬ¾áĭŃáĬĵ
ĠáĬķáĪ°áī¥áĬ£áĭ«
ĠáĪĺáīĲáīłáĪĬ
ĠáĭĿáĮįáīłáĪ¨
Ġáī°áĪªáįİáĪĿ
ĠáĬķáī£áĭķáĪİáĪĿ
ĠáĭĿáĪĺáĪŃáĪĸ
ĠáĪķáĮīáĪµáī²
ĠáĭĺáįįáīħáĪŃ
ĠáĭĪáĪ°áĬķáĬ©
ĠáĬ£áĪĥáĭĿ
ĠáĬķáī³áĪªáĬ½
ĠáĭŃáĪķáĪ¸áĬĴ
Ġáīłáĭ¨áĬĲáĭŃáī²
ĠáĬ£áĭŃáĪģáĭ³áĭĬ
ĠáĪŃáīµáĭĵáĭĬ
ĠáĬķáīĨáĪįáĭĳ
ĠáĮ¥áĪŃáĬĵáįĪ
\"
ist
ĠáĬ¥áįİ
áĪįáĪįáī²
áī°áĪª
áĪµáī¶
ĠáĪĺáįĥáĬ¢
ĠáĬ¨áĬ½
áĪĺáīħ
ĠáĭŃáĪŃáĬ¥áĭ®
Ġáīµáīħ
Ġáĭ°áĪĥ
ĠáĪĿáĪµáĭĵáī¥
Ġáĭ¨áī¥áĪī
ĠáĭįáĮ¥
ĠáĭļáĪĵ
ĠáĭļáĭĪáĪµáĭµ
ĠáĬŃáīµáĪ³áī°áįį
ĠáĬ©áĪŃ
ĠáĪįáī£áĭĬ
Ġáī£áĪĭ
ĠáĬ¥áī°áĭĽáĪ¨áī¥
ĠáĪĿáĭµáīĥ
ĠáĪŀáī°áĪŃ
ĠáĬķáĪĵáĮºáĪŃ
ĠáĬŃáįįáĪį
Ġáī¥áĭĺáĭŃáī°
ĠáĪµáĪĪáĭĿáĬ¾
ĠáĭµáĪĿáĮ¾áĪĿ
ĠáĪĺáĭĵáĪĭ
ĠáĬ£áĪĽáĬ¸
Ġ188
ĠáīĪáĮ¥áīĭáĮ¥
ĠáĭŃáįįáĮłáĪŃ
ĠáĪĺáī¥áĭĽáĪķáīµáĬłáĬķ
ĠáĪĵáĪĭáįįáĬĲáīµáĬķ
......
ĠáĬ£áĬ¥áĪĿáĪ®áĬ»
ĠáĪĢáī¦
áĪĿáĪįáĬ¨áī¶
ĠáĭĺáĪŃáĮĬáĪĳ
Ġáīµáĭ°áĪĬáĭ¶
ĠáĬ£áĭŃáĪ¨áĬ¸áīł
ĠáĪĵáĪ²áī¡
here
ĠáĪĺáī¥áĭĽáĪķáī°áĬķ
Ġáĭ°áĮĭáĮĬáĪĻ
Ġáī¥áĪĤáĭĪáīµ
Ġáī°áīĥáĭįáĪŀ
ĠáĬĲáĬĵáī¶áĪĿ
ĠáĪĺáī¥áĭĽáĪķáī²áĬ¡
ĠáĪĺáĭĽáĮįáī¥áī²
ĠáĬķáĮ¡áįį
ĠáĪĿáĪµáĪķáĪĵáī¥
ĠáĪĺáĪµáĪĺáĪ«áīµ
áĪĪáĬ¸
ĠáĬŃáīłáĪŃ
ĠáĪĿáĮ¥áĪŃ
ĠáĬ£áī¥áĪ«áĪĿ
Ġáĭĺáīĳ
áĬ½áĪĭ
áĪĬáĪķ
áĬŃáĪ®áĪĿ
ĠáīµáĬŃáĬ¥áĪį
ĠáīłáīłáĭŃ
Ġáīłáĭ°áĪī
ĠáīłáĬ¥áĬķáī°
ĠáĪĽáĬĵ
ĠáĭįáĬŃáĪįáĬĵ
ĠáĬ¨áĭŃáī°áĪĵ
ĠáĬ¥áĬĵáī°áĪĵ
ĠáĪĿáĭĥáĬĲáĬķ
ĠáĬ£áĭ¨áĪµáī°
ĠáĭĿáĭįáĪĥáī¥
ĠáĪĵáĭ²áĬ¡
áĬ£áĬĲáĪµ
ĠáĬķáĬ¸áĬķáī±
ĠáĬķáĮ½áī¡áīķ
ĠáĪħáĭ«áī£áīµ
ĠáĪĺáĭĵáĪµáĬ¨
ĠáĭĿáĪ¨áĬ£áĬĵáĭ®
ĠáĭĺáĭŃáĬķáī¡áĪŃ
ĠáĭľáĮĭáī³áīµáĬĵ
áĪĿáĪįáĬ¨áī¶áĪĿ
ĠáĬ¸áī°áĭįáĮ½áĬ£áĬ©áĪĿ
áĮ½áĭķáĬĸ
ĠáĬ£áĭ¨áĭµáĪįáĭ¨áĬ©áĪĿáĬķ
ê¬Ĥ
ĠáĪĺáī°áĮįáīłáĪª
ĠáĬ£áĪĺáĪĪáĬ»áĬ½áī³
od
áĪĿáĮįáī£áĪŃ
ĠáĬ£áĪ°áĬķ
ĠáĬķáĮķ
áĬ¥áĭĬ
ĠáĬŃáĪ¨áĪĿ
áī£áīł
ĠáĭŃáĪĪ
ĠáĭŃáīĳ
áĮ½áĮ»
ĠáĭĵáĪŀ
ĠáīµáĪŃáĬ¥áĭ®
ĠáĪĿáĪµáī³áĭŃ
Ġáĭ¨áĪ«áĬ½
ĠáĪįáīł
áĪĳáīķ
áĮ¢áĭĳ
ĠáĭĿáīłáĪįáĬĵáĭ®
áĪ¬áĬ»
ĠáĪĪáī¥áĭĴ
áĬ³áĪŃ
ĠáĪĿáĭµáĪĿ
ĠáĪ³áī£
ĠáĪĥáĮĪáĪ«áĭĬáīµ
áĭ°áĪįáĭŃáĭİ
ĠáĬķáĪĵáĪĻáĪ½áī°
Ġáĭ¨áĪ±áĪµáĬķ
áĮĲáĪ°
Ġáī¥áĬ£áĬĵ
ĠáĬ£áĪŃáī²
áĬĶáĪŃ
Ġ72
ĠáĬ¥áĬķáĭ³áīłáĪī
ĠáĮĭáĪį
ĠáĮĭáĪ«
áĮ¥áīĢáĪĺ
ĠáĪĿáĭķáīĥáī¥
ĠáĬķáĮĪáĮ½
ĠáĪĺáĭĿáĬĲáīµ
áĮ¥áĪĿáī³
áĮįáĪ¨áĪ½áĬķ
ĠáĭĺáĭŃáīµáįĪáĪįáĮ¥
ĠáĬŃáĪħáĪįáĭĪáĬ©áĪĿ
ĠáĪļáĬĴáĪµáī°áĪ«áīµ
ĠáĬķáĮ¥áīķ
ĠáĬŃáĪĺáĪĥáĪ©
áĭķáĪŃáįİ
áĪĺáĭĿáĮĪáī¥
ĠáĭľáĮĭáĮ¥áĪĿ
ĠáĭŃáĭĿáĬŃáĪŃ
ĠáĪ¨áĬ¸áī¥áĬ©
Ġáīªáĭµáĭ®áī³áīµ
ĠáĭĴáĪ«
ĠáĭĪáĪįáĭ±
ĠáĬŃáīłáĮ½áĪĳ
ĠáĮłáĭįáīķ
ĠáĬ¥áī°áĭĭáĪħáīł
ĠáīµáĬķáī³áĬĲ
Ġáĭ¨áĬ«áī²áīµ
ĠContinue
Ġáī¥áĪĿáĪįáĬ¥áī³
im
áĪĿáĪĽáĭķ
áĪµáĪī
ĠáĭĿáĭµáĪŃ
ĠáĬķáįģ
áĬĲáĪĽ
ĠáĬŃáĪĿáĪŃáĭĸ
ĠáĪĿáĮ¥áīĥáĪµ
áĪķáĭļ
áĮĪáī¢
áĮĪáĪ®
áĭļáĭ«
ĠáĬ¥áĬķáĮĪáī¥áĪŃ
ĠáĬ£áĭŃáĭķ
áīķáĭķ
áĭĺáĭĭ
áĬĳáĭĵáīµ
Ġáĭ¨áĬ½
ĠáĭĺáĭŃáĮ¸
áĪŀáĪŃ
ĠáĬŃáĬķáĪĵ
ĠáĬŃáĬķáĪŃáĭ³áĬ¥
áĮīáĭµ
ĠáĬ¥áĬĵáĮ¸
ĠáĬ£áĬķáī£áī¢
ĠáĬºáĪķ
ĠáĭĿáĪĺáĪ³áĪ°áĪį
ĠáĪ¸áĮ¥
Ġáī°áīĲáīłáĪī
ĠáĬ£áĪŃáĭĳáīµ
Ġáįįáīķáĭ²
ĠáĪĿáįįáĪ«áĭŃ
áĬħáĪŃ
rena
ĠáĮŃáĭĭ
ĠáĪĺáĪ³áĪįáĪį
áĭĿáĬķáĮĭáĭķ
ĠáĪ©áĪ²áĭ«
ĠáĬķáĮ¹áĪŃáĬķ
ĠáĪĢáī¦áĪĿ
ĠáĬ£áĮ½áĭĭ
ĠErit
ĠáĬŃáī¥áĪ®áĪĿ
ĠáĬ£áĭŃáįĪáī°
áĭ°áĮįáĪŀ
áĬĲáĮįáĪ¨áĬĵ
Ġáī°áĬķáĪ²áĬ¦áĪĿ
ĠáĬ£áī¦áī³áīµáĬ©áĪĿ
ĠáĪĺáĪĺáĪĭáĬ¥áī³
Ġ1980
Ġáī¥áĭįáĪĳáĭµ
ĠáĮŃáīĨáĬĵ
ĠáĪĺáĭķáĪĪáī¢
ĠáĪĿáĪįáĭįáĭĭáĮ¥
áĪĿáĮ½áĬ¦
ĠáĭĿáĪ°áĪĿáĭĳ
Ġáī¥áĭ²
ĠáĪĺáįį
ĠáĬŃáĮ¥áīĢáĪĻ
ĠáĬ¨áĪĲ
áī£áĪĬ
áĪķáĪ«áĭŃ
áĪķáĮĭáĭĬ
áĬ½áĪ©
áĪ°áīł
áĬŃáĭ©
ĠáĮĪáĪµ
Ġáĭ¨áĬ«áĭŃáĭµ
ĠáĪµáĪĪáĪĿ
ĠáĬ¸áĭ¨
ĠáĭļáĪµáĭķáī¡
áīħáĭ±áĪµ
ĠáĭķáĪ±
ĠáĬŃáĬķáĪ¨áĬ½áī¦
áĮĪáĪŃáĪĺáĬ«
ĠáīĢáĪŃ
ĠáĬķáĪĿáĪĿáĪµ
ĠáĪĥáĮĪáĪŃáĬ©áĪĿ
Ġáī°áĪĺáĪįáĬª
Ġáī³áĪĪáĬķáīµ
áĮĲáĪĿ
áī£áī¥áĪĭ
áī¥áĬĵáĪī
Ġáī¥áĬ¸áįĬáĪį
ĠáĪĿáīµáĪŃ
áĪįáĪĿáĬĸ
ĠáĭŃáįįáīµáĬķ
ĠáĬłáĪİáĬ¹áĪĿ
ĠáĬŃáīķáīłáĪį
ĠáĭĺáĭŃáĬ°áĭŃáĬĳ
ĠáĪĺáīĲáĮ¸áĪįáī³
ĠáĭķáĬķáĮ¨áĭŃáī²
ĠáīłáĪ¨áĬ¨áīµ
ĠáĬ¥áĬķáĭµáĭ«
ĠáĪĿáĪµáĮĭáĬĵáĭŃ
ĠáĮĪáīłáĪŃáĬ©
Ġ1994
ĠáĭĺáĭŃáĬ®áĬĲáīµ
ĠáĬ«áĪŃáī±áĪĿ
áĬ¨áī³áī°áĪİ
áīħáĭµáĪľ
ĠáįĢáĬĴáĪĳ
ĠáĭĿáĬĲáĮĪáĪŃáĬ©áĬ¹áĪĿ
).
ial
áįª
áĬķáĬ®
ĠáĬ£áĭįáĬķ
ĠáĬ£áĮĵ
áĪµáĭ©
áīłáĪ«áīµ
ĠáĭĿáĪĺáĬķ
ĠáĬŃáĭĢáĬĳ
áī£áī¶áĪĿ
ĠáĭĺáĬķáī¥áī¥
ĠáĭŃáĪħáī¦áĪĿ
áĭļáĬ¦áĪĿ
ĠáĬ¢áĪ®
ĠáĬ«áįĴ
ĠáĬ¨áĪĿáĬ¥áĬķ
ĠáĬ£áĭŃáĪ°áĪŃáĪķáĬķ
áĬ¸áĪĺ
Ġáĭ°áī¥áĪª
áĬĳáĬĴ
áĪ½áĬĵáĪį
áīłáĪŃáĬĵ
ĠáĮ¥áĭĴ
ĠáīĢáĪ²
ĠáĭĪáĭŃáĬķ
ĠáĬķáĪĿáīģ
ĠáĪ¨áĬ½áĪ²
ĠáĬ¥áīµáĪĿ
ĠáĬ¥áīµáĬ¸áĭŃáĭµ
Ġáĭ°áīĤáĬ£áĬķáĪµáīµáĭ®
ĠáĬķáĭĿáĭĢáĬĲ
ĠáĭĿáĭĪáĪŃ
áĮłáĬķáīħ
áĪįáĬ¥áĬ¨
ĠáĪĿáįįáĮ£
ĠáĬŃáĪħáīłáĬĵ
ĠáĬķáĪ°áĬĵáĭŃ
ĠáįĪáī°áĬĲáī³áīµ
ĠáĪľáī°áĪŃ
áĪĵáĭµáĮİ
ĠáĮ£áĪįáīĥ
ĠáĪĺáĮ¸áĭįáĭĴ
ĠáĪĵáĭįáĪ²
ĠNo
ĠáĪĦáĬĸáĬŃ
áĬ©áĭİáĪĿáĬķ
ĠáĮĪáĭ²áĪĿ
ĠáĪ°áĪªáĪķáĬĵ
ĠáĭĿáĮĪáīłáĪ¨áī¶
áĪĺáĮ¸áĬ«
ĠáĬķáĬ£áī¦áĬ¡
ĠáĪĺáįĪáĮ¸áĪĿ
ĠáĪĵáĮįáĭĺáĬĴ
ĠáĬ¥áĮįáĭĿáĬ£áī¥áĪĦáĪŃ
ĠáĭĮáī¥áĪ³áĭŃáīµ
Ġáĭ³áĪħáĪ³áĪµ
Ġáī±áĪªáĭĿáĪĿ
áį©
áĬķáĬ¥
áĪįáĬŃáĪį
áī°áĭĵ
áīłáĪ°
ĠáĬķáĮĲ
ĠáĬķáĮ¥áīĢáĪĿ
áĬĲáĭį
áĬ¥áĭĻáĭŃ
áĭµáĮĪáīµ
áĮįáī¡
ĠáĬĲáĮį
ĠáĭŃáĪĽ
áĭĪáĪĪáĭµ
ĠáĪķáĪµáī¥
Ġáĭ¨áĪĿáĮ½áĬ¥
ĠáĪĽáĪĽ
ĠáĪĥáī£
ĠáįįáĬĸ
ĠáĭļáĪĺáĮ¹
ĠáĮ½áĭķáĬĲáīµ
ĠáĬ¥áī°áĮĪáĪįáĮ¸
ĠáĪĪáĬ£
ĠáĬ£áĭŃáīµáĮįáīłáĪ©
ĠáĭĿáĪĵáĭĻ
ĠáĬķáĬ£áī£áĪĭáīµ
ĠáĪİáĪļáĭįáĬķ
ĠáĮłáĭĬ
ĠáĬķáĪķáĭŃáĭĪáīµ
ĠáĭĿáĪĺáĭ°
áĬŃáī¥áī¥
ĠáĪĿáĪķáĪĭ
ĠáĬ¨áĪĿáĭĺáĪĪáĬ«
Ġáī¥áĪĺáĭ°áī¥
áĬ£áĬķáī³
ĠáĬ¢áĬķáī´
Ġáĭ«áĬ¢
ĠáĮ¨áĪª
ĠáīµáĬķáįĭ
ĠáĭĿáĪĪáĬ£áĬ½
ĠáĭµáĪķáĬĲáīµáĬķ
Ġ2002
ĠáĬ£áī°áĬ²
ĠáĬ£áĭļáĬ»
áĬ«áĭŃáĭ³
ĠáĭĪáĮºáĬ¥áĬ«
all
ĠáĮįáĪįáįĤ
ĠáĪĤáī¡áĬĴ
ĠáĮįáĮ¥áĪĽáīµ
ĠáįĴáĬĸ
áĬ¥áĬķáī°áĬ¾áĬĲ
Ġáī°áĬ¸áī³áī°áĪī
ĠáĬ£áĬ¸áĪĪ
ĠáĪĵáĮĲáĪµáĬķ
áĪĵáĪķáįĭ
ĠáĬ«áĪľáĪ«
ĠáĬ£áĭ¨áĬķáīłáī¥áĬ©áĪĿáĬķ
han
ĠáĬ£áĬ®
áĪĪáĬ»áĭĬ
áīłáĭļ
áī²áĬ¦áĪĿ
áī²áīŃ
ĠáĭĿáĪ¨áĬ½áī¦
ĠáĭĿáĮĪáĪįáĮ¹
ĠáĬķáī°áĪĵ
áī£áĮ½
ĠáĬĲáĭ²áĬ¡
áįĪáĬł
ĠáĬ¥áĬķáĭ°
áĮ¸áĪ®
ĠáĭĺáĭŃáī¥áĪīáĬķ
áĪŀáī±áĬķ
ĠáĪĺáĬķáīłáĪ¨
ĠáĭļáĬ¨áĬ£áĪį
ĠáĭĿáī°áīĸ
áĬ¢áĪĪ
ĠáīĢáĪĭ
ĠáĪŃáĮīáĪĿ
ĠáĪŃáĪħáĪ«
ĠáĬĲáĭŃáĪŃáĬ©áĪĿ
ĠáĬķáĪĿáĬŃáīµ
ĠáĪ½áĮī
ĠáĬ£áĬĲáĮºáĪ©
áĪĵáīµáīµáĬķ
áĮİáĬĴ
ĠáĬ¥áĬĵáĭĪ
ĠáĬķáĪµáĪŃáĭĵáīµ
áĭµáĪķáĬĵ
Ġ58
Ġáī°áĭĪáĭ³
ĠáĬ£áĪķáĪī
ĠáĬ¨áĪĿáĭĺáĭµáĪĬ
ĠáĪµáĪįáī²
ĠáĪĿáįįáĬķ
ĠáĭĿáĪ°áĪĽáĪĽáĭķ
ĠáĬ£áĭ°áĬĵ
ĠáĪĵáī¢áĪ«
Ġáī°áĭĽáĪĽáĭ²
ĠáĮ¥áīķáĪįáĪįáī²
ĠáĪĺáĪ°áĪ¨áī³áĭįáĭ«áĬķ
áīĪáĪį
ĠáĭĪáĭ°áīĲ
ĠáĭĺáĬķáĮĬ
ĠáĭĿáĬ¸áįįáĬ¥
ĠáĭĪáĮįáĪĲ
áįĲáĪŃ
ĠáĭĬáĬª
ĠáĭĺáīłáĬĲ
Ġde
ĠáīµáĬ¥áĭĽáĭĽáī±
ĠáĮķáĭµáĬ£áīµ
ĠáĬķáĭĪáĪĪáĭ²
ĠáĭįáĮįáĬ£áīµ
Ġáīħáī¥áĪĬáīµ
áĪĺáĪĵáĭ¨áĪ¸
Ġáī°áĪĺáĭ²áī¡
ĠáĮĨáĪŃáĮħ
ĠáĪ»áĭµáĪ»áĭŃ
ft
áī°áĪĭ
áĪ¨áĪ©
áĬ«áĪļ
ĠáĪµáĭ«
áĮ½áĪįáĬķ
áĭĪáĪ±
ĠáĬ£áĭŃáĪĿáĪĪáĪ±áĬķ
ĠáīµáĪħáī¥
ĠáĬĵáĭŃáĭĿáĮĬ
ĠáĬŃáīµáĭĵ
ĠáĬŃáīµáĮ¥
Ġáī¥áĭĽáĭķáī£áĬ¹áĪĿ
áĮİáĪĺ
áĪĲáĭ³áĪ«
ĠáĪĪáĪĽ
ĠáĬ£áĭŃáīµáīĿ
Ġáī°áĪĺáĪĭáĪĬ
ĠáĪĵáĭŃáĪįáĬĵ
ĠáĮĢáĪļáĪ¨áĬķ
Ġáī¥áĬ¥áĪĿ
ĠáĬķáĮįáĪµáĬĲáīµ
áĪķáīµáĬ¦áĪĿ
ĠáĭĿáĪŃáĬ£
ĠáĪ°áĭĵáī±
ĠáĭĿáĪĪáĬ£áĬ¾
áĪĵáĪŃáĪŃ
ĠáĪĵáĪ³áī¦áĪĿ
end
ĠáĬŃáĪµáĪķ
áĭ°áĬ£áĬĴ
ĠáĭĿáīłáĪĪáĮ¸áīµ
Ġ1993
ĠáīłáĪĪáīµáĬĴ
ĠáĪķáĭŃáĭĪáī¶áĪĿ
Ġáī°áįĪáĮ¥áĪ®áĬ£áĭĬ
ĠáĪĵáĪ°áĬ»
ĠáĬķáĭįáĪīáĭµ
ĠáĬ¥áĬ¨áĭ®áĪĿ
ĠáĮİáĪµáĮĵáĪµ
ĠáįĵáīµáĪŃáĭ«áĪŃáĬŃ
NA
ĠáĬķáĭĽ
Ġáī°áĭ°áĬĵ
áĭĿáĭĿ
áĭĵáĪĭ
áĭĪáĮĢ
ĠáĭĵáĪ¶
áĬ»áĬĵ
áĪħáĮī
áī¢áī¡
áĭ²áĬ¦áĪĿ
ĠáĭĺáĭŃáįĪáĪĪáĮ¥
ĠáĬĵáī¥áī°áĬķ
ĠáīħáĮ½áĪį
ĠáĭķáĭĻáĭĿ
ĠáĬŃáĬķáĪĺáĭįáīµ
ĠáĮ¸áĪĿ
ĠáĪįáĬ¥
ĠáīĢáī³áĪĬ
ĠáĬªáĬĸ
ĠáĬ£áĬĲáī£áī¥áĪ«
ĠáĪŀáī°áīµ
ĠáĭĿáĪĵáĭĿ
ĠáĬĲáĮĪáĪ«
áĪŃáĬĵáįį
ĠáĬ°áĬķáĬ«
ĠáĬ£áĭįáĮ½áĬ¥
áĬŃáĪįáĬ»
ĠáĭĿáĭĢáĬĵ
ĠáĭĿáĭĢáĬķáĬ«
ĠáĬ£áĬ¥áīµáĭ©
ĠáįįáīķáĪ¨áĭŃ
áĪĭáĬ¥áĬ¨
ĠáĭħáĪīáĬķ
ĠáĪĽáĭķáĪŃ
Ġáī°áĮĭáĮĬ
Ġáī°áĬ¸áĪįáĬª
ĠáĭĿáįįáĪĪ
ĠáĬ¥áĬķáīµáīµ
ĠáĭĿáĬ¾áĬķ
ĠáĬ¸áĭŃáī°
ĠáĬ¸áī°áĪĽáī³áīµ
ĠáĪĤáĭĪáīµáĬ«
ĠSt
ĠáĮĪáīłáĪŃáĬĵ
Ġáī¥áĮ¸áĪİáīµáĬķ
áīµáĪŃáĮī
ĠáĮ½áĪĿáĬ¢
ĠáĬķáĬ½áĬķáĭ°áĭŃ
ĠáĬķáĪĿáĬķáī£áĪŃ
Ġáī°áĪĺáĪĪáĪµáĬ©
Ġáī¥áī¥áĪŃáĬª
ĠáĭĵáĭŃáĬķáĬĵ
ĠáĪµáīĵáĭŃáĬķ
Ġáī°áĮĮáĪ©
ĠáĬ¥áī°áĭĪáĪįáĭ±
"+
ĠáĭĿáįĪáĪįáĮ£
Ġáī¥áĪĲ
Ġáī¥áĮĵ
ĠáĬŃáĪª
áĬ£áī°áĬķ
áĭµáĭİáĪĿ
áĭįáĭİáĪĿ
ĠáĭĺáĮį
ĠáĭĺáīĢ
ĠáĭĺáĮī
ĠáĭŃáīłáĪįáĭķ
ĠáĬ¢áĬ½áĬķ
ĠáĬ£áĭŃáĪŀáī°
áĭ©áĪŃ
Ġáĭ¨áįįáĪŃ
áīħáĪ±
áĬ®áĬĲáīµ
ĠáĬŃáīµáīĢ
ĠáĭĺáĪĪáĬº
áĭ¶áĬ¸
Ġáī¤áĭĽ
ĠáĭĿáĪĵáĮĪ
ĠáĪĺáĪįáĪµáĬķ
Ġáī³áĬĴ
ĠáĬ¥áĪµáĭ«
ĠáĬ£áī£áī³áī¶áĪĿ
ĠáĪĿáĪŃáĮ¥
ĠáĬķáĬ¥áĪĿáĬĲáīµ
ĠáĪĿáĪķáĮ½áĬķ
Ġáī£áĭķáĭ³áĭĬ
ĠáĬ£áĭįáįĤ
ĠáĬ£áĪŃáĪĽ
Ġáī°áįĪáĪĭáĮ¥
ĠáĬ£áĪĿáĮ½áĬ£
ĠáīķáĭµáĪĿ
ĠáĬ¥áĬĵáī°áīĲ
ĠáĪĵáĪĻáĪ½áī°áĬķ
áĪ¨áĪĿáī³
áĪįáĭįáĮ¦
áĪĵáĭµáĪ©
ĠáĪįáĭĳáĪĭáĭĬ
ĠáĬ£áĭŃáĬŃáĪħáĪīáĬķ
ĠáĭĿáĮłáīħáĪĿ
ĠáĭŃáĬ¸áī¥
ĠáĭŃáĭĿáĬ¨áĪ¨áĬĴ
ĠáĪĺáĬķáĬĲáīµáĬ«
Ġáī°áĮłáīĴáĪĿáĬ«
áīłáĪįáĬ«áĭ®
ĠáĬ»áĪįáĬłáĭŃáī²
áī°áĬ£áĪĽáĪĿáĬķ
ĠáĬ£áĪķáĪĬáįįáĬ«
ĠáīģáĮłáī£áĭįáĬķ
Ġáī¥áĪĽáĭķáĭ¶
ĠáĬ£áĭįáī¶áī¡
ĠáĬķáĭįáĪīáĭµáĬ«
ĠáĭĿáĪĿáĪŃáĬ®áĪµ
ĠáĭĿáĬ«áĭ¨áĭ°áĪī
ĠáĪķáĪ±áĪŃ
ĠáĭĿáĬķáī£áĪĪ
ĠáĪĵáĮ¢áĬ£áī°áĭŃ
ĠáĪ°áĪĪáĪµáī²áĬ¦áĪĿ
ĠáĭĿáī°áĬ£áĪ³áĪ°áĪ¨
ĠáĭµáĪįáĭ±áĪį
Ġáī¥áĬ¥áĭĭáĬĳ
ĠáĬ®áĬķáįĪáĪ¨áĬķáĪµ
41
áĪŃáĭ«áĬķ
áīłáĬ¸
áī²áĬŃ
ĠáĬķáĪ¶
ĠáĬķáĬĥ
ĠáĪµáĪĿáĬķ
ĠáĬ£áĭŃáĮł
ĠáĭĪáīĴ
ĠáīµáĪĵáīµáīµ
áĭĺáīłáĬķ
ĠáĪķáĭį
áĪĥáī¥áĬķ
áĪĻáĬ¡
áĪĿáĪĭáĭĬ
áīĲáĪİ
ĠáĪ°áī¥áĬĲáī±
ĠáĬŃáĬķáĪĿáĪį
ĠáĬ®áĬķáĮį
ĠáįĪáĮłáĪ«
Ġáī¤áī³áīµ
Ġáī¥áĪĿáĪī
áĪĵáīµáī±
ĠáĬ¥áī°áĪĭáĭķáĪĪ
ĠáĪ¨áĭ³áĬ¢
ĠáĬ¥áīµáĪķ
ĠáĪİáĪĿáĬķ
ĠáĭĭáĬ¥
ĠáĮłáīħ
áĪ°áī¥áĬ£áĭŃ
ĠáĬ£áī£áĬº
ĠáĭĿáĪĺáĭįáīµ
áĬ°áĪ°
áīµáĬĵáĭ®
áī¥áĪ¨áĬĴ
áĪĿáĪįáĮ¥
ĠáĪĻáĬ»áĬĳ
ĠáĬ£áĪĺáĭĿáĮĬ
ĠáĪĿáĪįáĭķ
ĠáĪĿáĪįáĭĵáĪį
áī°áīµáī²
ĠáĬĥáĪĻáĪ½áī°
ĠáĬķáĭįáĭµ
ĠáĭĿáĪµáĪĽ
Ġáī¡áĭĻáĪĵáīµ
ory
ĠáĪ¨áĬ£áĭ®
ĠáĮ»áĭķáĪŃáĬķ
ĠáĭĺáĪŃáĭļ
ĠáĪķáĭĿáī¡
áīĥáĭĪáĪŀ
ĠáĪĿáĬķáī£áī¥áĬķ
ĠáĬ£áĪ»áĭħ
ĠáĬ£áī¥áĪªáĪģ
Ġáī°áī°áĪĵáĪĴáĭĻ
ĠáĬķáįįáĪŃáĭ±
Ġáī¥áįįáĪŃáĪĤ
ĠáĪĵáįĤáĪŃ
áįĪáĪ½áĬ¡
ĠáĬ¥áĪŃáĬ¢
áĪŃáĪµáī°
Ġáī¥áĬ«
Ġáī¥áĭ¶
ĠáĪĺáĭ³áĪŃ
ĠáĪĿáĬŃáī¥
áĪĺáĭ«áĭ¨
áĭķáĭ²
ĠáĭĺáĬ¢
ĠáĭĺáĬ¥áī±
áĪĵáĬĲ
áĭ«áĭķ
áĭ³áĭį
ĠáĭĪáĭ³áĬ¥
áĭ©áĪī
ĠáīµáĪħ
ĠáīłáĪĥáĪįáī²
áĪ±áĬĴ
ĠáĪĽáĭĵáĪµ
ĠáĭĺáĭŃáĪ¨áĬ¸
ĠáĬ¸áĭįáĪĴ
ĠáĭļáĪĿáĪħáĪŃ
áīħáĭµáĬķ
ĠáĬŃáīµáĮį
ĠáĬŃáīµáĪŃáĭµáĬ¦
ĠáĮ¸áĪĪáĪĿáī²
áįĭáĪĭáĪĪ
ĠáĬĲáĭļáĬ£áī¶áĪĿ
ĠáĬ£áĭŃáīµáĮ¸
ĠáĪ³áĮ¹áĬķ
ĠáĪĿáĬķáĭĿáĪŃáĬĵ
ĠáĪĺáĪµáĬĸ
Ġáĭ¶áĪµ
ĠáīłáĪĪáĬĵ
Ġáī³áĪªáĬ»
ĠáĬĲáī¥áĭŃ
ĠáĬķáĭķáĬ¡áĬķ
ĠáĬķáĭħáĪĪáĬķ
áĮįáĪĬáĭĺáĬĽ
ĠáĪŃáĬ¢áĬ¹áĪĿ
ĠáĬ£áīµáĪĴáĭĺ
ĠáĪŃáĪķáĪ«
ĠáĭĿáĪĥáī¥áĬ«áĬĴ
ĠáĪµáĭ°áī°áĬĽáī³áīµáĬķ
ĠáĭĺáĪ«áĬ½áī¥
ĠáĬ£áĭŃáįĭáĪįáĬķ
áĪĽáĪªáĬĸ
ĠáĬ£áī¥áĪªáĪĨáĪĿ
ĠáĬ£áĪµáī°áī¥áĪħáĪį
ĠáĪĥáĭĭáĪģ
ĠáĬ¥áĪŃáĮĭáĬķ
ĠáĪ°áĪįáįĪáĬĽáī³áīµ
ĠáĬ£áĪ°áĪįáĮ£áĬĴ
áī¥áĮĢ
ĠáĬ£áīłáĪ«
ĠáĬ£áĮ¥áĪŃ
áĪįáĭķáĪĬ
ĠáĭĿáī¥áĪİáĪĿ
áĬĲáĬª
ĠáĬŃáĪµáī³áīµ
áįįáĪĬ
ĠáĬĲáįĬ
Ġáī°áĪ½áĬ¨
ĠáĭŃáĮĭ
ĠáĭŃáĪħáī¦
áĮ½áī¥
áĮ½áĪħ
áĭĪáĪ¶
ĠáĬ¥áĬķáī¥áĪį
áĪħáĪµáĪµ
áī¢áĬĵ
áĪĥáĪħ
áīĢáĬĽ
ĠáĬŃáĬķáĪĿáĪĥáĪŃ
ĠáįĪáĪįáĪ²
áĪ«áĪķáĬķ
ĠáĬ¥áĬĵáĪĺáĪµ
áĪĶáĬķ
ĠáĪĽáĪĪáīµáĬĵ
ĠáĪĿáĬ¥áĭĽáĭĿ
áįĥáĪĿ
ĠáīģáĪįáĭķ
ĠáĬ£áĪĪáĭīáĬĴ
ĠáĬ¦áĪ®áĪŀ
ĠáĬ£áĪŃáī£
Ġáī¥áįįáĪįáĮł
áĮ«áĭį
ĠáĭħáĪĭ
ĠáĬ£áĭµáĪĪáĭ¨
ĠáĮįáī¥áĪ®áĪĿ
áĬ¼áī£
Ġáī°áīĵáĭĭáĪļ
Ġáī°áīĵáĪĪáĪµáī²
ĠáĪµáĮĭáĭŃ
ĠáĭŃáįįáīĢ
Ġáī¥áĪħáĮ¹áĮ½
ĠáĭŃáĪĿáĮ»áĬ¥
ĠáĬ£áĪµáī°áĭįáĭĵáĪį
ĠáĭĿáīķáįħáĪį
ĠáīµáĪĽáĪįáĬķ
ĠáĪĺáĪ°áĪ¨áī±
ĠáĭĿáĮįáīłáĬ¦áĪĿ
ĠáĬ£áī²áĬ¹áĪĿ
áĭįáĪµáĬ½
áĬ¨áĭŃáĭµáĬķ
ĠáĬŃáĬ½áĭįáĬķ
ĠáĭĴáĪĭ
Ġáī°áĪ°áĪĿáĭĵáĬĴ
Ġáī°áĭĭáĪĤáī¡áĬĵ
ĠáĪĺáī¥áĭĽáĪķáī±
ĠáĪĿáīģáĪ«áĮ½
ĠáĭĦáĬķáĬ«áĪµ
ĠáĮ¸áĬķáĪĳ
áĪµáī°áĭįáĭķáĪİ
ĠáĬ£áĬħáĭĭ
ĠáĮīáĪįáīłáīµ
ĠáĮ¨áĬĵáįįáĪŃ
ĠáĭĿáĪŃáĭĿáĪ«áīµ
ĠáĪļáĭĽáĬĵáĭĬ
ĠáįĪáĭ°áĪ«áĪĭáĭĬ
ĠáĬĵáĭĿáĪ¬áīµ
áĬŃáīµáĪ®áĬĴáĬ«áĭĬ
ĠáĭĵáĪŃáĬŃáĬ»
ĠáĬķáĪµáĭ°áī°áĬĽáī³áīµ
Ġáĭķáĭ±áĪĽáīµ
ĠComments
ge
áĢ
áī¥áĪ®áĪĿ
áĭŃáĬ£áĬŃáĪį
áĪįáĬ¡
ĠáĭĿáĮĪáĪŃáĪĺáĬĴ
ĠáĬķáĬ«áĪįáĬ£áĭŃ
áĬĲáĪ°áīµ
ĠáĪĺáĭįáĭĵáĪĬ
ĠáĬ£áī¥áīĤáĭĳ
áĪ¨áī³áīµ
áįįáĮ¹áĪĿ
áĪĵáī°
ĠáĭŃáĬĵ
ĠáĭŃáĪµáĭķáī¥
ĠáĪ°áīµ
ĠáĪµáī¶áĬŃ
ĠáĭĪáĮĬ
ĠáĪĿáĪµáĪĪ
Ġáĭ¨áĮ¸áĮį
áĪ±áĪŃ
ĠáĬŃáīµáĮ¥áīĢáĪĺáĪī
áįĭáĪĬ
Ġáī£áĪ¨
áĭľáĬķ
áĬªáĪµ
Ġáį¡-
áĪĲáĪī
ĠáĭľáĬĵáĬķ
áĪŃáĬ¥áĭ¨áĬ©áĪĿ
ĠáĪĿáĬķáĮĭáĪŃ
ĠáĭĿáĪĺáĮ½áĬł
ĠáĪµáĪĿáĭķáĭİ
ĠáĬķáĪĵáĮ¢áĬ£áīµ
ĠáĭŃáĬ¹áĬķáĪĿáīłáĪŃ
ĠáĬķáĪ³áĬķ
ĠáĬ¥áĭļáĬ£áĪµ
ĠáĬ£áĬ¥áĭĽáĬķ
ĠáĬ½áīµáīħ
áĪŃáĭµáĬ¦áĪĿ
ĠáĬķáĪħáī¥
ĠáĬ¨áī£áī¢áĬ¡
Ġáī¥áĪįáĪĵáīµ
Ġáī¥áĪįáĭķáĪĬ
ĠáĪĿáĮįáĬķ
ĠáĭĪáĪ¨áīĢáīµ
áĮ¥áĪĿáīķ
áĬ¥áĭļáĬ£áī¶áĪĿ
ĠáĪ¥áĭµáĪ«
ĠáĬŃáīķáĭŃáĪŃ
ĠáīįáĪŃáī£áĬķ
ĠáĪĿáĪµáĮ¢áĪ«áīµ
ĠáĮįáĭĿáĬ£áī°
ĠáĭŃáįĪáĪįáĮ¥áĭİ
ĠáĬ£áĬ¥áĭ³áĭĪáĭŃ
áĮįáĪįáĮĭáĪį
ĠáĬķáĪĿáĪķáĪĭáĭį
ĠáĮįáĭ³áĪĽáĭĬ
áĬĲáĮįáĪ®
ĠáįķáĪ¬áĭĿ
ĠáĭŃáīħáĪ¨
áĪĺáĪĭáĬº
ĠáĭĿáī°áĮłáīķáĪ±
Ġáī°áĬ£áĬªáī¡
ĠáĪ²áīªáĪĭáĭĬ
Ġáī°áĪ«áĬºáī¥áĬĵ
ĠáįĨáĪ³
ĠáĭĿáĪĺáĮ»áĬ¥áĬ©
ĠáĬ£áĭµáĪĽáĭĴ
áĭįáĭĲáĭŃáī²
ĠáĬ¥áī°áĮłáīķáĪ°
ĠáĮĲáĪ¨áī£áī¥
ĠáĬ¢áī¥áĪ«áĪĤáĪĿ
ĠáĪĺáĮĭáī£áĬ¥áĭ«
Ġáī¥áĮĪáĪĿáĮĭáĪĿ
ĠáĬŃáįĪáĪŃ
ĠáĬŃáĪ¨áĮĭáĮĪáĮ½
áĬ£áĪ°áĪŃ
áĭµáĬĳ
ĠáĬ¨áĭµáĪįáĭ¨áĬĵ
ĠáĬĲáī¡áĬ«áĭµáĬĲáĮ»áĪŃ
áĪ°áĪĪáĪµáī°
áĮ½áĪĵ
ĠáĮįáĪĬ
áĭ¨áĭŃáĬķ
áĪĥáĪ®áĬķ
ĠáĭĺáĭŃáĮĪáīłáĪ¨
ĠáĭįáĮ»áĬ¥
ĠáĬŃáīµáĪĵáĪµáī¥
ĠáĬŃáĬķáĪķáĮįáĭĺáĬ«
ĠáĮ¸áĪŃ
áīłáĪ¨áīµ
áĪĭáīµáĭ«
ĠáĪĪáĪĿáĬķ
áįħáĪĿ
áĪĵáįįáĪŃ
ĠáĪĺáĮ½áĬł
ĠáĬķáĪķáī¥áĪŃ
áĭ°áĬķáĮİ
Ġáĭ²áĭĽ
Ġáī¥áįįáīĵ
ĠáĬŃáĬĲáĮįáĪŃ
Ġáī°áĭĭáĪķáĭ¶
áĪİáĬķáīĦ
ĠáĪ»áĭįáĭĲáĭŃáī²
ĠáĬ¥áĬķáīµáĪŃáįİ
ĠáĮ¸áĮĭáĭŃ
ĠáĬ£áī°áĬ¹
Ġáī°áĬĲáĮº
áīłáĭĿáĪĲ
áīłáĮ½áĪķáĬķ
Ġáī³áĪķáīµáĬķ
ĠáĭĿáī°áĪ¨áįĭ
ĠáĪ°áĪĽáĭķáī²
ĠáĪĨáĪµáįĴáī³
ĠáĮ¸áĪĭáĬ¥áī°áĭŃ
ĠáĭĿáĪĥáīłáĬĴ
ĠáĪ¬áĪ³áī³áīµ
ĠáĬ«áĪķáĪ³áĭŃ
ĠáĬĲáĬĵáī±
ĠáĭĺáĭµáĪįáĭ©
ĠáĪµáĪķáī°áīµ
ĠáĭĿáīĲáĪŃáī¡
ĠáĬĲáĭĬáĪķáĬķ
ĠáĪĿáĪĴáĪŃ
ĠáĬ£áĭŃáīµáĮ¨áĬĲáīĳ
âĪ¶
ĠáĪķáįħáĪ¨áīµ
ĠáĪĺáĪįáĬ¨áįįáī²
ud
ĠáĬ£áĭĲ
áī°áĪµ
áĬĲáĭŃáī³
Ġáī¥áĪĮáĬķ
ĠáĬ¨áī¥áī²
áĪ¨áĪįáĬ«
áĮĪáĭĽáĬ¥
áĭķáĪĿ
áĪ³áĬª
áĮ½áĬ¢áīµ
ĠáĬ£áĭŃáĪĢ
áĬŃáĪĿáĭİ
ĠáĭĺáĭŃáĮłáīħáĪĿ
ĠáĬŃáīµáĪķáĭĿ
ĠáīĢáīµ
ĠáīĢáĮ¥áī³
ĠáīĢáĪĪáī¥
áĭ¶áĬ«áĭŃ
ĠáĬłáī³
áĮ£áĪį
Ġáī¥áĪĿáĪĵáĭĿ
Ġáī¥áĭĽáīµ
áĪµáī°áĭį
ĠáĪĿáĬ½áįĭáīµ
áĭĽáĪ¨áīłáĬķ
ĠáĬ£áī¦áĬ»áĬķ
ĠáīµáĪĿáĪħáĪŃáī°áĭŃ
ĠáĮİáīłáĭĿ
áī¥áĪ¨áĬ©áĪĿ
ĠáĬķáĭĿáĬĲáīłáĪ©
ĠáĪĺáĬķáįĪáĪ°áĭŃ
ĠáĪĤáĬķ
ĠáīĲáĭ°áĪĿ
ĠáĮĭáĪħ
ĠáĪĿáĮįáĬĵáĬķ
áĪĢáīµ
ĠáĬ¥áĬĵáī°áī£áĪħáĪĪ
ĠáĭĿáī°áįĪáĮłáĪŃáĬĵ
ĠáĪ¥áĪĭáĪ´
ĠáĭŃáĮįáīłáĪ¨áĪī
ĠáĪĺáĪ°áĪ¨áī³áīµ
ĠáĭĺáĬķáīłáī¥
ĠáĭĿáĬķáĮĪáĪŃ
ĠáĭĿáįĪáĪįáĮ¦áĪĿ
áī°áĬ£áĪĽáĪĺáĬķ
ĠáĪ¨áĬłáĬ¹
ĠáĬ¨áĭįáĮ½áĬ¥
ĠáĬ£áĬķáī¢áīł
áīĭáĪŃáĮ¾
ĠáĬķáīłáĭŃáĬĲáĭŃ
Ġáī°áĮ£áīł
ĠáĬŃáĮĪáī¥áĪ¨áĪįáĬ«
áĭĺáįįáĮ¥áĪ¨áīµ
ĠáĪķáĮ¹áĭ«áīµ
ID
áī¥áĬĵáĬķ
ĠáĬ¥áĪĺáĮ½áĬ¥
áĬĲáĪª
Ġáī¥áĮ¥áĪĿ
ĠáĬŃáĮĪáĪį
áĬ£áĪįáĬ«
ĠáĪĿáī¥áĪŃ
ĠáĭĺáĪµáĬ«áĪķáĬŃáĪķ
ĠáĬ¢áĪĺáĭŃáĪį
ĠáĭĪáĭ¨
ĠáĭĪáĬ¢
ĠáĭĵáĬķáĭ°
ĠáĪķáĭµáĪķ
ĠáĪķáĪ¹áĬ½
ĠáīłáĪ°áĪĭ
ĠáĮĪáĪĺáĪį
áĪĥáĪ¨
Ġáĭ¨áĪĺáĪµáĮįáĬķ
áĮ»áĮº
ĠáĭĺáĭŃáįįáĪĪáĮ¥
áīµáĬķáĬŃ
ĠáĭļáįĪáĪŃ
ĠáĮ½áĮįáĭķ
áĮ£áįį
ĠáĬ¤áĭ¶áĪĿ
ĠáĮīáĮħ
Ġáī¥áĭĽáĭķáī£áĭļ
ĠáĬ¥áĭ«áī¶áĪĿ
ĠáĬķáĬ£áĬ¥áĪĿáĪ®
ĠáĬ£áī¦áĬ¡áĬķ
áĮĲáĭµáĬ£
áĮ¾áĪĻ
Ġáī¥áĬ£áĪĽáĬ¢áīµ
áĪĥáĬķáĪµáĬķ
áĪ°áĬķáīłáīµ
ĠáĪĵáĭŃáĪį
ĠáĪĵáĭŃáĪĪáĭŃ
áĪĥáī¥áĬ©áĪĿ
ĠáĬķáī¥áĭĻ
ĠáĪĿáįįáīĥáĪŃ
ĠáĪĺáĮºáĬ¤
áī³áĪķáĭĺ
ĠáĮĪáĮ½áĬĵ
áĪįáĭįáĮ¥
ĠáĭĪáĭ°áĭ¨
ĠáĪĵáĭµáĬĲáīµáĬĵ
Ġ1997
ĠáĬ£áĪ¨áĮĭáĮįáĮ½
ĠáĭĵáĪļáīķ
ĠáĬ¥áĪĿáĬķáī¶
áĪĽáĬ¥áĪ°áĪŃáī²
ĠáĭĺáĬ«áĭ¨áĭ¶
áīłáĮĥáĬ»
ĠáĭķáĪĿáī£áī£
ĠáįķáĪ¬áĭļáĭ³áĬķáīµ
ĠáĬ¦áĪİáĪĿáįĴáĬŃ
áĬķáĬ£áĪĿáĪĭáĬ½
áĪŃáĬŃáī¥
áī³áī¶
ĠáĬŃáīĥ
ĠáĪĿáīį
ĠáĬ¨áĭķ
ĠáĬ£áī¥áĪŃ
ĠáĭĺáĬ¥áī°
ĠáĬĲáĭ³
ĠáĬĲáī¦áĭŃ
áĭļáīµ
ĠáĭµáĬł
ĠáĬ«áĪĭ
ĠáĭĪáĪ°áĭµáĭİ
ĠáīµáĬ©
Ġ""
áĪĥáĬĴ
ĠáĪĥáĪİ
áĭ±áĬĵ
ĠáĭļáįĪáī±
ĠáĬŃáīµáĬĲáī¥áĪ©
áįĭáī³áīµ
ĠáĬªáĭĽáĪ¨áī¥
áĭľáĮł
ĠáĬ¨áĭŃáĮ¸
ĠáĬ¥áī°áĪĺáĪŃ
ĠáĬŃáĪįáĭį
áĪĵáįįáĪŃáĬķ
ĠáĪĿáĬ¥áĬķáī³áĭŃ
ĠáīµáĪĿáĪħáĪŃáīµ
áĪĽáīµáĬ¥
ĠáĪ¸áĪĿ
ĠáĬķáĪĺáĭĵáĪį
ĠáĬ£áĪĿáĮ½áĬ¥áĭİ
ĠáīłáĪįáĬ©áĭİ
Ġáī¥áĮįáĪħáĭ¶
Ġáī°áĭĵáĭĽ
Ġáĭ°áĭįáĪį
Ġáī¥áĪķáĮ½áĪŃ
ĠáĬķáĬ£áĪĿáĪĭáĬ½áĬķ
ĠáĭĿáĭįáĪ°áĬķ
ĠáĭĿáĮ¸áĪįáĬ¥
ĠáĬ¥áĭĭáĬ¥
ĠáĬ£áī°áĭĵáī£áī¥
ĠáĭĿáīķáĪĺáĮ¡
ĠAr
ĠáĬķáĭĺáĪĪáĭİáĪĿ
áĪĿáĪħáĪ©
ĠER
áĮłáĪ«áĮ¥áĪŃáĬķ
Ġáĭ¨áī¥áĪĪáĬķáĬķ
ĠáĬ£áĮĪáĪįáĮįáĪİáī±
ĠáĬ£áĮĭáĮ¢áĪĻáĬ«
áįįáĪķáįĭáĪķ
ĠáĬķáīłáĭŃáĬĸáĪĿ
áĭµáĮįáįį
ĠáĪĺáĮ¥áīĵáĭķáī²
Ġáī°áĪ«áĬºáī¦áĪĿ
ĠáĭĿáĮłáįįáĬł
ĠáĭļáĪµáĭ°áĭ±
ĠáĪĭáĭķáĪĭáĭŃ
ĠáĬ£áĪĺáĬķáĭĿáĪ«
ĠáĬ£áįķáĪĬ
ĠáĪĿáīµáĭķáĪŃáĪ«áĭŃ
Ġáī°áĮįáĪ³áĮ½
ĠáĪµáĪĪáĪĿáī³áĭŃ
ĠáĪĺáĭ³áĪŃáĮįáī²
Ġ{
Ġáī¥áī£áĭķ
ĠáĬŃáĬ«
áĬ£áĪĬ
áĮĪáĪĿáĬķ
ĠáĭĺáĬ«áĭ¨áĭµ
ĠáĬĵáįĬ
ĠáĪĵáĮ¸áĪŃáī²
áĪ°áĬķáĬķ
ĠáĪµáĮķáĪĿ
ĠáĭµáīĤ
áĮ½áĭĭáĭķ
ĠáĬ«áĭŃ
ĠáĬ£áĭŃáĪģáĭµáĬķ
ĠáĮĪáĭ«
ĠáĬ¥áĬķáī°áĬ½
ĠáĬ¥áĬķáī°áĬ®áĬĲ
ĠáĪĥáĭ²áĪĻ
ĠáīħáįįáĪŃáĬĵ
ĠáĮ¸áĮįáĭĴ
ĠáĬķáĪĿáĪĵáĭĿ
ĠáĬ¥áĬĵáĪĺ
ĠáĪĪáĭĭáĪħ
ĠáĬ¨áĪĿáĭĿáĪĺ
ĠáĪĺáĮ½áĪĶ
áĪĤáĭ±
áī¤áīµáĬķ
áīĭáĪ¨áĮ½
ĠáĮİáĭŃáīµ
ĠáĬķáĭĿáĪŃáĬ¨áī¡
ĠáīģáĪŃáĪ²
Ġ59
ĠáĭĿáĭĪáĪĥáī¦
áĪĸáĪĿáĬķ
Ġáī¥áĬ¥áĮįáĭļáĬłáī¥áĪĶáĪŃ
ĠáĬ¥áĪĿáĬĲáīµáĬ«
Ġáī°áĭĭáĪĴ
áĪ¨áĭµáĬ£áĬĵ
ĠáĬ¥áĬķáīµáĬ¾áĬķ
Ġáī¥áĭįáĪ½áĮ¢
ĠáĪ½áĭĪáĭ°
ĠáĪĺáĮĭáīłáĪŃáĭ«
áįĪáĪµáĪµ
ĠáĪĺáī¥áĭĽáĪķáī¶áĪĿ
ĠáĮİáĪ¨áī¤áīµ
Ġáī°áĭĽáĪªáī£
ĠáĪĿáī£áĪįáĬķ
ĠáĬĲáĬķáĪķáĭµáĪķáĭµáĬĵ
áī°áī£áī¥áĭķ
ook
áī°áī£áĭķáīµáĭ®áĬķ
ĠDehai
ĠáĬ£áĭĺáĭĿáī²
ĠáĪĥáĪįáĪĥáĪįáī³
70
la
áī¥áĪ«áīµ
ĠáĬ¥áĬĲáī¥áĪŃ
ĠáĭĿáī¥áĪĪáĬĴ
ĠáĬķáĭŃ
áĪķáĮ¸
áĭ°áĪ±
ĠáĭĺáĪ»
Ġáī°áĮĪáĪĿ
Ġáī°áĮ½áĭķáĬĸ
áīķáĪī
áī¢áĪ®áĪĿ
áĭįáĬķáīµ
Ġáĭ¨áĮĪáĪįáĮįáĪī
áĮ¸áĬ«
ĠáĭĺáĭŃáĭķ
ĠáĪĥáĪĮ
áīĢáĪ±
ĠáĪ°áī¥áĬł
áī¥áĪŃáī³áīµ
áįĪáĪįáĬ«
ĠáĬ¥áĪĿáĬĲáī°áĭŃ
áĪµáī²áĬŃ
áĭĴáĬķáī²
ĠáĬ©áĪīáĬĵ
ĠáĬ¥áĬĵáĮĪáīłáĪ¨
Ġáī¥áĪĵáĪ³
ĠáĪŀáĭ«áī³áīµ
áĪ¸áī£áī¥
ĠáĭĿáĪĵáīĸ
Ġáī°áĪĺáĪĭáĪĪ
ĠáĬºáī¥áĪİáĪĿ
Ġáī°áĭĪáĬª
ĠáĪĺáĭ°áī¥áĬĵ
ĠáĪĿáĪĿáĪįáĬ«áīµ
áĮĪáĭµáĭµ
ĠáĭĺáĭŃáī°áĭĪ
Ġáĭ°áĮĪáī³áīµ
ðŁĻ
ĠáĭŃáĪĿáĪĪáĪ±
ĠáĭŃáĮ½áĭįáĭķ
áīłáĪĭáĭķ
ary
ĠáĪĵáī°áī±
áĬ¸áĭŃáĭµáĬķ
Ġáī¥áĪĿáĪµáĪĽáĭķ
ĠáĬŃáĭĿáĬŃáĪŃ
ĠáīłáĪĬáĭĳ
ĠáĭĿáĪ¨áĪĵáīĲ
ĠáĪºáĬķ
Ġáī¥áĪĿáĭįáĪ³áĭµ
Ġáī¥áĮīáĭ³áĭŃ
ĠáĪĵáī¥áī°áĭŃ
ĠáĬ£áĭŃáĬ£áĪĺáĬķ
ĠáĪµáĪļáĭĴ
ĠáĬ¥áĭµáĪªáĪµ
Ġáī¥áĪįáĮ½áī²
ĠáĬŃáĬķáĭ°áĭ¨áĬĵáĭŃ
ĠáĭĿáĪŃáĬ¨áīłáĪī
ĠáĬķáĪĿáĪħáĬĵáĮ½
ir
ng
áį«
áĬķáĭĿ
ĠáĮ°
áīłáī¶áĪĿ
áĬĲáĭ®
ĠáĬ¨áīłáĪŃ
ĠáĬ¨áīķáĪŃáī¡
áĪ¨áĬª
áī£áĮ¥
áĪ«áĮį
áĪ«áĪļ
áĮįáĪ±
ĠáĭĺáĪĭáīµáĬĵ
ĠáĬĲáīķ
Ġáī°áĪ¨áĬ½áī¦
ĠáĭŃáįĪáĪŃ
áĪ°áĬĵáĪį
ĠáĬ¢áĪĿ
áĮ½áĪĭ
ĠáĬ£áĭŃáĪ¸
ĠáĬ£áĭŃáĮįáĭ°
ĠáīłáĭĺáĬķ
Ġáĭ°áīĨáĪĿáĬķ
ĠáĪħáīłáĭŃ
ĠáĭįáĪ¸áī£
ĠáĭĿáī°áīµ
ĠáĭĿáī°áī°
ĠáĬŃáīµáĮ½áīł
áĭīáĪŀ
ĠáĬªáĮłáįįáĬ¡
ĠáĬłáĪµ
ĠáĬ¥áī°áĬĲ
ĠáĬ¥áĬĵáĪ¨áĬ£
Ġáī¥áĪĵáįĪáĪ½áĬ¡
áĬ£áĭŃáįĭ
ĠáĭĭáĪŃ
ĠáĬķáĬ£áĪŃáī£áĭķáī°
áĭ°áĪįáĭ®áĪĿ
ĠáĬ£áĪĺáĮĭáĮįáī£
ĠáĪ¸áĭī
ĠáīĨáįĢ
ĠáīĨáĪ®áĬķ
áįĢáĪ©
ĠáĬ£áĪŃáĪķ
ĠáĬĲáįįáĪµáĬķ
ĠáĪĿáįįáĪĭáĭŃ
ĠáīµáĮįáĪ¨
áĭ°áĪĿáĪĿ
Ġáĭķáĭ®áĬ¡
ĠáĭĿáīłáĭĿáĪĵ
Ġáī°áĬĲáī¢áĪ©
ĠáĪĺáĪ°áĪ¨áī°
áĪĿáĪħáĪ®áĪĿ
ĠáĭŃáĮ½áĪĬ
ĠáīłáĮºáĪĲ
ĠáĮħáĪĽ
ĠáīĢáĮºáĪĪ
ĠáįĪáĪªáĪ±
Ġáī°áĪĪáīªáĭ¥áĬķ
ĠáĬ£áīµáĪĴáĭĽ
ĠáĭĿáīłáĪįáĬ©áĬ»
ĠáĭĺáĪŃáĬ¡
Ġáī°áĮłáīĴáĪŀáĪĿ
Ġáī¥áī¥áĪŃáĪĥáĬķ
ĠáĭµáĪĻáīķ
ĠáĪĺáīħáĭ°áĪµ
ĠáĭĺáĬ¥áī°áĭĪ
Ġáī¥áĬĥáĮ¢áĬ£áīµ
Ġáī°áĭĪáįĭáĭŃáĬĲáīµ
ĠáĬ£áĪĿáĪĭáĬ¸áĭŃáĬķ
ĠáĭĭáĪ½áĬķáĮįáī°áĬķ
ĠáĬ£áĭķáĬĵáĭĬ
Ġáī¥áī³áĪķáĮĵáĪµ
áĪŃáĬ¡
ĠáĮ©
áĬ£áįį
áĭµáĬ£áīµ
áĪĭáī¡
áĭ°áīħ
ĠáĭĺáįĪ
ĠáĪĵáĪĺ
áĪĵáĬ¤
áĭ³áī¥
áĭ³áĬ¡
ĠáĭĵáĪĪáĪĽ
áĪħáĪµ
Ġáĭ°áĪĽ
áĪ®áī¢
ĠáĭļáĪĺáĪŃ
áīłáĪŃáĬ«
ĠáĬŃáīµáīķ
ĠáĬŃáīµáĮĪáī¥áĪª
ĠáĬ¥áĬķáī³áĭŃáĬĲáīµ
ĠáĪ½áī¶
áĪ¸áĬĴ
ĠáĪ³áĬķáĭ±
áĬ£áĭŃáīª
ĠáĬµáĪįáĬĵ
ĠáĮłáīĲ
ĠáĪµáĪ«áĪķáĬ©áĪĿ
áĬ°áĪµ
ĠáīµáĪĿáĪħáĪŃáī°
ĠáĬ£áĭ¨áĬĲáĭŃáī²
ĠáĪĺáĪŃáĭµáĬ¥
ĠáĭĿáĬ£áĬ½áĪī
ĠáĬ£áĪĪáĭīáĭİ
ĠáĪķáĪĽáĪĿáĬķ
Ġ800
ĠáĭĪáĪĪáĭµáĬķ
ĠáĬ£áĪĿáĪĬ
Ġáĭĵáī¥áĭ°áĪĭ
ĠáĬ¨áī£áī¢áĬ£áĬķ
Ġáī°áĭĵáĭĺáī¥
ĠáĪµáĮĭáĬ¡
ĠáĮ¥áĭķáĬĵáĬ»
Ġáĭĺáī°áī£áī¥
ĠáĪ©áĪµáĭ«áĬķ
ĠáĮ½áĬķáī¥áĪį
ĠáĬ£áĭĺáĬ»áĬº
áĭĵáī¥áĭ©
ĠáįįáĪįáĪµáĮ¤
áįĪáī°áĬĲ
ĠáĭĺáĭŃáĪķáĮĭ
ĠáĪĵáĪĿáĪ»áĭŃ
ĠáĪĽáĪįáīµ
ĠáĭĿáī°áī£áĪħáĪĪáīµ
ĠáĪĭáĭķáĪįáĬķ
áĭįáĪİáĪµáĬķ
ĠáįĪáĭŃáĪµáī¡áĬŃ
ĠáĪĦáĪ®áĭµáĪµ
ĠáīĢáĮ»áĪįáĬĲáīµ
ĠáĭĺáĪ¨áī¥áĬ¡
ĠáĪĺáĭĺáĬ¨áĪŃáī³
ĠáįįáĬĸáī°
"?
aid
ĠáĬ£áīļ
ĠáĭĿáĬ£áīµáĭī
ĠáĬķáĭī
ĠáĬŃáī¥áĪİáĪĿ
ĠáĬ¨áīłáĪ®
áĭįáĪĽ
áĭįáĮħ
áĪĽáĪ«
Ġáīļ
ĠáĬĲáĭī
ĠáĪĵáĪį
áĭĿáĭİáĪĿ
ĠáĭŃáĬ¾áĬķ
áĭ«áĭį
áĭĵáī¶
áĮ½áĭĭ
áĭĪáĪ©
ĠáĬ£áĭŃáĭ°áĪįáĭ©áĬķ
áĬŃáĪİ
ĠáĭĪáįĥáĬ¥
áĪħáĮį
áĭ¨áĪĭ
áĪ±áĬĵáīµ
áī¦áī³áīµ
ĠáĬ¥áĬķáī°áĪ¨áĬº
ĠáĬ©áĬķáī³áĪį
ĠáĭľáĪ®
ĠáĪĺáĪ°áĪĪ
ĠáĬ¥áĮįáĭļáĬ£áī¥áĪĦ
ĠáĬķáĪĵáĭį
áīłáĪĪáī¶
ĠáĭĿáĭĪáĭ°áīĲ
ĠáĬ£áĪĺáīµ
Ġáī£áĭķáĪĭáīµáĬ©áĪĿ
ĠáįįáĪŃáĭµáĬķ
ĠáĪ°áĪĪáĭļ
ĠáĬ¬áĮĭáĮ¥
ĠáĭĺáĪĪáĭīáĬķ
ĠáĬ£áĪĿáĮ½áĬ¥
ĠáĬ£áĮĭáĮł
ĠáĬķáī¥áĬ¡
ĠáĬķáĬĲáĮĪáĪ«áīµ
ĠáĮĭáĬĵ
ĠáĬŃáĪĿáĪĪ
ĠáĪĺáĪĬáĬ£
ĠáĬ£áĬ½áĪ±áĪĿ
áĬ¬áĪį
ĠáĪŃáĬ¥áĭŃáī¶áĬķ
ĠáĭĿáĪ¨áĬ¸áī¡
ĠáĬķáĮ¥áįĪáī³áīµáĬķ
ĠáĬķáĪĵáĭµáĪķáĭ±
Ġáĭ´áĬķ
ĠáĪŃáĪķáīĲáīµ
ĠáĭĿáĭĪáĪµáĭ¶
Ġáĭ®áĪĥáĬĵ
Ġáī¥áĪĿáīķáĪ«áī¥
ĠáīµáĪ½áĭĵáī°áĬķ
ĠáĭĺáĭŃáĬ¨áĬ£áĪī
ĠáĬĴáĭįáĭ®áĪŃáĬŃ
ĠáĮłáĬķáīģ
áįĥáįħáĪ«
ĠáĭĵáĮ½áĪļ
Ġáī¥áĪ¸áĬĲáĬ½
ĠáĭĪáįĤáĬ¡
ĠáĭįáĮºáĬ¢áīµ
ĠáĪĺáĪµáĭĭáĬ¥áīµáĬķ
ĠáĭŃáĬ¨áĬ£áĪİ
ĠáĬ£áĮłáĪĽáĪĿáī³
ĠáĬ£áĭŃáĪŀáī°áīµáĬķ
áī¥áĮĪáĪµ
ĠáĬ£áĪĺáĪµáĮįáĬĲáĬ«
áĪįáĬ£
ĠáĮ´áĮ¥áĪ®áĪµáĬķ
ĠáĬŃáĮ½áĬķ
ĠáĪĿáĪ«
áĪĽáī³
ĠáĭĺáĪ¸
ĠáĭĺáĪŃáĮį
ĠáĬĲáĬ£áĪ½áī±
ĠáĪĵáī¦
ĠáĭŃáĭµáĪŃ
ĠáĭµáĮįáĪµ
ĠáĬ«áĪĮ
áĭ³áĪĿáĬķ
ĠáĬ¥áĬķáīłáĬ£áĪŃ
áĬŃáĬĵ
ĠáīµáīłáĪį
áĬ¨áĬł
áĬ¹áĪµ
áĪĥáĪªáīµ
áĪĥáĪĪáĭĪ
áĪ½áĪŃ
ĠáįįáĬĵáĬķ
Ġáįįáįĥ
ĠáĭĿáī°áĬĲáĮįáĪ¨
ĠáĭĿáī°áī°áĪĵáĪĵáĭĺ
áī¥áĪįáĬ«
ĠáĬŃáīµáīµáĪį
ĠáĭķáĮ£áĬķ
Ġáī¥áĭĻáĪĥáĬķ
ĠáĬ¥áĬĵáĭĵ
ĠáĬ£áĭŃáīµáĪŃ
ĠáĬ£áĬķáĭµ
Ġáī³áĭ°áĪ°
ĠáĭĿáĭĪáĪĵáĭ°
ĠáĬ¦áĬķ
ĠáĬ£áĪįáĮĢ
Ġáĭĵáī¥áĭ¨
ĠáĬķáĮĪáĪ©áĬĴ
ĠáĬķáĭ°áīħáĬ»
ĠáĭĪáĪ²áĭ³
ĠáĪĪáĭįáĮ¥áĬķ
ĠáĪĺáĪĪáĬ®áīµ
ĠáīķáīµáĪĪáīµ
ĠáĪĵáĭ«áĪįáĬķ
ĠáĬ£áĭķáĬĳáĭµ
ĠáĪ®áĪĿ
áĮĴáĪĻ
ĠáĬ£áĪµáī°áĭį
Ġáī¥áī¥áĭĻáĪĵáīµ
ĠáĪĺáĬĵáī¥áĪŃ
ĠáĭĺáĪĿáĮ½áĬ¥
ĠáĭĺáĬķáĮ¸áī£áĪŃáīķ
áĮĪáĭ³áĪµáĬĲáīµ
ĠáĬŃáĪĺáĪŃáĮ½
ĠáĪ½áĪĿáĭĵ
Ġáī¥áĭĿáīłáĪĪáįĢ
ĠáĬĥáĮ¢áĬł
ĠáĭįáĮ¹áĭķ
ĠáĬķáĮĵáĪį
ĠáįįáĬķáįīáĬķ
ĠáĪĿáĭįáĭ³áīķ
Ġáī°áįĪáĮ¢áĪ®áĪĿ
Ġáĭ¨áĪ«áĬ½áīłáĬĵ
pp
áīµáīµ
ĠáĬ¥áĪĪáĭŃ
ĠáĬķáī¡
áĬĲáīħ
Ġáī¥áĪĶ
ĠáĪĺáīĳ
ĠáĬ¨áĪ³
áĪķáĬ»
áĪĭáĪµáĬķ
áĪĽáĪĪáīµ
áĭ°áĪª
ĠáĭĺáĪ¨áĮĭáĮį
Ġáī°áĭŃ
ĠáĬĵáĪķáĪ²
áĭ«áĬ»
áĭ«áĭįáĭ«áĬķ
ĠáĭĪáĬ»
Ġ"[
áī¢áĪİáĪĿ
ĠáĬ¥áĬķáī°áĪĪáĬ¹
áĪ½áĬĵ
Ġáĭķáī±áī¥
áĬłáĪī
áĮ¢áįĭáĬĸáĪµ
ĠáĬ¨áĭŃáĭµ
ĠáĭľáĬĵáĭĬ
áĮĢáĪĿáĪŃ
ĠáĪĺáĪįáĪĵ
ĠáĬķáĪĵáĭī
ĠáĪµáĪŃáĪĲáĭŃ
áĬķáĭĺáī¡
áĪĺáĪįáĪ±
áįĢáĪī
ĠáįįáĪįáįįáĪį
Ġáī¥áĪµáĪŃáĭĵáīµ
áĮ¥áīĢáĪĺáĪĭ
Ġáī°áĮłáĬĵ
ĠáĬķáĭķáĭĺáī¥
áīĿáĪ©áī¥
ĠáĪĺáĪĭáĬ¥áĬŃáī²
ĠáĮ½áĪķáįĪ
ĠáĪĿáĭĥáĬķáĬª
ĠáĭŃáĪĺáĪĪáĪµ
ĠáĬĴáīĨ
áĭĵáĭŃáĬĲáī±
áĬ²áĬĵáīµ
ĠáĬ£áĪķáĭĭáīµáĬĵáĬķ
ĠáĭŃáĭĿáĪ¨áī¥
áĭĵáī¥áī±
áĮįáĭµáįį
ĠáĪ°áĪĽáĭķáī³áīµ
ĠáĪµáĮįáĮįáĪŃ
ĠáĭµáĪĮáīµáĬķ
Ġáĭ²áĪŀáĬŃáĪ«áĪ²áĭ«áĭĬ
ĠáĬķáīĵáĪĪáĭŃ
áĪĿáĪŃáĭĵáĭį
Ġáĭ°áīłáĪ³áĭŃ
ĠáĭīáĪīáĭµ
ĠáĪ³áĭķáĪµáĭĴáīµ
">
ĠáĬ£áįĵ
ĠáĭĿáĮ¥áīĢáĪĻ
ĠáĭĿáīĥáĪĪáĪµ
Ġáī¥áĮħ
ĠáĪĺáĪĥáĬķ
áĪ¨áĬŃáī°áĪŃ
áĭįáĭŃ
ĠáĭĺáĪĺáĪį
ĠáĭĺáĬŃáĪ©
ĠáĭŃáĪµáĭķ
ĠáĭŃáīĲáīµ
Ġáĭµáĭ¨áĬķ
áĮ½áī²
áĭ¨áĪĽ
Ġáĭ¨áĪĲáĮķ
áĪ²áĬķ
áĮłáīĥ
ĠáĭįáĭķáĪĬ
ĠáĭĿáī°áĬ»
áīĲáĬ«
ĠáĮ¥áĪ©
áĭĻáĬĵ
ĠáĬªáĪŃáĬ¢
ĠáĮ½áĪĽ
ĠáĬ¥áĬĵáĬ¾áĬĲ
ĠáĬ¥áīµáī¥áĪī
ĠáĬ¨áī°áĪĺáĪįáĬŃáīµ
ĠáĪĺáĪµáīµáĭ«áīµ
ĠáĭĪáĭ²áĬ¡
ĠáĪĻáī³áĬķ
ĠáĪĻáĪĲáĭ³áĪ«
ĠáĪĺáĪŃáĪļ
ĠáĬ¨áī°áĪĽáī³áīµáĬķ
ĠáīĢáĭ³áĪĽáĭŃáĬķ
ĠáĪĤáī£
áĬĶáĪį
Ġáī°áĪ°áĪİáĬķáīĦ
áĮĮáī³
ĠáĪĺáĭĵáĮ¹
ĠáĬ½áĬķáĪ¨áĬŃáī¥
Ġáĭīáĭµ
ĠáĪµáĭ°áīµáĬķ
ĠáįĪáī°áĭįáīµ
ĠáĭĺáĪ¨áī£áĬ¡
ĠáĭĿáīķáĪĺáĮ¥
Ġáī¥áĭ°áīĤ
Ġáī¥áĪĿáĭĥáĬĵ
ĠáĬķáĮīáĪ°
ĠáĭįáĪķáĪµáĬĵ
ĠáĪĵáī°áī²
ĠáĭĪáĪ°áĬķáī²
ĠáĭĿáĬ£áī°áĭİ
ĠáīµáĬ¸áįįáĪį
Ġáī£áĬķáĬŃáī³áīµ
ĠáĬ«áĬķáĪ°áĪŃ
ĠáīģáįħáįħáĪŃ
ĠáīĽáĬķáīĭáī³áīµ
ĠáĬ«áĪĿáįĵ
ĠáĮ£áĭķáĪļ
ĠáĬ£áĭŃáĮįáĭµáĬķ
Ġáī°áįĪáĪįáĭ©
ĠáĭīáĪĳáĭ³áīµ
Ġáī¢áĭĿáĬĲáĪµ
77
DF
qu
áį³áį
áī¥áĪĪáĭŃ
áī¥áĪĥáĪī
áĪµáĬĲ
ĠáĬŃáī°áĬķ
ĠáĬŃáĮ»áĭĪ
ĠáĬŃáĮ¸áĬķáĪĳ
áĪĺáĬĵáīµ
áįįáĪĭáĭŃ
ĠáĭĺáĪµáĪĿ
ĠáĭĺáĬķáīĢ
Ġáī°áĬŃ
ĠáĭŃáĪĿáĪħáĪŃ
áĪĬáĪĳ
áĬŃáĪĻ
áĬŃáĪ½áĬķ
áĪħáī²
áĮ¥áĪļ
Ġáīłáī°
ĠáĪĽáĪ½
ĠáĭĿáī°áĪŃ
ĠáĭĿáī°áĮ¨
ĠáĬŃáīµáĪ°áĪĿáĭĳ
ĠáĬŃáīµáĪĺáĪŃáĮ½
Ġáĭķáĭ°áĬĵ
Ġáī£áĬĴ
áĭ«áīµáĬĵ
ĠáĬ½áĮĪáī¥áĪ®
ĠáĪħáĭĿáī¢áĭįáĬķ
ĠáĬ¥áīµáįĪáīµáĭİ
ĠáĬ£áĬķáīĢ
áĪ¸áĪī
áĭĢáĬĸ
ĠáĮĪáĭĽáĭį
ĠáĪĺáĪŃáįįáĬ¥
ĠáĮĬáĭ´
ĠáįįáĪŃáĭ±
ĠáĪĵáĭŃáĪİáĪĿ
ĠáĮĵáĪĭ
ĠáĮĵáĪįáĬ«
Ġáī°áĪĵáĬķ
áĪķáĪįáĭĭ
Ġáī¢áĪī
ĠáĭĺáĪĺáĬĳ
Ġáī¥áĭĪáĭ±
ĠáĬ£áĭķáĮ½áĪĿ
ĠáĬ¨áĭŃáī°áĪ¨áįī
ĠáĪ°áĬķáĪ°áĪĪáīµ
ĠáįĪáĮºáĪĽ
ĠáĭĿáĪķáĪ°áī¥
ĠáĬŃáįīáĬ¥áĬķ
ĠáĪĴáĭĿáĬ©áĪĿ
ĠáĬķáĪĿáĪķáī³áīµ
Ġáī¥áĪĿáĬķáī£
ĠáĬķáĪĿáĭįáĪ³áĭµ
Ġáī¥áĭĪáĮĪáĬĸáĪĿ
Ġáī¥áĬĵáī°áĭŃ
ĠáĪµáĭĬáĭµáĬķ
ĠáĬŃáīµáīħáĮ½áĪį
ĠáĪĿáīģáĪŃ
Ġáī°áīłáĮĬáĪ¶áĪĿ
ĠáĮ¸áĬķáĪĲ
Ġáīłáĭ³áĪĤ
ĠáĪĺáĮĪáĭµáĬ»
ĠáĭĿáī°áĭįáĪĥáīł
ĠáĬ¥áīµáĮĪáī¥áĪŃáĭİ
ĠáĪ¥áĪŃáĭĵáī°
Ġáī°áĬ£áĪļáĬĳ
Ġáī°áĬ¸áĪ²áī±
ĠáīħáįįáĪŃáĬĵáĪĨáĪĿ
ĠáĪ¸áĭīáĭĵáī°
ak
ĠáĬ£áĮ½áĬķ
ĠáĬ¥áīķ
ĠáĬ¥áĪįáĪĿ
áĪµáĪĽáĭķ
áĪµáī³áīµáĬķ
ĠáĭĿáĪµáĭķ
ĠáĬķáįĪáīµ
Ġáī¥áĪķáīµ
áĬ¥áĬĴ
ĠáĪĿáīĿ
ĠáĪĿáĪŁ
áĪ«áĭĿ
áįįáĭķ
ĠáĭĺáĬķáī¥
ĠáĬĲáīµ
áĬ«áĭ®áĬķ
ĠáĭŃáĪĻáīµ
Ġáīµáīµ
áĪ©áĪŃ
ĠáĪķáĬķáĮ»
áĭ²áĪŀáĪµ
áī¦áĪŀ
ĠáĪĺáĬķáĬĲáī¶áĪĿ
ĠáĬŃáīµáĪ¨áĬ½
ĠáĬŃáīµáĮ¸áĬķáĪķ
ĠáĭķáĮ¸
ĠáĬŃáĬķáĭĪáĮ½áĬ¥
áĬłáĭ®
ĠáĪ½áįįáī³
ĠáĪŀáīµáĬĵ
ĠáĬ¨áĪĿáĭĿáĮĪáī¥áĪ©
Ġáī³áĬķ
Ġáīħáĭ±áĪ³
ĠáĪĿáĬķáĮ»áĪį
áĭªáĪ©
ĠáĭĿáĭĪáĭĵáĪĪ
ĠáĭĿáĮĪáīłáĪ«
Ġáī°áī£áĪª
áīµáĬ«áĪį
áĪįáĭĵáĪĪáĪĿ
áīªáĭµáĭ®
ĠáĬ£áīłáĪİ
ĠáĬ£áĭķáĪª
ĠáĮķáĬķáĭ²
ĠáĬķáĭĪáĭ°áĭŃ
ĠáĬ£áĭŃáĬ®áĬķáĬ©áĪĿáĬķ
ĠáĬ¥áĬķáĪµáĪ³áī³áīµáĬķ
ĠáĪµáĪĪáĭĺáĭŃáĬ®áĬĲ
ĠáĬĲáī¢áĭ«áīµáĬķ
Ġ03
ĠáĬ£áĮĭáĮ¢áĪĿáĭİ
áĭĵáī¥áĭª
ĠáĪķáĮįáī³áīµáĬķ
ĠáĭķáĪŃáĭ²
ĠáĪĺáĬ«áĬĲ
ĠáįķáĪ¬áĭĿáĭ°áĬķáīµ
ĠáĭļáĭĪáĪĥáī¥
ĠáĭļáĪµáĪĿáĭĵáĬĴ
ĠáĭŃáī£áĪ¨áĬ½
áĪ¸áĭŃáĮ¥
ĠáĪĺáĪĪáĪ±áĪī
ĠáĬ«áĪĬáįİ
áĪĿáĪī
ĠáĬ¥áĮ½
ĠáĬ¥áįĪáĪįáĮ¦áĪĿ
ĠáĭĿáĮ½áĪķ
ĠáĭĿáĪķáĭĿ
ĠáĭĿáĪ¨áĬ½áī¡
ĠáĭĿáĮ¥áīĢáĪĺáĪī
áĬĲáīłáĪ«
Ġáī¥áĪĪáĭį
ĠáĪĺáĪ¨áĮĥ
ĠáĬ¨áĬ¥áīµ
áĪĺáīĳ
áĪĺáĮ¦
áĪĽáĪĽáīµ
ĠáĭĺáĬł
ĠáĪĵáĬª
ĠáĭŃáĬ¥áī²
ĠáĭŃáĪ¨áĬ£áĭ©
ĠáĭŃáįįáīµáĬĳ
áĪ°áī£áīµáĬķ
ĠáĪ°áĪĵáīķ
áĭĪáĭŃáĬķ
áĬŃáĪĭ
Ġáīµáĭĵ
ĠáīłáĪŃáī²
áĭ®áī¥
ĠáĬ¥áĬķáī°áĪĪáĭī
ĠáįįáĪªáĬ£
ĠáįĭáĬķ
ĠáĬŃáīµáĪħáĪī
ĠáĬŃáīµáĭµáĪķáĬĳ
áĭĳáĪį
áĭĳáĬĵ
ĠáĬłáĪĭáĪħ
áĮİáĭµ
ĠáĬ£áĭŃáīµáįį
áĮ¡áĪŃ
áīłáĪįáī²
ĠáĬ£áī¦áī³áī±
ĠáĮİáĭ³
ĠáĮİáĬĲáĮ½
ĠáĪµáĪĪáĭĿáĬĲáīłáĪ©
ĠáĪĿáĪķáĬķ
ĠáįįáĪŃáĪĵáīµ
Ġáī¥áĪµáĬ¥
ĠáĬ¢áĬķáĭ¶
ĠáĮŃáĪķ
Ġáī°áĭĵáĮ¢
áĬķáĪµáĬº
Ġáī¥áīĲáĪĬáĪį
ĠáĪĺáĪĬáĪ³
ĠáĬķáĭĪáĮ»áĬ¢
ĠáĮ¸áī¥áĪĴ
ĠáĭĿáĮĪáīłáĪ¨áīµ
ĠáĭĺáĪĿáĪ©áĪī
áĬ¥áĭĿáĭĿ
ĠáĬĵáī¥áĪ«áĬĵ
ĠáĭŃáĬ½áįĪáĪį
ĠáĬ£áĪ¸áĬķáĭ³
ĠáĮĢáĬĲáĪ«
ĠáįįáīĳáĪ«áīµ
Ġáī°áī°áĪĵáĪĴ
ĠáĬ®áĪĿáįĴáī°áĪŃ
ĠáĪµáįĸáĪŃáī³áĭĬ
áĬŃáĪŃáĪµáīµáĭ«áĬĵáīµ
Ã¥n
ĠáĬķáĪĿáĭķáī£áĭŃ
ĠáĪĿáīħáĭŃáĭ«áĪŃ
48
áī°áī¶áĪĿ
ĠáĬķáĪĦ
ĠáĬŃáīĥáĪĪáĪµ
ĠáĬŃáĮĪáĭĿáĬ¥
áĬ£áĬĲáĬķ
ĠáĪĿáĮ¹
ĠáĬ¨áĭ°áīµ
áī£áĪµáĬķ
áĪĭáĪĽáĭŃ
áĪĽáĭĵ
ĠáĭĺáĮłáīĵ
áĭ«áĬĵ
ĠáĬ£áĭŃáĪĲ
áĬŃáĬķáĬķ
ĠáĭĪáĪİ
áĬ¨áĪĻ
áĮĭáĬĶ
Ġáĭļáĭķ
ĠáīĢáĮ¸
ĠáĪŃáī¥
ĠáĬłáĪĺáĪµáĮįáĬĲáĬ«
ĠáĬłáīłáĪµáĪ¨áĬ©áĪĿ
ĠáįĪáīĥ
ĠáĬĲáĭŃáĪŃáĭĭ
áĬºáĭ±
áĪĲáĪŃ
áĪ¬áĭ³
ĠáĬ¸áĪĿáĭĻáĭŃ
áĭ°áĪįáĭŃ
ĠáĬ£áĭŃáī°áĪĵ
Ġáī°áĭĪáĪµ
ĠáĬ½áīµáįĪáĪįáĮ¡
áĮ»áĬ¥áĬ«
ĠáĭŃáīķáĪĺáĮ¡
ĠáĭĿáĪĪáĬł
Ġáĭ°áĮĬáĪŀáĪĿ
áĬķáĮįáĭķ
ĠáĪįáĪĿáĭµáī³áīµ
ĠáĬķáĭįáĪį
ĠáĬķáĪŃáĬ¥áĪµáĬ¹áĪĿ
ĠáĪĦáĪĪáĬķ
ĠáĭĿáīłáĪįáĮ½
Ġáī³áĪķáĮĵáĪµ
áĮĪáīłáĪŃáĬ©
ĠáĮłáįĬáĬ¦áĪĿ
áĪĺáĬĲáĪī
ĠáĭĻáĪŃáĭ«áĬĵ
ĠáįķáĪ®áĮĢáĬŃáīµáī³áīµ
ĠáĭŃáĭµáĮį
ĠáĪĥáĭĭáĪŃáĭ«áīµáĬķ
ĠáĭĺáĭµáĪįáĭ¨áĬĴ
ĠáĪµáĬķáĮŃáĪ®
ĠáĪĵáī°áīµáī²
ĠáīĢáĬķáĭ©
Ġno
ass
ĠáĭįáĮ¹áĭĵáīµ
ĠáĪµáīħáĭ«áīµ
ĠáĬ£áĭŃáĪ¨áĪ³áĭķ
ĠáĪĺáĬķáīĢáĪĬ
ĠáīłáįĤáĪĳ
Ġáī¥áĪįáĭĳáĪį
ĠáĬ¤áĪįáĪ³áī¤áĮ¥
ĠáĪµáĪĿáĪĿáĭĵáīµ
ĠáĪħáĭĪáĪĵáīµáĬķ
ĠáĪĵáīłáĪ¬áī³áīµ
áĬĵáīłáĭŃ
áīłáĬĲ
ĠáĭĿáī¥áĪĪáĬ©áĪĿ
ĠáĬķáĬ¼
áĬĲáĮ¸
ĠáĬŃáĪ°áĪĿáĭĸ
ĠáĬŃáĪĥáĭµáĪĿ
áĬ£áĪĪáĬķ
ĠáĪĿáĬŃáįį
ĠáĬ¨áĮ¥áįįáĬ¥
ĠáĭŃáĭĪáĪµáĭ±
áĪ°áĪİ
ĠáĪ°áĭ°áĭ°
ĠáĪµáĭ¨
ĠáĬ¨áĪĿáī°áĬķ
ĠáĬ¥áĬķáĪ°áĪ³
ĠáĬ£áĭŃáĪĺáĪ¨
áĬ¸áī³áī°
ĠáĪĽáĪŃáĬŃ
ĠáįįáĭĪáĪ³
ĠáĭĿáī°áįĪáĪįáĮł
ĠáĬŃáĬķáĭĪáĪµáĭµ
áĬ¢áĪ³áĭŃáĭ«áĪµ
ĠáĬ¥áĪĿáĬĲáī³áīµ
ĠáĮīáĮįáĪį
ĠáĬŃáĪįáĪĭáĭĬ
ĠáĬ¥áīµáĬ½áĬ¥áĪī
áĪľáĭ³
áĬķáĬķáĬĵ
ĠáĬ¤áĪŃáīµáĪ«áĭĬáīµ
ĠáĬ£áĭĿáĭ¨áĬķ
ĠáĬ£áĬ«áĭŃáĭµ
ĠáĬķáĪĺáĮ»
Ġáī¥áįįáīħ
Ġ700
áĭĪáĪµáĭµáĬķ
áĪĿáĪµáĪŃáīµ
ĠáĬ¢áĬķáĮĤ
ĠáĬķáĭķáĭµáĪĿ
Ġáĭĺáĭ¨áĪįáī¦
áĬķáĪµáĪĵ
Ġáī¥áĭĵáĪ°áĪŃáī°
2010
Ġáī¥áĪħáĮįáĭ°áįį
ĠáĬ£áī°áī£áī¥
Ġáī°áĮ»áĭĭáĪŃ
ĠáĭĿáĬ¾áĬķáĬ©
Ġ**
ĠTop
ĠáĬ®áĬķáĮİ
ĠáĭĵáĪŃáĪ°
ĠáĭĺáįįáĪŃáĪķ
ĠáĭĿáĭµáĮįáįį
ĠáĭĿáĭ°áĪĪáĬ»
ĠáĬķáĪįáīłáĭŃ
áĬ²áĪī
Ġáī¥áĬ¢áĭ±
ĠáĭķáĪŃáīħáĬķ
Ġáī¥áīĢáĭ³áĪĿáĬĲáīµ
ĠáĬ£áĬ¨áĬ£áī¥
ĠáĪµáĪįáĮ£áĬĸáĪĿ
ĠáĬķáĬ£áĭŃáĪģáĭµ
ĠáĮ½áī¥áīħáī²
ĠáĬķáĪµáĭµáĪ«áī¤áīµ
ĠáĭĿáīĳáĮ¸áĪŃ
Ġáī°áĪµáĭĵáĬķ
ĠáĭŃáĭ°áĪįáĭ¨áĬĵ
ĠáĬ£áĬķáī¥áī¡
ĠáĮĨáĬķáĪ°áĬķ
ĠáĭŃáĮĪáī¥áĪ¨áĬĵ
ĠáĬŃáĬŃáĬŃáĬŃáĬŃáĬŃáĬŃ
ateg
Ġáĭ³áĪķáĪ¨áĭĭáĭŃ
ĠáĭµáĪĿáĮ½áĬ»
ĠáĪ°áĬĵáĭŃáĬķ
ĠáĮĪáī¥áĪŃáĬ¤áĪį
ĠáĬ£áĭŃáī°áĬ£áĭĺáĭĿ
áĮĭáĬķáĬķáīµ
Ġáī°áĪĮáįİ
áĭŃáīħ
áī°áĬ¦áĪĿ
ĠáĭĿáīĥ
ĠáĭĿáĭ°áĪŃ
ĠáĭĿáĪ°áĪŃáĪĲ
ĠáĭĿáĪħáī£
Ġáī¥áĪ³áĪį
áĬ¥áĪī
ĠáĪĺáīĥ
ĠáĪĺáĪ¶
ĠáĬŃáĮĭ
ĠáĬŃáĭ°áĪĬ
ĠáĬŃáĪ¨áĬ½áī£
ĠáĬ¨áĬ«áĭŃáĭ±
áįįáĪŃáĪµ
áĭ°áĭį
áĭ°áĭŃáĬķ
ĠáĭĺáĬŃ
Ġáī°áĮĪáĪį
ĠáĭŃáĪ¸
áĭ«áĭ¨áĪŃ
ĠáĪ°áĮĪáĭ±
ĠáĪµáĪĽáīµ
áĭĪáĭ³
áĭ³áĭĬáīµ
Ġáīµáĭ°
áĪħáĭĽáī¥
áĭ¨áĭŃáī²
áĬ¸áĪĪ
Ġáĭ°áĮĭáĭĬ
ĠáĮĪáĭ³áĭŃ
áĪĥáĪĭ
ĠáĪĿáĪµáĪįáĪĿáĬĵ
ĠáĭĿáī°áĪ³áī°
ĠáĬŃáīµáĪĿáĪĥáĪŃ
ĠáĬªáĪħáĪįáĭĪáĬĵ
ĠáĮįáĭľáĭ«áīµ
ĠáĬ¨áĭŃáįĪ
ĠáĬ¥áĮįáĭļáī¥áĪĶáĪŃ
ĠáĬ¨áĪĿáĭĿáĪķ
Ġáī¥áĭĿáĪĵáĪ¸
áĪŃáĭ«áĭĬ
áĬ°áĭŃáĬĳ
ĠáĪĿáĬ½áĬķáĭ«
ĠáĬ£áĭ¨áĮłáĪ«áĮ¥áĪŃáĬķ
ĠáĬ£áĪĺáĬĲ
ĠáĭĿáīłáĪĪáĬĵ
ĠáĬ£áĭįáĭ²
ĠáįĢáĮ¥áī³
ĠáĬ£áĭŃáĬķáĪķ
ĠáĭĺáĭŃáī°áĮ¸áīł
ĠáĭĿáĪ°áĭĵáīł
ĠáĬ¥áĭĪáĬķ
2012
ĠáĪĨáĪ´
ĠáīłáĪīáĬĴ
ĠáĬŃáīķáĭŃáĪ®
ĠáĬ£áī°áĭĪáīµ
Ġáī°áĪĺáĪįáĬŃáīµ
ĠáĬ£áĪ¨áĭ²áĬ¡
ĠáĮĪáīłáĪ¨áīµ
Ġáī¥áĮ¾áī°áĭŃ
ĠáīłáĪ¨áĬ¸áīµáĬķ
Ġáī¥áīĢáĮ»áĪĬ
ĠáĮĢáĬĲáī«
ĠáĪĿáĪŃáĮįáĮĭáįħ
áĭĽáĭĺáĪĺ
ĠáĬ¢áĭ®áī¥
ĠáĪ²áīªáĪį
Ġáĭ°áĭ¨áī¡
ĠáĪįáĭķáĪĮáĬ»
ĠáĪĵáĮİáĪµáĬķ
Ġáī°áĪ°áĪĽáĪļáĭĸáĪĿ
ĠáĭķáĪĿáĪª
áī¥áĪ¨áī°áĪ°áī¥
Ġáī°áĭĭáįĬáĪ®áĪĿ
ĠáĪ¼áĪŃ
ĠáĮ½áĭįáĮ½áĭĭáĭŃ
áĬķáĪĺ
áīµáĬ¦áĪĿ
áĪŃáĭ¨áīµ
ĠáĬķáĪ«
ĠáĬķáĬŃáĪįáī²
áĬĲáī°
ĠáĬŃáĭµáĪķáĬķ
áĮįáĭµáĬķ
Ġáī°áĭĥ
áĭĪáĬķáĬķ
ĠáĮįáĪģáĭµ
áīķáĭįáĪĿ
ĠáĪķáīĸ
ĠáĪķáĭ°áĪŃ
ĠáĮĪáī£áĪª
ĠáĪĽáĪĭ
ĠáĪĥáĮĵ
áĪĻáĪĭ
áĪĻáĬ»
ĠáīĢáĪĪáĪĿ
áĭīáī³áīµ
ĠáĬªáĮĪáī¥áĪ®
ĠáĬłáĪĪáĬĵ
áĮ¢áĮ¡
ĠáĪĪáĭĬ
ĠáĬ£áĬķáįĥáĪŃ
Ġáĭ³áī³
ĠáĮłáĪĺáīµ
ĠáĭĿáĭĪáĪ°áĭµ
ĠáĪĿáĪķáī£áĪŃ
ĠáīłáĪįáĬŃáĭİ
ĠáĮ¸áĬĴáĪķáĬ«
áĮįáĪ¨áĭŃ
ĠáĭĿáīĲáĪ¨áī¡
ĠáĪĺáĮįáĪĪáĮºáī³áīµ
ĠáĭĵáīķáĪŀáĪĿ
ĠáĬ¥áĬķáī°áĬ¾áĬķáĬ©
ĠáĬķáĭįáĪįáīĢ
áįįáĪįáĮ¦
Ġáĭĳáįį
Ġ250
áĬ¬áĪ«
ĠáĭŃáĮįáīłáĬ¦
ĠáĪĺáĪĵáĭĽáĭŃ
ĠáĭŃáĮ½áĭķáĪŃ
ĠáĭįáĪīáĭ³
ĠáĭĤáĪĭáī¶áĪĿ
áĪĪáĭ¨áĪī
ĠáĬķáī£áĭķáĪįáĬ»
ĠáĮ¸áĪĭáĬ¢áĬĵ
ĠáĭĿáī°áīĲáĪĺáĮł
áįĪáī°áĪįáĬ©áĪĿ
ĠáĪĽáĪħáĪ°áĭŃáī²
ĠáĬ£áĪļáĬķáĬ«
ĠáĬŃáĮįáĭĻ
ĠáĭŃáĮįáīłáĪ¨áĪİáĪĿ
ĠáĭĺáĭŃáī¥áĪĪáĬķ
ĠáĬķáīĳáĮ½
Ġáī¥áĮŃáī¡áĮ¥
ĠáĭŃáĪĥáī¥áĬ«
ĠáĭĺáĪ¨áī£áĭŃ
ĠáĭĺáĭŃáĪĿáĪħáĪĭáĭį
ĠáĮ¸áĮķáĪª
Ġáī°áĬ¹áĪ²
Ġvi
áī¥áĬĲáīµ
áĭŃáĬĴ
ĠáĬ¥áĪ°áĪŃáĪķ
ĠáĮ´
áīłáĮł
áī³áĪª
ĠáĪĺáĭķáĪŃáįİ
ĠáĬŃáĪ®
áĪ¨áĪ±
áĪķáĪĽáĪĿ
Ġáĭĺáī¥áĪİ
ĠáĭĺáĮłáīĵáĪįáĪį
ĠáĬĲáĭĵáĭŃ
ĠáĪĵáįĬ
ĠáĪĵáĪĭáĪį
ĠáĭŃáĮ¥áĭĵ
ĠáĭŃáĮ»áĭĪáīµ
ĠáĪ°áįĪáĪ©
ĠáĬ£áĭŃáī¥áĪīáĬķ
áĭĭáĭķáĬĵ
ĠáĭļáĪĺáĭįáīµ
ĠáĬŃáĬķáĬ¨áįį
áĬłáĮĭáĬķáĬķáīµ
ĠáĪŃáĬ¸áī¥
áīĥáĪĭáīµ
ĠáĭĿáĬĲáĬ£
ĠáĭĿáĬĲáĬ£áĪ°
ĠáĪ½áĪ¨
ĠáĭľáĮłáīĵáĪįáĪį
ĠáĬ¥áīµáĪ¨áĬ½áī¦
áįħáī³áīµ
ĠáĬ£áĬķáĪµáīµ
ĠáĪĺáĪµáĬ®áīµ
Ġáĭ¶áĬ¾áĬķ
áī¤áĪĭ
ĠáĭĿáĭĪáĭ°áĭŃ
ĠáĪµáĪĪáĭĿáĬ¾áĬĲáīµ
ĠáĬ¨áĪĿáĭĺáĪİáĬķ
ĠáĭĿáīłáĪĪáī¶
áįĢáĪ¨
áĮłáĬķáīĢáīķ
Ġáĭįáĭµáī¥áĬĵ
Ġáī°áĪ°áĬĴ
ĠáĬ£áĭŃáĬ°áĬĵáĬķ
ĠáĪĿáĭįáĭĵáĪį
ĠáĪĿáĮįáĭĽáĬ¥
ĠáĬ¾áĭŃáĬĵ
Ġáī°áīłáĪĭ
ĠáĭĺáĪĺáĬķáĬĵ
ĠáĭĿáĬĲáīłáĪŃáĬ©áĪĿ
ĠáĬ¨áĪĿáĭĺáĪİáĬĵ
ĠáĭŃáĮ½áĭķáĪ©
ĠáĭĿáīłáĪįáĭķ
ĠáĮ«áĭį
áĪĺáĪĵáĭµáĪŃ
áĭĪáĪįáĭ²
ĠáĭµáĬ½áĪĺáīµ
Ġáī°áĭĪáĪĬáĭ³
ĠáĪķáĭĿáīł
ĠáĬ£áĪĽáĪ«áįĤ
ĠáīµáĪŃáĮīáĪĿáĬķ
ĠáįĥáĭįáĭĴáīµ
ĠáĪĺáĪĽáĪħáĪŃ
ĠáĪĿáĪħáĪĭáĭĪáĭŃ
ĠáĭµáĪĮáī³áīµ
ĠáĬķáīłáĭŃáĬķáĬ»
ĠáĬ£áĭŃáĭ°áĪĪáĬ¹áĬķ
ĠáĬ£áĭµáĪĽáĪ³áĭĬ
ĠáĪĿáĪµáīµáĭįáĭĵáĪįáĬķ
Ġáī¥áĮĲáĭŃáī³áĬĵ
ĠáĭĿáĮłáīĲáĪµ
Ġáī¥áĮĬáĭľ
ĠáīĢáįĤáĪī
ĠáĬķáįķáĪ¨áĭļáĭ°áĬķáīµ
áĮĭáĬĶáĬķáĬķáĬĵ
100
ear
áĬķáĪĵáĭµáĪķ
áĪįáĮĭ
áĬ¥áĬ½
ĠáĬŃáĮĪáĪįáĮ¹
ĠáĪĿáĬ¢áī³áĭĬ
áī£áĭįáĬķ
áĪĽáĬĵ
Ġáĭĺáĭ°áĬķáīķ
ĠáĬĲáĮłáĪĭ
ĠáĪĵáĪ¨
ĠáĭŃáĭ³
ĠáĭŃáĪķáĮįáĭĻ
ĠáĬ£áĭŃáĪŃáĬ£
ĠáĭĪáĪ½
áĭĽáĪŃáĬķ
ĠáīłáĪ¨áĬ½
Ġáĭ°áĭ°
áĭ²áĬĵ
ĠáĪĿáĪµáĪįáī³áīµ
Ġáĭ¨áĬ¥
Ġáĭ¨áĪĺáĪµáĮįáĬĲáĬ«
áĮ¸áįį
ĠáįįáĪª
ĠáĭĿáī°áĮ¸áīł
ĠáĬŃáīµáī£áīµ
ĠáĬłáĪĭ
áīĥáĬķáĬķ
ĠáĭĿáīłáĪĪáĬķ
ĠáĬ¥áĬĵáĮłáĪĺ
ĠáĪĺáĪµáĪª
ĠáīĥáĪįáĬªáĭ³áĬķ
ĠáĮĪáĭĽáĬķ
ĠáīģáĪį
áĮĵáĭĵáĭĻ
ĠáĮĵáĪĪáĬķ
Ġáī¥áĪµáĪ©áĭķ
ĠáĮĪáĬķáĭĺáī¥áĬ«
áĪįáĬ¥áĭİ
ĠáįĢáĮĭ
Ġáī¥áĬ¥áĮįáĪª
ĠáĪĽáĭŃáĬŃáĪ®
áĪĺáĮ½áĬ¥áĬķ
ĠáĬķáĭķáĪĪáīµ
ĠáĭĪáĪ¨áĭ±
ĠáĬłáĭŃáįĪáĮłáĪŃ
áĭ°áĪŃáĭĿ
ĠáĭĺáĪĺáī°
ĠáĪĿáĭĿáĪŃáĮĭáĪķ
ĠáĬķáĭįáĪķ
ĠáĭĿáĪŃáĬ¨áī¥áĭİáĪĿ
áĭ°áĮĪáĪī
Ġáī°áĮ»áĭĪáīµáī²
ĠáĪħáĭĿáī¥áī³áīµáĬķ
ĠáīłáĮĥáĬ©áĪĿ
ĠáĬ£áĭŃáĪĺáĪµáĪīáĬķ
ĠáĬ¡áĬķ
ĠáĭµáĬķáĬ³
ĠáĪ°áĪĭáĪ³áĬķ
Ġáī°áĭĭáĪĤáī¥áĭİáĪĿ
ĠáĪ¨áĬ¸áī¦
ĠáĭŃáĮįáī¥áĬ¦áĪĿ
ĠáĬĲáĮĬáĪ®áĪĿ
ĠáĪĺáĪ«áĬ¸áī¥áī²
ĠáĬ£áīĢáī£áī¥áĪĭ
Ġáĭķáĭīáī³áīµ
ĠáĪļáĪµáĮ¥áĪŃ
Ġáĭ²áįķáĪİáĪĽáĪµáĭ«áĭĬ
ĠáĭĿáī°áĪĺáĪŃáĬ®áĪ°
áĮ¸áĬĵáĬķáĭķ
ĠáĮ£áĭķáĪ³
áīłáĭµáī²
ĠáĭļáĮįáī¥áĬ¦
ĠáĬ¥áĬĶáĬ¹
ĠáĪĿáĪįáĭķáĭĵáĪį
ĠáĬłáĭŃáįĪáĮłáĪŃáĬ©áĭİáĪĿáĬķ
]áį¢
áī¥áĬł
ĠáĪĺáĮķ
ĠáĬ¨áĪ¨áĮĭáĮįáĮ½
áĪĽáĮ½
áĭ°áĭ®
áĭ°áĪīáĬķ
ĠáĬĲáĪŃ
Ġáī°áĬº
áĭĪáĪİáĪĿ
ĠáĬ£áĭŃáī¥áĪĪ
ĠáīµáĭĪáĮ½áĬ¥
áĪ©áĭİ
áĬ¨áī°áĪĽ
áĭĽáĪŃáī¥
ĠáĪķáīĳ
áĭ®áĬĵ
áĭ®áĬĵáīµ
ĠáĭļáĪĿáĪŃ
ĠáĭļáĬ£áī±
ĠáĭĿáī°áĪ«áĬ¥
ĠáīħáĪįáĭį
ĠáĭķáĪ¸áĪį
ĠáīĢáīħáĭµáĪľ
ĠáĬªáĬ¾áĬĳ
ĠáĬªáĮłáįįáĬ¥
ĠáĮ½áĮĪ
ĠáĮ½áįī
ĠáĬ½áĬ¥
ĠáĬ£áĬĲáĮº
ĠáĪ¨áįĪáĪ¨áĬķ
ĠáĬ¨áĪĿáĭĿáĮĪáĪĪ
áĪ¸áī±
ĠáĭĭáĮįáĬ¡
ĠáĮĪáĭĽáĬ¹áĪĿ
ĠáĬķáĬ¥áĬķáĪµ
ĠáĮĬáĪįáĭĵáĭµ
áĪħáĪįáĭĪáĪī
ĠáĪĺáĭĪáĭ³áĭµáĪŃ
ĠáĪĿáĮįáĪĿ
ĠáĬ£áĪĽáĪĵ
Ġáī°áĪ«áĬ¸áī¥
áĭµáĪĿáĮ½
áĪĵáĪįáįİ
ĠáĭĳáĪĺáĪŃ
ĠáĭĿáĪµáĪĽáĭķ
ĠáĪĺáĪµáĭĭáĬ¥áīµ
ĠáĮ¥áĬķáī³áĭĬáīµ
ĠáĪĺáĪ²áĪįáĭİ
ĠáĭĿáĮłáĪįáī¥
ĠáĮ¸áĪĵáĭŃáĬķ
ĠáĭµáĪŃáīĤ
ĠáĭĿáĪ°áĪĽáĭķáĬĵáĭ®
ĠáĬ£áĭµáĪĭáĭŃáĬĲáī±
ĠáĬ£áĪĺáĪįáĬªáī¶áĪĿ
Ġáī°áĪĥáĬĴ
ĠáĬķáĬ¥áĪµáĬĲáī±
ĠáĪĥáĭ²áĪŀáĪĿ
ĠáĪĺáī¥áĭĽáĪķáī²áĬ¦áĪĿ
ĠáĬķáĪĺáĬķáįĪáĪ³áĭĬ
ĠáĪķáĮķáĪµáī²
ĠáīĢáĮłáĪįáĭ«
AT
ning
ps
ust
ĠáĬ£áĪĲ
ĠáĬ£áĮĪáĭ²
áī°áĪĥ
áī°áī¡
áĬĲáĭī
Ġáī¥áĮ«
ĠáĬŃáĮĪáī¥áĪ¨áĪī
áĬ£áĬ«áĬķ
áĬ£áĪľáĬķ
ĠáĬ¨áĬ«áī¥
áĪķáĭĻ
ĠáĬĲáĪĵ
ĠáĭŃáī¥áĭĽ
áĭ«áĬ¦
ĠáĪµáĪµ
áĪªáĪķáĬĲáīµ
áĪ³áįĭáĮ¥
áĪĬáĬ¹áĪĿ
ĠáĭĪáĭµáĬķ
ĠáĪĽáĭĵ
ĠáĬ¥áĬķáī°áīłáĪī
ĠáĮ¥áĪľáīµáĬķ
ĠáĪ°áī¥áĬĵ
áĮĪáĪŃáī²
ĠáĮ¸áĭĭáĭķ
ĠáīĢáĮ£áĭŃ
ĠáĬªáĪ©
ĠáĬłáĭį
ĠáĬķáĪĿáĪµáī³áįį
áĬºáīµ
ĠáĬ¨áĭŃáĪ°
ĠáĬ¨áĭŃáīĢ
ĠáĬķáĪµáĪª
ĠáĪķáĮĤáĪµ
ĠáĬ¨áĪĿáĭĿáīłáĪİ
Ġáī°áĪĺáĪ²
Ġáī³áī¦
ĠáĬ£áĭĿáĪĽáĭµ
ĠáĬŃáįįáĪī
ĠáĬ¬áĭµáĬ©áĪĿ
ĠáĭĿáįĪáĮ¸áĪŀ
áīłáĬ£áĬ«
ĠáĬ¢áĬķáĮįáĪĬáĭĿ
áĮ¥áīĥáĭķ
áĮįáĪĿáĮįáĪĿ
ĠáĭĵáīķáĪĿáĬķ
ĠáĪĺáĪ³áįįáĬķ
áĪĺáĭµáĪħáĬķ
ðŁ¤
ĠáĮ£áĪĬ
áĪ°áĪŃáĪĳáĬķ
orm
ĠáĮĪáīłáĪŃáĬ«
ĠáĪĺáĮĪáĭµáĬķ
áĮĪáīłáĪŃáĬĵ
ĠáĭŃáĮįáī¥áĬ£áĬ«
ĠáĬķáĬ¨áī³áī°
ĠáĬ¥áĬķáĮĮáĪ«áĬķ
áĪįáĭķáĪİ
ĠáĬ£áĭŃáĬ°áĬķáĬ«áĬķ
ĠáĭĿáĭĪáĪ°áĭ¶
ĠáĪ°áĪ«áĪķáī°áĬĽáī³áīµáĬķ
ĠáĪĵáĭĪáĭŃáĬķ
ĠáĪĺáĪĺáĪĬáĪ±
ĠáĬķáĪĿáĬ¥áĪĭáĭŃ
ember
áĬ£áĭĿáĭ©
ĠáĪħáįĥáĬķ
Ġáĭ³áĭŃáĪ¬
Ġáĭ³áĭŃáĪ¨áĬŃáī°áĪŃ
ĠáĭŃáĬ£áĬ½áĪĪáĬĴ
áĪ¢áĬ¡
ĠáĬ¢áĬķáī°áĪŃáĬĵ
ĠáĬ¥áī°áĪĺáĪµáĪ¨áī°
Ġáĭįáīħáĭ«áĬĸáĪµ
Ġáī°áįĪáĪĭáĮ¥áĬĲáīµ
áĪĿáĪ³áĪĮ
ĠáĬ¥áįĪáīµáĭİ
áĪŃáĪŀ
áĪŃáĪĵáĪī
áĬĲáĮįáĪŃ
Ġáī¥áĮ½áĬķ
ĠáĬŃáī±áĪŃ
ĠáĬ£áī¥áĬ¦áĪĿ
Ġáī°áĬĵáĭĬ
áĬ½áĭİáĪĿ
ĠáĪĵáĮ¹áĪŃ
ĠáĭŃáīłáĪī
áįĪáįįáī²
áĮ½áĮį
áĭ³áĪħ
ĠáīµáĮī
áĭĺáī¡
Ġáĭ°áĪİ
áĬ¦áĬķáĬķ
áĭ±áĭİ
ĠáĮ¥áĪķ
ĠáĮ½áĭĳáīķ
Ġáī¤áĬķ
ĠáĪ½áĬķ
áīłáĭŃáĬķ
ĠáĪĪáĭĭ
ĠáĬ¥áīµáĪŃáĬ¥áĭ®
Ġáī°áĪĺáĬ²
ĠáĬķáĭĵáĭ²
áĮįáī£áī¡
ĠáĬ£áĭŃáī°áĬ»áĬ¥
áĪģáĪį
áĪħáĪįáĭİáĬķ
áĪĺáĪįáĪ°
ĠáīĢáĭ³áĭµáĪĿ
áĮĪáĭĿáĬ£
áĭħáĪĿ
áĪĿáĬĵáĭ®
Ġáī¥áĬ¥áīµ
ĠáĪ²áĭĴ
ĠáīµáĬ«áĪĭáĭĬ
áĮ»áĬ¥áĬ©
ĠáĭĪáĪ²áĭµáĬĵ
áĬĵáĪįáĭ¶
ĠáĬŃáĪĿáĭĿ
ĠáĭĿáĪĪáĭĵáĪį
ĠáĭĿáĭįáĬŃáĪį
ĠáĪ¶áīŃ
ĠáĪĺáĪ¨áĮ¸
ĠáĬŃáĪµáĪ¨
ĠáĬ£áĭĺáĪ«
ĠáīłáĮºáĪķ
adio
Ġáĭ°áĬķáĮĴ
Ġ05
ĠáĭĿáĪĺáĪŃáĪĳ
ĠáĪ½áĮįáĪŃáĬĵ
áĪµáĪķáīķ
ĠáĪµáĭīáĪŃ
Ġáī¥áĬ¥áĬķáĮįáĪĬáĭĺáĬĽ
ĠáĬķáĬ¥áĪµáĬĲáī°áĭŃ
Ġáī¥áĪĿáįįáĮ£áĪŃ
áĮ¨áĬķáīķ
ĠáĬ¨áī£áī¥áī³áīµ
ĠáīµáĬķáī¢áī³áīµ
Ġáī°áĪŀáĬ©áĪ®
áĬ¥áĪ½áī¶
Ġáįĳáī²áĬķ
Ġáī¥áĬ¥áĮįáĭļáĬ£áī¥áĪĶáĪŃ
ĠáįķáĪ®áĮįáĪ«áĪĽáīµ
ĠáĬ¥áĪĿáīłáĬłáĪŃ
×Ļ
áĬķáĮīáĪµ
áī¥áīħ
ĠáĬ£áī¶áĪĿ
ĠáĬ¥áīµáĬķ
áĪįáĭĲ
áĪĪáĪİáĪĿ
áīłáĬłáĬĵ
ĠáĭĿáįįáīµáĬĳ
ĠáĬķáįįáīµáĪĴ
Ġáī¥áĪ«áĬ¥áĭŃ
áĬ¥áī¶
ĠáĪĺáĪ½
ĠáĪĺáįĪáĬķ
ĠáĬŃáĪ«áĬ¸áī¡
áĮĪáĮº
áĭįáĭ®
ĠáĭŃáįĪáīµáĭİ
áĭ«áįį
áĬ¨áĬĵáĬ¸
áĭĺáĭŀáĪĿ
ĠáĪķáĭ°áĮį
ĠáĪĿáĪµáĭĺáĭŃ
áĮ¸áĪİáīµ
ĠáĭĺáĭŃáĪĿáĬķ
ĠáĬ¥áĬķáī°áīłáĪįáĬ«
ĠáĬ¥áĬķáī°áīłáĪįáĬ©
Ġáĭļáī°áĪĵáĪĵáĭĿ
ĠáĬŃáīµáīµ
áĬ¢áīµáĭ®áĮµáĭ«
áĭĻáĬħ
ĠáįĪáĪ³áĪ²
ĠáįĪáīĴáĭ±
ĠáĬķáĪĿáĮħáĪĽáĪŃ
áĭ«áĬķáĬķ
ĠáĪħáĭĿáī¡áĬķ
Ġáĭľáĭķ
áĪŃáĬ¨áīłáĪī
ĠáĪ³áĬ¦áĪįáĬķ
ĠáĬ¨áī°áĪĺ
ĠáĪµáĪĿáĭĵáĬĴ
ĠáĬķáĭĿáīĲ
ĠáĪ¸áĭį
ĠáĪĿáĪķáĭ³áĪµ
áįĪáĪĭáĪĪáĭ«
ĠáĬķáĪĺáīłáĪį
ĠáĪ²áĬĲáĪĽ
áĮ¥áīĢáĪĽ
ĠáĪĿáĭķáī¡áĪį
Ġáī°áĮłáĪļ
ĠáīµáĪŃáĮķ
ĠáĪĿáīµáĪĭáĪį
ĠáĬ£áĭŃáĬĲáīłáĪ¨áĬĵáĬķ
áīłáĭ¨áĬĵáĭŃ
ĠáĬ¥áĬķáī°áĭĺáĭŃáĬŃ
ĠáĭĺáĪĺáĪĵáĪĭáĪĪ
ĠáĪħáĭŃáĭĪáī³
ĠáĪħáĭĿáī¥áĬ¹áĪĿ
ĠáĬ£áĪµáī°áĪŃ
ĠáĬ£áĪµáī°áĬķáīµáĬĸ
ĠáĮĢáĪŃáĪĺáĬķáĬķ
ĠáĭĿáĪķáī¥áĪ©
ĠáĪªáĮĭ
áĪ¨áĬ½áī¦áĬķ
Ġáī°áĮ¸áĮĬ
ĠáĭķáĬķáĬŃ
ĠáĭĿáĭ°áįį
ĠáĪŃáĬ¥áĪ²áĬ¡
ĠáįĪáĪªáĪķáĬ«
áĮĪáĪµáĭİ
ĠáĭĿáīłáĪįáĬŃáĭİ
ĠáĭŃáĮįáī¥áĬłáĬĵ
ĠáĬķáĪĽáĪŃáĭ«áĪĿ
áĮłáīħáĪĿáĬķ
ĠáĬŃáīµáīħáīłáĪį
Ġáī¥áĪĿáĪķáĪ³áī¥
ĠáĮ»áĭµáīħ
ĠáĬ£áĭŃáĬ°áĬķáĬ©áĪĿáĬķ
Ġáī°áĭĽáĪªáīł
ĠáĪĵáĭ³áĪŃáĬķ
ĠáĬªáĭ³áĬĲáĭŃ
ĠáĪĺáĮ»áĬ¥áĬ©
ĠáĬķáĪĿáĪĿáĪĭáĬ¥
ĠáĭĿáĮ½áīłáĭ®
ĠáĬ¥áĬķáĭ²áĬ»
ĠáįĢáī¥áįĤ
ĠáįįáīĳáĪŃ
áĪ¨áĭ³áĭ³áĬ¥
ĠáĭŃáĮĪáĪįáįģ
ĠáĮĲáĭ°áĬĵáī³áīµ
ĠáĮ¸áĮ¥áī³áĬķ
Ġáī°áīłáĪ«áīłáĪ¨
ĠáĭĿáĮ¸áĪĵáįİ
ĠáĬ¨áĪĿáĬ¥áĭįáĬķ
ĠáĬ£áĬĵáī¥áĪµ
áĪĺáĬķáĮįáĪµáī³áĭĬ
áīµáĪĪ
áĪµáĪĬ
ĠáĭĿáĪŃáĬ¨áī¦
ĠáĪĺáĮĲ
ĠáĬŃáĪī
ĠáĬŃáįĪáĪį
ĠáĬŃáĮĪáĭĿáĬ¡
ĠáĬ¨áĭķáĪį
ĠáĬ¨áĬĵáįį
áĪ¨áĭ³áĬ¥
áī£áĪ«áīµ
áī£áī£áĭķ
áĪĺáīĲ
áĭįáĭĵáĬĴ
áĬ«áĪķ
ĠáĭŃáĮ¥áīĢáĪĿ
ĠáĭŃáĮ¸áĬķáĪķ
ĠáĭŃáĬŃáĬ¥áĪī
ĠáĭŃáĪĥáīłáĬĵ
áĪ°áĪª
áĪ°áĬĳ
áĭļáĭĻ
ĠáĪ°áĭįáĬĲáīµ
áĭĵáī¶áĪĿ
áĭ³áĮįáĪĿ
áĬ¨áīµáĬķ
áĬ©áĪĽ
áĭĽáĭķ
ĠáĪķáĭ±áĪŃ
ĠáīłáĪŃáĬĵ
áī¡áĬĲ
ĠáĭĺáĭŃáīµáĬķ
ĠáĬ¥áĬķáī°áĪĪáĬ«
ĠáĬ¸áĪĭ
áĭ±áĪ³áĬķ
ĠáĮ¥áīĥ
áĬ®áĬķáĬķ
ĠáĬŃáīµáĬ¸áĭįáĬķ
ĠáĬŃáīµáĪĿáĪį
áĬłáĬ«
ĠáĮ½áĮĮ
ĠáĮ½áįįáĪĴ
ĠáĬłáĪĿáĪĭáĬŃ
ĠáĮįáĬĵáĭŃ
ĠáĬ¥áī°áĪ¸
ĠáĬ¥áĮįáĭļáĬ¥
Ġáī¥áĪĵáĭµáĬĲáīµ
ĠáĬ¥áīµáĪħáī¦
ĠáĬ£áĭŃáīµáĪ¸
ĠáĬ£áĬ«áĭ«
áīłáĪĪáĬ«
áĮĪáĪįáĮįáĪįáĬķ
Ġáī°áĭĪáĬ¨áĪįáī²
ĠáĬ¥áĭļáĬ£áĬķ
ĠáĪĿáĪķáĭĿ
ĠáĭĪáĪŃáĬĤ
ĠáĬ£áĪŃáĪ°áĬĵáĪį
ĠáĬķáĪĺáĪ°áĪį
Ġ85
áīłáī¥áī²
áĪĵáĭ°áĪŃáī²
ĠáĭĿáĪ°áĪĺ
áĪķáĭĿáī¶
ĠáĪĿáĮįáī¥áĬķ
Ġáĭ©áĪ®
áĮ¥áĪĿáī¶
Ġáī¥áĪķáī¥áĪ¨áīµ
ĠáĭĿáĪĪáĪĺáĬķ
Ġáī°áīłáĮºáĪĳ
áįįáĪ«áĪµ
ĠáĬ£áĪķáĭĭáī¶áĪĿ
áīĪáĮ»áĮ¸áĪ®
ĠáĬ£áĭĪáĪį
ĠáĭŃáĭĪáĭµáīķ
áĭµáĪįáĭ®áĪĿáĬķ
Ġáī³áĪķáī°áĭĭáĭŃ
ĠáīħáĪŃáĭĵáīµ
áįįáĪªáīĥ
ish
ĠáĬ£áĪīáĪĭ
ĠáĮ¥áĪĿáĪ¨áīµ
ĠáĭĿáĮĪáĪĪáĮ¾
ĠáĭĭáĪķáĭ²
Ġáī°áĪŃáĬ¥áĭ®áī³áīµ
áīĲáĪĿáĮ¥
2009
ĠáĬ³áĪķ
ĠáĪĿáĪĿáĪķáĭ³áĪ«áīµ
áįĪáĪŃáĪħáĭİ
ĠáĬ£áĪĵáīµáĬĵáĬķ
ĠáĪĺáĭµáĬĥáĬĴ
Ġáī°áįĪáī²áĬĳ
ĠáĭŃáĬ¹áĬĲáĪįáĬ«
Ġáī¨áĪŃ
ĠáĬ½áĬĲáĪ±
ĠáĭĿáĬ¥áĭĿáĭĺáĬ«
Ġáī¥áĭįáĪįáīĤ
Ġáī¥áĭīáĪĳ
ĠáĭĭáĪħáĭ®áī³áīµ
Ġáĭĺáī°áĪµáįĪáĭİ
Ġáī°áĭĭáĪµáĬ¦
46
áĬķáĮ¥
ĠáĬ£áīĺ
áĪįáīĤ
ĠáĮµ
áĪĪáĪįáĬķ
áīłáĬķáĬķ
ĠáĬķáĭ°áĪįáĭ®
ĠáĪĺáĬ¥
ĠáĬŃáĪĿáĬķ
áĭµáĪ°áĬ«
áī£áĭĿ
áĪĺáĪĪáĭŃ
áįįáĪŃáĬķ
áĭķáĪª
ĠáĭĺáĭįáĮ½
Ġáī¼
ĠáĬĲáīķáĪŃáī¥
Ġáī°áĭ°áĪįáĭ©
áĬ½áī³
ĠáĪĵáĪĿáĭµ
ĠáĪµáĬĴáīµ
áĮ½áĪ«
ĠáĮįáĭµáĪį
áĭ³áĭµáĬĵ
Ġáĭ¨áĪ°
Ġáĭ¨áĭįáĪŃ
ĠáĪĽáĪ½áĬķ
ĠáįįáĮ¥áĬĲáīµ
ĠáĭįáĪ°
ĠáĭļáĭĽáĪ¨áī¡
ĠáĬªáĮįáīłáĪŃ
áĭĵáĪįáĬĵ
ĠáįĪáĪĪáĮ¡
ĠáĬ¤áĪĽ
áĪĺáĪµáĮĪáĬķ
áĪįáĬ«áĪį
ĠáĪ¨áĬª
Ġáī¥áĪĵáĮ¢áĬ£áīµ
áĪŃáĬ¨áīµ
ĠáĪĿáĭµáīĥáĪµ
ĠáĬ¨áī°áĬķ
ĠáĪļáĪµáī°áĪŃ
ĠáĬ¥áĪµáĪĭáĪĿ
ĠáĮĪáĭŃáĪ¨áĬķ
ĠáĬĲáįįáīħ
ĠáĪĿáĪįáĭĭáĮ¥
ĠáĬķáĭĺáĪĺáĬĵáīµ
ĠáīĲáīµáĪª
ĠáĭĢáĬĲáīµ
ĠáĬ¨áī£áī¢áĬ¦áĪĿ
ĠáĪľáĪª
ĠáĪĿáĭĿáĭĽáĪĿ
ĠáĬ¨áĪĿáĭĺáĭŃáĬĲáīłáĪ¨
Ġáī¥áīµáĪª
ĠáīĪáĪŃáīłáīµ
ĠáĪĿáīķáĪĽáĮ¥
ĠáįĪáĪĬáĬ»
áīłáĪįáĬĵáĬķ
Ġáī°áĪ«áĬ¥áĭ¨
ĠáįİáĪŃáī¶
ĠáĪĵáĪĬáįįáĬĵ
ĠáĮĪáĭĿáĬ£
áĮ¸áĮįáī¡
Ġdag
Ġáĭįáĭ³áĪ´
Ġáī°áĭįáĪħáī¦
ĠáĪļáĬ¢áī²
Ġáī°áĪĵáī¢áĬ¡
ĠáĬķáĪĺáĪįáĬ¨áīµ
ĠáĬķáīłáĪ¨áĬ¸áīµ
ĠáĮ¸áĮīáĪª
ĠáĪĺáī¥áĪįáĭķ
ĠáĬ®áĪļáĪ½áĬĲáĪŃ
áĪĿáĬ¡
ĠáĬ£áĪĴ
áĪįáī¡
áĪµáĭµáĪ«
ĠáĭĿáįĥ
ĠáĭĿáĮĪáĪįáĮ¾
áĬ£áī°áĭĪ
áĪķáī³áīµ
áĪ«áĬŃ
Ġáī°áĬ²
áĭ«áĭµ
ĠáĬ¢áĭŃ
ĠáĬ¢áĪİ
áĭĵáĪ©
ĠáĬ£áĭŃáĪĵáĭµáĮĪ
ĠáĭĪáĮ¸áīµ
ĠáīµáĬ£áī±
ĠáĪĿáĪµáĬķ
áĬĳáįį
Ġáĭ¨áĬ¥áīµ
ĠáĪĥáĪ³
ĠáĪĥáĪĽáĬķ
ĠáĭļáĪ½
áī¥áĪįáĭĳ
áĬ¾áĬĸ
ĠáĬŃáĬķáīĥáĪĪáĪµ
áĬ¢áĪĭ
áĮĪáĪŃáĬķ
ĠáĮ¸áĪļ
ĠáīĢáĭ²áĪĻ
ĠáĬªáĬķáĮį
ĠáĬłáĭµ
ĠáįĪáĪº
áĬ³áĪµ
ĠáĮĢáĮįáĬĵ
ĠáĪĺáĪ°áĪįáĬ«
áĪ»áĭį
ĠáĬķáĭĵáĬ£áī¶áĪĿ
ĠáĬºáĪ°
ĠáĬºáī¥áĪį
ĠáĬķáĪķáĭĿáī¢
ĠáĬ»áĬ£
áĪŃáĬĵáĭ®áĪĿ
ĠáĬ¦áĭ²
ĠáĬ¥áĮįáĭļáĬ£áī¥áĪĶáĪŃáĬķ
Ġáī¥áĪĺáĮłáĬķ
ĠáĭĿáĪĵáĪĪáįĪáīµ
ĠáįĢáĭĭáī³
ĠáĬ£áĭµáĪħáī¦
áĪĵáĭ°áĪ¨
áĭķáĬķáī¶
Ġáī¥áĭĺáĪĪáĭī
áīłáĭ¨áĬ«
ĠáįĭáĪŃáĪĽ
ĠáĪ°áĪįáįį
ĠáĪŃáĬŃáī¥áĬķ
ĠáĬ£áĭķáĪļ
ĠáĪ®áīłáĪŃáīµ
ĠáĬ¥áĬķáī°áĬ¾áĭŃáĬķáĬ«
ĠáĬ«áī£áĬº
ĠáĬŃáĭįáĭ³áĬ¥
198
ĠáĭŃáĪĺáĪµáĪİáĪĿ
ĠáĪĺáĮ»áĬ¢áĬĵ
áĬ¨áĪŃáĬ©
ĠáĪĺáĪ²áĪįáĭİáĪĿ
ĠCO
ĠáĪĵáī²áīµáĬ«
ĠáĬķáĪħáĭĿáī¥áĬ»
ĠáĬ¨áĪĽáĬ¹áĪĿ
ĠáĪĵáĪĬáįĪ
ĠáįĪáī²áĬĵ
ĠáĭįáĪĭáĭµáĬ©áĪĿ
ĠáįĪáĪĭáĪµáįĭ
ĠáĬ£áĭįáĮºáĬ¥áĬ«
ĠáĭĪáĪĬáĭµ
áĪµáĬŃáĪ«áĭŃ
ĠáĪķáĮĭáĭįáĬĲáīµ
ĠáĬĵáĬ¥áĭ³
ĠáĮ¸áĪįáĪĽáīµáĬķ
ĠáĬ¥áĬķáĪµáĪ³áīµ
ĠáĬ©áĬĲáī³áī±
ĠáĭĺáīķáĪ¨áī¥áĭİ
áĬ£áĬ¥áĪĿáĪ®áĬ£áĭĬ
ĠáĪ°áĪ¨áīķáī²
ĠáĪĺáĪ¥áĭĭáĭķáī²
ĠáĬ¢áĪĽáĪ«áīµ
ĠáĬ£áĭµáĪĵáĬĸáĪĿ
Ġáĭ®áĪĲáĬķáĪµ
/áį¢
ach
ob
ĠáĬ£áĭµáĪķáĬķ
áĪįáĬ»áīµáĬ©áĪĿ
áĪŃáĭĳ
ĠáĬķáĬ®
ĠáĬŃáĮī
ĠáĬŃáīĲáĪŃáī¡
áĬ£áĭ®áĪĿ
ĠáĬĲáĪ«
ĠáĬĵáĪħáĬĵ
áĭĿáĪĽ
ĠáĭŃáĪŃáĬ¥áĭ©
áĪ°áī£áĭĬ
ĠáĪ°áīłáĪŃ
áĭĵáī³
ĠáĪµáĮĴ
ĠáĪµáīĥáĭŃ
áĪ³áĪĻ
áĮ½áĪĸ
áĭĪáĬª
ĠáĮįáĭ±áĪ³áīµ
ĠáĬ¥áĬķáĪĢ
ĠáĬ£áĭŃáĪĵáĪ°
ĠáĭĪáĪ«
ĠáĭĪáĭ¶áĪĿ
ĠáĭĪáįĪáĪ«
Ġáĭĵáĭĺ
Ġáīµáįį
ĠáīµáĭĪáĪµáĭµ
áĭ¨áĬķáĬķ
áĬ¨áī£
áĮ¥áĪ«
ĠáĪķáĪµ
áĮĭáī¢
ĠáĪħáĬķáĭ³
ĠáįįáįģáĪĿ
ĠáĬ¸áĪĪáĬĵ
ĠáĭļáĬ«áĭ¨áĭµ
áīłáĪŃáĮį
ĠáĬŃáīµáĪķáĮįáĭĿ
ĠáĬŃáīµáĪĺáĪĭáĪĪáĪµ
ĠáĮ½áĭĵáĪŃ
ĠáĭĿáĬĲáĭįáĪĲ
Ġáī¥áĪĿáĮ¥áīĥáĪµ
áĪĪáĪĿáī³
áĪµáī²áĬķ
ĠáĬ¨áĪĿáĭĿáīķ
ĠáĭĿáĪĵáĪµáī¡
ĠáĬķáĬ£áĪľáĪªáĬ«
ĠáĪĿáĬ¥áĬķáī³áĬķ
ĠáĬ¥áĪµáīµáĬķ
ĠáĬ»áĪħáĬĵáīµáĬķ
áĪŃáĬĵáĭĵáīµ
áĮĥáĬķ
ĠáĬ£áĪµáĪĽáī¶áĪĿ
ĠáĬ°áĬĲáīµ
áī°áĪŃáįįáĬķ
ĠáĬ¨áī°áĪĽáĬķ
áĪĺáĪįáĬ¦
ĠáĬ¬áĪļ
ĠáĬ£áĪĿáĪ²
ĠáĭĿáĬ½áĬ¥áĪįáĬķ
ĠáĪĺáĪĪáĬ½áī²
ĠáĬ£áĭ°áĭ³
Ġáī¥áĪķáĮĭáĭĬ
ĠáīĪáĮ¸áĪ«
áĭįáīµáĪŃ
áĮłáĪŃáĭķ
Ġáī°áĬĲáĮĬáĪ©
ĠáĮīáĭµáĪĪáī³áīµ
áĮłáĪ«áĮłáĪŃáĬķ
Ġáī°áĪ«áĬ¥áĭ®
ite
ĠáĭĿáĭĿáĪ¨áī¥
Ġáĭķáī¥áĭ¨áīµáĬķ
ĠáĪĺáĪĭáĮįáī¦
ĠáīłáĪŃáĪĬáĬķ
ĠáĪĺáĭµáĪĥáĬĶ
ĠáīµáĭĿáĬŃáĪŃ
Ġáī°áĪĺáĪªáĮ¹
ĠáĪĵáĪ°áīł
ĠáĭŃáĮįáĭ°áĭ±
ĠáĬĵáīµáĬª
Ġáī¥áī£áĪħáĪŃ
ĠáĪµáĬķáĬ©áĪĭáĬķ
ĠáĬ£áĪµáĪ«áĪĴ
ĠáĬ¥áĮįáĪŃáĬ»
ĠâĢºâĢº
ĠáĬķáī°áĭĪáĪ³áĬº
áĬĲáīķáĬķ
Ġáī¥áįĪ
ĠáĬŃáĮĪáĪįáĮ¸
áĬ£áĭª
ĠáĭĺáīķáĪŃáī¦
Ġáī°áĪ°áĭŃ
áĭĿáĬŃáĪ®
ĠáĭŃáĮĪ
ĠáĭŃáīĥ
ĠáĪ°áĪĬ
ĠáĬ«áī³
áĪĬáĭĿáĪĿ
Ġáīµáĭ«áīµ
áĪħáĭ©
Ġáĭ°áĪįáĭ«
ĠáĬ¥áĬķáī°áĭį
ĠáĪĥáĪĪáĭį
ĠáĭįáĬ¥áī±
ĠáĬŃáīµáĪĵáī±
ĠáĮ¸áī£áĬķ
ĠáĬªáĬ£áī±
ĠáĬ®áĪľ
ĠáĬ¤áĬŃáĪµ
ĠáĬ£áĭŃáīµáĮ½
áĪŃáīµáī³áīµ
ĠáĭĭáĪŃáĭµ
ĠáĪĿáĬķáĭ³áĭŃ
áīĨáĪ¨
Ġáī¥áĪŃáĬ½áī²
ĠáĮİáĪĵáįį
ĠáĬ£áĭ¨áĪĪ
ĠáĪĿáĭµáĪªáĭįáĬķ
áī¥áĬĵáĭ®áĪĿ
ĠáĭĿáĬ¸áĭīáĬķ
áĪĭáĬ¥áĬ©
ĠáĮĬáĭľáĬķ
áĬĲáĭŃáĪ©
ĠáĬķáĪ°áĭĵáī¥áī±
ĠáĪĥáĭŃáĪĪáĪµ
ĠáĪľáĬŃáĪ²áĬ®
ĠáĭįáĪįáīĤ
ĠáĬ£áīĲáĭµáĪĿ
ĠáĬłáĪİáĬ»
áī¨áĬķ
ĠáĪ®áĪĽáĭįáĭ«áĬķ
ðŁĴ
ĠáĬķáĬ½áīµáĮĪáī¥áĪŃ
ĠáĭŃáĭįáĪµ
ĠáĭĪáĬķáĮĮáĪĭáĭĬ
ĠáĪĿáĬ»áĬĸáĪĿ
ĠáĮ¸áĮĪáĪĽáīµáĬķ
ĠáĪĺáĪµáĭĭáĭķáī²
ĠáĭĻáįĭáĬķ
ĠáĭµáĬķáĮĭ
ĠáĪĺáĮ¥áīĥáĭķ
ĠáĪĿáī¥áĪ«áīķáĬķ
ĠáĬŃáĬ½áįĪáīµ
ĠáĭĿáĪĺáĪµáĪİáĪĿ
ĠáĭĦáĬķáĬ©áĪĿ
áĪħáī¡áĬĴ
ĠáĭĺáĪŃáĬ¥áĭŃ
ĠáĬŃáī¥áĪ¨áīµáĬķ
áĬĵáįįáīķ
ĠáĭįáĭĴáĪİáĪĿ
ĠáĬ«áī¥áĬ£áī°áĬķ
ĠáĬķáī¥áĪ¨áī¶áĪĿ
ĠáĬŃáĬķáĭķáĭĪáīµ
ĠáĮłáī£áĭ«áīµ
ĠáĭĿáĮĢáĪĺáĪ®
ĠáĬĲáīĲáįĮáī³
Ġáĭ³áĬĴáĬ¤áĪį
lan
ĠáĬ£áĪ«áĬ¥
áĪŃáīł
áī°áĪµáįĭ
áĪµáĬĵáĬķ
áĪĪáĪĿáĬķ
áī³áĪªáĬ½
ĠáĬŃáĭĽáĭĺáĪĿ
ĠáĪĿáīĽáĪĿ
Ġáī°áĮĢáĪĺáĪ¨
ĠáĪĵáīļ
ĠáĪĵáĪįáĭī
áĪĵáĬķáĬķ
áĪĵáĮ¢áĬ£áīµ
ĠáĭŃáĭĪáĪµ
ĠáĬ¢áĪħ
áĭĵáĭ²
ĠáĮįáĪ©
ĠáĬ£áĭŃáĪħáĪīáĬķ
áĪĬáĪįáĬ«
áĬŃáįĭáĪį
áĬ»áĭ®áĬķ
áĪħáĪ¨
ĠáĬ«áī¥áĬķ
Ġáĭ°áĮĮ
ĠáĮĪáĭµ
ĠáĮĪáĮ£áĪļ
áīµáĬķáĪ³áĬ¤
áīħáĪĬ
ĠáīĢáĭŃáĪ©
ĠáĬ®áĭŃ
áĮĤáĬķ
ĠáĬ¥áī°áĭĽáĪ¨áīł
ĠáĬ¥áĬĵáĭ°
áĪĲáĪįáįį
ĠáĪĪáĪĺ
ĠáĬ¨áĪĿáĭĿáĪŃáĬ¨áī¥
áĪ¸áī¥
ĠáĬ¥áĭĭáĬķáĬķ
áĪĽáĭŃáĬŃ
ĠáĪĿáĬķáĭĭáĪķ
ĠáĪĺáĪµáĬª
áī¤áī³
ĠáĪµáĪĿáĭĵáĭ®
ĠáĪ¸áĪŃ
ĠáĮĵáĪįáĬķ
ĠáĬ¢áĪİáĪĿáĬĵ
Ġáī¥áįįáīµ
ĠáĭĺáĭŃáī°áĮĪáī¥áĪ¨
áĪĭáĪįáĭ®áĪĿ
ĠáĬķáĬ¹áĪĪáĬķ
Ġáĭ©áĬŃ
ĠáīķáĪŃ
áĭµáĪĿáĭķ
ĠáĬ£áĭķáĮ½áĪĿáī²
ĠáĪ°áĬķáĭ°áīķ
ĠáĭĺáĭŃáĬ°áĬĳ
ĠáĬķáĬ½áīµáĪ¨áĬŃáī¥
áĪ¾áĬķ
ĠáĭĿáĮĪáīłáĪ¨áĪī
ĠáĪĺáĪµáĬ¨áĪ¨
ĠáĪĿáīħáĪŃáĪ«áī¥
ĠáĬŃáĭµáĮį
ĠáĬķáįįáīķáĪª
Ġáī¥áĮ¾áīµáĬĵ
ĠáĭĿáī°áĬ¸áįįáĪĪ
ĠáĪĥáĭĭáĪŃáĭ«áī±
áįĪáĪįáĮłáĬĴ
ĠáĪµáĭĬáĪµ
ĠáĬķáĪĿáĬķáī£áī¥
Ġáī°áĪ°áĪĿáĭĲ
ĠáĬ£áĪįáĭĴáĪİáĪĿ
áīĥáĪĪáĪ¶
ĠáĭĿáĬ¨áĬ£áĪİ
ĠáĬ£áĬªáī¡
ĠáĬ¥áĬķáĮįáĪĬáĭĺáĬĽ
ĠáĪĥáĮĪáĪ«áĭįáĬĲáīµ
Ġáī¥áĬ£áĮĭáĮ£áĪļ
ĠáĬ£áĪ¥
ĠáĪĺáĭįáĮ½
ĠáĬŃáĮ¸áĬķ
áī£áĪĭ
áĮĪáĪ¶
áĭįáĪµáĬķ
áĭķáĭĭ
áĪĽáĬĳ
ĠáĪµáĬķáī¥
ĠáĮįáĭ°áĭŃ
ĠáĬ¥áĬķáĬ«
ĠáĬ£áĭŃáĮįáīłáĪŃ
ĠáĬ£áĭŃáĪµáĪĿáĭĵ
ĠáĬĵáĭŃáĭĺáĬķ
áĬ¨áī¢
áĬ¸áĪį
áĭĭáĮįáĬ¡
áī¢áĮ¡
áĪĥáīłáĪī
Ġáĭ¨áĪĺ
Ġáĭ¨áįįáīħáĪ®
áīĲáĪµ
áīĲáĮ½
ĠáĪ°áī¥áĬĲáīµáĬĵ
ĠáĭķáĮŃ
áĬ¢áīµáĬķ
ĠáįĪáĭ°áĪ¨áĪ½áĬķ
áĮĬáĭľ
ĠáĬ½áĮ½
ĠáĬ½áĪħáīłáĬ«
áĪĵáīµáĭİ
ĠáĬ¨áĪĿáĭĿáįĪ
Ġáī°áĪĺáĬ©
áīłáĪįáĭķáĬķ
ĠáĮłáĪª
áĪ°áī¥áĬ£áĭĬ
ĠáĬĲáĮĪáĭ³áīµ
ĠáĮİáĭ°áĪİ
ĠáĪķáī¶áĭŃ
ĠáīģáĪ¸áīµ
ĠáĬĶáĪŃáĭİ
ĠáĭĿáĬ£áĪĺáĬĳ
Ġáī¥áĬ£áĬ½áī¥áĪ®
ĠáĬķáĪĺáĮĪáĭ²
ĠáĬ¢áĪİáĪĿáĬĴ
ĠáĪĤáīł
ĠáĪĤáīłáĬ«
áĪĿáĪµáĪį
ĠáĬ£áĭŃáĬķáĪ¨áĪµáĭķ
ĠáĪ«áĭ«
ĠáĪĺáĭĵáĪŃáĬķ
Ġáī°áĮłáĪŃáĬĴ
áĪĵáĭŃáĪ¹
ĠáĬŃáįįáĪĬáī³áīµ
ĠáĬ£áĭ°áĪ«áĪ½
ĠáīķáĬĲ
ĠáĬķáĭħáĪĭáī¶áĪĿ
ĠáīµáĮįáĪŃáĬĽáĬķ
áĬ£áĪįáĬ©áĬķ
áĪ¨áīłáĪİáĪĿ
ĠRadio
Ġáī°áĮįáī£áĪŃáĬķ
ĠáĬ¥áĬķáĭµáĭ®áĪĿ
Ġáī¥áĬ¢áĭ¨áĪ±áĪµ
ĠáĭĿáĪĺáĪµáĪİ
ĠáĬ¨áįĬáĪįáĬĵ
ĠáĭķáĭīáĪ«áīµ
ĠáīĪáĪįáĭĳáĬķ
ĠáĭŃáįĪáĮ¥áĪ¨
áĭµáĬ¡áĬĵ
ess
Ġáī£áĪķáĪ¨
Ġáī¥áĪĿáĭįáĮ»áĬ¥
ĠáĮĤáĬ¦
áįįáĮ½áĪĻ
ĠáĭĺáĭŃáĪĿáĪŃáĭµáĭ³áĬ¥
ĠáįĪáĬķáīħáĪį
ĠáĬ¥áĬķáĮįáĪĬáĭĿáĬķ
ĠáīĢáī²áĪī
ĠáīłáĪŃáīµáĭĳ
ĠáĪķáĪįáĪĿáī³áīµ
ĠáĬ£áĭŃáĬŃáĬ£áĪįáĬķ
ĠáĮĪáĮłáĪ«áīµ
ĠáĪµáī´áīµáĪµ
ĠáĪĵáĪ¶áīµáĬķ
ðŁĻı
ĠáĬ£áĭ°áĪį
áĪĪáĪįáĬ«
ĠáĭĿáĪħáīłáĬ«
áī³áĪįáĬķ
Ġáī¥áī²
áĬ¥áĮĭ
ĠáĬŃáįĪáĪĭáĪĪ
ĠáĬŃáĪ«áĬ¸áī¥
áĪķáĭµáĪŃ
áĮįáĭ³
ĠáĬĲáĭĺáĪŃáĪĭáĬķáĭµ
Ġáī°áĮĲ
áĭĿáĬ¡
áĭĿáĪĳ
áĪĵáīĳ
áĪĵáĪ³áĪµáī£
ĠáĭŃáĮłáīħáĪĿ
ĠáĭŃáĮłáīħáĪµ
áĭ¨áĭ«
áĬĴáĭĳ
ĠáĪĿáĪµáĬ£áĬķ
ĠáĭĺáĭŃáĮĪáī¥áĪŃ
ĠáĬ¸áĪĪáĬ¹áĪĿ
ĠáĭļáĭĲ
áįĭáīµáĬķ
ĠáĬªáĪħáĪįáĭĪáĬ«
ĠáĮ½áĪ¬áīµ
áī¥áĪŃáĮįáĮ½
ĠáĬ¨áĪĿáĭĿáĪ°
áĪŃáīµáĮį
ĠáĪļáĪ³áĭŃ
ĠáĭĿáĪĺáįģ
ĠáĬķáĪĵáĪŃáĬĲáīµ
ĠáĬķáĭĿáĪĵ
ĠáĮĲáĪį
áĪ°áĪĿáĭĵáĬĵ
Ġ64
Ġáī¥áįįáĪĭáĮ¥
áĪ¨áī¥áĭİ
áĮĮáĪ«
ĠáĬ£áĪĿáĪĵáĪŃáĬĽ
ĠáĬ¢áĪĪáĬ«
ĠáĬ£áĪĭáĭª
Ġáī°áĬ¸áī³áī²
Ġáī¢áĪİáĪĿ
ĠáĬ¾áĭŃáĬķáĬ«
ĠáĮ¥áĭķáĬĵáĭĬ
ĠáĭĿáĭįáĪµáĬķ
ĠáĪĺáĪªáĮ¾áĪĿ
ĠáĬ£áĭķáĪ«áī¥
ĠáĪįáĪĿáĭµ
ĠáĭŃáįįáī³áĪķ
ĠáĪ»áĭį
áĬµáĪĿ
ĠáįķáĪ®áįĸ
ĠáĬķáĭµáĪĵáĪŃ
ĠáīłáĪīáĪĪáĭŃ
ĠáĪ°áĬķáĭĵ
196
ĠáĬ£áĭļáĭ¨
Ġáī°áĮ»áĭĪáī²
ĠáĬ£áĪĿáĪĭáĬ»áĭĬ
ĠáĪĿáĪĿáĪķáĭ«
ĠáĪĦáĪ³
ĠáĪµáĪĪáĭĺáĪĪáĬĵ
our
ĠáĪµáĭĴáĪ©
ĠáĭŃáĬķáīłáĪŃ
ĠáĬŃáĬ½áīłáĪŃ
Ġáī°áĮłáīĴáĪ¶áĪĿ
Ġáī°áīĲáī¢áĪįáĬĵ
ĠáĬŃáĭ³áĬĳ
ĠáĬ£áĬ¨áĪĪ
ĠáĬ£áīĢáĭ²áĪĻ
áĬĲáĮįáĪ¨áĬ«
ĠáĮįáī¥áĪŃáĬķ
ĠáĮįáįįáĭķáī³áīµ
áīĢáĪŃáī¡
ĠáīħáĪįáĮ¥áįį
ĠáĬ¢áĬ®áĬĸáĪļáĭ«áĭĬ
ĠáĬķáĪħáĭŃáĭĪáīµáĬ«
ĠáĪĿáĪĿáĪķáĭ³áĪ«áĭĬ
Ġáī°áĪ°áĭĬáĬ¡
ĠáĪĥáĪ¨áĪŃáī³
ĠáĭŃáī£áĪĥáĪį
áĮ´áĮ¥
ĠáĭķáĮ¹áĭį
ĠáĮ¥áĬķáī³áĭįáĭ«áĬķ
ĠáĬ£áĭŃáīµáīĿáĪ¨áĮ½
ĠáīĢáīµáĪŃáĬķ
ĠáĭĭáĪŃáĪ³áĭŃ
-!
áī¥áīµ
áī¥áĭ®áĪĿ
Ġáī¥áĪ»
ĠáĪĺáįĢ
áĬ£áĬ»
ĠáĪĿáĬ©
áĭµáĭ®áĬķ
áī£áĪĥáĪį
ĠáĭĺáĭµáĬķ
áĬ«áĬķáĬķ
ĠáĪĵáĪ°áĪŃ
ĠáĭŃáĪĥáīł
ĠáĪ°áī°
ĠáĪµáīµ
áĪĬáĪĪ
ĠáĭĵáĮ¢
áĮ¥áĭĳ
áĭĭáĮį
ĠáīłáĪĵáīĤ
Ġáĭ°áĬ¾áĬķ
ĠáĮĪáĪĪáĬķ
Ġáĭ¨áĪ¨áĮĭáĮį
Ġáĭįáīĥ
ĠáĭļáįĪáĪįáĮ¦
ĠáĬªáĪ¨áĬ½áī¡
ĠáĬłáīłáĭŃ
áīĥáīħ
áĬ£áī¥áĪĶáĪŃ
áįĬáĬĳ
áĭŃáĬķáĬ©áĪĿ
ĠáīĥáĪĭáī±
ĠáĬ¥áīµáĪµ
áĪŃáĬ¥áĭ¨áĪī
ĠáĪĽáĪĪáīµáĬ«
áĪĿáĪŃáĬķ
ĠáĬķáĪķáĭĿ
ĠáĬķáĪĵáĪµáī¥
áīģáĪŃáĬĵ
áī°áĪŃáįī
Ġáī¥áĬ£áĮįáī£áī¡
ĠáĬ¦áĪĨ
ĠáĭĿáĭĵáīłáĭ©
Ġáī°áĬ£áĪ³áĪ²
ĠáĭĿáįĪáĮ¥áĪ®
ĠáĬ¥áĪĿáĬĲáīµáĬ©áĪĿ
áīłáĪ«áīłáĪŃ
Ġáī¥áĪ°áĬĵáĭŃ
ĠáĬŃáĪĿáĪĪáĪ°
ĠáĮ³áĭįáĪİáĪµáĬķ
Ġáĭ°áĮĬáĪĽ
ĠáĬ¹áĬĲáī³áīµ
ĠáĬķáĭĪáĪįáĭµ
ĠáĮ£áĬ¦áī³áīµ
ĠáĪĵáĪŃáĬĲáīµáĬķ
ĠáĬ£áĪµáī°áĭįáĭķáĪį
ĠáĪĿáĭķáī£áĪĮ
ĠáįĪáĪªáĪ³áĭįáĭ«áĬķáĬķ
ĠáĬ£áĮ¸áī¢áīĸáĪĿ
ĠáĪĿáĮ¥áĪŃáĬĵáįį
ĠáĪĺáīµáĪĵáĭļ
ĠáĬ¤áĪŃáīµáĪ«áĭĬáĭ«áĬķ
ĠáĭĵáĪļáĪį
ĠáĬ£áĮĪáĪįáĮįáĪİáīµáĬĵ
ĠáĬŃáĮ½áĪĬ
áįĶáĭ²áĭ«
ĠáĪĺáĪŃáīµáĭĸáī³áīµ
ĠáĪĺáĪ¬áīµáĬĵ
und
ĠáĪŃáĪĴáīĳ
Ġáī¥áĭĽáĭķáī¥áĬ¦áĪĿ
ĠáĬķáĪĿáĬ½áī£áĪŃ
ĠáĬŃáĬķáĭĿáĬŃáĪŃ
ĠáĬ£áĪĥáĭ±áī³áīµ
ĠáĬķáĪĺáĪµáĭĭáĬ¥áī²
ĠáĭŃáī£áĪŃáĬ½
ĠáĬĲáĪħáĪĿáĭ«
ĠáĬŃáĪŃáĪµáī²áĭ«áĬĵáīµ
ĠáĭĪáī³áĭ°áĪ«áĭĬ
Ġáī°áīĵáĪĭáĪ³áĭŃ
ĠáĬ£áĪĽáĬ¸áĪŃáī²
iz
ll
áĪĿáĪ«áīµ
ĠáĬ£áįĭáĬķ
ĠáĬķáĭµáĪĿáĮº
áĬ¥áĬĳ
ĠáĬ¨áĭµ
ĠáĬ¨áĬĲáĬķ
ĠáĬ¨áĪįáĬª
áĪ¨áī³áĭĬ
áĪĺáĪ³
áĪĺáĭĸ
áĪĭáĬ¥áĬķ
áĪĵáĪįáĬĵ
ĠáĪµáī±
áĮ½áī¡
áĭĪáĭ°áĭŃ
áĭĪáĭµáĭ«
ĠáĬ¨áĪĿáĬ¦áĪĿ
ĠáĬ¥áĬķáĭ°áĪįáĭ®
ĠáīµáĬ£áĪĿ
áĬ©áĭŃ
áī¢áĬķ
áī¢áī±
áĬĳáĭķáĬķ
ĠáĭĺáĭŃáĭµ
ĠáĭĿáī°áĪĥáĬķ
ĠáĭĿáī°áĭĽáĪ¨áī¥
áīħáĮ¥
ĠáĬŃáĬķáīĢ
ĠáĬªáĭ²
ĠáĬ®áĪĽáĬķ
ĠáĪŃáĭµáĬ£
áĬªáīµ
ĠáĭĿáīłáĮ»áĪķ
ĠáĬ¥áī°áĪĵáīµ
ĠáĬ¥áĬĵáįĪáĪĪáĮ¥
ĠáĪĪáĬł
ĠáĪŀáĪ®
ĠáĬ¨áĪĿáĭĿáīĲ
ĠáĬ¨áĪĿáĭĿáĮĪáī¥áĪŃ
áĬ£áĭŃáįĭáĪį
ĠáĭĿáĪĵáĪµ
ĠáĬ£áįįáĪ«áĪµ
ĠáĬŃáįįáī°áīµ
ĠáĬķáĭĿáĪĵáĪĪáįī
Ġáī°áīĲáī¥áĪ¨
ĠáĬ¦áįį
Ġ67
áĪĥáī¥áī²
ĠáĬ½áīµáĭĪ
ĠáĪ°áĪĪáĪµáī°áĬķ
ĠáĭĿáĭĢáĬĲáĪī
Ġáī¥áĪįáīłáĭŃ
ĠáĭĿáįĪáĮ¸áĪĻ
áĪ¥áĬł
ĠáĬŃáĪħáī£
Ġáĭ°áĮĪáĬķ
ĠáĬķáĭ°áīħáĬĵ
Ġáī°áĭĭáĪħáī¦
ĠáĪµáĬĲáĪµáĪŃáĭĵáīµ
áĪķáĪįáįįáĭİ
ĠáĪĺáĬķáįĪáĪµáĬ«
ĠáĭĿáĪŃáĪŃ
ĠáĭŃáīķáĭ¨áĪŃ
ĠáĬ¨áī¢áĭµáĬķ
ĠáĭĿáįįáĪĪáĮ¡
áĭķáĪĪáī°
ĠáĬķáĭįáĪ½
ĠáĬŃáĪķáī¥áĪŃ
ĠThe
ĠáĬ£áĬ¥áĪĿáĪ®áĬ¦áĪĿ
ĠáĪĺáĪĵáĭįáĪŃ
ĠáĬ¨áĭŃáīµáĬ¸áĭįáĬķ
ĠáĬ£áĭŃáĬªáĪħáĪīáĬķ
ĠáĬķáīµáĬ¥áĭĽ
ĠáĮ¸áĪĭáĬ¢áĬ»
ĠáĭĺáĭŃáĬ®áĬķáĬ©
ĠáĪĵáĮ¢áĬ£áī¶áĪĿ
ĠáĬķáĪĻáĪīáĬ¥
ĠáĮĴáĭ³áĭŃ
ĠáĪĺáĬķáĮįáĪµáīµáĬĵ
ĠáĪĿáĪģáĪ«áĬķ
ĠáĬ£áĪįáī¦áĬĲáīµ
ĠáĭĿáĪ°áĪŃáĪĵáĪī
ĠáĮĢáĪĺáĪŃáĬĵ
ĠáĭļáīķáĮ½áĪį
ĠáĬªáĬ¸áī¥áĪŃ
ĠáĭĺáĭķáĮįáī¥
ĠáĬ£áĪįáĭĴáĪįáĬ«
ĠáĭĵáĪªáįī
Ġáī°áĪĵáĮĴáĪµáĬĵ
ĠáĭļáĬĲáĭµáĭµ
ĠáĮĬáĪįáĭ«áĬ»
Ġáī¥áĪįáĮ½áĮįáĬĵ
ĠáĪĺáĮİáĭĵáĭĿáĭ«
ĠáĪµáĭµáĪŃáĬ¡
ĠáĮ¤áĪį
Ġáī¥áĪħáĭŃáĭĪáī±
ĠáĬ£áĮĪáĪįáĮĬáĪī
Ġáī£áĭķáĪįáĬº
ĠáįįáĪµáĪĥ
ĠáĪĪáĪĺáĬķáĭİ
ĠáĬ£áĪŃáĬ¥áĪµáīµáī³áīµ
ĠáīĢáĪĬáĪįáĬķ
ĠáĬ£áĪ°áĪ«áĪŃáĪĵáĬķ
"áį£
ĠØ
áĭŃáī¥áĪį
áĪĪáĭĪáīµ
ĠáĬķáįįáīµ
áĬĲáĭŃáĬķ
ĠáĬŃáīĲáĪŃ
ĠáĬ£áī¥áĪİ
áī£áĭ°
áĪĺáĭ²
áĪĭáī¥
áĪ«áĬ¢
áĪĽáĪªáīµ
ĠáĭĺáĪļ
ĠáĭĺáĪĽáĭķ
ĠáĬĲáĭķ
ĠáĬĲáĭĺ
ĠáĭŃáĭĿáĪŃ
ĠáĭŃáĭ°áĮį
áĪ°áĭ®
áĪ°áĪĽáĭŃ
ĠáĪ°áĮĴ
Ġáīµáī¥áĪĪáĬĵ
áĬ¨áī£áī¢
áīķáĪĪáīµ
áĭĭáĪŃáĪķ
Ġáĭ°áĭī
áĮ¸áĮĪáĪĿ
áĬ¦áĪŀ
ĠáĭļáĬ¥
áīħáī¦
ĠáĬŃáīµáĮ¸
Ġáī£áĪį
ĠáĬªáĭķ
ĠáĬªáĪĺáĪŃ
ĠáĮ½áĪ©
ĠáĮ½áĬĵáĪķ
ĠáĮ½áĮĪáĬĵ
ĠáĬłáįį
ĠáįĪáĬ¸
ĠáįĪáī³áĬĴ
Ġáī¥áĪĿáĪħáĪĭ
áĭ«áīµáĪį
ĠáĬ¤áĪĪáīµ
ĠáĬ¥áĬĵáĭĺ
Ġáī¥áĪĵáĭŃ
ĠáĬ£áĭŃáīµáįĪáĪįáĮ¦áĬķ
ĠáĭĿáĪĵáĭŀ
áĭĽáĪ¨áīłáĬ«
ĠáĬĲáĮĪáĪ¥
ĠáĬ£áĮĪáĬķáĭļ
Ġáī¥áĬ£áī³áī¶áĪĿ
ĠáīĢáĭ³áĪļ
Ġáī¥áĬ¸áī¢áĭµ
ĠáĬķáĪĺáĪ°
ĠáĬķáĪĺáĭĺáĬ¨áĪŃ
ĠáĪĿáĭķáĮ»áĭį
ĠáĬ¨áĪĪáĭĭ
Ġ95
Ġáī°áĮłáĪŃ
áĪĪáĪĽáĪĺáĭµ
ĠáĬķáĭķáĭµáĪĺ
ĠáĬŃáĪŃáĭ³áĬ¥
::"
Ġáī°áīłáī²
ĠáįĸáĪĬáĪµáĬķ
ĠáĬłáĪĿáĪĭáĬ½áĬķ
ĠáĬķáĮ½áĪĬ
ĠáĬĸáĪħáĬķ
ĠáĪŃáĬ¥áĭŃáī¶áĭŃ
ĠáĭŃáĭĪáĪĥáī¦
ĠáĭŃáĭĪáĪĥáī¦áĪĿ
ĠáĪ°áĪĭáĪĽáīµ
ĠáīµáĭķáĭµáĪį
ĠáĬķáĮ¸áĪİáīµ
ĠáĪŃáĪĳáīħ
ĠáĬ£áĮ¸áī¢áīķáĬĵ
ĠáĪķáĭ«áĭįáĬĲáīµ
ĠáĭĿáįĪáĪįáĮ¥áĭİ
ĠáĭĪáĪ¨áĭ³áī³áīµ
ĠáĭµáĪŃáĪ°áīµ
ĠáĭĿáīµáĮįáīłáĪŃ
áĬ£áī°áĭī
ĠáĬ£áĭŃáĪĺáĮ¸áĬķ
ĠáĬķáĪĿáĭĿáĬ«áĪŃ
Ġáī°áĮĪáĭ²áĭ±
Ġ1970
ĠáĪĿáīµáĬ«áĪį
ĠáįĸáĪİáī²áĬ«
ĠáĬ¥áĬķáī°áĭ°áĪĬáĬ¹áĪĿ
ĠáĬ£áĮ½áĬĴáĭĳ
áĮ²áĭ«
ĠáĪĿáĭįáĪ³áĬ½
Ġáī´áĪĮáīªáĭ¥áĬķ
Ġáī°áĭĺáĪ«áĪªáī¥áĬĵ
ĠáĬ£áĬķáĮ»áĪ©
Ġáī°áĪ³áī²áįİáĪĿ
ĠáīłáĮ»áĪķáĬĵ
ĠáĬ£áī¥áĪĬáĮ¹
Ġáī¥áĪĭáĭķáĪĬ
ĠáĭĿáī°áĪ°áĬĲáĭ¨
ĠáĪĪáĭīáĮ¢
ĠáĬ¬áī¥áĪ®áĬķ
ĠáĭĵáĪŀáĬĵáĭįáĭ«áĬķ
ĠáĪµáī¶áĬŃáĪĨáĪįáĪĿ
Ġáĭ°áĭ°áī¢áīµ
so
»áį
áĬķáĪĽáĭŃáĬŃ
áĪĿáĬ½áĬķáĭ«áī±
áĭŃáī±
áĪĪáįĬ
áĬĵáī¶áĪĿ
ĠáĭĿáĮĪáī¥áĪ«
ĠáĭĿáīĥáĭĪ
áĬĲáĮ»
ĠáĪĺáĬ»áĬķ
ĠáĬŃáĮĪáĮ¥
ĠáĪĿáĮ»áĬ¥
áĪ¨áĭ®áĪĿ
áī£áĭµ
áĪĺáįħáĬ¥
áĪ«áī³
áĮįáī³
áĮįáĬĵáĬķ
ĠáĬĲáī¥áĪª
ĠáĬĲáĬĿ
ĠáĪĵáī¤
ĠáĪĵáĪįáĭ©
ĠáĭŃáĮĪáī¥áĪ«
ĠáĭŃáĮĪáĪįáĮ¸áĪįáĬĵ
áĪ°áĪĽáĪĿ
ĠáĪ°áĬĶ
ĠáĬ¥áĬķáĬ¸áĭįáĬķ
ĠáĬ£áĭŃáįĪáĪį
ĠáĬ£áĭŃáĪĺáĪŃ
ĠáĬ£áĭŃáĮłáīķ
ĠáīµáĪµáĭķáī¥
áĬ¨áĪ±
áĮ¥áĪ«áĭĬ
áĭĺáĪŃáĬ¥
áī¢áĪĦáĪŃ
Ġáīłáĭ¨áĬķ
Ġáĭ¨áĮĪáĭµ
áī±áĭįáĬķ
ĠáĭļáĪĵáīµáīµ
áīĲáĬ©áĪĿ
ĠáĭķáĪµáĪĪ
ĠáĬªáĭ°áĪŃáĭĿ
áĭ¶áĪŃ
Ġáī¥áĪĿáĪ³áĪĮ
ĠáĬ½áĭĪ
áĪĺáĬķáĮį
ĠáĬ©áĪīáĬķ
ĠáĬ¥áī°áĭĵ
ĠáĬ¥áīµáįĪáĪįáĮ¥áĭİ
áĪ¸áĭŃáī²
Ġáī°áĪĺáĪ³áĪ³
ĠáĪĺáĪµáĪ«áī²
áĭĲáĭ®
ĠáĬķáĪµáĬ»áĭ¶
ĠáĬ£áĭŃáī°áįĪáĮ¥
ĠáĪ¸áĪª
ĠáĪµáĪĪáĭĿáĬ½áĬ¥áĪį
ĠáĪĵáĭµáĮĬ
áįĢáĪĻ
Ġáī°áĪĵáĬ¤
Ġáī°áĪĵáĪ²áī¡
áĪĭáĬ¥áĬ«
áĪįáĬ©áĪĿáĭİ
áī¥áĪ©áĬķ
Ġáī°áįĪáĬķ
ĠáĬķáĪħáĮ»áĬĵáīµ
ĠáĮĲáĭŃáī³áĬĵáĬķ
ĠáĬķáĪ³áī¶áĪĿáĪ²
Ġáī°áĭĭáĪħáī¦áĪĿ
ĠáĪµáĭ°áī°áĭŃ
ĠáĭĿáīĲáī°áĪĪ
Ġáī¥áīµáĬ¥áĭĽáĭĿ
ĠáĪĺáĪ³áĪŃ
áĪµáĬ«áĪŃ
ĠáĪķáī¥áĪ¨áīµáĬķ
ĠáĬ£áĪŃáĬ¥áĪµáī³áīµ
áĭĽáĪ¨áī¡áĬķ
Ġáī°áĬĲáīł
Ġáī°áĬ»áĭªáĭ±
ĠáĭĪáĪ°áĭ¶
ĠáĬ£áĪ¨áĬª
Ġ1999
ĠáīłáĪĬáĭĸáĪĿ
ĠáĭµáĬ½áĬĲáīµáĬķ
ĠáĪµáĪįáĮłáĬĵáī³áīµ
ĠáĮ¸áĪĭáĬ¥áīµáĬ»
ĠáĬŃáĪ³áĭ±
Ġáī¥áīĵáĪĭáīµ
ĠáĬŃáĪĬáĬĴáĬŃ
Ġáī°áīłáĮĬáĪµáĬĵ
ĠáĪµáīµáĪ«áī´
Ġáī°áĭĪáĪĬáĭ±áĪįáĬĵ
áĬ¸áįįáĬł
áĪµáī°áĭįáĭķáĪīáĬķ
ĠáĭķáĮ¡áīķ
Ġáī¥áĬ¥áī°áįĪáĪĭáĪĪáĭ¨
Ġáī¥áĮįáĪįáįĤ
ĠáĪĿáĮ½áĪĵáįįáĬķ
ĠáĬ£áĭĴáĬķáīµáĬ¹áĪĿ
Ġáĭ°áī¡áī¥áĬķ
ĠáĭŃáĮĪáĪįáįħ
Ġáĭĺáī°áĬ£áĪĽáĪĿáĬķ
ĠáĭĿáī°áĪĵáĪĭáĪĪáĬ¸
ĠáĪĽáĭĵáĪįáī³áĭĬ
ĠáĬ£áĪµáī°áĭĭáĮ½áĬ¦
ĠáĪĺáĪĽáĪ¨áįĤ
ĠáĬ£áī°áĪĵáĪ³áĪµáī£áĬķ
ĠáĬ¢áĪ®áī¥
ĠáĪĺáįĪáĮ¸áĪĿáī³
ĠáĬªáĪ©áī¤áĪį
47
90
://
áĬķáĪ°áī¥
ĠáĬ£áĪ³áĬ¥
ĠáĬ£áĭµáĪķáĬĲáĬĴ
áĪĪáĮ¦
ĠáĭĿáĪĥáĭ°
ĠáĬŃáĮĪáĪŃ
áĬ£áĬ£
ĠáĪĿáĬ¸áĬ£
áĭįáĬ¥
áĭįáĪ©
áĭ°áĮİ
Ġáī°áĭ°áĪĿ
ĠáĪĵáīĲ
áĭĵáĭ®áĪĿ
ĠáĪµáĪ©
Ġáĭµáįį
ĠáĭµáįįáĪ¨áīµ
áĮ½áĭµ
ĠáĮįáīłáĪª
ĠáĬ£áĭŃáĪ°áĪŃ
ĠáĭĪáīł
ĠáĭĪáĬ¥
ĠáĭĪáĪ«áĪ²
ĠáĭĪáĪŃáīµáĮį
áĭĬáĪ©
ĠáīµáįĪáĪįáĮ¢
áĭ¨áĭ¨
ĠáĪķáĮ¸
áĪ®áī¥áĭĵáĪĿ
áĬĳáĬĵ
ĠáĭĺáĭŃáĭ°áĪĪ
ĠáĭĺáĭŃáĬ£áĪĿáĬĳ
ĠáĬĵáī¥áĬķ
ĠáĭįáĮī
ĠáĭĿáī°áĮĪáĭ°
ĠáīħáĮ¥áĭķ
áīĢáĭ³áĪĽáĭŃ
ĠáĬŃáīµáĬĲáĮįáĪ¨áĬĴ
ĠáĬ£áĪİáĬķ
ĠáĬªáĪĺáĮ»
áĮºáĬ¡
ĠáĬłáīµ
áĮ£áīķ
ĠáĭĿáĬĲáĬ£áĭµ
ĠáĬŃáĪįáĭĪáĮ¥
ĠáĭľáĮĪáĭµ
Ġáĭĭáĭķ
ĠáĭĿáĪĵáĭ¨áĪĪ
ĠáĮĢáĪĿáĪŃ
ĠáĪĺáĮ½áĪĵáįī
ĠáĬķáĪĵáĬķ
ĠáĬķáĪĵáĪ³áī¥
ĠáĬķáĪĵáįĭáĪ½
ĠáĮİáĪ®
áĪĿáĪįáĬ¹
ĠáĬ£áĭ¨áĭķ
ĠáĬķáĭĿáĭĪ
ĠáĬķáĬ¥áĬ¡áĬķ
ĠáĬķáĬ¥áī°áĭĪáĪ°áĬĲ
ĠáĪ¸áĬ½
ĠáīĨáĪ®
Ġáī¥áĬ£áĪī
áĪĥáĬķáĮ¾
ĠáĭĿáĬ¸áĭµ
ĠáįįáīķáĪ«áĭĬ
ĠáĪµáĭµáĪ«áĬĵ
ĠáĬķáĮĪáĪ®
ĠáĬķáĪ°áĪ«áĭĬáīµ
ĠáĭĺáĪĪáĬĵáĪī
Ġáĭ«áĪªáĬ®
ĠáĭĿáīĲáĪĪáĪĪ
ĠáĬ£áĭķáĭŃáĬķ
ĠáĪĺáĪ³áĪŃáĭ«
áĬķáī¥áĭĵáīµ
ĠáĬ£áĪŃáĬ¥áĭ¨áĬĴ
ĠáĪªáįĲ
ĠáĭĿáīķáīłáĪį
ĠáĮĮáĪŃáĬ«áĭ®
ĠáĮįáĭĿáĬ£áī³áīµ
ĠáĬŃáĬ¢áĪįáĬĵ
ĠPost
ĠáįįáīħáĪŃáĬķ
ĠâĿ¤
áīłáĮ½áĪĸáĪĿ
ĠáĪĽáĪŃáĭ¶áĬ«áĭŃ
áĬĲáĮįáĪ¨áĬ©áĪĿ
ĠáĭŃáĪµáĪĿáĭĸáĪĿ
ĠáįįáĪ½áĪĪáīµ
Ġáī°áĪĺáĪ«áĮº
Ġáī°áĬ£áĪĿáĪ«áīµáĬķ
ĠáĬŃáįĭáĪī
ĠðŁĳ
ĠáĭĺáĪ«áĬ½
ĠáĭĪáī³áĪĥáĭ°áĪ«áĭĬ
ĠáĪµáĪļáĭĴáīµ
ĠáĬ£áĭŃáīłáĪįáĮ½áĬķ
ĠáīłáĪªáĪģ
ĠáĬķáī¥áĮ»áĭ©
ĠáĬ£áĭŃáĪ°áĪĽáĭķáĬ«áĬķ
ĠÃĺ
ĠáĮ¸áĭĵáĭ±
ĠáįĪáįĤáĪĻ
ĠáĮ½áĮįáĭ«áīµ
ĠáįķáĪ¬áĭĿáĭ³áĬķáīµ
ail
Ġam
áī¥áĬ¨
áĭŃáīµáĬķ
áĪįáĭ«áĭĬ
ĠáĭĿáĬ¹
ĠáĭĿáĪħáĪįáĭĪáĬ«
ĠáĬķáĪĽáĭķ
ĠáĬķáī£áĪħ
ĠáĬķáīłáĪĭ
ĠáĬķáĭŃáĪµ
ĠáĪĿáĬŃáĪįáĬ»
ĠáĬ¨áĭįáĮ½
ĠáĬ£áī¥áĪ¨
áĪĭáįħ
áĮĪáĮ¹
áĭįáĪª
áĪĽáĪĬ
Ġáĭĺáīĥ
áįĪáįį
ĠáĪµáĭĵáī³áīµ
áĪªáī£
áĪ³áĪĪ
áĮ½áĮ½
áĭ³áĭµáĬ£
áĪĬáįİáĪĿ
ĠáĬĵáĭŃáĪ®áī¢
ĠáĪķáĮ½áĪŃ
Ġáĭ°áĬķáī¥
ĠáĮĪáĭ°áĪį
áĮłáĬĵáĬķ
ĠáĪĥáĭįáĪµ
ĠáĪĥáĬķáĮĭ
ĠáĬ¸áī¢
ĠáĭļáĬ¾áĬĲ
áīħáĭķáĬķ
ĠáĭķáĪ¸
ĠáĬŃáĬķáĭ³áĭŃ
ĠáĬłáĪĪ
ĠáįĪáĪ¨áĭ°
áĪĳáĪµ
Ġáī¤áĪį
áīĵáīĲ
áĪŃáĬ¥áĪ±
áĮ¡áĪķ
ĠáĪĿáĬķáĮŃ
Ġáĭ°áīĤáĬ£áĬķáĪµáīµáĭ®áĬķ
áĪŃáĬķáĭ«
ĠáĮĲáĭµáĬķ
ĠáĪĽáĪķáĮ¸áĬķ
ĠáĪĺáĪŃáĪĿáĪŃ
áįĪáĪŃáĭ±
áįĪáĪŃáĭ¶áĪĿ
ĠáĬ¬áĭµáĪķáĬķ
ĠáĬķáĭĺáĪ¨áī£
ĠáīłáĪįáĭĳ
ĠáĭµáĪĿáĮ¸áĭŃ
ĠáĬķáĪ³áī¶áĪĿáĭįáĬķ
ĠáĬ£áĪĭáĪħ
Ġáĭīáĭµáī¥
Ġáī¢áĬķ
Ġáī¥áĪķáĪĽáīķ
ĠáĭĿáīĲáĬķ
ĠáĭĿáĪĪáĪĺ
ĠáĭĵáīķáĪĺáĭŃ
ĠáĬĲáīłáĪŃáĭİ
ĠáĭŃáįįáĪĪáĮ¡
ĠáĭŃáī¥áĪīáĬ»
áĪºáĬķ
ĠáĬķáĮ¹áĪķ
ĠáĬŃáĪŃáĪµáī²áĭ«áĬķáĬķ
ĠáĪµáĪĪáĭĺáĭ¨áĪĪ
áĪµáĪ«áĬ¤áĪį
ĠáĭĿáīłáĪİáĭ¶
ĠáįĮáĪµáī¡
ĠáĬ¥áĪµáĪ«áĬ¤áĪĭáĭĬ
ĠáĪµáī¥áĪĴ
áĪįáĮ¡áįįáĬķ
áīįáĪį
ĠáįĸáĪĬáĪ²áī³áīµ
Ġáī°áĪĺáĪŃáĬ²
Ġáĭ¨áĪĪáĬ¹áĬķ
ĠáīĢáĪªáī¥áĬĵ
ĠáĪĺáĪķáī°áīµ
áĪŃáĬ¥áĭŃáĭİáĪĿ
Ġáī¥áĭĵáĭŃáĬĲáĭŃ
ĠáĭļáīķáĪĺáĮ¡
ĠáĭŃáĮįáī£áĬ£áĬĵ
ĠáĬķáĪĺáĪŃáĭĵ
ĠáĭĿáĬ¨áĬ£áĪĪáĬĵ
ĠáĬ£áīĵáĪĳ
áĭµáĬħáĬķ
ĠáīµáĪĿáĬĴáī°áĭŃ
ĠáĬªáĬ¢áĪĭ
áĪŃáĮĬáĪµ
ĠáįįáĮ¹áĪĽáīµ
âĿ¤ï¸ı
ĠáĬķáĪĿáĬŃáīµáī³áĪį
ĠáĪĺáĭĪáĭ³áĭµáĪŃáī²
ĠÌ
áīµáĬº
ĠáĬ¥áĬ»
áĪŃáĬ½áī²
áĬĵáī°áĭŃ
ĠáĬ¥áĭķ
ĠáĭĿáĮįáĪĪ
áĬĲáĭĿ
áĬĲáĬ«áĬķ
áĬ¥áī°áĬķ
ĠáĬ¨áĪµáī°
ĠáĬ£áī¥áĭ©
áĮĪáĭ¶áĪĿ
ĠáĭĺáĮĵáĬĲ
ĠáĭŃáīĨ
áĭ«áĪ±
ĠáĪµáĬķáīĤ
áĭ³áīķ
ĠáĬ£áĭŃáĭ°áĪį
áĬŃáīµáĬķ
áĬŃáĪŃáĬķ
áĬ¸áĭīáĬķ
ĠáīłáĪ«
ĠáĪĿáĪµáī°áĬķ
ĠáĭĺáĭŃáįįáĪĪ
ĠáĭĺáĭŃáĭķáĬķáīĢáįį
ĠáĪĥáĮ¸áĭŃ
ĠáĭįáĬŃ
ĠáĬ¸áĭĭáĬ½áī¥áī²
ĠáĭļáĬ¸áĭ±
ĠáĮ¥áĪĻ
ĠáĬŃáĬķáįĪáīµ
ĠáĭĪáĭŃáĪĪáĬ¹áĪĿ
ĠáīĥáĪĭáīµáĬķ
ĠáĪ¨áĭµáĭ®
ĠáĪĿáĬ½áĪŃáī³áīµ
ĠáĬķáĬ£áĬ¡
ĠáĪİáĪļáĬķ
áīłáĪįáĭĲ
ĠáĪĿáĬ½áĬķáĪ»áī¥
ĠáĪĺáĪŃáĪĽáĪª
ĠáīĨáĪİ
ĠáĬķáĪĺáĭĪáĭ³áĬ¥áī³
ĠáĪĺáĭ°áī£áīµáĬķ
áĬĲáī¥áĪŃáĬķ
Ġ190
ĠáĭįáĭµáīĢ
ĠáĬ½áīµáĪ¨áĬŃáī¥
ĠáĪĴáĭĺáĬķ
ĠáĭĿáĪĵáĪĪáįİ
ĠáĬ£áĮĭáĪŃ
ĠáĮ»áĭĬ
ĠáĪĽáĭŃáĬŃáĪį
ĠáĪ«áĪķáĪª
ĠáĭĿáįĪáĪ¨
ĠáįĬáīµ
ĠáīµáĪķáī²áĬ¡
ĠáĬ£áĭ°áĪ«áĭķ
áĭĺáĪŃáĮį
ĠáĪ»áī¡
ðŁĳ
ĠáĪ°áĬķáī¢
ĠáĪ³áĪįáĪ³áĭŃáĬķ
áĪ°áīµáĭ©áĬķ
ĠáĬ£áĭŃáĬŃáĬ¸áĭįáĬķáĬķ
ĠáĪĵáĭĬáĪµáĬ«
ĠáĭĵáĭĪáīµáĬĵ
Ġáĭ°áĮĬáĪĿáĪ²
ĠSe
ĠáĭĻáĪŃáĭ«áĬ¡
áĮįáĪ«áįĬ
ĠáĪķáĭĿáī£áĭĬ
ĠáĬŃáĪĵáī±
ĠáĮįáī¥áĪŃáī³áī±
ĠáĭķáĪ½áĪŃ
áīĢáĪŃáī¦
Ġáī°áĪĥáĪª
ĠáĭĿáĭ°áĪįáĭ«
ĠáĪĿáĬķáī£áĪ«
ĠáĭļáĪµáĪĿáĭĵáĬ«
ĠáĪĺáįĤáĬ¦áĪĿ
ĠáĬ£áĪįáĬ£áĭĽáĪŃáĬķ
áĭĿáĬŃáĪ®áĬķ
ĠáĪĵáĪĵáĪĬáįī
ĠáįķáĪ¨áĭļáĭ°áĬķáī³áĭĬ
áįĭáīĲáĪ©
ĠáĪĿáĮįáĬķáĭĽáī¥
ĠáĪĨáĪµáįĴáī³áĪĭáīµ
ĠáĪ¶áīŃáĭ¨áīµ
ĠáįĢáī¥áįĤáī¡
."
ya
áī·
ĠáĭŀáĪĿ
áĪįáĬ¨
ĠáĭĿáĪĿáĪħáĪŃ
ĠáĪĿáĬŃáĭ«
ĠáĬ¨áīłáĭµáī²
ĠáĬ£áī¥áĮº
áĪķáįį
áĪķáĭ³áĪŃ
áĭķáĬ»
áĪĽáĮįáĪĪ
áĭ°áīĢ
ĠáĪĵáĪ«áĪĿ
ĠáĬ¢áĪĭáīµáĬĴ
áĭĵáĭµ
ĠáĪµáĬ«
ĠáĬ«áĭµáĪŃ
ĠáĮįáĭĴ
ĠáĬ£áĭŃáī°áĬķ
ĠáĬ£áĭŃáĬ¸áĭįáĬķáĬķ
áĬ¨áĬ½
áĮ¥áīłáī£
áĭĭáĮĭ
áĮĭáĮ£áĪļ
áĪĥáĪİ
áĪĥáĪª
ĠáĪĿáĪµáī£
ĠáĪĿáĪµáįįáĪķáįĭáĪķ
áį£áį£
ĠáĭįáĪ°áĭ±
Ġáĭļáĭµ
ĠáĭĿáī°áĬķáĪµ
ĠáĮ¥áĭķáĬķ
ĠáĬķáĪĿáĬ»áĭµ
áĪ«áĪķáĬĵ
áĬĸáĬĵ
áĬºáĪ®áĪĿ
ĠáĬ«áĪįáĬłáĭŃ
ĠáĬķáĪµáĪŃ
ĠáĪħáĭĿáī¢áĬķ
ĠáĪ¨áĭ³áĬ¥
Ġáī¥áĪĵáĭ«áĪį
ĠáĭĿáĪĵáĭŃáĪ½
ĠáĪĺáĪįáĬ¨
Ġáī¦áĪĿáī£
ĠáĬķáĪķáī°áīµ
ĠáĭĿáĪĺáĪĵáĪĭáĪĪáįį
áĬ°áĪ¨
ĠáĪħáĭŃáĭĪáīµáĬ©áĪĿ
ĠáĬ½áīµáĬ¨áĭŃáĭµ
Ġáī¥áī°áĪĮáįİáĬķ
Ġáī°áĬ£áįĭáįĬ
Ġáī¥áĪįáĪĴ
ĠáĬ£áĪĽáĪĮ
Ġáī°áĮĭáĭ°áĪį
Ġáī°áĪ¨áĪ²
áįįáīħáĭµ
Ġáĭ©áĬķ
Ġáī°áīłáĪĭáĪ½
Ġáīłáī¥áĭĵ
ĠáĬ¥áĬķáīµáĬ¾áĬĳ
ĠáĬ£áī°áĬĵ
Ġáī¡áĪ©
ĠáĮ£áĬ¦áīµ
Ġáī°áĮ¸áīłáĭ©
ĠáĬ£áĬ¥áĪĿáĪ®áĬķ
ĠáĬ®áĬķáĭ¶áĪĿ
ĠáĮĪáĭ²áįĭ
ĠCh
ĠáĭĺáĭŃáĬķáįĪáĪįáĮ¦
ĠáĭĪáĪ°áĭ±
ĠáĬķáĮ¸áĪĭáĬ¢
Ġáī°áĭ³áĪİ
ĠáĭĺáĭįáĮ½áĬ¥
ĠáĬĲáĮĬáĪ¨áĬ©áĪĿ
áĬ£áĪĪáĪĺ
ĠáĬķáĬ¨áī°áĪĽ
ĠáĪĵáĪ²áī¥áĬ«
ĠáĭĺáīķáĪ¨áīł
áĬ½áī¥áīµáĬķ
Ġáī¥áĪĻáĪīáĬ¡
ĠáĬ»áī£áĬ»
Ġáī°áĬķáĪµáĬ¤
Ġáī¥áĪĿáĪĿáĮ»áĬ¥
ĠáĭŃáīħáĪ¬áī³
Ġáĭ²áĬĵáĪŃ
ĠáįĪáĪĬáĮ¥áĬ©áĪĿ
ĠáĪĵáĪļáĪĿáĬ«
ĠáĬ®áĪŃáĪ³áīµ
ĠáĬķáĭįáĪīáĭ³
ĠáĮŃáī¥áĮ¥áī³áīµ
Ġáī°áĪ¨áĭ²áĬ¡áĬĴ
ĠáĪ¸áĬĲáĬ»áīµ
Ġáī¥áĮĭáĪħáĭ²
ĠáĪĤáĬķáī´
ile
lic
áī¥áĭ¶áĪĿ
ĠáĬ¥áįĪáīµ
áĪµáĬ»áĬķ
ĠáĪĺáĬ¥áĪ°
ĠáĪĺáĬŃáī¥áī¥
ĠáĬŃáĮłáīķ
ĠáĬ¨áĬ¥
ĠáĬĲáĪ½
áĬ«áĪĬ
ĠáĪĵáĭįáĬķ
ĠáĭŃáįĭ
áĭ«áĬĳ
ĠáĪ°áĭ±
áĮ½áĪĵáįĪ
ĠáĬ¥áĬķáĮ¥áīĢáĪĺáĪī
ĠáĬ£áĭŃáĬ¾áĬĲáĬķ
ĠáĭĪáĬĵ
ĠáĭĵáīĢ
ĠáīµáĬĲáī¥áĪ©
Ġáīµáĭ°áĪįáĭ®
áĭ¨áĪįáĬ«
áĮ¥áįĭ
áĬ©áĪīáĬķ
áĭĺáĪī
áĪ±áĪ«áīµ
áĪĿáĪĭáĪµ
áīħáĬ«
ĠáĬŃáīµáĪį
ĠáĬŃáīµáĪķáĪį
ĠáĬŃáīµáīłáĪįáĭķ
ĠáĬŃáīµáĪĺáĭįáīµ
ĠáĪįáī¦
ĠáĪįáĭķáĪĪ
ĠáĬªáĪħáĪįáĭİ
ĠáĬķáĪĿáĮįáĪįáĮĭáĪį
áįĬáįī
ĠáĬ¥áī°áĪ¨áĬ½áīł
ĠáĪĪáĬ£áĬ¾
ĠáīħáĭµáĭµáĪĿ
ĠáĭľáĭµáĪįáĭ¨áĬ«
áįħáĬĲáīµ
ĠáĪ³áĭį
ĠáĭĿáĪĵáī±
ĠáĮĢáīłáĪŃáī²
áĭŀáĪŀ
áīĨáĮ»áĮ½áĪ«
áĮĪáĪįáĮįáĪįáĭİ
Ġáī¥áĬ£áĬº
áīĴáĪİáĪĿ
ĠáĪĿáĪĿáĮ½áĬ¡
ĠáīĲáĪªáī¦áĪĿ
ĠáĬķáī¥áĪİáĪĿ
ĠáĪĿáĭķáĪ©áĭŃ
ĠáĬ¥áĬķáĬ¨áĪĪáĭį
áĮ½áĪķáĬĵ
ĠáĭĿáįĪáĮ¸áĪĺ
ĠáĬ£áĪĭáī¶
ĠáįĭáĪŃáĪµ
Ġáĭ°áīĢáĪ°
áĪĺáĪ¨áĪī
ĠáĬ£áĪĺáĪªáĬ«áĭĬ
ĠáĬ£áĪµáī°áĭįáĭķáĪī
ĠáĬĲáĮ¥áī¥
ĠáĮ½áĬķáĪķ
ĠáĪĺáīĲáĪ¨áīµ
Ġáĭĵáĭįáĭµáī³áīµ
ĠáĮĥáĬŃ
ĠáĮĪáĭ²áįį
ĠáĬ£áĭŃáĪĿáĪ°áĪįáĬ©áĪĿ
ĠáĭµáĬ»áī³áīµáĬķ
áĭįáĪŃáĭ¶
Ġ01
ĠáĪĮáĭĬ
áĮĪáĭ³áĪ²
ĠáīĬáĮ¥áĭĵ
Ġáĭ¨áĪķáĭĭ
ĠáĪ°áĭ²áĭ±
ĠáĪĿáĪħáĪĭáĭĭ
ĠáīħáĪįáĪµ
ĠáĪĵáĪļáĪĺ
ĠáĬ£áĭŃáĭ°áĪĪáĭ©áĬķ
ĠáĬ¥áĬĴáĪĢ
ĠáįĪáĮ»áĪļáīµ
ĠáĭĿáĪ¨áĬ¸áī¥áĬŃáĭİ
ĠáĬ£áĭķáĪ©áĬ¸áĭŃ
ĠáĪĺáĬķáįĪáĪ³áĭįáĬķ
áĪµáī°áī¥áĪħáĪį
ĠáĪħáĮįáĭ°áįĭáĭĬ
ĠáĪĿáīµáĪŃáĮĵáĪĿ
ĠáĬķáĪĺáĮ»áĪĿáĭµ
Ġáĭ³áĭŃáĪ¬áĬŃáī°áĪŃ
gr
Ġhere
áī°áĬķáī²
áī°áĬµáĪŃ
áīłáĪĪáĭŃ
áī²áĬ£
ĠáĭĿáīłáĪŃ
áĬĲáĭĽ
áĬĲáĪ½
ĠáĬŃáĭĪáĪµ
áĬ£áĬĳáĬķ
áĭµáĪŀ
áī£áĬ¥áī²
áĪĺáĪĿáĪħáĪŃ
Ġáĭĺáĭ¨áĬķ
Ġáī½
Ġáī°áĪİ
Ġáī°áĭµáĪĭ
ĠáĬ¢áĪ±
ĠáĭµáĪĳáĪŃ
ĠáīµáĮįáĭ°áĭµ
áĮ¥áīħáĭķ
áĭĭáīķ
áĬĴáĪµ
áĪĥáĮĪáĪ«áĭĬ
ĠáĭĺáĭŃáĮįáī£áĬ¥
ĠáĪĥáĪµáĭ«
ĠáĭįáĮ¥áĪ¨áīµ
ĠáĭļáįĪ
ĠáĭļáĮĲ
ĠáĪ°áī¥áĬ¥
ĠáĬŃáīµáĪĽ
ĠáĬ©áĪĪ
ĠáĬªáįĪáĪįáĮ¡
ĠáĬ®áĪİáĪĿ
ĠáĬķáĪĿáĪ¸áī±
áĮĬáĬ¡
ĠáĬ¥áī°áĭį
áĪĺáĪµáĪįáĬķ
ĠáĭľáįįáĪŃáĪħ
áĪŃáĬ¨áĪŃáī²
ĠáĪĺáĪ°áĬķ
ĠáĪĺáĪ°áĪįáĬĵ
Ġáī°áĭĪáĪĪáĭµ
áĪ³áĭķáĬķ
ĠáĬ¦áįĬ
Ġ68
ĠáĪķáĪĽáīķáĬķ
ĠáĬ½áīµáĮĪáī¥áĪ©
ĠáĬ½áīµáĪ¨áĬ½áī¡
ĠáĭĿáĪĵáĪĪáįį
ĠáĬ²áĬĵáīµáĬķ
áĮ½áĪįáĭŃ
ĠáĭĿáĪ°áĬ£áĬĳ
áĪ«áĪŃáī¦
ĠáĭĪáĪ²áĬ¾áĪĿ
ĠáĬŃáĪŃáĬŃáĪŃ
ĠáĮ¨áĪŃ
ĠáįįáīµáĭĪáīµ
ĠáĪĿáĪħáĪ¨áīµ
áĬĲáīłáĪ¨áĬķ
ĠáĬķáĪĵáĭ°áĮĭ
ĠáĬ¥áĭĿáĬŃáĪŃ
ĠáĪ¥áĬĲ
ĠáĭĿáīłáĭĿáĪĸ
ĠáĪĢáī¥
áĪłáĬĵáĭŃ
out
ĠáĭĪáĭ°áīĳ
ĠáĬ£áīłáĪŃáĬª
ĠáĭĿáī¥áĪĥáĪī
Ġáī£áĪħáĪªáĭ«áĭĬ
ĠáĬ£áĭŃáĪ¨áĬ¸áī¡áĬķ
áĭ°áĭµáĬ©
ĠáĪµáĭīáĬ£áīµáĬĵ
Ġáī°áĮ£áĭĴ
ĠáĪķáĮĭáĮĭ
Ġáī¥áĪŃáĬ¥áĪ±
áĮįáīłáĪ¨áĪİáĪĿ
Ġlife
ĠáĪĿáĬĵáĪ´
ĠáĮįáīłáĪ¨áĪĪáĭŃ
ĠáĬ¥áĮįáĪ¨áĭŃ
ĠáįįáĪŃáĭ«áī³
Ġáī°áĭĭáĮĭáĬ¥áī²
ĠáįįáĪĭáĮ»
ĠáįĵáĬªáĪµáī³áĬķ
ĠEritrea
áĪµáĬŃáĪ«áĭŃáī¥
ĠáĬ¥áĪ³
ĠáĭĿáĮī
ĠáĪĿáī¥áĪĭ
áĪ«áĬ¡
áĪ«áĬ¬
áĪ«áĪ¨áī¡
áĭķáĪįáĬķ
áĪīáĮ½
áĪĵáī²
ĠáĭŃáĮ¸áĬķ
ĠáĭŃáīłáĭĿáĪĳ
áĭ«áī¥áĪİáĪµ
áĪ°áīłáĪī
ĠáĬ¢áĪ²
ĠáĭĪáĪĵáĭļ
Ġáĭĵáĭ¨áĭŃáī²
áĬĴáĬ»
ĠáĮĪáĪĭáīµáĭ«
áĮłáĮł
ĠáĪĥáįį
áĪŀáĭ«
áīłáĪŃáĬ©áĪĿ
ĠáīħáĮ¥
áĬ¾áĪŃ
ĠáĬŃáīµáĪĿáĪŃ
ĠáĮ¸áī¢
ĠáĬªáįĪáīµ
ĠáĬªáĮįáĪĪáĮ½
áī¥áĪŃáĬ»
áī¥áĪŃáĭİ
áĪĴáĭ°áīµ
Ġáī¥áĪĿáĪŃáĬ«áī¥
ĠáĪĪáĬ¨
ĠáĬĲáĭŃáĪ©áĭİáĪĿ
ĠáĮĢáĬĶ
ĠáĮłáĪĿáīµ
ĠáĭĿáĬĲáīłáĪ¨áī¶
ĠáĬ£áĭĿáĪĽáĪªáĬĸ
ĠáĬ£áĪµáĬĵ
ĠáĬ£áĪµáĬĵáĬķ
áĮĲáĪµáĬķ
ĠáīłáĪĪáī³
Ġáī¥áĬ£áĬ¥áĪĿáĪ®
ĠáĮĪáĬķáĭĺáīłáĭŃ
Ġáī°áĮĭáĭ²
áįĸáĬķ
ĠáĮ¸áĬĴáĭķáĬĵ
áĪ¨áĭµáĬ¦áĪĿ
ĠáĪĿáĭĿáĬķáĮĭ
Ġáĭ°áĪŃáįį
ĠáĭĿáĪµáĪĺáĭĵáĬĴ
ĠáĬŃáīķáĪĺáĮ¥
ĠáĬ£áī°áĪĥ
ĠáĮ£áĭįáĪĭ
ĠáĮ¥áīķáĭĵáīµ
ĠáĭŃáĭįáĪ°áĭµ
[...]
