#version: movoc-tok constrained-merge BPE
ት </w>
ም </w>
ን </w>
ቱ </w>
ነ </w>
ር </w>
ለ አ
መ </w>
ል ት
ል </w>
ከ </w>
ተ </w>
ይ </w>
ለ </w>
ለ ት
የ </w>
ብ </w>
ው </w>
ስ </w>
ኒ </w>
አ ት
ኢ ት
ድ </w>
ዩ </w>
ወ ለ
ዕ </w>
ሁ </w>
ረ </w>
ተ አ
መ ት
እ ን
ሕ </w>
ክ </w>
ቶ ም</w>
ወ አ
ኮ </w>
ፍ </w>
በ </w>
ሀ </w>
ና </w>
ወ ት
ዬ </w>
ወ መ
ለ ል
ሩ </w>
እ </w>
ዉ </w>
ለ ኢ
ኪ </w>
ት ት
ወ </w>
ለ መ
ኩ ም</w>
ቡ </w>
ቅ </w>
ለ ሐ
የ ት</w>
ሉ </w>
ለአ ት
ረ ት</w>
እ ት
ለ ተ
ደ </w>
ለ ልት
ታ ት</w>
አ ስ
ግ </w>
ይ ት</w>
ዮ ም</w>
ሮ </w>
ሰ </w>
ሙ </w>
ወ ል
ህ </w>
በ ር
ሽ </w>
ያ </w>
ን ት
ካ </w>
ተ ሐ
ለ ት</w>
ለ ዐ
ወ ኢ
አ ም
አ ን
በ ት</w>
ራ </w>
ጥ </w>
ታ </w>
ዝ </w>
ት ነ</w>
ሪ </w>
ተ ን</w>
ሎ </w>
ት መ</w>
አ ል
ሌ </w>
ላ </w>
ኢ ል
አ ብ
አ ተ
ቼ </w>
ት ለ</w>
መ ት</w>
አ ር
ሆ ም</w>
ፈ ር
ዐ </w>
ለ ሰ
ወ ሰ
ማ </w>
ወ ተ
ወ እ
መ ር
ለ ሀ
አ ሰ
ወ ሐ
መ ስ
ደ ር
ዎ </w>
ኑ </w>
ነ ት</w>
ፈ </w>
መ ን
ሐ </w>
ሬ </w>
ኢ ልት
ቶ </w>
ዱ </w>
ት ሰ
ለ ከ
ት ከ</w>
ቦ </w>
ለ ነ
እ ስ
ተ ር
ለ ለአ
ተ ዐ
ት ከ
በ ል
ዴ </w>
ሱ </w>
ገ ብ
ለ ም
ያ ት</w>
ደ ት</w>
ና ሁ</w>
አ ፍ
ለ ቀ
ለ በ
ደ ረ
አ </w>
ወ ዐ
ዮ </w>
ቴ </w>
ዐ ት</w>
አ ክ
ከ ር
ወ ስ
ወ ድ
ወ ር
ራ ት</w>
ባ </w>
ሞ </w>
ሊ </w>
ሮ ም</w>
ወ ልት
ለ እ
ገ </w>
ም ስ
ብ ር
ለ ለ
ወ ደ
ወ ነ
ለ ኢት
ቀ </w>
ዶ </w>
አ ው
ዎ ም</w>
ሎ ም</w>
ዲ </w>
ሰ ት</w>
ክ ር
ወ ረ
አ ቅ
ፈ ረ
ጠ </w>
ያ ይ</w>
የ ን</w>
ት በ
ቲ </w>
ም ን
ወ ከ
ተ ሀ
መ ል
ወ ቀ
ለ ብ
ት ረ
ቦ ም</w>
ተ አት
ገ ር
ወ ለአ
አ ድ
በ ረ
ዖ </w>
ኖ </w>
ሐ ት</w>
እ ም
ት ር
ሰ ል
ስ ተ
ዘ </w>
ሰ ር
ጅ </w>
ዳ </w>
ት መ
ለ ፈ
ከ ል
ሰ ም
ፉ </w>
ና ቱ</w>
ን ደ
ሸ </w>
ያ ም</w>
ዑ </w>
ካ ሁ</w>
መ ዐ
ላ ት</w>
ለ ኣ
ከ በ
ወ ሕ
ክ ም</w>
ት ፈ
ተ ን
ለ ተአ
ቀ ር
ለ ሸ
ከ ብ
ኔ </w>
ሐ ር
ወ መት
ሶ </w>
ም ቱ</w>
ከ ለ
ወ ን
ሐ ረ
አ ግ
ሳ </w>
ተ ት</w>
ለ ረ
ል ብ
ድ ረ
ወ ለት
ተ ም
ኩ </w>
ወ ም
ኡ </w>
ፎ </w>
ት ነ
ክ ም
ነ አ
ለ ስ
ን ገ
መ ረ
ኢ ለአ
እ ብ
ኦ </w>
ሃ </w>
ካ ር
ሞ ም</w>
ራ ይ</w>
ወ ቅ
ከ ረ
ሑ </w>
ለ ው</w>
ክ ል
ን ስ
መ ጽ
ላ ይ</w>
ቤ </w>
እ ግ
ለ ው
ለ ይ
ሖ </w>
ፈ ት</w>
ወ ሸ
ና ሀ</w>
ማ ር
ት ሐ
ን ግ
ለ ደ
ን ድ
ና ት</w>
ጽ </w>
ክ ረ
ተ ብ
ሰ ብ
ሀ ን</w>
ያ ሁ</w>
ስ ት
ሰ አ
ፈ ን
ጸ ብ
ለ እን
ወ ዕ
ከ ት</w>
ት ሸ
ወ ጀ
ወ ኢት
ቀ ድ
ከ ም
ቀ ት</w>
ጎ </w>
ማ ት</w>
ተ ል
አ ት</w>
መ ድ
ኢ ነ
ለ ሕ
ለ ሓ
ዳ ይ
ና ይ
ባ ይ</w>
ቁ </w>
ለ ገ
በ ር</w>
መ ሐ
ታ ይ</w>
ብ ረ
ደ ም
ብ ር</w>
ወ አት
ይ እ
ወ ክ
ወ በ
ት ቀ
ማ ን
ሲ </w>
ግ ር
ተ ሓ
ለ ክ
ፍ ር
ባ ት</w>
ዐ ል
ራ ይ
ካ ቱ</w>
ለ ን
ኢ ተአ
ና ይ</w>
ሀ ይ
ወ ገ
ለ ህ
ኢ ን
ል ስ
ወ ፈ
ባ ይ
መ ሳ
ለል አ
ሴ </w>
ር ኤ
መ ቅ
ወ ጅ
ክ ን</w>
ና መ</w>
ዪ ን</w>
ት ቱ</w>
መ ም
ፊ </w>
ን ሐ
ት ገ
ወ ጠ
ኣ ም
ብ ል</w>
ል ም
ሮ ት</w>
ረ ው</w>
ወ ን</w>
ዋ </w>
ረ ክ
ቢ </w>
ዮ ት</w>
ሐ ም
ወ ብ
በ ለ
ግ ራ
ዋ ል
ኬ </w>
ለ ፍ
ዜ </w>
ወ ሳ
በ ት
ድ ር
አ ከ
ይ ድ</w>
ር ሐ
ረ ብ
ካ ሀ</w>
ት ደ
ነ ፍ
ት ሳ
ት ራ
ጋ </w>
ን መ</w>
ደ ው</w>
ኖ ም</w>
ል በ
ል ሕ
ል ክ
አ መ
ለአ ም
ወ ዴ
ና ተ</w>
ለአ ተ
ሚ </w>
ን ክ
አ ሽ
ነ ስ
በ ው</w>
መ ው</w>
ለአ ስ
ሐ ድ
ሐ ል
ጭ </w>
ጀ ር
ባ ል
ለ ን</w>
ጉ </w>
መ ሰ
ጡ </w>
ወ ሀ
ለ ዕ
ለ የ</w>
ለ ዓ
ተ ኒ</w>
ት ም
ር እ
ጸ በ
ም ነ</w>
ዶ ም</w>
ጠ ት</w>
ቀ ደ
ከ ስ
ን ቀ
መ ዳ
ደ ግ
ሶ ም</w>
የ ቱ</w>
ማ ይ
ለኢ ልት
ወ እን
ገ ት</w>
ወ ግ
ጌ </w>
የ ት
ወ ሽ
በ ጽ
ቆ </w>
መ ዕ
መ ን</w>
ኤ </w>
ዛ </w>
ወ ፍ
በ ን</w>
ስ ታ
ፋ ር
ያ ቱ</w>
ም መ</w>
ን ብ
ዊ </w>
ወ ራ
መ ቃ
ለ ሳ
ር ከ</w>
ለ ቅ
አት ሐ
ን ቱ</w>
ዐ ብ
ኢት ት
ሪ ት</w>
ይ ን</w>
ነ ሐ
ተ ረ
ር ነ</w>
ል ሰ
ይ እን
ፋ </w>
ል ፍ
ብ ራ
ክ ዉ</w>
ል ነ</w>
ለ ጀ
ን ከ
ረ ሰ
መ ና
አ ለ
ን ፈ
ተ ር</w>
ል መ</w>
ነ ፈ
አ በ
ች </w>
በ ሀ
ገ ረ
ወ ሓ
አ ዳ
ት ብ
ረ ሐ
ት ተ</w>
ረ ስ
ማ ይ</w>
ት ስ
ር ቱ</w>
ለ ል</w>
ተ ቅ
ላ ም</w>
ብ ነ</w>
ተ ክ
ፅ </w>
ዓ ት</w>
ካ ል
ር መ</w>
ድ ር</w>
ወ ተአ
ራ ም</w>
ማ ን</w>
ል ቱ</w>
ላ ይ
ሳ ት</w>
መ ደ
ጠ ል
ር ሕ
ዖ ም</w>
አ ጽ
ሰ ፍ
ሰ በ
ን ቅ
ብ ለ</w>
ከ ት
ታ ቱ</w>
ተ ስ
ረ አ
ለ ለአት
ቃ </w>
ወ ዓ
ን በ
ተ በ
ክ ወ</w>
ለ ቱ</w>
ው ር</w>
መ ክ
ል ህ
ለአ ብ
ግ ረ
መ ራ
ሆ </w>
ፍ ዐ
ተ ነ</w>
ዔ </w>
ቲ ት</w>
ጨ </w>
ገ በ
አ ደ
መ ጸ
ያ ሀ</w>
ቅ ር
ወ ዘ
ን ሰ
ነ አት
ም ዕ
መ ዓ
ባ ር
የ ተ</w>
ነ ብ
ፈ ት
ሐ ብ
ለት ት
ለ ድ
ሻ </w>
ክ ር</w>
ቄ </w>
ሳ ይ
ር በ
ዳ ይ</w>
ዪ </w>
ረ ን</w>
ሜ </w>
ሀ የ
ማ ም</w>
ዳ ት</w>
ለ ጸ
ን ፍ
ታ ይ
ረ በ
ል ቅ
ደ የ</w>
እ ድ
ኤ ል</w>
ት ሕ
ር ከ
ወ ኣ
ት ካ
ሀ ም
መ ው
ቱ መ</w>
ም ን</w>
መ ቱ</w>
ዖ ት</w>
ተ ው
ር ት</w>
መ ሽ
ሄ </w>
ቀ ይ
ሓ </w>
ል ከ</w>
ነ ው</w>
ሃ ይ
ዘ ር
ን ስ</w>
ተ ዓ
ላ ቱ</w>
ዘ ት</w>
ለት ሐ
ና ሆም</w>
ረ ከ
ል ል</w>
ት ኩም</w>
ሀ ት</w>
ዋ ጅ
ቡ ዕ</w>
ም ብ
መ የ</w>
ለ ዩ</w>
ወ ይ
ቀ የ
ጂ </w>
ደ ገ
ት ክ
ፎ ም</w>
ደ ን
ዓ </w>
ብ ዕ
ሖ ም</w>
ሕ ር
ካ ይ
ከ ሰ
ተ ላ
ልት ሐ
ት ፋ
ለአ ፍ
ነ ን</w>
ሸ ን
ለት ሰ
ያ ተ</w>
ቦ ት</w>
ኣ ይ
ት ማ
ም ተ</w>
ፌ </w>
ደ ፈ
ዐ ው</w>
ራ ቱ</w>
ኣ </w>
ም ህ
ለ ግ
ያ ይት</w>
ተ ው</w>
መ ሕ
ለ ጠ
ር ብ</w>
ጦ </w>
ስ ም
ዌ </w>
ኢ ሰ
አ ሳ
ቀ ብ
ደ ል
ዋ ር
ረ ቱ</w>
ሎ ት</w>
መ ነ
መ ሓ
ል እ
ዐ ለ
ወ ር</w>
ጥ ር</w>
ስ እ
ፈ ና
ያ ን</w>
መ ሻ
መ ር</w>
ዞ </w>
ከ ር</w>
ሓ ይ
ን ግ</w>
ድ ነ</w>
ይ ሐ
ከ ፍ
አ ይ
ነ ቅ
ሸ ት</w>
ሰ ላ
ደ ፍ
ወ ህ
ሸ ር
ሀ መ
ን ዳ
ለ ሽ
አ ጅ
በ ይ
ሰ ን</w>
ሬ ሕ</w>
ወ ት</w>
አ ዝ
ሳ ይ</w>
ረ የ</w>
ሹ </w>
ደ ው
ዙ </w>
ነ ት
ያ መ</w>
ኢ ይ
ም ር
ም ም</w>
ጊ </w>
ሌ ት</w>
በ ገ
ረ ት
ስ ነ</w>
ና ድ
ነ ድ
ሀ በ
ብ ቱ</w>
ዐ ቅ
ሰ ን
ሰ ሐ
ሊ ን</w>
ዚ </w>
ን ሕ
ታ ተ</w>
ጠ ር
ግ ር</w>
ወ ላ
ጋ ብ
ዳ ገ
ደ ን</w>
እ ት</w>
ሊ ት</w>
ድ ራ
እ ተ
እ ር
ለ ባ
ኣ ል
ቀ ረ
ወ ጸ
ን ከ</w>
ም ከ</w>
ል ው
ገ ል
ወ ዝ
ክ ስ</w>
መ ተ</w>
ለል አት
ስ ር
ሠ </w>
ለ ለሐ
ፈ ዐ
በ የ</w>
በ ቱ</w>
ቅ ል</w>
ሾ </w>
ወ ው
ሰ ለ
ተ ለ
ቅ ራ
ረ ፍ
ሀ ር
ወአ ስ
ኩ ወ</w>
ሳ ም
ዐ ድ
አ ካ
ት ባ
ላ ን
ለ መት
ወ ለአት
ክ ብ</w>
አር ቡዕ</w>
ት ጀ
ብ ከ</w>
በ ል</w>
ም ት</w>
ዕ ን
ኩ ዉ</w>
በ ራ
ኦ ም</w>
ነ ቱ</w>
ረ ተ</w>
ረ ኤ
ሐ ዝ
ካ መ</w>
ሞ ት</w>
ጣ </w>
ክ ስ
ን የ</w>
ኒ ቱ</w>
ል ት</w>
ለአ ው
ጽ በ
ስ ት</w>
ል ፈ
ል የት</w>
ደ ዩ</w>
ዐ ር
ዋ ይ
ወ ሙ
ት ጸ
ባ ቱ</w>
ግ ብ
ዐ ረ
ካ ይ</w>
ካ ት</w>
ሀ ብ
ወ ዳ
ወ ማ
ሐ በ
ሀ ድ
ት ቃ
ተ ከ</w>
ተ መ
ጀ </w>
ው ነ</w>
ኖ ት</w>
ሳ ር
ሬ ት</w>
ጸ </w>
ስ መ</w>
ኢ ፈ
ሂ </w>
ዮ ን</w>
ኢ ቀ
አ ው</w>
ም ር</w>
ል ር
ሰ ው</w>
ል ባ
ለ ለ</w>
እ ቅ
በ ተ</w>
ሰ ት
ር ድ</w>
ም ዐ
ለ ዘ
ሸ ክ
ብ ት</w>
ረ ይ
ሖ ት</w>
ሐ ስ
ለ ር
ድ ግ
ድ ሕ
ካ ረ
ት ን
ፍ ን
ጸ ሐ
አ ጥ
ተ ዕ
ሳ ድ
እ ክ
ለአ ን
ዳ ም</w>
ሸ ነ
ደ ር</w>
ኒ ት</w>
ት ላ
ብ ለ
መ ጅ
መ ዋ
ል የ</w>
ፍ ረ
ጻ ብ
ደ ብ
ይ ስ</w>
ወለ ሐ
ኢ ተ
ዲ ን</w>
ካ ፍ
ከ ተ
ከ ራ
አ ማ
ላ ል</w>
ሀ ደ
ዐ ው
ል ም</w>
ለ ታ
አ ረ
ሰ ዐ
ሰ ር</w>
መ ተ
ለአ ር
ፈ ው</w>
ድ መ</w>
ማ ቱ</w>
ል ሽ
ለአ ቅ
ለ ብ</w>
ከ ኒ</w>
እ ጅ
አ ቡ
ነ የ</w>
ት ኪ</w>
በ ጥ
ክ ራ
ን ለ</w>
ና ስ
ት ሽ
በ ድ
ዒ </w>
ወለ ልት
ከ ይ
ብ መ</w>
ሓ ት</w>
ለሀ ይ
ጩ </w>
ጄ </w>
ዓ ይ
ወ ባ
አ ገ
አ ዘ
አ ነ
ሰ ረ
ሁ መ</w>
ድ ም</w>
ወ ታ
ሻ ር
ለተ ሐ
ገ ጽ
ብ ል
ሚ ን</w>
ለ ዋ
ዳ ፍ
ዐ ደ
ት ግ
መ ጣ
ሐ ን
ለ ለት
ፍ ህ
ኢ ንት
በ ረ</w>
ቃ ር
ሌ ነ</w>
ጸ አ
አት ፋ
ት ዋ
ቀ ል
ሰ መ
ሐ ዜ
ከ እ
ቀ ው</w>
ለ ም</w>
ወ ጽ
ካ ተ</w>
መ ድ</w>
ን ታ
ር ስ</w>
ል ዬ</w>
ደ ቱ</w>
በ ተ
ሽ ክ
ስ ያ
ለ ተ</w>
ፋ ት</w>
ፈ ተ
ወ ዲ
ቂ </w>
ለ ጅ
ድ ከ</w>
ኢ </w>
ት ዐ
መ መ
አ ጀ
የ ቶም</w>
ኒ ን</w>
ሔ </w>
ወ እት
ወ ቃ
ከ ፈ
በ ዩ</w>
በ ህ
ር የት</w>
ላ መ</w>
ድ ገ
ሰም ዐ
ራ ር</w>
ም ል
መ ላ
አ ባ
ር ክ
ለ ወ
ለ ሙ
ሃ ገ
ይ ር</w>
ው ኒ</w>
ኮ ም</w>
ታ መ</w>
ሪ ን</w>
ፈ ደ
ከ ው</w>
ስ ሕ
ሳ ል
ረ ሕ</w>
ለ ማ
ወ ካ
ት ዘ
ት ና
ት ሓ
ሶ ት</w>
ም ሕ
ል ግ
ለ ከ</w>
ለ ንት
ደ ቀ
ነ ዘ
ሰ ል</w>
ራ ቅ
መ ሀ
ኒ ተ</w>
ረ ብ</w>
ለአ ክ
ዕ ቱ</w>
ው ዕ
ነ ሰ
ት ሻ
ሰ ይ
ም ለ</w>
ሽ ን</w>
ስ ከ
ስ ር</w>
ር ያ
ረ ር</w>
መ ም</w>
ዐ የ</w>
ት ቼ</w>
ቀ ን
ል ተ
በ ነ</w>
ፈ ር</w>
ደ ቅ
ዩ ቱ</w>
ኢ ለሐ
ት ዕ
ት ሮ
ብ ዬ</w>
ስ ቱ</w>
ሀ ለ
ጀ ሪ
ር ዬ</w>
ም ዬ</w>
ሓ ል
ፍ ር</w>
ጠ ረ
ድ የ</w>
ከ ሐ
ሳ ን
መ ብ
ነ ተ</w>
ቢ ት</w>
ሼ </w>
ር የ</w>
ር ር</w>
ለ ለዐ
ፀ </w>
ዓ ይ</w>
ወ ፋ
ባ ብ</w>
ሬ ነ</w>
ማ ል
ድ ቱ</w>
ካ ፈ
ኪ ቱ</w>
ን ጋ
ን ዬ</w>
ም ጅ
መ ል</w>
ለ ቤ
ዘ ብ
ዐ ጅ
ወ ተሐ
ኩ ሁ</w>
እ ሰ
ት ጋ
ት ቅ
በ ብ</w>
ቀ ስ
ድ ለ</w>
እ ሽ
ን ት</w>
ሰ የ</w>
መ ዩ</w>
ለ ጥ
ግ ል</w>
ኽ </w>
ክ ት</w>
ም በ
ኮ ሀ</w>
ከ ደ
ኤ ረ
ታ ት
ተ ኣ
ሰ ቱ</w>
መ ባ
ለ ነ</w>
ጸ ን
ኢ በ
ስ ከ</w>
ልት ዐ
ል ድ
ነ ዐ
ሒ </w>
ለአ ግ
ለ ሃ
ገ ር</w>
ው ሕ
ኢ ተሐ
አ ና
ቶ ን</w>
ባ ር</w>
ወ ጥ
ኢ ረ
አት ሓ
አ ነ</w>
ኔ ት</w>
ቭ </w>
ል ዕ
ሉ ም</w>
ህ ሌ
ጠ ው
ዕ ላ
ው ላ
አ ሸ
ቦ ር
ቤ ት</w>
ስ ስ</w>
ሓ ም
ጻ </w>
ው ን</w>
ወ ሻ
ከ ን
ነ ክ
ብ ላ
ባ ም</w>
ስ ቲ
ል ን
ለት ሸ
ገ ም
የ ትነ</w>
ዐ ቱ</w>
ክ ላ
አ የ</w>
ና ቅ
ብ ብ</w>
ሜ ዕ</w>
ጽ ሐ
ደ ራ
ዝ ያ
ከ ብ</w>
ት ፍ
ሕ ቱ</w>
ለ ይ</w>
ፈ ቴ
ዬ ት</w>
ኣ ት</w>
ተ ማ
ለ ሻ
ጀ ሀ
ዕ መ</w>
እ በ
ኣ ር
ብ ህ
ሰ ብ</w>
ረ ዩ</w>
ማ ር</w>
ሕ ነ</w>
ህ ር</w>
ፈ ን</w>
ዶ ት</w>
ዳ ር
ያ ስ</w>
ዓ ር
ተ የ</w>
ም ጽ
መ ከ
ል ከ
ለአ ሰ
ለተ ዐ
ይ አ
እግ ል</w>
በ ከ</w>
ፈ ቅ
ደ ል</w>
ኢ ሐ
ን ተ</w>
ነ ግ
ልት ሓ
ሃ ም</w>
ገ ም</w>
ዲ ት</w>
ዬ መ</w>
ወል ደ
እ ብ</w>
አት ቃ
ነ ዝ
ቀ ል</w>
ስ ል</w>
መ ረ</w>
ለ ኒ</w>
ፈ ግ
ጃ </w>
ው ረ
ተ ሃ
ልት ሰ
ለ ጽ
ፋ ይ
ዴ ት</w>
የ ር</w>
ዕ ነ</w>
ወለ ዐ
ኣ ት
በ ለ</w>
ም ራ
ዘ ይ
ወ ንት
ረ ፈ
መ ሸ
ለአ ድ
ጠ ር</w>
ላ ል
ጸ ንሐ
ወለ ል
ክ ል</w>
ብ የ</w>
ሐ ደ
ገ ይ
ዐ ነ</w>
ዋ ት</w>
ወአ ብ
ወ ጋ
ካ ሆም</w>
ን ጎ
ግ ም</w>
ጀ ም
ወ ና
ኦ ት</w>
ኢ ደ
ን ን</w>
ነ ዩ</w>
ሽ ር
ሥ </w>
ሓ ይ</w>
ሐ ው</w>
ል ሳ
ለ ካ
ፈ ራ
ት ጠ
ቆ ም</w>
ቃ ት</w>
ሺ </w>
ሐ ራ
ጀ ረ
ድ ያ
ወ ኤ
እ ቱ</w>
ነ ው
ት ት</w>
ብ ሪ
በ ጠ
በ ዐ
ቀ ም
ስ ለ</w>
ም ፕ
መ ለ
ዓ ም</w>
ከ አ
አስ እ
መ ህ
ል ታ
ል ብ</w>
ወመ ስ
ከ ላ
ኢ መት
ብ ዝ
ር ለ</w>
መ ካ
ህ ል</w>
ግ ን
ይ እት
ኣ ን
ሽ ን
ስ ል
ረ ከ</w>
መ ዕ</w>
ለ ቃ
ፎ ት</w>
ፌ ዕ</w>
ፈ ል
ጋ ይ
ድ ሪ
ዊ ት</w>
ክ ብ
ከ ሬ
ኤረ ትር
ቶ ት</w>
ተ ከ
መ ጥ
ለመ ጽ
ለ ዳ
ለ እት
ሀ ረ
የ ትመ</w>
የ ትለ</w>
አ ዩ</w>
ደ ይ
ዐ ይ
ዋ ን</w>
ኩ ሙ</w>
ስ ላ
ሪ ክ</w>
ም ግ
ል ያ
ላ ተ</w>
ሃ ጅ
ፍ ዕ
ድ ም
ደ ተ</w>
ኮ ከ</w>
ተ ሽ
ብ እ
ባ ን
ሊ ም</w>
ጋ ይ</w>
ገብ ረ
ዐ ገ
ዐ ን
ወአ ፍ
አሰ ይድ</w>
ና ይት</w>
ት ር</w>
ሸ ቄ
ሰ ጀ
ም ክ
ፎ ር
ኩ ሀ</w>
እ ዝ
ት ና</w>
ሽ ዕ
መ ጃ
ሐ ሰ
ላ ም
ለተ አት
ድ ድ</w>
ኮ ሁ</w>
እግ ል
አ ህ
ብ ሩ
ፍ ነ</w>
ገብ ሬ
ደ ጋ
ዮ ቱ</w>
ዐ ጀ
ው ር
ኩ ዎ</w>
ከ ረ</w>
ቤ ዕ</w>
በ ኒ</w>
ሸ ም
ሳ ም</w>
ሰር ገ
ሰ ተ</w>
መ ከ</w>
ደ ለ</w>
ዩ ም</w>
አ ሕ
ት ን</w>
ተ እ
ተ ሕ
ስ ካ
ረ ም
ልት ነ
ለት ከ
ጤ </w>
ዴ ነ</w>
ዬ ቱ</w>
ወአ ር
እ ፍ
ት ዬ</w>
ተ ጅ
ባ ብ
በጽ ሐ
ሸ ፍ
ማ ል</w>
መ ይ
ገ ን
ገ ራ
ድ የት</w>
ዳ ን</w>
እ ነ
ቨ ር
ቀ ራ
ሪ ር</w>
ሓ ም</w>
ልት በ
ሌ ከ</w>
ዛ ይ
ት ዳ
ረ ድ
ል ስ</w>
ለ በ</w>
ለ መ</w>
አ የ
አ ከ</w>
አ ቀ
ት ው
ሚ ካ
መ መ</w>
ለት ፈ
ፋ ይ</w>
ክ ፍ
ራ ክ
ልት ፈ
ለአት ሐ
ለል ሐ
ለ ዉ</w>
ለ ቶም</w>
ለ ስ</w>
ህ ር
ጠ ብ
ና ሀን</w>
ሰ ራ
ለ ዝ
ጽ ን
ጋ ን
ዬ ን</w>
ቅ ብ
ር ገ
ም ሰ
ሓ ር
ለት ነ
ህ ይ
ግ ል
ጀ ት</w>
ዘ ው</w>
ዋ ር</w>
ወ ረ</w>
ከ ሽ
ኣ ይ</w>
ኣ ስ
አ ቱ</w>
ሸ ረ
መ ታ
ፈ የ</w>
ጦ ም</w>
ግ ብ</w>
ጃ ር
ያ ነ</w>
ወ ሃ
አት ና
በ ክ
ቅ ሩ
ሕ ሳ
ለኢ ለአ
ፍ ራ
ድ ብ
ኮ ት</w>
ቅ ረ
ስ ኮ</w>
ሲ ን</w>
ሬ ኒ</w>
ሕ ም
ልት ከ
ል ደ
ጋ ድ
ዲ ብ</w>
ዝ ም</w>
ዐ ከ</w>
ኢ ከ
ን ነ</w>
ቀ የ</w>
ቀ ት
ረ ግ
ል ድ</w>
ሌ ኒ</w>
ለአ ስተ
ለ ፈር
ጥ ጥ</w>
ጠ ም
ዲ ብ
ዕ ም
አ ላ
ን ተ
ቡ ቱ</w>
ቆ ት</w>
ር ግ
ለት በ
ሃ ጌ
ፈ ቱ</w>
ዳ ም
ይ ነ</w>
ወ ምስ
ክ ታ
ካ ን</w>
እ ነ</w>
መ ፍ
ለመ ስ
ለ የ
ፕ </w>
ፋ ግ
ጹ </w>
ገ ው</w>
ደ ድ</w>
ክ ዎ</w>
ኤ ር
አ ራ
ና ፍ
ቱ ቱ</w>
ቕ </w>
ም ሽ
መ ነ</w>
ል ፍ</w>
ሃ ን</w>
ጋ ር
ወለ ኢ
ክም ሰል
ኣ ብ
ን ር
ና ን</w>
ተር ጀ
ሲ ት</w>
ፕ ሮ
ጸብ ጠ
ያ ሆም</w>
ታ ር
ስተ ር</w>
መ ጠ
መ ዘ
የ ም</w>
ዕ ር
ው መ</w>
ክ ነ</w>
አት ባ
ተ ተ</w>
ባ መ</w>
ቀ በ
ም ድ
ዴ ከ</w>
ዛ ብ
ው ድ
ው ል</w>
ወ ኮ
ከ ዩ</w>
ነ ነ</w>
ትት ሐ
ት ል
ተ ሰ
ል ል
ለት ዐ
ጸ ት</w>
ጀሪ ደ
ዳ ል
ዬ ሕ</w>
የ ትከ</w>
ኩ መ</w>
እ ና
አት ሳ
አ ተ</w>
ቅ ር</w>
ቅ ል
ራ ተ</w>
ል ሸ
ለ ራ
ዐ ተ</w>
ኪ ት</w>
ከ ነ
እ ይ
ን ድ</w>
ን የት</w>
ቅ ለ</w>
ሬ ዕ</w>
ሚ ት</w>
ፈ ዝ
ፈ ሪ
ጣ ት</w>
ዳ ቱ</w>
ዘ በ
ዒ ት</w>
ዋ ይ</w>
ወኢ ልት
ከ ማ
አተ ላ
ን ጉ
ቀ ቱ</w>
ረ ከብ
ረ ረ</w>
ማር ያም</w>
ል ጽ
ሀ ን
ግ ድ
ይ ቱ</w>
ዉ ነ</w>
ወ የ
ወ ሊ
ክ መ</w>
ከ ድ
ከ ህ
ኢ ገ
ታ ቶም</w>
ቫ </w>
ቅ በ
ሰ ድ
መ ገ
ሐ ር</w>
ሉ መ</w>
ወአ ም
ወ ፈር
ወ ዋ
ወ ሴ
ወ ሞ
ከ ም</w>
ን ም
ና ም</w>
ት ካ</w>
ስ ቶ
ሮ ቱ</w>
ሪ ቱ</w>
ሜ ር
መስ ኡ
ሀ ም</w>
ፋ ቅ
ጋ ር</w>
ደ በ
ደ ም</w>
ወ ል</w>
ኮ ቱ</w>
ክ ቶ
ከ የ</w>
እ ዘ
ኢ ለአት
ቴ ነ</w>
ሳ ቱ</w>
ሰ ጅ
ሰ ነ</w>
ማ ስ
ሌ ሕ</w>
ለአ ሽ
ለት አ
ፍ ት</w>
ፈ ድ
ጆ </w>
ያ ኒ</w>
ሻ ቀ
ስት ራ
ል ነ
ላን ድ</w>
ለ ፋ
ለ ለሀ
ጸ ገ
ዛ በ
ዐ ሊ
ክ የ</w>
ኩ ምቱ</w>
ኣ መር
ት ጃ
ት ም</w>
ተ ፍ
በር ና
ራ መ</w>
ላ ብ</w>
ሀ ገ
ጢ </w>
ዕ ል</w>
ኮ ን</w>
ክ ዩ</w>
ክ ሪ
እ መ</w>
አ ሌ
ተ ል</w>
ቤ ሕ</w>
ቃ ይ</w>
ር ተ</w>
ረ ስ</w>
መር ሐ
መ ግ
ሕ ፍ
ላ ሁ</w>
ለት ሓ
ጀ ል
ድ ል</w>
ደ ደ</w>
ዕ ት</w>
ክ ለ</w>
ከ ባ
ኣ መ
ኢ ተአት
ን ያ
ቅ ያ
ሸ ር</w>
ሰ ኣ
ሰ ና
ረ ሕ
መ ፋ
ልት ረ
ህ ያ
ጎ ም</w>
ዐ ዳ
ዋ ጥ
ወአ ግ
ወ ጣ
ክ ሉ
ኬ ት</w>
ከ ን</w>
ከ ቱ</w>
ቲ ን</w>
ሽ ል</w>
ር ኮ</w>
ልት ገ
ህ የ
ሃ ጀ
ጻ ገ
ጃ ት</w>
ድ ት</w>
አ ታ
ተ ራ
ቅ ት</w>
ሸ በ
ስ ተ</w>
መሐ መድ
ሌ ዕ</w>
ህ ግ
ህ ለ</w>
ፍ ቱ</w>
ጽ ብ
ገብ እ</w>
ደ ዋ
ዛ ት</w>
ዕ ከ</w>
ዌ ት</w>
ዋ ን
ወለ ኢት
ወ ጃ
ኮ ን
ከ ነ</w>
አም ጸ
ቴ ት</w>
ተ ት
ቤ ኒ</w>
ቤ ለ
ሳ ይት</w>
ሱ ስ</w>
ሰ ው
መ ጋ
ሕ ን
ላ ይት</w>
ለአ ዳ
ዛ ን</w>
ኪ ን</w>
አን በ
ተሀ የ
ቤ ነ</w>
ቀድ ር</w>
ሸ ቅ
ሰ ነ
መት ሐ
መ ቶም</w>
ልት ሳ
ል ጥ
ል አ
ል ሐ
ለት ቀ
ሀ ዳ
ጨ ት</w>
ዴ ቱ</w>
ይ ም</w>
ይ መ</w>
ዩ መ</w>
ዉ ኒ</w>
ት ድ
ት ል</w>
ሻ ረ
ሰ ስ</w>
ማ መ</w>
ል ቀ
ል ለ</w>
ለ ቴ
አት ራ
ን ዝ
ቃ ረ
ስ ን</w>
ሳ ር</w>
ሌ ቱ</w>
ሃ ት</w>
ፈ ዕ</w>
ዳ ግ
ዘ ን</w>
ከ ዐ
ከ ሀ
እ ማ
ኢት ሕ
ኢ ተዐ
ኛ </w>
ና ቶም</w>
ነ ሽ
ባ ይት</w>
ሰ እ
ረ ቶም</w>
ሉ ቱ</w>
ለት ረ
ህ ድ</w>
ህ ት</w>
ጊ ት</w>
ጃ ን</w>
ወአ ው
ወል ዴ
ወ ወ
ኮ ር
ክ ክ</w>
ክ ሮ
ከ ተ</w>
በ ረት</w>
ም ቶም</w>
ም ል</w>
ሕ ድ</w>
ሐ ን</w>
ልት ቀ
ሄ ረ
ሀ ው</w>
ጳ </w>
ጠ ን</w>
ዳ ው
ዓ ፍ
ዐ ን</w>
ወ ኦ
ባ ል</w>
በ ዕ</w>
በ አ
በ ሰ
ሰ ሓ
ር ም</w>
ም ሳ
መ ዝ
ሐ ፍ
ልት ሸ
ለ ጋ
ሀ ር</w>
ፍ ሩ
ፈ ተ</w>
ጅ ል</w>
ወአ ክ
ወት ት
ወ ቤ
ኢ ፋ
አተ ን
ን ዕ
ታ ብ
ብ ሩ</w>
ሶ ን</w>
ሰ ለ</w>
ሬ ከ</w>
ሩ መ</w>
ማ ተ</w>
ል ክ</w>
ለኢ ተአ
ለት ደ
ፖ ር
ፈ ዩ</w>
ጊ ስ</w>
ገ ረ</w>
ጀ ማ
ይ ብ</w>
የ ስ</w>
ወ ሲ
ወ ሔ
ከ ክ</w>
ኣ ብ</w>
አ ወ
ን ዱ
ቡ ይ</w>
በ ላ
ቅ ብ</w>
መ ኒ</w>
ልት ባ
ል ጠ
ል ጅ
ለት ሳ
ለ ፍ</w>
ለ ኮ
ህ ን</w>
ሀ ለ</w>
ጽ ሕ
ጥ ነ</w>
ገ ድ
ገ ሮ
ዓ ብ
ዐ የ
ወ በር
ወ ምን
ኪ ኒ</w>
ከ መ
ኣ ም</w>
ኔ ዕ</w>
ኒ ክ</w>
ቅ ነ</w>
ሰ ማ
ሪ ብ</w>
ም ስ</w>
ሐ ነ</w>
ልት ፋ
ላ ብ
ፍ ሬ
ፍ ለ</w>
ድ ን</w>
ይ ደ</w>
ዎ ሮ
ወእ ስ
ወ ቴ
ወ ሜ
ኩ ው</w>
ኣ ክ
አም ጽ
አ ቤ
ትፈ ን
ቦ ቱ</w>
በ ደ
በ በ</w>
ሾ ት</w>
ሻ ይ</w>
ርኤ </w>
ር ክ</w>
ልት ሀ
ለአ ጅ
ለሀ በ
ሆ ት</w>
ሁ ቱ</w>
ጪ </w>
ግ ረ</w>
ዳ ር</w>
ዩ ን</w>
የ ቼ</w>
ወአ ን
አ ፈ
ት ዛ
ት ስ</w>
ት ሪ
ታ ም</w>
ባ ሁ</w>
ቡ መ</w>
በ ዝ
ሰ ዋ
ም ም
መጽ አ
ሕ መ</w>
ሊ ስ</w>
ለመ ር
ለ ና
ጾ </w>
ጨ ቅ
ጣ ን</w>
ጎ ት</w>
ጋ ት</w>
ጀ ራ
ድ ስ</w>
ዐ ዩ</w>
ወለ ለአ
ኮ ኪ</w>
ካ የ
እ ሙ
ነ አተ
ተስ ፋ
ብ ረ</w>
በ እ</w>
ራ ን</w>
ረ ነ</w>
ረ ሐ</w>
ሓ ረ
ሀ ል</w>
ጁ </w>
ዕ ብ</w>
ዓ ቱ</w>
ዑ ስ
ክ ፋ
ት ወ
በ ዐል
ቃ ም</w>
ም ነ
መ ዐ</w>
ሐ ቱ</w>
ልት ዓ
ሉ ኒ</w>
ለ ገብ
ለ ዮም</w>
ሀ የ</w>
ጠ ፍ
ጠ ዐ
ድ ግ</w>
ዛ ይ</w>
ዕ ለ</w>
ዐ ሬ
ከ ል</w>
ከ ለአ
አ መር
ተአ ስ
ተ ዩ</w>
ሽ ር</w>
ስት ህ
ሴ ት</w>
ማ ጽ
ለተ ር
ፋ ር</w>
ግ ለ</w>
ጀ ር</w>
ዳ ድ</w>
ደ ረ</w>
ወጠ ን
ወ ሚ
ከ በ</w>
ከ ሸ
ኣ ቱ</w>
ኢ ለዐ
አር ኤ
ብ ሮ
ባ ተ</w>
በ ን
ቀ ብ</w>
ም ዴ
ሐድ ገ
ለት ለ</w>
ለሐ ር
ለልት ሐ
ለ ደረ
ለ ወ</w>
ጠ ው</w>
ጅ ር</w>
ዐ ዋ
ወአ ል
ወ ኬ
ክ ን
ክ ተ
ከ ሕ
አ ኮ</w>
ነ ቶም</w>
ቴ ኒ</w>
ታ ትመ</w>
ተ ኽ
ቡ ር</w>
በ ቶም</w>
መ ድረ
ሐ ይ
ለት ነ</w>
ጠ ረ</w>
ጋ ም</w>
ገ ል</w>
ደ ባ
ዕ ብ
ወእ ም
ወመ ር
ኦ ር
ኢ ነአ
ኢ ሳ
በ ዳ
በ ሮ
ቀ ጥ
ቀ ዩ</w>
ሰ ዩ</w>
ረ ድ</w>
መ ዛ
ሐ ቅ
ል ተ</w>
ፕ ሪ
ጼ ሕ</w>
ግ ስ</w>
ገ ሌ
ይ ለ</w>
ዘ ም
ወአ ድ
ወመ ን
ክ ሊ
ኢ ተሀ
አት ዋ
አ ሚ
ን ን
ቲ ክ</w>
ባ ጥ</w>
ቀ ዋ
ስ ብ</w>
ሕ ሩ
ሐ ሸ
ህ ን
ዴ ኒ</w>
ዮ ተ</w>
ዝ ን</w>
ዕ ድ</w>
ወ ጭ
ወ ሱ
ከ ሊ
እ ደ
እ ው
ኢ ሊ
አን ገ
ን ያ</w>
ን ቃ
ቹ </w>
ት ህ
ሻ ፍ
መ ፈ
ሎ ጂ</w>
ል መ
ሄ ር
ፍ ከ</w>
ግ ሪ
ጀ ዋ
ዕ ያ
ዕ የት</w>
ዋ ተ</w>
ወ ዔ
እን ግ
እ ዴ
ት ጨ
ብ ሉ
በ ጸ
ር ሕ</w>
ሩ ኒ</w>
ማ ይት</w>
መ ደር
ሓ ቱ</w>
ሐ ዘ
ልት ደ
ለአ ከ
ለ ወዴ
ፈ ረ</w>
ድ ዩ</w>
ዪ ት</w>
ዐ ንደ
ዐ ስ
ኩ ኒ</w>
እን ደ
እ ዳ
ኢ ት</w>
ና ከ</w>
ት እ
ት ታ
ቀ ላ
ሽ ሽ</w>
ስ ነ
ሰ ባ
ል ኮ</w>
ል ሀ
ላ ከ
ላ ን</w>
ለ ጭ
ለ ሔ
ህ ም</w>
ፈ ሀ
ጠ ቢ
ዲ ር</w>
ዐ ዲ
ው ቱ</w>
እ ኩ
ን ሳ
ታ ን</w>
ተ ዋ
ቅ ድ
ስ ብ
ራ ብ
ረክ በ
ረ በ</w>
መት ባ
መ ሪ
ሐ መ
ልት ጋ
ሉ ል</w>
ለት ገ
ለቀ ር
ሃ ድ
ሃ ቱ</w>
ፈር ሀ
ጼ </w>
ጻ በ
ያ ሙ</w>
ዝ ነ</w>
ዕ ም</w>
ዐ ኒ</w>
ወ ሪ
ክ ረ</w>
ኣ ው
አፍ ሪ
አት ዳ
አብ ረ
ነ ር</w>
ተአ ብ
ተ ፈ
ተ ለ</w>
በ ሮ</w>
ስ ቴ
ረ ኒ</w>
መት ለ</w>
ሐ ሪ
ሎ ቱ</w>
ል ገ
ለኢ ል
ሃ ብ
ፍ ት
ፌ ት</w>
ደ ነ</w>
ያ ቶም</w>
ዝ የ</w>
ወለ ድ
ወ ጎ
ወ ኩ
ወ ነ</w>
ኣ መረ
ኢል ሕ
አስ ተ
አም ር</w>
አ ጣ
ኔ ሕ</w>
ተአ ም
ቪ </w>
ቡ ኒ</w>
በረ ው</w>
ቅ ን
ቀ ዳ
ሻ ት</w>
ሪ ክ
ረ ቅ</w>
ሐ የ</w>
ል ኪ</w>
ሃ መ</w>
ደ ንግ
ደ ቶም</w>
የ ተን</w>
ዞ ም</w>
ዕ ድ
ክ ሎ
ካ ም</w>
እ ህ
ኢ ሸ
አ ዜ
ን ቲ
ታ ትነ</w>
ተ ቱ</w>
ቃ ል</w>
ሽ ቅ
ሽ መ</w>
ስ ዒ
ሲ ስ</w>
ረ ፍ</w>
ሕ ማ
ሓ ፍ
ሐ ዋ
ል ያይ</w>
ለአት ቃ
ለአ ተን
ለ ለት</w>
ግ መ</w>
ጅ ር
ደ ይ</w>
ዓ ይት</w>
ዐ ሸ
ዐ ል</w>
ዐ ለ</w>
ወ ተ</w>
ኢት ሰ
አት ጋ
አት ዐ
ና ቀ
ነ ደ
ነ ዛ
ትበ ገ
ተ መ</w>
ብ ሕ
ብ ሎ</w>
ሸ ው
ስ ኮ
ሪ ስ</w>
ሩ ር</w>
ሜ ነ</w>
መት ዐ
መ አ
መ ቀ
ለ ጨ
ለ ክ</w>
ፊ ት</w>
ፈ ነ</w>
ጸበ ጥ
ጠ ጥ</w>
ድ ዮ
ዩ ተ</w>
ዕ ዳ
ወአ ቅ
ወመ ሳ
ወ ዶ
ወ ድ</w>
ወ ኖ
ኪ ተ</w>
ኩ ነ</w>
ኢ ቲ
አብ ር
ታ ር</w>
ተር ጅ
በ ሽ
ቅ መ</w>
ሾ ም</w>
ሸ ሪ
ሳ መ</w>
ሰ ኒ</w>
ር ፍ</w>
ሬ ቱ</w>
ራ ቀ
ሩ ነ</w>
ረ ክ</w>
ም ያ
ሐ ነ
ልት ቃ
ለ ሞ
ሇ </w>
ፈ ሀም
ጸ ዐ
የ አ
ዝ በ
ዝ መ</w>
ዘ ር</w>
ዐ ቶም</w>
ከ ሳ
እ ለ</w>
ተ ግ
ብ ሮ</w>
ብ ሉ</w>
ባ ጽ
ም ረት</w>
መ ክረ
መ ለ</w>
ሐ ተ</w>
ል ዳ
ለት ጀ
ፈ ከ</w>
ገ ን</w>
ገ ለ
ድ ን
ድ ሮ
ደ ዉ</w>
የ ሕ</w>
ዕ ዉ</w>
ዐ ራ
ወ ለ</w>
ክ በ
ከ የ
እ ሸ
አፍ ረ
አ ሪ
ኑ ን</w>
ነ ጽ
ቤ ከ</w>
ሻ ይ
ር ስ
ሩ ይ</w>
ም ድ</w>
መት መ</w>
ሐ ው
ላ ህ</w>
ለነ ስ
ለ ደር
ለ ቅ</w>
ፍ ል</w>
ፋ ዕ</w>
ገ ቢ
ያ ተን</w>
ያ ል</w>
ዝ ብ
ወ ዱ
ወ ኪ
ካ ይት</w>
ካ ል</w>
እ ሳ
እ ል
ኢ ለሀ
አብ ጸሐ
ን ሽ
ት ፈረ
ት ለ
ብ ኮ</w>
ብ ተ</w>
ብ ሬ
ቃ ይ
ሽ ም</w>
ሰ ሰ</w>
ር ቅ</w>
ራ ብ</w>
ማ ሕ
መ ጻ
ሐ ሊ
ሎ መ</w>
ልት ዋ
ልት ራ
ል የ
ለአ በ
ለል ዐ
ለል አተ
ደ ነ
ያ ም
ዘ የ</w>
ዓ ረ
ዐብ ደል
ወተ ዐ
ወ ሌ
አ ጠ
አ ን</w>
ን ዋ
ት ፈር
ተበ ሰም
ቤ ል
ቅ ቅ</w>
ቃ ል
ቀ ን</w>
ቀ ተ</w>
ስ ጋ
ስ ሜ
ሳ ው
ሰ ከ</w>
ር ያ</w>
ም ቦ
መ ሃ
ሊ ል</w>
ለ ጃ
ለ ላ
ጸ ግ
ጥ ል</w>
ግ ሬ
ዶ ል</w>
ድ ዮ</w>
ደ ከ</w>
ዜ ዕ</w>
ዘ ከ
ወ ሬ
ክ ሰ
ከ ከ</w>
እ ከ</w>
እ ተ</w>
አ መረ
ኖ ስ</w>
ቢ ን
ቀ ብል</w>
ሳ ስ</w>
ረ ይ</w>
ም ዕ</w>
መጽ እ</w>
መ ዲ
መ የ
ሕ ከ</w>
ሐ ላ
ለአ ፈ
ለ ወድ
ለ እስ
ፈ ዳ
ጸ ር
ግ ዕ
ደ ዮም</w>
ደ ማ
ዝ ዩ</w>
ዝ ሕ
ዑስ ማን
ክ ዎም</w>
ክ ረት</w>
ከ በት</w>
እ ሲ
ኣ ቴ
አን ቀ
አ ቶ
ና ነ</w>
ና ስ</w>
ተ ይ</w>
ተ ብ</w>
ብ ዳ
ባ ን</w>
በ ዲ
ሰ ፈ
ሰ ሜ
መት ነ</w>
ሕ ሽ
ሔ ር
ሐ ከ</w>
ሊ ቱ</w>
ለአት ፋ
ለአ ጽ
ለሐ ል
ለ በር
ህ ረ
ሀ ሌ
ፖ </w>
ፊ ን</w>
ጥ ን</w>
ጀ ላ
ዘ ራ
ዖ ቱ</w>
ዓ ል
ው ራ
ዋ ድ
ከ ና
እ ታ
ን ህ
ኔ ነ</w>
ት ወለ
ቱ ተ</w>
ተ ራት</w>
ቅ ባ
ሸ ዕ
ስ ና
ሰ ረ</w>
ሩ ቱ</w>
ሒ ን</w>
ሐ ሬ
ል ካ</w>
ለት ከ</w>
ለ ሕ</w>
ሀ ዩ</w>
ፍ የት</w>
ፋ ም</w>
ጺ </w>
ጸ በረ
ጦ ት</w>
ጥ ር
ጣ ይ</w>
ገ ለ</w>
ደ ረት</w>
ይ ከ</w>
ይ አት
ያ ር</w>
ወለ ሕ
ካ ር</w>
ኩ ዎም</w>
ከረ ው</w>
እጅ ትማ
እ ከ
እ ሊ
አት ሀ
አ ጭ
አ ዛ
ን ዛ
ነ አስ
ትረ ሰ
ት ክ</w>
ቱ ም</w>
ተአ ተ
ተላ ሌ
ተ ክ</w>
ብ ዕ</w>
ቅ ቱ</w>
ስ ዬ</w>
ም ኩም</w>
ሙ ስተ
መስ ል</w>
መ ተል
ሖ ቱ</w>
ሒ ት</w>
ለ ኬ
ፋ ት
ጸ በር
ጮ </w>
ጠ ጠ</w>
ገ ነ
ደ ንገ
ዝ ር</w>
ዋ ል</w>
ዉ ር</w>
እን ዴ
ን ቲ</w>
ን ሁ</w>
ቼ መ</w>
ተ የ
ቢ ን</w>
ሸ ው</w>
ሸ ባ
ሰ ፋ
ሰ ክ
ሮ ታት</w>
ራ ስ</w>
ረ ፍዐ
ሙ ነ</w>
መ ጨ
ል ዝ
ሉ ነ</w>
ለ ፈ</w>
ለ ጌ
ለ በል
ህ ጅ
ፎ ን</w>
ፍ ሪ
ፌ ሕ</w>
ግ ሩ
ገብ አ
ገ ላ
ደ ወ</w>
ዕ ስ
ዕ ል
ዐብ ዱ
ወአ ሽ
ወ ሮ
ኮ ም
ክ ፈ
ከል አ
እ ሱ
ኢት ፈ
አ ቴ
ት ጅ
ታ ል</w>
ተ ሌ
ቢ ብ</w>
ቀ ባ
ሳ ደ
ሰ ቶም</w>
ለከ ል
ለት ፋ
ለት መ</w>
ለት መ
ለ ጣ
ህ ቱ</w>
ሀ ቱ</w>
ፋ ቱ</w>
ጨ ፍ
ዳ ል</w>
ዱ ድ</w>
ዞ ት</w>
ዐ ኮ</w>
ው የት</w>
ዋ ቱ</w>
ወ ጌ
ኻ </w>
ኮ መ</w>
ከ ክ
እ ሕ
አን ደ
ና ኒ</w>
ነ ይ</w>
ነ ኒ</w>
ቺ </w>
ት ጥ
ቴ ክ
ተ ና
ተ ባ
ቨ </w>
ቢ ር</w>
ቡ ር
በ ሪ
በ ለት</w>
ቅ ድረ
ቀ ደም
ሸ ል
ስ ም</w>
ስ መ
ሳ ስ
ራ ይት</w>
ሩ ብ</w>
ሦ </w>
ም የት</w>
ም ው
ማ ሁ</w>
መን ገ
ላ ስ</w>
ፍ መ</w>
ጥ ለ</w>
ጣ ር</w>
ገ ደ
ጀ ግ
ድ ረ</w>
ዳ መ</w>
ደ መ
ዬ ተ</w>
ያ ታት</w>
የ መ</w>
ዚ ር</w>
ዘ ቱ</w>
ዐ ዝ
ዐ ም
ዋል ዴ
ወመ ና
ወ ፊ
ወ ዴ</w>
ወ ኒ
ኳ </w>
ኮ ኒ</w>
ካ ም
ኪ መ</w>
እስ ትራ
አ ያ
አ ል</w>
ን ዲ</w>
ነ ከ</w>
ነ ሓ
ነ ሀ
ቦ ታት</w>
ብ ስ</w>
ቤ ቱ</w>
በ ዮም</w>
ቅ ከ</w>
ቄ ዕ</w>
ሻ ፈ
ስ ዕ
ሰ በት</w>
ሰ ስ
ሰ ሕ
ር ኪ</w>
ር አ
ራ ሕ</w>
ሪ ም</w>
ረ ሸ
ረ ም</w>
ም ፍ
ም ቅ
ሙ መ</w>
መ ጭ
መ ደ</w>
ሊ ኒ</w>
ለከ ር
ለት ባ
ለቀ </w>
ለሐ ም
ለ ሱ
ገ ዝ
ገ ሪ
ደ ሀ
ዜ ሕ</w>
ኪ ር</w>
ከበ ተ
ኣ ማ
አት ፈ
አ ዋ
አ ኒ</w>
አ ሜ
ንደ ር</w>
ናድ ል</w>
ትት ዐ
ትበ ሀ
ት ልህ
ቴ ከ</w>
ታ ይት</w>
ታ ክ
ብ ጽ
ቡ ነ</w>
ቡ ል</w>
በ ግ
ቀ ለ</w>
ሽ ነ</w>
ሸ ከ
ሳ ጅ
ም ት
ሐ ያ
ሐ ማ
ሎ ጂ
ል ቃ
ላ ክ</w>
ለመ ት</w>
ለ ጎ
ለ ድ</w>
ለ ዔ
ለ ህ</w>
ፍ ዓ
ፈ ስ
ጸ ል
ገ ዕ</w>
ገ ብ</w>
ድ ረት</w>
ዳ ሌ</w>
ደ ግ</w>
ይ ሕ</w>
ይ ል</w>
ዔ ኒ</w>
ዓ ዳ
ወ ረት</w>
ክ ቱ</w>
ክ ሩ</w>
እስ ታ
እም በ
እ ል</w>
ኤ ል
ኣ ድም</w>
ኢት በ
አብ ዕ
ን ኮ</w>
ን እ
ና ት
ቴ ዕ</w>
ተ ረ</w>
ቢ ል</w>
በ ትነ</w>
ቀ ና
ሸ ረ</w>
ስ የ</w>
ሳ ብ
ሰ አል
ር ት
ረ ትለ</w>
ሜ ኒ</w>
ሚካ ኤል</w>
ሙ ጅ
ሙ ም</w>
ሐ ደግ
ል ያ</w>
ል ካ
ላ ታት</w>
ላ ለ</w>
ሊ ነ</w>
ለጸ ንሐ
ለአት ና
ለለ ው</w>
ለ ዕ</w>
ህ ነ</w>
ሃ ር
ፈ ታ
ጥ ብ
ገ ንሐ
ጂ ን</w>
ዲ ነ</w>
ዛ ም</w>
ዋ ራ
ወለ መ
ክ ት
ክ ሬ
ካ ራ
ኩ ር
ከ ዋ
ኢት ቀ
አሰ አል
ኖ ስ
ባ ታት</w>
ቡ ከ</w>
በር ነ</w>
በሀ ል</w>
ረ ው
ረ እ</w>
ሞ ታት</w>
ም ኮ</w>
ም ሩ</w>
ሙ ድ</w>
መት ከ</w>
መቃ ር
ሕ ተ</w>
ሐ ዳ
ሐ ቀ
ሎ ታት</w>
ል ጀ
ሉ ከ</w>
ለህ ሌ
ሄ ራ
ፋ ል</w>
ፈ ል</w>
ጫ </w>
ግ ነ</w>
ዶ ር</w>
ዱ ር</w>
ዓ ደ
ዐ በ
ዌ ር
ዋ ቅ
ወተ ር
ወ ሶ
ወ ሩ
ክ ድ
እ ዉ</w>
ን ዲ
ኒ መ</w>
ነ አን
ነ አም
ቸ </w>
ት ቀር
በ ስ
ሸ ን</w>
ሰ ደ
ሰ ሌ
ሬ መ</w>
ረ ዋ
ረ አስ
ረ ትነ</w>
ም ደር
ማ ው
ሕ ት</w>
ሕ ላ
ሔ ነ</w>
ሐ ሽ
ል ዩ</w>
ለመ ጸ
ለ ወደ
ህ ረ</w>
ፕ ላ
ፍ ፍ</w>
ፌ ር
ጠ ቱ</w>
ጠ ባ
ጌ ዕ</w>
ጅ ን</w>
ጀ ል</w>
ዳ ይት</w>
ደን ጎ
ደ ያ
የ ር
የ መ
ዓ ቅ
ወመ ዓ
ወለ ሰ
ወ ደረ
ወ ዛ
ክ ወን</w>
ክ ቱ
ኢ ጸ
ን ዮ
ን ያይ</w>
ት ብ</w>
ት በር
ተ ነ
ተ መዕ
ብር ሃን</w>
ብር ሃ
ብ ኩም</w>
ቁ ር
ሰ ኔ
ሪ ከ</w>
ሪ ነ</w>
ም ባ
መት ሓ
መር ከ
ሕ ስ
ሕ ል
ሐ ቆ
ሐ ሰብ
ልት ና
ለዐ </w>
ለነ አ
ለ ቼ</w>
ህ ብ
ሃ ል</w>
ፍ ን</w>
ጠ ረት</w>
ጉ ር</w>
ጀ ነ
ድ ሩ
ዮ ም
ይ ት
ው ል
ክ ሳ
ኬ ነ</w>
ከ እን
ከ ለ</w>
እ ዲ
ኤ ኒ</w>
ኢ ስ
ን ክ</w>
ት ሀ
ቴ ቱ</w>
ተ ም</w>
ቨ ር</w>
ቤ ለ</w>
ሸ ቃ
ሸ ሽ</w>
ሮ መ</w>
ራ ሁ</w>
ረ ግ</w>
ማ ቶም</w>
ሙ ሩ</w>
ሕ ው
ሕ ቡ
ሐ የ
ሐ ና
ለአ ቀ
ለት ዘ
ለተ ሓ
ለም ስ
ለ ቆ
ለ ር</w>
ሃ ተ</w>
ፌ ከ</w>
ፌ ነ</w>
ጸ ብ</w>
ጠ ነ</w>
ገ ስ</w>
ድ ቅ</w>
ደር ስ</w>
ዝ ማ
ዐ ግ
ወእ ስት
ወለ ኢልት
ኬ ት
እ ጽ
ኢት ሐ
ኢ እን
ኢ ሀ
አክ ረ
ን ኪ</w>
ና ዬ</w>
ቻ </w>
ትሰ አል
ት ናመ</w>
ት ተ
ቱ ይ</w>
በ ዉ</w>
ቂ ት</w>
ሽ ም
ሻ ም
ሪ ስ
ረ ሽ
ምስ ል
ማ ዕ
ሚ ን
መ ዉ</w>
ልት መ
ላ ሙ</w>
ለአ ደ
ሃ ግ
ሀይ በ
ጋ ን</w>
ገ ልበ
ጀ ብ
ደ ኒ</w>
ይ ሕ
የ ረ</w>
ዕ ተ</w>
ዐ ፍ
ዐ ዘ
ወ ጨ
ወ ው</w>
ወ ቆ
ክ ቡ
ክ ሩ
ካር ም</w>
ካ ብ</w>
ከ ረት</w>
ኦ ሮ
እን ሸ
እ መ
ኢ ጣ
አት መም
አ እ
አ በል
አ ሻ
አ ለብ
ነስ አ
ነ ገ
ነ ብ</w>
ትት ፋ
ት ጽ
ቱ ት</w>
ብ ሎ
በር ግ</w>
በ ሐ
ሹ ም</w>
ሸ ዐ
ሶ ቱ</w>
ሰፍ ሐ
ሰ ሰ
ሮ ን</w>
መ ሰል
ሕ ድ
ሕ ዳ
ል ጣ
ል ና</w>
ላ ክ
ሉ ይ</w>
ለከ ፍ
ለአት ሓ
ለአተ ላ
ለት ዋ
ለ ኤ
ለ ቡ</w>
ህ ለ
ሄ ር</w>
ሀ ደ</w>
ሀ ነ</w>
ፈ ሀመ
ጭ ር</w>
ጣ ም</w>
ጢ ር</w>
ጠ ጠ
ጠ በ
ዲ ቱ</w>
ው ከ</w>
ዉ ቱ</w>
ወመ ቅ
ወለ ሀ
ክ እ
ካ ክ</w>
ካ ኒ</w>
ከ መ</w>
አር ወሐ
ነ ጸ
ነ ር
ትነ ፈ
ታ ዩ</w>
ቦ ተ</w>
ብ ድ
በ ትከ</w>
ሽ ከ</w>
ሻ ብ</w>
ስ ኪ</w>
ስ ቱ
ሴ ኒ</w>
ሴ ነ</w>
ሴ ር
ሲ ቲ</w>
ሮ ስ</w>
ራ ዕ
ረ ደ</w>
ረ እ
ማ ዕ</w>
ማ ሙ</w>
መት ፋ
መ ኣ
ልት ካ
ል ዮ
ል በ</w>
ሊ ክ</w>
ለአ ዝ
ለመ ን
ፈን ተ
ፈ ኒ</w>
ፈ ላ
ድ ፍ
ዴ ኮ</w>
ደ ሚ
የ ነ</w>
ዝ ጊ</w>
ዒ ን</w>
ውዕ ል</w>
ው ረ</w>
ወተ አት
ከ ጅ
ከ አስ
እንግ ሊ
እም በል
እ ገ
ኢ በል
ኢ መ
አት ማ
አስ መረ
አሰ ይደ</w>
አ ለ</w>
ኔ ቱ</w>
ና ታት</w>
ና ህ</w>
ነ አብ
ነ ሸ
ነ ሕ
ታ ትለ</w>
ተ ህ
በ ቅ
ቃ ወ
ቃ ቱ</w>
ቀ ድ</w>
ሽ ት</w>
ስ ክ</w>
ስ ን
ሲ ር</w>
ራ ድ</w>
ሞ ቱ</w>
ም ድር
መቅ ር
መ አሰ
መ ረት</w>
ሐ ዲ
ሎ ም
ል ጃ
ል ኩም</w>
ላ ዩ</w>
ሉ ብ</w>
ለእ ም
ለኢ ለሐ
ለት ትከ
ለ ቡ
ሃ ም
ሂ ም</w>
ፈር ህ</w>
ፈ ይ
ጬ </w>
ጥ ሮ</w>
ጌ ት</w>
ገ ረት</w>
ገ መ</w>
ገ ሀ
ደ ሐ
ዐ ትለ</w>
ወት ሳ
ወም ህ
ወለ ት</w>
ወለ ተአ
ከ ኣ
ኤ ነ</w>
ኢ ጠ
ኡ ነ</w>
አ ቦ
ኝ </w>
ን ኩም</w>
ና ዘ
ና ል</w>
ነ ይ
ነ ዕ</w>
ት የ</w>
ት ክም</w>
ተአ ሰ
ብ ህ</w>
ቀ ድረ
ስ ቲ</w>
ስ ተር
ሰ ዴ
ር ያት</w>
ራ ግ
ራ ም
ራ ል</w>
ረ ዉ</w>
ሜ ት</w>
መን ጠ
መ ወ</w>
ሓ ድ
ልት ሻ
ልት ሃ
ል ዋ
ል ተላሌ
ላ ድ
ላ ቶም</w>
ለመ ሳ
ለ ኩም</w>
ለ ኩ
ለ በት</w>
ለ ላ</w>
ለ ለተ
ፌ ኒ</w>
ፈ ጅ
ጥ ት</w>
ጥ ረት</w>
ዳ ዩ</w>
ዲ ድ</w>
ዮ ታት</w>
ያ ድ</w>
ዝ ዮ
ዕ ጨ
ዔ ነ</w>
ወ ቄ
እን ድ
አ ዚ
ንቅ ጠ
ን ፋ
ን የ
ነ ሰአ
ትት ዓ
ትረ ስ
ት ዓ
ት ሬ
ታ ከ
ተሀ ይ
ቫ ይ
ብ ጥ</w>
ብ የት</w>
ቡ ስ</w>
በ ይ</w>
በ ራ</w>
ቀ ቅ</w>
ስ ፍ
ስ ሌ
ሳ ተ</w>
ሱ ር</w>
ሰ ይ</w>
ሰ ኒ
ሰ በ</w>
ሬ ን</w>
ራ ታት</w>
ሩ ድ</w>
ም ና
ም ረ</w>
ም ሙ</w>
ሕ ን</w>
ሐ ዜ</w>
ሌ ኮ</w>
ሊ ብ</w>
ለአ ጥ
ለ ፈረ
ለ ሉ</w>
ፍ ዬ</w>
ፍ ተ
ደ ቅ</w>
ደ መ</w>
ዐ መ
ዋል ዳይ
ወሰ ር
ወለ በ
ወ ያ
ክ ሮ</w>
ኤረትር የ
ኢት ትከ
ኒ ኒ</w>
ትከ በተ
ትሰ አ
ት ጻ
ት ኮ</w>
ተአ ው
ብ ጣ
ብ ያ
ባ ድ
በ ሐር
በ ሊ
ቅ ፍ</w>
ቅ ዱ
ቁ ል</w>
ሸ ል</w>
ስ ድ
ስ ና</w>
ር ጋ
ር ኢ
ሪ ታት</w>
ሩ ከ</w>
ም የ</w>
ሚ ና
መን ፈ
መት ጃ
መት በ
መ እ
ሕ ል</w>
ሐ ቴ
ሐ ባ
ሐ ል</w>
ልት ላ
ሌ ተ</w>
ሊ ም
ለከ ስ
ለአ ድረ
ለአ ተር
ለት ትሐ
ለት በሀ
ለተ ሀ
ለ ፊ
ለ ዛ
ሃ ንስ</w>
ሀ ይ</w>
ሀ ና
ፆ </w>
ፁ </w>
ጽ ፍ</w>
ጢ ት</w>
ግ ሮ</w>
ጌ ነ</w>
ጉ ል</w>
ገ ዐ
ጅ ብ</w>
ዶ ቱ</w>
ደ ፍ</w>
ደ እ</w>
ዘ ን
ዕ ር</w>
ዔ ት</w>
ዑ ኒ</w>
ው ሩ</w>
ወመ ራ
ወመ ሓ
ወ ግር
ወ ክል
ክ ሱ
ክ ህ
እት ፋ
ኣም ር</w>
ኢት ዐ
አት ካ
አት ኣ
አስ ተብ
አር እ
አ ጫ
አ ቃ
ኖ ታት</w>
ን ቴ
ነ ጋ
ነ ሃ
ት ማ</w>
ታ ተን</w>
ቲ ቱ</w>
ተአ ክ
ተ ጠ
ብ እ</w>
ባ ክ
ቢ ቱ</w>
በር ከ</w>
በ ዐ</w>
ቅራ ጥ
ቀ ፍ</w>
ሸ ቄ</w>
ሸ ሸ</w>
ስታ ን</w>
ሰ መዐ
ሮ ተ</w>
ሩ ም</w>
ረ ሰ</w>
ምስ ል</w>
መ ተን</w>
ሕ ዱ
ሓ ሁ</w>
ልት ጀ
ል ያት</w>
ሌ መ</w>
ለአ ል
ለት ቃ
ለመ ድ
ለለ ኣ
ለ ሬ
ለ ሄ
ሀ ተ</w>
ሀ መ</w>
ፊ ር</w>
ጭ በ
ግ ያ
ጊ ስ
ገ ግ</w>
ገ ዝ</w>
ዳ ን
ደ ገ</w>
ደ ትለ</w>
ይ ዐ
ዜ ከ</w>
ዜ ኒ</w>
ዘ ዩ</w>
ዐ ዶ
ዐ ማር
ዐ ሚ
ወል ድ</w>
ወለ ሓ
ወ ገር
ወ ቶ
ወ ሹ
ወ ሑ
ኬ ከ</w>
ካ ን
ኩ ይ</w>
ከ ፋ
እ ጃ
እ ሊ</w>
አስ ተሽ
አ ዶ
ኒ ነ</w>
ነ ዉ</w>
ነ ትለ</w>
ነ ሕ</w>
ቼ ተ</w>
ትት ቀ
ትት ሓ
ት ጣ
ቴ ል
ተ ድ
ተ ወ
ብ ጠ
ባ በ</w>
በጽ ሕ</w>
በረ የ</w>
በ ሩ</w>
ቅ ስ</w>
ሸ ግ
ሸ ቱ</w>
ስ ረ
ሴ ሕ</w>
ሳ ክ
ሳ ል</w>
ሰ ም</w>
ርእ ዩ</w>
ር ብ
ር በ</w>
ራ ፍ</w>
ሪ ቅ</w>
ረክ ብ</w>
ረ ቅ
ሞ ን</w>
ማ ት
ሚ ቱ</w>
ሚ ር</w>
ሙ ስ
ሙ ር</w>
መ ጀ
መ ራ</w>
ሔ ኒ</w>
ሐ ሶ
ልት ዘ
ል መት</w>
ሌ ታት</w>
ሌ ብ</w>
ላ ኒ</w>
ሊ መ</w>
ለዐ ል
ለት ጋ
ለተ ን</w>
ለረ ከብ
ለመ ል
ለልት ሓ
ለሀ ብ
ለ ጻ
ለ ወር
ሄ ት</w>
ሃ ጌ</w>
ሁ ም</w>
ፍ ዝ</w>
ፍ ላ
ፋ ን</w>
ጥ መ</w>
ጡ ር</w>
ጅ ም
ጂ ኦ
ዱ ቅ</w>
ይ ዩ</w>
የ እ</w>
ዓ ሁ</w>
ዐጅ ብ</w>
ዐ ባ
ው ቶም</w>
ዋ ሰ
ወት ሰ
ወ ቦ
ኣ ካ
አት ላ
አም ጸአ
አ ሬ
አ ማን
ነ ወ</w>
ነ አፍ
ቶ ም
ትረ ሰዐ
ት ደረ
ተ ዘ
በል ዐ
በ ትለ</w>
ቀደ ም</w>
ሽ ለ</w>
ሸ ፈ
ሴ ን</w>
ሱ ነ</w>
ር ግ</w>
ራይ ም</w>
ራ ድ
ራ ት
ሪ መ</w>
ረ ዕ</w>
ማ ስ</w>
ሙ ቱ</w>
መን ደ
መ ተን
መ ማ
ሕ ኩ
ሐ ግ
ሐ ዩ</w>
ለ ለትሐ
ፖ ሊ
ፈ ፍ</w>
ፈ ግረ
ፈ ዝ</w>
ጽ ዕ
ጥ ከ</w>
ጥ ረ</w>
ግ ዋ
ግ ሩ</w>
ገብ እ
ገ ሌ</w>
ይ ተ</w>
ዝ ዮም</w>
ዐ ም</w>
ዉ ከ</w>
ወት ፈ
ወመ ዐ
ወ ዑ
ወ ከር
ወ ሼ
ኮ ተ</w>
እም ባ
እ ፈ
እ ወ</w>
ኢ ተሓ
አ በር
ን ዩ</w>
ን ው
ነ ዋ
ነ አድ
ነ ሻ
ቶ መ</w>
ት ግር
ተአ ፍ
ባ ሀ</w>
ቡ ተ</w>
ቅ ስ
ቀ ም</w>
ሽ ቱ</w>
ሻር ክ</w>
ሺ ን</w>
ሸ ዋ
ሸ ለ</w>
ሰ ተ
ርሐ ው</w>
ር ሳ
ር ም
ሩ ስ</w>
ረ ፈ</w>
ረ ኣ
ረ ን
ረ መ</w>
ም ጸ
መ መት</w>
ሓ ን</w>
ሓ መ</w>
ሐ መድ
ልት ዳ
ል ሻ
ላ ሀ</w>
ለት ትሰ
ለሐ ስ
ህ ድ
ህ መ</w>
ሀ ከ</w>
ፍ ረ</w>
ጽ ም
ጸ ሕ</w>
ጣ ቱ</w>
ግ ት</w>
ጋ ል</w>
ገ ና
ጀሪደ ት
ድ ፈ
ድ ዕ
ዳ እ</w>
ደር ሲ
ዮ ስ</w>
ያ ትነ</w>
ያ ሀን</w>
ዝ ት</w>
ዕ ቅ
ዐው ቴ
ዐ ረብ
ወእ ብ
ወመ ሻ
ክ ያ
ክ በ</w>
ከ ዘ
ከ ዕ
ከ ታ
ኣ ድ
ኢት ትሐ
ኢ ኮን</w>
ኢ ከር
ኡ ኒ</w>
አፍ ገር
አተ ቅ
አቅ በ
አሰ አ
ን ጥ
ን ዴ
ነ ወ
ነ አው
ትፈ ና
ት ያ
ቤ ት
ባ ቡ</w>
በ ጥ</w>
ቅ ሉ</w>
ቃ ኑ
ቀ ዲ
ቀ ደር
ሽ ህ
ሴ ከ</w>
ሰር ግ
ሰ ዓ
ር ኩም</w>
ራ ቶም</w>
ራ ሕ
ረ ተ
ረ በት</w>
ሙ ት</w>
ሙ ሲ
መት ቀ
መል ህያ
መ ወ
መ ቼ</w>
ሐ ጠ
ሐ ድ</w>
ሐ ቅ</w>
ሐ ሳ
ሐ ረ</w>
ል ዐ
ለዐ ው
ለአ ሳ
ለት ሀ
ለተ ሀየ
ለበ ዝ
ለ ገር
ለ ኪ</w>
ህ ህ
ፐ ር
ፎ ርድ</w>
ጼ ን</w>
ጸ ም
ጥ ም</w>
ጣ ን
ጢ ን</w>
ግ ም
ጅ ም</w>
ዳ ሁ</w>
ዲ ስ</w>
ደ ፋ
ዮ ቶም</w>
የ ሰ</w>
ዝ ር
ዜ ት</w>
ዛ ቤ</w>
ዚ ን</w>
ዕ ሉ
ዑ ነ</w>
ው ዛ
ው ሽ</w>
ወአ ስተ
ወ ፈረ
ወ ደር
ወ ክር
ኮ ሆም</w>
ካ ት
ካ ብ
ካ ሊ
ካ ሀን</w>
ኩ ር</w>
ከ ከ
እን ዴ</w>
እን ሳ
ኤ ም
ኤ ሌ
ኣ ፍ
ኢ መስ
አከ ይ
አት ካረ
አስ ማ
አር በ
አ ፋ
አ ዴ
አ ዱ
አ ዋል
ኖ ቱ</w>
ን ጽ
ነፈ ዕ</w>
ነ አሰ
ትት ፈ
ትር የ</w>
ት ጸበ
ት ዳገ
ት ወሰ
ቴ ሕ</w>
ታ የ</w>
ታ ታ</w>
ቱ ን</w>
ቱ ለ</w>
ተክ ሌ
ተቅ ሪ
ባ ዬ</w>
ቅ ጥ
ቃ ብ</w>
ቀ ቶም</w>
ሽ ፈ
ስ ሙ
ሲ ል</w>
ር ዕ
ረ ትመ</w>
ረ ቢ
ረ ሳ
ረ ረት</w>
ሚ ኒ
መ ዮም</w>
ል ፋ
ል ዘ
ል ክረ
ል ን</w>
ል ቅ</w>
ለአት ሐዝ
ለት ጠ
ለልት ነ
ለል አሰ
ለ ጠል
ለ ኸ
ለ ካል
ለ ሰ</w>
ሃ ድ</w>
ሃ ደ
ሃ ይ</w>
ሀይ ብ</w>
ፕ ሎ
ፉ ን</w>
ጽ ብ</w>
ጠ ን
ግ ስ
ድ ፍ</w>
ዐ ዴ</w>
ው ድ</w>
ው የ</w>
ወአ ሰ
ወመ ዕ
ወለ እ
ኮ ሎ
ክ ሽ
ኬ ኒ</w>
ካ ስ</w>
ኪ ነ</w>
ከረ የ</w>
ከ ፍ</w>
ከ ሚ
እ ዱ
ኣ ተ
ኣ ል</w>
ኣ ላ
አን ተብ
አት ዓ
አም ን</w>
አም በ
አ ፉ
አ ወል
አ ስ</w>
አ መስ
ንት ሓ
ን ጌ
ን ጃ
ትሰ ፍ
ት አ
ተም ም</w>
ተ ጀ
ቦ መ</w>
ብ ደ
ብ ዐት</w>
ብ ኪ</w>
ብ ረት</w>
ባ ዕ</w>
ቡ ን</w>
በርና ም
በር ኮ</w>
ቀድ ም</w>
ሸ ራ
ስ ዋ
ሳ ዐ
ሰአ ል</w>
ሰ ከ
ር ዝ
ር ና</w>
ር ህ
ረ ዮም</w>
ም ዑ</w>
ማ ሽ
መት ዳ
መት ዓ
መ ጦ
መ ይ</w>
ሕ ስ</w>
ሕ ር</w>
ሓ ተ</w>
ሐ ለ
ለዐ ቅ
ለኢ ሰ
ለአም ጸ
ለ ጥ</w>
ለ ክር
ጓ </w>
ግ ዝ
ግ ን</w>
ጋ ራ
ገ የ</w>
ገ ስ
ገ ሰ</w>
ገ ማ
ጅ ግራ
ጅ ትማ
ጀ ዛ
ዶ ል
ዱ ል</w>
ደ ትመ</w>
ደ ለት</w>
ዮ ምቱ</w>
ይ ሀ
ዩ ት</w>
ው ት</w>
ወት ረ
ወስ ያ
ወረ ው</w>
ወሕ ር
ወለ ደ
እስ ትዕ
ኣ ሰ
ኢት ስ
ኢ ዐ
ኢ ታ
ኢ ተር
ኢ ቀር
አድ ረ
አን ብ
ና ዩ</w>
ና ክ
ነ ህ
ተል ህ
ባ ዩ</w>
ባ ሙ</w>
ቡ እ</w>
ቀ ሸ
ሽ ዑ
ሸ ነ</w>
ስ ራ
ሳ ደፈ
ሲ ቱ</w>
ር ቡ</w>
ረይ ም</w>
ማ ሪ
መቅ ደረ
መረ ው</w>
ሕ ደ
ሓ ስ
ሒ ነ</w>
ለው ኒ</w>
ለአት ጋ
ለት ፈረ
ለመ ው</w>
ለ ያ</w>
ህ ዳ
ሃ ር</w>
ሂ ጋ
ሁ ር</w>
ሀ ንደ
ሀ ረ</w>
ፍህ ም</w>
ፍ ዐት</w>
ጫ ይ</w>
ጥ ሩ</w>
ጋ ሻ
ገብ አ</w>
ገ ይስ</w>
ጅ መ</w>
ጀ ለ</w>
ድ ኮ</w>
ዴ ን</w>
ይ አም
ይ ን
ያ ብ</w>
ዪ ም</w>
ዜ ነ</w>
ዐ ብ</w>
ዋ ፈ
ወአ ዳ
ወመ ባ
ወል ስ
ወ ብር
ወ ሮ</w>
ኮ ሆ</w>
ክ ፍ</w>
ካ ስ
ካ ሪ
እ ቱ
ኢት ሳ
ኢ ለኣ
አፍ ገረ
አተ ግ
አብ ጽ
አ ዉ</w>
አ ሮ
ኘ </w>
ና ቡ</w>
ኒ ታት</w>
ቼ ቱ</w>
ትከ ር
ትት ረ
ት የ
ተአ ከ
ብ ዐ</w>
ብ ሽ
ቡ ብ</w>
በለ የ</w>
በ ትመ</w>
ቃ ው
ቃ ን
ቀደ ሜ
ቀ በ</w>
ቀ ሪ
ሸ ዐብ
ስ የት</w>
ስ ክ
ሳ ሁ</w>
ሰም ዕ</w>
ሰ ዳ
ሰ ዉ</w>
ሰ ትነ</w>
ር ን</w>
ር በት</w>
ራ ስ
ረ ወ</w>
ም ከ
መት ነፍ
ሐል ፈ
ሐ ንፈ
ል ንስ
ለአ ነ
ለት ፈን
ለተ ም
ለበ ጽሐ
ለቀ ት</w>
ለ ግ</w>
ለ ቦ</w>
ለ ቦ
ለ ሪ
ህ ረት</w>
ህ ል
ሀለ ዮ
ፍ ዕ</w>
ፈር ሐ
ጾ ም</w>
ጠ ብ</w>
ገ ቱ</w>
ገ መ
ድ ዋ
ድ ሙ
ዴ መ</w>
ዳ ብ
ዱ ይ</w>
ዱ መ</w>
ደረ ው</w>
ደ ደት</w>
ያ ከ</w>
የ ሐ
ዝ ል</w>
ዘ ም</w>
ዖ ታት</w>
ዕ ወ</w>
ዔ ማት</w>
ዐ ንቀ
ው ረት</w>
ዋ ዲ
ወሳ ይ
ወለ መስ
ወ ጉ
ወ ኔ
ክ ዬ</w>
ክ ከ</w>
ኬት ባይ</w>
ኩ ም
ከ ሬ</w>
ከ ለሰ
እን ዳ
ኤ ት</w>
ኣ መ</w>
ኢል ብ
ኢ እ
አድ ሐ
አብ ጸ
አ ሴ
ን ያት</w>
ን እሽ
ኔ ል</w>
ና ግ
ና ኪ</w>
ና ለ</w>
ኑ መ</w>
ነ ከ
ነ ትመ</w>
ትከ ል
ትት ሀ
ትሰ ር
ትመ ጽ
ት ደር
ት ቡ</w>
ት በል
ት ሩ
ታ ትከ</w>
ተአ ቅ
ብር ቱ</w>
ብ ሮም</w>
ባ እ</w>
በረ ዩ</w>
በ ጣ
በ ዴ</w>
በ የ
በ ሸ
በ ሉ</w>
ቅ ም</w>
ረ አ</w>
ም ዐ</w>
ም እ
ም ና</w>
ማ ነ</w>
ማ ታት</w>
መት ሳ
መቅ ረ
መሻ ቀ
መሐ መድ</w>
መ ይት</w>
መ ሠ
ሕ ግ
ሕ ለ</w>
ልት ፈረ
ልት ጃ
ልት ሀየ
ል ጸ
ል ዕ</w>
ላ የ</w>
ለዐ ይ
ለሐ ይ
ለ ወጅ
ለ ሎ</w>
ህ ዩ
ፓ ራ
ፒ </w>
ፍ ሩ</w>
ፈ ግር</w>
ጽ ዮን</w>
ጸበ ጥ</w>
ጉ ስ</w>
ጀ ን</w>
ድ ተ</w>
ድ ብ</w>
ደ ዓ
ደ ሩ
ዝ ያ</w>
ዛ ቤ
ዛ ር</w>
ዕ ደ</w>
ዕ ዎ</w>
ዕ ኮ</w>
ዐ ዉ</w>
ዐ ቢ
ዎ ሮት</w>
ወለ ተሐ
ወ ጼ
ወ ነት</w>
ወ ሺ
ክ ሉ</w>
ኬ ም</w>
ካ ሜ
ከበ ው</w>
ከበ ት
ከ ጥ
ከ ይ</w>
ከ ሪ
እን ሰ
እ የት</w>
እ ዎ</w>
ኢት ገ
ኢት ክ
ኢት ቅ
ኢል ስ
ኢ አ
አፍ ር
አጀ ኒ
አት ጃ
አስ በ
አ ጨ
አ ዲ
አ ይ</w>
ን ጅ
ን ቶ</w>
ን ቁ
ን ሓ
ኔ ኒ</w>
ና ሃ</w>
ነ ፋ
ነ ብር</w>
ት ድ</w>
ት ዝ
ት ረ</w>
ት ሌ
ተአ ስተ
ተሐ ረ
ተላ ሌ</w>
ተ ሸ
ብ ና</w>
ቤ ል</w>
በ በ
ቅ የት</w>
ቀ ኒ</w>
ሻ ን</w>
ሻ ምፕ
ሺ ር</w>
ሸ የ</w>
ሸ ርሐ
ስላ ሴ</w>
ስ ወር
ስ ኡ
ስ ሰ</w>
ሱ ም</w>
ሱ መ</w>
ሬ ሽን</w>
ሩ ሕ</w>
ረሐ ው</w>
ረ ጅ
ረ ትከ</w>
ም ጥ
ም ሰል
ሜ ከ</w>
ማ ሀ</w>
መዕ ሉ
መት ከ
ሕ ራ
ሓ ሪ
ሎ ን</w>
ል ማ
ላ ትነ</w>
ላ ሊ
ለአት ባ
ለአ ገ
ለት ፈና
ለት ዳ
ለበ ው</w>
ለሰ ር
ለረ ኤ
ለልት ሰ
ለል ኮ</w>
ለ ዶ
ለ ሴ
ሆ መ</w>
ህ ም
ሂ ት</w>
ሂ ል</w>
ሀ ው
ፎ ቱ</w>
ፈ ጥ
ፈ ክር</w>
ፃ </w>
ጸ በ</w>
ጭ ን
ጪ ት</w>
ጠ ል</w>
ግ ከ</w>
ግ ሙ</w>
ጅ ማ
ዴ ዕ</w>
ዳ ብ</w>
ዲ ሞ
ዱ ነ</w>
ደረ ቱ</w>
ደ ብ</w>
ደ ሩ</w>
ይ ህ
የት ተ</w>
የ ተ
ዝ ዮ</w>
ዛ የ
ዘ ነ
ዓ ድ
ዓ መ</w>
ዑ ል</w>
ወአ ዝ
ወመ ዳ
ወሐ ም
ወለ ው
ወ ሮት</w>
ክ ቡ</w>
ኬ ቱ</w>
ከም ከ
ከ ትሰ
እ ያ
እ ሻ
እ ለ
ኢት ትረ
ኢልት ሐ
አክ ድ</w>
አክ ላ
አስ መዐ
አም ረ
አመ ር</w>
አ ኬ
ንት ን</w>
ን ደ</w>
ኔ ከ</w>
ና ኩም</w>
ነቅ ስ</w>
ነ ቼ</w>
ነ ሳ
ትካ መ</w>
ትሳ ድ
ት ወረ
ት መር
ቴ ር</w>
ቴ ር
ቱ ብ</w>
ተአ ን
ተር ፍ</w>
ተ ኣም
ተ ና</w>
ቨ ን</w>
ብ ዑ</w>
ብ ስ
ብ ራ</w>
ባ ነ</w>
በር ከ
በ ዘ
ቅ የ</w>
ቀ ደ</w>
ቀ ቀ</w>
ቀ ረ</w>
ሽ የ</w>
ሸ ከ</w>
ሸ ተ</w>
ሸ ቀ
ስ ዑ
ራ ፍ
ራ ቅ</w>
ረ ዘ
ረ ቼ</w>
ረ ታ</w>
ሠ ት</w>
ሙ ን</w>
መጸ አ
መት ፈ
መት ሻ
መት ረ
መል ከ</w>
መ ቅ</w>
ሕ ያ
ሎ ተ</w>
ል ዮ</w>
ሌ ኪ</w>
ላ ድ</w>
ላ ንድ
ላ ሌ</w>
ላ ሉ</w>
ሊ ግ</w>
ለአ ፈር
ለአ መ
ለሰ ም
ለሐ ልፈ
ለ ፀ
ለ ርኤ
ለ ሑ
ህ መ
ሀን ጦ
ሀ ኒ</w>
ሀ ሌ</w>
ፍ ቅ</w>
ፋ ተ</w>
ፋ መ</w>
ፉ ነ</w>
ፈ ትሐ
ፈ ለ</w>
ጨ ር</w>
ጥ ጡ</w>
ጣ ል</w>
ጠ ዩ</w>
ጋ ታት</w>
ጋ ሪ
ጉ ር
ገ ጽ</w>
ጄ ዕ</w>
ጀ ብ</w>
ጀ መ
ድ ማ
ዴ ኩም</w>
ዴ ተ</w>
ዳ ተ</w>
ዲ መ</w>
ደ አ
ያ ን
የት ኩም</w>
ዓ ው
ዓ ተ</w>
ዐ ጃ
ዐ ትነ</w>
ዐ ለም
ው ሮ</w>
ወኢ ል
ወተ ስ
ወል ፍ
ወ ቱ</w>
ወ ማይ
ወ ሒ
ኹ </w>
ካር ቱ
ካር ቦ
ኩ ምተ</w>
ከብ ነ</w>
ከ ስ</w>
እ ዛ
ኤር ትር
ኢ ንስ
ኢ ረክ
አጽ በ
አት ገ
አ መን
ንግ ል</w>
ን ኡ
ን ቶም</w>
ና ዝ
ኑ ይ</w>
ነ አቅ
ነ ትነ</w>
ነ ስ</w>
ነ ሐር
ነ ሐ</w>
ኀ </w>
ትግ ራይ
ትመ ሳ
ት ወስ
ት ወር
ቴ መ</w>
ቴ ሌ
ታ ሪ
ተአ በ
ተሐ </w>
ተል ሄ</w>
ተ ጃ
ቦ ቶም</w>
ቤ ር
ቡ ሩ</w>
ቡ ሉ</w>
በ በት</w>
በ ቃ
ቋ </w>
ቅ ዕ</w>
ቅ ኮ</w>
ቄ ር
ቃ ት
ቀድ ር
ቀ ፍ
ቀ ዕ</w>
ቀ ነ</w>
ሸ ም</w>
ስ ኩም</w>
ሳ ን</w>
ሲ ነ</w>
ሲ ል
ሮ ቶም</w>
ርእ የ</w>
ሩ ፍ</w>
ረ ከት</w>
ሣ </w>
ሚ ኒ</w>
ሚ ስ</w>
ሙ ድ
ሙ ኒ</w>
ሙ ስ</w>
መን ቀ
መል ህ
መ ጎ
ሕ ብ</w>
ሔ ዋ
ሐ ለፍ
ልት ሰአ
ላ ፍ</w>
ላ ው
ላ ነ</w>
ለአም ጸአ
ለአ ጀ
ለአ </w>
ለት ትበ
ለት ሀየ
ለረ ክ
ለል ሓ
ለ ዮት</w>
ለ ባል
ለ ሊ
ለ ለሀይ
ሀ ደግ
ፎ ር</w>
ፍ ቱ
ፍ ተ</w>
ፋ ዝ
ፉ ር</w>
ፈር ግ</w>
ጽ ሕ</w>
ጸብ ጥ</w>
ጠ ተ</w>
ግራ ም</w>
ግ በ
ጆ ር
ጆ ም</w>
ጅ የት</w>
ጀ ነ</w>
ጀ መ</w>
ዳ ስ</w>
ዳ ሀ</w>
ደ ያ</w>
ዩ ብ</w>
የ ድ</w>
የ ዐ
ዝ ተ
ዘ ዕ</w>
ዘ ተ</w>
ዕ ደ
ዓ ል</w>
ዐ ሳ
ወአት ሓ
ወአ ጀ
ወሰ ላ
ወመ ጽ
ወመ ጅ
ወመ ሕ
ወል ሕ
ወለ ቀ
ወ ጂ
ወ ይእ
ወ ዚ
ወ ቡ
ወ ሄ
ክ ዋ
ካ ሮ
ኩ ት</w>
ከ ያ
ከ ቀ
ከ ሌ
እጅ ትመ
እን በ
እት ሐ
እ ዩ</w>
እ ባ
ኣ ዝ
ኢት ብ
ኢት ር
ኢል ክ
ኢ ከል
አት ጻ
አተ ር
አሰ አለ
አም ዕ
አም ሩ</w>
አል በ
አ ጻ
አ ጸ
አ ብ</w>
አ ሲ
ን ዮ</w>
ነ ዮም</w>
ነ ዐ</w>
ነ ክ</w>
ነ ተን</w>
ነ ባ
ነ ሁ</w>
ቶ ምቱ</w>
ትን ፋ
ት ወድ
ታ ሁ</w>
ብረ ከ</w>
ብ ክ</w>
ባ ረ</w>
ባ ም
በ ሃ
ሻ ሽ</w>
ሻ ል</w>
ሸ ንገ
ሸ ንከ
ሳ ርሐ
ሰ ሊ
ር ሒ
ሩ ን</w>
ረ ገ</w>
ሜ ዛ
ማ ህ
ሙ ሰ
መዐ ነ</w>
መት ደ
መት ነፈ
መ ታ</w>
መ መው</w>
ሑ ነ</w>
ሎ ስ</w>
ል ሕ</w>
ሌ ኩም</w>
ሌ ሌ</w>
ላ ዬ</w>
ሉ ት</w>
ሉ ቅ</w>
ለአም ጽ
ለአ ንበ
ለነ ድ
ለት ጃ
ለት ሻ
ለተ ኒ</w>
ለመጽ አ
ለ ዮ
ለ ዎ</w>
ለ ካ</w>
ለ ና</w>
ሂ ቱ</w>
ፓ </w>
ፍ ል
ፊ ልድ</w>
ፈን ቴ</w>
ፈ ዮም</w>
ፈ ዐ</w>
ፈ እ</w>
ፈ ቶም</w>
ፈ ቴ</w>
ጸ ፍ</w>
ጭ ሞ
ጥ ያ
ጥ ዕ
ጅ ለ</w>
ጀ ው</w>
ጀ ው
ጀ ምዐ
ጀ ህ
ዶ ታት</w>
ድ ዮም</w>
ድ ሮ</w>
ዳ የ
ዱ ቱ</w>
ይ ዶ</w>
ያ ትመ</w>
ዪ ር</w>
የ ይት</w>
የ ም
ዝ ለ</w>
ዛ ቱ</w>
ዕ በ
ዐ መል
ዉ ን</w>
ወቅ ር
ወቀ ር
ወስ ር
ወረ የ</w>
ወመ ሐ
ወሓ ይ
ወለ ም
ወለ ህ
ወ ዉ
ወ ወል
ወ ናይ
ወ በል
ኮ ሚ
ክ ሲ
ካ ሬ</w>
ከ ኪ</w>
ኢት ረ
ኢልት ዐ
ኢ ቱ</w>
ኢ ሰም
ኢ ርኤ
አት ሻ
አት ሌ
አም ሐ
አ ጃ
አ ዕ
ን ባ
ና የ
ኒ ው
ኑ ር
ነ ሲ
ትም ን</w>
ት ንክ
ት ሮ</w>
ቴክ ኖ
ታ ው
ቱ ነ</w>
ቱ ር</w>
ተል ሀ
ተ ፋ
ተ ትሐ
ብ ዐ
ብ ካ</w>
ብ ን</w>
ብ ሎም</w>
ባ ትነ</w>
ባ ህ
ቡ ት</w>
ቡ ረት</w>
በ ለስ
ቆ ቅ
ቅ ድ</w>
ቀ ይ</w>
ቀ ትነ</w>
ስ ወር</w>
ሴ ዕ</w>
ሳ ብ</w>
ር ዩ</w>
ሬ ኮ</w>
ሬ ና</w>
ራ ዩ</w>
ራ ሙ</w>
ራ ሀ</w>
ረከ ብ</w>
ም ዐት</w>
ማ ግ
መጅ ሙ
መዐ ው</w>
መ ጺ
ሕ ተር
ሕ ረ
ሓ ለፍ
ሑ ከ</w>
ሐ ፋ
ሐ ንገ
ል ኡ
ል ሳድ
ላይ መ</w>
ለፈ ት</w>
ለአተ ቅ
ለት በገ
ለሐ ፍ
ለሐ </w>
ለልት ዐ
ለ ኦ
ለ እ</w>
ህ ሙ
ፓ ር
ፐ </w>
ፍን ጌ
ፍ እ</w>
ፍ ስ
ጺ ት</w>
ጸ ው</w>
ጭ ቀ
ጡ ጥ</w>
ጠ የ</w>
ጠ ውር</w>
ጠ ባይ
ግ ግ</w>
ግ ዕ</w>
ግ ሮ
ገበ ይ</w>
ገር ጊ
ገ ዩ</w>
ገ በ</w>
ገ ለብ
ጅ ንስ
ድ ጋ
ዲ ሁ</w>
ዱ ኒ</w>
ደ ሪ
ደ ለው</w>
ዩ ስ</w>
የ ይ</w>
ዝ ቱ</w>
ዚ ም</w>
ዘ ነ</w>
ዘ ሕ</w>
ዔ ከ</w>
ዓ ር</w>
ዒ ቱ</w>
ዐ ትመ</w>
ዐ ር</w>
ው ሉ
ዋ ጀ
ዊ ን</w>
ዉ ይ</w>
ወአ ጥ
ወአ ማ
ወመስ ኡ
ወለ ፍ
ወለ ብ
ወ ፍር
ወ ፈን
ወ ዮ
ወ የ</w>
ክ ሌ
ኪ ሎ
ኩ ሉ
ከ ገ
ከ ዳ
ከ አት
ከ አቅ
ከ ለመ
እን ገ
እስ ትሽ
እ ቤ
ኤ ለክ
ኣ ሳ
ኢ ዘ
አድ ር
አት መጣ
አት መቃ
ን ኮ
ን ሸ
ና ብ</w>
ኑ ነ</w>
ኑ ቱ</w>
ነ እ</w>
ነ ቀ
ነ መ</w>
ቶ ር</w>
ትከ በት
ትከ በ
ትት ጋ
ትት ሳ
ት ጌ
ተሐ ም
ተ ፍ</w>
ተ ጋ
ተ ጂ
ተ ወ</w>
ተ ሪ
ቦ ል</w>
ባ የ</w>
ባ ቶም</w>
በጽ ሑ</w>
በ ወ</w>
በ ቼ</w>
ቄ ት</w>
ቃ ብል</w>
ቃ ም
ቀ በት</w>
ሽ ፍ
ሸ ብ
ስ ዌ
ስ ዊ
ስ ከር
ሳ ዕ
ሳ ሕ
ሰ ትመ</w>
ሰ ቴ</w>
ር ድ
ር ካ</w>
ራ ረ</w>
ሩ ሱ</w>
ረ ዮት</w>
ማ ኒ</w>
ማ ሰ
ሐር ስ</w>
ሐረ ው</w>
ሐል ፍ</w>
ሐ ጽ
ሐ ኪ
ልት ከበ
ል ቡ</w>
ል ሉ</w>
ሌ ሁ</w>
ሉ ሉ</w>
ለኣ ት
ለአ ረ
ለት ትረ
ለት ተ</w>
ለሐ ዜ
ለሐ ረ
ለል ሀይ
ለ ያሁ</w>
ለ ወቅ
ለ ወሰ
ሂ ድ</w>
ሁ ድ</w>
ሀይ ሌ
ሀ መት</w>
ሀ ላ
ፓ ን
ፍ ሎ
ፋ ሁ</w>
ፉ ፍ</w>
ጹ ሕ</w>
ጸ ሓ
ጭ ብ
ጨ ር
ጥ ቱ</w>
ጥ ሽ</w>
ጠ ከ</w>
ግ ሽ</w>
ግ ሉ</w>
ጋ ም
ገ ተ</w>
ጅ ን
ዴ ኪ</w>
ዴ ና</w>
ዳ ፍ</w>
ዳ ነ</w>
ዱ ም</w>
ደም ን</w>
ደ ስ</w>
ዮ ምተ</w>
ይ ኣ
ይ ኢ
የት ቼ</w>
ዝ ዮን</w>
ዝ ሕ</w>
ዘ ቤ</w>
ዘ ህ
ዐብ ደ
ው ጅ
ው ዝ</w>
ዋ ስ
ዊ ር</w>
ወዐ ው
ወአ ጅ
ወአ ቡ
ወነ ስ
ወት ነ</w>
ወለ ፈ
ወለ ዓ
ወለ ባ
ወ ጻ
ወ ቁ
ወ ሆ
ኮ ኩም</w>
ክ ዮ</w>
ክ ው</w>
ክ ተር</w>
ካ ድ
ካ ቡ</w>
ኪ ሁ</w>
ከም ሰል
ከ ተብ
ከ ቦ</w>
ከ ልት
ከ ለእ
እ ን</w>
ኣ ዩ</w>
ኢል ር
ኢ ወዴ
ኢ ረኤ
ኢ ህ
አት መሳ
አተ ና
አ ወ</w>
ንገ ር</w>
ን ቴ</w>
ና ክ</w>
ኒ ቶም</w>
ነ ጅ
ነ ደ</w>
ነ ዮት</w>
ነ ሀ</w>
ቶ ቱ</w>
ቶ ምመ</w>
ትት ገ
ትት ባ
ትት በ
ት መል
ታ ቼ</w>
ተኽ ሌ
ተአ ስእ
ተአ ር
ተን መ</w>
ተመ ዕ</w>
ተ ገ
ተ በ</w>
ተ ሕ</w>
ቦ ዕ</w>
ብር ት</w>
ብ ድ</w>
ብ ዲ
ብ ያ</w>
ብ ም
ባ ስ
ቢ ነ</w>
በር ድ</w>
በር ቱ</w>
በ ሉ
በ ህ</w>
ቃ ቅ</w>
ቀድ ረ</w>
ቀር ብ</w>
ቀ ትከ</w>
ቀ ተል
ቀ ር</w>
ሻ ቀል</w>
ሸ ካ
ስት ሮ
ስ ጅ
ስ ታ</w>
ምስ ጢ
ም ግብ
ም ኔ
ም በር</w>
ም ሐ
ማ ቲ
ሚ ል</w>
መዋ ጥ
መት ኣ
መት ተ</w>
መት ሰ
መት ሃ
መ ሊ
ሕ ዉ</w>
ሕ ብ
ሕ ቁ
ሑ ኒ</w>
ሐ ስ</w>
ሎ ሉም</w>
ልም ጸ
ል ቡ
ል ሄ
ሌ ለ</w>
ላይ ም</w>
ለፈ ው</w>
ለአ ርኤ
ለት ጸ
ለመ ሀ
ለልት ዓ
ለ ግር
ለ ዎም</w>
ለ ብር
ለ ሆ
ህ ወ</w>
ህ ሉ</w>
ሀ ቶም</w>
ፍ ድ
ፍ ዑ</w>
ፍ ክር
ፊ ራ
ፈሪ ቅ</w>
ፈ ዘ</w>
ፈ ዘ
ፈ ሬ
ፄ </w>
ጽ ር</w>
ጠ ይ
ግ የ</w>
ግ ረት</w>
ጋ ቱ</w>
ገብ አት</w>
ገ መት</w>
ጅ ኔ
ጃ ር</w>
ጀ ም</w>
ድ ሩ</w>
ዳ ሙ</w>
ይ በ
ይ ር
ዩ ናይ
የ ደ</w>
ዝ ብ</w>
ዛ ቅ</w>
ዚ ት</w>
ዘ ል</w>
ዕን ቦ
ዕ ዎም</w>
ዕ ን</w>
ዐል ል</w>
ዐ ድ</w>
ዐ ትከ</w>
ዐ ቦ
ዋ ነ</w>
ዊ ል</w>
ዉ ት</w>
ዉ ተ</w>
ወድ ራ
ወዕ ላ
ወሽ ን
ወር ስ</w>
ወሐ ር
ወለ ለአት
ወ ፌ
ወ ካል
ወ ኡ
ወ ማር
ወ ሉ
ካ ሬ
ኩ ሆም</w>
ከ ዛ
ከ ዉ</w>
እድ ሪስ
እን ስ
እ ቡ
እ ሽ</w>
ኤ ስ
ኣ ተ</w>
ኣ ቡ
ኢት ትመ
ኢ ፈር
አድ ረሰ
አን ጎ
አን በት
አት አመ
አት ነ</w>
አተ ም
አ ኪ
አ ኖ
አ ና</w>
አ ሉ
ን ጀ
ን ኢ
ኑ ር</w>
ነሐ ከ</w>
ነ ትከ</w>
ነ ል</w>
ትት ሸ
ት ዩ</w>
ት ባል
ተሐ ት</w>
ተ ዉ</w>
ቪ ች</w>
ባ ቢ
በል ዕ</w>
በ እ
በ ተን</w>
በ ሮት</w>
ቈ </w>
ቅ ሮ
ቀደ ር</w>
ቀ ው
ቀ ዉ</w>
ሻ ም</w>
ስ ማ
ሳ ዩ</w>
ሰ ዮም</w>
ሰ መ</w>
ረበ የ</w>
ረ ፈት</w>
ም ኪ</w>
ም ናድ
ሙ ሽ
ሙ ረ</w>
ሙ ሙ</w>
መዳ ን</w>
መዳ ልያይ</w>
መት ሸ
መህ ረ
መ ያ
መ ክ</w>
መ ለት</w>
ሕ የት</w>
ሐረ ክ</w>
ል ጽበ
ሉ ን</w>
ሉ ተ</w>
ለው መ</w>
ለኢ ተሐ
ለአ ጸ
ለአ ደር
ለት ትቀ
ለት ቱ</w>
ለት ላ
ለተ ዓ
ለብ ነ</w>
ለሰ ምዐ
ለመ ቅ
ለልት ፋ
ለልት ሸ
ለልት ሳ
ለ ጸብ
ለ ለቀ
ሀይ ቡ</w>
ሀ ኮ</w>
ሀ ራ
ሀ ል
ፍ ሊ
ፈ ዓ
ፈ ሕ</w>
ፅ ዕ</w>
ጽ ርግ
ጻ ት</w>
ጸ በር</w>
ጸ ሐ</w>
ጭ ብ</w>
ጋ ብ</w>
ገር ም</w>
ገ ኖ
ገ ሩ</w>
ገ ረው</w>
ጆ ት</w>
ጄ ር
ጃ ብ</w>
ዶ ን</w>
ድሪ ስ</w>
ድ ኩም</w>
ዴ ር
ዳ ቅ</w>
ደረ ጀ
ደ ፍዐ
ዬ ዕ</w>
የት ኪ</w>
ዜ ን</w>
ዘ ማ
ዕ ጉ
ዕ ዬ</w>
ዕ ባ
ዕ ሩ
ዓር ፍ</w>
ዌ ሕ</w>
ዋ ሩ</w>
ወድ የ</w>
ወከ ራ
ወኢ ተአ
ወአ ካ
ወተ ዕ
ወብ ዕ
ወመ ው
ወልት ፋ
ወል ብ
ወለ ከ
ወ ይ</w>
ወ ክ</w>
ወ ቲ
ወ ሉ</w>
ክ ፈል
ካ ሃ</w>
ኩ ብ</w>
ኩ ስ</w>
ኩ ል</w>
ከበ ተ</w>
ከ ሮ</w>
ኦ ቱ</w>
እብ ራ
እ እ
እ ር</w>
ኣ ግ
ኢት ደ
ኢት አ
ኢት ረሰ
ኢል ቅ
ኢል ም
ኢ መጸ
አትሐ ሶ
አት ፋር
አብ ሸ
አቅ ር
አቅ መት
አ ጋ
አ ቶም</w>
አ ባይ
አ ሠ
ኖ ር</w>
ንግ ር</w>
ን ጠ
ን ጎ</w>
ን ካ</w>
ን ቦ
ና ታ</w>
ና ተን</w>
ነብ ት</w>
ነስ እ</w>
ነ በ
ቶ ታት</w>
ቶ ሪ</w>
ት ወሐ
ት ሉ</w>
ቴ ን</w>
ተሐ ይ
ተሃ ጌ
ተ ጠው
ተ ሎ</w>
ብ ዩ</w>
ብ ሊ
ቤ ኮ</w>
ባ ሩ</w>
ቢ ተ</w>
በት ክ</w>
በል ነ</w>
በ ኪ
በ ኩም</w>
በ ሕ
ቑ </w>
ቅ ፈ</w>
ቁ ብ</w>
ሽዕ ር</w>
ሽ ብ</w>
ሽ ሩ
ሽ ል
ሻ ቅ
ሸ ቨ
ሸ ረት</w>
ስቲ ክ</w>
ስ ዮ
ስ ካ</w>
ሰል ፍ</w>
ሰ ያ
ሰ ዕ</w>
ሰ ዕ
ሰ ትለ</w>
ሰ በት
ር ዮ</w>
ሬ ኤ
ራ ክ</w>
ረ ሓ
ረ ሐት</w>
ም ዖ</w>
ም ሽ</w>
ማ ረ</w>
መ ዐት</w>
መ ኢ
መ ቶ
መ ሉ</w>
ሕ ዝ
ሕ ኮ</w>
ሐ ኮ</w>
ሐ በረ
ሐ ሩ
ሐ ሜ
ሎ ሉ</w>
ልት ነፈ
ል ያም</w>
ላ ሕ</w>
ሊ ቨር
ለጸ ን
ለው ነ</w>
ለት ትነ
ለት ትመ
ለብ ከ</w>
ለሸ ቄ
ለሸ ር
ለስ ር
ለልት ባ
ለል አስ
ለል ነ</w>
ለ ዮ</w>
ለ ያ
ለ ወቀ
ለ ታ</w>
ለ ቱ
ለ ለበ
ለ ለም
ህ የት</w>
ሀ ረት</w>
ፑ ል</w>
ፍ ዖ</w>
ፍ ና</w>
ፍ ሌ
ጸ ባ
ጠ ረው</w>
ጎ ር
ግ ድ</w>
ግ ይ</w>
ገ ሮ</w>
ጅ ዕ</w>
ጃ ህ
ጀር ብ</w>
ጀ ዕ</w>
ድ ፋ
ድ ጌ
ድ ና</w>
ድ ል
ዴ ሕ</w>
ዳይ ም</w>
ዳ ውር</w>
ዲ ና
ደ አ</w>
የት ና</w>
የ ትቱ</w>
ዝማ ች</w>
ዖ ተ</w>
ዑ ዎ</w>
ዐ ወ</w>
ዐ ነ
ዐ ሽ
ዎ ር
ው ዳይ
ው ለት</w>
ወት ቀ
ወት ሸ
ወት ር
ወተ ሀ
ወስ ክ</w>
ወሰ ብ
ወመ ድ
ወል ው
ወ ፋር
ወ ወድ
ወ ካር
ወ ቱ
ወ ቢ
ክ ዳ
ከር ከ
ከ ዮም</w>
ከ ዝ
ከ ው
ከ ትበ
ከ ሮ
ከ ሁ</w>
እት ሳ
እ ጥ
እ የ</w>
እ ዋ
እ ሪ
እ ላ
ኤረትር የ</w>
ኤ ክስ
ኣ ን</w>
ኢት ጀ
ኢት ከ
ኢት ባ
ኢ ኒ
ኢ ብራ
አፍ ዐ
አው ዐል
አው ለው
አን ተ
አብ ዴ
አብ ዘ
አስ ረ
አለ ቡ</w>
አ ዮም</w>
አ ሆ
ንድ ስ</w>
ን ጦ
ን ያይት</w>
ኔ ር</w>
ናይ ቱ</w>
ና ማ</w>
ነ ቃ
ትሰ ሐ
ትላ ኬ
ት ወጀ
ት ክን</w>
ት ናቱ</w>
ት ሕ</w>
ቲ መ</w>
ቱ ኒ</w>
ተዐ ንደ
ተ ዝ
ተ ዕ</w>
ተ ሳ
ብረ ን</w>
ብ ዙ
ባ ክ</w>
ቡ ረ</w>
በጽ ሐ</w>
በ ጠ</w>
በ ድረ
በ ክ</w>
በ ና
በ ታ</w>
በ ላ</w>
ቅ ዬ</w>
ቀ ከ</w>
ቀ ልበ
ሹ ሀዳ
ስ ሱ</w>
ሳ ረሐ
ሳ ምን
ሲ ም</w>
ሱ ይ</w>
ሱ ል</w>
ሰም ዑ</w>
ሰሐ ቅ</w>
ሰ ወ</w>
ሰ ንደ
ሰ ቼ</w>
ሰ ሎ
ሰ ለት</w>
ሮ በ</w>
ር ሽ
ሬ ር</w>
ራ ግ</w>
ራ ትመ</w>
ሩ ቡ</w>
ረከ ው</w>
ረአ የ</w>
ረ ጋ
ረ ይሐ
ረ ኤ</w>
ረ ቀ</w>
ረ ሰት</w>
ረ ር
ረ መ
ሞ ተ</w>
ምዴ ር
ም ዓ
ም ቅ</w>
ም ሮ</w>
ማ እ
ሙ ዕ</w>
መት ፈር
መት ጻ
መሰ ል</w>
መ ደት</w>
መ ዬ</w>
መ ሲ
ሕ ጻ
ሕ ዬ</w>
ሓይ ሳም</w>
ሓ ለፈ
ሐም ድ</w>
ልት ጻ
ልት ማ
ል ጋ
ሌ ን</w>
ላ ር</w>
ላ ላ</w>
ሉ ክ</w>
ለኢ ለአት
ለአብ ጸሐ
ለቀ ስ
ለመ ሕ
ለሐ ብ
ለለ ሓ
ለሀ ር
ለ ፉ
ለ ጸብጠ
ለ ደ</w>
ለ ሜ
ለ ሒ
ለ ሌ</w>
ሃ ብ</w>
ሀብ ቴ
ሀ ድ</w>
ፔ </w>
ፍ ኮ</w>
ፋ ጥ
ፋ ሽ
ፈና ቴ</w>
ፈ ህ
ጽ እ</w>
ጹ ር</w>
ጸበ ረ</w>
ጦ ሎ
ጥ ረ
ጣ ፍ
ጣ ይ
ጣ ር
ጠም ጠ
ጠ ዓ
ጎ ቱ</w>
ግ ራ</w>
ገ ዛ
ጃ ይ</w>
ጀ ረብ
ድ ያ</w>
ድ ኪ</w>
ዳ ለ</w>
ዱ ን</w>
ደቅ ብ</w>
ደም ነ</w>
ደ ና
ደ ትከ</w>
ደ ትነ</w>
ደ ቂ
ደ ሐን
ይ አስ
ይ ሩ</w>
ይ ረ</w>
ዬ ብ</w>
የ ብ</w>
የ በ</w>
ዥ </w>
ዚ ል</w>
ዘ መ
ዕ ሉ</w>
ዓ ሬ</w>
ዒ ድ</w>
ዐ ጽ
ዐ ቼ</w>
ው ያን</w>
ዌ ነ</w>
ዌ ል</w>
ዋ ረ</w>
ዋ ለ</w>
ዉ ል</w>
ወኢ ሰ
ወት ትሐ
ወት ሐ
ወተ ው</w>
ወተ ት</w>
ወተ ቅ
ወመ ታ
ወመ ሰ
ወል ድ
ወለአ ስ
ወ ፎ
ወ ግራ
ወ ዜ
ወ ወራ
ወ ቂ
ኸ </w>
ክቶ ር</w>
ክም ሰሌ
ካርቱ ን
ካ ቶም</w>
ኩ ወን</w>
ከር ዐ
ከል ስ</w>
ከ ወ</w>
ከ ና</w>
ኦ ሊ
እ ዕ
እ ኪ
እ አ
ኣ ይት</w>
ኢት ትሰ
ኢት ሽ
ኢ ጸንሐ
ኢ ገብ
ኢ ተዓ
ኢ ር
ኢ መጽ
አደ ንገ
አው ነ</w>
አን ያ
አቅ በለ
አሽ ቃ
አ ጄ
ንፍ ል</w>
ንት ፋ
ን ዝ</w>
ን ቱ
ን ሰ</w>
ና ሽ
ነ ዐል
ነ ኣ
ትት ነ
ት መስ
ታ ይን</w>
ታ ብ</w>
ታ ስ
ታ ሌ
ቱ ከ</w>
ተአ ድ
ተስ ፈ
ተሐ በ
ተል ሄ
ተ ይ
ተ ቃ
ተ መት</w>
ቭ የ</w>
ቦ ምቱ</w>
ብር መ</w>
ብ ለት</w>
ቤ ተ</w>
ቤ ላ</w>
ባይ ቱ</w>
ባ ከ</w>
ቡ ጡ</w>
ቡ ለ</w>
በረ ቱ</w>
በል ስ</w>
ቅ ጥ</w>
ቅ በ</w>
ቀስ ን</w>
ቀ ፈ</w>
ቀ ትለ</w>
ቀ ረብ
ሸነ ህ</w>
ሸ ማ
ሸ ሐ
ስ ያ</w>
ስ ሉ
ሳ ነ</w>
ሲ ን
ሰር ጌ
ሰ ተን</w>
ሰ ሰት</w>
ሰ ለመ
ሬ ብ</w>
ራይ ር</w>
ራ ሩ</w>
ሪ ፍ</w>
ሪ ድ</w>
ሪ ተ</w>
ረ በው</w>
ም ላ
ሜ ሕ</w>
ማን ቼ
ማ ድ</w>
ማ ኖት</w>
ሙ ከ</w>
መን ግ
መቅ ረሐ
መስ ተቅ
መረ የ</w>
መም ህር</w>
መል ሂ
መ ደረ
መ ኪ
መ ሎ
ሖ ተ</w>
ሕር የት
ሕ ጽ
ሓ ግ
ሓ ቅ</w>
ሑ ቱ</w>
ሐ ጅ
ሎ ምቱ</w>
ልት ጸ
ልት ከለ
ል ዐ</w>
ሌ ሀ</w>
ላ ትለ</w>
ሊ ት
ሉ ቡ</w>
ለይ እን
ለዐ ጅ
ለዐ ር
ለከ ድ
ለከ ት</w>
ለአ ተብ
ለአ ተም
ለአ ሸ
ለአ መጽ
ለት ካ
ለት ከበ
ለት ና
ለት ነፈ
ለት ራ
ለሰ ጀ
ለልት ሀየ
ለለ የ</w>
ለ ወስ
ለ ወል
ለ ሚ
ሆ ቱ</w>
ህ ደ
ህ ዘ
ሄ ኒ</w>
ሄ ርር</w>
ፉ ይ</w>
ፈት ዩ</w>
ፈ ዉ</w>
ፈ ሬ</w>
ጸብ ጠ</w>
ጭ ል</w>
ጨ ይ</w>
ጨ ን
ጣ ጥ</w>
ጣ ል
ጠ ጠት</w>
ጎ ማ
ግ ና
ግ ቱ</w>
ግ በ</w>
ግ ሪ</w>
ጉ ረ</w>
ጉ መ</w>
ገር ጊስ</w>
ገ ጊ
ገ ዘ</w>
ገ ሊ
ጀ ኔ
ዶ ተ</w>
ድረ ስ</w>
ድ ጎ</w>
ድ ያት</w>
ዲ በ</w>
ዲ ረ</w>
ደረ ር</w>
ደ ዮ</w>
ደ ራ</w>
ደ ህ
ዮ መ</w>
ይ አብ
ይ ማ
ያ እ</w>
ያ ትከ</w>
የ ሐ</w>
ዝ ዝ
ዘ ርእ
ዘ መት</w>
ዕ ቡ</w>
ዓ ብ</w>
ዓ ቤ</w>
ዑ ቕ
ዐ ፌ
ዐ ጭ
ዐ ለት</w>
ዉ መ</w>
ወድ ቅ</w>
ወእ ቅ
ወኢ ረ
ወአ ተን
ወት ዐ
ወተ ው
ወተ ሓ
ወስ ም
ወሰ ዋ
ወመ ም
ወ ዩ
ወ ዒ
ወ ራ</w>
ወ ሂ
ክ ፉ
ክ ቦ</w>
ክ ሕ
ኬ ር</w>
ካፍ ል</w>
ኪ ኤል</w>
ኩ በት</w>
ከ ሎ
ኦ መ</w>
እጅትማ ዕ
እን ብ
እን ረ
እ ዎም</w>
እ ኮ</w>
ኣ ደ
ኢት ትፈ
ኢት ትበ
ኢት ሸ
አድ ረስ
አን በተ
አት ከ</w>
አቅ በል
አም ሸ
አ ኽ
አ ሐ
ኖ ር
ንድ ል</w>
ን ጅ</w>
ን ኽ
ን ተን</w>
ን ብ</w>
ና ትነ</w>
ኃ </w>
ትገ ልበ
ትት ከ
ትሰ ም
ትም ኔ
ት ዋጅ
ት ወቀ
ት በት</w>
ቴ ተ</w>
ታት ን</w>
ታ ነ</w>
ተዕ ሊ
ተቅሪ ር
ተ ሌ</w>
ብ ቅ
ቡ ቡ</w>
ቡ ሕ</w>
በገ ስ</w>
በር ህ</w>
በ ጸሐ
በ አ</w>
በ ለው</w>
ቅ ብል</w>
ቅ ቡ</w>
ቀ ሰ
ሽ ለት</w>
ሸ ፋ
ስ ያይ</w>
ሳ ፍ
ሳ ታት</w>
ሳ ልሕ
ሱ ዱ
ሰም ዖ</w>
ሰ ፊ
ሮ ቡ</w>
ርከ ብ</w>
ራይ መ</w>
ሪ ኒ</w>
ሪ ሁ</w>
ም ሴ
ም ሰ</w>
ም ሞ</w>
ም ልክ
ማ ሸ
ማ ሲ
መት ራ
መር ዓ
መም ኮ</w>
መ ስ</w>
ሕ ክም
ሕ ክ
ሕ ሉ
ሓ ር</w>
ሐ ክ
ልት ጨ
ልት ጠ
ልት ኣ
ልት ሃገ
ልም ት</w>
ል ዮን</w>
ል ተም
ላ የት</w>
ላ ዕ</w>
ላ ት
ላ ማ</w>
ለኢ ደ
ለአ ሰብ
ለአ ርእ
ለአ መስ
ለነ ዝ
ለብ ስ</w>
ለሸ ርሐ
ለረ ክበ
ለም ህ
ለል ከ</w>
ለል አትሐ
ለ ፍር
ለ ፅ
ለ ጠ</w>
ለ ዱ
ለ ዜ
ለ ወረ
ለ ኒ
ሆ ገ
ህ ዉ</w>
ህ ከ</w>
ሀድ ግ</w>
ሀ ብ</w>
ፐ ር</w>
ፍን ቲ
ፍ ዐ</w>
ፉ ዕ</w>
ፈት የ</w>
ፈ ክረ
ፈ ሩ</w>
ጽ ም</w>
ጽ ሐ</w>
ጼ ዋ
ጻ ገም</w>
ጻ ይ</w>
ጸ የ</w>
ጸ ሃ
ጥ ጠ</w>
ጥ ኮ</w>
ጤ ት</w>
ጋ ስ</w>
ጋ መ</w>
ጉ ብ</w>
ገበ ይ
ድ ገ</w>
ድ እ</w>
ዴ ን
ዳ ፈ
ዳ የ</w>
ዱ ግ</w>
ደ ቀ</w>
ደ ራት</w>
ደ መት</w>
ዮ ው
ዮ ር
ይ ነ
ያ ደት</w>
ያ ትለ</w>
የ ረት</w>
የ ል</w>
ዝ ከ</w>
ዘ ከር
ዘ በጥ
ዖ ቶም</w>
ዕ ና</w>
ዕ ሙ
ዓ ኢ
ውላ ድ
ው ን
ው ለ</w>
ወጅ ብ</w>
ወድ ዩ</w>
ወአት ና
ወአት ሳ
ወአ ባ
ወአ ሳ
ወነ ው</w>
ወት በ
ወተ ክ
ወሕ ሽ
ወለ ስ
ወ ጁ
ወ ይእን
ወ ዌ
ክ ባ
ክ ሬ</w>
ካ ኪ
ካ በ</w>
ኪ ዳ
ኩ ሉ</w>
ከብ ከ</w>
ከበ የ</w>
ከበ ቱ</w>
ከረ ዩ</w>
ከ ፊ
ከ ጠ
ከ ጀ
ከ እት
ከ መት</w>
ከ መስ
እት ሓ
እስ ትቅ
ኤ ረት
ኢን ተር
ኢት ትነ
ኢል ሐ
ኢ ው
ኢ ቀድ
ኢ ሓ
አዳ ም
አው ዐ
አከ ድ</w>
አን ግ
አን ደፍ
አት ዛ
አት በገ
አተን ሴ
አብ ደ
አብ ሀ
አቅ ሊም</w>
አም ሳ
አመ ረ</w>
አል ሙ
አል ሓ
ንት ዐ
ን ጂ</w>
ን ዶ</w>
ን ና</w>
ኒ ክስ</w>
ኒ ስ</w>
ኒ ሁ</w>
ነ አክ
ትፈ ት
ትከ ረ
ትት ሰ
ትሰ አለ
ት ጸብ
ት ዕ</w>
ቴ ኮ</w>
ታ ዬ</w>
ተሐ ር
ተ ኸ
ተ ኮ
ተ ኩም</w>
ብ ቡ</w>
ብ ቆ
ብ ራይ</w>
ብ ሕ</w>
ቤ ር</w>
ቤ ሉ</w>
ቤ ለው
ባ ለ</w>
ቡ ጥ</w>
በር ት</w>
በር ሀ
በ ኪ</w>
በ ና</w>
በ ቶ</w>
ቃ መ</w>
ቀር እ</w>
ቀ ቢ
ሽ ቅል
ሶ መ</w>
ስሌ ማን
ስ ፍ</w>
ስ ነት</w>
ስ ቡ</w>
ስ ረ</w>
ሰአ ነ</w>
ሰአ ለ</w>
ሰ ነት</w>
ሰ ትከ</w>
ሰ ሙ
ሰ ሉ
ሮ ዕ</w>
ር ኡ
ራ ገ
ራ እ</w>
ሪ ካ</w>
ሩ በ</w>
ሩ ቅ</w>
ሞ ር
ሞ ራ
ም ኒ
ማር ያም
ሚ ረ</w>
ሙ ዲ
መ ዴ
መ እተ
መ ሮ</w>
መ ሬ
ሕ ሙ
ሒ ም</w>
ሐ ሌ
ልት ወለ
ልት ካረ
ል የቱ</w>
ላ ቅ</w>
ላ ሂ</w>
ለፈ ት
ለከ ራ
ለአት ራ
ለት ፈር
ለት ጨ
ለት አሰ
ለቀ ን
ለሰ ት</w>
ለም ን
ለም ነ</w>
ለመ ዐ
ለሓ ለፍ
ለሐ ት</w>
ለልት ፈ
ለል ኣ
ለል ሀ
ለለ ብ
ለ ዘር
ለ ክል
ለ ኪ
ለ ቲ
ለ ሼ
ለ ሞ</w>
ለ ለሰ
ህግ ያ
ህ ጁ
ህ ደ</w>
ህ ዬ
ህ ዩ</w>
ህ የ</w>
ሃ ው
ሁ ተ</w>
ሀገ ጊ
ሀ ዋ
ፍ የ</w>
ፍ ቅ
ፍ ስ</w>
ፋ ረ
ፉ ከ</w>
ፈግ ረ</w>
ፈ ገር
ፈ ሽ
ፈ ረት</w>
ጻብ ጥ</w>
ጻ ሕ</w>
ጸ ጋ
ጭ ረ
ጨ ረ</w>
ጥ ዕም</w>
ጢ ጥ</w>
ጡ መ</w>
ጠ ኒ</w>
ግ ሉ
ጋ ድ</w>
ጊ ድ</w>
ጉ ይ</w>
ጉ ም</w>
ገ ፍ</w>
ገ ዴ</w>
ገ ዲ
ገ ነ</w>
ገ ባ
ጅ ድ</w>
ዶ መ</w>
ድሕ ን</w>
ዳይ መ</w>
ዳ ዬ</w>
ዳ ራት</w>
ዲ ፕሎ
ዲ ቡ</w>
ደረ ሳ
ደ የን</w>
ደ ሮ</w>
ይ አተ
ይ ሐ</w>
ዩ ድ</w>
የ ን
የ ሀ
ዣ </w>
ዝ ፍ</w>
ዝ ክር
ዝ ቤ
ዝ ላ
ዛ መ</w>
ዕ ያይ</w>
ዑ ር</w>
ዐ መ</w>
ዐ ላ
ዐ ሊ</w>
ው ዴ</w>
ዋር ሕ</w>
ዋ መ</w>
ዊ ቱ</w>
ወዝ ያ
ወኢ ነ
ወአት ቃ
ወአ ና
ወቴ ክ
ወር ነ</w>
ወረ ዩ</w>
ወም ጅ
ወመ ቃ
ወል ቅ
ወ ገብ
ወ ዳይ
ወ ደ</w>
ወ ዋጅ
ወ ዋል
ወ ኑ
ወ ሽ</w>
ወ ሪ</w>
ክረ ው</w>
ክ ድ</w>
ክ ሮም</w>
ካ ታት</w>
ኪ ነት</w>
ኪ ም</w>
ኪ ሀ</w>
ከ እብ
ከ ራ</w>
ከ ሩ</w>
ከ ለት</w>
ከ ለበ
ከ ለሐ
እ ዮ
እ ና</w>
ኣም ሩ</w>
ኣ ሕ
ኢት ትገ
ኢልት ሓ
ኢ ጀ
ኢ ተም
ኢ ሰምዐ
አጽ ነሐ
አግ ሩ
አት ረ
አት መመ
አት መ</w>
አተ ድ
አተ ቃ
አስ አል
አር ሐ
አም ሮ</w>
አ ጎ
አ ኩም</w>
አ አ
አ ሓ
ኙ </w>
ኖ ተ</w>
ንደ ን</w>
ንት ሐ
ን ዘ</w>
ን ኸ
ና ትመ</w>
ና በ</w>
ና ቅ</w>
ኑ ስ</w>
ነ ድ</w>
ነ ኣይ
ነ ቢ
ነ ም</w>
ቶ ሬ</w>
ትከ ም
ትት ካ
ትት ና
ትት ላ
ትበ ህ
ታ ሕ</w>
ቲ ብ</w>
ተአ ጅ
ተርጀ መት</w>
ተ ኪ</w>
ተ ቀ
ተ ሻ
ብረ ኒ</w>
ብ ን
ባ ትለ</w>
ባ ሕ
ቡ ክ</w>
በት ኩም</w>
በት ተ</w>
በለ ዩ</w>
በ ዓ
በ ከ
በ ብ
ቅ ም
ቅ ሎ</w>
ቅ ሎ
ቀይ ም</w>
ቀ ጻ
ሽ ክ</w>
ሽ ባ
ሽ ቄ</w>
ሽ ረ</w>
ሺ ሽ</w>
ሸፍ ግ</w>
ሸ ፍ</w>
ሸ ዩ</w>
ስ ዕ</w>
ስ ሪ
ሱ ዳ
ሱ ኒ</w>
ሱ ቱ</w>
ሰር ጎ
ሰም ዐ</w>
ሰ ገ
ሰ እ</w>
ሰ ላም</w>
ሮ ነ</w>
ሮ ሕ</w>
ርኤ ከ</w>
ራይ ብ</w>
ራ ን
ሩ ዕ</w>
ረብ ነ</w>
ረሰ ዕ</w>
ረ ተን</w>
ረ ማ
ሞ መ</w>
ም ረ
ም ለት</w>
ሙ ደር
ሙ ናድ
መጽ አ</w>
መት ጋ
መት ኪ</w>
መም ነ</w>
መ ጀር
መ ዶ</w>
መ ካይ
መ ተአ
መ ሸ</w>
መ ሰ</w>
ሕር ያ
ሕ ኩም</w>
ሓይ ለ</w>
ሓል ፍ</w>
ሑ ዎ</w>
ሑ ር</w>
ሐን ቴ
ሐ ገ
ልት ሐረ
ልባ ብ
ልም ጽ
ል ፉ</w>
ል ዛ
ል ና
ል ረ
ል ማ</w>
ላይ ቱ</w>
ላ ተን</w>
ለከ ተብ
ለከ ብ
ለኢ ተዐ
ለአስ እ
ለአ ፍር
ለት ከረ
ለተ ን
ለሰ ን
ለረ ብ
ለመ የ</w>
ለሓ ር
ለሐ ድገ
ለ ፎ
ለ ግራ
ለ ጋብ
ለ ዴ
ለ የት</w>
ለ ቄ
ለ ስተ
ለ ሎት</w>
ህ ው</w>
ህ መት</w>
ህ ህ</w>
ሀየ ብ</w>
ሀ ደው</w>
ፎ ተ</w>
ፍ ሰ
ፋ ፍ</w>
ፊ ድ</w>
ፊ ነ</w>
ፈግ ሩ</w>
ፈን ጠ
ፈ ጠ
ፈ ትለ</w>
ጽ ሑ</w>
ጻ ን
ጸበ ሩ</w>
ጸ ም</w>
ጦ ር</w>
ጥ እ</w>
ጥ ም
ጠ ቅ
ግ ማ
ግ ሎ
ግ ላ
ዶ ስ</w>
ድ ናሁ</w>
ድ በ
ድ ቁ
ድ ራይ</w>
ዳፍ ዕ</w>
ደር ገ
ደር ኮ</w>
ደረ ሰ</w>
ደም ዕ</w>
ደ ዋይ
ይ ቶ</w>
ይ ሰ</w>
ዬ ም</w>
የ ብ
ዝ ግ
ዝ የት</w>
ዝ ዝ</w>
ዝ ሓ
ዛ ዝ</w>
ዛ ረት</w>
ዘከ ሩ</w>
ዘ ከር</w>
ዘ በ</w>
ዕ የ</w>
ዕ ዝ</w>
ዕ ዛ
ዕ በ</w>
ዓ ቶም</w>
ዓ ቤ
ዓ በ
ዑ ወ</w>
ዑ ከ</w>
ዐለ ም</w>
ዐ ሰ
ወደ ው
ወአ ደ
ወን ስ
ወነ አ
ወት ደ
ወት ከ
ወቀ ል</w>
ወመ ጃ
ወመ ካ
ወመ ስተ
ወሕ ኩ
ወሐ ዋ
ወለ እን
ወ ወደ
ወ ባል
ወ ቄ</w>
ወ ሕ</w>
ወ ሎ
ክፍ ሌ
ክ የት</w>
ክ ክ
ክ ከ
ክ ትሮ
ክ ተ</w>
ክ በት</w>
ኬ ል</w>
ካር ጅ
ካር መ</w>
ካ ነ</w>
ኪ ስ</w>
ኩ ክ</w>
ኩ ን</w>
ኩ ቱ</w>
ኩ ቡ</w>
ከት ብ</w>
ከተ ብ</w>
ከብ ቱ</w>
ከ አሰ
ከ ቢ
ከ ምስ
ከ ሃ
እግ ለ</w>
እን ፍ
እን ከ
እን ተ
እት ለ</w>
እስ እ
እስ ኡ
እም ጽ
እ ቡ</w>
እ ራ
ኤ ተ
ኣ ዳ
ኣ ቴ</w>
ኣ ሽ
ኣ ሙ</w>
ኢነ ስ
ኢረ ከብ
ኢ ጠል
አጥ ፈ
አት መ
አብ ጽሐ
አም ሰ
አሜ ሪ
አ ፌ
አ ቢ
አ ሃ
ን ዙ
ናይ ከ</w>
ኑ ኒ</w>
ነቅ ፈ
ነ ቲ
ነ ብራ
ነ ህ</w>
ቼ ል
ቻ ይ
ቸ ር</w>
ቶ ን
ቶ ተ</w>
ትበ ረ
ትሸ ን
ት ወል
ት ኬ
ት በ</w>
ት ሼ
ቲ ኒ</w>
ቱ ል</w>
ተአ ተን
ተ ፀ
ተ በት</w>
ተ ህየ
ቮ </w>
ቦ ረ</w>
ብ ዱ
ብ ያት</w>
ብ ሑ
ብ ሌ
ባይ መ</w>
ባ ዮ
ባ ኒ</w>
ባ ቅ
ባ ስ</w>
ቢ ክ</w>
ቢ ል
ቡ ላ
በት ኮ</w>
በራ ም
በ ድ</w>
ቃ ድ</w>
ቀየ ሕ
ቀ ጥ</w>
ቀ ጣ
ቀ ዝ
ቀ ለት</w>
ሽ ሸ</w>
ሽ ህድ</w>
ሺ ት</w>
ሸን ን</w>
ሸ መ</w>
ስ ፓ
ስ ክር
ሳ ቶም</w>
ሳ ሙ</w>
ሲ ም
ሰፍ ለል
ሰብ ት</w>
ሰ ፍ</w>
ሰ ቡ</w>
ሰ ረው</w>
ሰ ረት</w>
ሰ ለስ
ሮ ረ</w>
ሮ ማ
ርያ ል</w>
ርእ ዮም</w>
ር ዋ
ር ሑ</w>
ር ሐት</w>
ር ሐ</w>
ራ ቡ</w>
ሪ ል</w>
ሩ ክ</w>
ረአ ው</w>
ረ ባ
ሞ ንድ</w>
ሞ ባይ
ምህ ዞ
ም ኒ</w>
ም ቦ</w>
ም ሉ</w>
ማ ሳ
ሚ ተ</w>
መን ዱ
መት ካ
መት ነ
መስኡ ል
መስ ን
መ ጠ</w>
መ በገ
መ ሮት</w>
ሕ ፉ
ሕ ረ</w>
ሓይ ስ</w>
ሓ ብ
ሑ ወ</w>
ሐል ፈ</w>
ሐ ኒ</w>
ሐ በር
ሎ ቶም</w>
ልት በሀ
ልብ ል</w>
ልስ ሕ
ል ፈት</w>
ል ቤ
ል ርከ
ላ ትመ</w>
ላ ሆም</w>
ሊ ታት</w>
ለኣ ም
ለኢ በ
ለኢ ለዐ
ለአት ሻ
ለአት ሳ
ለአት ሐዜ
ለአት ሀ
ለአ ነብ
ለአ ታ
ለነ ፍ
ለት ኩም</w>
ለተ ክ
ለሳ ደፈ
ለሰ ብ
ለመ ና
ለመ ሐ
ለሐ ዝ
ለልት ረ
ለል ዓ
ለ ጼ
ለ ጢ
ለ ዉ
ለ ወዐ
ለ ሙ</w>
ሄ ነ</w>
ሀ ጅ
ሀ ጀ
ሀ ሞ</w>
ፕሪ መር
ፍ ዩ</w>
ፋ ቅ</w>
ፋ ሩ</w>
ፈ ቀድ
ጽ ጽ</w>
ጽ ል
ጸን ሕ</w>
ጸ ረ</w>
ጮ ት</w>
ጫ ት</w>
ጪ ር</w>
ጨ ው</w>
ጥ ዑ
ጠ ለቀ
ግ ራይ</w>
ግ ሊ
ጌ ሕ</w>
ጋ ግ</w>
ጉ ሙ</w>
ገ ሴ</w>
ገ ሪት</w>
ጅ ያይ</w>
ጃ ን
ድግ ም</w>
ድ ያይ</w>
ድ ሬ
ድ ላ
ዲ ያ
ዲ ተ</w>
ዱ ጉ</w>
ዱ ስ</w>
ደው ሸ
ደን ን</w>
ደር ሶ</w>
ደር ሰ</w>
ደ ደው</w>
ይ ሮ</w>
ያ ምነ</w>
ዪ ቱ</w>
ዩ ዱ</w>
ዩ ር</w>
ዝ ዕ</w>
ዛ ን
ዘ ዘ</w>
ዘ ው
ዘ ከረ
ዕ ጹ
ዕ ዉ
ዕ ስ</w>
ዔ ጻ
ዓ ሳ
ዒ ር</w>
ዐል ነ</w>
ዐ ተን</w>
ዐ ስከ
ዐ ረ</w>
ዐ ማ
ውሕ ድ</w>
ዋ ሬ
ዋ ረ
ዋ ሌ
ዉ ሩ</w>
ዉ ረ</w>
ወዐ ይ
ወው ላ
ወክ ድ
ወእ ስትራ
ወኢ ተዐ
ወኢ ለአ
ወአ ክላ
ወአ በ
ወን ጌ
ወት ነ
ወተ ም
ወብ ዝ
ወመ ል
ወልት ሓ
ወለአ ም
ወለ ዕ
ወለ ኢል
ወለ ተዐ
ወሀ ብ
ወ ፉ
ወ ፅ
ወ ጸብ
ወ ካይ
ወ ኣም
ወ ቶም</w>
ወ ቬ
ወ ባር
ክ ዋ</w>
ክ ራይ</w>
ክ መት</w>
ኬ ን</w>
ኬ ተ</w>
ካ ሩ</w>
ኪ ል</w>
ኩ በ</w>
ከበ ር</w>
ከር ኮ</w>
ከ ጸ
ከ ዚ
ከ ትከ
ከ ቲ
ከ ሓ
እን ፈ
እን ት
እን ሻ
እት ጀ
ኤ ን
ኣ ሁ</w>
ኢን ዶ
ኢት ትቀ
ኢል ጽ
ኢል ግ
ኢ ጸብ
ኢ በለ
ኢ ሻ
ኢ ለሀይ
ኡ ቱ</w>
ኡ ል</w>
አትሐ ዘ
አተ ነ</w>
አቅ መተ
አስ ተን
አር ት
አም ረ</w>
አ ፃ
አ ቆ
አ ሰ</w>
አ ላ</w>
አ ሀም
ንት ጋ
ንት ባ
ን ዪን</w>
ን አ
ናይ ነ</w>
ኑ ድ</w>
ኑ ዕ</w>
ነፍ ስ
ነ ጥ
ነ ና</w>
ነ ታ</w>
ነ ሐም
ቸ ው</w>
ትት ዋ
ትት ቃ
ት ጽበ
ት ኒ</w>
ቴ ል</w>
ታ የ
ቱ ክ</w>
ቱ ቴ</w>
ተቅ ዪ
ተም ኔ</w>
ተም ኔ
ተ ካ
ብ ዴ</w>
ብ ሂ
ባ ትከ</w>
ባ ሪ</w>
በር መ</w>
በ ተኒ</w>
በ ሽ</w>
በ ሮም</w>
በ ሬ</w>
በ ሀ</w>
ቐ </w>
ቅ ብላ
ቂ ቅ</w>
ቁ ኒ</w>
ቀድ ሩ</w>
ቀ ዳም
ቀ ያ
ቀ ወ</w>
ቀ ትመ</w>
ሽ ንግ
ሽ ቃ
ሽ ሩ</w>
ሽ ማ
ሻ ር</w>
ሹ ር</w>
ሸን ሀ
ሸር ሕ</w>
ሸ ይ
ሸ በ</w>
ሶ ተ</w>
ስት ህል</w>
ስ ፒ
ስ በ</w>
ሴ ኮ</w>
ሴ ቱ</w>
ሴ መ</w>
ሱ ለ</w>
ሰር ነ</w>
ሰል ጠ
ሰ ጥ
ሰ ክብ</w>
ሰ ህ
ርኤ ነ</w>
ር ህ</w>
ሬ ተ</w>
ሬ ቡ</w>
ራይ ድ</w>
ራ ጅ</w>
ራ ዕ</w>
ራ ራ</w>
ራ ማ</w>
ሪ ና</w>
ሪ ለ</w>
ሩ ት</w>
ረክ በ</w>
ረሰ ዐ</w>
ረ ቢ</w>
ረ ራ</w>
ረ መት</w>
ረ ሖ</w>
ም ጥ</w>
ም ድር</w>
ም ቶ</w>
ም ለዐ
ማ ትነ</w>
ማ ትመ</w>
ማ ተን</w>
ማ ሌ
ሚ ም</w>
ሙ ዚ
መዐ ከ</w>
መት ፈን
መት ቃ
መት ሀ
መሽ ግ</w>
መል ክ</w>
መ ህ</w>
ሕ ቅ
ሕ መ
ሓም ድ</w>
ሐድ ር</w>
ሐም ዴ
ልው ሕ
ልት ከረ
ል ፈ</w>
ል ደር
ል ይ</w>
ል በት</w>
ል ሓ
ላ ሴ</w>
ሊ ደ
ሊ ተ</w>
ለአት ዳ
ለአት በገ
ለአ ጽበ
ለአ ካ
ለነ ቅ
ለት ወቀ
ለት አት
ለተ ሐረ
ለብ እ
ለም ጽ
ለመ ው
ለልት ፈረ
ለልት ጋ
ለል ብ
ለሀ ድ
ለሀ ደግ
ለ ፎ</w>
ለ ጻብ
ለ ዋል
ለ ኮ</w>
ለ ቢ
ለ ሖ
ሃገ ው</w>
ሀ ዴ</w>
ሀ ርበ
ሀ ረሰ
ሀ ሎ</w>
ፕሮ ፌ
ፍህ መ</w>
ፍ ግ</w>
ፍ ዮ
ፍ ያይ</w>
ፍ ዛ
ፍ ቲ
ፍ ሽ</w>
ፊ ክ</w>
ፉ ቱ</w>
ፈደ ራ
ፈር ር</w>
ፈ ጀ
ፈ ዋ
ፈ ሲ
ጽ ባ
ጽ ሐት</w>
ጼ ዕ</w>
ጹ እ</w>
ጸ ግብ</w>
ጸ ቱ</w>
ጸ ቢ
ጫ ቅ
ጥ የት</w>
ጣ መ</w>
ጠር ኮ</w>
ጠ ፍ</w>
ጠ ፈ
ጠ ዋ
ግር ግ</w>
ግ ፍ</w>
ግ ንዳ
ግ ሞ</w>
ጋ ንሐ
ገብ ር
ገር ከ</w>
ገር ሀ
ገ ሜ
ጄ ራ
ድ ዕ</w>
ድ መ
ዴ ር</w>
ዲ ም</w>
ዱ ዱ</w>
ደግ ም</w>
ደረ የ</w>
ደ ፈ</w>
ደ ሌ</w>
ደ ላ
ደ ሊ</w>
ደ ሉ</w>
ዮ ትመ</w>
ይ ዱ</w>
ይ ሓ
የት ዬ</w>
የ ው
የ አስ
ዥ ን</w>
ዛ ብ</w>
ዘ ዉ</w>
ዘ ከረ</w>
ዘ ል
ዕ ዱ
ዕ ኪ</w>
ዕ ንክ
ዓ ያ
ዑ ቱ</w>
ዐጀ ብ</w>
ዐል ም</w>
ዐ ወ
ዐ ሬ</w>
ው ስ
ው ሕ</w>
ዌ ቱ</w>
ዋጥ ን</w>
ዋ ጀሀ
ወጠ ቢ
ወጀ ዋ
ወዐ ቅ
ወክ ድ</w>
ወኢ ሐ
ወአ ጽ
ወአ ብዕ
ወት ከ</w>
ወተ ዓ
ወሳ ም
ወመ ልህ
ወሕ ሳ
ወልት ሳ
ወል ዳ
ወል ባ
ወል ር
ወለ ገ
ወለ ተአት
ወ ፓ
ወ ወሰ
ወ ክም
ክር ነ</w>
ክም ሰ
ክል ነ</w>
ክ ሁ</w>
ኬ ሕ</w>
ካ ፒ
ካ ቲ
ኪ ር
ኩ ረ</w>
ከም ክ
ከ ፈ</w>
ከ ጣ
ከ ደም
ከ ንት
ከ ስተ
እን ታ
እት ጅ
እስ ት
እር ትር
እ ኒ</w>
እ ም</w>
እ ሉ
ኤ ከ</w>
ኣ ባ
ኢት ፍ
ኢት ነ
ኢት ሰአ
ኢት ም
ኢት ሓ
ኢቀ ድረ
ኢል ፍ
ኢል ው
ኢ ከስ
ኢ ና
ኢ ም
ኢ ለሓ
አፍ ሸ
አድ መ
አው መ</w>
አን ሳ
አቶ ብ
አት ሐረ
አት ሃ
አተ ንፈ
አብ ለዐ
አስ ተስ
አር ዛ
አር አ
አም ሰል
አል ሐም
አ ደር
አ ተን</w>
ኖ ን</w>
ን ደር
ን ካ
ን ሲ</w>
ና ድ</w>
ና ዲ</w>
ነፍ ዕ</w>
ቶ ር
ቶ ምተ</w>
ትፋ ጠ
ትት ፈረ
ትት ራ
ትት መ
ትት ሀየ
ትቀ የ
ትመ ዕ</w>
ት ጠል
ት የት</w>
ት ወጅ
ት ክረ
ት ሪ</w>
ት ሩ</w>
ት ሉ
ታይ ብ
ታ ዕ
ታ ሪ</w>
ታ ሙ</w>
ቲ ክስ</w>
ተ ዛ
ተ ከት</w>
ተ ቶም</w>
ተ ታ</w>
ተ ተት</w>
ቪ ን</w>
ብዕ ት</w>
ብሪ ጣ
ብረ ነ</w>
ብለ ነ</w>
ብ ጥ
ብ ጉ
ብ ዞ
ብ ዒ
ባ ካ
ባ ትመ</w>
ባ ራ</w>
በሀ ት</w>
በሀ ል
በ የን</w>
በ ዐት</w>
በ ዋ
በ ቦ</w>
ቆ ቀ
ቅ በት</w>
ቄ ነ</w>
ቃ ዶ
ቃ ርብ</w>
ቂ ን</w>
ቀብ ሎ</w>
ቀ ሊ
ሸክ ክ</w>
ሸር ሐ</w>
ሸ ይ</w>
ሸ ክ</w>
ሸ ኒ</w>
ሸ ሃ
ስም ዒ
ስ ፖ
ስ ጁ
ስ ናሁ</w>
ስ ኒ</w>
ስ ቅራ
ስ ለ
ሱ ሉ</w>
ሰኣ ል</w>
ሰመ ዐ</w>
ሰ ፈር
ሰ ጋ
ሰ ዳይ
ሰ የ
ሰ ኖ
ሰ ቡ
ሰ መዕ
ሮ ትመ</w>
ሮ ሁ</w>
ርእ ዉ</w>
ርኤ ቱ</w>
ር ከት</w>
ር ከብ
ር ሰ</w>
ራቅ ብ</w>
ራ ትለ</w>
ራ ቢ
ሪ ሪ</w>
ረብ ከ</w>
ረበ ዩ</w>
ረ ፈዐ
ሞ ቶም</w>
ምን ገብ
ም ያ</w>
ም ማ</w>
ም ሔር
ም ሉ
ማ ክ
ማ ላ
ማ ለ</w>
ሚ መ</w>
ሙ ሳ
ሙ ር
መድ ህን</w>
መን ፈዐ
መና በረ
መት ና
መስ ለሐ
መሳ ኔ</w>
መሳ ኒ
መሕ በር
መ ጥ</w>
መ ያሁ</w>
መ ያ</w>
መ አይ
መ ሎ</w>
መ ለሀ
ሕ ጹ
ሕ ም</w>
ሔ ከ</w>
ሓም ድ
ሓ ቅ
ሓ ላ
ሐዝ የ</w>
ሐ ብ</w>
ሐ መደ
ልት ፈን
ልቅ ል</w>
ል ፎ</w>
ል ጭ
ል ንደ
ል ናሁ</w>
ል ቀይ
ል ራ
ላ ከ</w>
ለፈ የ</w>
ለዕ ላ
ለአት ፋር
ለአ ድሕ
ለአ በር
ለነስ አ
ለነ ሽ
ለት ከስ
ለት ከሰ
ለት ቀረ
ለት ር
ለት ሐረ
ለተ ላ
ለሸ ን
ለመ ዩ</w>
ለመ ሻ
ለልት ራ
ለል አም
ለል ታ
ለለ ዓ
ለ ፊ</w>
ለ ጀር
ለ የን</w>
ለ ካር
ለ ሶ
ህ ዶ</w>
ህ ዳይ
ህ ዋ
ሀይ በ</w>
ሀ ዬ</w>
ሀ ረስ
ሀ ሙ</w>
ፍህ ሙ</w>
ፍ ጉ
ፍ ገሪ
ፍ ሮ</w>
ፍ ረት</w>
ፍ ሕ</w>
ፋ ይት</w>
ፈግ ሮ</w>
ፈር ሕ</w>
ፈ ዞ</w>
ፈ ዛ
ፈ ወ</w>
ፈ ታይ
ፈ ሩ
ጻበ ጥ</w>
ጫ ር</w>
ጨ ራ
ጨ ም
ጥ ፍ</w>
ጥ ሕ
ጤ ኒ</w>
ጣ ው
ጠ ወር</w>
ጠ በ</w>
ግዕ ዝ</w>
ግ ዝ</w>
ግ ንሐ
ጌ ጋ
ጌ ን</w>
ጋ ዝ</w>
ጋ ላ
ገብ ር</w>
ገር ነ</w>
ገ ንደ
ገ ራ</w>
ገ ሪ</w>
ጃ ቱ</w>
ጂ ር</w>
ድር ስ</w>
ድ ጉ</w>
ድ ዬ</w>
ድ ሎ</w>
ዲ ር
ዲ ሆም</w>
ደገ ም
ደ ጎ</w>
ደ ዮት</w>
ደ ተን</w>
ደ ለየ</w>
ዮ ኒ</w>
ዮ ትለ</w>
ይ ይ</w>
ይ ክ</w>
ያ ኖ</w>
ዪ ንመ</w>
ዩ ኒ</w>
ዩ ኒ
ዝያ ረት</w>
ዝ ሐ</w>
ዘብ ጠ
ዘ የ
ዘ ዐ
ዘ ሪ
ዕ ዩ</w>
ዕ ናሁ</w>
ዕ ቀ
ዕ ራ
ዕ ረ
ዕ ለት</w>
ዓፍ የት
ዓ ዝ
ዓ ሀ</w>
ዑ ን</w>
ዑ ቅ
ዐ ኩም</w>
ዐ ቤ
ዐ ማር</w>
ዐ ሎ
ው ዑ
ው ተ</w>
ው ስ</w>
ው ሱ
ዌ ከ</w>
ዋል ድ</w>
ዋ ራ</w>
ወጠን ያይ</w>
ወዕ ንታ
ወዓ ይ
ወእ ግ
ወእ ጅትማ
ወእ ር
ወኢ ተሐ
ወኢ መት
ወአ ተላ
ወት ፋ
ወት ብ
ወት ባ
ወት ስ
ወቅ ት</w>
ወሸ ን
ወሐ ረ
ወልት ዓ
ወለ ድ</w>
ወ ጊ
ወ ጆ
ወ ዳ</w>
ወ እ</w>
ወ ስ</w>
ኾ </w>
ኮ ስ</w>
ኮ ምፕ
ኮ ሀን</w>
ክፋ ል
ክል ኦ
ክ ኤል</w>
ክ ናሁ</w>
ክ ለት</w>
ኬ ኮ</w>
ኬ ር
ከር ነ</w>
ከል ሹም</w>
ከ ግ
ከ ኒ
ከ ትለ</w>
ከ ሽ</w>
ከ ሰብ
እንግሊ ዝ
እን ቡ
እን ቅ
እቅ ትሳ
እስ ብዳ
እም ጸ
እ ክል
እ ተሐ
እ ብር
ኣ ረ
ኣ ሀ</w>
ኢት ፋ
ኢት ሀ
ኢ ገበ
ኢ ዳ
ኢ ቤ
ኢ ሰብ
ኢ ሪ
ኢ ማ
ኢ ሕ
ኢ ለትሐ
ኢ ለት
ኡ ዎ</w>
ኡ ከ</w>
አጽ በጠ
አድ ሕ
አዳ ም</w>
አው ኒ</w>
አን ጀ
አን ድ
አት ነ
አተ ክረ
አተ ንሰ
አብዕ ቦ
አብ ራ
አር ፈዐ
አም ዒ
አል ዕ
አ ቴ</w>
አ ተሐ
አ ም</w>
አ ሊ
አ ለት</w>
አ ለም
ንክ ር</w>
ን ጊ</w>
ን ጊ
ን ያም</w>
ን ተብ
ኔ ተ</w>
ናይ ለ</w>
ናስ ብ</w>
ና ዕ</w>
ና ቃ
ኒ ያይ</w>
ነድ ድ</w>
ነብ ረ</w>
ነ ፊ
ነ አር
ነ ነት</w>
ነ ቅ</w>
ትግ ሬ
ትደ ገ
ትዛ ቤ
ትነ ስ
ትሰ ርገ
ትሰ ራ
ትር እ
ትራ ም</w>
ት ራ</w>
ት ለት</w>
ቲ ነ</w>
ቱ ቲ</w>
ተዐ ስ</w>
ተእ ሲ
ተእ ሪ
ተአ ተላ
ተቅ ሪር</w>
ተ ፈ</w>
ተ ሩ</w>
ቫ ል</w>
ብ ያይ</w>
ባ ጡ</w>
ባ ሬ</w>
ቡ ድ</w>
በት ኪ</w>
በል ኮ</w>
በለ ቱ</w>
በ ጭበ
በ በየ</w>
በ ሰ</w>
በ ሕ</w>
ቆ ቱ</w>
ቅ ና</w>
ቅ ላ
ቄ ኒ</w>
ቂ ር</w>
ቀድ ሮ</w>
ቀደ መ</w>
ቀር አ
ቀር ቡ</w>
ቀ ጽ
ሽ ኮ</w>
ሽ ናት</w>
ሼ ክ</w>
ሸ የ
ሸ ብ</w>
ሶ ታት</w>
ስሕ ቅ</w>
ስ ኩ
ስ ስ
ሰል ፍ
ሰ ያ</w>
ሰ ቴ
ሰ ቀ
ርኤ ኒ</w>
ርበ ቱ</w>
ርሕ ም</w>
ር ዕ</w>
ር ሱ
ር ር
ሬ ኪ</w>
ራ ሆም</w>
ሩ ግ</w>
ረከ የ</w>
ረብ ኮ</w>
ሞ ን
ሞ ል
ምዕ ል</w>
ምብ የ</w>
ም ኖ
ም ሽክ
ሜ ካ
ሜ ላ
ማ ታ</w>
ሚ ሊ
ሙ ይ</w>
ሙ እተ
መጽ ኦ</w>
መጽ ኡ</w>
መን በሮ
መት ዋ
መት ኩም</w>
መት ነዛ
መት ቱ</w>
መት መ
መሻ ቂ
መር ነ</w>
መ ፅ
መ ፃ
መ ዖ</w>
መ ብረ
መ በ
መ ቀየ
መ ቀር
መ ሪ</w>
መ ሙ</w>
መ ሕ</w>
መ ሌ
መ ሃጅ
ሕ ጉ
ሕ ሜ
ሓ ፈ
ሓ ይት</w>
ሓ ብ</w>
ሓ ሀ</w>
ሐዝ ዩ</w>
ሐ ፈዝ
ሐ ቶም</w>
ሐ ም</w>
ሐ ሙ
ልፍ ህ
ልብ ሉ
ል ፈር
ል ካር
ል ቦ</w>
ል ሰል
ል ሔ
ላይ ነ</w>
ላይ ለ</w>
ሊ ኮ
ሊ ን
ለእ ብ
ለኢ ረ
ለአ ጠ
ለአ ዘ
ለአ በል
ለት ኪ</w>
ለት በር
ለት ሰአ
ለት ረሰ
ለት ሃ
ለተ ዕ
ለበ ጽ
ለቅ ር
ለቀ ድ
ለቀ ደ
ለመስ ኡ
ለመ ጅ
ለመ ሓ
ለሐ ለፍ
ለልት ና
ለል ተ
ለል ሐድ
ለል ሐር
ለለ ዩ</w>
ለ ጉ
ለ ዶ</w>
ለ ዋጅ
ለ ቨ
ለ ቦም</w>
ለ ሮ
ህ ዬ</w>
ህ ብ</w>
ሃገ ዩ</w>
ሃገ የ</w>
ሃጀ ክ</w>
ሂ ር</w>
ሀም ም</w>
ሀ ዮም</w>
ሀ ቤ
ፍዕ ት</w>
ፋ ረ</w>
ፉ ኒ</w>
ፈን ቴ
ፈ ግር
ፈ ራ</w>
ፀ ት</w>
ፀ ር</w>
ጻ ም</w>
ጸ ሕ
ጡ ን</w>
ጠ ዕ</w>
ጠ ኑ</w>
ጐ </w>
ጎ ን</w>
ጎ ል</w>
ግራ ይት</w>
ግ ዘ
ግ እ</w>
ግ ንፍ
ግ ሳ
ጌ ኒ</w>
ጋ ሽ
ጋ ለ</w>
ጊ ን</w>
ገል ጸ
ገ ይ</w>
ገ ንገ
ገ ሕ
ጅ ምዕ
ጅ ህ
ጃ ዜ</w>
ጂ ል</w>
ጁ ም</w>
ጀ ን
ጀ ቱ</w>
ጀ ረ</w>
ዶ ብ</w>
ድ መት</w>
ዳ ያ
ዳ ዌ</w>
ዲ ቪ
ዱ ሩ</w>
ደፈ ዕ</w>
ደገ ም</w>
ደረ ስ</w>
ደ ድ
ደ ያሁ</w>
ደ የ
ደ ዐ
ደ በ</w>
ደ ሎ</w>
ዮ ጵ
ይ ዓ
ይ ሶ</w>
ይ ሐት</w>
ዬ ር</w>
ያ ና</w>
ያ ቡ</w>
ያ ሱ</w>
ዩ ቡ</w>
የ ው</w>
የ ለ</w>
የ ህ
ዞ ቱ</w>
ዝ ቅ</w>
ዜ ቱ</w>
ዛ ም
ዚ ድ</w>
ዘበ ጥ</w>
ዘ ይ</w>
ዕ ፅ
ዕ ንዳ
ዕ ኒ</w>
ዕ ሎ</w>
ዔ ተት</w>
ዓ ታት</w>
ዓ ሰ
ዓ ም
ዑ ቅባ
ዐ ዮም</w>
ዐ በ</w>
ዐ ሌ</w>
ዐ ሌ
ው ኖ</w>
ው ሎ</w>
ዋ ስ</w>
ዋ ም</w>
ዋ ሉ</w>
ዉ ድ</w>
ወከ ረ
ወእ ዳ
ወኢ ን
ወአት ፋ
ወአ ይ
ወነ ፍ
ወነ የ</w>
ወት ትረ
ወበ ራ
ወቅ ል</w>
ወር ኮ</w>
ወመ ደ
ወመ ንደ
ወመ ላ
ወለ ሳ
ወለ ለሐ
ወ ጄ
ወ ዊ
ወ ወጅ
ወ ቪ
ወ ሎ</w>
ወ ሀይ
ኺ </w>
ኮ ሌ
ክረ ን</w>
ክም ሰል</w>
ክል ኤ</w>
ክል ኤ
ክል ኢ
ክ ና
ክ ቴ
ክ ቦም</w>
ክ ምስ
ኩ ል
ከ ዲ
ከ ኮ</w>
ከ ተአ
ከ ቤ
ከ ሩ
እት ጃ
እ ድ</w>
እ ዝ</w>
እ ካ
እ ተአ
እ ስ</w>
እ ረ
ኤ ክ
ኤ ሪ
ኣም ረ
ኣ ድም
ኣ ው</w>
ኣ ቅ
ኢት ዋ
ኢል እ
ኢ ንግ
ኢ ን</w>
ኢ ባ
ኢ በር
ኡ ስታ
ኡ መ</w>
አፍ ህ
አጽ ብ
አጽ በጥ
አዳ ሌ
አደ ቀ
አክ ራ
አክ ል
አን ፋር</w>
አን ጸ
አን ስ
አትና የ
አትሐ ደ
አት ዐረ
አተ ፈ
አተ ኒ</w>
አብ ጠር
አም ዕል</w>
አም ሮም</w>
አመ ን</w>
አሕ መድ
አል ቃ
አ ወለ
አ ለበ
ኖ ሎጂ</w>
ንገ ለ</w>
ንድ ር</w>
ንቅጠ ት
ን ደት</w>
ን ዋይ
ን ኩ
ን ማ</w>
ና ሕ</w>
ኒ ከ</w>
ነፈ ር</w>
ነ ዲ
ነ አግ
ነ ብረ
ቶ ኮ
ትከ ብ
ትከ ማ
ት ፍ</w>
ት ጻገ
ት ናተ</w>
ት ተብ
ት ሃ
ታ ዮም</w>
ታ ዊ</w>
ታ ኬ
ታ ታት</w>
ቲ ተ</w>
ቱ ቡ</w>
ተአት ሐ
ተአ ገ
ተአ ዘ
ተን ዚ
ተም ት
ተም ሲ
ተሓ በረ
ተ ጃር
ተ ከል
ተ እ</w>
ተ ለት</w>
ቬ </w>
ብር ጌ
ብር ዬ</w>
ብር ከ</w>
ብለ ከ</w>
ብ ጽሐ
ብ ዮ</w>
ብ ቅ</w>
ባይ ለ</w>
ባ ት
ባ ረ
ባ ሕ</w>
ቢ ለ</w>
በዝ ሕ</w>
በርና ምጅ
በል ብል</w>
በ ደ</w>
በ ትከ
በ ቡ</w>
በ ስ</w>
ቅር ብ</w>
ቃ ድር</w>
ቃ ይት</w>
ቃ ተ</w>
ቃ ር</w>
ቂ ብ</w>
ቁ ቡ</w>
ቀ ቼ</w>
ቀ ሳ
ሽ ብ
ሽ ሮ</w>
ሽ ረት</w>
ሼ ት</w>
ሻ ዕ
ሸነ ሀ</w>
ሸቅ ዩ</w>
ስታ ቲ
ስ ፋ
ስ ግ
ስ ድ</w>
ስ ዩ</w>
ስ ቅ
ሳ ለ</w>
ሲ ና
ሰፍሐ ት
ሰፍ ሬ</w>
ሰና ል</w>
ሰት ር</w>
ሰርገ ል</w>
ሰመ ዕ</w>
ሰ ቦ</w>
ሮ ብ</w>
ርእ ዮ</w>
ርሕ ዉ</w>
ራይ ለ</w>
ራ ተን</w>
ሪ ም
ሩ ሽ</w>
ረፍ ዕ</w>
ረት ዕ</w>
ረስ ዑ</w>
ረ ረ
ምው ዳ
ምስ ተቅ
ምል ሃ
ም ጅ</w>
ም ዝ
ም ኽ
ም ተሐ
ም ሁ
ሜ ርሐ
ማይ ም</w>
ማ ጸ
ማ ድድ</w>
ማ ራ</w>
ማ ሉ</w>
ሚ ድ</w>
ሚ ላ
መፋ ሀ
መድረ ሰት</w>
መው ነ</w>
መት ዬ</w>
መር ሕ</w>
መረ ዩ</w>
መሓ መድ
መል ሀይ
መ ደው</w>
መ ና</w>
መ ሽ</w>
መ ሞ</w>
መ ሐረ
ሓ ዩ</w>
ሓ ልፈ
ሐብ ሬ
ሐር ብ
ሐ ቴ</w>
ሐ ቃይ
ሐ ቂ
ሐ ሬ</w>
ሎ ሀ</w>
ልት ወሰ
ልት ሰለ
ልባ ብ</w>
ል ዓ
ል ወስ
ል ተር
ል ቀር
ል ሙ</w>
ሌ ስ</w>
ሌ ል</w>
ላ ቅ
ሊ ድ</w>
ሉ ፉ</w>
ሉ ለ</w>
ለከ ትበ
ለኢ ተአት
ለአስተ ብ
ለአ ና
ለተ ነ</w>
ለበ ይ
ለሳ ድ
ለሰ ድ
ለሰ ው</w>
ለረ ፍዐ
ለሓ ለፈ
ለልት ከበ
ለ ገ</w>
ለ ይት</w>
ለ ዑ
ለ ወጀ
ለ ወለ
ለ ቶ
ለ ታት</w>
ለ ቁ
ህ ዝ</w>
ሂ ም
ሁ ይ</w>
ሀይ ቦም</w>
ሀ ትከ</w>
ሀ ሉ</w>
ፖር ቲ
ፕ ራ
ፒ ክ</w>
ፐ ሬ
ፎ ነ</w>
ፎ ታት</w>
ፍን ቱ
ፍ ኑ
ፌ ቱ</w>
ፋር ስ</w>
ፋ ሕ</w>
ፉ ል</w>
ፈቅ ድ</w>
ፈር ሀ</w>
ፈረ ግ
ፈረ ር</w>
ፈ ፍ
ፈ ና</w>
ፈ ቲ
ፈ ቃ
ጽ ንሐ
ጼ ነ</w>
ጸን ሑ</w>
ጸብ ጡ</w>
ጸ ኔሕ</w>
ጸ ነሐ
ጭ ቅ
ጥ ቅ</w>
ጡ ይ</w>
ጠቢ ዐ
ጠ እ</w>
ጠ ራ
ጠ ላ
ጠ ለ</w>
ጎ ይ
ጎ ስ</w>
ግ ዴ
ግ የት</w>
ግ ዛ
ግ ው
ግ ሬ</w>
ግ ሎ</w>
ጋ ሜ</w>
ገ ፍ
ገ ገ</w>
ገ ሮት</w>
ገ ሎ</w>
ጅ ዋ
ጅ ነ</w>
ጅ ነ
ጃር ዲ
ጃ ግ
ጃ ረት</w>
ጀ ረት</w>
ጀ ሃ
ዶ ረ</w>
ድረ ቱ</w>
ድ ዋር
ዴ ሽ</w>
ዴ ል</w>
ዲ ል</w>
ዱ ረ</w>
ደፍ ዕ</w>
ደገ ው</w>
ደንግ ጽ</w>
ደበ እ</w>
ደቀ ብ</w>
ደረ ከ</w>
ደረ ስ
ደ ጊ
ደ ዎም</w>
ደ ዎ</w>
ደ ንከ
ደ ታ</w>
ደ ብረ
ደ ሜዕ</w>
ደ ሐረ
ደ ሊ
ይ አቅ
ይ ሽ</w>
ያ ዩ</w>
ያ ቼ</w>
ያ ታ</w>
ያ ር
ያ ሕ</w>
ዩ ደ</w>
የ መት</w>
ዝ ዖ
ዝ ና
ዝ ሩ
ዝ ረ
ዝ መት</w>
ዝ ሑ</w>
ዜ መ</w>
ዛ ር
ዘር እ</w>
ዘ ዐ</w>
ዕ ጥ
ዕ ቆ
ዕ ሮ
ዕ ረ</w>
ዔ ኮ</w>
ዔ ቅ
ዓ ድ</w>
ዑ ድ</w>
ዑ መር
ዑ መ</w>
ዐብ ደለ</w>
ዐስ ከር
ዐለ መ</w>
ዐ ደ</w>
ዐ የት</w>
ዎ ሮ</w>
ው ዳ
ው ካ
ዋጅ ህ</w>
ዋ ክ</w>
ወገ ረ
ወደ ም
ወዐ ዳ
ወከ ባ
ወአ ድረ
ወነ አት
ወት ዳ
ወት ዋ
ወት መ
ወት ሕ
ወተ የ</w>
ወተ ሕ
ወቀ ዋ
ወሸ ር
ወሰ ይ
ወሰ ከ
ወር ዝ
ወር ኬ</w>
ወር ሱ</w>
ወመ ሽ
ወሐ ይ
ወል ዱ</w>
ወል ደ</w>
ወለ ተ
ወ ወዴ
ወ ወለ
ኽ ን</w>
ኮ ካ</w>
ኮ ታት</w>
ኮ ብ</w>
ኮ ቡ</w>
ኮ ማ
ክል ኦት</w>
ክ ያይ</w>
ክ ሎም</w>
ካ ፍ</w>
ካ ረ</w>
ኪ ቶ</w>
ኩ ሩ
ኩ ሞም</w>
ኩ ሞ</w>
ከ ዓ
ከ ትነ</w>
ከ ተዐ
ከ ሻ
ከ ሪ</w>
እን ቤ
እስ ትስ
እስ ራ
እም ትሓ
እ ገር
እ ናስ
እ ነስ
ኣ ከ
ኢን ሕ
ኢት ው
ኢልት ቀ
ኢል ሽ
ኢ ፍ
ኢ ኮ
ኢ ነ</w>
ኢ ስ</w>
ኢ ራ
ኢ ሞ
አድ ጋ
አየ ስ</w>
አው ቶ
አት ለ</w>
አት ሀመ
አተላ ሌ
አተ ረ
አብ ጠ
አቀ ብል</w>
አስ ክ
አሰ ፍ</w>
አለ ህ</w>
አ የን</w>
አ ከበ
አ ከር
አ ቼ</w>
አ ሎ</w>
ኖ መ</w>
ንድ ቅ</w>
ንከ ር</w>
ንት ዩ</w>
ንት ራ
ንቀ ልቀ
ን ጻ
ን ገ</w>
ን ታ</w>
ነዝ ም</w>
ነብ ሩ</w>
ነ ን
ነ ቀም
ኋ </w>
ኅ </w>
ቻ ር
ትጸ ገ
ትነ ፍ
ትት ሃ
ትበ አሰ
ትመ ሀ
ትልህ ያ
ት ጫ
ት ጋብ
ት ቀድ
ት ሀየ
ቴ ባይ</w>
ቴ ለ</w>
ታት ና</w>
ታ ክ</w>
ታ ኒ</w>
ታ ትኪ</w>
ታ ትቱ</w>
ታ ለ</w>
ቲ ም</w>
ተው ኒ</w>
ተአት ቃ
ተአ ዳ
ተአ ዝ
ተአ ስትህ
ተማ ዕ</w>
ተሐ ሰበ
ቫ ል
ቪ ል</w>
ብራ ጦ
ብ ፅ
ብ ያን</w>
ብ ዖ</w>
ብ ናሁ</w>
ብ ናሀ</w>
ብ ሶ
ብ ራይ
ብ ሪ</w>
ባል ስ</w>
ባ ቡ
ቢ እ</w>
ቡ ሽ</w>
ቡ ሳት</w>
በጽ ሕ
በዲ ር
በል ዑ</w>
በል ሰ
በ ጥር</w>
በ ካ</w>
በ አስ
በ ኔ
በ ነ
በ ሪ</w>
ቅ ደ
ቅ ይ
ቅ ሰ
ቅ ሮ</w>
ቄ ቱ</w>
ቃ ወመ
ቃ ስ</w>
ቃ ለ</w>
ቀድር ኒ</w>
ቀን ጽ</w>
ሽ ግ
ሽ ድ</w>
ሽ ቁ
ሽ ረ
ሻፍ ግ</w>
ሻ ይት</w>
ሸ ጥ
ሸ ባብ</w>
ሸ ላ
ሸ ሀ
ስተ ቅ
ስ ፐ
ስ ሰ
ስ ሩ</w>
ስ ሩ
ስ ሉ</w>
ሲ ቶም</w>
ሲ ለ</w>
ሲ ሁ</w>
ሱ እ</w>
ሰፍ ለል</w>
ሰፍ ለለ
ሰር ከ</w>
ሰ ንት
ሰ ቅ
ሰ ቃ
ሰ ሪ
ርሕ ወ</w>
ርሐ የ</w>
ር ሱ</w>
ራ የ</w>
ራ ሽ</w>
ሪ የ</w>
ሩ ሰ</w>
ሩ ህ</w>
ረፈ ዕ</w>
ረክ ቡ</w>
ረከ በ</w>
ረአ ይ
ረሐ ነ</w>
ረ ገት</w>
ረ ቦ</w>
ረ ሮ</w>
ሠ ሠ
ሞ ስ</w>
ምጽ እ</w>
ምን ለዐ
ምስ ዳ
ምህ ሮ
ማ ኒ
ማ ነት</w>
ማ ሩ</w>
ሚ ኢ
ሚ ናት</w>
ሚ ቶ</w>
ሚ ር
ሙስተ ቅ
ሙ ተ</w>
መጽ ጽ</w>
መዐ ን</w>
መን ት</w>
መን በረ
መና ድ
መት ገ
መት ዘ
መት ወላ
መት ከም
መት ላ
መብ ደ
መስ ሉ</w>
መሰ ኡ
መርከ ዝ</w>
መ ፀ
መ የን</w>
መ ኽ
መ ኪ</w>
መ እ</w>
መ ኒ
መ ሩ</w>
መ ሞት</w>
ሕ ፊ</w>
ሓ የ</w>
ሓ ዚ
ሓ ሙ</w>
ሒ ቱ</w>
ሐስ ብ</w>
ሐር ክ</w>
ሐር ቅ</w>
ሐ ጻ
ሐ ድረ
ሐ ወ
ሐ ሺ
ሎ ለ</w>
ልት ነፍ
ል ጨ
ል ጥ</w>
ል ጌ
ል ድሕ
ል ዮም</w>
ል ያን</w>
ል ዪን</w>
ል ወጅ
ል ንሰ
ል ተብ
ል ቫ
ል ስተ
ል ርእ
ል ሒ
ል ሑ</w>
ል ልት
ሌ ም</w>
ላን ደ</w>
ሊ ግ
ሊ በ
ሊ ሉ</w>
ለዓ ር
ለዐ ዝ
ለዐ ከ</w>
ለዐ ት</w>
ለከ ፍ</w>
ለከ ረ
ለኢ ለሀ
ለአፍ ገር
ለአት ፋግ
ለአት ዕ
ለአር ፈዐ
ለአ ድር
ለአ ከ</w>
ለአ ንገ
ለአ ንድ
ለአ ንብ
ለአ ባ
ለአ ስት
ለትፈ ናተ</w>
ለት ፈት
ለት ጻ
ለት ከር
ለት አከ
ለት ቼ</w>
ለት ብ
ለት ሰር
ለት መሳ
ለተ አትሐ
ለተ ትሐ
ለተ ት
ለተ ቅ
ለብ ዕ
ለበ የ</w>
ለቀ ት
ለቀ ረ
ለሰ ክ
ለሰ ሜ
ለም ግ
ለመ ድ</w>
ለመ ክ
ለመ ሽ
ለልት ከ
ለለአ ፈ
ለ ፌ
ለ ዳገ
ለ ያሀ</w>
ለ ወራ
ለ ቦት</w>
ለ ባ</w>
ለ ሹ
ለ ሠ
ለ ሃይ
ሆ ይ</w>
ህ ጽ</w>
ህ በ
ሄ ከ</w>
ሄ ራር</w>
ሃብ ተ
ሁ ማ</w>
ሀመ ል</w>
ሀ ደፍ
ሀ ሚ
ፖ ታ
ፖ ል</w>
ፕ ሬ
ፔ ር
ፍ ዝ
ፍ ኪ</w>
ፌ ኮ</w>
ፋ ጅ
ፋ ሙ</w>
ፊ ቱ</w>
ፈቴ ከ</w>
ፈር ኮ</w>
ፈ ጊ
ፈ ይ</w>
ፈ ዘት</w>
ፈ ዐት</w>
ጽ ሖ</w>
ጻብ ጡ</w>
ጸ ፈ</w>
ጸ ር</w>
ጭ ሮ
ጨ የ</w>
ጠል ቅ</w>
ጠ ትለ</w>
ጠ ም</w>
ጠ ሊ
ጠ ለቅ
ግራ ፍ</w>
ግ ንደ
ግ ቡ
ጌ ከ</w>
ጋ ነ</w>
ጋ ብር</w>
ጋ ላ</w>
ገይ ሰ</w>
ገር ግሽ</w>
ገ ቶም</w>
ገ ሰው</w>
ገ ለት</w>
ጃ ጅ</w>
ጃ ም</w>
ጃ ል</w>
ጂ ብ</w>
ጀር ቤ
ጀ የ</w>
ጀ ዐ</w>
ጀ ራይ
ጀ ረበ
ጀ ህ</w>
ዶ ር
ዶ ሁ</w>
ድ ዶ</w>
ዴ ለ</w>
ዴ ሁ</w>
ዳ ሚ
ዳ ሆም</w>
ዱ ደ</w>
ዱ ከ</w>
ዱ ብ</w>
ደው ነ</w>
ደብ አ
ደር ሶም</w>
ደር ር</w>
ደ ኪ</w>
ደ ቼ</w>
ደ ቀት</w>
ዮ ትነ</w>
ይ አግ
ይ ታ</w>
ይ ህሌ
ዬ ነ</w>
ያ ረት</w>
ዩ ሱ</w>
ዩ ሕ</w>
የ ደት</w>
የ የ</w>
የ ንቱ</w>
የ ኒ</w>
የ ነት</w>
የ ታ</w>
የ ማ
የ ል
ዝ ጊ
ዜ ር
ዛይ ድ
ዛ ነ</w>
ዚ ዝ</w>
ዘ መ</w>
ዕ ሽ
ዔ ቱ</w>
ዐገ ል</w>
ዐ ጣ
ዐ ገብ
ዐ ዴ
ዐ ይ</w>
ዐ ላ</w>
ዐ ለው</w>
ውላ ድ</w>
ው ደ</w>
ዌ ኮ</w>
ዋ ጅ</w>
ዋ ይን</w>
ዋ ሪ</w>
ወጠ ን</w>
ወገ ሮ
ወጀ ር
ወደ ግ
ወዕ ያ
ወዕ ር
ወዓ ዳ
ወዐ ር
ወክ ል</w>
ወእ ተ
ወኢ ንት
ወአ ዋል
ወአ ተ
ወነ ሐ
ወት ገ
ወት ጃ
ወት ጀ
ወት ዘ
ወሰ ም
ወር ሕ
ወም ር
ወመት ባ
ወመ ንፈ
ወሕ ው
ወሐ </w>
ወልት ፈ
ወልት ባ
ወልት ሐ
ወለአ ስተ
ወለ ጠ
ወለ ክ
ወ ዱ</w>
ወ ዮት</w>
ወ ወቅ
ወ ወቀ
ወ ወስ
ወ ቦር
ኮ ሮ
ኮ ሃ</w>
ክ ሕድ</w>
ካል ኣይ
ካ ና
ካ ትመ</w>
ካ ቫ
ካ ሽ
ካ ህ</w>
ኪ ድ
ኪ ን
ኩ ፍ</w>
ኩ መት</w>
ከብ ኮ</w>
ከረ ቱ</w>
ከም ክም</w>
ከም ከም</w>
ከል ፍ
ከላ ሺ
ከለ ው</w>
ከለ ቅ</w>
ከለ ስ</w>
ከ እ</w>
ከ ትት
ከ ትረ
ከ በር
ከ ምን
ከ መን
ከ ለም
እብ ለ
እሽ ትራ
እስ ቲ
እስ ብ
እም ቤ
እ ዕላ
እ ው</w>
እ ቶ
እ ሸ</w>
እ ሶ
እ ሉ</w>
ኣት ዩ</w>
ኣ ኬ</w>
ኣ ንድ
ኣ ነ
ኣ መረ</w>
ኢነ ድ
ኢት ጽ
ኢት አብ
ኢት ነፈ
ኢልት ባ
ኢለአ ብ
ኢ ፈረ
ኢ ጌ
ኢ ቶም</w>
ኡ ወ</w>
አፍ የ
አፍ ሀም
አግ ቡ
አግ መ
አጅ ያ
አው ሐ
አክ ም</w>
አን ፋ
አት ፈረ
አት ረፈ
አብ ጠረ
አቅ ረ
አሰ ር
አር ተዐ
አላ ህ</w>
አ ር</w>
አ ሎ
ኗ </w>
ንት ና
ንት ረ
ን ዴ</w>
ን ዘ
ናይ ተ</w>
ና ና</w>
ኒ ሀ</w>
ነድ ፍ</w>
ነ ይት</w>
ነ ዓ
ነ ዊ
ቶ ሁ</w>
ትዘ ከር
ትከ ት</w>
ትሸ ር
ትራ ንስ
ት ዘር
ት ወደ
ት አርቡዕ</w>
ት ነት</w>
ቴ ን
ቴ ና</w>
ቴ ብ</w>
ታ ሪክ
ታ ሕ
ታ ሀ</w>
ቲ ቭ</w>
ቱ ር
ተዐ ይ
ተአ ጀ
ተአ ተር
ተአ ቀ
ተአ ሽ
ተን ከብ</w>
ተረ ድ</w>
ተም ትም</w>
ተለ ፎ
ተ ድሪ
ተ ሊ
ተ ሉ</w>
ተ ለፍ
ቦ ሕ</w>
ብ ጠት</w>
ቤ ኪ</w>
ቤ ን</w>
ባይ ን</w>
ባ ባ</w>
ባ በት</w>
ባ ራት</w>
ቢ ኒ</w>
በጽ ሖ</w>
በጸ ሐ</w>
በጠ ው</w>
በድ ል</w>
በይ ነ</w>
በል ዐ</w>
በል ከ</w>
በ ጋ
በ ዴ
በ ዮት</w>
በ ኦ</w>
በ አሰ
በ በው</w>
በ ቅ</w>
በ ሬ
ቅራጥ የት</w>
ቅ ዋ
ቅ ኩም</w>
ቅ ታ
ቅ ቡ
ቅ ሰት</w>
ቃ ን</w>
ቁ መ</w>
ቀይ ር</w>
ቀ ዴ
ቀ ያ</w>
ቀ ቀት</w>
ሽ ሕ
ሽ ሃ
ሻቀ ዪ
ሻ ው
ሻ ቱ</w>
ሸ ግ</w>
ሸ ሸ
ሸ ራ</w>
ሸ መት</w>
ሶ ቶም</w>
ስ ፕ
ስ ቴ</w>
ስ ሊ
ሳይ ር</w>
ሳይ ለ</w>
ሳው ዝ
ሳ ድ</w>
ሳ ትመ</w>
ሳ ሀ</w>
ሲ ነ
ሲ ቲ
ሰር ጌ</w>
ሰል ም</w>
ሰ ውረ
ሰ ክ</w>
ሰ ኪ
ሰ አን
ሰ ትቱ</w>
ሰ ባት</w>
ሰ ሳ</w>
ሰ ሬ
ሰ ሕ</w>
ሰ ለም
ሯ </w>
ሮ ር</w>
ርሕ ብ</w>
ርሐ ዩ</w>
ር ሶ</w>
ሬ ኩም</w>
ራይ ቱ</w>
ራ ትነ</w>
ሪ ይ</w>
ሪ ትመ</w>
ሪ ረ</w>
ሪ ህ</w>
ረፍ ኮ</w>
ረአ ዩ</w>
ረ ይት</w>
ሞ ዕ</w>
ሞ ተት</w>
ሞ ላ
ምን ገ
ም ዒ
ም ክራ
ም እ</w>
ም ሔ
ሜ ል</w>
ማይ ለ</w>
ማው ዝ</w>
ማን መ</w>
ማ ሪ</w>
ማ ሊ
ሚካ ኤል
ሚ ሩ</w>
ሙ ኒ
ሙ ባ
ሙ ማም</w>
መዲ ነት</w>
መዐ ል
መሰ ጅ
መር ኮ</w>
መል ሀ
መሀ ረ
መ ጤ
መ ጢ
መ ኢፋ
መ ኑ</w>
መ ነት</w>
መ ቶ</w>
መ ተርጅ
መ ተር
ሕ በር</w>
ሕ ቅ</w>
ሑ ስ</w>
ሐዝ ዮም</w>
ሐስ በ</w>
ሐ ጺ
ሐ ንበ
ሐ በ</w>
ሎ ኒ</w>
ሎ ነ</w>
ሎ ትለ</w>
ልት ወጀ
ልት በረ
ልብ ለ
ልሕ ረ
ል ጻ
ል ጋብ
ል ድረ
ል ደው
ል ዩ
ል የተ</w>
ል ዑ</w>
ል ኣ
ል ንፈ
ል ንቀ
ል ኒ</w>
ል ሰአ
ል ሐት</w>
ሌ ት
ላ ጥ</w>
ላ ቡ</w>
ሊ ፍ</w>
ሉ ፍ</w>
ሉ ፈ</w>
ለፈ ና
ለገብ አ</w>
ለዐ ለ</w>
ለው ላ
ለከ ም
ለከ ልቀ
ለኢ ተ
ለኢ ለአም
ለአፍ ገረ
ለአፍ ህ
ለአ ቀብ
ለአ ሻ
ለአ ሌ
ለት ደር
ለት ትፈ
ለት ቀር
ለት ማ
ለት መር
ለት መል
ለታ ር
ለቀ የ
ለመ ጸአ
ለሕ ር
ለሓ ይ
ለሐ ቅ
ለል ተብ
ለል ሐብ
ለለአ ም
ለህ ይ
ለሀ ቤ
ለ ፉ</w>
ለ ጾ
ለ ጊ
ለ ናስ
ለ ኑ
ለ ሉ
ለ ሄረ
ህ ዝ
ህ ቱ
ህ ሠ
ህ ለው</w>
ሃ ንስ
ሃ ል
ሂ ሞ
ሀደ ግ</w>
ሀ ለት</w>
ፍዐ ቱ</w>
ፍ ክረ
ፍ ሮ
ፍ ሬ</w>
ፋቅ ድ</w>
ፋ እ</w>
ፋ ን
ፋ ነ</w>
ፊ ሊ
ፈደ ሬ
ፈደ ል</w>
ፈዐ ነ</w>
ፈና ት
ፈና ተው</w>
ፈረ ግ</w>
ፈ ፈ</w>
ፈ ግ</w>
ፈ ደ</w>
ፈ ነ
ፈ ትከ</w>
ፇ </w>
ጽ ከ</w>
ጽ ት</w>
ጻ ር</w>
ጻ ል</w>
ጸብ ሕ</w>
ጸ ጋይ
ጸ ን</w>
ጸ መ</w>
ጨ ብ
ጥ ዕ</w>
ጥ ብ</w>
ጥ ሉ
ጠ ፈ</w>
ጠ ሩ</w>
ጠ መ</w>
ጎ ጌ</w>
ጎ ተ</w>
ግ ፍ
ግ ንድ
ግ ልብ
ጌ ም
ጋ ዕ</w>
ጋ ና</w>
ጋ ረ
ጊ ሰ</w>
ገሮ ብ
ገ ዘ
ገ ዐ</w>
ገ ከ</w>
ገ ማል
ጅ ረ</w>
ጃ ይ
ጀ ደ
ጀ ና
ጀ በ
ጀ ሕ</w>
ጀ ለት</w>
ዶ ትለ</w>
ድረ ሰት</w>
ድ ዩም</w>
ድ ው
ድ ዋራ
ድ ካ</w>
ድ ንግ
ድ ንጋ
ድ ቡ
ዴ ሽ
ዳይ ቱ</w>
ዳ ሩ</w>
ዳ ረ</w>
ዳ ሕ
ዲብ ሎ
ዲ ፍ</w>
ዲ ሩ</w>
ደፈ ን</w>
ደር ነ</w>
ደር ብ</w>
ደ ዐ</w>
ደ ክ
ደ ኩም</w>
ደ ት
ደ ሰ</w>
ደ ላ</w>
ይ ቲ</w>
ዬ ሱስ</w>
ያ ት
ያ ራት</w>
ዩ ተር</w>
የ አም
የ ሱስ</w>
የ ሰት</w>
ዝ ያይ</w>
ዝ ክረ
ዝ ነ
ዛ ና</w>
ዛ ል</w>
ዛ ሁ</w>
ዙ ነ</w>
ዘብ ጥ</w>
ዘ ረእ</w>
ዘ ረ</w>
ዕ ፅ</w>
ዕ ዴ</w>
ዕ ዱ</w>
ዕ ንቅ
ዕ ሮ</w>
ዓ ዝ</w>
ዓ ን</w>
ዓ ኒ</w>
ዓ ስ
ዓ ሲ
ዓ ሙድ
ዓ ሙ</w>
ዓ መ
ዒ ል</w>
ዐ ጸ
ዐ የን</w>
ዐ ስር
ዐ ሪ
ው ዴ
ው ሌ
ዋጥ ኒ
ዋይ ዲ
ዋ ኑ</w>
ዋ ሌ</w>
ወፈ ተ
ወዴ ሕ</w>
ወደ ንገ
ወዓ ፍ
ወዐ ፍ
ወዐ ረ
ወከ ብ
ወእ ጅ
ወአር ወሐ
ወአ ፍረ
ወአ ቦ
ወአ ምዕ
ወት ትከ
ወቀ ደ
ወሽ ዑ
ወሰ ን
ወር ክ
ወራ ታት</w>
ወም ራ
ወመ ዋ
ወሐ ማ
ወል ክ
ወለ ነ
ወለ ሸ
ወለ ረ
ወለ ሐል
ወለ ልትሐ
ወ ጤ
ወ ጠ</w>
ወ ዖ
ወ ዕ</w>
ወ ወጠ
ወ ወዐ
ወ ሾ
ኮ ክም</w>
ኮ ር</w>
ኮ ል
ክሳ ይድ</w>
ክር ቱ</w>
ክ ዝ</w>
ክ ኮ</w>
ክ ምቱ</w>
ኬ ድ
ካይ ም</w>
ካ ትነ</w>
ካ ሽ</w>
ኪ ድ</w>
ከር ብ</w>
ከረ ን</w>
ከ ፈር
ከ ትከ</w>
ከ ትሐ
ከ ሞ</w>
ከ ለል
ኦ ኣ
እጅ ትም
እን ዶ
እን ክ
እን ባ
እን ቀ
እት ፋቅ
እት ሰ
እት ሕ
እት ሊ</w>
እምበ ሌ
እም ተሓ
እም ብ
እ ዳር
ኤለክ ትሮ
ኣይ ሽ</w>
ኣ ኽ
ኣ ነ</w>
ኣ ላት</w>
ኢት ጥ
ኢት ጠ
ኢት ግ
ኢልት ፋ
ኢልት ዓ
ኢለአ ስ
ኢ እት
ኢ ለም
አፍ ላ
አፍ ሀ
አው ረሰ
አክ ወ</w>
አትሳ ጅ
አትሐ ዜ</w>
አት ተ</w>
አተ ዐ
አሽ ከ
አስ ከ
አስ ላ
አሰ ብ
አር እስ
አል ኸ
አ ፎ
አ ያ</w>
አ ኮ
አ ቲ
አ ተአ
ኖስ ኖ
ኖ ክ</w>
ኖ ኬ</w>
ንፍ ስ</w>
ንፈ እ</w>
ንክ ል</w>
ንት ነ
ንት ሳ
ንበ ል</w>
ንሕ ወ</w>
ን ጌ</w>
ን ዩ
ን ዕ</w>
ን ሃ</w>
ኔ ሽ</w>
ኔ ሪ</w>
ናይ ዝ</w>
ና ፈ
ና ገ
ና የ</w>
ና ር
ኒ ካይ</w>
ኑ ከ</w>
ኑ ሕ</w>
ነድ አ
ነሰ እ</w>
ነሐ ኒ</w>
ነ ፈር
ነ ዳ
ነ አል
ነ አ</w>
ነ ትሐ
ነ ሺ
ትፈ ንተ
ትገ ን
ትካ ፈ
ትት ጃ
ትሮ ል</w>
ትረሰ ዕ
ትም ህ
ትመ ቅ
ት ፌ
ት ግረ
ት ጀር
ት ደም
ት ወዘ
ት ንስ
ቴ ኪ</w>
ቴ ቡ</w>
ታር ፌ
ታ ከዩ</w>
ታ እ
ታ ና</w>
ታ በ
ታ ማ</w>
ታ ሚን</w>
ቲ በ
ተዐ ዴ
ተከ ሌ
ተአ ጽ
ተአ ንብ
ተአ ሳ
ተአ ረ
ተር ፈ
ተር ከ</w>
ተሐ ስ
ተሀ ንቀ
ተ ጻ
ተ ዐ</w>
ተ ሪ</w>
ተ ረት</w>
ተ ለው</w>
ቬ ን</w>
ቫ ን</w>
ቫ ር
ቪ ላ</w>
ቦ ን</w>
ብረ ቱ</w>
ብ ጎ
ብ ኒ</w>
ብ ሹ
ቤ ቡ</w>
ቤ ሌ
ባይ ል</w>
ባር ህ</w>
ባል ሐ</w>
ባ ድ</w>
ባ ራ
ባ ሆም</w>
ቢን ያም</w>
ቢ ሉ</w>
በረ ቶም</w>
በል መ</w>
በህ ል</w>
በ ደል
በ ይት</w>
በ ተው</w>
በ ሳ
ቓ </w>
ቆ መ</w>
ቅ ተ</w>
ቅ ሕ</w>
ቃ ቡ</w>
ቃ ሉ</w>
ቂ ቀት</w>
ቁ ር</w>
ቀን ጠ
ቀ መ</w>
ቀ ልብ
ሽ ው
ሽ ኩ
ሽ ነ
ሽ ሂ
ሽ ሀ
ሻር ኮ</w>
ሻምፕ ዮን</w>
ሻምፕ ዮ
ሻ ን
ሻ ታት</w>
ሻ ቅል</w>
ሸ ዕ</w>
ሸ ባብ
ሷ </w>
ሶ ቡ</w>
ሶ ማል
ስእ ል</w>
ስተ ት</w>
ስሕ ብ</w>
ስ ፔ
ስ ዩ
ስ ኤ</w>
ስ ትር
ስ ታይ</w>
ስ ሚ
ስ ለዝ
ሳም ሐ
ሳ ሩ</w>
ሳ ሚ
ሱ ዳን</w>
ሱ ከ</w>
ሰብ ከ</w>
ሰል ነ</w>
ሰ ኪ</w>
ሰ ኩም</w>
ሰ ና</w>
ሰ ሩ</w>
ሰ ሜዕ</w>
ር ካ
ር ባይ</w>
ሬ ታት</w>
ራቅ ቡ</w>
ራ ነ</w>
ራ ሪ</w>
ሩ ዱ</w>
ሩ ሙ</w>
ረፍ ዑ</w>
ረከ ቦ</w>
ረአ ዮም</w>
ረ ዴ</w>
ረ ዪ
ረ ኮ</w>
ረ ኪ
ም ዖም</w>
ም ካ</w>
ም ካ
ም ንት
ም ሓ
ሙ ደርሲ
ሙ ደ</w>
ሙ ዐት</w>
መጅ ተመዕ
መዕ ነው
መዐ የ</w>
መው ዒ
መው ህ
መንገ ፎ
መን ዴ
መትጃ ግረ
መት አ
መስ ከ
መስ ለ
መሐ ል
መ ጋብ
መ ዎ</w>
መ አስ
ሕር የት</w>
ሕ ፈ
ሕ ኑ
ሕ ብረ
ሕ ረት</w>
ሕ መት</w>
ሕ ላይ</w>
ሓል ፈ</w>
ሓ ል</w>
ሓ ሊ
ሐድ ግ</w>
ሐድ ጉ</w>
ሐድ ገ</w>
ሐዜ ኒ</w>
ሐብ ብ</w>
ሐሪ ሽ
ሐረ ግረ
ሐ ጀ
ሐ ይ</w>
ሐ ዞ
ሐ ትለ</w>
ሐ ሰበ
ሐ መት</w>
ሐ መል
ሎ ይ</w>
ልት ዛ
ልት ቀየ
ልት ላከ
ልታ ከ
ል ፋይ</w>
ል ፃ
ል ደም
ል ዖ</w>
ል ዐት</w>
ል ዉ</w>
ል መር
ል ሐ</w>
ላ እ</w>
ላ ታ</w>
ላ ህ
ሊቨር ፑል</w>
ሊ ንግ</w>
ሉ ድ</w>
ሉ በ</w>
ለደ ግ
ለዐ ፍ
ለው ቱ</w>
ለወ ቅ</w>
ለኢልት ሐ
ለኢ ከስ
ለኢ ከ
ለአዳ ሌ
ለአን በት
ለአት ፈ
ለአት መቃ
ለአተ ላል
ለአ ጣ
ለአ ንሰ
ለአ መር
ለነ ዘ
ለነ ክ
ለት ጸበ
ለት ወሰ
ለት ከል
ለት ነፍ
ለት ቀደ
ለቤ ለ
ለሰ ርገ
ለም ኮ</w>
ለም ሽ
ለም ር
ለመ ባ
ለመ ርሐ
ለመ ራ
ለሐ ሬ
ለልት ቃ
ለልት ቀ
ለለአ ቀ
ለሀ ሌ
ለ ዊ
ለ ንስ
ለ ሩ
ለ ማ</w>
ለ ሊ</w>
ሆ ር
ህ ይ</w>
ህ ዘ</w>
ህ ሪ</w>
ሃ ሙ</w>
ሁ ን</w>
ሀደ ገ</w>
ፍር ከ</w>
ፍ ሐት</w>
ፍ ሁ
ፋ ቶም</w>
ፊ ፍ</w>
ፉ ት</w>
ፉ ር
ፉ መ</w>
ፈዐ ኒ</w>
ፈት ዮም</w>
ፈት ሽ</w>
ፈር የ</w>
ፈረ ው</w>
ፈ ዖ</w>
ፈ ለስ
ፆ ት</w>
ፅ ል</w>
ጽ ር
ጻብ ጠ</w>
ጻ እ</w>
ጻ ን</w>
ጸብ ር</w>
ጸሃ ዬ
ጸ ዐን</w>
ጸ ና
ጸ ነ
ጸ በት</w>
ጭ ሩ</w>
ጭ ም
ጩ ት</w>
ጨ ዋ
ጨ ረት</w>
ጦ ስ</w>
ጥ ፍ
ጥ ቀ
ጣ ተ</w>
ጣ ሩ</w>
ጠው ሩ</w>
ጠው ረ</w>
ጠም ጥ
ጠል ብ</w>
ጠል ም</w>
ጠል ል</w>
ጠ ቶም</w>
ጠ ርነ</w>
ጠ ራ</w>
ጠ ለብ
ግብ ለት
ግራ ፊ</w>
ግ ደ</w>
ግ ያ</w>
ግ ኮ</w>
ጌ ጌ</w>
ጋ ይት</w>
ጋ ሁ</w>
ጉ ሉ</w>
ገብ ርኤ
ገብ ሪ
ገርጊ ሽ</w>
ገር መ</w>
ገም ል</w>
ገ ጹ
ገ ድ</w>
ገ አ
ገ ልብ
ገ ለድ
ጅግራ ታት</w>
ጅ ድ
ጅ ኑ
ጅ ት</w>
ጅ ሎ</w>
ጅ ህ</w>
ጃ ህ</w>
ጂ ክ</w>
ጁ ን</w>
ጁ ል</w>
ጀ ዐ
ድዕ ፍ</w>
ድር መ</w>
ድረ ተ</w>
ድ ያም</w>
ድ ኦ</w>
ድ ንጉ
ድ ቪ
ድ ሞ</w>
ዴ ርየት</w>
ዳገ ን</w>
ዳይ ከ</w>
ዳይ ን</w>
ዳይ ነ</w>
ዳል ዩ</w>
ዳ እ
ዳ ልየት</w>
ዲ ሙ
ደፍ ዑ</w>
ደው ኒ</w>
ደር ከ</w>
ደር ሱ</w>
ደረ ዩ</w>
ደረ ቶም</w>
ደ ይት</w>
ደ ዕ</w>
ደ ና</w>
ደ ቶ</w>
ዮር ጊስ</w>
ይ እብ
ይ እስ
ይ እም
ይ አመ
ይ ኑ</w>
ያ ሞም</w>
ዪ ድ</w>
ዩ በ</w>
የ ድ
የ አው
የ ቱመ</w>
የ ሰው</w>
የ ረው</w>
ዝሕ ሮ
ዝ የን</w>
ዝ ም
ዛብ ጥ</w>
ዙ ን</w>
ዙ ር</w>
ዙ መ</w>
ዘ ዘ
ዘ ና
ዘ ቡ</w>
ዖ ትለ</w>
ዕ ዝ
ዕ ው</w>
ዕ ት
ዔ ፍ
ዔ ለ</w>
ዓ የት</w>
ዑ መር</w>
ዐ ዝ</w>
ዐ ባይ
ዐ ሰብ
ዐ ሉ</w>
ዐ ለመ
ዎ ቱ</w>
ዎ ል
ውዕ ለ</w>
ው ጁ
ው ሽ
ው ሮ
ው ሒ
ዌ ስት
ዋጥ ል</w>
ዋ ግ</w>
ዋ ና</w>
ዋ ተ
ዋ ርነ</w>
ወግ ድ
ወግ ብ
ወጀ ማ
ወጀ </w>
ወዐ ድ
ወዐ ብ
ወከ ል</w>
ወከ ል
ወእ ሽ
ወእ ሲ
ወኣ ን
ወኢ ገ
ወኢ ለሐ
ወአጀ ኒ
ወአት ራ
ወአ ከ
ወአ ቶ
ወት ካ
ወት ከበ
ወት ትዐ
ወት ራ
ወት መ</w>
ወተ እ
ወተ ብ
ወቀ ራ
ወሰ ፍ
ወሰ አ
ወሰ ኔ
ወሰ ሓ
ወር ያ
ወመ ጋ
ወመ ክ
ወመ አሰ
ወመ ንገ
ወሐ ቆ
ወልት ሰ
ወል ዱ
ወል ም
ወለአት ና
ወለአ ብ
ወለ ይ
ወለ ዘ
ወለ ው</w>
ወለ ቅ
ወ ጤ</w>
ወ ጋብ
ወ ወር
ወ ወረ
ወ ከ</w>
ወ በረ
ወ ቅ</w>
ወ ሩ</w>
ወ ላ</w>
ኮም ፒ
ኮ ሜ
ክር ዬ</w>
ክረ ዩ</w>
ክ ያይት</w>
ክ ነ
ክ ሽን</w>
ክ ስታ
ክ ራይ
ኬ ኩም</w>
ኬ ል
ካፈ ል</w>
ካር ሞ</w>
ካ ኖ</w>
ካ ላ
ኪ ፕ
ኩ ከ</w>
ኩ ምመ</w>
ከብ ር</w>
ከበ ዩ</w>
ከስ ብ</w>
ከር ም</w>
ከረ ዕ</w>
ከ ክር
ከ አድ
ከ ነድ
ከ ተሐ
ከ ሲ
ከ ሞ
ከ ላ</w>
ከ ሉ
ከ ለት
ኦ ን</w>
ኦ ሎ
እድ ሪ
እን ፈር
እን ዱ
እቅ ትሳድ
እቅ ባ
እስትራ ተጅ
እስ ላ
እም ቡ
እ ዚ
እ በይ
ኤሌ ክትሮ
ኤ ና</w>
ኣም ር
ኣም ረ</w>
ኣ ጋ
ኣ ኣ
ኣ ሱ
ኣ ራ
ኢት ፈን
ኢት እ
ኢልት ፈ
ኢልት ሸ
ኢለአ ም
ኢ ወድ
ኢ ወደ
ኢ ኮን
ኢ ክ
ኢ አም
ኢ ተ</w>
ኢ ሸቄ
ኢ ሰር
ኢ ሰል
ኢ ረክበ
ኢ ለ
ኡ ን</w>
አፍ ካር
አጅ ገ
አድ ዐ
አዝ ም</w>
አክ ዉ</w>
አክ ትበ
አከ እ
አከ ብ</w>
አን ሸ
አትዋ የ
አት ጫ
አተ ፍ
አተ ላል
አብ ቀ
አቅ ራ
አስ አለ
አስ አ
አስ ተረ
አስ ብ
አስ መ
አሰ እ
አር ዐ
አር ኤ</w>
አም ሆ
አል ዓ
አል አ
አል ባ
አ ጊ
አ ዜ</w>
አ በለ
አ ሶ
አ ሜር
አ ሉ</w>
ኖ ይ</w>
ንፈ ለ</w>
ንገ ል</w>
ንክ ብ</w>
ንታ ል</w>
ንበ ተ</w>
ንሰ በ</w>
ንሰ ር</w>
ን ዮም</w>
ን ይ</w>
ን ዓ
ን ኣ
ን ላ
ናቅ ሽ</w>
ና ደ</w>
ና ዊ</w>
ኒ ኮ
ነዘ መ</w>
ነት ኪ</w>
ነስ ኡ</w>
ነ ጃ
ቶ ኒ</w>
ትጸ በር
ትከ ፍ
ትት ደ
ትት ካረ
ትት በሀ
ትት ቀደ
ትብ ለ
ትቃ ወመ
ትሸ ነ
ትም ጸ
ትመ ጣ
ት ገብ
ት ዐት</w>
ት ወዴ
ት ኸ
ት ንፈ
ት ላ</w>
ት ለበ
ት ለቀ
ቴ ክ</w>
ቴ ኩም</w>
ታይ ነ</w>
ታ ጅ
ታ ኬ</w>
ቲ ሁ</w>
ቲ ሀ</w>
ተዕ ቢ
ተዐ ሮ
ተው ነ</w>
ተአት ና
ተአት ሓ
ተአ ፈ
ተአ ግ
ተአ ድር
ተአ ድሕ
ተብ ጊ
ተቅ ብ
ተር ከት</w>
ተር መ</w>
ተም ነየ</w>
ተም ተም</w>
ተል ሀው</w>
ተ ጥ
ተ ያ</w>
ተ ክል
ተ ኒተ</w>
ተ ትነ</w>
ቭ ስ</w>
ቪ ድ</w>
ቦ ጦሎ
ቦ ምመ</w>
ብር ተ</w>
ብ ግ
ብ ዘ
ብ በ</w>
ብ ሊ</w>
ቤ ብ</w>
ባ ታ</w>
ባ ሪ
ባ ሊ
በገ ሰ</w>
በዐ ል</w>
በአ ስ</w>
በል ዖ</w>
በል ሰ</w>
በለ ዕ</w>
በ ጼሕ</w>
በ ጻ
በ ጠት</w>
በ ዎም</w>
በ ተት</w>
በ ሲ
በ ሐት</w>
ቆ ም
ቅብ ሎ</w>
ቅ ያስ</w>
ቅ ዩ</w>
ቅ ዐት</w>
ቅ ነ
ቅ ረ</w>
ቄ ከ</w>
ቄ ት
ቄ ሕ</w>
ቃ ሙ</w>
ቃ ሁ</w>
ቁ ቱ</w>
ቀይ ሩ</w>
ቀይ ሕ</w>
ቀር ቦ</w>
ቀ ዱ</w>
ቀ ዮም</w>
ቀ ተን</w>
ቀ ቦ</w>
ቀ ረት</w>
ሾ ታት</w>
ሽ ፍ</w>
ሽ ግ</w>
ሽ ያ</w>
ሽ ሉ</w>
ሺ ነት</w>
ሸክ ፍ</w>
ሸን ኬ</w>
ሸቅ የ</w>
ሶ ሴ</w>
ስዒ ድ</w>
ስትህ ሉ</w>
ስቲ ን</w>
ስተር ሲቲ</w>
ስ ጃ
ስ እ</w>
ስ ቡ
ስ ሎ</w>
ሴ ፍ</w>
ሴ ም
ሳል ሕ</w>
ሳ እ</w>
ሳ ንድ
ሱ ኡ</w>
ሱ ቡ</w>
ሰጀ ል</w>
ሰአ ሉ</w>
ሰብ ር</w>
ሰር ገል
ሰር ኮ</w>
ሰላ ዲ
ሰ ታ
ሰ ቦ
ሰ ቤ
ሰ ሶ</w>
ሰ ሮ</w>
ሰ ረየ</w>
ሰ ለው</w>
ሮ ና</w>
ርሐ ከ</w>
ር ደት</w>
ር ኡ</w>
ሬ ዝ</w>
ሬ በት</w>
ሪ ሞ</w>
ሩ ሩ</w>
ረፈ ዐ</w>
ረክ ነ</w>
ረኤ ነ</w>
ረት ኪ</w>
ረስ ዐ</w>
ረ ቶ</w>
ረ ትተ</w>
ረ ቲት</w>
ረ ረው</w>
ረ ህ</w>
ረ ህ
ረ ሀ
ሞ ጎ
ምጅ ተ
ምዐ ነ</w>
ምራ ይት</w>
ም ራይ</w>
ም ሒ
ሜ ቱ</w>
ሜ ተር</w>
ማን የ</w>
ማር ክ</w>
ማ ጥ</w>
ማ ጥ
ማ ዲ</w>
ማ ዩ</w>
ማ ዝ</w>
ማ ና</w>
ማ ሲ</w>
ማ ሞም</w>
ማ ማት</w>
ማ መት</w>
ሚ ነ</w>
ሙ ራ</w>
መጽ </w>
መጅ ተም
መድ ድ</w>
መዳ ግ
መዕ ጸ
መዐ ነው
መው ዕ
መው ኒ</w>
መት ፈራ
መት ካ</w>
መት አሳ
መተል ህ
መተ ዕ</w>
መቅር ሑ</w>
መሻቀ ዪ
መስ ተዕ
መረ ሕ</w>
መሀ ር</w>
መ ጆ
መ ኸ
መ ክር
መ አንብ
መ ተት</w>
ሕ ድር
ሕ ኒ</w>
ሕ ቀ
ሕ ማን</w>
ሔር ባይ</w>
ሔ ት</w>
ሓፍ ዝ</w>
ሓ ዝ
ሓ ነ</w>
ሓ በር
ሑ ን</w>
ሐድ ስ</w>
ሐር ኮ</w>
ሐም ቅ</w>
ሐ ፍ</w>
ሐ ጸብ
ሐ ብረ
ሐ ሰ</w>
ሐ ለ</w>
ልት ጸበ
ልት ዐደ
ልት ብ
ልት ስ
ልት መጣ
ልም ን</w>
ልም ሰ
ል ግብ
ል ጅ</w>
ል ኮ
ላል ፍ</w>
ላ ኽ</w>
ሊ ና</w>
ሉ ሕ</w>
ለፈ ዩ</w>
ለጠ ቢ
ለገ ት</w>
ለጀ ዋ
ለደ ፍዐ
ለደ ንገ
ለይ እ
ለዐ ድ
ለዋ ሌ</w>
ለክ ፍ</w>
ለኣ ቴ
ለኣ መር
ለኢ ነ
ለኢ ተሀ
ለአት ናይ
ለአት ማ
ለአተላ ሌ
ለአ ጨ
ለአ ይ
ለአ ንት
ለአ ንቀ
ለአ ብር
ለት ዓ
ለት ወጅ
ለት ወድ
ለት ኬ
ለት ከለ
ለት ና</w>
ለት ባል
ለት በረ
ለት ቀየ
ለተአ ከ
ለተ ብ
ለበ ን</w>
ለሸ ፍ
ለሰ በ
ለም ዕ
ለመ ጻ
ለመ ዕ
ለመ ስከ
ለሕ ሳ
ለሐ ግ
ለሐ ሽ
ለሐ ራ
ለልት ሐረ
ለልት ሀ
ለል አብ
ለል ቡ
ለለአ ተ
ለ ፎም</w>
ለ ጭ</w>
ለ ጂ</w>
ለ ድር
ለ ዋር
ለ ክም
ለ ኔ
ለ ቃ</w>
ለ ርሕ
ሇ ት</w>
ህሌ ኮ</w>
ህ ጅ</w>
ህ ክ</w>
ህ ለት</w>
ሄ ይ
ሃብ ቴ
ሃ ዝ</w>
ሂ ወት</w>
ሀድ የ</w>
ሀ ፍ</w>
ሀ ሮ</w>
ሀ ለው</w>
ፍዕ ል</w>
ፍዐ ተ</w>
ፍረ ቅ</w>
ፍ ግረ
ፍ ድ</w>
ፍ ዓይ</w>
ፍ ቴ</w>
ፌ ን</w>
ፈረ ገ
ፈ ው
ፈ ንት
ፈ ትመ</w>
ፈ ተን</w>
ፈ ሸ
ፈ ልሰ
ፀ ዐ
ጽበ ጥ</w>
ጸን ሐ</w>
ጸብ ጦ</w>
ጸ ይ
ጸ ተ</w>
ጸ ቦ</w>
ጸ ላ
ጭ ፍ</w>
ጭ ጭ</w>
ጭ ቅ</w>
ጭ ቁ
ጭ ረ</w>
ጨ ፍ</w>
ጨ ለ</w>
ጥ ስ</w>
ጥ ሮም</w>
ጥ ሮ
ጥ ራ
ጥ ሩ
ጣ ሁ</w>
ጡ ም</w>
ጠው ሮ</w>
ጠ ፋ
ጠ ሮ</w>
ጠ ለባ
ግን ዕ</w>
ግ ዩ</w>
ግ ሱ
ጋ ዩ</w>
ጉ ሩ</w>
ገር ኮ</w>
ገ ዳ
ገ ያ
ገ ባ</w>
ገ መው</w>
ጅ ግ
ጅ ና
ጅ ሩ
ጃ ግረ
ጀረ ስ</w>
ጀ በ</w>
ጀ ቅ
ድረ ነ</w>
ድ ዩ
ድ በ</w>
ድ ማ</w>
ዴ ካ</w>
ዴ ስ</w>
ዳገ ም</w>
ዳ ዱ</w>
ዳ ወ
ዳ ረት</w>
ዳ ሉ</w>
ዲ ደት</w>
ዲ ብለ</w>
ዱ ዕ</w>
ዱ ሙ</w>
ደዋ ሒ
ደብ ሬ
ደቀ የ</w>
ደቀ በ</w>
ደር ሰን</w>
ደረ ብ</w>
ደል ኮ</w>
ደ ዱ</w>
ደ የት</w>
ደ ትተ</w>
ደ ለ
ደ ህ</w>
ይ አክ
ይ አሰ
ይ ስ
ይ ም
ይ ሔ
ይ ል
ይ ሀበ
ዬ ከ</w>
ዬ ኒ</w>
ያ የ</w>
ያ ነት</w>
ያ ማ</w>
ዩ ይ</w>
ዩ ከ</w>
የ አቅ
የ ሮ</w>
ዝ ድ</w>
ዝ ዩም</w>
ዝ ኮ</w>
ዝ ኑ</w>
ዜ ኩም</w>
ዛ በዩ</w>
ዙ ሕ</w>
ዘ ፈ</w>
ዘ ብ</w>
ዖ ቡ</w>
ዕ ግ
ዕ ዞ</w>
ዕ ው
ዕ ወን</w>
ዕ ተ
ዕ ቁ
ዕ ሳ
ዓፍ የ
ዓይ ር</w>
ዓብ ዱ
ዓብ ዩ</w>
ዓ ጭሞ
ዓ ትነ</w>
ዒ ነ</w>
ዐድ ዩ</w>
ዐባ ዪ
ዐ ጂ
ዐ ወት</w>
ዐ ክ
ዐ ኪ</w>
ዐ ቂ
ዐ ለብ
ዎ ስ</w>
ው ና</w>
ው ኑ</w>
ው ቁ
ው ራይ</w>
ው ሑ
ው ህ</w>
ዋር ድ</w>
ዋ ናት</w>
ዋ ሽ</w>
ዋ ሮም</w>
ዊ ድ</w>
ዊ ኪ
ዊ ነ</w>
ወፈ ት
ወገ ሌ
ወጅ ንስ
ወድ የት</w>
ወድ ር
ወደ ዋ
ወደ ሐ
ወዕ ጨ
ወዐ ዲ
ወከ ላ
ወእ ግል
ወእ ድ
ወእ ምበ
ወአ ራ
ወን ን</w>
ወት ኮ</w>
ወት ትመ
ወት ቃ
ወት ሓ
ወቴክ ኖ
ወተ ን
ወቀ ይ
ወሰ ክ</w>
ወር ከ</w>
ወር እ
ወረ አ
ወም ግ
ወመት ፋ
ወመት ዐ
ወመት ሳ
ወሐ ስ
ወሐ ሊ
ወል እ
ወለ ዐል
ወለ ምስ
ወለ መር
ወለ ሐር
ወለ ሃ
ወ ጫ
ወ ዎሮ
ወ ዋልዴ
ወ ወጠን
ወ ኸ
ወ ና</w>
ወ ኒ</w>
ወ ቶ</w>
ወ ሸ</w>
ወ ሜር
ወ ማን
ወ ሖ
ወ ሔ</w>
ወ ሁ
ኸ ት</w>
ኮ ከ
ኮ በ</w>
ኮ ረ</w>
ክረ ከ</w>
ክረ ቱ</w>
ክ ፈ</w>
ክ ዪን</w>
ክ ሲ</w>
ክ ራት</w>
ክ ሪ</w>
ክ ሎ</w>
ኬ ሽን</w>
ካይ ዱ</w>
ካይ ል</w>
ካ ፕ
ካ ፊ
ኪ ክ</w>
ኪ ብ</w>
ኩ ያም</w>
ከብ ድ</w>
ከብ መ</w>
ከር ከ</w>
ከ ፌ
ከ ኩ</w>
ከ አር
ከ ቶም</w>
ከ ትፈ
ከ ታ</w>
ከ ቦ
ከ መር
ኦ ሊም
እን ጀ
እን ተ</w>
እት ፍ
እሕ ትፋ
እ ጭ
እ ኪ</w>
እ ቢ
እ ሕሳ
ኤ ሊ
ኣም ሮ</w>
ኣ ና
ኣ ሉ</w>
ኢነ ቅ
ኢትሰ አል
ኢት ጋ
ኢት ጅ
ኢት ወለ
ኢት ን
ኢት ትሸ
ኢት ረስ
ኢት መ
ኢቀ ደር
ኢልት ሰ
ኢል አ
ኢል ሳድ
ኢል ህ
ኢለአ ቀ
ኢ ደግ
ኢ ዮ
ኢ ወል
ኢ ከሰ
ኢ ኒ</w>
ኢ ተሀየ
ኢ ቨ
ኢ በጽሐ
ኢ መር
ኢ ሐዜ
ኢ ሐስ
ኢ ላ
ኢ ሀበ
ኡ ዉ</w>
አፍዐ በት
አፍሪ ቅ
አፍ ሀመ
አግ ዐ
አግ ር
አው ኪር</w>
አው ሳ
አክ ብ</w>
አክ ር
አከ ደ</w>
አን ተሀ
አትጻ በጥ
አት ዐገ
አት አመረ
አብ ፅ
አቅ ሊ
አስእ ል</w>
አስ ፍ</w>
አስ ክ</w>
አስ ኔ
አሰ ናይ
አሰ ር</w>
አም ጻ
አም ዔ
አም ር
አም ሪ
አመ ሮ</w>
አ ሥ
አ ሞ
አ መል
ኖ ሱ</w>
ንድ ዪን</w>
ንዱ ቅ</w>
ንት ፈ
ንት ዓ
ንስ ት</w>
ንሰ ን</w>
ንሕ ዉ</w>
ን ጂ
ን ሀ</w>
ናድ ሊን</w>
ና እ</w>
ና ኑ</w>
ና ትለ</w>
ና ሙ</w>
ና ሁቱ</w>
ኒ ዪን</w>
ነግ ፍ</w>
ነ ጃት</w>
ነ የን</w>
ነ ኑ</w>
ነ በ</w>
ነ ሀር
ቶ ሪ
ትከ ደ
ትሸ ፈ
ትሳ ለመ
ትሰ መዐ
ትረስ ዐ
ት ገር
ት ክል
ት ቫ
ት ቤ
ት ሶ
ት ሐረ
ት ሎ</w>
ት ለከ
ቴ ሁ</w>
ታ ን
ታ ምም</w>
ታ ህ
ቲ ትመ</w>
ተዐ ድ
ተዐ ሊ
ተአት ሃጅ
ተአ ጸ
ተአ ልበ
ተርጅ ም</w>
ተር ድ</w>
ተሐ በረ
ተ ይት</w>
ተ ካ</w>
ተ ቶ</w>
ተ ተ
ተ ላ</w>
ቮ ሊ
ቫ ሌ
ቦ ሩ</w>
ቦ ምተ</w>
ብር ነ</w>
ብራ ሁ</w>
ብለ ኒ</w>
ብህ ት</w>
ብ ዓ
ብ ቶም</w>
ባል ክ</w>
ባ ና</w>
ባ ለሐ
ባ ህ</w>
ቡ ሮም</w>
በጠ የ</w>
በይ እ</w>
በተ የ</w>
በር ኩም</w>
በራ ምጅ
በረ ተ</w>
በል ቱ</w>
በሀ ለ</w>
በ ፍ
በ ፀ
በ ያ</w>
በ ዕ
በ ኔ</w>
በ ኒ
በ ትቱ</w>
በ ሎት</w>
በ ሌ</w>
በ ሌ
ቆ ተ</w>
ቆ ለ</w>
ቅ ፉ</w>
ቅ ዳ
ቅ ሩ</w>
ቅ ሉ
ቅ ለት</w>
ቃ ፍ</w>
ቃ ዕ</w>
ቃ ራ
ቃ ሊ
ቁ ስ</w>
ቀዳ ሚ
ቀር ኡ</w>
ቀ ጠ</w>
ቀ ደት</w>
ቀ ወ
ቀ እ</w>
ቀ ሰበ
ቀ መ
ሽ እ
ሽ ራ
ሽ መት</w>
ሽ ሁ
ሻረ ከት</w>
ሻ ብ
ሹ ነ</w>
ሹ ሽ</w>
ሸ ወጠ
ሸ ቶም</w>
ሸ ሬሕ</w>
ሸ ሬ
ሶ ር</w>
ስ ናሀ</w>
ስ ቶን</w>
ስ ቶ</w>
ስ ሮ</w>
ሳር ሐ</w>
ሳ የ</w>
ሳ ዕ</w>
ሱ ረ</w>
ሰአ ው</w>
ሰአ ት</w>
ሰን በት</w>
ሰት ዩ</w>
ሰም ዖም</w>
ሰሐ ብ</w>
ሰ ድ</w>
ሰ ዐ</w>
ሰ ካ
ሰ ኣል
ሰ ነት
ሰ ትተ</w>
ሰ ባ</w>
ሮ ኒ</w>
ሮ ምመ</w>
ርእ የን</w>
ር ፈ
ር ጅ</w>
ር እ</w>
ር ሄ</w>
ሬ ለ</w>
ሪ ጅ</w>
ሪ ሩ</w>
ሩ ያም</w>
ሩ እ
ረብ የት</w>
ረበ ሽ</w>
ረሰ ው</w>
ረሐ የ</w>
ረሐ ከ</w>
ረ ና</w>
ረ ትቱ</w>
ረ ቀት</w>
ምን ኬ
ምስ ክ
ምህ ር</w>
ም ክር
ም ኖ</w>
ሜ ሪ</w>
ማይ ክሮ
ማ ዬ</w>
ማ የ</w>
ማ ዛ
ማ ትለ</w>
ማ ሼ
ሚካ ል</w>
ሚ ያ</w>
ሙ ዱ</w>
ሙ ኽ
ሙ ሉ
መጸ </w>
መድረ ሰት
መዳ ይ</w>
መዕሉ መት
መዓ </w>
መዐ ሉ
መዋ ዲ
መክ ሰ
መክ ሉ
መን ቅ
መና ጥ
መና ዱ
መት ና</w>
መቅ ርሕ
መቅ ሬሕ</w>
መቃር ሖ</w>
መቃ በ
መቃ ሬሕ</w>
መሻ ረከ
መም ከ</w>
መም ህ
መል እ</w>
መል ሐ
መህረ ጃ
መ ፅ</w>
መ ጩ
መ ጋድ
መ ጋይ
መ ዳ</w>
መ ዎም</w>
መ ወን</w>
መ አን
መ ተኒ</w>
መ ቀይ
መ ቀ</w>
መ ራት</w>
መ መየ</w>
መ መር
መ ለው</w>
መ ሆ
ሖ መ</w>
ሕ ወ</w>
ሕ በ</w>
ሔ ሳ
ሓል ፉ</w>
ሓ ሆም</w>
ሒ ኒ</w>
ሒ ል</w>
ሑ ር
ሐዜ ከ</w>
ሐብ ዕ</w>
ሐበ ረ</w>
ሐር ከ</w>
ሐም ስ</w>
ሐ ፊ
ሐ ደ</w>
ሐ ዮ
ሐ ዉ</w>
ሐ ካይ
ሐ ትነ</w>
ሐ ረት</w>
ሐ መ</w>
ሐ ልበ
ሎ ሌ</w>
ሎ ሁ</w>
ልክ ዉ</w>
ልት ቃረ
ልት ረአ
ልበ ብ</w>
ልም ነ</w>
ል ግ</w>
ል ያይት</w>
ል ዎ</w>
ል ዉ
ል ክም</w>
ል ከር
ል ንከ
ል ናሀ</w>
ል ታ</w>
ል ተሀ
ሌ ይ</w>
ሌ ና</w>
ሌ ተት</w>
ሌ ር</w>
ላ ፕ
ላ ው</w>
ሊ መት</w>
ሉ ጥ</w>
ሉ ያም</w>
ሉ ሙ</w>
ለፈ ን
ለጠ ር
ለደረ ስ
ለዘ ይ
ለዐ ኒ</w>
ለዐ ል</w>
ለክ ፍ
ለከ ልአ
ለኢ ከር
ለኢ በጽሐ
ለአት ሳጅ
ለአተ ግ
ለአብ ጽ
ለአ ፈረ
ለአ ገር
ለአ ቴ
ለአ ቅር
ለአ ቀም
ለአ ስትህ
ለአ ለብ
ለን ድ</w>
ለን መ</w>
ለትሰ አል
ለት ጻገ
ለት አም
ለት ሸነ
ለት መን
ለተ ው
ለተ ረ
ለተ ል
ለብ ብ</w>
ለሽ ን
ለሸ ሪ
ለሸ ም
ለሳ ደ
ለም ከ</w>
ለም ራ
ለሐ ድ
ለሐ ደግ
ለልት ጀ
ለልት ደ
ለል እ
ለለአ ፈር
ለለአ ስተ
ለለ ው
ለ ጡ</w>
ለ ጎ</w>
ለ ዳር
ለ ያቱ</w>
ለ ዚ
ለ ዒ
ለ ወን</w>
ለ ካቱ</w>
ለ ኡ
ለ ቶ</w>
ለ ቂ
ለ ሚን</w>
ለ ሊት</w>
ለ ለከ
ህግ የ</w>
ህረ ጃን</w>
ሃጅ ም</w>
ሃ ን
ሃ ነ</w>
ሂ መ</w>
ሀ ደት</w>
ሀ ንመ</w>
ሀ ነ
ሀ ራ</w>
ፎ መ</w>
ፍዐ ው</w>
ፍን ጌ</w>
ፍን ቱይ</w>
ፍህ ሞም</w>
ፍ ያት</w>
ፍ ዒ</w>
ፍ ትሕ
ፍ ቲ</w>
ፍ ህ</w>
ፌ ር</w>
ፊ ን
ፊ ቃዶ
ፉ ዑ</w>
ፈዝ ዕ</w>
ፈዐ ከ</w>
ፈቴ ኒ</w>
ፈቴ ሕ</w>
ፈተ ሕ</w>
ፈር ከ</w>
ፈር ቀ
ፈ ክ
ፈ ትነ</w>
ፈ ቱ
ፈ ቂ
ፈ ሽ</w>
ፈ ስ</w>
ፈ ሉ</w>
ጽ ጉ
ጽ ባብ
ጻብ ጣ
ጻበ ጠ</w>
ጸበ ሮ</w>
ጸበ ሕ</w>
ጸ ይ</w>
ጭ ም</w>
ጫ ሬ</w>
ጩ ይ</w>
ጩ ክ</w>
ጨቅ ጥ</w>
ጨ ው
ጨ ነ
ጨ ብ</w>
ጨ ቀ</w>
ጨ ል</w>
ጦ ቱ</w>
ጥ ኑ</w>
ጥ ባ
ጥ ሮስ</w>
ጡ ኒ</w>
ጡ ሩ</w>
ጡ ረ</w>
ጠ ፌሕ</w>
ጠ ጦት</w>
ጠ ቤ</w>
ጠ ቅ</w>
ጠ ሪ
ጎ ነ</w>
ጎ ል
ግብ እ</w>
ግር ጉ
ግ ናዘ
ግ ቦ</w>
ግ ለት</w>
ጌ ኮ</w>
ጌ ሰ</w>
ጋ ራ</w>
ጋ ሩ</w>
ጋ ሙ</w>
ጋ ል
ጋ ሊ</w>
ጋ ሀ</w>
ጊ ቱ</w>
ጊ ር</w>
ጉ ለ</w>
ገብ ኮ</w>
ገር ግስ</w>
ገረ የ</w>
ገል ኮ</w>
ገ ሙ</w>
ጅ ከ</w>
ጅ ሉ</w>
ጃ ዕ</w>
ጃ ም
ጀር በብ</w>
ጀር ሒ
ጀ ንቲ
ዶ ክተር</w>
ዶ ክ
ድዮ ታት</w>
ድረ ን</w>
ድ ድ
ድ ዔ</w>
ድ ዎ</w>
ድ ቦ
ድ ሌ</w>
ዴ ቡ</w>
ዳይ ና
ዳ ቶም</w>
ዳ ትመ</w>
ዳ ታት</w>
ዲ ዮ
ዲ ኒ</w>
ዲ ታት</w>
ዱ ዎ</w>
ደገ ግ</w>
ደረ ክ</w>
ደ ፉ</w>
ደ ዶት</w>
ደ ያቱ</w>
ደ ስቱ
ደ ሙ</w>
ደ ልነ</w>
ዯ </w>
ዮ ርክ</w>
ዮ ምመ</w>
ይሐ ው</w>
ይ ዐጅ
ይ አር
ይ ሐም
ያ ጎ</w>
ያ በ</w>
ያ ስ
ያ ለ</w>
ያ ሃ</w>
ዩ ን
ዩ ቦም</w>
ዩ ሙ</w>
የ ግ</w>
የ በት</w>
የ ሶት</w>
ዞ ሕ</w>
ዝዮ ናት</w>
ዝ ኽ
ዝ ሖ</w>
ዜ ል</w>
ዛ ተ</w>
ዛ በየ</w>
ዚ ፍ</w>
ዚ ረት</w>
ዙ ዕ</w>
ዙ ኒ</w>
ዘከ ሮ</w>
ዘ ይድ</w>
ዘ ዖ
ዘ ኑ</w>
ዘ ቢ
ዘ ረ
ዕን ታ
ዕም ቦ
ዕ ፍ</w>
ዕ ቦ</w>
ዕ ቢ
ዕ ሩ</w>
ዕ ምር</w>
ዕ ልብ
ዓብ ደል
ዓ ን
ዓ ሩ</w>
ዑ ዎም</w>
ዑ ሉ</w>
ዐንደ ቅ</w>
ዐር ዩ</w>
ዐለ ብ</w>
ዐ ፌ</w>
ዐ ጎ
ዐ ዙ
ዐ ታ</w>
ውዕ ሎ</w>
ውዕ ሉ</w>
ውሕ ደ
ው ዲ
ው ያ</w>
ው ዩ</w>
ው ቅ
ው ሮም</w>
ው ላይ</w>
ዋይ ነ</w>
ዋ ድ</w>
ዋ ይት</w>
ዋ ት
ዋ ርከ</w>
ዋ ሬ</w>
ዋ ራት</w>
ዋ ሕ
ዊ ተ</w>
ወጽ ም
ወጀ ላ
ወጀ ህ</w>
ወጀ ሀ
ወድ ቀ</w>
ወዴ ከ</w>
ወዕ ም
ወዐ ባ
ወኢ ፋ
ወአ ክረ
ወአ ንበ
ወአ ርሐ
ወአ ሚ
ወን ፍ
ወን ዕ
ወን ከ</w>
ወነ ሲ
ወት ጋ
ወት ዕ
ወት ክ
ወት ትፈ
ወት ትነ
ወተር ጀ
ወተ ጠው
ወበ ቃ
ወቅ ራ
ወሸ ባ
ወሸ ሪ
ወሳ ል
ወሰ ዐ
ወሰ ዋል
ወሰ ክ
ወሰ ራ
ወር ድ</w>
ወረ ብ
ወመ ፋ
ወመ ጣ
ወልት ነ
ወል ጥ</w>
ወል ዲ
ወለ ጅ
ወለ ጀ
ወለ ካል
ወ ፌ</w>
ወ ግ</w>
ወ ጅ</w>
ወ ዋር
ክር የ</w>
ክም ት</w>
ክ ፎ</w>
ክ ጡ
ክ ትፈ
ኬ ፍ
ኬ መ</w>
ካ ድ</w>
ካ ናት</w>
ካ ኒ
ካ ነት</w>
ኩ ዋ</w>
ከብ ድ
ከበ ቶም</w>
ከሽ ብ</w>
ከስ ስ</w>
ከር ር</w>
ከሬ ዕ</w>
ከም ከ</w>
ከሊ ማ
ከለ ስ
ከ ጋ
ከ ደ</w>
ከ ዔ
ከ አክ
ከ አን
ከ ሺ
ከ ሰ</w>
ከ ሙ
ከ ለነ
ኦር ቶ
ኦ ክቶ
ኦ ሉ</w>
ኦ ለም
እግ ር
እን ጌ
እን ዘ
እን ክር
እት ጋ
እት ዓ
እት ቀ
እት ረ
እስትሽ ሃ
እስታ ዝ</w>
እ ጋ
እ ጀ
እ ዬ</w>
እ ወን</w>
እ ኩም</w>
እ ኑ
እ ቃ
እ ሰአ
እ ላይ</w>
ኤ ድ
ኤ ኮ</w>
ኤ ትን</w>
ኤ ቱ</w>
ኤ ልክ
ኣመር ነ</w>
ኣ ቶም</w>
ኣ ርክ
ኣ ለ</w>
ኢትት ዓ
ኢት ፍረ
ኢት ከበ
ኢት ከር
ኢት ትደ
ኢት ህ
ኢተአ ብ
ኢለአ ስእ
ኢ ፈት
ኢ ግ
ኢ ጃ
ኢ ወጅ
ኢ ካ
ኢ ቴ
ኢ ሳድ
ኢ ሮ
ኢ መሐ
ኢ ል</w>
ኢ ለስ
አጥ ዐሚ
አግ ነ
አዳ ወር
አው ቱ</w>
አው ሀ
አትፋ ግ
አት ቀ
አት ሀደ
አተ ጅ
አተ ው</w>
አተ ክ
አተ ንከ
አብ ዕብ
አብ ሳ
አብ ሐ
አቅ ብል</w>
አስ ፈ
አስ ቴ
አስ ተቅ
አስ ር</w>
አሰ ሰት</w>
አም ብ
አሚ ር
አመ ሕ
አል ጠ
አል ዐ
አል ብ
አል በሰ
አ ፎ</w>
አ ጸገ
አ ገር
አ ዎ</w>
አ ኒ
አ ማን</w>
ንክ ወ</w>
ንት ሰ
ንብ ል
ን ፉ
ን ጣ
ን ዛ</w>
ን ወስ
ን ቆ
ን ሴ
ን ሐ</w>
ኔ ን</w>
ኔ ታት</w>
ናፍ ል</w>
ና የት</w>
ና ሁመ</w>
ኒ ሕ</w>
ኑ ክ</w>
ነፍ ዖ</w>
ነዘ መት</w>
ነት ካ</w>
ነሰ አ</w>
ነሐ ነ</w>
ነ ያ</w>
ነ አትሐ
ነ ኖ</w>
ነ ታ
ነ ለ
ቸ ር
ቶ ል</w>
ትፈ ደ
ትፈ ራ
ትግ በ
ትካ የ
ትካ ተ</w>
ትከ ስ
ትን ሳ
ትነ ዝ
ትብ ጸ
ትበ ተ</w>
ትቀ ይ
ትቀ ረ
ትሰ ጀ
ትሰ እ
ትሰ ምዐ
ትር አ
ትረ ገ
ትረ ክ
ት ፍረ
ት ጠረ
ት ዮ</w>
ት ዝ</w>
ት ወከ
ት ወቅ
ት ካቱ</w>
ት ኩ
ት ንሰ
ት ቶም</w>
ት ሪክ</w>
ት ረት</w>
ት ሙ
ት ሑ</w>
ት ለው
ት ለክ
ት ሄ
ቴ ሌ</w>
ቴ ለል</w>
ታይ መ</w>
ታ እ</w>
ታ ሆም</w>
ቲ ን
ቲ ር</w>
ቲ ል</w>
ቱ ኩ</w>
ቱ በ</w>
ተጅ ሪ
ተየ ል
ተአት ባ
ተአ ፍር
ተአ ጥ
ተአ ንገ
ተአ ነ
ተበ ሰም</w>
ተር ብ
ተም ተ
ተም በር</w>
ተሐ ብ
ተል ነ</w>
ተሀ ር
ተሀ ራ
ተ ሃገ
ቭ ያ</w>
ቬ ር
ቪ ለ</w>
ቦ ትለ</w>
ቦ ሊ
ብእ ስ</w>
ብራ ም</w>
ብ ድራ
ብ ዪን</w>
ብ ክ
ብ አ
ብ ነት</w>
ብ ሻ
ብ ሀ</w>
ቤ ጽሐ
ቤ መ</w>
ባ ጽሐ
ባ ጠ</w>
ባ ባ
ባ ሽ</w>
ባ ላ
ቡ በ</w>
ቡ ራም</w>
በጥ ረ</w>
በን ዴ
በት ቼ</w>
በር ገ
በር ክ
በር ሄ
በለ ከ</w>
በለ ስ</w>
በ ግስ</w>
በ ዱ
በ ደር
በ ዚ
በ ኬ
በ ተከ</w>
በ ተነ</w>
በ ቅል</w>
በ ሩ
በ ሐር</w>
በ ለሰ
ቓ ት</w>
ቆ ር
ቅር ጡ
ቃ ቶም</w>
ቁ ቅ</w>
ቁ ለ</w>
ቀየ ር</w>
ቀት ል</w>
ቀር በ</w>
ቀ ዶ</w>
ቀ ነ
ቀ ቦት</w>
ቀ ብረ
ቀ ቆት</w>
ሽክ ለት</w>
ሽ ቅል</w>
ሼ መ</w>
ሻቀ ለ</w>
ሻ ቫ
ሹ ል</w>
ሸ ዕብ
ሸ አገ
ሸ ንክ
ሸ ና
ሸ ነብ
ሸ ትለ</w>
ሸ ረው</w>
ሸ ሓ
ስዒ ድ
ስእ ን</w>
ስትሮ ል</w>
ስት ሪ</w>
ስ ዱ
ስ ዔ</w>
ስ ኒ
ስ ማ</w>
ስ ሑ
ሴ ድ
ሳ ድር</w>
ሳ ዬ</w>
ሳ ና</w>
ሳ ትነ</w>
ሳ ቡ</w>
ሳ ሬ</w>
ሳ ረ
ሳ ላት</w>
ሲ ና</w>
ሲ ኒ</w>
ሱ ን</w>
ሱ ብ</w>
ሱ በ</w>
ሱ ሩ</w>
ሰእ ዮ
ሰኣ ላት</w>
ሰን ቲ
ሰብ ኮ</w>
ሰበ ብ</w>
ሰርገ ለ</w>
ሰምዐ ከ</w>
ሰላ ሴ</w>
ሰላ መ</w>
ሰ ፈ</w>
ሰ ጃ
ሰ ይት</w>
ሰ ቶ</w>
ሰ ሶት</w>
ሰ ሃ
ሮ ሬ</w>
ርከ ኒ</w>
ርከ ተ</w>
ርከ ቡ</w>
ሬ ድ
ሬ ይ</w>
ሬ ክ
ሬ ሆም</w>
ሬ ሁ</w>
ራ ዲ
ራ ዐ
ራ ከብ</w>
ሪ ዬ</w>
ሪ ቀ</w>
ሩ ስ
ረፍ ነ</w>
ረክ ቦ</w>
ረብ ሽ</w>
ረ ገ
ረ ዪ</w>
ረ የን</w>
ረ አሰ
ረ ተበ
ረ ቡ</w>
ረ ሲ
ረ ሩ</w>
ሞ ኖ
ሞ ትለ</w>
ምፕ </w>
ምዴ ርየት</w>
ምስ ተ
ምስ ሉ</w>
ም ዩ</w>
ም ዩ
ም ዐው</w>
ም ረሐ
ም ልህ
ሜ ዳ
ሜ ተ</w>
ሜ መ</w>
ሜ ል
ማይ ከ</w>
ማይ ን</w>
ማ የ
ማ ራ
ማ ሞ
ሚ ሽ</w>
ሚ ለ</w>
ሙ ና
መድ ሕ
መዳ ፈዐ
መዳ ሊ
መደር ሲ
መዕ ነ</w>
መዐ ዩ</w>
መዋጥ ኒ
መክ ተ
መከ ሕ</w>
መን ደር
መን ኪ
መን ከ</w>
መት ጸ
መት መዳ
መቅ ረሐ</w>
መቃ ርሕ</w>
መሽ ምሽ</w>
መሻ ር
መሸ ንገ
መስ ተ
መስ ቀል</w>
መስ ሎ</w>
መር ጀ
መር ዴ</w>
መር ከ</w>
መር ሀ
መሕ በር</w>
መሕ ሙድ
መ ጹ
መ ጨ</w>
መ ጅ</w>
መ ዖም</w>
መ ቴ</w>
መ ሼ
መ ሰም
መ ሥ
መ ማ</w>
መ ለእ
መ ለብ
መ ለህ
ሕ ጌ
ሕ ጁ
ሕ ካ
ሕ በ
ሕ ሻ
ሕ ሊ
ሔ ና</w>
ሓ ጨ
ሓ ጥ
ሓ ን
ሓ ኒ</w>
ሓ ቶም</w>
ሓ ባ
ሑ መ</w>
ሐዜ ነ</w>
ሐብ ሮ</w>
ሐረ ስታ
ሐ ፈ
ሐ ጫ
ሐ ንቀ
ሐ ቆ</w>
ሐ ሩ</w>
ሐ ሞ
ሎ ምተ</w>
ልግ በ
ልክ ወ</w>
ልእ ክ</w>
ልት ገበ
ልት በገ
ልት ቀረ
ልት ህ
ልም ጸአ
ልህ የ</w>
ል የቶም</w>
ል ዋጅ
ል ክል
ል እ</w>
ል አት
ል ንድ
ል ቶ
ል ተን
ል ተበ
ል ቦም</w>
ል ባል
ል ሼ
ል ሳም
ል ሎ</w>
ሌ ክ</w>
ላይ ል</w>
ላ ጅ
ላ ዮም</w>
ላ ዊ</w>
ሉ ስ</w>
ለፈ ትሐ
ለፈ ቅ
ለድ ራ
ለዐ ንደ
ለው ከ</w>
ለክ ን</w>
ለክ ታ
ለእ ግ
ለኢ ፈ
ለኢ ገ
ለኢ ን
ለአድረ ሰ
ለአት ዋ
ለአት ካረ
ለአት ካ
ለአ ጽብ
ለአ ክ</w>
ለአ ከብ
ለአ ንደ
ለአ ንስ
ለአ ቡ
ለአ በድ
ለአ ማ
ለን ቱ</w>
ለነ አት
ለነ አሰ
ለት ዬ</w>
ለት ወረ
ለት ወለ
ለት ኒ</w>
ለት ቃረ
ለት መነ
ለተር ጀ
ለተ ሀይ
ለብ ዝ
ለበ ስ
ለቀ ው</w>
ለሰ ይ
ለሰ ሐ
ለሰ ል
ለረ ድ
ለመ ልህ
ለሓ ም
ለሐ ጽ
ለሐ ሊ
ለልአ ደር
ለልት ዋ
ለልት በሀ
ለልት በ
ለልት መ
ለልት ሐበ
ለል ክ
ለል አክ
ለለአ ስ
ለለአ ሰ
ለለ ቱ</w>
ለሀ ንደ
ለሀ ም
ለ ፋ</w>
ለ ጂ
ለ ዲ
ለ ወጠ
ለ ወልደ
ለ ኩ</w>
ለ ሽ</w>
ለ ሸ</w>
ለ ሳ</w>
ለ ርእ
ለ ሎም</w>
ለ ሂ
ህ ሌት</w>
ሄ ል</w>
ሃጌ ኒ</w>
ሃጌ ነ</w>
ሃ ዊ</w>
ሃ ና</w>
ሁ ነ</w>
ሀይ ኮ
ሀር ር</w>
ሀ ዳይ
ሀ ንስ</w>
ሀ በት</w>
ሀ ሮ
ፖር ቱ
ፖ ርት</w>
ፍዐ ዩ</w>
ፍዐ ነ</w>
ፍር ነ</w>
ፍህ ሞ</w>
ፍ ዘ</w>
ፍ ቴ
ፍ ቀ</w>
ፍ ሕ
ፌ ዕቱ</w>
ፌ ተት</w>
ፌ መ</w>
ፋይ ለ</w>
ፋር ግ</w>
ፋ ዝ</w>
ፋ ሩ
ፊ ሬ</w>
ፊ ለ</w>
ፉ ፉ</w>
ፈቅ ደ</w>
ፈር ነ</w>
ፈር ሁ</w>
ፈ ድ</w>
ፈ ያ
ፈ ቲት</w>
ፈ ሮ
ጾ ት</w>
ጽ ነ</w>
ጽ ሖም</w>
ጽ ላ
ጼ ኔ</w>
ጻብ ጠ
ጻ ፍ</w>
ጺ እ</w>
ጹ ዕ</w>
ጸገ ዕ</w>
ጸብ ሐ
ጸሐ ን</w>
ጸ ንሕ
ጸ ሓይ
ጭ ከ</w>
ጭ ብዕ
ጭ ረት</w>
ጬ ት</w>
ጪ ጭ</w>
ጨ ቱ</w>
ጨ ተ</w>
ጦ ር
ጥ ፈ
ጥ በ
ጥ ላ
ጤ ዕ</w>
ጤ ከ</w>
ጤ ነ</w>
ጣ ብ</w>
ጣ ሀ</w>
ጠጠ የ</w>
ጠረ ዩ</w>
ጠል ቁ</w>
ጠ ማ
ጠ ልበ
ግራ ፍ
ግ ዶ</w>
ግ ነት</w>
ግ ሰ</w>
ግ ልት
ጌ መም</w>
ጋብ ህ</w>
ጊ ለ</w>
ገብርኤ ል</w>
ገበ ዩ</w>
ገረ ዩ</w>
ገ ፈ
ገ ዖ</w>
ገ ዉ</w>
ገ ትለ</w>
ገ ባይ
ገ ሉ</w>
ገ ህ
ጅ ዝ</w>
ጅ ቱ</w>
ጅ ሪ
ጄ ኔ
ጄ ት</w>
ጄ ቱ</w>
ጄ ርየ</w>
ጄ ሕ</w>
ጃ እዘ
ጃ ተ</w>
ጃ ረ
ጀር የ</w>
ጀም ዕ</w>
ጀሀ ድ</w>
ጀ ክ</w>
ጀ ኒ</w>
ጀ ተ</w>
ጀ ብረ
ጀ መዕ</w>
ዶ ነ</w>
ዶ ብ
ድረ ው</w>
ድ ይ
ድ ያን</w>
ድ ካ
ድ ቦ</w>
ድ ቅ
ድ ሮም</w>
ድ ሪ</w>
ድ ህ
ዳግ ሙ</w>
ዳገ ም
ዳው ሮ</w>
ዳ ዮም</w>
ዲ ሽ</w>
ዱ ገ</w>
ዱ ል
ደፈ ዐ</w>
ደገ ጊ
ደረ ዮም</w>
ደረ ተ</w>
ደረ ሳይት</w>
ደ ፌዕ</w>
ደ ዐት</w>
ደ ውር</w>
ደ ኒ
ደ ሮ
ደ መው</w>
ደ ሕ</w>
ደ ሕ
ዮ ታ</w>
ይእ ት</w>
ይ ግ
ይ ያ</w>
ይ ዝ</w>
ይ ኩም</w>
ይ ሖ</w>
ዬ ስ</w>
ያ ፍ</w>
ያ ይ
ያ ንግ</w>
ያ ናት</w>
ያ ሰ</w>
ያ ረ</w>
ያ ምዬ</w>
ዪ ኒ</w>
ዪ ብ</w>
ዩናይ ትድ</w>
ዩ ስፍ</w>
የ ቲት</w>
የ መው</w>
ዞ ን</w>
ዝ ያት</w>
ዝ ን
ዜ ይ</w>
ዛ ዕ</w>
ዛ በ</w>
ዚ የ</w>
ዚ ሪ</w>
ዘር አ
ዘራ እ</w>
ዘ ጋ</w>
ዘ ዝ
ዘ ነት</w>
ዘ ሐ</w>
ዖ መ</w>
ዕጉ ላም
ዕን ቴ
ዕ ኩም</w>
ዕ ንብ
ዕ ሹ
ዕ ምስ
ዕ ምር
ዕ ለ
ዓፍ የት</w>
ዓ ጽ
ዓ ደት</w>
ዓ ከ</w>
ዓ ነ</w>
ዓ ቡ</w>
ዓ ሊ
ዓ ለ</w>
ዒ ኒ</w>
ዑ ብ</w>
ዐገ ብ</w>
ዐው ኒ</w>
ዐር ግ</w>
ዐል ኮ</w>
ዐል ከ</w>
ዐ ግብ</w>
ዐ ዘ</w>
ዐ ና</w>
ዐ ና
ዐ ቀ
ዎ ት</w>
ውዛ ረት</w>
ው ጽ
ው ግ</w>
ው ያት</w>
ው ናቱ</w>
ው ናተ</w>
ው ነት</w>
ው ም</w>
ዋ ጌ</w>
ዋ ብ</w>
ዋ ቅ</w>
ዋ ሁ</w>
ዊ ዝ</w>
ዊ ስ</w>
ወፍ ክር
ወፍ ን
ወፈ ዋ
ወግ ሬ
ወግ ም</w>
ወድ ዮም</w>
ወደ ንጎ
ወደ ሚ
ወደ ሕ</w>
ወይ ኒ</w>
ወዘ ዕ</w>
ወዐ ል</w>
ወው ሕ
ወከ ና
ወኦ ሮ
ወእቅ ትሳ
ወእስትራ ተጅ
ወእም በል
ወእ ጃ
ወእ ዴ
ወእ ማ
ወኢ ደ
ወኢ ረከብ
ወኢ ሀ
ወአ ንቀ
ወአ ርበ
ወአ ረ
ወት ትበ
ወት ትቀ
ወት ትሸ
ወት ትሰ
ወት ቅ
ወት ምኔ
ወት ም
ወታ ሪ
ወብ ሩ
ወቅ ሩ
ወቀ ን
ወቀ ለት</w>
ወሸ ዐብ
ወስ ጋ
ወስ ና
ወስ ነ
ወስ ትራ
ወስ ታ
ወሰ ፍ</w>
ወሰ ፋ
ወሰ ጅ
ወሰ ና
ወሰ ርገ
ወር ቂ</w>
ወም ል
ወመት ዓ
ወመስ ኩ
ወመ ፈ
ወመ ግ
ወመ ደር
ወመ ስከ
ወሕ ም
ወልት ዋ
ወል ግ
ወለአ ን
ወለአ ር
ወለ ጋ
ወለ ሔ
ወ ፕሮ
ወ ፀ
ወ ዩ</w>
ወ ዙ
ወ ኖት</w>
ወ ኖ</w>
ወ ሰ</w>
ወ መ</w>
ወ ህ</w>
ኳ ት</w>
ኮ ስ
ኮ ሪ
ኮ ሩ</w>
ኮ ማን
ክሪ ስታ
ክረ ኒ</w>
ክረ ተ</w>
ክምሰል ሁመ</w>
ክል ቀ
ክ ያ</w>
ክ ከም
ክ ቦ
ክ ሽ</w>
ክ ላ</w>
ክ ህ</w>
ኬ ዕ</w>
ኬ ን
ካፈ ለ</w>
ካርቦ ሃይ
ካ ዬ</w>
ካ ዩ</w>
ካ ዊ</w>
ካ ቶ</w>
ካ ቶ
ካ ራ</w>
ካ ሙ</w>
ካ ሉ</w>
ኪዳ ኔ
ኪ ስታን</w>
ኪ ሩ</w>
ኩ ሽ</w>
ኩ ራም</w>
ኩ መን</w>
ከደ ም</w>
ከይ ዱ</w>
ከተ በ</w>
ከል እ</w>
ከል ብ</w>
ከ ፎ</w>
ከ ጅል</w>
ከ ደን
ከ ኢት
ከ አብ
ከ ትገ
ከ ትመ</w>
ከ በል
ከ ሜ
ከ ለዐ
ከ ሀበ
ከ ሀ</w>
ኦ ሮት</w>
እድ ሪስ</w>
እን ጨ
እን ጣ
እን ሱ
እት ደ
እም ብራጦ
እ ደይ
እ ናሁ</w>
እ ቀ
እ ሹ
እ ሎም</w>
ኤር ትራ
ኤረትር ዪን</w>
ኤ ን</w>
ኤ ታ
ኤ ቨር
ኤ ም</w>
ኤ ማን
ኤ ሌ</w>
ኣት የ</w>
ኣም ነ</w>
ኣመ ረት</w>
ኣ ደም</w>
ኣ ዋ
ኣ ከ</w>
ኣ ቱ
ኣ ስተ
ኣ ሲ
ኣ ማን
ኣ ሚ
ኣ መር</w>
ኣ ለም</w>
ኣ ህ
ኢይ ት
ኢነ አት
ኢትት ሀ
ኢት ፈረ
ኢት ጸ
ኢት ካ
ኢሰ ዴ
ኢልት ከ
ኢልት ነ
ኢልት ሀ
ኢል አት
ኢ ጸን
ኢ ድ
ኢ ወዐ
ኢ ወር
ኢ ከፍ
ኢ ተረ
ኢ ቀብ
ኢ ሽ</w>
ኢ ለበ
ኢ ለቀ
ኡ ይ</w>
ኡ ና</w>
ኡ ሉ</w>
አፍ ዘ
አድ ኖ
አክ በ
አካ ን
አከ ር</w>
አንበ ቶ
አን ፋር
አን ጃ
አን ደፈ
አን ቅ
አትና የተ
አትባ ዝ
አትሐ ላ
አት ዐጀ
አት ካፍ
አት ከ
አተላ ሌ</w>
አተ ከ</w>
አተ ባ
አብጸ ሕ
አበ ላ</w>
አቅ ሰ
አስ ዑ
አስ ተዕ
አር ዌ
አል ገ
አል ሐ
አ ገረ
አ ክ</w>
አ ኪ</w>
አ እን
አ ቃር
አ ቁር
አ ሾ
ኖ ቨ
ንግ ሃም</w>
ንገ ን</w>
ንደ ቅ</w>
ንት ላ
ንቅ ፍ</w>
ን ዐት</w>
ን ንሰ
ን ራ
ን ሕ</w>
ን ሄ
ኔ ዝ</w>
ና ፋ
ና ቴ</w>
ና ብ
ና ል
ና ሃተ</w>
ነፍ ዑ</w>
ነፈ ፅ</w>
ነዘ ም</w>
ነብ ቶ</w>
ነቅ ሰ</w>
ነስ አ</w>
ነ ውኒ</w>
ነ ካ
ነ ኪ</w>
ነ ከት</w>
ነ ትቱ</w>
ነ ቲት</w>
ነ ቀ</w>
ነ ሖ</w>
ነ ሐል
ቼል ሲ</w>
ቶ ይ</w>
ቶ ስ</w>
ቶ ሀ</w>
ትፈ ናተ</w>
ትገ ራ
ትት ጸ
ትት ዳ
ትት ከበ
ትት ረስ
ትት ማ
ትበ ሃ
ትበ ሀለ
ትሻ ፈ
ትሰፍ ለል
ትር ዪን</w>
ትር ት</w>
ትላ ከ
ት ፍር
ት ጭ
ት ግብ
ት ግራ
ት ድረ
ት ዲ</w>
ት ያም</w>
ት ዛበ
ት ኮ
ት ተር
ት ሽ</w>
ት ማን</w>
ት ሐ</w>
ት ለብ
ት ሆ
ቴክኖ ሎጂ
ታይ ቱ</w>
ታ ያም</w>
ታ ከ</w>
ታ ም
ቲ ኖ</w>
ቲ ንግ</w>
ቲ ት
ቱ ዕ</w>
ተዐ ጅ
ተዐ የ
ተዐ ዘ
ተዐ ለም
ተኣም ር
ተአ ሲ
ተን ሴ</w>
ተብ ህ</w>
ተርጅ ሙ</w>
ተርጀ ም</w>
ተር ጀም
ተር ቲ
ተም ተም
ተመዕ ነ</w>
ተሕ ሪ
ተሐ የ
ተሐ ዝ
ተሐ ል
ተሐ ላ
ተል ሀየ</w>
ተለ ፉ
ተሃ ደፈ
ተ ጂ</w>
ተ ድ</w>
ተ ትለ</w>
ተ ሬ
ተ ሠ
ተ ለዩ</w>
ቫ ለን
ቦር ግ</w>
ቦ ራ
ቦ ም
ብዕ ድ</w>
ብር ኪ
ብራ ቱ</w>
ብ ጦ</w>
ብ ጋ
ብ ኣ
ብ ኡ</w>
ብ አ</w>
ብ ሌ</w>
ብ ላ</w>
ባይ ብ</w>
ባ ሌ</w>
ቢ የ</w>
ቢ ስ</w>
ቢ ሩ</w>
ቢ ህ</w>
ቡር ግ</w>
ቡ ስ
ቡ ሮ</w>
በጸ ሕ</w>
በተ ክ</w>
በር ክት</w>
በር ር</w>
በረ ዮም</w>
በረ ን</w>
በል ሱ</w>
በ ጼ
በ ያሁ</w>
በ ካቱ</w>
በ አት</w>
በ ነት</w>
በ ሳ</w>
በ ሓ
በ ሎ
በ ሌዕ</w>
ቆ ብ</w>
ቆ ስ</w>
ቅሩ ብ</w>
ቅ ጽ
ቅ ጠ
ቅ ናሁ</w>
ቅ ቦም</w>
ቅ ሎም</w>
ቅ ላል</w>
ቄ ን</w>
ቃር ን</w>
ቃ ዩ</w>
ቃ እ
ቃ ብ
ቃ ሽ</w>
ቃ ስ
ቃ ምት</w>
ቂ ል</w>
ቁ ስ
ቁ ላም</w>
ቀድ ሮም</w>
ቀይ ስ</w>
ቀየ ር
ቀዋ ኒ
ቀባ ብል</w>
ቀር ር</w>
ቀ ጸ
ቀ ጠ
ቀ ዶም</w>
ቀ ያሁ</w>
ቀ በር
ቀ ቀው</w>
ቀ ሰት</w>
ቀ ሉ</w>
ቀ ለው</w>
ሽን ሂ
ሽ ዐ
ሽ ኩም</w>
ሽ ና
ሽ ሎ</w>
ሽ ሂድ</w>
ሼ ዕ</w>
ሻ ረት</w>
ሻ ል
ሺ ድ</w>
ሺ ል</w>
ሸረ ሐ</w>
ሸ ገ
ሸ ክስ
ሸ ቼ</w>
ሸ ት
ሸ በት</w>
ሸ ቀ</w>
ሶ ኦ</w>
ሶ ትለ</w>
ሶ ስ
ስያ ሐ
ስቶ ስ</w>
ስር ጉ
ስ ይ
ስ ኪ
ስ በት</w>
ስ ልስ
ሴ ና</w>
ሴ ርር</w>
ሳይ ነ</w>
ሳይ ቱ</w>
ሳይ ል</w>
ሳ ገ
ሳ ታ</w>
ሳ ቅ</w>
ሳ ረ</w>
ሲ መ</w>
ሰብ ነ</w>
ሰር ት</w>
ሰመ ዖ</w>
ሰል ጥ</w>
ሰለ ስ</w>
ሰለ ሕ</w>
ሰ ጠ</w>
ሰ አ</w>
ሰ ናይ</w>
ሰ ሎ</w>
ሰ ላ</w>
ሮ ኮ</w>
ሮ ም
ርኤ ኪ</w>
ርበ በ</w>
ርሕ ት</w>
ር ገ</w>
ር ዮም</w>
ር ቦ</w>
ሬ ን
ሬ መት</w>
ራ ጅ
ራ ዬ</w>
ራ ክብ</w>
ራ ቼ</w>
ራ ታ</w>
ራ በ</w>
ራ ር
ሪ የት</w>
ሪ ኖ</w>
ሪ ቶም</w>
ሪ ቡ</w>
ሪ በ</w>
ሪ ሀ</w>
ሩ ፉ</w>
ሩ ደ</w>
ሩ ኩ</w>
ሩ ተ</w>
ሩ ሶም</w>
ሩ ራም</w>
ረይ ሕ</w>
ረከ ቱ</w>
ረከ በት</w>
ረ ጥ</w>
ረ ዶ</w>
ረ ዳ
ረ ደት</w>
ረ ዝ</w>
ረ ዐት</w>
ረ ካ</w>
ረ ሻ
ረ ሰም
ረ መዳን</w>
ረ ሖም</w>
ረ ሀ</w>
ሠ ነ
ሠ ህ
ሞ ንጎ
ምዕ ራ
ምዐ ተ</w>
ምን ቱ</w>
ምን ተሐ
ምስ ለ</w>
ም ፓ
ም ጠ
ም ጋ
ም ዶ</w>
ም ዳ
ም ናድል</w>
ም ኑ</w>
ማይ መ</w>
ማስ ዪን</w>
ማስ የት</w>
ማር ያ</w>
ማር ያ
ማ ቅ
ማ ሚ
ሚ ክኤል</w>
ሚ ሁ</w>
ሙሰ ውር</w>
ሙ ዳ
ሙ ሮም</w>
ሙ ራም</w>
ሙ ም
ሙ መስ
ሙ ለ</w>
መጽ ኦም</w>
መድ ር
መድ ሐራ
መደ ድ</w>
መደ ዩ</w>
መየ ው</w>
መዕ ረ
መዐ ኒ</w>
መት ደጋ
መት ከራ
መት ቀዳ
መት ሐድ
መት ሐራ
መት ሄ
መት ሃግ
መተ ራ
መቅ ጠ
መቃ ረሕ</w>
መስ ክን</w>
መስ ኒ
መስ ለ</w>
መም ተል
መመ ዩ</w>
መል ሃ
መለ ክ</w>
መ ጓ
መ ገር
መ ዶት</w>
መ ዚ
መ ዋጅ
መ ዉ
መ ከር
መ ብር
መ ሳ</w>
መ ሐር
ሖ ቶም</w>
ሕ ጡ
ሕ ዲ
ሕ ሱ
ሕ ልቅ
ሔ ኩም</w>
ሓል ፎ</w>
ሓ ከ</w>
ሓ ልፍ
ሑ ዉ</w>
ሐብ ዐ
ሐሰ በ</w>
ሐር ብ</w>
ሐረ የ</w>
ሐረ ስቶ
ሐ ወ</w>
ሐ ኖ</w>
ሐ ንከ
ሐ ና</w>
ሐ ቼ</w>
ሐ ትከ</w>
ሐ ሻ
ሐ ሸክ
ሎ ዕ</w>
ሎ ቲ</w>
ሎ በ</w>
ሎ ምመ</w>
ሎ ሕ</w>
ሎ ሉ
ልት ክ
ልት ሰሐ
ልት ር
ልት መሳ
ልብ ጸ
ልበ ስ</w>
ል ድገ
ል ዒ
ል ው</w>
ል ናቱ</w>
ል ተረ
ል ቀ</w>
ል ሞ</w>
ሌ ናሁ</w>
ላይ ከ</w>
ላ ትከ</w>
ላ በ</w>
ላ ር
ሊ ፈ</w>
ሊ ጊ
ሊ ዮ
ሊ ለት</w>
ሉ ሰ</w>
ሉ ሎም</w>
ለፍ ነ</w>
ለገ ይ
ለገ ሮ
ለጀ ምዐ
ለጀ ማ
ለደ ፍ
ለደ ፈ
ለዓ ይ
ለዐ ለመ
ለክ ፈ
ለእ ድ
ለኣ ን
ለኢት ት
ለኢ ወዴ
ለአጽ ነሐ
ለአት ፋቅ
ለአት ር
ለአስ በ
ለአ ጭ
ለአ የ
ለአ ከር
ለአ ከል
ለአ ንግ
ለአ ነ</w>
ለአ ቀር
ለአ ሸክ
ለአ መጸ
ለአ ህ
ለነ አተ
ለትት ሓ
ለት ዛበ
ለት ኸ
ለት አተ
ለት ትገ
ለት ሸር
ለት ሳድ
ለት ሰበ
ለት ሰም
ለታ ብ
ለተ ንከ
ለተ ሃ
ለቤ ል
ለበ ስ</w>
ለበ ሊ
ለሸ ቅ
ለሸ ረሕ
ለስ ጋ
ለሰ ላ
ለረ ክብ
ለረ ስ
ለመ ፋ
ለመ ጥ
ለመ ካ
ለመ ም
ለመ ላ
ለሓ ልፈ
ለሐ ክ
ለልት ጻ
ለልት ገ
ለልት ዐለ
ለልት ሰአ
ለል ሰ
ለል ሐዝ
ለል ሐል
ለሀ ይ</w>
ለሀ ዩ
ለ ፃ
ለ ጦ
ለ ዘ</w>
ለ ዖ
ለ ኮት</w>
ለ ቢ</w>
ለ ሺ
ለ ራቅ
ለ ሜር
ለ ሎ
ለ ለነ
ሆ ታት</w>
ሆ ምመ</w>
ህግ የ
ህ ፍ</w>
ህ ዎ</w>
ህ ሮ
ህ ሎ</w>
ህ ሌነ</w>
ህ ሌ</w>
ሄ ቱ</w>
ሃጌ ከ</w>
ሃይ ድሮ
ሃይ ም</w>
ሀብ ተ
ሀር ም</w>
ሀለ ዮት</w>
ሀ ግ
ሀ ዳ</w>
ሀ ንድ
ሀ ብረ
ሀ ሞም</w>
ሀ ምነ</w>
ሀ መው</w>
ፕ ር
ፓ ላስ</w>
ፎ ሮ
ፍን ቲት</w>
ፍ ጥ
ፍ ዖም</w>
ፍ ሉ
ፋ ው
ፋ ኤል</w>
ፋ ሺ
ፋ ስ</w>
ፊራ ሮ
ፊ ል</w>
ፉ ዝ</w>
ፈን ቱ</w>
ፈና ተ
ፈት ሕ</w>
ፈር ድ</w>
ፈረ ን
ፈ ዮት</w>
ፈ ከር</w>
ፈ ናተ</w>
ፈ ቀ</w>
ፈ ሰ
ፀ በ</w>
ጽበ ጡ</w>
ጽበ ጠ</w>
ጽ ዋር
ጽ ቡ
ጼ ኒ</w>
ጻ ንሐ
ጸአ ነ</w>
ጸበ ጦ</w>
ጸበ ጠ</w>
ጸ ፍዐ
ጸ ዩ</w>
ጸ ዓ
ጸ አ</w>
ጸ ቶም</w>
ጸ ሓይ</w>
ጭ ገር
ጭ ገረ
ጩ ር</w>
ጩ ል</w>
ጩ ህ</w>
ጨ ፈ</w>
ጨ ዩ</w>
ጦ ጥል</w>
ጥ ጦ</w>
ጥ ዬ</w>
ጥ ዐት</w>
ጥ ው
ጥ ዉ
ጥ ልያ
ጣ ቶም</w>
ጣ ረ</w>
ጠፍ ሕ</w>
ጠ ይ</w>
ጠ ወር
ጠ ወረ</w>
ጠ ወ</w>
ጠ ትመ</w>
ጠ ሮት</w>
ጠ ርከ</w>
ጠ ለም
ጎ ቶም</w>
ጎ ታት</w>
ግር ት</w>
ግር መ</w>
ግራ ሁ</w>
ግ ነ
ግ ሰ
ግ ሮም</w>
ግ ሞም</w>
ግ ልባ
ጌ ማ
ጋ ነ
ጋ ሽ</w>
ጊ መ</w>
ጉ ን</w>
ገን ሕ</w>
ገብ ኦ</w>
ገብ ነ</w>
ገቢ እ</w>
ገ ንግ
ገ ሮም</w>
ገ ሬ
ገ ላይ</w>
ገ ለው</w>
ጅ ነት</w>
ጅ ል
ጅ ሃ
ጅ ሀ
ጄ ነ</w>
ጃ ፓ
ጃ ገር</w>
ጂ ም</w>
ጀ ፈር
ጀ ዩ</w>
ጀ ዝ
ጀ ሬ</w>
ጀ መል</w>
ጀ ሀ</w>
ዶ ክቶ
ዶ ሩ</w>
ዶ ምቱ</w>
ድር ቱ</w>
ድሪ ድ</w>
ድ ጉ
ድ የቱ</w>
ድ ዉ</w>
ድ ወ</w>
ድ ኡ</w>
ድ ቀ</w>
ድ ሚ
ድ ሁ
ዴ ካቱ</w>
ዳግ መ</w>
ዳም ያም</w>
ዳል ያት</w>
ዳ ግ</w>
ዲ ንግ</w>
ዲ ንመ</w>
ዲ ነት</w>
ዱ ሉ
ደጋ ገም</w>
ደጋ ገ
ደገ መ</w>
ደው ቱ</w>
ደቅ ቡ</w>
ደር ሰ
ደረ ኒ</w>
ደረ ነ</w>
ደረ ሰ
ደም ኮ</w>
ደም ቅ</w>
ደል ዩ</w>
ደ ጋ</w>
ደ ጉ</w>
ደ ገት</w>
ደ ዶ</w>
ደ ድከ</w>
ደ ዳ</w>
ደ ደየ</w>
ደ ክቶ
ደ ቆ</w>
ደ ሮት</w>
ዮ ብ</w>
ይ ፍ
ይ ዐቅ
ይ አው
ይ ቶም</w>
ይ ራ</w>
ዬ ሱ
ያ ብ
ያ ሪ</w>
ያ ሩ</w>
ዩ ሰ</w>
ዩ ረ</w>
ዩ ል</w>
የ ፍ</w>
የ አት
የ ሮት</w>
የ ምከ</w>
የ ምነ</w>
ዝያ ድ</w>
ዝያ ረት
ዝ ፍ
ዝ ዌ
ዝ ኸ
ዝ ና</w>
ዝ ሞ</w>
ዛ ይድ</w>
ዛ ሕ</w>
ዛ ህ
ዚ ነ</w>
ዚ መ</w>
ዙ ይ</w>
ዙ ቡ
ዘበ ጠ</w>
ዘር ኡ</w>
ዘ ፍ</w>
ዘ ዮም</w>
ዘ ኒ</w>
ዘ ባይ
ዘ ሠ
ዘ መን
ዖ ነ</w>
ዕ ፍ
ዕ ጽ
ዕ ጬ
ዕ ጡ
ዕ ደት</w>
ዕ ያት</w>
ዕ ዩ
ዕ በት</w>
ዕ ቅባ
ዕ ማ</w>
ዕ ሎም</w>
ዕ ልም
ዕ ላ</w>
ዔ ታት</w>
ዓ ፍ</w>
ዓ ጭ
ዓ የ</w>
ዓ ትመ</w>
ዓ ታ</w>
ዓ ምር</w>
ዒ ም</w>
ዑ ዉ</w>
ዐድ የ</w>
ዐው ት</w>
ዐን ዴ
ዐቅ ብ</w>
ዐል ብ</w>
ዐ ጠ
ዐ ዱ
ዐ ይር</w>
ዐ ዛ
ዐ ንገ
ዐ ለይ
ዎ ን</w>
ው ዝ
ው ክ</w>
ዋጥ ኒን</w>
ዋር ሐ</w>
ዋ ጥ</w>
ዋ ዲ</w>
ዋ ሕ</w>
ወፍ ገሪ
ወፋ ይ
ወጸ ዕ</w>
ወጥ ን</w>
ወጅ ህ</w>
ወደ ፍ
ወደ ማ
ወደ ሐን
ወዕ ን
ወዐ ማር
ወክ ፍ
ወከ ለ</w>
ወእ ኩ
ወእ ብላ
ወእ ሰ
ወእ ሕ
ወአት ጋ
ወአ ጫ
ወአ ንገ
ወአ ንሰ
ወአ ብረ
ወአ ቅራ
ወአ ማን
ወን ኡ
ወን ሕ
ወነ አስ
ወት ፍ
ወት ግ
ወት ከር
ወተ ጃ
ወተ ማ
ወተ ል
ወብ ቅ
ወብ ራ
ወብ ሪ
ወበ ሊ
ወቅ ዩ</w>
ወቅ ን
ወቃ ኑ
ወቀ ላ
ወራ ቱ</w>
ወረ ክ
ወረ ቱ</w>
ወረ ሕ
ወም ሕ
ወማ ሽ
ወመት ጻ
ወመት ደ
ወመት ሐ
ወመ ጦ
ወመ ርበ
ወሐ ው
ወሐ ት</w>
ወልት ጋ
ወልት ቃ
ወልት ራ
ወል ኮ</w>
ወል ነ</w>
ወል ሐ
ወለአ ድ
ወለአ ው
ወለ የ</w>
ወለ ኢነ
ወለ ነአ
ወለ ብ</w>
ወለ ሽ
ወለ ሻ
ወለ ሐም
ወለ ለዐ
ወ ፔ
ወ ጬ
ወ ደት</w>
ወ ዚር</w>
ወ ሬሕ</w>
ወ ራት</w>
ወ ሄራ
ኮ ክን</w>
ኮ ከብ</w>
ኮ ት
ኮ ል</w>
ክታ ር</w>
ክተ ብ</w>
ክር ዱ
ክር ር</w>
ክራ ን</w>
ክላ ሲ
ክ ዮም</w>
ክ ያት</w>
ክ ዋተ</w>
ክ ኩ</w>
ክ ኖ</w>
ክ ታ</w>
ክ ሕ</w>
ኬ ለም</w>
ካፍ ለ</w>
ካይ ደ</w>
ካል ፍ</w>
ካ ና</w>
ካ ተ
ካ ሪ</w>
ካ ህ
ካ ሁቱ</w>
ኩ ናም</w>
ከተ በት</w>
ከበ ሮ
ከሰ ስ</w>
ከለ ብ</w>
ከ ያ</w>
ከ የን</w>
ከ ዜ
ከ እስ
ከ ቼ</w>
ከ ተር
ከ ቢ</w>
ከ ቡ</w>
ከ መው</w>
ከ ለከ
ከ ለሸ
ኦ ፐሬ
ኦ አ
ኦ ተ</w>
ኦ ሎም
ኦ ለ</w>
እግ ዚ
እን ጮ
እን ገር
እን ትብ
እን ቱ
እን ቆቅ
እት ፉ
እት ገ
እት ባ
እት ም
እት ላ
እብ ጽ
እስታ ቅ
እስ ባ
እስ ላም
እም ነት</w>
እም ሀሚ
እሙ ር</w>
እህ ትማ
እ ፋ
እ ፈት
እ ጁ
እ ድር
እ ኽ
እ ትት
እ ቴ</w>
እ ተም
እ ተሓ
እ በ</w>
እ ሰት
እ ሮ
እ ሪክ</w>
ኤ ት
ኤ ስ</w>
ኤ ሮ
ኤ ምረት</w>
ኣመ ሮት</w>
ኣ ጅ
ኣ ሪ
ኢፈ ሀም
ኢትት ዐ
ኢትረሰ ዐ
ኢት ንቀ
ኢት ቅረ
ኢት ሃ
ኢተሀ ይ
ኢል ጥ
ኢል አም
ኢል ሀ
ኢለሐ ይ
ኢ ጥ
ኢ ጋ
ኢ ጊ
ኢ ደር
ኢ ወሰ
ኢ ከረ
ኢ ከለ
ኢ አን
ኢ ቅ
ኢ ቀይ
ኢ ረአ
ኢ ሐም
ኢ ለተ
ኡስታ ዝ</w>
ኡ ስ</w>
አፍ ገሮ
አጫ ብዕ
አግ ደ</w>
አግ ነሐ
አግ ሀ
አድ ግ</w>
አድ ነ
አድ ሐነ
አው ስትራ
አክ ተ
አክ ሰ
አክ ል</w>
አከ ድ
አትፋ ቅ
አትቃ መተ
አትሓ የ
አት ኣመረ
አት አም
አተ ው
አስማ ጥ
አስ ግ
አስ ከ</w>
አስ ት
አስ ባ
አስ ራ
አስ መራ
አር ሕ
አም በል
አሕ ተረ
አል ጀ
አል ኣ
አል በስ
አለ ም</w>
አ ፈረ
አ ዉ
አ ከል
አ ኣ
አ ታ</w>
አ ቤ</w>
አ ሀ
ኖ ዕ</w>
ኖ ሶም</w>
ንፈ ዕ</w>
ንዳ ል</w>
ንደ ዕ</w>
ንደ ቀ</w>
ንክ ዉ</w>
ንክ ኤል</w>
ንክ ት</w>
ንክ ሽ</w>
ንት ቃ
ንት ሃ
ንብ ት</w>
ን ዶ
ን ዱ</w>
ን ዔ</w>
ን አት
ን ሑ</w>
ኔ ፍ
ኔ ይ</w>
ኔ ት
ኔ ር
ኔ መ</w>
ናይ ቶም</w>
ናቅ ር</w>
ና ያም</w>
ና ው
ና ሰ</w>
ኒ ዝ</w>
ነጽ ር</w>
ነግ ብ</w>
ነድ ፈ</w>
ነት ቼ</w>
ነብ ቱ</w>
ነቅ ፈ</w>
ነስ ኦ</w>
ነ ፌ
ነ ፀ
ነ ዚ
ነ ዎ</w>
ነ ታት</w>
ነ ቁ
ነ ራት</w>
ነ ሪ</w>
ነ ለ</w>
ቶ ተን
ትፈን ቴ
ትፈ ቅ
ትጸ ዐ
ትጋ ደ
ትገ ይ
ትዕ ብ</w>
ትከ ለለ
ትነ ሸ
ትት ሻ
ትት ሰአ
ትት ሐደ
ትት ሐረ
ትብ ት</w>
ትበ ሀል</w>
ትሰ ጅ
ትረ ይት</w>
ትረ ይ
ትመ ዬ
ትሐ ዜ</w>
ትልህ የ
ት ዮ
ት ወዝ
ት ካር
ት ተን
ት ተም
ት ቆ
ት መን
ት ሐት</w>
ቴ ለ
ታይ ም</w>
ታብ ዕ</w>
ታ ትኩም</w>
ታ በዐ
ታ ርየት</w>
ቲ ከ</w>
ቲ ስ</w>
ቲ ለ</w>
ቱ ያም</w>
ቱ ሉ</w>
ቱ ሉ
ተፍ ኪ
ተጅ የት</w>
ተዕ ሊም</w>
ተዐ ወተ
ተዐ ንቀ
ተክ ኖ
ተአ ከር
ተአ ተቅ
ተአ ሪ
ተአ ምጽ
ተአ ምር</w>
ተአ መር</w>
ተን ክብ</w>
ተን ቱ</w>
ተር ነ</w>
ተር ም</w>
ተል ፍ</w>
ተሀ ንጦ
ተ ጣ
ተ ኮ</w>
ተ ናተ</w>
ተ ትከ</w>
ተ ተው</w>
ተ ቕ
ተ መር
ተ ልት
ተ ሉ
ቫይ ረስ</w>
ቪ ስ</w>
ቦ ይ</w>
ቦ ኦ</w>
ቦ ትመ</w>
ቦ ሮ</w>
ቦ ር</w>
ብር ለ</w>
ብሕ ቶ
ብ ይ
ብ የን</w>
ብ የ
ብ ዓይ</w>
ብ እስ
ብ እሰ
ብ ናቱ</w>
ብ ሰ</w>
ብ ሬ</w>
ብ ሀት</w>
ቤ ን
ቤ ቶም</w>
ባን ዴ
ባር ክ</w>
ባ ዶ
ባ ዪ</w>
ባ ብነ</w>
ቢ ሁ</w>
ቡ ጦም</w>
ቡ ድ
ቡ ሰ</w>
በጽ ሖም</w>
በድ የ</w>
በድ ለ</w>
በረ ኸ
በለ ወ</w>
በለ ል</w>
በ ጢ
በ ጠር
በ ዛ
በ ኣ
በ ባ
በ ሺር</w>
በ ሰት</w>
በ ሪት</w>
ቆ ሁ</w>
ቅ ቦ</w>
ቅ ሳ
ቅ ሙ
ቅ ልት</w>
ቃወ ም</w>
ቃ ጥ</w>
ቃ ጥ
ቂ ም</w>
ቁ ት</w>
ቁ በ</w>
ቀደ ረ</w>
ቀብ ብ</w>
ቀብ ሉ</w>
ቀር በ
ቀረ እ</w>
ቀረ እ
ቀ ዪ</w>
ቀ ዪ
ቀ ዐት</w>
ቀ ታ</w>
ቀ ብለ</w>
ቀ ምት</w>
ቀ ሎ</w>
ሽህ ዶ</w>
ሽ ቴ
ሽ ተ</w>
ሽ ሞ</w>
ሼ ኽ</w>
ሻቀ ሎ</w>
ሻ ማ
ሹ ይ</w>
ሹ መ</w>
ሹ ሃ
ሹ ሀደ
ሸቄ ቡ</w>
ሸ ሸት</w>
ሶ ትመ</w>
ሶ ምመ</w>
ሶ ማ
ስያ ስ</w>
ስካ ር</w>
ስእ የ</w>
ስተ ይ</w>
ስሕ ት</w>
ስ ፊልድ</w>
ስ ጥ</w>
ስ ያት</w>
ስ ባ
ስ ራ</w>
ስ ረት</w>
ስ ለት</w>
ስ ለሕ
ሴ ተ</w>
ሴ ስ</w>
ሳይ መ</w>
ሳር ሑ</w>
ሳምን ቱ
ሳ ዋ
ሳ ኒ</w>
ሳ ተን</w>
ሳ ሊ
ሲ ታት</w>
ሲ ሀ</w>
ሱ ፍ</w>
ሱ ሱ</w>
ሱ ሰ</w>
ሱ ረት</w>
ሱ ሕ</w>
ሰፍ ፍ</w>
ሰፍ ለለ</w>
ሰይ ደ</w>
ሰአ ለት</w>
ሰት የ</w>
ሰር ግል</w>
ሰር መ</w>
ሰራ በብ</w>
ሰምዐ ኒ</w>
ሰመ ዖም</w>
ሰ ጥ</w>
ሰ ዲ
ሰ ዱ
ሰ ዐው</w>
ሰ ዋል
ሰ ወር
ሰ ቱ
ሰ በው</w>
ሰ ሩ
ሰ ሕፍ
ሰ ሐብ
ሰ ላት</w>
ሮ ን
ሮ ትለ</w>
ሮ ሪ</w>
ርበ ትነ</w>
ርሐ ኮ</w>
ር ጉ
ር ያይ</w>
ር ዪን</w>
ር ዐ
ር ቱ
ር መት</w>
ራዕ ዩ</w>
ራቅ ቅ</w>
ራ ዊ</w>
ራ ኒ</w>
ራ ቴዕ</w>
ራ ሰ</w>
ራ ሞም</w>
ሪ ፊ</w>
ሪ ፈት</w>
ሪ ግ</w>
ሩ ጥ</w>
ሩ ዎ</w>
ሩ ሑ</w>
ረክ ዝ</w>
ረከ ቶም</w>
ረኤ ከ</w>
ረኤ ት</w>
ረኤ ቱ</w>
ረበ ቱ</w>
ረሽ ድ</w>
ረስ ነ</w>
ረሰ ዩ</w>
ረሕ ከ</w>
ረሐ ኮ</w>
ረ ያ</w>
ረ የት</w>
ረ የሕ</w>
ረ ኢ
ረ ሶ</w>
ረ ል</w>
ረ ለ</w>
ሞ ቶ
ሞ ታቱ</w>
ሞ ታተ</w>
ምጅ ተም
ምዕ ት</w>
ምክ ያ
ምብ ላ
ምስ ንዮ
ምስ ምሳ
ምህ ረት</w>
ምህ ም</w>
ም ጭ
ም ዲ</w>
ም ያይ</w>
ም ዝ</w>
ም ዔ
ም እት</w>
ም ተት</w>
ም ሶ</w>
ም ሮም</w>
ም ራ</w>
ም ልት
ሜ ን</w>
ሜ ና</w>
ሜ ሪ
ማ ች</w>
ማ ሻ
ማ ራት</w>
ማ ማ</w>
ማ ማ
ማ ሎ
ሚካ ኤ
ሚ ኪኤል</w>
ሙ ዝ</w>
ሙ ቶም</w>
ሙ ሮ</w>
ሙ ሕ</w>
መፍ ሁ
መጅሙ ዐት</w>
መጅ ተማ
መዓ ድ
መዐ ኪ</w>
መዋ ሰላ
መክ ተብ
መክ ር</w>
መን ጎ
መን ተ
መን ባ
መን ሱ
መና ፍዕ
መት ፋግ
መት ፈና
መት ወራ
መት ከብ
መት በረ
መት ሰር
መብ ዝ
መቃር ሑ</w>
መስ ከብ
መስ ነ
መራ መር</w>
መረ ቱ</w>
መሀ ንድ
መ ጫ
መ ጠት</w>
መ ዳይ
መ ያሀ</w>
መ ወዘ
መ ኮ
መ ኩም</w>
መ ባል
መ ቐ
መ ሴ</w>
መ ሱ
መ ሠ</w>
መ መስ
መ ለሀይ
ሖ ሀ</w>
ሕ ይ
ሕ ዎ</w>
ሕ ኖ
ሕ በር
ሕ ሰ
ሕ ሮ
ሕ ልም
ሓ ፍ</w>
ሓ ጃ
ሓ ዝ</w>
ሓ ው
ሓ ዋ
ሓ ሩ
ሓ ለ
ሒ ብ</w>
ሒ ለት</w>
ሒ ለት
ሑ ዎም</w>
ሑ ም</w>
ሐጠ ጥ
ሐድ ድ</w>
ሐድ ረ</w>
ሐብ ዐ</w>
ሐሪ ሽ</w>
ሐል ፈት</w>
ሐ ኩም</w>
ሐ ሮ</w>
ሎ ብጥ</w>
ልግ ባ
ልዕ ት</w>
ልክ ደ
ልከ ፍ</w>
ልት ፌ
ልት ፈና
ልት ጣ
ልት ደገ
ልት ደረ
ልት ዛበ
ልት ወረ
ልት በር
ልት ሰረ
ልት ሄ
ልበ ው</w>
ልበ ቱ</w>
ልቅ ረ
ልስ ዕ
ልም ሕ
ል ኢው
ል በር
ል ማይ</w>
ል ሙ
ል ልእ
ል ህ</w>
ል ሄ</w>
ሌ ጠ
ላ ግ</w>
ላ ኣ
ላ ቼ</w>
ላ ተ
ሊ ዝ</w>
ሊ ኮ</w>
ሉ ዎ</w>
ሉ ወ</w>
ሉ ላት</w>
ለፈ ቱ</w>
ለግ ድ
ለጋ ሻ
ለገ ረ
ለደ ም
ለዐ ለ
ለው ሕ
ለከ ይ
ለከ ምክ
ለኣ ብ</w>
ለኢት ፈሀመ
ለኢት ትከ
ለኢት በ
ለኢ ረክ
ለአው ቄ
ለአት ዐ
ለአት አም
ለአት ሀድ
ለአም ር</w>
ለአ ወድ
ለአ ክረ
ለአ ከስ
ለአ ኖ
ለአ ሴ
ለነ ፈ
ለትት ጋ
ለት ደረ
ለት የ
ለት ወዘ
ለት ከፈ
ለት ከበተ
ለት አበ
ለት ነሰ
ለት ተ
ለት በህ
ለት ሰርገ
ለት መረ
ለተአ ሰ
ለተ ከ</w>
ለብ ሶ</w>
ለበ ዩ</w>
ለቀ ይ
ለሸ ክ
ለስ ነ</w>
ለሳ ርሐ
ለሰ ፍ
ለሰ ደ
ለሰ የ</w>
ለረ አ
ለም ጅ
ለም ቤ</w>
ለሙ ጅ
ለመ ጋ
ለሐ ድረ
ለሐ ዙ
ለሐ ነ</w>
ለሐ በረ
ለልአ ፈ
ለልት ዳ
ለልት ሻ
ለልት ላ
ለልት ሃገ
ለልት ሃ
ለል ታከ
ለል ስሕ
ለል ርእ
ለል ሐስ
ለል ሐም
ለለአት ሐዝ
ለለአ ተብ
ለለአ በ
ለለአ ሸ
ለ ጨቅ
ለ ጨ</w>
ለ ጅ</w>
ለ ዮተ</w>
ለ ወክ
ለ ናይ
ለ ቲት</w>
ለ ቫ
ለ ቆ</w>
ለ ሾ
ለ ራክ
ለ ሪ</w>
ለ ማርያም</w>
ለ ማር
ለ ሚ</w>
ለ ላብ
ለ ለመ
ለ ሁ
ሇ ሌ
ህ ጠ
ህ ዱ
ህ ዞ</w>
ህ ዘት</w>
ህ ኑ
ህ ቶም</w>
ህ ተ</w>
ህ በት</w>
ህ በ</w>
ህ ሞም</w>
ህ ላ</w>
ሃጅ ክ</w>
ሃይ ባ
ሃይ ሌ
ሂ ተ</w>
ሁ ኒ</w>
ሀይ ቦ</w>
ሀንጦ ጥል</w>
ሀንጦ ጠ
ሀር ስ</w>
ሀመ ነ</w>
ሀ ዩ
ሀ ወ</w>
ሀ ላ</w>
ፖ ሊስ</w>
ፕ ስ</w>
ፕ ሊ
ፔ ር</w>
ፓ ይ
ፓ ው
ፓ ስ
ፒ ክስ</w>
ፒ ንግ</w>
ፒ ን</w>
ፎር ሳ</w>
ፎ ዕ</w>
ፎ ስ
ፎ ለ</w>
ፍር ት</w>
ፍር መ</w>
ፍ ጋር</w>
ፍ ድብ
ፍ ዴ
ፍ ክ</w>
ፍ ካ</w>
ፍ ኩም</w>
ፍ ቆ</w>
ፍ ሪ</w>
ፌ ኩም</w>
ፋር ህ</w>
ፋ ግረ
ፋ ግ</w>
ፋ ጌዕ</w>
ፋ ኖስ</w>
ፋ ኔ</w>
ፋ ትመ</w>
ፊ ሽ</w>
ፉ ሉ</w>
ፈደ ሬሽን</w>
ፈን ተዩ</w>
ፈን ተየ</w>
ፈን ቀ
ፈና ቴ
ፈቅ ዱ</w>
ፈቅ ነ</w>
ፈር ገ
ፈረ እ</w>
ፈ ጭ</w>
ፈ ጥር</w>
ፈ ጅር</w>
ፈ ቅ</w>
ፈ ሪ</w>
ፅ ድ</w>
ጽዕ ን</w>
ጽን ሑ</w>
ጽ ጋ
ጽ ረ</w>
ጽ ሙ
ጼ ት</w>
ጻገ ሞ</w>
ጻገ መ</w>
ጻ ቱ</w>
ጻ መ</w>
ጺ ን</w>
ጹ ፍ</w>
ጹ ይ</w>
ጸገ ብ</w>
ጸን ሖም</w>
ጸሐ ኒ</w>
ጸ ጸ</w>
ጸ ዕ</w>
ጸ ዕ
ጸ ወ</w>
ጸ ሖም</w>
ጸ ሐት</w>
ጸ ሊ
ጴ </w>
ጮ ም</w>
ጭረ ዋርሕ</w>
ጭ ሩ
ጨ ነ</w>
ጨ ላ
ጥ አ</w>
ጥ ቅ
ጥ ራ</w>
ጣ ዕ
ጠዓ ሞ
ጠባ ዬ
ጠል ቀ</w>
ጠ ትነ</w>
ጠ ታ</w>
ጠ ቀት</w>
ጠ ረየ</w>
ጠ ረቱ</w>
ጎ ምም</w>
ጎ መ</w>
ጎ ሀ</w>
ግረ ን</w>
ግል ቡ
ግ ይ
ግ ዬ</w>
ግ ዜ
ግ ባይ</w>
ግ ባ</w>
ግ መት</w>
ግ ሌ
ጌ ሰ
ጌ ምያ
ጌ ምም</w>
ጋይ ሱ</w>
ጋ ዘ
ጊ ግ</w>
ጊ ሰ
ጉ ስታ
ገይ ሶ</w>
ገይ ሱ</w>
ገን ሖ</w>
ገን ሑ</w>
ገብሪ ኤል</w>
ገብ ከ</w>
ገበ የ</w>
ገበ አ</w>
ገር ግር</w>
ገረ ቱ</w>
ገ ፈ</w>
ገ ድገ
ገ ው
ገ ኔዕ</w>
ገ ናይ
ገ ሪቱ</w>
ገ መል
ጅ ዑ</w>
ጅ ንግ
ጅ ሕ</w>
ጄ ል</w>
ጃ ጂ
ጃ ታት</w>
ጁ ክ</w>
ጁ ብ</w>
ጁ መ</w>
ጀማ ዕ</w>
ጀል በት</w>
ጀ ጅ</w>
ጀ ከ</w>
ጀ እ</w>
ጀ ንገ
ጀ ቶም</w>
ጀ ረስ
ጀ ምዕ
ጀ ሚ
ጀ ሊ</w>
ጀ ሀት</w>
ዷ </w>
ዶ ሽ
ዶ ለ</w>
ድራ ሰት</w>
ድራ ሰት
ድሕ ር</w>
ድ ዱ</w>
ድ ዪን</w>
ድ ራ</w>
ድ ማን
ድ ሕ</w>
ድ ሉ</w>
ድ ህ</w>
ዴ ክ</w>
ዴ ናቱ</w>
ዴ ናሁ</w>
ዴ ሪ
ዳይ ኦ
ዳ ጋ
ዳ ተን</w>
ዳ ሊ
ዲሞ ቅራጥ
ዲ ግሪ
ዲ ደ</w>
ዲ ኑ</w>
ዲ በ
ዲ ሰም
ዲ ማ
ዲ ሀ</w>
ዱ ፍ</w>
ደፍ ነ</w>
ደግ ሙ</w>
ደይ ነ</w>
ደንጎ ባ
ደብ እ</w>
ደቅ በ</w>
ደም ዐ</w>
ደም ከ</w>
ደም ር</w>
ደል የ</w>
ደ ፈት</w>
ደ ወር
ደ ንደ
ደ ንበ
ደ ትቱ</w>
ደ ሽ
ደ ሮም</w>
ደ ሬ</w>
ደ ሬ
ደ ሞ
ደ ሐ</w>
ዮ ለ</w>
ይእን ሰ
ይእ ፈ
ይ ድስ</w>
ይ ኣመረ
ይ አበ
ይ ና</w>
ይ ትት
ይ ትለ</w>
ይ ሑ</w>
ይ ሀብ
ዬ ቶም</w>
ዬ ታት</w>
ያ መን</w>
ያ ሁ
ዪ ነ</w>
ዪ መ</w>
ዩ ፍ</w>
ዩ ዕ</w>
ዩ ሩ</w>
የ ዕ</w>
የ አብ
የ መየ</w>
ዥ የ</w>
ዝ ዬ</w>
ዝ ዜ
ዝ ዐ</w>
ዝ ቐ
ዜ ር</w>
ዜ ማ</w>
ዛየ ሩ</w>
ዛ ዐት</w>
ዛ ወር</w>
ዛ እ</w>
ዛ በው</w>
ዛ ራት</w>
ዙ ዝ</w>
ዙ ት</w>
ዙ ም</w>
ዘ ፍ
ዘ ጋ
ዘ ዋ
ዘ ወ</w>
ዘ ከ</w>
ዘ እ</w>
ዘ ቶም</w>
ዘ ራ</w>
ዕብ የት</w>
ዕስ ክር
ዕም ረት</w>
ዕ ጫ
ዕ ዘ</w>
ዕ ኑ
ዕ ማር</w>
ዕ ሌ
ዕ ላይ</w>
ዓ ዲ
ዓ ዩ</w>
ዓ ሆም</w>
ዒ ተ</w>
ዑቕ ባ
ዑ ዝ
ዐጃ ይ
ዐሸ ም</w>
ዐር ፍ</w>
ዐ ቴ</w>
ዐ ቲት</w>
ዐ ተ
ዐ ቀር
ዎ ምተ</w>
ው ርት</w>
ዌ ር</w>
ዌ ል
ዋጅ ሁ</w>
ዋይ ሕ</w>
ዋ ድያ
ዋ ኒን</w>
ዋ ቅል</w>
ዋ ረን</w>
ዊ ሁ</w>
ዉ ታም</w>
ዉ ቅ</w>
ዉ ም</w>
ወፍ ድ
ወፍ ንጌ
ወፍ ሬ
ወፈ ጅ
ወፈ ና
ወጥ ር
ወጠ ባይ
ወጋ ድ
ወጀ ሀ</w>
ወደ ው</w>
ወዐ ንደ
ወዐ ን
ወከ ዋ
ወከ ህ
ወእስ ራ
ወእ ክ
ወእ ስታ
ወኢ ተአት
ወኢ ቀ
ወኢ ሕ
ወአት ኣ
ወአት ባ
ወአት ማ
ወአር ዛ
ወአ ከይ
ወአ ት</w>
ወአ ብራ
ወን ዳ
ወን ኮ</w>
ወነ ዩ</w>
ወነ ብራ
ወት ና
ወት በር
ወት ሻ
ወታ ር
ወተ ፍ
ወበ ሻ
ወቀ ት
ወቀ ረ
ወቀ ለ</w>
ወሸ ቃ
ወሳ ን
ወሳ ር
ወሰ እ
ወሰ ቃ
ወሰ ማ
ወሰ ል
ወር ኢ
ወረ ዋ
ወረ ዉ</w>
ወም ሽ
ወሙ ሲ
ወመት ሰ
ወመ ጻ
ወመ ደረ
ወሓ ም
ወሐ ራ
ወልት ዐ
ወልት ቀ
ወልት ሸ
ወል ታ
ወለአ ግ
ወለአ ቅ
ወለል አ
ወለ ተር
ወለ ሳድ
ወለ ማ
ወለ ሀበ
ወህ ጅ
ወ ጂኦ
ወ ወጀ
ወ ወልደ
ወ ወላ
ወ ወለት
ወ ታ</w>
ወ ሻ</w>
ኮ ንፈ
ኮ ንስ
ክቱ ብ
ክር መ</w>
ክምሰል ሁ</w>
ክም ተ</w>
ክል ከ</w>
ክል መ</w>
ክ ናሀ</w>
ክ ሹ
ክ ሲን</w>
ክ ሙ
ኬ ኪ</w>
ኬ ና</w>
ኬ ትበ
ኬ ብ</w>
ኬ ረ</w>
ኬ ሚ
ካር ኒ
ካል እ</w>
ካል ኣይ</w>
ካ ዛ
ካ ታ
ካ ተን</w>
ካ ስል</w>
ካ ሎ
ኩ ፍ
ኩ ዋተ</w>
ኩ ሩ</w>
ከት ቡ</w>
ከት በ</w>
ከት ም</w>
ከተ የ</w>
ከተ ል</w>
ከበ ን</w>
ከበ ቶ</w>
ከስ ር</w>
ከራ ሪ
ከም ከም
ከም ከመ</w>
ከም ሰሌ
ከለ የ</w>
ከ ጸንሐ
ከ ካ
ከ አም
ከ አ</w>
ከ ናይ
ከ ቶ</w>
ከ ትሸ
ከ ትሳ
ከ ትም
ከ ትመ
ከ ቦት</w>
ከ ባ</w>
ከ ቅ
ከ ሮም</w>
ከ መጽ
ከ መሰ
ከ ሕሳ
ከ ለኣ
እድ ን
እንድ ወ</w>
እን ዲ
እን ደር
እን ወስ
እን ከል
እት ፈ
እት ዐ
እት ሸ
እት ሃጌ
እት ሁ
እስትዕ ማር
እስ እን
እስ ትን
እስ ትህ
እስ ሌ
እር ኡ
እም በል</w>
እ ፈቴ
እ ወስ
እ ከት</w>
እ ከር
እ ቶም</w>
እ ቲ</w>
እ ቅር
እ ምን
እ ሎ</w>
ኤ ኪ</w>
ኤ ች
ኤ ማ
ኣው ቶ
ኣ ፈ
ኣ ክረ
ኣ አ</w>
ኣ ሰር</w>
ኣ ሎ
ኣ ሌ
ኢፋ ሉ
ኢን ፍ
ኢን ጂ
ኢትት ሓ
ኢት ዮጵ
ኢት ዝ
ኢት ዓ
ኢት አክ
ኢት አሰ
ኢት አም
ኢት ነፍ
ኢተአ ስእ
ኢተ ሃ
ኢቀ ን
ኢሳ ደፈ
ኢለአ በ
ኢ ጨ
ኢ ጠም
ኢ ዴ
ኢ ኪ
ኢ ከሬ
ኢ ኣ
ኢ ታት</w>
ኢ ተክ
ኢ ቫ
ኢ ብ
ኢ ቃ
ኢ ቀየ
ኢ ለዓ
ኢ ለአትሐ
ኢ ለህ
ኢ ለሃ
ኢ ሀብ
ኡ ክ</w>
ኡ ም
ኡ ሊን</w>
አፍ ግር</w>
አፍ ገ
አጥ ራ
አግ ረ
አድ ፈ
አድ ሁ
አደ ብ</w>
አው ዐለ
አው ኪ
አው ከ</w>
አው ራ
አው ሕ
አዋል ድ
አክ ጣ
አክ ጀ
አክ ያ
አክ ባር
አክ ባ
አን ፈ
አን ተበ
አትፋ ቀደ
አትፈ ክር</w>
አትቃ ምት</w>
አትቃ መት
አትቃ መ
አት ወለ
አት አሰ
አት ቀባ
አት ሰሐ
አት ሃደ
አተ ፋ
አተ ምም</w>
አብ ዝ
አቅ ሰን
አቅ ረብ
አቃ ሊ
አቀ ጥ
አሽ ነ
አስተሽ ሀ
አስ ነ
አስ ተር
አስ ር
አስ መን
አስ መረ</w>
አር ድ
አር ባ
አም በት
አመ ረት</w>
አል ነ
አለ ቡ
አለ በ</w>
አ ፊ
አ ዪ</w>
አ ዞ
አ ወር
አ ቄ
አ ሻይ
አ ሱ
ኖ ቭ</w>
ኖ ሱ
ንፍ ሱ</w>
ንፍ ሉ</w>
ንፍ ለ</w>
ንፈ ር</w>
ንፈ ል</w>
ንገ ረ</w>
ንን ንን
ንት የ</w>
ንት ነፈ
ንት ቀ
ንቀ ልቅል</w>
ንስ መ</w>
ን ጁ
ን የተ</w>
ን ወ</w>
ን እሸ
ን ንደ
ን ቶን</w>
ን ሳል
ን ሱ</w>
ን ርር</w>
ን ሖም</w>
ኔ ኮ</w>
ኔ ክ</w>
ኔ ኪ</w>
ኔ ኩም</w>
ኔ ና</w>
ናድ ለት</w>
ናስ ር</w>
ና ያ</w>
ና ታቱ</w>
ና ር</w>
ኒ ድ</w>
ኒ ነት</w>
ኒ ትነ</w>
ኑ ኤል</w>
ነጽ ፍ</w>
ነአ ጥ
ነት ዬ</w>
ነት ን</w>
ነብ ተ</w>
ነ ፈ</w>
ነ ጽ</w>
ነ ጨ
ነ ዝ</w>
ነ ዘር
ነ ትተ</w>
ነ ብር
ነ ባ</w>
ነ በሪ
ቺ ኮ
ቶ ብየ</w>
ትገ በ
ትደ ቀ
ትዘ ከረ
ትክ ት</w>
ትካ ረ
ትከ ፈ
ትና ም</w>
ትነ ቱ</w>
ትት ወሰ
ትት ትት
ትት ሀደ
ትሸ ው
ትሳ ም
ትሰ ፋ
ትሰ ኣ
ትረሰ ዕ</w>
ትመ ጸ
ት ይ</w>
ት እት</w>
ት አት
ት አሰ
ት ታ</w>
ት ተረ
ት ተል
ት ስተ
ት ሴ
ት ለአ
ት ለመ
ት ሆገ
ቴ ታት</w>
ቴ ስ</w>
ቴ ለል
ታይ ከ</w>
ታ ሌ</w>
ቲ ራ
ቱ ድ</w>
ተጅ ያይ</w>
ተዓ የ
ተዐ ው
ተዐ ወት
ተው ብ</w>
ተከ ል</w>
ተእ ሪክ
ተአት ሳ
ተአት መቃ
ተአ ፍህ
ተአ ስት
ተአ ስታ
ተአ ርሕ
ተአ መጽ
ተን ፊ
ተን ን</w>
ተብ ዕ
ተበ የ</w>
ተበ ዕ</w>
ተቅ ብል</w>
ተስ ፋይ
ተርጀ ግ</w>
ተሓ ት</w>
ተሓ ር
ተሐ ባ
ተለ ካቱ</w>
ተሀየ በ
ተሀ ን
ተሀ ርበ
ተሀ ም
ተ ጸ
ተ ዮም</w>
ተ ዎ</w>
ተ ኻ
ተ ኪ
ተ ነት</w>
ተ ቲት</w>
ተ ተየ</w>
ተ ሞ</w>
ቨ ል</w>
ብዝ ሔ
ብዕ ቱ</w>
ብር ጋ
ብር ከ
ብራ ይት</w>
ብሪ ጣን
ብረ ው</w>
ብለ ስ</w>
ብህ ል</w>
ብ ጹ
ብ ክም</w>
ብ ቕ
ብ ቐ
ብ ሽክ
ብ ሼ
ብ ሰት</w>
ብ ሐት</w>
ብ ልቱ</w>
ብ ለን</w>
ቤለ ኩም</w>
ቤ ና</w>
ቤ ሎ</w>
ቤ ሁ</w>
ባን የት</w>
ባብ ሎ</w>
ባም ቡ
ባ ያም</w>
ባ ሽ
ቢ ከ</w>
ቢ ሆም</w>
በጥ ሩ</w>
በየ ኔ
በረ ነ</w>
በል ዬ</w>
በለ ን</w>
በሀ ለት</w>
በ ጣ</w>
በ ካ
በ ከር</w>
በ ኑ</w>
በ ተክ
በ ቀ</w>
በ ራይ</w>
በ ራት</w>
በ ሎም</w>
በ ሎ</w>
ቖ </w>
ቅ ፎ</w>
ቅ ያይ</w>
ቅ ኪ</w>
ቅ ቁ</w>
ቅ ቀ</w>
ቅ ሬ
ቅ መት</w>
ቃር ቡ</w>
ቃር ሐ</w>
ቃ ትለ</w>
ቃ ብለ</w>
ቃ በ</w>
ቂ ቱ</w>
ቂ ሾ
ቁ ፍ</w>
ቁ ዕ</w>
ቁ ሽ</w>
ቁ ሩ
ቀድ ሙ</w>
ቀይ ሕ
ቀስ ቅ
ቀስ ቀ
ቀር አ</w>
ቀረ አ</w>
ቀም ጭ</w>
ቀ ፈው</w>
ቀ ፈት</w>
ቀ ዎ</w>
ቀ ዌ
ቀ ነጽ
ቀ ቡ</w>
ቀ ቆ</w>
ቀ ሸት</w>
ቀ ለጭ
ሽ ንከ
ሽ ት
ሽ ሹ</w>
ሽ ሪ
ሽ ሙ</w>
ሼ ን</w>
ሼ ል</w>
ሻፈ ግ</w>
ሻ ይር</w>
ሻ ርከ</w>
ሻ ምብ
ሻ መ</w>
ሹ ረ</w>
ሸቄ ነ</w>
ሸር ሖ</w>
ሸ እ</w>
ሸ አ
ሸ ትነ</w>
ሸ ቢ
ሸ ሾ</w>
ሸ ሸው</w>
ሶ ፍ
ሶ ሕ</w>
ስፍ ሉ
ስትራ ቴ
ስትራ ተጂ
ስት ር</w>
ስቲ ክስ</w>
ስል ጣ
ስላ ሴ
ስ ዮን</w>
ስ ዪን</w>
ስ ዔ
ስ ክሪ
ስ ቦ</w>
ስ ስዒ
ስ ሓ
ሴ ን
ሳይ ከ</w>
ሳው ንድ</w>
ሳል ቫ
ሳ ፍ</w>
ሳ ከ</w>
ሳ ላ</w>
ሲ ከ</w>
ሲ ኑ</w>
ሲ ተን</w>
ሲ ብ</w>
ሲ ሲ
ሲ ሞ
ሱ ና
ሱ ቅ</w>
ሱ ር
ሱ ራት</w>
ሱ ሕፍ
ሰአ ን</w>
ሰብ መ</w>
ሰም የ</w>
ሰል ከ</w>
ሰ ውር</w>
ሰ በር
ሰ ማን</w>
ሰ ማን
ሰ ሚ
ሰ ሉ</w>
ሰ ሀ
ሮ ይ</w>
ሮ ሱ</w>
ርክ ት</w>
ርከ በ</w>
ርእ ት</w>
ርኤ ት</w>
ርበ ከ</w>
ርበ ተ</w>
ርሕ ቱ</w>
ርሐ ን</w>
ር ጎ</w>
ር ዲ</w>
ር ይ
ር ኩ
ር ኒ</w>
ር ሮ</w>
ር ሖ</w>
ሬ ኤ</w>
ራይ ከ</w>
ራት ዕ</w>
ራ ትከ</w>
ራ ሽ
ሪ ያ</w>
ሪ ታ
ሪ ሙ</w>
ሪ ሕ</w>
ረፍ ዐ</w>
ረፍ ከ</w>
ረይ መ</w>
ረይ ሖ</w>
ረይ ሐ</w>
ረክ በን</w>
ረኤ ኒ</w>
ረብ ሸ
ረሰ የ</w>
ረሐ ን</w>
ረ ፌዕ</w>
ረ ጎ</w>
ረ ዳ</w>
ረ ዎም</w>
ረ ትኩም</w>
ረ ቴዕ</w>
ረ ቤ
ረ ሽ</w>
ሠ ር</w>
ምዴ ርያ
ምዐ ቱ</w>
ምብ ረ</w>
ምብ ል
ምሰ ለ</w>
ምራ ድ
ምሐ ሬ</w>
ም ድረ
ም ደ</w>
ም ዃ
ም ክም</w>
ም ትክ
ም ትር
ም ቅር
ም ሳ</w>
ም ርሐ
ም ሑ
ም ሊ
ሜ ኪ</w>
ሜ ራ
ማይ ር</w>
ማን ዪን</w>
ማር ር</w>
ማ ድ
ማ ዮም</w>
ማ ዮ
ማ ሽ</w>
ማ ሴ</w>
ማ ሮም</w>
ሚ የ</w>
ሚ ኪ
ሚ ት
ሚ ል
ሙ ሽክ
ሙ ሉ</w>
መጸ እ</w>
መጣ ወር</w>
መጅ ተመ
መጅ ልስ
መዳ ር
መዕሉ መት</w>
መዐ ረ
መካ ሪ
መን መ</w>
መና ቢ
መትባ ድረ
መትበ ጋ
መትሐ ላ
መት ዐዳ
መት ወዓ
መት ከባ
መት ከላ
መት አካ
መት ቼ</w>
መት ብእ
መት ቃር
መተን ስ
መተል ህያ
መባ ጥ
መሽ ሽ</w>
መስኡ ል</w>
መስ ኪ
መስ ኩ
መስ ር
መስ ሐ
መር ር</w>
መራ ቀበ
መራ ቀ
መረ ዉ</w>
መሕ ብር</w>
መሐመድ ኑር
መ ፍር
መ ፊ
መ ፈተ
መ ጭ</w>
መ ዋል
መ ወለ
መ ካር
መ ከል
መ ቫ
መ ሪት</w>
መ ሔ
መ ሎት</w>
መ ላ</w>
መ ለክ
መ ለስ
መ ለል
መ ሃይ
ሕም ቅ
ሕ ፍ</w>
ሕ ጃ
ሕ ነት</w>
ሕ ባ
ሕ ማ</w>
ሕ ለ
ሔ ር</w>
ሓ ጅ
ሓ ክ
ሓ ሳ
ሐብ ሬ</w>
ሐበ ዕ</w>
ሐር ነ</w>
ሐረ ከት</w>
ሐረ ስ</w>
ሐል ፈው</w>
ሐ ጃ
ሐ ያ</w>
ሐ ንስ</w>
ሐ ነት</w>
ሐ ራ</w>
ሐ ለብ
ሎ ጅያይ</w>
ሎ ው</w>
ልፋ ይት</w>
ልው ሐ
ልእ ት</w>
ልትሀ ና
ልት ፈደ
ልት ጫ
ልት ዳገ
ልት ዐለ
ልት ከሐ
ልት አሰ
ልት ነዐ
ልት በሀል</w>
ልት ቀደ
ልት ሼ
ልብ ነ</w>
ልር አ
ልሕ ት</w>
ል ጣን</w>
ል ክር
ል ካፍ
ል ንበ
ል ተዐ
ል ተልሀ
ል ተላ
ል ሳር
ል ርኤ
ል ርሕ
ል ርሐ
ል ሚ</w>
ል ላ</w>
ሌ ሴ
ሌ ሌ
ሌ ሆም</w>
ላል ፎ</w>
ላ ይን</w>
ላ ያ</w>
ላ ሞም</w>
ሊኮ ፕ
ሊ ከ</w>
ሉ ግ</w>
ሉ ኩ</w>
ሉ እ</w>
ሉ ና</w>
ሉ ሽ</w>
ሉ ማት</w>
ለፍ ከ</w>
ለፈ ደ
ለጢ ፍ</w>
ለጠ ለብ
ለገብ አ
ለገ ው</w>
ለጀ </w>
ለድ ሕ
ለዐ ወተ
ለዐ ነ</w>
ለዐ ስ
ለዐ ረብ
ለዐ ም
ለእ ት</w>
ለእ ብ</w>
ለእ ምብ
ለኢት ፈረ
ለኢት ፈ
ለኢት ጸበር
ለኢ ወድ
ለኢ በል
ለኢ ልተ
ለኢ ለኣ
ለኢ ለትሐ
ለአፍ ሬ
ለአፍ ረ
ለአው ረሰ
ለአት ጃ
ለአት ኣ
ለአት ቀ
ለአት ላ
ለአት ሃ
ለአ ጫ
ለአ ዘብ
ለአ ወር
ለአ ኬ
ለአ ት</w>
ለአ ተልህ
ለአ ብረ
ለአ ሰት
ለአ ሰር
ለአ ርሕ
ለአ ረት
ለአ ምስ
ለነ ስእ
ለትት ዐ
ለትት ሀየ
ለትሰ ጀ
ለት ጸበረ
ለት ደቀ
ለት ወስ
ለት ክ
ለት ከተ
ለት ነስ
ለት ትሸ
ለት ትር
ለተዐ ንደ
ለተአ ስተ
ለብ ሱ</w>
ለበ ክ
ለበ ብ
ለቀ ደም
ለቀ ው
ለቀ ሰበ
ለሻ ቅ
ለስ ያ
ለስ መ</w>
ለሳ ል
ለረ ፍ
ለረ ከ
ለም ን</w>
ለም ል
ለመ ግ
ለመ ጃ
ለመ ዓ
ለመ ቃ
ለሐ ፋ
ለሐ ዜ</w>
ለሐ በር
ለልአ ሸ
ለልት ጸ
ለልት ጠ
ለልት ጃ
ለልት ነፈ
ለልት ማ
ለል አው
ለል አር
ለል ናሁ</w>
ለል ብላ
ለል ስእ
ለለአት ሐ
ለለአ ጸ
ለለአ ክ
ለለ ክ
ለሀ ገጊ
ለሀ ድገ
ለሀ ሌ</w>
ለ ፎት</w>
ለ ፋር
ለ ጡ
ለ ጋድ
ለ ጄ
ለ ዎ
ለ ወከ
ለ ወሐ
ለ ካፈ
ለ ኒቱ</w>
ለ ቤ</w>
ለ ሻር
ለ ሞት</w>
ለ ሀ</w>
ሆ ታይ</w>
ሆ ምቱ</w>
ሆ ልል</w>
ህን ዲ
ህሌ ኮ
ህሌ ከ</w>
ህ ደው</w>
ህ ዋ</w>
ህ ንዳ
ሄር ሩ</w>
ሄ ዴ</w>
ሃጀ ከ</w>
ሃ ማ</w>
ሃ ሉ</w>
ሂ ነ</w>
ሁ ወ</w>
ሁ ከ</w>
ሁ ሙ</w>
ሀድ ገ</w>
ሀድ እ</w>
ሀይ በከ</w>
ሀር ሱ</w>
ሀም ል</w>
ሀለ ግ</w>
ሀ ጽ
ሀ ዪ
ሀ ቡ
ሀ በ</w>
ሀ ሌት</w>
ፕሪመር ሊግ</w>
ፕሪመር ሊግ
ፕ ሊን</w>
ፒ ካ
ፎ ፎ
ፎ ናት</w>
ፍሰ ሃ
ፍ ዳ
ፍ ዙ</w>
ፍ ዓት</w>
ፍ ሳ
ፍ ላን
ፍ ለት</w>
ፌ ኪ</w>
ፌ ታት</w>
ፋር ነ</w>
ፋ ፍ
ፋ ዕ
ፋ ና</w>
ፋ ትሐ
ፋ ሽ</w>
ፋ ስ
ፋ ራ</w>
ፋ ል
ፋ ላ</w>
ፊ ብያን</w>
ፈድ ብ</w>
ፈዝ ከ</w>
ፈን ተው</w>
ፈት ዮ</w>
ፈታ ሕ</w>
ፈተ የ</w>
ፈተ ሸ
ፈቃ ዲ
ፈር ዩ</w>
ፈር መ</w>
ፈር ህ
ፈረ ጅ</w>
ፈረ የ</w>
ፈረ ረ</w>
ፈ ፎ</w>
ፈ ጭ
ፈ ጡ
ፈ ዓል
ፈ ዎም</w>
ፈ ቀ
ፈ ሮ</w>
ፈ ልፈ
ፃ ል</w>
ጾ ኦ</w>
ጽብ ሕ</w>
ጽሕ ጽ</w>
ጽሕ ዉ</w>
ጽሕ ት</w>
ጽ ጌ
ጽ ቤ
ጽ ል</w>
ጻ ው
ጺ ጸ
ጺ ሕ</w>
ጹ ን</w>
ጸገ ዐ</w>
ጸብ ጥ
ጸበጥ ኮ</w>
ጸሐ ነ</w>
ጸ ዐ</w>
ጸ ቢ</w>
ጸ ሎ
ጭ ረዋ
ጨ ጭ</w>
ጨ ጩ
ጨ ጋ
ጨ ድ</w>
ጥ ዋ
ጥ ኩም</w>
ጣ ብ
ጣ ቅ
ጣ ሰ
ጣ ረት</w>
ጡ ነ</w>
ጡ ቱ</w>
ጠዐ ሚቶ</w>
ጠር ቅ</w>
ጠ ጠው</w>
ጠ ወ
ጠ ሪ</w>
ጎ ኑ</w>
ጎ ር</w>
ግር ቱ</w>
ግሬ ድ</w>
ግራ ታት</w>
ግ ጽ</w>
ግ ዳ
ግ ያይ</w>
ግ ያት</w>
ግ ብር
ግ ቡ</w>
ግ በት</w>
ግ ምት</w>
ግ ሄ</w>
ግ ሁ</w>
ጌ ቱ</w>
ጌ ተ</w>
ጌ መ</w>
ጌ ለል</w>
ጌ ለለ
ጋን ደ</w>
ጋብ ሀ
ጋ ጽ</w>
ጋ ዜ
ጋ ቢ
ጋ ሪ</w>
ጋ ረት</w>
ጋ ረ</w>
ጋ ሕ
ጉ ግ</w>
ጉ ጉ</w>
ገድ ዩ</w>
ገና ቤ</w>
ገር ስ</w>
ገረ ዉ</w>
ገረ ር</w>
ገም ኮ</w>
ገልበ በ</w>
ገ ጸ
ገ ገት</w>
ገ ዞ</w>
ገ ዝነ</w>
ገ ዛ</w>
ገ ዚ
ገ ዓ
ገ ኒ</w>
ገ ትመ</w>
ገ ሽ
ገ ሰት</w>
ገ ሞት</w>
ገ ሜ</w>
ገ ማ</w>
ገ ሕ</w>
ገ ሊ</w>
ገ ለበ
ጆ ን</w>
ጅም ሁ
ጅ ፍ</w>
ጅ የ</w>
ጅ እ</w>
ጅ ብ
ጅ ልስ</w>
ጅ ሁ</w>
ጄ ሪ
ጃ እ
ጂ ታት</w>
ጁ ለ</w>
ጀር ቦ</w>
ጀር ቡ</w>
ጀር ስ</w>
ጀር ሒን</w>
ጀራ ርብ</w>
ጀም ዖ</w>
ጀማ ሂ
ጀ ድ</w>
ጀ ዛይ
ጀ ዕ
ጀ ረብ</w>
ዶ ዕ</w>
ዶ ላ
ዶ ሉ</w>
ድገ ም</w>
ድር ት</w>
ድራ ልየት</w>
ድረ ሰ</w>
ድ ደ</w>
ድ ያቱ</w>
ድ ዒ
ድ አ</w>
ድ ናሀ</w>
ድ ቁ</w>
ድ ማይ</w>
ዳፍ ለ</w>
ዳይ ተ</w>
ዳይ መት</w>
ዳ ያ</w>
ዳ ሪ</w>
ዳ ረከ
ዲር ሆ
ዲሞ ቅራ
ዲ ቅ</w>
ደፍ ዖ</w>
ደግ ነ</w>
ደግ መ</w>
ደገ የ</w>
ደዋ ዬ
ደብ አ</w>
ደር ቱ</w>
ደር ሰት</w>
ደረ ጀት</w>
ደ ዕ
ደ ዋ</w>
ደ ካ
ደ ኦ</w>
ደ ቢ
ደ ሽ</w>
ደ ሰት</w>
ደ ሚ</w>
ደ ለዩ</w>
ደ ሃ
ዯ ት</w>
ዮ ሪ</w>
ዮ ሁ</w>
ይእት ሐ
ይሐ ነ</w>
ይ ፍ</w>
ይ ጥ</w>
ይ ዶም</w>
ይ ዐል
ይ ኽ
ይ ኪ</w>
ይ ትመ</w>
ይ ተ
ይ ቕ
ይ ራት</w>
ዬ ድ</w>
ዬ ማ</w>
ያ ሉ</w>
ዪ ስ</w>
ዪ ለ</w>
የት ካ</w>
የት ናተ</w>
የት ት</w>
የ ዕ
የ ሩ</w>
የ ሞም</w>
የ ሁ</w>
የ ሀበ
ዞ ታት</w>
ዝ ዖ</w>
ዝ ክረት</w>
ዝ ኑ
ዝ ቡ
ዝ ቕ
ዝ ረት</w>
ዛብ ጦም</w>
ዛ በጥ
ዛ በጠ
ዛ ምፕ
ዛ ህ</w>
ዚ ተ</w>
ዙ ከ</w>
ዙ ቅ</w>
ዘ ገ</w>
ዘ ዚ
ዘ ዘት</w>
ዘ ካ
ዘ ና</w>
ዘ ቅ</w>
ዘ ራት</w>
ዘ ሥ
ዘ ሞ</w>
ዘ ላ
ዘ ለ</w>
ዘ ሀ
ዕን ዱ
ዕላ ይት</w>
ዕ ጩ
ዕ ዮ</w>
ዕ ዙ
ዕ ውድ
ዕ ካ</w>
ዕ ቤ</w>
ዕ ባ</w>
ዕ ርር</w>
ዕ ሙ</w>
ዓዳ ትነ</w>
ዓይ ቱ</w>
ዓር ፎ</w>
ዓ ድየ</w>
ዓ ዲ</w>
ዓ እ
ዓ ሸ
ዓ ሬ
ዓ ረ</w>
ዓ ሙ
ዒ ቶም</w>
ዑ ይ</w>
ዑ ለ</w>
ዐጅ በ</w>
ዐድ ል</w>
ዐንደ ቀ</w>
ዐን ሰበ
ዐቅ በ</w>
ዐር የ</w>
ዐሬ ኮ</w>
ዐረ ድ</w>
ዐማር ዐማር</w>
ዐ ገል
ዐ ይት</w>
ዐ ሾት</w>
ዐ ሮ</w>
ዐ ረት</w>
ዐ ረበ
ዐ መየ</w>
ዐ ለነ
ዐ ለት
ዏ </w>
ው ይ</w>
ው ኩም</w>
ዋፈ ቅ</w>
ዋፈ ቀ</w>
ዋጅ ሀ</w>
ዋጀ ህ</w>
ዋይ ኑ</w>
ዋን ብ</w>
ዋር ያት</w>
ዋል ደይ
ዋል የ</w>
ዋ ኒ</w>
ዋ ሽንግ
ዊ ች</w>
ዊ ቶ</w>
ዊ መ</w>
ዊ ለ</w>
ዊ ሀ</w>
ወፈ ዛ
ወፈ ሀም
ወጽ ን
ወግ ሩ
ወጀ ት</w>
ወድ ዕ
ወደ ባ
ወይ እት
ወዝ ክር
ወዘ ማ
ወዐ ዋ
ወዐ ነ
ወዐ ሸ
ወከ ት</w>
ወከ ሀ
ወእን ሻ
ወእስት ሽሃ
ወእ ዲ
ወእ ሱ
ወኢት ት
ወኢት ሰ
ወኢት ሕ
ወኢ ፈ
ወኢ ልትሐ
ወአት ዳ
ወአት ካ
ወአት ሐ
ወአ ፉ
ወአ ንደ
ወአ ተቅ
ወአ ሸ
ወአ ሰአል
ወአ ምበ
ወአ ሕ
ወን ዋ
ወን ሽ
ወነ አድ
ወትት ዓ
ወት ዛ
ወት ትሓ
ወት ሸነ
ወት ሰሐ
ወት ል
ወተ ዐብ
ወተ ላ
ወብ ዕድ</w>
ወብ ሕ
ወቤ ል
ወባ ሕ
ወበ ይ
ወበ ዐል
ወቅ ድረ
ወቅ ያ
ወቄ ር
ወቀ የ
ወሽ ቅ
ወሸ ንገ
ወሴ ዕ</w>
ወሰ ቅብ
ወሰ ምዐ
ወር ሰ
ወረ ተ</w>
ወረ ቀ
ወምስ ተቅ
ወም ዕ
ወሙ ጅ
ወመን ጠ
ወመት ከ
ወመት ነፍ
ወመት ነዛ
ወመት ሀ
ወመ ጋድ
ወመ ደርሲ
ወመ ት</w>
ወሕ ጻ
ወሕ ርያ
ወሓ ር
ወሐ ዲ
ወሐ ሸ
ወሐ ምዴ
ወሐ ል
ወልት ላ
ወል ጠ
ወል ዕ</w>
ወል ውል</w>
ወል ሳ
ወላ ይት</w>
ወለአት ናይ
ወለአት ሓ
ወለአ ፍ
ወለአ ተ
ወለት ሰ
ወለ ወድ
ወለ ክር
ወለ ኣ
ወለ ኢተአ
ወለ ብዕ
ወለ ር
ወ ፖ
ወ ፓራ
ወ ፎር
ወ ጹ
ወ ጪ
ወ ጓ
ወ ይት</w>
ወ ዛይ
ወ ዋልዳይ
ወ ወሳ
ወ ወ</w>
ወ ንደ
ወ ናቅ
ወ ቫ
ወ ባይ
ወ ሴ</w>
ወ ሎት</w>
ወ ሎም</w>
ወ ላይ</w>
ኻ ር
ኻ ል
ኸ ስ
ኮን ፊ
ኮ ፊ
ኮ ይ
ኮ ዝ</w>
ኮ ክ</w>
ኮ ንፍ
ኮ ተት</w>
ኮ ቭ</w>
ኮ ማ</w>
ክድ መት</w>
ክታ ብ
ክታ በት
ክተ ራት</w>
ክር የት</w>
ክር ከ</w>
ክራ ዩ</w>
ክረ የ</w>
ክም ሰለ
ክል ኢት
ክል ት</w>
ክ ጅ
ክ የ
ክ ንክ
ክ ንቱ</w>
ክ ነት</w>
ክ ቶ</w>
ክ ትበ
ክ ብር
ክ ሻ
ክ ራም</w>
ክ ላት</w>
ክ ሀ</w>
ኬ ትባ
ካይ ለ</w>
ካየ ል</w>
ካር ሙ</w>
ካል ል</w>
ካ ው
ካ ካ
ካ ታ</w>
ካ ቦም</w>
ካ ሸ
ካ ሞም</w>
ካ ማ</w>
ካ ሕ
ካ ለ</w>
ኪ ዳን</w>
ኪ ማ</w>
ኪ ለት</w>
ኩ ና</w>
ኩ ሕ</w>
ኩ ለ</w>
ከፍ ነ</w>
ከፈ ል</w>
ከየ ድ</w>
ከትሰ አለ
ከብ ዱ</w>
ከሽ ፍ</w>
ከር በ</w>
ከረ ዐ</w>
ከለአ </w>
ከለ ፍ
ከለ ሰ</w>
ከ ፎ
ከ ዮት</w>
ከ ይድ</w>
ከ ይት</w>
ከ ዐቅ
ከ ውኒ</w>
ከ ካ</w>
ከ አፍ
ከ አካ
ከ አል
ከ ነፍ
ከ ነአ
ከ ሸ</w>
ከ ሰር
ከ ለፈ
ኦ ፔ
ኦ ቶም</w>
ኦ ቶ
ኦ ሬ
ኦ ም
እግ ሉ</w>
እድ ንያ
እድ ሙ
እን ጸ
እን ጉ
እን ከር
እን ተር
እን ቃ
እን ሳን
እት ዱ
እት ና
እት ቅ
እተ ይ</w>
እብ ለ</w>
እቅ ረ
እስትራ ተጂ
እስብዳ ልየት</w>
እስ ትብ
እስ ቡ
እ ጣ
እ ዮ</w>
እ ዩ
እ ዜ
እ ዉ
እ ከል
እ አን
እ ነድ
እ ቀይ
እ ሰር
እ ሞ
እ መነ
ኤ ለ</w>
ኣን ፎ
ኣብ ሄር</w>
ኣ ፍሪ
ኣ ዶ
ኣ ደሚ
ኣ የ
ኣ ዉ</w>
ኣ ካ</w>
ኣ ንበ
ኣ ብዕ
ኣ ብርሃ
ኣ ሳር</w>
ኣ ሊ
ኢነ ጅ
ኢነ ሐ
ኢትት ሃ
ኢት ፍር
ኢት ፈሀ
ኢት ጸብ
ኢት ዘ
ኢት ከበት
ኢት ከበተ
ኢት አት
ኢት ትፈን
ኢት ትረስ
ኢት ቃ
ኢት ቀድ
ኢት ሳድ
ኢት ራ
ኢት መ</w>
ኢተአ ፍ
ኢቀ ስ
ኢልት ረስ
ኢል ን
ኢል ሰ
ኢል ርአ
ኢለአ ስተ
ኢ ዲ
ኢ ዋ
ኢ አት
ኢ ለክ
ኡ ት
ኡ ቱ
አፍ ጋ
አፍ ሬ
አፍ ራ
አፍ ረሐ
አጥ ፍ
አገ ም</w>
አጄ ንደ
አዶ ብ
አድ ው
አድ ሓ
አዳ ውር</w>
አይ ሽ</w>
አዝ ቤ
አዘ ቤ</w>
አው ደቀ
አው ኪር
አው ሮ
አወ ቄ</w>
አክ ፈ
አክ ር</w>
አከ በ</w>
አንተብ ህ</w>
አን ታ
አን ብት</w>
አን በት</w>
አን በተ</w>
አን ሳይ
አን ሰሐ
አን ሰ
አትፋ ቀ
አት ካራ
አት ኪ</w>
አት አከ
አት ህ
አት ሃጀ
አበ ች
አቅ ነ
አሽ ፈ
አሽ ዋ
አስ ትሽ
አስ ተዐ
አስ ል
አሰ ፈ
አርእ ዩ</w>
አርበ ዕ
አር የ
አር ተ
አሪ ም
አረ ር</w>
አም በት</w>
አም ራ
አም ሀ
አ ጉ
አ ጂ
አ ጀር
አ ዮ
አ ይት</w>
አ ዬ</w>
አ ዩ
አ ች
አ በ</w>
አ ቀል
አ ሶ</w>
አ ሳ</w>
አ ሱ</w>
አ ሩ
አ መቅ
አ ሁ
ኞ </w>
ኖ ቶም</w>
ኖ ሰ</w>
ኖ ል</w>
ንግ ጽ</w>
ንድ ድ</w>
ንድ ረ</w>
ንከ ብ</w>
ንከ ል</w>
ንእ ሽ</w>
ንቱ ስ</w>
ንብ ስ</w>
ንቀ ይ
ንስ የት</w>
ንሰ እ</w>
ን ጹ
ን ዳ</w>
ን ዞ</w>
ን ክም</w>
ን ኪ
ን ቲት</w>
ን ቡ
ን በ</w>
ን ሲስ</w>
ን ምን</w>
ን ሒ</w>
ኔ ታይ</w>
ኔ ህ</w>
ናፍ ስ</w>
ናይ ን</w>
ና ካ</w>
ና ሱ</w>
ኒ ያ
ኒ የት</w>
ኒ ኤል</w>
ኒ ኖ</w>
ኒ ል</w>
ኑ ዕ
ኑ ኑ</w>
ኑ ት</w>
ኑ ሑ</w>
ነዐ ነ</w>
ነው የት</w>
ነክ ሸ
ነክ ል</w>
ነአ ት</w>
ነስ እ
ነስ ር</w>
ነስ ሐ
ነ ጀ
ነ ና
ነ ነው</w>
ነ በር
ነ ሽ</w>
ነ ሳይ
ነ ሰ</w>
ነ ሪ
ነ ሀበ
ቻ ት</w>
ቶ ክ</w>
ቶ ረ</w>
ቶ ሆም</w>
ትፋ ጠን
ትፈ ሀ
ትጸ ንሐ
ትግር ኛ
ትግ ባ
ትገ ም
ትገ ሌ</w>
ትደ ግ
ትዋ ጀሀ
ትካ ፍ
ትከ የ
ትከ ተ
ትከ ሸ
ትነ ፍዐ
ትነ ፈዕ</w>
ትት ፈደ
ትት ወለ
ትት ከለ
ትት በገ
ትበገ ስ
ትቀ ደ
ትቀ ን
ትሸ ፍ
ትሳ ድ</w>
ትረ ከብ</w>
ትረ ም
ትም ጸአ
ትመ ቅረ
ትመ ቃ
ት ጬ
ት ዮም</w>
ት ያ</w>
ት ዒ
ት ው</w>
ት ኽ
ት እግል</w>
ት ንደ
ት ንቀ
ት ቶ</w>
ት ቦ
ት ብረ
ት ሮም</w>
ት ሓት</w>
ት ሐር
ት ሎ
ት ሌ</w>
ት ላይ</w>
ቴ ካ</w>
ታይ ኪ</w>
ታይ ኑ</w>
ታ ከው</w>
ታ እሪ
ታ ቶ</w>
ታ ሊ
ቲ ጊ
ቲ ኮ</w>
ቲ ና</w>
ቲ ቶም</w>
ቱ ና</w>
ቱ ቅ</w>
ቱ ማ</w>
ቱ ህ</w>
ተዐ ዝ
ተዐ ት</w>
ተው መ</w>
ተው ሊ
ተክ ሊ
ተከሌ ዛን</w>
ተከ የ</w>
ተኣ መር
ተአት ፋቅ
ተአት አም
ተአት ራ
ተአ ኪ
ተአ መረ
ተን ሰ
ተብ ል</w>
ተቅሪር ተቅሪር
ተር ዬ</w>
ተር ኪ
ተር ስ</w>
ተሓ በር
ተሐ ዜ</w>
ተሐ ን
ተሐ ልፈ
ተለ ዉ</w>
ተለ ካት</w>
ተሃ ጀ
ተ ዳ
ተ ደ</w>
ተ ዮት</w>
ተ ዮ</w>
ተ ያ
ተ ወልዴ
ተ ካሊ
ተ ከው</w>
ተ ትዐ
ተ ቐ
ተ ሮ
ቮ ሪ
ቫ ር</w>
ቪ ጎ</w>
ቪ ት</w>
ቨ ት</w>
ቦ ክ</w>
ቦ ታ</w>
ቦ ብ</w>
ቦ በ</w>
ቦ ሮ
ቦ ሎ
ቦ ለ</w>
ብዕ ዉ</w>
ብርሃ ኔ
ብራ ዚ
ብረ የ</w>
ብል ዐ
ብለ ተ</w>
ብ ጠ</w>
ብ ጃ
ብ ዱ</w>
ብ ደ</w>
ብ ያይት</w>
ብ ዖም</w>
ብ እት
ብ ኡ
ቤ ጽ
ቤ ይ
ቤ ታት</w>
ባይ ተ</w>
ባር ድ</w>
ባል ከ</w>
ባል ሐ
ባ ዳ
ባ ው
ባ ሩ
ባ ረከ
ባ ለሰ
ባ ለ
ቢ ጥ</w>
ቢ ያ
ቢ ኣት</w>
ቡላ ንስ</w>
ቡ ጠ</w>
ቡ ላ</w>
ቡ ሁ</w>
በጽ ሐት</w>
በግ ሱ</w>
በዐ ዩ</w>
በሽ ሎ</w>
በሽ ለ</w>
በሰ ጥ</w>
በርናም ጃ
በር ክ</w>
በር ካ</w>
በር ም
በረ ከ</w>
በል በለት</w>
በለ ሊ
በ ዪ</w>
በ ንበ
በ ናይ</w>
በ ቶት</w>
በ ቦት</w>
በ ሸረ
በ ሰር
በ ሊስ</w>
ቔ </w>
ቆ ቅብ</w>
ቆ ሪ
ቆ ሀ</w>
ቅራጥ ያይት</w>
ቅራ ን</w>
ቅል ጭ
ቅ ጣ
ቅ ጠት</w>
ቅ ዩ
ቅ ዛ
ቅ ዌ
ቅ ት
ቅ ብለ</w>
ቅ ባይ</w>
ቃይ ቅ</w>
ቃወ ሙ</w>
ቃር ቦም</w>
ቃ ድር
ቃ የ</w>
ቃ ነ</w>
ቃ ታ</w>
ቂ ፍ</w>
ቂ ቁ</w>
ቁ ይ</w>
ቁ ከ</w>
ቁ ቁ</w>
ቁ ል
ቀድ መት</w>
ቀደ ረት</w>
ቀየ ስ</w>
ቀን እ</w>
ቀብ ከ</w>
ቀረ ጭ
ቀረ ር
ቀል ኮ</w>
ቀ ፎ</w>
ቀ ዲ</w>
ቀ ዛ
ቀ ዌ</w>
ቀ ትተ</w>
ቀ ብነ</w>
ቀ በል
ቀ ሻ
ቀ ስ</w>
ቀ ሰ</w>
ቀ ሩ
ቀ ረአ
ቀ ምቱ</w>
ቀ ሚ
ሽዕ ሩ</w>
ሽክ ል</w>
ሽ ፈ</w>
ሽ ኪ</w>
ሽ ንብ
ሽ ና</w>
ሽ በ</w>
ሽ በ
ሽ ሾም</w>
ሽ ርከ
ሽ ምብ
ሽ ሀደ</w>
ሼ ሕ</w>
ሻ ክ</w>
ሻ በት</w>
ሻ ሸት</w>
ሻ ሸ</w>
ሺ ኑ</w>
ሸዕ ልል</w>
ሸዐ ብ</w>
ሸን ጠ
ሸን ህ</w>
ሸን ሀ</w>
ሸነ ክ</w>
ሸበ ህ</w>
ሸበ ሀ</w>
ሸቄ ት</w>
ሸር ሸር</w>
ሸር ሑ</w>
ሸ ፈግ
ሸ ቂ
ሸ ለት</w>
ሶ ም
ስከ ብ</w>
ስከ ሪ</w>
ስትህ ሎም</w>
ስም ዖ</w>
ስም ዕ</w>
ስ ዒት</w>
ስ ዑ</w>
ስ ው
ስ ቶም</w>
ስ ታት</w>
ስ ቃ
ስ ራይ</w>
ስ ሪ</w>
ስ ሔ
ስ ሊ</w>
ሴ ረት</w>
ሳ ፍር</w>
ሳ ዮም</w>
ሳ ዐደ
ሳ ኔ</w>
ሳ ቡ
ሳ ሬ
ሳ ሩ
ሳ ሕ</w>
ሳ ልስ
ሳ ሌሕ</w>
ሳ ሌ
ሳ ሉ</w>
ሳ ሆም</w>
ሲ ሰ</w>
ሲ ሉ</w>
ሱ ግ</w>
ሱ ድ
ሱ ዳን
ሱ ሳ</w>
ሱ ራም</w>
ሱ ልጣ
ሰጅ ል</w>
ሰይ ሖ</w>
ሰአ የ</w>
ሰአ ኒ</w>
ሰት ኪ</w>
ሰብ ተም
ሰብ ብ</w>
ሰበ ረ</w>
ሰረ ቅ
ሰመ ሕ</w>
ሰሓ ብ</w>
ሰል መ</w>
ሰለ ሙ
ሰ ገነ
ሰ ደይ
ሰ ይድ</w>
ሰ ታ</w>
ሰ ቦም</w>
ሰ ራይ
ሰ ሚና
ሰ ለየ</w>
ሰ ለሰ
ሮ ፖ
ሮ ክ</w>
ሮ ተን</w>
ሮ ል</w>
ሮ ለ</w>
ርኢ ስ</w>
ርበ የ</w>
ርበ ትመ</w>
ርበ ብ</w>
ርሕ ዎም</w>
ርሕ ወን</w>
ርሐ ቱ</w>
ር ዱ</w>
ር ዐት</w>
ር ቶም</w>
ር ቡ
ር ሰት</w>
ር ማ</w>
ር ሁ</w>
ሬ ፊ</w>
ራይ ን</w>
ራዕ የ</w>
ራም ጅ</w>
ራ ዳ
ራ ዱ</w>
ራ ዔ
ራ ረት</w>
ሪ ጭ</w>
ሪ ዕ</w>
ሪ ሽ</w>
ሩ ጉ</w>
ሩ ዝ</w>
ሩ ሳት</w>
ሩ ራ</w>
ረይ ሙ</w>
ረአ ሱ</w>
ረት ቼ</w>
ረተ ዐ</w>
ረስ ኮ</w>
ረሰ ዐ
ረም ቅ</w>
ረሐ ዩ</w>
ረ ፋ
ረ ጨ</w>
ረ ጀ
ረ ዎ</w>
ረ ዌ</w>
ረ ኸ
ረ ኩም</w>
ረ ከበ
ረ አት</w>
ረ ታ
ረ ቤሕ</w>
ረ ሻይ
ረ ሸ</w>
ረ ሶት</w>
ረ ርነ</w>
ረ ረተ</w>
ሞ ውዝ</w>
ሞ ና
ሞ ሶ
ምፕ ዮን</w>
ምጸ እ</w>
ምግ ዓ
ምጅ ተመዕ
ምካ ኤል</w>
ምን ኣ
ምስ ጢር</w>
ምስ ትንክ
ምስ ተዕ
ምስ ር
ም ዲ
ም ዱ</w>
ም ይ
ም ያት</w>
ም ዪን</w>
ም ኔ</w>
ም ነት</w>
ም ተን</w>
ም ቈ
ም ሻ
ም ሰል</w>
ም ሐሬ
ም ልም
ሜ ኮ</w>
ሜ ኩም</w>
ሜ ር</w>
ሜ ረ</w>
ሜ ሜ</w>
ማንቼ ስተር</w>
ማን ዲ
ማ ጻ
ማ ደ
ማ ያም</w>
ማ ያ</w>
ማ ክ</w>
ማ እ</w>
ማ ቼ</w>
ማ ቶ
ማ ቅ</w>
ማ ሺ
ሚ ዕ</w>
ሚ ነ
ሙጅ ተም
ሙጅ ተመ
ሙሽ ተር
ሙ ዕ
ሙ ዋጥኒ
ሙ ቶ</w>
ሙ ተ
ሙ ራም
ሙ ል</w>
መጽ አና
መጸ አ</w>
መጣ ምጥ</w>
መጅ ሁ
መድ ሃ
መዳ ልያ
መየ የ</w>
መዕ ቱ</w>
መዕ መ</w>
መው ከ</w>
መዋ ዕ
መና ሰበ
መነ ዘ
መት ጠ
መት ጀ
መት ዛ
መት ከር
መት አያ
መት በዳ
መት በር
መት ማ
መት ሐር
መት ሃጅ
መታ ሊ
መብ ዳ
መቅር ሖ</w>
መቅ ረሕ</w>
መቃ በለት</w>
መሽ ገ
መሽ ከ
መሽ ሮ
መሸ ው</w>
መስተቅ በል
መስ ል
መሳ ምስ</w>
መር በይ
መር መራ
መር ሓ
መራ ዐ
መረ ተ</w>
መም ናሁ</w>
መም ብ
መም ለከ
መሕ ፉ
መሓ ዛ
መሓ ሪ
መል ኮ</w>
መል ነ</w>
መህረ ጃን</w>
መሀ ጽ</w>
መ ፍረ
መ ጼ
መ ዶ
መ ዱ</w>
መ ዮት</w>
መ ዔ
መ ካፍ
መ ካ</w>
መ ከይ
መ ኢት
መ አክ
መ አከ
መ አተ
መ ቱመ</w>
መ ተም
መ ብራ
መ ሚ
ሖ ቡ</w>
ሕተር ም</w>
ሕር የ
ሕ ደገ
ሕ ያት</w>
ሕ ዛ
ሕ ዋ
ሕ ንቅ
ሕ በት</w>
ሕ ሹ
ሕ ሌ
ሔር በት</w>
ሔ ሰ</w>
ሔ ልያ
ሓም ቅ</w>
ሓ ጽ
ሓ ድረ
ሓ ድ</w>
ሓ ዲ
ሓ ዮም</w>
ሓ የ
ሓ ስ</w>
ሒ ጥ</w>
ሒ ስ</w>
ሑ ኑ</w>
ሑ ል</w>
ሐድ ግ
ሐብ ን</w>
ሐብ ሩ</w>
ሐብ ረ</w>
ሐቃይ ቅ
ሐስ ቡ</w>
ሐር ስ
ሐረ ዩ</w>
ሐረ ከ</w>
ሐም ረ
ሐል ፉ</w>
ሐሊ ብ
ሐ ጪ
ሐ ደር
ሐ ዚ
ሐ ኮ
ሐ ነው</w>
ሐ ታ</w>
ሐ ቢ
ሐ ቀ</w>
ሏ ት</w>
ሎ ጅ
ሎ ታቱ</w>
ልፍ ት</w>
ልእ መ
ልት ፈር
ልት የ
ልት ከሰ
ልት ቀራ
ልት ሸረ
ልት ሰፍ
ልት ረከ
ልት ረስ
ልት ሕ
ልት ሃጌ
ልት ሀገ
ልተ ፍ</w>
ልብ ጽ
ልብ ሎ
ልበ ን</w>
ልቅ ተለ
ልሰ ጅ
ልም ከ</w>
ልህ ጀ
ልህ ብ</w>
ል ጠል
ል ጎ
ል ዳፍ
ል ዳገ
ል ዝ</w>
ል ወር
ል ካሁ</w>
ል ከት</w>
ል ከል
ል ኢ
ል ቴ
ል ባር
ል ቀት</w>
ል ሻር
ል ላ
ል ሆ
ሌ ማ</w>
ላከ ዮም</w>
ላ ጽ
ላ ዕ
ላ ና</w>
ላ ቦራ
ላ ባ
ላ ሰ</w>
ላ ሪ</w>
ላ ማ
ላ ሕ
ላ ልት
ላ ሊ</w>
ላ ሀን</w>
ሊ ኑ</w>
ሊ ቅ</w>
ሊ ማት</w>
ሉ ጅ</w>
ለፍ ኮ</w>
ለፍ ናሁ</w>
ለፈ ጥ
ለፈ ግረ
ለጸ ነሐ
ለጥ እ</w>
ለግ ሩ
ለገ ዝ
ለገ ንሐ
ለጅ ማ
ለጀ ረበ
ለደ ጋ
ለደ ው</w>
ለደ ው
ለደ ብ
ለዓ ብ
ለዐ ገ
ለዐ ንቀ
ለዐ ሬ
ለው ቶም</w>
ለከ ዋ
ለከ እ
ለከ ባ
ለእ ጅትማ
ለእ ዴ
ለእ ቤ
ለእ ር
ለኢት ፈሀ
ለኢት ዐ
ለኢት ሳ
ለኢ ጸብ
ለኢ ገብ
ለኢ ጀ
ለኢ ንት
ለኢ ረከብ
ለኢ ልሐ
ለአድ ሐ
ለአን ተብ
ለአት አ
ለአት መጣ
ለአተ ጅ
ለአብ ጽሐ
ለአብ ጸ
ለአቅ ረብ
ለአስ ታ
ለአስ መዐ
ለአር ቡዕ</w>
ለአ ግር
ለአ ጃ
ለአ ዝብ
ለአ ክራ
ለአ ነግ
ለአ በጽ
ለአ ሰም
ለአ ሰል
ለአ ሕ
ለነ ግ
ለነ አበ
ለነ ብራ
ለነ ሰ
ለነ ሃ
ለትገ ልበ
ለት ፈንተ
ለት ጣ
ለት ደፈ
ለት ወጀ
ለት ወዴ
ለት ከፍ
ለት ከደ
ለት አረ
ለት ት</w>
ለት ቀድ
ለት ሽ
ለት ስ
ለት ሮ
ለተአ ተር
ለተ ሐበ
ለተ ህየ
ለተ ሀይበ
ለብ ዲ
ለብ ሰ</w>
ለቤ ሌ
ለባ በት
ለበ ጥ
ለበ ይአ
ለቅ ን
ለቀ ደመ
ለቀ የ</w>
ለስ ኮ</w>
ለሰ ዴ
ለሰ ዋ
ለሰ እ
ለሰ ነ
ለሰ ርግ
ለሰ ሓ
ለሙ ዲ
ለመ ዳ
ለመ ከ
ለመ ንፈ
ለመ ቱ</w>
ለመ ርከ
ለመ ረ
ለሕ ነ</w>
ለሐ ጅ
ለሐ ው
ለሐ ዋ
ለሐ ንቅ
ለሐ ብሩ
ለሐ ሩ
ለሐ ሌ
ለልት ካ
ለልት ረአ
ለል ዐል
ለል ውሕ
ለል ኣት
ለል ተም
ለል ብሉ
ለል ሀይበ
ለለአት ቃ
ለለአ ን
ለለአ ተን
ለለአ ተቅ
ለለአ ተር
ለለአ ሰብ
ለህ በ
ለሃ ጅ
ለሀይ ቡ
ለሀ ረ
ለ ጫ
ለ ጢ</w>
ለ ጃር
ለ ዲ</w>
ለ ዮቱ</w>
ለ ዋ</w>
ለ ወአ
ለ ክም</w>
ለ ንድ
ለ ች</w>
ለ ታይ</w>
ለ ሥ
ለ ማይ
ለ ለመጽ
ሆ ል</w>
ሆ ለ</w>
ህይ ብ</w>
ህይ ብ
ህ ደግ</w>
ህ ት
ህ ሙ</w>
ህ ሉ
ሄ ሮ
ሃጌ ት</w>
ሃጀ ኮ</w>
ሃይ ፍ</w>
ሃይ ብ</w>
ሃ ዱ</w>
ሃ ምፕ
ሃ ሎ</w>
ሃ ሁ</w>
ሂ ንዱ
ሂ ኒ</w>
ሂ ብ</w>
ሂ መት</w>
ሂ ላት</w>
ሁ ብ</w>
ሀዳ ነ</w>
ሀይ ማኖት</w>
ሀር ኮ</w>
ሀመ ኒ</w>
ሀ ፍ
ሀ ጋ
ሀ ዴ
ሀ ዱ</w>
ሀ ያ
ሀ ዝ</w>
ሀ ትለ</w>
ሀ ሠ
ሀ ለየ</w>
ፕሮፌ ሰር</w>
ፕሮ ቲ
ፔ ን
ፓ ን</w>
ፓ ርት
ፐ ን</w>
ፐ ላ
ፎር ድ
ፎ ከ</w>
ፎ ኑ</w>
ፍተ እ</w>
ፍተ ሕ</w>
ፍር ዬ</w>
ፍር ቀት</w>
ፍር ለ</w>
ፍር ህ</w>
ፍራ ንክ
ፍ ጡ
ፍ ጠ
ፍ ጅ
ፍ ይ
ፍ ቃ
ፍ ራም</w>
ፌ ና</w>
ፋግ ዖ</w>
ፋግ ዕ</w>
ፋ ግር</w>
ፋ ዬ</w>
ፋ ዩ</w>
ፋ ዜዕ</w>
ፋ እ
ፋ ቴ</w>
ፋ ሮም</w>
ፋ ሌ</w>
ፋ ለ</w>
ፋ ሆም</w>
ፋ ሀ</w>
ፊራ ሮ</w>
ፊ ስ</w>
ፊ ሕ</w>
ፊ ላ</w>
ፉ ያም</w>
ፉ ዙ</w>
ፈግ ሮም</w>
ፈክረ ከ</w>
ፈን ጥር</w>
ፈን ተ</w>
ፈን ቅል</w>
ፈቴ ኪ</w>
ፈተ ሸ</w>
ፈተ ሕ
ፈርሀ ከ</w>
ፈር ት</w>
ፈር ም</w>
ፈር ሆም</w>
ፈሪ ቅ
ፈሪ ህ</w>
ፈል ሕ</w>
ፈ ፈት</w>
ፈ ጨ</w>
ፈ ጥ</w>
ፈ ደረ
ፈ ኩም</w>
ፈ አ</w>
ፈ ነት</w>
ፈ ሰ</w>
ፈ ሐት</w>
ፈ ሎ</w>
ፈ ላል</w>
ፈ ለል
ፅ ዕ
ፀ ን</w>
ጾ ቡ</w>
ጽን ሖም</w>
ጽን ሖ</w>
ጽ ፍ
ጽ ፉ</w>
ጽ ገ
ጽ ኮ</w>
ጽ ን</w>
ጽ ቱ</w>
ጽ በ</w>
ጼ ዋይ
ጻብ ጦ</w>
ጻ ጽ</w>
ጻ ተ</w>
ጹ ኡ</w>
ጹ ብ</w>
ጹ ረ</w>
ጹ ሑ</w>
ጸብ ጦም</w>
ጸበ ሪ</w>
ጸ ዐን
ጸ ወር</w>
ጸ እ</w>
ጸ ኒ</w>
ጸ ቤ
ጸ ሮ
ጸ ልም</w>
ጭብ ጭ</w>
ጭ ት</w>
ጭ ቡ</w>
ጭ ቀ</w>
ጭ ር
ጨ ዓ
ጨ ን</w>
ጨ ቅ</w>
ጨ ሮ</w>
ጨ ረ
ጨ መ</w>
ጦ ን</w>
ጥ ኪ</w>
ጥ ንቁ
ጥ ን
ጥ ና
ጥ በ</w>
ጥ ቅጥ</w>
ጥ ርት</w>
ጥ ሙ
ጤ ሕ</w>
ጣ ፍ</w>
ጣ ፌሕ</w>
ጣ ቄዕ</w>
ጣ ራ</w>
ጢ ሾ
ጢ ሩ</w>
ጡ ብ</w>
ጠጠ ዩ</w>
ጠረ ቤ
ጠ ጥነ</w>
ጠ ጣ</w>
ጠ ያ
ጠ ዉ</w>
ጠ ለት</w>
ጎ ትለ</w>
ጎ ስት</w>
ጎ ሪ</w>
ጎ ረት</w>
ግዋ ሬ
ግብ ሩ</w>
ግራ ፍየት</w>
ግራ ዩ</w>
ግራ ቱ</w>
ግራ መ</w>
ግ ዱ
ግ ዞ</w>
ግ ዖ</w>
ግ ዋራ
ግ ኔ
ግ ራይ
ግ ረው</w>
ጌ ብ</w>
ጌ ሰው
ጌ ረ</w>
ጌ ለ</w>
ጌ ሁ</w>
ጋር ም</w>
ጋ ፍ</w>
ጋ ድም
ጋ ቡ</w>
ጋ ሸ
ጋ ርድ</w>
ጋ ሬ</w>
ጊ ዮርጊስ</w>
ጊ ኒ</w>
ጊ ተ</w>
ጊ ሩ</w>
ጉ ድ
ጉ ት</w>
ጉ ራ</w>
ጉ ሩ
ገዝ ከ</w>
ገብአ እ</w>
ገብ ኡ</w>
ገበ እ</w>
ገር ዛ
ገረ ን</w>
ገል ብ</w>
ገለ ድ</w>
ገሀ ፍ</w>
ገ ጼ
ገ ዮም</w>
ገ ዖት</w>
ገ ወው
ገ ትነ</w>
ገ ሶ</w>
ገ ሴ
ገ ሰ
ገ ሮቱ</w>
ገ ለብ</w>
ጅ ግረ</w>
ጅ ላ
ጃ ግር</w>
ጃ በ</w>
ጁ ጅ</w>
ጁ ማት</w>
ጀግ ሕ</w>
ጀብ ሀት</w>
ጀብ ሀ
ጀር በ</w>
ጀሪ ደት</w>
ጀረ በ</w>
ጀረ ሶ</w>
ጀ ጋ
ጀ ድድ</w>
ጀ ዚ
ጀ ኣ
ጀ በር</w>
ጀ ሎ</w>
ጀ ልሰ
ጀ ላብ
ጀ ላ</w>
ዶ ክስ</w>
ዶ ና
ዶ ርፍ</w>
ዶ ምመ</w>
ድግ መ</w>
ድያ ዩ</w>
ድን ያይ</w>
ድብ ድ</w>
ድራ ይት</w>
ድራ መ</w>
ድም ዕ</w>
ድ ፍዕ
ድ ፈ</w>
ድ ጋ</w>
ድ ወል
ድ ኒ</w>
ድ ቀት</w>
ድ መው</w>
ድ ላ</w>
ዴ ዳ</w>
ዴ ደባ
ዴ ናሀ</w>
ዳፍ እ</w>
ዳየ ግ</w>
ዳው ረ</w>
ዳል ዉ</w>
ዳ ጉ
ዳ ዳ</w>
ዳ የት</w>
ዳ ከ</w>
ዳ ና</w>
ዳ ርነ</w>
ዳ ረ
ዳ ማት</w>
ዳ ልየ</w>
ዲ ፕ
ዲ ጂ
ዱ ዉ</w>
ዱ እ</w>
ዱ ኡ</w>
ዱ ብ
ዱ ሽ</w>
ዱ ሮ</w>
ዱ ር
ዱ ማም</w>
ዱ ሉ</w>
ዱ ለ</w>
ደፍ ን</w>
ደግ ሌ</w>
ደገ ግ
ደው ከ</w>
ደው መ</w>
ደንግ ር</w>
ደቅ ነ</w>
ደቅ ቦ</w>
ደቀ በት</w>
ደር በት</w>
ደር በ
ደር መ</w>
ደር ሆ</w>
ደራ ልየት</w>
ደረ ጃ
ደረ ዉ</w>
ደረ ን</w>
ደረ ቦ</w>
ደረ ሮ</w>
ደረ ረ</w>
ደም ዖ</w>
ደም ለ</w>
ደማ ነት</w>
ደ ጉ
ደ ድነ</w>
ደ ዬ</w>
ደ ዪ</w>
ደ ዩቱ</w>
ደ ከለ
ደ ከ
ደ ኢ
ደ ነግ
ደ ቃ</w>
ደ ቀው</w>
ደ ሬሽን</w>
ደ ማት</w>
ደ መዕ</w>
ደ መን
ደ ሓ
ደ ሎት</w>
ደ ሀብ
ዮ ናት</w>
ዮ ናስ</w>
ዮ ነ</w>
ዮ ትከ</w>
ዮ ተን</w>
ዮ ሃንስ</w>
ይእ ቅ
ይሐ ዜ
ይሐ ከ</w>
ይ ፈ
ይ ዕ</w>
ይ ዕ
ይ ዐለ
ይ ካ</w>
ይ ከኣ
ይ እ</w>
ይ አፍ
ይ ነት</w>
ይ ትስ</w>
ይ ትስ
ይ ትም
ይ ተን</w>
ይ በት</w>
ዬ ዲ</w>
ዬ ኮ</w>
ያ ዬ</w>
ያ ዊ</w>
ያ ቴ</w>
ያ ቱመ</w>
ያ ሽ</w>
ያ ሰት</w>
ያ ራ</w>
ያ ሪ
ዩናይ ትድ
ዩ ነ</w>
ዩ ተን</w>
ዩ ማ</w>
የት ናቱ</w>
የ ዓ
የ ታይ
የ ሙ</w>
የ ሐዜ
የ ሀ</w>
ዢ </w>
ዝበ ጥ</w>
ዝ ዞ</w>
ዝ ዘ</w>
ዝ ዖት</w>
ዝ ዓ
ዝ ዐት</w>
ዝ ዉ</w>
ዝ ኖ</w>
ዝ ንት</w>
ዝ ኒ</w>
ዝ ነት</w>
ዝ ባ
ዝ በ</w>
ዝ ማ</w>
ዝ ል
ዝ ህ</w>
ዝ ሁ</w>
ዜ ና</w>
ዛበ ዉ</w>
ዛ ፍ</w>
ዛ ዩ</w>
ዛ ክ</w>
ዛ ታት</w>
ዛ ለ</w>
ዙ ል</w>
ዘከ ሮም</w>
ዘብ ጠ</w>
ዘር ላንድ</w>
ዘ የን</w>
ዘ ዝ</w>
ዘ ዐት</w>
ዘ ካር
ዘ በው</w>
ዘ ሬ
ዘ ሩ</w>
ዘ ረት</w>
ዘ መው</w>
ዖ ትነ</w>
ዖ በል</w>
ዕጨ ይ</w>
ዕድ ዋ
ዕንዳ ቄ
ዕንቦ ባ
ዕም ሩ</w>
ዕ ፌ
ዕ ዳ</w>
ዕ ይ
ዕ ያይት</w>
ዕ ነት</w>
ዕ ቦም</w>
ዕ ሰ
ዕ ረት</w>
ዕ ለን</w>
ዔ ታይ</w>
ዔ ር
ዔ ረ
ዓቅ ቢ
ዓ ፊ
ዓ ጥ
ዓ ድል</w>
ዓ ዳት</w>
ዓ ንደ
ዓ ተን</w>
ዑስ ማን</w>
ዑ ም</w>
ዐጅ በከ</w>
ዐጀ በ</w>
ዐዘ ብ</w>
ዐው ል</w>
ዐብዱ ል
ዐቅ ቡ</w>
ዐቅ በል
ዐሸ ረ</w>
ዐ ፈ
ዐ ፀ
ዐ ዳገ
ዐ ዱ</w>
ዐ ያሁ</w>
ዐ ዚ
ዐ ካ</w>
ዐ ኢ
ዐ ንበ
ዐ ንሰ
ዐ ናሁ</w>
ዐ ናሀ</w>
ዐ ተኒ</w>
ዐ ስር</w>
ዐ ራ</w>
ዐ ምሳ
ዐ ምር</w>
ዐ ሙ</w>
ዐ ሎ</w>
ዐ ላይ
ዐ ለበ
ዏ ት</w>
ውዕ የት</w>
ውረ ስ</w>
ው ጥ</w>
ው ደ
ው ዔ</w>
ው ው</w>
ው ቀ
ው ሔ</w>
ዌ ኒ</w>
ዋጅ ብ
ዋጅ ሆ</w>
ዋን ደ</w>
ዋል ዩ</w>
ዋ ፍቅ</w>
ዋ ጢ
ዋ ዴ
ዋ ዕ</w>
ዋ ሀ</w>
ዊ የት</w>
ዊ ል
ዉ ናቱ</w>
ዉ ላ
ወፈ ራ
ወጽ ር
ወጠ ት</w>
ወግ ር</w>
ወጋ ሻ
ወገ ኖ
ወገ ቢ
ወጅ ድ</w>
ወጅ ሁ</w>
ወጀ ራ
ወድ ዋራ
ወድ ዋ
ወድ ሕ</w>
ወዲ ፕሎ
ወደ ን
ወዕ ቅ
ወዕ ሽ
ወዐ ገ
ወዐ ስከር
ወዐ ለይ
ወው ላድ
ወክ ትፈ
ወክ ታ
ወክ ላ
ወክ ሉ</w>
ወካ ድ
ወከ ልፍ
ወእን ታ
ወእ ስእ
ወኤ ቨር
ወኣ ይ
ወኢት ትሐ
ወኢ ተሀ
ወኢ ልትዐ
ወአት ዋ
ወአብዕ ቦ
ወአ ፍር
ወአ ጭ
ወአ ዋ
ወአ ክራ
ወአ ክል
ወአ ንያ
ወአ ብር
ወአ ቤ
ወአ ስእ
ወአ ሌ
ወን ዘ
ወን ዋይ
ወነ አፍ
ወነ አው
ወነ ባ
ወት ጥ
ወት ግር
ወት ጌ
ወት ድ
ወት ዳገ
ወት ው
ወት ኩም</w>
ወት ትቃ
ወት ሰራ
ወት ለ</w>
ወተ ጃር
ወተ ዋ
ወተ እሪ
ወተ ና
ወተ በ
ወተ ሃ
ወቅ ድ
ወቅ ብ
ወቀ ና
ወሸ ዐ
ወሸ በ
ወስ ል
ወሰ ከ</w>
ወሰ ት</w>
ወሰ ባ
ወር ሕ</w>
ወራ ር</w>
ወረ ወ</w>
ወረ አስ
ወረ ብ</w>
ወረ ቀት</w>
ወም ን</w>
ወሜ ዛ
ወሙ ስተቅ
ወመው ዒ
ወመት ፈር
ወመት ጃ
ወመት ዳ
ወመት ነፈ
ወመት ቃ
ወመት ቀ
ወመት ሻ
ወመት ሓ
ወመቅ ደረ
ወመስኡ ል
ወመሳ ኒ
ወመ ፍ
ወመ ጥ
ወመ ክረ
ወመ ካይ
ወመ ብደ
ወመ ብ
ወመ ሲ
ወመ ረ
ወሔ ዋ
ወሐ ጥ</w>
ወሐ ንገ
ወሐ ቴ
ወሐ ቱ</w>
ወሐ ብሬ
ወሐ በ
ወሐ መድ
ወሐ ላ
ወልት ጃ
ወልት ዳ
ወልት ካ
ወልት ከ
ወልት ና
ወል ጥ
ወል ዶም</w>
ወል ዶ</w>
ወል ከ</w>
ወል ብ</w>
ወል ሸ
ወለድ ኮ</w>
ወለአ ክ
ወለአ ሰ
ወለት ር
ወለል አት
ወለ ፈር
ወለ ጸ
ወለ ከስ
ወለ ኢለአ
ወለ ተል
ወለ ስጋ
ወለ ሳል
ወሀ ው
ወሀ ረ
ወ ፌር
ወ ፈ</w>
ወ ጻብ
ወ ዮም
ወ ዌር
ወ ክረ
ወ ቺ
ወ ብ</w>
ወ ቁ</w>
ወ ሾ</w>
ወ ሇ
ኾ ነ</w>
ኻ ን</w>
ኻ ር</w>
ኸ ይ
ኮ ነ</w>
ኮ ቶም</w>
ኮ ብ
ክር ያ</w>
ክር ክ</w>
ክር ን
ክር ቴር</w>
ክር ቴ
ክራ ይት</w>
ክረ ነ</w>
ክም ነ</w>
ክል ቱ</w>
ክ ዔ</w>
ክ ኸ
ክ እነ</w>
ክ ኒ</w>
ክ ኑ</w>
ክ ትረ
ክ ሰ</w>
ክ ራ</w>
ክ ሙ</w>
ክ ሊን</w>
ኬ ይ
ኬ ናሁ</w>
ኬ ታት</w>
ኬ በ</w>
ካፍ እ</w>
ካየ ለ</w>
ካረ መ</w>
ካል ኣ
ካ ይድ</w>
ካ ይን</w>
ካ የ</w>
ካ ከ</w>
ካ ትባ
ካ ሳ
ኪ ንግ</w>
ኪ ንግ
ኪ ንስ</w>
ኪ ቡ</w>
ኪ ሊ
ኩ ፉ</w>
ኩ ዕ</w>
ኩ ና
ኩ ነ
ኩ ባ</w>
ኩ ሪ</w>
ከፍ ክፍ</w>
ከፍ ከፍ</w>
ከድ ሙ</w>
ከይ ደ</w>
ከይ ል</w>
ከን ቴ
ከብ ኩም</w>
ከር ደ
ከር ክ
ከር ከር</w>
ከር መ</w>
ከረ ም
ከም ከመ
ከም ነ</w>
ከ ፖ
ከ ድ</w>
ከ ደን</w>
ከ ደት</w>
ከ ዘ</w>
ከ ዕ</w>
ከ ዎም</w>
ከ ወኒ
ከ ወቅ
ከ ወ
ከ ክም
ከ ከር
ከ አስእ
ከ ኖት</w>
ከ ትብ
ከ ትበገ
ከ ሮት</w>
ከ ሥ
ከ ሕ</w>
ከ ሑ
ከ ለሀ
ኦ ን
ኦ ሳ
ኦ ሮ</w>
ኦ ል</w>
ኦ ል
እጅትመ ዕ
እድ ንያይት</w>
እድ ንያይ</w>
እዱ ሉ
እዘ ም</w>
እክ ል</w>
እከ ይ</w>
እንግሊ ዝ</w>
እን ጠ
እን ጅ
እን ቲ
እን ቁ
እን ቀይ
እን ሰም
እና ስ</w>
እት ዋ
እት ሩ
እት ለሐ
እት ህ
እብራ ሂም
እስትቅ ላ
እስትራ ቴ
እስ ክ
እስ ካ
እሲ ር</w>
እር ሃብ
እር ሃ
እም ር</w>
እ ግ</w>
እ ደር
እ ዮም</w>
እ ይ</w>
እ ያት</w>
እ የ
እ ክር
እ ክረ
እ ካሁ</w>
እ ከለ
እ ቤለ
እ ቀር
እ ሹ</w>
እ ሳም
እ መይ
እ መን</w>
ኤር ትሪ
ኤም ራይ</w>
ኤልክ ትሮ
ኤ ፍ
ኤ ዲ
ኤ ናሁ</w>
ኣው ስትራ
ኣም ርተ</w>
ኣም ላኽ</w>
ኣም ላክ</w>
ኣመር ኮ</w>
ኣመረ ው</w>
ኣመ ሮ</w>
ኣል ዓ
ኣ ዲ
ኣ ዮም</w>
ኣ ኒ</w>
ኣ ትፋ
ኣ ትና
ኣ ትመ
ኣ ብረ
ኣ ቤ
ኣ ቢ
ኣ ስር</w>
ኣ ሮ
ኣ ር</w>
ኢጣ ል
ኢደ ሌ
ኢይ ትት
ኢን ቅ
ኢነ ግ
ኢነ አም
ኢነ ሓ
ኢትት ወለ
ኢት ፈር
ኢት ጸበር
ኢት ጃ
ኢት ድ
ኢት ዳ
ኢት ዮ
ኢት ከሰ
ኢት ከረ
ኢት አበ
ኢት ነ</w>
ኢት ቨ
ኢት ሸነ
ኢት ሰርገ
ኢት ረብ
ኢት ምጽ
ኢት መጽ
ኢት ሐሰ
ኢት ሀየ
ኢተአ ም
ኢብራ ሂም
ኢልት ዋ
ኢልት ወለ
ኢልት ቃ
ኢልት ሳ
ኢልት ራ
ኢልት ሃ
ኢልት ሀየ
ኢል ጽበ
ኢል ክረ
ኢል ምጽ
ኢል ሓ
ኢ ጠዐ
ኢ ደት</w>
ኢ ንድ
ኢ ተን
ኢ በጥ
ኢ ቃኑ
ኢ ሙ
ኢ መይ
ኢ መሰ
ኢ ሀሌ
ኡ ዎም</w>
አፍሪ ቀ
አፍ ያ
አፍ ዓ
አፈ ግር</w>
አፈ ች
አፈ ሬ</w>
አጥዐሚ ቶ</w>
አግ ጸ
አግ ማ
አጀ ዘ</w>
አጀ ኒት</w>
አድ ያ
አዳ ሌ</w>
አዘ ዝ</w>
አዘ ው</w>
አወ ድ</w>
አወ ላይ</w>
አክ ን</w>
አክ ቡ
አካ ነ</w>
አንበ ተው</w>
አና ሀን</w>
አትፋር ሀ
አትፋ ዘ
አትፋ ረ
አትፈ ከረ
አትገ ሴ
አትራ ዘ
አትመጣ ወር
አት ጻበ
አት ጣ
አት ዋጅ
አት አመን
አት ቀና
አት ረፍ
አት ላን
አት ሃጅ
አት ሀድ
አተግ ነዐ
አተ ብ
አተ ርገ
አተ ምሰ
አብ ሪ
አብ ል
አቡ ር
አቅበ ለው</w>
አቅ ሩ
አሽ ዓ
አስ ን
አስ ቡ
አስ ም
አሳ ስ
አሰ ይ
አሰ ሬ
አሰ ል
አር ው
አር ከ
አር በዕ</w>
አር ሰናል</w>
አር ሄ
አምጽ እ</w>
አም ነ
አም ተሐ
አም ቡ
አም ሰለ
አሜ ርክ
አማ ነት</w>
አልዕ ሸ
አል ቡ
አል መድ
አል መ
አል ህ
አለ ቦም</w>
አ ጬ
አ ጩ
አ ጌ
አ ዮ</w>
አ ዪ
አ ዎ
አ ወድ
አ ካ</w>
አ ከለ
አ እ</w>
አ ኔ
አ ኑ</w>
አ ኑ
አ ነብ
አ በረ
አ ሚን</w>
ኖ ኔ</w>
ኖ ቫ
ንፍ ሎ</w>
ንጎ ጌ</w>
ንጎ ለ</w>
ንግ እ</w>
ንግ ቶን</w>
ንጋ ይ</w>
ንጉ ስ</w>
ንድ ሮ</w>
ንዳ ዕ</w>
ንከ ስ</w>
ንአ ሽ</w>
ንት ፎርድ</w>
ንት ኖ</w>
ንት ሪ</w>
ንተብ ህ</w>
ንበ ሮ</w>
ንበ ለ</w>
ንቀልቀ ለ</w>
ንቀ ላ
ንስ የ</w>
ን ፅ
ን ጽበ
ን ዳይ</w>
ን ዳት</w>
ን የቱ</w>
ን ዐ</w>
ን ዐ
ን ዋይ</w>
ን ከት</w>
ን ኢሸ
ን ተር</w>
ን ቡ</w>
ን ቅ</w>
ን ቀድ
ን ሺ
ን ርኤ
ን ረ
ን ሖ</w>
ን ለይ</w>
ኔ ሽ
ኔ ለ</w>
ናፍ እ</w>
ናድ ድ</w>
ናድ ሎ</w>
ናድ ለ</w>
ናይ ና</w>
ናይ ቶ</w>
ናይ መ</w>
ናክ ሽ</w>
ናስ ቡ</w>
ና ታ
ና ተ
ና ህን</w>
ኒ የ</w>
ኒ ና</w>
ኒ ኑ</w>
ኒ ሽ</w>
ነፍ ር</w>
ነፈ ዐ</w>
ነድ ደ</w>
ነዘ ማት</w>
ነዘ መየ</w>
ነወ ክ</w>
ነአድ ር
ነአ ፈ
ነት ል</w>
ነብ ሮ</w>
ነቅ ም</w>
ነ ፍ</w>
ነ ፋዕ</w>
ነ ጥ</w>
ነ ጠ
ነ ያሁ</w>
ነ የ
ነ ዐር
ነ ኮ</w>
ነ ክረ
ነ ካ</w>
ነ ኖት</w>
ነ ተ
ነ ሰት</w>
ነ ሓር
ነ ሉ</w>
ነ ሀይ
ቷ </w>
ቶም ማ</w>
ቶ ትመ</w>
ቶ ሕ</w>
ቶ ለ</w>
ትፋ ቀድ
ትገ ፍ
ትገ ጽ</w>
ትገ ሀ
ትደ ጋ
ትደ የ
ትደ ው
ትደ ብ
ትከ ነ</w>
ትከ ሬ
ትከ ምከ
ትእ ዛ
ትት ዐደ
ትት ዐለ
ትት ከረ
ትበ አስ
ትቃ በለ
ትቀ ት
ትሸ ከ
ትሸ ነሀ
ትሰ ምዕ
ትሮ ታት</w>
ትር ያ</w>
ትረ ከበ
ትረ ሸ
ትም ም</w>
ትሕ ት
ትሐ ቴ</w>
ት ጎ
ት ይ
ት ያይ</w>
ት ያት</w>
ት ዉ
ት ወጸ
ት ወገ
ት ወተ
ት ወሸ
ት ክር
ት እብ</w>
ት ቅ</w>
ት ሻር
ት ራይ
ት ለም
ት ህል</w>
ት ሄረ
ቴክ ኒ
ቴ ላይ</w>
ቴ ሆም</w>
ታት ዮስ</w>
ታር ያት</w>
ታ ያ</w>
ታ የን</w>
ታ ውን</w>
ታ ው</w>
ታ ንጃ
ታ ላት</w>
ቲ ካ</w>
ቲ ቴ</w>
ቲ ቡ</w>
ቲ ሁ
ቱ ሙ</w>
ቱ ሑ</w>
ተፍ ቅ</w>
ተዐ ጀ
ተዐ ቅ
ተዐ ል
ተክ ጢ
ተክ ቢ
ተክ ል</w>
ተአት ኣም
ተአት መጣ
ተአት ሐዜ
ተአ ከል
ተአ ሰብ
ተብ ነ</w>
ተበ ዐ</w>
ተቅ ዪር</w>
ተስ ዊ
ተስ ል</w>
ተሰ ነይ
ተር የ</w>
ተር ቱ</w>
ተረ ክ</w>
ተም ሙ</w>
ተሐ ድያ
ተሐ ሰብ
ተል ኮ</w>
ተላ ለ</w>
ተለ ዎም</w>
ተሀ ጀ
ተሀ ርገ
ተ ፅ
ተ ደ
ተ ከስ
ተ ኤ</w>
ተ ኛ
ተ ቼ</w>
ተ ስተ
ተ ራ</w>
ተ ማ</w>
ተ ላይ
ተ ለፈ
ተ ለይ
ተ ሄ
ቫ ን
ቪ ያ</w>
ቪ ክ</w>
ቪ ንስ
ቦ ጡ</w>
ቦ እ</w>
ቦ ተን</w>
ቦ ሪ</w>
ቦ ሁ</w>
ብጽ ሒ
ብዝ ሕ</w>
ብር ጪ
ብር ቱ
ብሩ ክ</w>
ብረ ና</w>
ብል ቱ
ብ ይ</w>
ብ ዘይ
ብ ዓ</w>
ብ ካሁ</w>
ብ ኢ
ብ ናመ</w>
ብ ትር
ብ ተት</w>
ብ ቦ</w>
ብ ሑ</w>
ብ ሃ
ቤር ቶ</w>
ቤ ካ</w>
ቤ ኔ
ቤ ተት</w>
ቤ ስ</w>
ቤ ሪ</w>
ቤ ረ
ባይ ከ</w>
ባር የ</w>
ባር ና
ባል ሕ</w>
ባ ዮም</w>
ባ የት</w>
ባ ቦም</w>
ባ ብል</w>
ባ ብለ</w>
ባ ባት</w>
ባ ስር</w>
ባ ሳ
ባ ሬ
ባ ላ</w>
ባ ሉ</w>
ባ ለሕ</w>
ባ ሀን</w>
ቢ ና</w>
ቢ ር
ቡር ኪ
ቡ ወ</w>
ቡ ቲ</w>
ቡ በት</w>
ቡ ሱ</w>
ቡ ሎ</w>
በጽሐ ከ</w>
በጸ ሕ
በገ ሰው</w>
በድ ሎ</w>
በድ ሉ</w>
በዝ ሐ</w>
በአ ሰ</w>
በት ኩ</w>
በርናም ጅ</w>
በር ሰሎ
በረ ዉ</w>
በለ ዕ
በለ ኒ</w>
በ ጡ</w>
በ ደል</w>
በ ዝ</w>
በ ኮ</w>
በ ኬ</w>
በ ንመ</w>
በ ታት</w>
በ ታ
በ ቱመ</w>
በ ቀ
በ ሬኒ</w>
በ ም
ቆ ጨ
ቆ ዕ</w>
ቆ ሬ</w>
ቆ ሚ
ቅብ ሉ</w>
ቅራ ር</w>
ቅ ን</w>
ቃ ዲ
ቃ ዐት</w>
ቃ ሸ
ቃ ላት</w>
ቂ በ</w>
ቁ ነ</w>
ቀደ መት</w>
ቀየ ድ</w>
ቀየ ም</w>
ቀሸ ሽ
ቀር ቀ
ቀል ቡ</w>
ቀ ፎ
ቀ ፋ
ቀ ፊ
ቀ ደው</w>
ቀ ካ</w>
ቀ ነብ
ቀ ትቼ</w>
ቀ ቲ
ቀ ባ</w>
ቀ ቀ
ቀ ሽ</w>
ቀ ሸ</w>
ቀ ልነ</w>
ቀ ልል</w>
ቀ ሌ
ቀ ላት</w>
ቀ ለጥ
ሾ ቱ</w>
ሾ መ</w>
ሽር ከት
ሽ ዐልል</w>
ሽ እ</w>
ሽ ቦ</w>
ሽ ባን
ሽ ሕ</w>
ሽ ሉ
ሽ ሃድ</w>
ሼ ኒ</w>
ሼ ለ</w>
ሻር ዕ</w>
ሻ ክት</w>
ሻ ናት</w>
ሻ ሂ
ሹ ው
ሹ ር
ሹ ሙ</w>
ሸክ ት</w>
ሸን ከ</w>
ሸቅ ዮም</w>
ሸቄ ቱ</w>
ሸም በር</w>
ሸ ፈ</w>
ሸ ድ</w>
ሸ ዋር
ሸ ኬ</w>
ሸ አግ
ሸ ንብ
ሸ ንቀ
ሸ ታት</w>
ሸ ቁ
ሸ ቀላ
ሸ ራት</w>
ሸ ሙ</w>
ሸ ሊ
ሶ ል
ስያ ስ
ስክር ቴ
ስት ስ</w>
ስት ህለ</w>
ስታ ር
ስ ፍሩ
ስ ዓይ</w>
ስ ከት</w>
ስ ኦ</w>
ስ ኖ</w>
ስ ናቱ</w>
ስ ናሆም</w>
ስ ትረ
ስ ሞ
ስ ሕ</w>
ስ ልብ
ስ ለዘይ
ሴ ለ</w>
ሳው ዛምፕ
ሳን ዩ</w>
ሳን የት</w>
ሳር ዩ</w>
ሳር ሕ</w>
ሳ ፈር
ሳ ግም</w>
ሳ የ
ሳ ዐድ
ሳ ክ</w>
ሳ በ</w>
ሳ ሳ</w>
ሳ ሰ</w>
ሳ ራ</w>
ሳ ልሰ
ሳ ለት</w>
ሲ ድ</w>
ሲ ቅ</w>
ሲ ሌ</w>
ሱ ፐር
ሱ ያም</w>
ሰጅ ዕ</w>
ሰአ ሎ</w>
ሰን ዱ
ሰብ ክ</w>
ሰበ ል</w>
ሰርግ ሉ</w>
ሰረ ጀ
ሰረ ዩ</w>
ሰማ ዕ</w>
ሰል ኮ</w>
ሰል ሁመ</w>
ሰለ ፍ</w>
ሰለ ም</w>
ሰ ፎ</w>
ሰ ዴ</w>
ሰ ክሪ
ሰ ኬ</w>
ሰ ኖ</w>
ሰ ንከ
ሰ ታት</w>
ሰ ተኒ</w>
ሰ ተር</w>
ሰ ቀል
ሰ ሱ</w>
ሰ ሐ</w>
ሰ ሎም</w>
ሰ ሌ</w>
ሮ ድ</w>
ሮ ታ</w>
ሮ ሶ</w>
ሮ ራ</w>
ሮ ረዩ</w>
ሮ ሀ</w>
ርያ ድ
ርዝ ቅ
ርከ ን</w>
ርከ ቦ</w>
ርእ ዎ</w>
ርእ ወ</w>
ርኤ ተ</w>
ርበ ዕ</w>
ርሕ ዎ</w>
ር ዶ</w>
ር ይ</w>
ር ያም</w>
ር አዩ</w>
ር አት</w>
ር ናሁ</w>
ር ሙ
ር ሓይ</w>
ር ሑ
ሬ ክ</w>
ሬ ተር</w>
ሬ ተራት</w>
ሬ ስ</w>
ራዕ ዮም</w>
ራክ ቦም</w>
ራክ በነ</w>
ራቅ ቦ</w>
ራ ፍዐ
ራ ዶ</w>
ራ ዮም</w>
ራ ዔ</w>
ራ ው
ራ ከ</w>
ራ ናት</w>
ራ ቴ</w>
ራ ላት</w>
ራ ህ</w>
ሪ ዱ</w>
ሪ ያ
ሪ ኽ</w>
ሪ ኮ</w>
ሪ እ</w>
ሪ ንግ</w>
ሪ ስታ
ሪ ሰ</w>
ሪ ራ</w>
ሪ ሆም</w>
ሩ ያት</w>
ሩ ዩ</w>
ሩ እ</w>
ሩ ረ</w>
ረፍ ዖም</w>
ረፍ ቱ</w>
ረይ ሞም</w>
ረይ ሞ</w>
ረክ ኮ</w>
ረክ ት</w>
ረክ ቦም</w>
ረክ ብ
ረክ በው</w>
ረት ዐ</w>
ረት ቡ</w>
ረብ የ</w>
ረብ ቱ</w>
ረበ ሸ</w>
ረስ ም</w>
ረሳ ዕ</w>
ረሰ ዖ</w>
ረም ኮ</w>
ረ ፎ</w>
ረ ግረ
ረ ዱ</w>
ረ ደው</w>
ረ ዩ
ረ የ
ረ ዐ</w>
ረ ካ
ረ ባ</w>
ረ ቅበ
ረ ቅቅ</w>
ረ ሱ
ረ ሮት</w>
ረ መዳ
ሟ </w>
ሞ ዖ</w>
ሞ ታ</w>
ሞ ር</w>
ምጅ ም</w>
ምክ ኤል</w>
ምን ት</w>
ምን መ</w>
ምቦ ል</w>
ምበ ስ</w>
ምስ ተን
ምር ግ</w>
ምሕ ክ</w>
ም ዶም</w>
ም ደት</w>
ም ኬ
ም ናሁ</w>
ም ኑ
ም ታ</w>
ም ቲ</w>
ም ብር</w>
ም በር
ም በ</w>
ም ቕ
ም ሲ
ም ሰት</w>
ም ሞም</w>
ም ሕ</w>
ም ሎ</w>
ሜ ክ</w>
ሜ ቼ</w>
ሜ ላ</w>
ማይ ቱ</w>
ማን ያ</w>
ማር ሒ
ማል እ</w>
ማ ጠጥ</w>
ማ ደ</w>
ማ ዒል</w>
ማ ኔ</w>
ማ ትከ</w>
ማ ሮ</w>
ማ ሬ</w>
ማ ሕ</w>
ማ ሃ</w>
ሚ ድ
ሚ ክሮ
ሚ ክ</w>
ሚ ከ
ሚ ሙ</w>
ሚ ልዮ
ሙጅ ተማ
ሙ ያም</w>
ሙ አሰ
ሙ ኖም</w>
ሙ ቃ
ሙ ስል
ሙ ረን</w>
ሙ ሃ
መጺ እ</w>
መጣ ወረ</w>
መጃ ል</w>
መጀር ሒ
መድረ ሰ
መድ ነ</w>
መድ መ</w>
መድ ሐር
መዘ ን</w>
መዕ የ</w>
መዓ ወነ
መዓ ቱ</w>
መዐ ጸ
መዐ ስከር
መዐ ስ
መክ ዘ
መካ ስ
መንፈ ዐት</w>
መንጠ ቀት</w>
መን ደፈ
መና ዝ
መነ የ</w>
መነ ዕ</w>
መት ጸባ
መት ዳል
መት ዕ
መት ዐደ
መት ዐዋ
መት ነፋ
መት ሻቀዪ
መት መላ
መታ ብ
መተል ህየ
መተ የ</w>
መቅረ ሐት</w>
መቅ ደ
መቅ ርሕ</w>
መቃር ሐ</w>
መሽ ጎ</w>
መሸ ግ</w>
መስ አ
መስ ሎም</w>
መስ ለኒ</w>
መሳ ነ</w>
መሳ ሪ
መሰ ው</w>
መር መር</w>
መር ሃ
መራ መ</w>
መረ ብ
መረ ሐ</w>
መም ካሁ</w>
መሓ ር
መል ኩ</w>
መል አ
መለ እ</w>
መ ፈረ
መ ጪ
መ ጁ
መ ዲ</w>
መ ደም
መ ካፈ
መ ከለ
መ አንበ
መ ኖ
መ ናይ</w>
መ ቲት</w>
መ ተው</w>
መ ተቅብ
መ ተሐ
መ ቀድ
መ ሺ
መ ሸት</w>
መ ሰር
መ ሚት</w>
መ ሚ</w>
መ መው
መ መቅ
መ ሁ</w>
መ ሀር
መ ሀ</w>
ሖ ትለ</w>
ሖ ታት</w>
ሕማ ም
ሕ ጽ</w>
ሕ ጼ
ሕ ጺ
ሕ ጸ
ሕ ጅ
ሕ ጀ
ሕ ደ</w>
ሕ የ</w>
ሕ ዜ
ሕ ዘው
ሕ ዉ
ሕ ንጉ
ሕ ነ
ሕ ታ</w>
ሕ ብር
ሕ ቡ</w>
ሕ ሽክ
ሕ ሸ
ሕ ሩ</w>
ሕ ላይ
ሔ ዝ
ሔ ን</w>
ሓይ ሶ</w>
ሓይ ሱ</w>
ሓይ ሰ</w>
ሓረ በ</w>
ሓ ገ
ሓ ድገ
ሓ ኬ
ሓ ማ
ሓ ሉ</w>
ሒ ዝ</w>
ሒ ና</w>
ሑ ሳት</w>
ሑ ረ</w>
ሑ ሉ
ሐፍ ዝ</w>
ሐድ ጎ</w>
ሐድ ነ</w>
ሐዳ ስ
ሐዝ ን</w>
ሐዋ ኒ
ሐቅ ፈ
ሐሶ ሴ</w>
ሐር የ</w>
ሐር ማ
ሐረ ድ
ሐረ ው
ሐረ ም</w>
ሐም በ
ሐል ብ</w>
ሐሊ ብ</w>
ሐ ፉ
ሐ ጸ
ሐ ጎ
ሐ ኪ</w>
ሐ ነግ
ሐ ብር</w>
ሐ በት</w>
ሐ ሰን</w>
ሐ ሎ</w>
ሐ ለት</w>
ሐ ለቅ
ሏ </w>
ሎ ግ</w>
ሎ ጅየት</w>
ሎ ሙ</w>
ልፍ ቱ</w>
ልፍ ሀ
ልፈ ን</w>
ልግ ት</w>
ልግ በእ
ልገ ልብ
ልድ ፈ
ልእ ኩ</w>
ልእ ከት</w>
ልእ ብ</w>
ልትሀየ ብ
ልት ጻገ
ልት ጌ
ልት ካፈ
ልት አከ
ልት አመ
ልት በህ
ልት ቅ
ልት ሰር
ልት ረፈ
ልት መሀ
ልት ለከ
ልት ሆ
ልበ ድ
ልቅ ሸ
ልቃ ድር</w>
ልሰ ን</w>
ልም ዬ</w>
ልህ ስ</w>
ል ፓላስ</w>
ል ጭ</w>
ል ጠው
ል ዘ</w>
ል ካይ
ል ተርጀ
ል ተል
ል ባይ</w>
ል ቆ</w>
ል ቅር
ል ሰ</w>
ል ር</w>
ል ለት
ል ሄር
ል ሁ</w>
ል ሁ
ሌ ቡ</w>
ሌ ማን</w>
ላክ ፍ</w>
ላ ደ
ላ ወሸ
ላ ትቱ</w>
ላ በ
ላ ሽ</w>
ላ ለፈ</w>
ሊት ማን
ሊ ጅ</w>
ሊ ዕ</w>
ሊ ሁ</w>
ሊ ሀ</w>
ሉ ቀ</w>
ሉ ሱ</w>
ለፍ ገሪ
ለፍ ንቲ
ለፍ ቱ</w>
ለፈ ከ</w>
ለፈ ናተ</w>
ለጸ ዐ
ለገ በይ
ለዝ ጊ</w>
ለዕ ጨ
ለዕ ያ
ለዕ ንታ
ለዕ ንቦ
ለዓ ል</w>
ለዓ </w>
ለዐ የ</w>
ለው ቅ</w>
ለካል ኣይ
ለካ የ
ለከ የ</w>
ለከ ምከ
ለእን ከል
ለእ ጅ
ለእ ሲ
ለኣ ብ
ለኢት ጸበረ
ለኢት አመረ
ለኢት ትሐ
ለኢት ሰ
ለኢት ሐ
ለኢ ወደ
ለኢ ቀድ
ለኢ ቀ
ለኢ ረክበ
ለኢ ሐ
ለኢ ለት
ለኢ ለሀይ
ለአትቃ ም
ለአት ጻ
ለአት ዛ
ለአት በግ
ለአት መመ
ለአት ሃጅ
ለአተ ብር
ለአስተ ዕ
ለአስ ብ
ለአ ፉ
ለአ ግረ
ለአ ጀር
ለአ ዋል
ለአ ወል
ለአ ክር
ለአ ከደ
ለአ ከእ
ለአ ተሐ
ለአ ሽክ
ለአ ሰአ
ለአ ሪ
ለአ ሕተር
ለነ አሸ
ለነ ት
ለት ጌ
ለት ዳገ
ለት ዛቤ
ለት ወር
ለት ካፈ
ለት አትሐ
ለት አስ
ለት ታ
ለት መጸ
ለት መሀ
ለት ለት
ለት ህየ
ለቴ ል
ለታ ብዐ
ለተአ ስ
ለተ ዐል
ለተ አትሓ
ለተ ና
ለተ በዐ
ለተ ሐል
ለብ ኩም</w>
ለብ ናሁ</w>
ለባ ይት</w>
ለበዝ ሐ</w>
ለበ ዘ
ለበ ን
ለቀር አ
ለቀ ራ
ለቀ ም</w>
ለሽ ቅ
ለስ ትህ
ለሳ ም
ለሰ ወር
ለሰ ተ
ለረ ይ
ለረ ም
ለረ ሕ
ለም ደር
ለም ናሁ</w>
ለመ ድረ
ለመ ዉ</w>
ለመ ከ</w>
ለመ እ</w>
ለመ ንገ
ለመ በገ
ለሕ ሽ
ለሐ ደ
ለሐ የ
ለሐ ከ</w>
ለሐ ስ</w>
ለሐ ሰብ
ለልአት ቃ
ለልአ በ
ለልት ወለ
ለልት ነፍ
ለልት ብ
ለልት በር
ለልት ሐደ
ለል ፍህ
ለል ሸ
ለል ስ
ለለአ ገ
ለለአ ብ
ለለ ፈ
ለለ ተ</w>
ለለ ህ
ለህ ግያ
ለህ ጅ
ለሀ ንጦ
ለሀ ን
ለሀ ል
ለ ፅ</w>
ለ ጹ
ለ ጸበጥ
ለ ደት</w>
ለ ዩቱ</w>
ለ ወዳ
ለ ወዝ
ለ ወዘ
ለ ወት
ለ ወሸ
ለ ወለት
ለ ናቱ</w>
ለ ኒተ</w>
ለ ኑ</w>
ለ ባይ
ለ ቆት</w>
ለ ሞም</w>
ለ ማን</w>
ለ ሖ</w>
ለ ለል
ለ ሄራ
ለ ሁ</w>
ሆ ቴ
ህን ጡ
ህ ፀ
ህ ዲ
ህ ዮ</w>
ህ ንድ
ህ ና</w>
ህ ሮ</w>
ህ ሩ</w>
ህ ማት</w>
ህ ሎም</w>
ህ ልክ</w>
ህ ላት</w>
ሄ ይ</w>
ሄ ን</w>
ሄ ሮ</w>
ሃድ እ</w>
ሃይ ማኖት</w>
ሃ ጸ
ሃ ዬ</w>
ሃ ሩ</w>
ሃ ረ
ሂ በት</w>
ሂ ል
ሁ ዱ</w>
ሁ ት</w>
ሁ ለ</w>
ሀገ ን</w>
ሀገ ነ</w>
ሀለ ኒ</w>
ሀ ጅ</w>
ሀ ዶ</w>
ሀ ደዩ</w>
ሀ ዬ
ሀ የት</w>
ሀ ኬ</w>
ሀ ንገ
ሀ ባ</w>
ሀ ሩ</w>
ሀ መል
ፖ ሊ</w>
ፕሪ ል</w>
ፕላ ስቲክ</w>
ፕ ል</w>
ፔ ሮ</w>
ፓ ትሪ
ፓ ሪ
ፓ ል
ፒ ተር</w>
ፐላ ጂክ</w>
ፎር ዛ</w>
ፎር ሰ</w>
ፎ ፈል</w>
ፎ ዖ</w>
ፎ ቶ
ፎ ቃ
ፎ ሉ</w>
ፍዕ ወ</w>
ፍዐ ኒ</w>
ፍዐ ትነ</w>
ፍን ሄ
ፍር ቱ</w>
ፍረ ር</w>
ፍረ ህ</w>
ፍ ጥ</w>
ፍ ገት</w>
ፍ ጃ
ፍ ዞ</w>
ፍ ዘት</w>
ፍ ዓይት</w>
ፍ ካሁ</w>
ፍ ታ</w>
ፍ ሶ</w>
ፍ ራይ</w>
ፍ ሪን</w>
ፌ ተ</w>
ፋግ ዐ</w>
ፋይ ሕ</w>
ፋዝ ዕ</w>
ፋት ሐ</w>
ፋር ማሲ
ፋ ድ</w>
ፋ ትሓ
ፋ ብሪ
ፋ ሬ</w>
ፋ ሉ
ፋ ሀም</w>
ፊ ዕ</w>
ፊ እ</w>
ፊ ኔ</w>
ፊ ሎ
ፉ ሽ</w>
ፈዝ ነ</w>
ፈዐ ቱ</w>
ፈን ጥ
ፈን ጠር</w>
ፈን ጠረ
ፈን ነ</w>
ፈና ኔ
ፈት የን</w>
ፈት ሸ</w>
ፈተ ሽ</w>
ፈተ ሽ
ፈቅ ዶም</w>
ፈር ጉ</w>
ፈረ ጅ
ፈረ ንስ
ፈረ ህ</w>
ፈል ድ</w>
ፈሀመ ኒ</w>
ፈሀ ሙ</w>
ፈ ፍነ</w>
ፈ ፈው</w>
ፈ ጨ
ፈ ዴ
ፈ ያ</w>
ፈ የ
ፈ ዛ</w>
ፈ ዘው</w>
ፈ ወድየት</w>
ፈ ኪ</w>
ፈ ኖት</w>
ፈ ቲ</w>
ፈ ተሐ
ፈ ቀው</w>
ፈ ሳ
ፈ ሮም</w>
ፆ ታት</w>
ፆ ም</w>
ፅ ን
ፅ ነ</w>
ፅ ር</w>
ጾ ር</w>
ጾ ሩ</w>
ጾ ሖም</w>
ጽሕ ወ</w>
ጽ ግ
ጽ የት</w>
ጽ ኦ</w>
ጽ ነሕ</w>
ጽ ቡ</w>
ጽ ለ</w>
ጼ ንዩ</w>
ጻ ድቅ</w>
ጻ ብ</w>
ጺ ጸት</w>
ጹ ኒ</w>
ጸግ በ</w>
ጸብጠ ከ</w>
ጸብጠ ነ</w>
ጸብ ረት</w>
ጸበረ ነ</w>
ጸበ ጠው</w>
ጸበ ጠት</w>
ጸም እ</w>
ጸሐ ከ</w>
ጸ ፈት</w>
ጸ ጸ
ጸ በው</w>
ጸ ሖ</w>
ጵ </w>
ጰ </w>
ጭበ ጭ</w>
ጭቀ ጥ</w>
ጭረዋ ሬሕ</w>
ጭ ሮ</w>
ጬ ወ</w>
ጫ ፈር</w>
ጫ ጭ</w>
ጫ ቀ
ጫ ም</w>
ጩ ጩ
ጩ ቅ</w>
ጨፍ ጨ
ጨዋ ሬሕ</w>
ጨ ጨ
ጨ ባ
ጨ በ</w>
ጨ ቀም
ጨ ሪ</w>
ጧ </w>
ጦ ቶም</w>
ጥ ና</w>
ጥ ተ</w>
ጥ ራም</w>
ጥ ል
ጤ ኮ</w>
ጤ ቱ</w>
ጣ ኑ</w>
ጣ ትከ</w>
ጣ ርለ</w>
ጣ ራት</w>
ጣ ሙ</w>
ጢ ጠት</w>
ጢ ስ</w>
ጢ ሮም</w>
ጢ ረ</w>
ጡ ከ</w>
ጠው ሮም</w>
ጠብ ጠ
ጠባ ጠብ</w>
ጠምጥ ሙ</w>
ጠም ጥም</w>
ጠል ቡ</w>
ጠ ጦ</w>
ጠ ክ</w>
ጠ ላ</w>
ጠ ለብ</w>
ጎ ጋይ</w>
ጎ በ</w>
ጎ ሕ</w>
ጎ ሎ</w>
ጎ ሃ</w>
ግራ ፍያይ</w>
ግራ ሀ</w>
ግሩ ም</w>
ግረ ይድ</w>
ግረ ይ</w>
ግ ጥ
ግ ድለ</w>
ግ ዲ
ግ ዱ</w>
ግ ዚ
ግ ዖት</w>
ግ ናሁ</w>
ግ ቦም</w>
ግ በእ</w>
ግ ራት</w>
ግ ምሽ
ግ ማይ</w>
ግ ሙ
ግ ሕ</w>
ግ ልት</w>
ግ ላይ
ግ ሊ</w>
ጌ ድ
ጌ ታት</w>
ጋብ ሄር</w>
ጋብ ሁ</w>
ጋ ደት</w>
ጋ ይስ</w>
ጋ የ</w>
ጋ ዝ
ጋ ዕ
ጋ ንታ
ጋ ቸው</w>
ጋ ባ</w>
ጋ ሻይ
ጋ ማት</w>
ጋ ለል</w>
ጊ ሶ</w>
ጊ ሱ</w>
ጊ ል</w>
ጉ ዛይ</w>
ጉ ኒ</w>
ጉ ነ</w>
ጉ ቬ
ጉ ራም</w>
ጉ ረን</w>
ገን ሐ</w>
ገብአ ኪ</w>
ገር ኪ</w>
ገር ቱ</w>
ገር ብ</w>
ገረ መ</w>
ገላ ብብ</w>
ገ ጊት</w>
ገ ዋ
ገ አ</w>
ገ ታ</w>
ገ ቦ</w>
ገ በት</w>
ገ በረ
ገ ስኮ</w>
ገ ሳ</w>
ገ ሲ
ገ ሰየ</w>
ገ ማል</w>
ገ ሐ</w>
ገ ላ</w>
ገ ለይ</w>
ገ ለበ</w>
ጆ ኦ
ጆ ቱ</w>
ጆ ር</w>
ጅር በት</w>
ጅማ ዐ
ጅ ንሰ
ጅ ቦም</w>
ጅ ሙ</w>
ጅ ለት</w>
ጃ ጀ
ጃ ይት</w>
ጃ ይብ</w>
ጃ ንብ
ጃ ቀ
ጃ ምዓ
ጃ ምዐ
ጃ ሙ</w>
ጃ ል
ጃ ለ</w>
ጁ እ</w>
ጁ ባም</w>
ጀግ ለብ</w>
ጀር መን</w>
ጀራ ዲ
ጀረ በው</w>
ጀም ዐ</w>
ጀም ሁ
ጀ ዲ
ጀ ክ
ጀ አት</w>
ጀ በር
ጀ ሩ</w>
ጀ ማይ
ጀ ማል</w>
ጀ ማል
ጀ መት</w>
ጀ ለ
ዶ ይ</w>
ዶ ክ</w>
ዶ ንየ</w>
ዶ ና</w>
ድግ ት</w>
ድግ ቱ</w>
ድሮ ስ</w>
ድር ከ</w>
ድራ ሰ
ድራ ር</w>
ድረ ይት</w>
ድሕ ድ</w>
ድል ላህ</w>
ድ ፈት</w>
ድ ጎም</w>
ድ ገት</w>
ድ ዶም</w>
ድ የን</w>
ድ የ
ድ ዐ</w>
ድ ንግል</w>
ድ ነት</w>
ድ ብር</w>
ድ መል
ድ ሐ</w>
ድ ልት</w>
ዴ ደ</w>
ዴ ክም</w>
ዴ ርያት</w>
ዴ ረት</w>
ዴ ሀ</w>
ዳፍ ዖ
ዳፍ ዐ</w>
ዳፍ አት</w>
ዳፍ ነ</w>
ዳይ ስ</w>
ዳይ ሬ
ዳው ሩ</w>
ዳ ፌዕ</w>
ዳ ፈ</w>
ዳ ደ</w>
ዳ የን</w>
ዳ ከ
ዳ ኒ</w>
ዳ ትነ</w>
ዳ ብር</w>
ዳ ሪ
ዳ ሚት</w>
ዳ ላ</w>
ዲ ገ</w>
ዲ ና</w>
ዲ ቶም</w>
ዲ ቭ
ዲ ሲ
ዲ ራ</w>
ዲ ም
ዲ ሙ</w>
ዱ ጎ</w>
ዱ ዳም</w>
ዱ ያም</w>
ዱ ረት</w>
ዱ ሕ</w>
ደፍ ዐ</w>
ደፈ ዩ</w>
ደፈ የ</w>
ደጋ ግ</w>
ደንጎ በ
ደን ካል
ደበ አ</w>
ደቅ ቅ</w>
ደቀ ዩ</w>
ደቀ ምሐሬ
ደራ ገግ</w>
ደረ ሳይ</w>
ደም ዑ</w>
ደሀ ይ</w>
ደ ፋርስ</w>
ደ አነ</w>
ደ ናይ</w>
ደ ቦ</w>
ደ ብር
ደ ሬነ</w>
ደ ሞም</w>
ደ መር
ደ መረ
ደ ሐን</w>
ዮ ንስ</w>
ዮ ን
ዮ ቼ</w>
ዮ በ</w>
ዮ ረ</w>
ዮ ምከ</w>
ዮ መ
ዮ ሎጂ</w>
ዮ ሎጂ
ይእ ፈት
ይት ኦም</w>
ይ ው</w>
ይ ክ
ይ አደ
ይ አሰአል
ይ አርኤ
ይ ናቱ</w>
ይ ኒ</w>
ይ ቼ</w>
ይ ቲ
ይ በ</w>
ይ ማ</w>
ይ ሙ</w>
ይ ሐድ
ይ ህለ
ዬ ኪ</w>
ያ ግ</w>
ያ ደ</w>
ያ የር</w>
ያ ትኩም</w>
ያ ሠ
ያ ምከ</w>
ያ ል
ዪ ሁ</w>
ዩ ና
ዩ ቶም</w>
የው ሃንስ</w>
የት ናመ</w>
የ ጠ
የ አትካረ
የ አተ
የ አሰአል
የ አ</w>
የ ታመ</w>
የ ብስ</w>
የ ቂ
የ ሰየ</w>
የ ሞ</w>
የ መን</w>
የ መመ
የ ልል</w>
ዥ ዮን</w>
ዞ ተ</w>
ዝያ ደት</w>
ዝበ ድ</w>
ዝ ይ
ዝ ወ</w>
ዝ ተፈ
ዝ ቡ</w>
ዝ ቁ</w>
ዝ ህ
ዛይ ፍ</w>
ዛበ ዮ</w>
ዛ የረ</w>
ዛ ዖ
ዛ ካ</w>
ዛ እር</w>
ዛ ሕ
ዚ ፈት</w>
ዚ ደ</w>
ዚ ር
ዙ ሙ</w>
ዙ ሉ</w>
ዘከረ ኒ</w>
ዘብ የ</w>
ዘር አት</w>
ዘር አ</w>
ዘር ላንድ
ዘ ገ
ዘ ይት</w>
ዘ ዬ</w>
ዘ ክር</w>
ዘ ትለ</w>
ዘ ቡ
ዘ ቀ</w>
ዘ ማት</w>
ዘ ህ</w>
ዖ ኒ</w>
ዖ ምተ</w>
ዕያ ደት</w>
ዕን ጃረ
ዕን ዋ
ዕን ታት
ዕት ማን
ዕም ሮ</w>
ዕ ዳይ</w>
ዕ ዳይ
ዕ የቱ</w>
ዕ ዋ</w>
ዕ ክ</w>
ዕ ካሁ</w>
ዕ ሽ</w>
ዕ ሱ
ዕ ረግ</w>
ዕ መት</w>
ዕ መር
ዕ ልል</w>
ዕ ላም</w>
ዕ ለነ</w>
ዔ ተ</w>
ዔ ር</w>
ዔ መ</w>
ዔ ላት</w>
ዔ ላ
ዓር ዮም</w>
ዓረ ፈት</w>
ዓረ ፈ</w>
ዓ ጅ
ዓ ዋ
ዓ ቲት</w>
ዓ ራ
ዓ ለም
ዒ ፈት</w>
ዒ ተን</w>
ዒ ሮ</w>
ዒ ሉ</w>
ዑስ ማ
ዑ ተ</w>
ዑ ቅበ
ዐፍ ሽ
ዐጅ በኒ</w>
ዐጀ ቦ</w>
ዐድ ከ</w>
ዐይ ሽ</w>
ዐየ ድ</w>
ዐው ተ</w>
ዐዋ ቴ
ዐዋ ሚ
ዐብ ነ</w>
ዐል ቡ</w>
ዐለ ነ</w>
ዐለ ተ</w>
ዐ ጭሞ
ዐ ገበ
ዐ ደዩ</w>
ዐ ደት</w>
ዐ ደር
ዐ ወድ
ዐ ወተ</w>
ዐ ክ</w>
ዐ ኑ</w>
ዐ ቶ</w>
ዐ ቱመ</w>
ዐ ቦት</w>
ዐ ሾ
ዐ ሺ
ዐ ሸ</w>
ዐ ሲ
ዐ ማይ
ዐ ለን
ዎሮ ቶም</w>
ውዕ ለን</w>
ውላ ዱ</w>
ው ጡ
ው ጅ</w>
ው ዱ</w>
ው ደት</w>
ው ያይ</w>
ው ያ
ው ወ</w>
ው ናይ</w>
ው ናት</w>
ው ት
ው ርቱ</w>
ው ራት</w>
ው ራቅ
ው ሐ</w>
ው ልደ
ው ህ
ዌ ድ
ዌ ን</w>
ዌ ተ</w>
ዋይ ኖ</w>
ዋር ስ</w>
ዋልዴ ን</w>
ዋል ፍ</w>
ዋል ዳ
ዋ ጨ
ዋ ትመ</w>
ዋ ላ</w>
ዊ ሽ</w>
ዊ ሆም</w>
ዉ ግ</w>
ዉ ስ</w>
ዉ ሮ</w>
ዉ ሕ
ዉ ሉ</w>
ወፍ ድብ
ወፍ ራ
ወፈ ዓል
ወፈ ቴ
ወጸ ንሐ
ወግ ዋሬ
ወግ ም
ወጅ ቡ</w>
ወጅ በ</w>
ወጅ ር
ወጅ ማ
ወጀ በ
ወጀ ሪ
ወዴ ኒ</w>
ወዴ ት</w>
ወደረ ጀ
ወደ ጋ
ወደ በ
ወዘ ፍ</w>
ወዘ ት</w>
ወዕ ስ
ወዕ ምቦ
ወዔ ጻ
ወዓ ኢ
ወዐ ጭ
ወዐ ሳ
ወዌ ስት
ወክ ፋ
ወክ ደ</w>
ወክ ቱ
ወክ ስታ
ወኬ ድ
ወካ ፒ
ወካ ሜ
ወከ ሳ
ወእን ሸ
ወእ ግል</w>
ወእ ዘ
ወእ ስላ
ወእ ህ
ወኤ ማን
ወኣ ብ
ወኢ ገብ
ወኢ ታ
ወኢ ቀደር
ወኢ ር
ወኢ ለዐ
ወአግ ሩ
ወአድ መ
ወአት ናየ
ወአት መቃ
ወአስ ተሀ
ወአስ ራ
ወአል ሐም
ወአ ደቀ
ወአ ነ
ወአ ታ
ወአ በር
ወአ ቅሩ
ወአ ሰር
ወአ ለም
ወን ክ
ወን ብ
ወኒ ው
ወነ ዳ
ወነ ዋቅ
ወነ ን</w>
ወነ ሻ
ወት ጣ
ወት ጠ
ወት ከበት
ወት አ
ወት ን
ወት ትደ
ወት ትሳ
ወት ሽ
ወት ላ
ወተአ ስ
ወተአ ሰ
ወተ ፋ
ወተ አትፋ
ወብ ራይ
ወብ ል
ወበ ጽሐ
ወበ ጣ
ወበ ክ
ወበ ስ
ወቅ ረ
ወሸ ፋ
ወሸ ው
ወሸ ርሐ
ወስም ዒ
ወሰ ካ
ወሰ ከየ</w>
ወሰ ንደ
ወር ዕ
ወር ቱ</w>
ወራ ድ
ወረ ድ
ወረ ዪ
ወረ አይ
ወም ድ
ወም ደርሲ
ወም ልህ
ወሙ ስተ
ወመዕ ነው
ወመዐ ነው
ወመና በረ
ወመት ፋግ
ወመሻ ቂ
ወመሻ ረከ
ወመ ዳፍ
ወመ ዛ
ወመ እ
ወመ ኣ
ወመ አይ
ወመ ንተ
ወመ ተል
ወመ ማ
ወሕ ማ
ወሐ ፋ
ወሐ ዘ
ወሐ ሽ
ወሐ ሩ
ወሐ ረስ
ወልት መ
ወለአት ባ
ወለአት ሳጅ
ወለት ሳ
ወለ ጻ
ወለ ዴ
ወለ ዩ</w>
ወለ ዝ
ወለ ዜ
ወለ ዔ
ወለ ከል
ወለ ኢትት
ወለ ንት
ወለ ነሐ
ወለ ተሓ
ወለ ተሀየ
ወለ ቃ
ወለ ሶ
ወለ ሰብ
ወለ መዳ
ወለ መሳ
ወለ ለሓ
ወለ ሀር
ወህ ግ
ወሀ ዳ
ወሀ ለዮ
ወ ጨፍ
ወ ገ</w>
ወ ዳገ
ወ የት</w>
ወ ዘ</w>
ወ ዓት</w>
ወ ኮ</w>
ወ ክምሰል
ወ ካፍ
ወ ተን</w>
ወ ብርሃ
ወ በ</w>
ወ ሺ</w>
ወ ሮም</w>
ወ ሪት</w>
ወ ም</w>
ወ ሃ</w>
ወ ሂጋ
ኽ ረ
ኸ ል
ኳ ን</w>
ኮን ቲ
ኮምፕ ዩ
ኮ ኬ</w>
ኮ ታ</w>
ኮ ሽ
ኮ ሚኒ
ኮ ሎ</w>
ኮ ላተ</w>
ኮ ሊ
ክታ ብ</w>
ክስ ቴ
ክስ ስ</w>
ክረ ቶም</w>
ክል የት</w>
ክል ስ</w>
ክ ጥ
ክ ጠ
ክ ዱ</w>
ክ ዱ
ክ ይ
ክ የን</w>
ክ ዕ</w>
ክ ዎ
ክ ኽ
ክ ከል
ክ እነ
ክ እ</w>
ክ አ</w>
ክ ንመ</w>
ክ ናኒ</w>
ክ ትም
ክ ቲ
ክ ብረ
ክ ሸ
ክ ስታን</w>
ክ ማ</w>
ኬ ተት</w>
ኬ ማ</w>
ኬ ሎ</w>
ኬ ልል</w>
ካፍ ሉ</w>
ካየ ድ
ካር ጅ</w>
ካር የ</w>
ካር ቶ
ካል ኣይት</w>
ካ ጥ
ካ ድም</w>
ካ ኑ</w>
ካ ትለ</w>
ካ ቴ
ካ ባ
ካ ሰ</w>
ካ ሮም</w>
ካ ላ</w>
ካ ሁመ</w>
ኪሎ ሜ
ኪ ዶ</w>
ኪ ያ
ኪ ሚ
ኪ ሉ</w>
ኩም ኒ</w>
ኩ ኒቱ</w>
ኩ ማት</w>
ኩ ሎም</w>
ኩ ልያ
ኩ ሀን</w>
ከፍ እ</w>
ከት ቦ</w>
ከት በት</w>
ከተ ለ</w>
ከበ ዉ</w>
ከበ ከ</w>
ከሸ ው</w>
ከስ ክስ</w>
ከሰ እ</w>
ከር ቱ</w>
ከሬ ኒ</w>
ከሬ ቱ</w>
ከራ ዕ</w>
ከረ ዉ</w>
ከረ ን
ከም ዝ
ከም ለ</w>
ከሐ ደ</w>
ከል ከል</w>
ከል ከ
ከለ ሕ
ከ ጌ
ከ ዶ
ከ ድም</w>
ከ ዮ</w>
ከ ዐ</w>
ከ ወለ
ከ እግል
ከ ኢ
ከ አግ
ከ አዝ
ከ አተ
ከ ንፈ
ከ ኔ
ከ ትቀ
ከ ተት</w>
ከ ሳም
ከ ራት</w>
ከ ማ</w>
ከ ለኢ
ከ ለተ
ከ ሆ
ከ ሄ
ኦ ክስ
ኦ ልትራ
እግል ሚ
እጅ ራ
እድ ንየ</w>
እድ ሩ
እዳ ረት</w>
እን ጃ
እን ድር
እን ከፍ
እን ቲ</w>
እን ቱ</w>
እን ቆ
እት ጁ
እት ኑ
እት ቃ
እት ስ
እብራ ሂም</w>
እብ ሃ
እቅ ሩ
እቅ ማ
እስትራ ቲ
እስ ትፍ
እስ ለ</w>
እም ጸአ
እም ን</w>
እሕ ትራ
እ ጸ
እ ጨ
እ ጌ
እ ዋ</w>
እ አም
እ ቴ
እ በት
እ በል
እ ሾ
እ ሰ</w>
እ ርእ
እ ሚ
እ ለት</w>
ኤረ ትረ
ኤ ፍ</w>
ኤ ይ
ኤ ውሮ
ኤ ች</w>
ኤ ተነ</w>
ኤ ቨ
ኣክ ረ</w>
ኣስ ሮ</w>
ኣም ን</w>
ኣመር ከ</w>
ኣመ ሮ
ኣ ጥ
ኣ የ</w>
ኣ ዝም</w>
ኣ ክ</w>
ኣ ኪ</w>
ኣ ንፍ
ኣ ብራ
ኣ ቕ
ኣ ሽ</w>
ኣ ስ</w>
ኣ ሜ
ኣ ላ</w>
ኢፋ ሉ</w>
ኢፈ ቴ
ኢደ ንገ
ኢይ ትስ
ኢንዶ ኔ
ኢንት ሐ
ኢነ ስእ
ኢትት ና
ኢት ጠዐ
ኢት ክረ
ኢት ከስ
ኢት ከል
ኢት አከ
ኢት ንከ
ኢት በል
ኢት ቀይ
ኢት ቀዋ
ኢት ላ
ኢተአ ስተ
ኢረ ኪ
ኢመት ዐዋ
ኢመት ሐ
ኢልት ጀ
ኢልት ላ
ኢል ተ
ኢል ብለ
ኢል ባ
ኢለአት ሐዜ
ኢለአ ፍ
ኢለአ ተ
ኢለአ ቅ
ኢ ፈርሀ
ኢ ገብእ</w>
ኢ ዐለ
ኢ ኮኒ</w>
ኢ ከፈ
ኢ አፍ
ኢ አተ
ኢ አስ
ኢ ንደ
ኢ በጽ
ኢ ቅድረ
ኢ ሻረ
ኢ ሰአ
ኢ ርክ
ኢ መፋሀ
ኢ ለደ
ኢ ለብ
ኢ ለቅ
ኢ ህሌ
ኡ ኪ</w>
ኡ ት</w>
ኡ ሽ</w>
ኡ ሻይ</w>
ኡ ሙ
ኡ ልየት</w>
ኡ ለ</w>
አፍረ ሀ
አፍ ግረ
አፍ ዝ
አፍ ቀደ
አፍ ለሐ
አጭ በ
አጥ መ
አጣ ቅ
አግ ዳ
አጅ ሀ
አድ ም</w>
አድ ም
አድ ሄ
አዝ በ
አው ቶም</w>
አክ የ</w>
አክ ዑ
አክ በር
አከ ደው</w>
አከ ኒ</w>
አንተ በሀ
አንቀ ዕረ
አን ፎ
አን ዝ
አን ቃ
አን ሳት</w>
አትዋ ረ
አትቃ ረ
አትሐ ጨ
አትሐ ዜ
አት ካ</w>
አት ኩም</w>
አት ከበ
አት ኣም
አት አመር
አት አ
አት ባር
አት ሻፈ
አት ር
አት ሄ
አት ሃድ
አታ ቴ</w>
አተግ ነ
አተ ቅረ
አተ ምበ
አብረ ሃ
አብ ዩ</w>
አብ የ</w>
አብ ዐ
አብ ሐሪሽ
አብ ል</w>
አቅ ን
አቅ ብ
አቅ ሕ
አሽ ከለ
አስተሽ ህድ</w>
አስተ ፌ
አስ ስ</w>
አስ ማይ
አሰ ስ</w>
አሰ ሰ</w>
አሰ ረ
አርእ የ</w>
አር ድ</w>
አር ዋ
አር ወሕ
አር ክ
አር ብዒ
አር ሀ
አረ ፋይ
አም ዕል
አም ዓይ
አም ኖ</w>
አም ሴ
አማ ር</w>
አመ ሽ
አል ጅ
አል ኩ
አል አሕ
አል መደ
አ የት</w>
አ ዘር
አ ዌ
አ ኸ
አ ከብ
አ ንት
አ ቶ</w>
አ ቁ
አ ሸ</w>
አ ሬ</w>
አ ረበ
አ ሣ
ኖ ፍ</w>
ኖ ነ</w>
ኖ ምቱ</w>
ኖ ምመ</w>
ንፋ ስ</w>
ንጠ ዋጥል</w>
ንግ ን</w>
ንግ ሮ</w>
ንግ ረ</w>
ንግ ሎ</w>
ንገ ፍ</w>
ንዳ ይት</w>
ንዳ ል
ንዲ ኖ</w>
ንደ ሰት</w>
ንዮ ል</w>
ንከ ኒ</w>
ንከ ተ</w>
ንብ ለት</w>
ንቅ ስ</w>
ንቃ ቅ</w>
ንስ ል</w>
ን ጨ</w>
ን ጉ</w>
ን ዮት</w>
ን ዬ
ን ወር
ን ክረ
ን እተ
ን ንስ
ን ኒ</w>
ን ነ
ን በርግ</w>
ን ሻ
ን ሶ</w>
ን ሴ</w>
ን መር
ን ሐት</w>
ን ል
ን ላ</w>
ን ሆም</w>
ን ህ</w>
ኔ ስ</w>
ኔ ስ
ናድ ፍ</w>
ናይ ኩም</w>
ናቅ ፍ</w>
ና ፍ</w>
ና ጽ
ና ዮ</w>
ና ዙ
ና ው</w>
ና ኒት</w>
ና ትን</w>
ና ትቱ</w>
ና ቄ</w>
ና ሃመ</w>
ኒ ካ</w>
ኒ ታ</w>
ኒ በ
ኒ ቅ</w>
ኒ ር</w>
ኒ ሀን</w>
ኑ ፍ</w>
ኑ ዱ</w>
ኑ ያት</w>
ነፈ ዖ</w>
ነድ እ</w>
ነዘ ሞ</w>
ነው ከ</w>
ነአት ባ
ነአተ ላል
ነአ ይ
ነት ና</w>
ነብ ዕ</w>
ነብ እ</w>
ነቅ ሱ</w>
ነስ ኣ
ነስ ት</w>
ነሰ እ
ነ ግ</w>
ነ ገ</w>
ነ ጄ
ነ ድር</w>
ነ ደቅ
ነ የት</w>
ነ ዖ</w>
ነ ዐቅ
ነ ዌ
ነ ዋቅ
ነ አስእ
ነ ቱ
ነ ቪ
ነ ቂ
ነ ሳ</w>
ነ ርስ</w>
ነ ሩ</w>
ነ መ
ነ ሃ</w>
ቾ </w>
ች ያ</w>
ች ን</w>
ች ት</w>
ች ም</w>
ቼ ስተር</w>
ቻ ይነ</w>
ቺ ኒ</w>
ቸ ን</w>
ቶ ፕ</w>
ቶ ነ</w>
ቶ በ</w>
ቶ ምን</w>
ትፋ ኔ
ትፋ ነ
ትጠ ብ
ትግ በእ
ትገ ንገ
ትገ ሴ
ትደ ንገ
ትዕ ቀ
ትዐ ጅብ</w>
ትዋ ሰ
ትወለ ብ
ትከ ሰ
ትከ ርከ
ትንሳ ኤ</w>
ትነ ፈዐ
ትነ ቅ
ትት ዋሰ
ትት ተ</w>
ትት ብ
ትት ሄ
ትበ ሰ
ትቅ ረ
ትቀ ራ
ትሻ በ
ትሸ ት</w>
ትሳ ዕ
ትሳ ር
ትሰ መ
ትሰ ላ
ትር ኤ
ትራንስ ሚ
ትረ ግ
ትረ ይሐ
ትረ የ
ትረ ኤ</w>
ትማ ቱ</w>
ትመ ጸአ
ትመ ው
ትመ ሐ
ት ጻበ
ት ጠር
ት ድገ
ት ድብ
ት ድሕ
ት ዪን</w>
ት ዖ</w>
ት ወጠ
ት ኩ</w>
ት ንፍ
ት ንከ
ት ንበ
ት ቶ
ት ታት</w>
ት ተዐ
ት ተን</w>
ት ተላሌ
ት ቦ</w>
ት ቢ
ት ሶ</w>
ት ማር
ት ሙ</w>
ት ሒ
ቴ ም</w>
ቴ ሎ</w>
ቴ ሀ</w>
ታብ ዖ</w>
ታ ኪ
ታ ኡ</w>
ታ ትቼ</w>
ታ ቅ
ታ ሮ</w>
ታ ሩ</w>
ታ ሓ
ታ ላ</w>
ታ ሊ</w>
ቲራ ቮ
ቲ ዮ</w>
ቲ ቼ</w>
ቲ ቦ
ቲ በል</w>
ቲ ሽ</w>
ቱ ወ</w>
ቱ ኒ
ተፍ ል</w>
ተጅ ርበ
ተጅ ር
ተዓ ር
ተዐ ዳ
ተው ቡ</w>
ተክ ነ</w>
ተክ ሬ</w>
ተአት ዕ
ተአት ሐዜ</w>
ተአት ሃ
ተአ ፈር
ተአ ጨ
ተአ ታ
ተአ ተብ
ተአ ቀብ
ተአ ቀም
ተአ </w>
ተን ተ</w>
ተብ ኮ</w>
ተብ ኔ</w>
ተበ ተ</w>
ተሽ ኪ
ተርጅ መ</w>
ተር ፈ</w>
ተር ሕ</w>
ተምት ሙ</w>
ተም ሳ
ተም ሞ</w>
ተሕ ሊ
ተሓ ን</w>
ተሐ ደረ
ተሐ ውረ
ተሐ ንፈ
ተሐ ራ
ተል የ</w>
ተል መ</w>
ተላ ሉ</w>
ተለ ዮም</w>
ተ ይን</w>
ተ ዝ</w>
ተ ዎም</w>
ተ ዉ
ተ ኩ</w>
ተ ከበ
ተ ትመ</w>
ተ ትሓ
ተ ቦ</w>
ተ ሸ</w>
ተ ሰር
ተ ሬ</w>
ተ ሪት</w>
ተ ረው</w>
ተ ረክ
ተ መው</w>
ቬ ስ</w>
ቫ ላ
ቪ ዥን</w>
ቪ ን
ቪ ላ
ቦር ኔ
ቦ ኒ</w>
ቦ ታትነ</w>
ቦ ታቱ</w>
ቦ ስ
ቦ ርድ</w>
ቦ ል
ቦ ሀ</w>
ብድ ሆ
ብዕ ዬ</w>
ብዕ ዎም</w>
ብርከ ኽን</w>
ብር ጣን
ብር ድ</w>
ብረ ድ</w>
ብረ ኪ</w>
ብረ ኩም</w>
ብረ ብ</w>
ብሕ ት</w>
ብል ዖ</w>
ብላ ሂ</w>
ብህ ጅ</w>
ብህ ላም
ብ ጣይ</w>
ብ ዶ</w>
ብ ዳ</w>
ብ ዜ
ብ ዛ
ብ ዓይ
ብ ዒ</w>
ብ ካይ
ብ ተን</w>
ብ ሶ</w>
ብ ሓ
ብ ልት</w>
ብ ላት</w>
ብ ሄ
ቤለ ኪ</w>
ቤ ዕከ</w>
ቤ ክ
ቤ ኒ
ቤ ቼ</w>
ቤ ቶ</w>
ቤ ርየ</w>
ቤ ሎም</w>
ቤ ለው</w>
ባይ ኪ</w>
ባይ ነ</w>
ባን ደ</w>
ባር ንቶ</w>
ባል ኩ</w>
ባ ጽሕ
ባ ያ</w>
ባ ኽ</w>
ባ ኪ</w>
ባ ናይ</w>
ባ ትካ
ባ ሃ
ቢ ኖም</w>
ቢ ች</w>
ቢ ታት</w>
ቢ ታ</w>
ቡ ደ</w>
ቡ ዑ</w>
ቡ ሩ
ቡ ረን</w>
ቡ ሎም</w>
ቡ ል
ቡ ላም</w>
ቡ ሊ</w>
በጥ ኮ</w>
በገ ሰት</w>
በድ ዩ</w>
በዝ ሖ</w>
በዐ ን</w>
በት ና</w>
በተ ዩ</w>
በተ ቱ</w>
በርና መጅ
በር እ</w>
በር ን
በር ሀት</w>
በራ ስ</w>
በለ ዮም</w>
በህ ርር</w>
በህ ለት
በ ጩ
በ ጉ
በ ጀ
በ ዬ</w>
በ ያ
በ ዖ</w>
በ ዐው</w>
በ ውነ</w>
በ ብኮ</w>
በ ባ</w>
በ ሻ
በ ሬነ</w>
በ ራቱ</w>
በ ሠ
በ መ
በ ሐ</w>
በ ሊት</w>
ቋ ን
ቆ ል</w>
ቆ ል
ቅድ ረ</w>
ቅን ጸ
ቅበ ለት</w>
ቅር ድ</w>
ቅር ት</w>
ቅ ፍ
ቅ ያ</w>
ቅ ዉ
ቅ ኒ</w>
ቅ ብት</w>
ቅ በል</w>
ቅ ሽ
ቅ ሻ
ቅ ሱ
ቄ ቡ</w>
ቄ መ</w>
ቃወ መ</w>
ቃል ዕ</w>
ቃ ፍ
ቃ ው</w>
ቃ እ</w>
ቃ ትነ</w>
ቃ ራ</w>
ቃ ሪ
ቃ ላ</w>
ቃ ሊም</w>
ቂ ቃት</w>
ቁ ቦም</w>
ቁ ሉ</w>
ቀጥ ቀ
ቀድ ሞ</w>
ቀደ መየ</w>
ቀየ ረት</w>
ቀየ ሕ</w>
ቀን ኮ</w>
ቀብ ቡ</w>
ቀር ደ
ቀረ ረ</w>
ቀል ዕ</w>
ቀ ፈ
ቀ ጢ
ቀ ወሺ
ቀ ኒ
ቀ ቱ
ቀ ብር</w>
ቀ ባይ
ቀ ሽ
ቀ ምተ</w>
ቀ ሎት</w>
ቀ ለየ</w>
ሽፈ ግ</w>
ሽር ሑ</w>
ሽ ዒ
ሽ ዋ
ሽ ንገ
ሽ ቱ
ሽ ቅ</w>
ሽ ሮም</w>
ሽ ርከ</w>
ሽ ርሐ
ሼ ክ
ሼ ከ</w>
ሼ ቱ</w>
ሼ ቤ</w>
ሼ ቅ
ሻ ፈት</w>
ሻ ውል</w>
ሻ ው</w>
ሻ ተ</w>
ሻ ለ</w>
ሻ ሁ</w>
ሺ ታት</w>
ሺ ቪ
ሹ ድ</w>
ሹ ት</w>
ሹ ሩ</w>
ሸን ሁ</w>
ሸነ ከ</w>
ሸቄ ኒ</w>
ሸረ ፍ</w>
ሸም ል</w>
ሸ ፋግ
ሸ ገ</w>
ሸ ይት</w>
ሸ ዓ
ሸ ኪ
ሸ ነት</w>
ሸ ትፈ
ሸ ቅ</w>
ሸ ቁ</w>
ሸ ስ</w>
ሸ ሩ</w>
ሸ ሕ
ሸ ሀር
ሶ ዳን</w>
ሶ ሱ</w>
ሶ ሰ</w>
ሶ ምየ</w>
ሶ ሎ
ስዮ ኔ</w>
ስእ ት</w>
ስቶ ትል</w>
ስትህ ሎ</w>
ስት ያን</w>
ስት ራ</w>
ስቴ ር</w>
ስታ ን
ስታ ህል</w>
ስቱ ር</w>
ስተ ዩ</w>
ስም ዑ</w>
ስም ር</w>
ስል ኪ</w>
ስ ፎ
ስ ጳ
ስ ዐ</w>
ስ ኤ
ስ ኔ
ስ ብእ
ስ ሶም</w>
ስ ሎም</w>
ስ ሎ
ሴ ድያ
ሴ ክ
ሳድ ፍ</w>
ሳድ ሮ</w>
ሳይ ክሎ
ሳይ ተ</w>
ሳን ደር
ሳስ ዔ</w>
ሳር ዮ</w>
ሳር የ</w>
ሳ ው</w>
ሳ ነት</w>
ሳ ትለ</w>
ሳ ባ</w>
ሳ ቀ
ሳ ሳት</w>
ሳ ሰት</w>
ሳ ማ</w>
ሳ ማ
ሳ ልፈ
ሲ ግ
ሲ እ</w>
ሲ ንጋ
ሱ ድፍ
ሱ ክ</w>
ሱ ት</w>
ሰፋ ለል</w>
ሰጀ ለ</w>
ሰድ ዮም</w>
ሰድ ዩ</w>
ሰይ ፍ</w>
ሰዐ የ</w>
ሰዐ ሮ</w>
ሰዐ ም
ሰው ረት
ሰአ ከ</w>
ሰአ ለከ</w>
ሰን ት</w>
ሰን ቄ</w>
ሰነ ዐ</w>
ሰብ ቱ</w>
ሰበ ትለ</w>
ሰርገ ዩ</w>
ሰር ኩም</w>
ሰረ ቅ</w>
ሰረ ረተ</w>
ሰም ም</w>
ሰሜ ሕ</w>
ሰመዐ ከ</w>
ሰሕ ፊ</w>
ሰሓ ቅ</w>
ሰል ፋይ</w>
ሰል ፋ
ሰል ቱ</w>
ሰል ብ</w>
ሰላ ም
ሰላ ሕ
ሰለ ብ</w>
ሰ ፊር</w>
ሰ ጁ
ሰ ድያ
ሰ ዮት</w>
ሰ ዓይ</w>
ሰ ዐት</w>
ሰ ዎም</w>
ሰ ኮ</w>
ሰ ክረ
ሰ ኩ
ሰ ከን
ሰ ንበ
ሰ ትረ
ሰ ቲ</w>
ሰ ተት
ሰ ባቱ</w>
ሰ ሮ
ሰ ሞ
ሰ ሐት</w>
ሮ ናል
ሮ ሻ
ርያ ታት</w>
ርከ ከ</w>
ርከ ቦም</w>
ርኤ ኩም</w>
ርኤ መ</w>
ርበ ይት</w>
ርበ ዓ</w>
ርበ በው</w>
ርሐ ዉ</w>
ር ፎ
ር ፈ</w>
ር ዛ
ር ው</w>
ር ወ</w>
ር ክም</w>
ር ናሀ</w>
ር ሶም</w>
ር ሞ</w>
ር መ
ሬ ድዮ
ሬ ድ</w>
ሬ ናሁ</w>
ሬ ሪ</w>
ሬ ረት</w>
ሬ ረ</w>
ራይ ጥ</w>
ራክ ቡ</w>
ራክ በ</w>
ራቅ ቦም</w>
ራቅ በ</w>
ራ ድዮ
ራ ው</w>
ራ ቴ
ራ ቤ</w>
ራ በብ</w>
ራ ሳ</w>
ራ ሰት</w>
ራ ሪብ</w>
ራ ማ
ሪ ኢ
ሪ ታ</w>
ሪ ሬ</w>
ሩ ጽ</w>
ሩ ገ</w>
ሩ ና</w>
ሩ ሪ</w>
ረፍ ዖ</w>
ረፈ ዕ
ረድ ዩ</w>
ረድ እ</w>
ረዘ ቆት</w>
ረው የ</w>
ረከ ዩ</w>
ረአ ዉ</w>
ረአ ስ</w>
ረት ካ</w>
ረት ና</w>
ረት ብ</w>
ረብ ዕ</w>
ረብ ናሁ</w>
ረብ ሕ</w>
ረበ ኒ</w>
ረሐ ር</w>
ረ ፉ</w>
ረ ያ
ረ ወሪ
ረ ኮት</w>
ረ ካቱ</w>
ረ ኪ</w>
ረ ኩ
ረ ንቲ
ረ ቱመ</w>
ረ ቤ</w>
ረ ቃ
ረ ቂ
ረ ሱ</w>
ረ ሚ
ረ ሃ
ሥ ሠ
ሡ </w>
ሞ ድ</w>
ሞ ደ</w>
ሞ ዝ</w>
ሞ ከ</w>
ሞ ንዲ</w>
ሞ ንት
ሞ ተን</w>
ሞ ሮ
ሞ ረ</w>
ሞ ሎ
ሞ ለድ</w>
ምጅ ተመ
ምድ ት</w>
ምደር ሲ
ምን እ
ምበ ሰ</w>
ምሳ ል</w>
ምሰ ውር</w>
ምር ተ</w>
ምም ያ
ምህ ዝ</w>
ምህ ነት</w>
ም ፅ
ም ጀ
ም ዓት</w>
ም ዓም</w>
ም ዋጥ
ም ክላ
ም ኤም
ም ትሐ
ም ባ</w>
ም ቀት</w>
ም ሸ
ም ርት</w>
ም ራቅ
ም ምቱ</w>
ሜር ሓይ
ሜር ሒ
ሜ ድ</w>
ሜ ንት</w>
ሜ ን
ሜ ራ</w>
ሜ ለ</w>
ማስ ሉ</w>
ማር ቲ
ማር ሴ
ማሕ ም</w>
ማ ጅ
ማ ከ</w>
ማ ና
ማ ኑ</w>
ማ ትሪ
ማ ቴ
ማ ታ
ማ ሰል</w>
ማ ሓ
ማ ላ</w>
ማ ሀን</w>
ሚ ዱ</w>
ሚ የት</w>
ሚ ዛ
ሚ ንግ</w>
ሚ ንግ
ሚ ች</w>
ሚ ስ
ሙጅ ተመዕ
ሙ ጀርሒ
ሙ ዶም</w>
ሙ ኖ</w>
ሙ ና</w>
ሙ ኑ</w>
ሙ ሰ</w>
መጽ ዕ
መጽ ኤ
መጽ ኡ
መጸ ኦ</w>
መጸ እ
መጥ ጥ</w>
መጥ መጦ
መድ ሐ
መዝ ን</w>
መዕ ከ</w>
መዓ ር
መዐ ኩም</w>
መው ዱ
መው መ</w>
መዋ ድ
መዋ ዒ
መክ ሐዳ
መንደ ፈረ
መንቀ ሽ</w>
መን ጥ
መን ነ</w>
መን ቱ</w>
መን ሸ
መና ፍዕት</w>
መትኣ ማር</w>
መት ገራ
መት ድ
መት ደው
መት ዛብ
መት ወቃ
መት ንዕ
መት ኒ</w>
መት ነክ
መት ብ
መት ቃው
መት ሰባ
መት መሳ
መት መራ
መተርጅ ማይ</w>
መተ ዩ</w>
መቅ ነ</w>
መቅ ሰ
መሻ ክል
መስኡ ልየት</w>
መስኡ ልየ
መስኡ ሊ
መስኡ ለት</w>
መስ ተን
መስ ሕ
መሳ ክብ
መሳ ር
መሰ ደ
መሰ ለ</w>
መርሐ ለት</w>
መር ባ
መር ሐ</w>
መራ ክ
መራ ቱ</w>
መሕ ፈ
መሐ ደ
መሐ በር
መሐ ሽ
መሐ ምድ
መል አ</w>
መል ቱ</w>
መል ህየ
መለ ወ</w>
መ ጀ</w>
መ የት</w>
መ ዛብ
መ ዓት</w>
መ ኻ
መ ካቱ</w>
መ ከደ
መ ከም
መ እሰ
መ አዘ
መ አም
መ ነሐ
መ ች</w>
መ ቶት</w>
መ ታት</w>
መ ተብ
መ ተቅ
መ ተረ
መ ቋ
መ ቆ</w>
መ ቁ</w>
መ ሰት</w>
መ ሬሕ</w>
መ ሙ
መ መቱ</w>
መ መቅረ
መ ሎም</w>
መ ሌ</w>
መ ሊት</w>
መ ሊ</w>
ሖ ምቱ</w>
ሕድ ጎ
ሕኩ መት</w>
ሕሩ ይ</w>
ሕ ድገ
ሕ ዱ</w>
ሕ ዩ
ሕ ዝ</w>
ሕ ዜ</w>
ሕ ከ
ሕ ንከ
ሕ ቲ</w>
ሕ ብር</w>
ሕ ስር
ሕ ሱ</w>
ሕ ሪ
ሕ ሌ</w>
ሕ ሉ</w>
ሔ ጌ</w>
ሓፍ ን</w>
ሓል ፎም</w>
ሓል ፋ</w>
ሓል ዩ</w>
ሓ ጺ
ሓ ጀ
ሓ ደ
ሓ ው</w>
ሓ ትለ</w>
ሓ በሮ
ሓ ቀ
ሓ ሰ
ሓ ራ
ሓ ረ</w>
ሒ ናሁ</w>
ሒ መት</w>
ሑ ና</w>
ሑ ሩ
ሑ ሁ</w>
ሐድ ዱ</w>
ሐያ ት
ሐዝ የን</w>
ሐዜ ት</w>
ሐበ ዐ</w>
ሐቀ ፍ
ሐሸ ም</w>
ሐሸ መ</w>
ሐስ ቦ</w>
ሐር ሱ</w>
ሐረ ኮ</w>
ሐረ ሰ</w>
ሐል ፎ</w>
ሐል ከ</w>
ሐ ጪር</w>
ሐ ጨ
ሐ ጥ
ሐ ጠ</w>
ሐ ገ</w>
ሐ ጂ
ሐ ቃ</w>
ሐ ሸም
ሐ ሶ</w>
ሐ ሱ</w>
ሐ ሰት</w>
ሐ ለፈ
ሎ ንግ
ሎ ና</w>
ሎ ታ</w>
ሎ ቡ</w>
ሎ ሎ</w>
ሎ ሆም</w>
ሎ ሀን</w>
ልፍ ተ
ልዮ ስ</w>
ልያ ሙ</w>
ልዕ ጀ
ልክ የ</w>
ልክ ት</w>
ልክ ብ</w>
ልከ ፈ</w>
ልከ ነ</w>
ልከ ቱ</w>
ልእ ከ
ልትበ ዳ
ልትበ ሃ
ልት ፍ
ልት ፈራ
ልት ገረ
ልት ወቀ
ልት ወሐ
ልት ኬ
ልት ተ</w>
ልት ሰርገ
ልት ም
ልት መደ
ልት መረ
ልት መህ
ልት ሃጀ
ልት ሀደ
ልት ሀመ
ልብ ዬ</w>
ልብ ከ</w>
ልብ ብ</w>
ልብ በ</w>
ልብ ስ</w>
ልብ መ</w>
ልብ ለ</w>
ልበ በ</w>
ልበ ሰ</w>
ልቅ ት</w>
ልቅ በ
ልስ ደ
ልሳ ይት</w>
ልር ድ
ልም ተ</w>
ልም ለ</w>
ልሕ ጀ
ልሕ ዘ
ልሕ ም</w>
ል ፍር
ል ጋን
ል ደገ
ል ይ
ል ዝበ
ል ዛብ
ል ዔ</w>
ል ዋል
ል ወ
ል እን
ል ተሐ
ል ባ</w>
ል ሸን
ል ሸር
ል ሰር
ል ሐም
ል ሎም</w>
ል ሃ
ል ሀት</w>
ሌ ጣ
ሌ ዬ</w>
ሌ ው</w>
ሌ ክ
ሌ ን
ሌ ትሐ
ላ ጅ</w>
ላ ዝ
ላ ኢ
ላ ኑ</w>
ላ ቶ
ላ ትኩም</w>
ላ ቲ
ላ ብብ</w>
ላ ባት</w>
ላ ስ
ላ ለፍ</w>
ሊ ያ</w>
ሊ ቶ
ሊ ቦ
ሊ ሽ</w>
ሊ ሰ</w>
ሊ ሕ</w>
ሉ ው</w>
ሉ ኩ
ሉ ቦም</w>
ሉ ሎ</w>
ሉ ላም</w>
ሉ ላ</w>
ለፍ ንጌ
ለፍ ን
ለፈ ህ
ለፈ ሀም
ለጸ ነሕ
ለጸ ነ
ለጸ ም
ለጥ ከ</w>
ለገብ አት</w>
ለገ ቢ
ለገ ም</w>
ለገ ም
ለጅ ር
ለጀ ሪ
ለዘ ከር
ለዘ ም
ለዓ ው
ለዐ ዙ
ለዐ ንበ
ለዐ ን
ለዐ ሽ
ለዐ ሳ
ለዐ ረ
ለዐ ለው
ለው ሌ</w>
ለዋ ድ
ለዋ ት</w>
ለዋ ሌ
ለወ ቀ</w>
ለኮ ፕ
ለክ ፉ</w>
ለከ ው</w>
ለከ ል</w>
ለእን ሰም
ለእም ትሓ
ለእ ግል</w>
ለእ ነ
ለእ ሕሳ
ለኣ ቱ</w>
ለኢልት ባ
ለኢ ፈር
ለኢ ነአም
ለኢ ታ
ለኢ ተም
ለኢ ተሓ
ለኢ ሳ
ለኢ ልፍ
ለኢ ለአተ
ለኢ ለሓ
ለአፍ ሸ
ለአጥ ፈ
ለአግ ቡ
ለአው ሀ
ለአከ ጅ
ለአትሐ ዜ</w>
ለአት ገስ
ለአት ዓ
ለአት ዐግ
ለአት ቃር
ለአት ስሕ
ለአት ረፈ
ለአት መሳ
ለአት ሀም
ለአተ ና
ለአተ ቃ
ለአቅ ረበ
ለአ ጄ
ለአ ኮ</w>
ለአ ክስ
ለአ ከድ
ለአ ከም
ለአ ቶ
ለአ ተአ
ለአ ሰን
ለአ መን
ለአ ለም
ለን ዋ
ለነ ሐ
ለትሐ ባ
ለት ጸበር
ለት ጠበ
ለት ዋጅ
ለት ወዝ
ለት ወሐ
ለት አነ
ለት አትፋ
ለት አሸ
ለት ነዝ
ለት ነዘ
ለት ትሳ
ለት ሰብ
ለት ረከ
ለት መደ
ለት መዘ
ለት ልህ
ለት ሌ
ለታ ው
ለተ ግ
ለተ ወበ
ለተ እሪ
ለተ እ
ለተ ኣ
ለተ ት</w>
ለተ በ
ለተ ሌ
ለብ ዬ</w>
ለብ ቱ</w>
ለበ ዐል
ለበ ትከ
ለበ ሰ
ለበ ራ
ለቅ ከ</w>
ለቀደ ሜ
ለቀ ድረ
ለቀ ትለ
ለሸ በ
ለሸ ቃ
ለስ እ
ለስ ም
ለሳ ድፈ
ለሳ ክ
ለሳ ረሐ
ለሰ ው
ለሰ ን</w>
ለሰ ኔ
ለሰ ኒ</w>
ለሰ ተት
ለሰ ራ
ለረ ግ
ለረ ይሐ
ለም ካሁ</w>
ለም ሽክ
ለማ ጽ
ለማ እ</w>
ለመጽ እ</w>
ለመት ነዛ
ለመ ጹ
ለመ ደ</w>
ለመ ደ
ለመ ዐል
ለመ ዋ
ለመ አሰ
ለመ ንዱ
ለመ ነሐ
ለመ ተን
ለመ ምባ
ለመ መር
ለሕ ከ</w>
ለሓ ረ
ለሐ ጥ
ለሐ ዘ
ለሐ ቀ
ለሐ ረስ
ለሐ ልፍ
ለልአ ፈር
ለልአ ጸ
ለልት ዛ
ለልት በህ
ለል ደ
ለል ቱ</w>
ለል ብ</w>
ለል ባ
ለል ሳ
ለል ር
ለለአት ናይ
ለለአ መ
ለለሐ ይ
ለለ ዉ</w>
ለለ ር
ለለ ህይ
ለህ ያ
ለሀይ ብ</w>
ለሀ ረሰ
ለ ፕ
ለ ፌር
ለ ጠት</w>
ለ ያተን</w>
ለ ዌር
ለ ዌ
ለ ወለድ
ለ ኻ
ለ ካፍ
ለ ኦ</w>
ለ ኖ
ለ ናቅ
ለ ነት</w>
ለ ቴ</w>
ለ ቁ</w>
ለ ሶም</w>
ለ ሶ</w>
ለ ሴር
ለ ሖት</w>
ለ ሌ
ሇ ው</w>
ሆ ኒ</w>
ሆ ቶም</w>
ሆ ምተ</w>
ሆ ላ
ህይ ሌ
ህያ ታት</w>
ህ ግ</w>
ህ ዮም</w>
ህ ያ</w>
ህ ዎም</w>
ህ ወት</w>
ህ ኮ</w>
ህ ቶ
ህ ተምም</w>
ህ ሥ
ህ ሞ</w>
ህ ማም</w>
ሄ ተ</w>
ሄ ረረ</w>
ሄ ሄ
ሃ ፍ
ሃ ገ</w>
ሃ ደት</w>
ሃ ሞም</w>
ሂሞ ቪች</w>
ሂ ወት
ሂ ትከ</w>
ሂ ምመ</w>
ሂ ሉ</w>
ሁ ፍ</w>
ሁ ና</w>
ሁ ሉ</w>
ሀድ ጎ</w>
ሀን ጠ
ሀር ገት</w>
ሀመ ከ</w>
ሀለ ዮተ</w>
ሀ ዉ</w>
ሀ ወእ
ሀ ትነ</w>
ሀ ታ</w>
ሀ ቦ</w>
ሀ ሬ
ሀ ሪ</w>
ሀ ማ
ሀ ሌነ</w>
ፖ ን</w>
ፕላ ስቲ
ፕ ቶን</w>
ፕ ቴ
ፕ ረ
ፔ ትሮ
ፓ ኒ</w>
ፓ ትር
ፓ ል</w>
ፒ ር</w>
ፐ ይን</w>
ፐ ስ</w>
ፏ </w>
ፎር ም</w>
ፎ ጼ</w>
ፎ በ</w>
ፎ ሮ</w>
ፎ ሕ</w>
ፍዕ ዉ</w>
ፍዐ ከ</w>
ፍዐ ን</w>
ፍዐ ቶም</w>
ፍዐ ትለ</w>
ፍት ነት</w>
ፍቱ ያም</w>
ፍስ ሃ
ፍር ስነ
ፍራ ንስ
ፍራ ን
ፍሩ ይ</w>
ፍረ ድ</w>
ፍረ ሕ</w>
ፍህ ምኒ</w>
ፍ ፍ
ፍ ዮ</w>
ፍ ዘ
ፍ ኖ</w>
ፍ ኒ</w>
ፍ ተት</w>
ፍ ብ
ፍ ሽ
ፍ ሉ</w>
ፌ ብራ
ፌ ህ</w>
ፋቅ የት</w>
ፋሽ ሽ
ፋር ጉ</w>
ፋር ቅ</w>
ፋር ሕ</w>
ፋር ለ</w>
ፋ ጥነ</w>
ፋ ወሽ</w>
ፋ ከ</w>
ፋ ና
ፋ ኒ</w>
ፋ ኑ
ፋ ቲ</w>
ፋ ረት</w>
ፊ ያ</w>
ፊ ዚ
ፊ ቃ
ፊ ር
ፊ ራ</w>
ፊ ል
ፊ ህ</w>
ፉ ጭ</w>
ፉ ድ</w>
ፉ ቅ</w>
ፉ ሕ</w>
ፉ ለ</w>
ፉ ሁ</w>
ፈግ ነ</w>
ፈክረ ኒ</w>
ፈንተ ዮም</w>
ፈና ተየ</w>
ፈቅ ዶ</w>
ፈስ ሩ</w>
ፈርሀ ኒ</w>
ፈር ጎም</w>
ፈር ዑ
ፈር ተ
ፈራ እ</w>
ፈረ ጁ</w>
ፈረ ረት</w>
ፈል ኮ</w>
ፈለስ ጢ
ፈሀ መ</w>
ፈ ፉ</w>
ፈ ፅ</w>
ፈ ጸ
ፈ ጣ
ፈ ጠን
ፈ ጋይ
ፈ ገ</w>
ፈ ጃጂ
ፈ ይት</w>
ፈ ያሁ</w>
ፈ ዜዕ</w>
ፈ ዕቱ</w>
ፈ ዕ
ፈ ክ</w>
ፈ አ
ፈ ቼ</w>
ፈ ታ</w>
ፈ ብር
ፈ ብረ
ፈ ቀት</w>
ፈ ስር</w>
ፈ ሊ</w>
ፈ ሊ
ፈ ለ
ፅ ዎ</w>
ፅ ት</w>
ፅ ምር</w>
ፅ ላ
ፀ ጠ
ፀ ው</w>
ፀ ር
ፀ ል</w>
ጾ ሖ</w>
ጾ ሕ</w>
ጽበ ጥለ</w>
ጽ ዬ</w>
ጽ ዕ</w>
ጽ በት</w>
ጽ ራር</w>
ጽ መ</w>
ጽ ሄ</w>
ጼ ን
ጻገ ግ</w>
ጻብ ጦም</w>
ጻ ንሕ
ጻ ነ</w>
ጻ ቤሕ</w>
ጸን ሔ
ጸብጠ ው</w>
ጸብ ብ</w>
ጸበረ ከ</w>
ጸበረ ኒ</w>
ጸበ ሐ</w>
ጸ ዐነ</w>
ጸ ነ</w>
ጸ ቤሕ</w>
ጸ ረ
ጸ ሖት</w>
ጸ ሓ</w>
ጸ ልመ
ጴ ጥሮ
ጮ ን</w>
ጭ ባ
ጭ ምብ
ጭ ለ</w>
ጬ መ</w>
ጫ ፍ</w>
ጫ ብብ</w>
ጫ ብ</w>
ጩ ጩ</w>
ጨን ቤ</w>
ጨም ቤ</w>
ጨ ሠ
ጨ መም
ጨ መ
ጦሎ ኒ</w>
ጥዑ ም</w>
ጥር ዓ
ጥ ኖ</w>
ጥ ርቱ</w>
ጥ ራይ</w>
ጥ ሪ</w>
ጥ ምብል
ጣ ጡ</w>
ጣ ግ
ጣ ይት</w>
ጣ ንየ</w>
ጣ ትመ</w>
ጣ ለ</w>
ጢ ቱ</w>
ጡ ጠት</w>
ጡ ራም</w>
ጡ ል</w>
ጠፍ ሐ</w>
ጠቢ ዐት</w>
ጠረ ዝ</w>
ጠም ጠም
ጠ ጥኮ</w>
ጠ ዮም</w>
ጠ ዐት</w>
ጠ ዌ</w>
ጠ ወሮ
ጠ ኖት</w>
ጠ ኖ</w>
ጠ ንከ</w>
ጠ ነት</w>
ጠ ቦ</w>
ጠ ብል
ጠ ቡ</w>
ጠ በይ
ጠ በዕ</w>
ጠ በት</w>
ጠ ቕ
ጠ ሸ</w>
ጠ ርቱ</w>
ጠ ሕ
ጠ ሐት</w>
ጓ ይ</w>
ጓ ር</w>
ጓ ር
ጎ ገ</w>
ጎ ዕ</w>
ጎ ቪ
ጎ ረ
ጎ ም
ጎ ማት</w>
ጎ ሙ</w>
ጎ ሌ</w>
ግን ዑ</w>
ግብ ኦ</w>
ግር ግ
ግር መት</w>
ግር ህ</w>
ግራ ብ</w>
ግሪ ን
ግረ ግ</w>
ግረ ተ</w>
ግረ ብ</w>
ግ ፉ</w>
ግ ጉ</w>
ግ ገ</w>
ግ ዲ</w>
ግ ዕት</w>
ግ ዑ</w>
ግ ዐ</w>
ግ ና</w>
ግ ሽ
ግ ሶም</w>
ግ ሬት</w>
ግ ምግ
ግ ማት</w>
ግ ልቱ</w>
ግ ህ
ጌ ገ</w>
ጌ ና</w>
ጌ ታ</w>
ጌ ረ
ጌ መም
ጌ ሀ</w>
ጋይ ም</w>
ጋብ ሀት</w>
ጋብ ሀ</w>
ጋር ግ</w>
ጋ ዱ</w>
ጋ ደር</w>
ጋ ዮም</w>
ጋ ዛ
ጋ ዊ</w>
ጋ ንግ</w>
ጋ ኔሕ</w>
ጋ ሾ
ጋ ሮ</w>
ጋ ሪት</w>
ጋ ማ</w>
ጋ መት</w>
ጋ ሌ</w>
ጊ ገት</w>
ጊ ዕ</w>
ጊ እ</w>
ጊ ነ</w>
ጉር ጉ
ጉ ፍ</w>
ጉ ያት</w>
ጉ ያም</w>
ጉ ዝ</w>
ጉ ራ
ጉ ማት</w>
ጉ ል
ጉ ላ</w>
ገጽ ገጽ
ገይ ስኒ</w>
ገይ ስ
ገን ዕ</w>
ገብረ መስ
ገብ እመ</w>
ገብ አት
ገብ ሩ</w>
ገቢ ል</w>
ገበ ኦ</w>
ገማል ገማል
ገልበ ብ</w>
ገል ግል</w>
ገ ጊ</w>
ገ ገው</w>
ገ ዱ</w>
ገ ያሁ</w>
ገ ዞም</w>
ገ ዘው</w>
ገ ዘት</w>
ገ ዕ
ገ ዐየ</w>
ገ ወ</w>
ገ እ</w>
ገ ንፈ
ገ ንድል</w>
ገ ንሕ
ገ ቼ</w>
ገ ቤ
ገ ቢ</w>
ገ ሽ</w>
ገ ስነ</w>
ገ ራት</w>
ገ ሞ</w>
ገ መል</w>
ገ ሓ
ገ ሎ
ገ ልነ</w>
ገ ላይ
ገ ሃ
ጆ ብ</w>
ጆ ሪ</w>
ጅ ግረ
ጅ ዮ</w>
ጅ ዖ</w>
ጅ ንስ</w>
ጅ ሬ</w>
ጅ ሞ</w>
ጅ ሉ
ጅ ሀ</w>
ጄ ከ</w>
ጄ ርያ</w>
ጄ ር</w>
ጄ መ</w>
ጃር ዲን</w>
ጃር ቡ</w>
ጃ ክ</w>
ጃ ኢ
ጃ ናት</w>
ጃ ነ</w>
ጃ ሮ</w>
ጃ ምዕ</w>
ጃ መ</w>
ጂ ን
ጂ ህ</w>
ጁ ር</w>
ጁ ሙ</w>
ጀዐ ፈር</w>
ጀሪ መት</w>
ጀረ ሐ</w>
ጀም ዑ</w>
ጀም ናሁ</w>
ጀማ ዐት</w>
ጀል ኮ</w>
ጀሀ ቶም</w>
ጀ ፍ</w>
ጀ ድ
ጀ ይ</w>
ጀ ወል</w>
ጀ ኒት</w>
ጀ ባ
ጀ ራ</w>
ጀ መው</w>
ጀ ልፈ
ጀ ልበ
ጀ ላት</w>
ጀ ለው</w>
ዶ ጉ</w>
ዶ ክቶር</w>
ዶ ን
ዶ ቶም</w>
ዶ ርት
ዶ ሕ</w>
ድግ ነ</w>
ድገ ን</w>
ድር ነ</w>
ድረ ሶ</w>
ድ ፍዓ
ድ ጅ</w>
ድ ጄ</w>
ድ ዳ</w>
ድ አት</w>
ድ ባር
ድ ባ</w>
ድ ባ
ድ ቡ</w>
ድ ቆ</w>
ድ ሽ</w>
ድ ሜ</w>
ድ ማም</w>
ድ ሙ</w>
ድ ሑ
ዴን ማር
ዴር ሆ</w>
ዴ ክዉ</w>
ዴ ካሀ</w>
ዴ ብ</w>
ዴ ማይ</w>
ዳፍ አት
ዳያ ሪ
ዳ ገ</w>
ዳ ዕ</w>
ዳ ዐት</w>
ዳ ዌት</w>
ዳ ትለ</w>
ዳ ቅ
ዳ ራ</w>
ዳ ሕ</w>
ዳ ለየ</w>
ዲፕሎ ማስ
ዲ ይ</w>
ዲ ዬ</w>
ዲ ዝ</w>
ዲ ዛይ
ዲ ዛ
ዲ ክ</w>
ዲ ትከ</w>
ዲ ትነ</w>
ዲ ትለ</w>
ዲ ቡ
ዱል ላህ</w>
ዱ ፉ</w>
ዱ ጉ
ዱ ዴ</w>
ዱ ዳ</w>
ዱ ወ</w>
ደፍ ዖም</w>
ደፍ እ</w>
ደፋ ፍ
ደግ ኮ</w>
ደግ ሞ</w>
ደጋ ገመ</w>
ደገ ነ</w>
ደይ ከ</w>
ደይ ኒ</w>
ደው ረ</w>
ደን ገር
ደብ ደ
ደብ ኮ</w>
ደባ እ</w>
ደቀ ቦ</w>
ደር ገግ</w>
ደር ሰነ</w>
ደረ ወ</w>
ደረ እ</w>
ደረ ሰት</w>
ደሐ ረ</w>
ደ ፈን
ደ ጀ
ደ ድኮ</w>
ደ ዮቱ</w>
ደ ዐው</w>
ደ ካኪ
ደ ካ</w>
ደ አል</w>
ደ ንደን</w>
ደ ንመ</w>
ደ ትቼ</w>
ደ ብር</w>
ደ ቆት</w>
ደ ሴ
ደ ሲ
ደ ራይ
ደ ራቱ</w>
ደ ማን
ደ ሐር</w>
ደ ለቱ</w>
ደ ሀ</w>
ዯ ም</w>
ዮው ሃንስ</w>
ዮ ሕ</w>
ዮ ል</w>
ዮ ሃንስ
ይእ ቀር
ይአት ካረ
ይት ድ</w>
ይ ዳ</w>
ይ የ</w>
ይ ዐት</w>
ይ አዝ
ይ አን
ይ አተላ
ይ ትነ</w>
ይ ትሰ
ይ ምት</w>
ይ ሔ</w>
ይ ሐድገ
ይ ለት</w>
ዬሱ ስ
ዬ ው</w>
ያ ይቱ</w>
ያ ናቱ</w>
ያ ሰ
ያ ምቶም</w>
ያ ሌ</w>
ያ ህ</w>
ያ ሁቱ</w>
ዪ ዱ</w>
ዪ ንቱ</w>
ዪ ቡ</w>
ዪ ል</w>
ዩ ካ</w>
ዩ ሮ
የት ክም</w>
የት ን</w>
የት ም</w>
የ ፈ</w>
የ ዚ
የ ኣመረ
የ አፍ
የ አክ
የ አቤ
የ አርኤ
የ አር
የ አምጸ
የ ኖት</w>
የ ቲ
የ ተው</w>
የ ቡ</w>
የ በዮም</w>
የ ቀ
የ ሪ</w>
የ ሪ
የ ረዩ</w>
የ ሞት</w>
የ መም</w>
የ ሓ
የ ሀብ
ዞ ነ</w>
ዝግ ሄር</w>
ዝዮ ንመ</w>
ዝዝ ዝዝ
ዝሕ ት</w>
ዝ ፈ</w>
ዝ ጋ
ዝ ኣ
ዝ ተ</w>
ዝ ቦ</w>
ዝ ባጥ</w>
ዝ ረ</w>
ዝ ሓም</w>
ዝ ልዝ
ዝ ለት</w>
ዜ ፊ</w>
ዜ ኪ</w>
ዜ ረ
ዜ ህ</w>
ዛይ ረት</w>
ዛየ ሮ</w>
ዛ ይት</w>
ዛ ይር</w>
ዛ ዬ</w>
ዛ የር</w>
ዛ ወ</w>
ዛ ናት</w>
ዛ ሬ</w>
ዛ ሩ</w>
ዛ ል
ዛ ሀ</w>
ዚ ዮም</w>
ዚ ዕ</w>
ዚ ስ</w>
ዚ ላንድ</w>
ዙ ፍ</w>
ዙ ኑ</w>
ዘይ ዱ</w>
ዘከር ቱ</w>
ዘከ ረት</w>
ዘብ ጦ</w>
ዘር ኦ</w>
ዘ ዖ</w>
ዘ ኪ
ዘ አ
ዘ ንብ
ዘ ኒታት</w>
ዘ ርኤ
ዘ መየ</w>
ዖ ትመ</w>
ዖ ታተ</w>
ዖ ምቱ</w>
ዖ ለ</w>
ዖ ሁ</w>
ዕዳ ጋ
ዕን ታቱ</w>
ዕተ ዝር</w>
ዕላ ን</w>
ዕሉ ማት</w>
ዕ ፉ
ዕ ፈ
ዕ ዳም</w>
ዕ የተ</w>
ዕ የ
ዕ ዘት</w>
ዕ ንድ
ዕ ቲ</w>
ዕ ቅበ
ዕ ርገ
ዕ ማ
ዕ ሌ</w>
ዕ ሊም</w>
ዕ ህ</w>
ዔ ን</w>
ዔ ሁ</w>
ዓር ግ</w>
ዓር ጉ</w>
ዓር ዩ</w>
ዓ ፌ</w>
ዓ ፈ
ዓ ጅ</w>
ዓ ዳ</w>
ዓ ደ</w>
ዓ ያት</w>
ዓ ው</w>
ዓ ዊ</w>
ዓ ወን</w>
ዓ ትከ</w>
ዓ ሽ
ዓ ሰ</w>
ዓ ሪ</w>
ዓ ሞ
ዒ ደት</w>
ዑ ድየ</w>
ዑ ው</w>
ዑ ት</w>
ዐድ ዮም</w>
ዐድ የት</w>
ዐደ ድ</w>
ዐደ ል</w>
ዐይ ደ</w>
ዐው ቶም</w>
ዐው ቴ</w>
ዐንቀ ፍ</w>
ዐን በል
ዐብደል ቃድር
ዐቅ ል</w>
ዐሸ ል</w>
ዐስ ከር</w>
ዐሬ ቱ</w>
ዐረ ፈ</w>
ዐረ ግ</w>
ዐም ረ</w>
ዐማር ዐማር
ዐል ነ
ዐል ሞም</w>
ዐል መ</w>
ዐ ፍ</w>
ዐ ድነ</w>
ዐ ደው</w>
ዐ ያ</w>
ዐ ዞት</w>
ዐ ዘም
ዐ ዐ
ዐ ወት
ዐ ወሊ
ዐ ካሁ</w>
ዐ ትቼ</w>
ዐ ታት</w>
ዐ በት</w>
ዐ ቀብ
ዐ ሰ</w>
ዐ ሮ
ዐ ሞ</w>
ዐ መት</w>
ዐ መቱ</w>
ዐ ለየ</w>
ዐ ለው
ዏ ሇ</w>
ዎ ኑ</w>
ውድ ቅ</w>
ውረ ከ</w>
ውረ ነ</w>
ውረ ሱ</w>
ውረ ሰ</w>
ውሕ ጥ</w>
ውሕ ደ</w>
ውላ ደ</w>
ው ፋ
ው ድየት</w>
ው ዳይ</w>
ው ዳት</w>
ው ዳቅ</w>
ው የቱ</w>
ው ዘራ
ው ዘ
ው ዓ
ው ዉ</w>
ው ኪ</w>
ው ንድ</w>
ው ኒቱ</w>
ው ቀት</w>
ው ሸ</w>
ው ሳ
ው ላት</w>
ዌ ደን</w>
ዌ ስ</w>
ዋጅ ሀ
ዋሰ ላት</w>
ዋር ዕ</w>
ዋር ለ</w>
ዋ ጃ
ዋ ዬሕ</w>
ዋ እ</w>
ዋ ቶም</w>
ዋ ታት</w>
ዋ ስል</w>
ዋ ራቱ</w>
ዊ ነት</w>
ዊ ታት</w>
ዊ ረ</w>
ዊ ሕ</w>
ዉ ክ</w>
ዉ ኪ</w>
ዉ ራት</w>
ወፍ ር</w>
ወፈ ድ
ወፈ ው</w>
ወፈ ሸ
ወጸ </w>
ወጭ ገረ
ወጣ ይ</w>
ወጠ ዋ
ወጠ ር
ወጠ ለባ
ወግ ንዳ
ወግ ረ
ወግ ል
ወገ በይ
ወገ ር</w>
ወገ ማ
ወጅ ብ
ወጅ ህ
ወጀ ዕ</w>
ወድ ግ
ወድ ገለብ
ወድ ንጋ
ወድ ቁ
ወዴ ነ</w>
ወዴ ተ</w>
ወዳ ን
ወዳ ር
ወዲ ብ
ወደ ወር
ወደ ቅ
ወደ ራ
ወደ ሐ</w>
ወደ ሀ
ወይ አስ
ወይ ቱ</w>
ወዝ ዖ</w>
ወዝ ዕ</w>
ወዕ ንቦ
ወዓ ጭ
ወዓ ቅ
ወዓ ሲ
ወዐው ቴ
ወዐ ቦ
ወዐ ም
ወዐ ሎ
ወዐ ለ</w>
ወኮ ምፕ
ወኮ ም
ወክ ብ
ወክ ቡ
ወከ ጥ
ወከ ይ
ወከ ዐ
ወከ ው</w>
ወከ ሬ
ወከ ሃ
ወእድ ንየ</w>
ወእት ሳ
ወእስት ቅላ
ወእ ድን
ወእ ክላ
ወእ ት</w>
ወእ በ
ወእ ራ
ወእ ምብ
ወኤ ታ
ወኤ ር
ወኢ ጣ
ወኢ ጠ
ወኢ ነአት
ወኢ ነአ
ወኢ ቲ
ወኢ በጽሐ
ወኢ ሳ
ወኢ ሰምዐ
ወኢ ልፍ
ወኢ ልትበ
ወኢ ልብ
ወኢ ልስ
ወኢ ሊ
ወኢ ለአት
ወአፍ ሪ
ወአው ለው
ወአት ፋር
ወአት ፈ
ወአት ሳጅ
ወአት ሐሶ
ወአስተ ቅ
ወአም ጸ
ወአ ጣ
ወአ ጠ
ወአ ድያ
ወአ ኽ
ወአ ተና
ወአ ቅረ
ወአ ቀጥ
ወአ ሴ
ወኖ ር
ወን እሽ
ወን ነ</w>
ወን ቱ</w>
ወን ሳ
ወን ር
ወነ አደ
ወነ አብ
ወነ ሰእ
ወነ ሃ
ወት ጨ
ወት ወስ
ወት ትጋ
ወት ትገ
ወት ትና
ወቴ ል
ወታ ብ
ወተአ ስተ
ወተስ ፋ
ወተ ጅ
ወተ ድ</w>
ወተ ድ
ወተ ዩ</w>
ወተ ኽ
ወተ ሽ
ወብዝ ሔ
ወብ ሮ
ወብ ሬ
ወበ ዲ
ወቅ ብላ
ወቅ ለ</w>
ወቀደ ሜ
ወቀ ደር
ወቀ ደም
ወሸ ዋ
ወሸ ባቢ
ወሸ ቀ
ወስትራ ቴ
ወስታ ቲ
ወስ ኮ</w>
ወሴ ድ
ወሴ ር
ወሳ ውዛ
ወሳ እ
ወሰር ጎ
ወሰ ፈላ
ወሰ ዳይ
ወሰ ንቀ
ወሰ ቀ</w>
ወር ከው</w>
ወር ቅ</w>
ወር ሽ
ወር ር</w>
ወር መ</w>
ወራ ታት
ወራ ረስ</w>
ወረ ድ</w>
ወረ ይ
ወረ ሽ
ወረ ሸ
ወረ ስ</w>
ወሞ ላ
ወምጅ ተም
ወም ዩ
ወም ተሐ
ወም ለዐ
ወሜ ርሐ
ወመው ህ
ወመን ዴ
ወመን በረ
ወመና ፍዕ
ወመት ፈ
ወመት ዛ
ወመት በ
ወመት ሰዳ
ወመት ራ
ወመት መዳ
ወመት ሃግ
ወመም ተለ
ወመ ጢ
ወመ ገ
ወመ ድረ
ወመ ዐደ
ወመ ንበ
ወመ ባጽ
ወመ ሻቀ
ወመ ሳል
ወመ ሰጅ
ወመ ርከ
ወመ ርሐ
ወመ ሐመድ
ወመ ልሀ
ወመ ሀንድ
ወሕ ፍ
ወሕ ቡ
ወሕ ሩ
ወሕ ሙ
ወሕ ልቅ
ወሕ ል
ወሓ ሎ
ወሐ ዝ
ወሐ ተ</w>
ወልት ነሸ
ወል ዳይ
ወል ደን
ወል ቱ</w>
ወል ቅረ
ወል ሽ
ወል ሰጅ
ወል ህ
ወላ ሊ
ወለድ ኪ</w>
ወለአ ድር
ወለአ ሳ
ወለት ቀ
ወለት ሓ
ወለመስ ሉ</w>
ወለ ጥ
ወለ ጠ</w>
ወለ ግር
ወለ ደር
ወለ ደ</w>
ወለ ከር
ወለ ከራ
ወለ ኢተ
ወለ ኢለሐ
ወለ በል
ወለ ሳደ
ወለ ሰበ
ወለ ሰምዐ
ወለ ረክ
ወለ ምግ
ወለ መም
ወለ ሐብ
ወለ ሐረ
ወለ ለት
ወህ ግያ
ወህ ር
ወ ፖር
ወ ፒ
ወ ፉ</w>
ወ ጤት</w>
ወ ገብሬ
ወ ይን</w>
ወ ዞ
ወ ወግ
ወ ወአ
ወ ኽ
ወ ኤረትር
ወ ናስ
ወ ኑ</w>
ወ ቼ</w>
ወ ታይ
ወ ቢን
ወ በት</w>
ወ በርናም
ወ ቂ</w>
ወ ሊ</w>
ዀ ነ</w>
ኽ ት</w>
ኮር ፖ
ኮር ቶ</w>
ኮም ፖ
ኮ ካቱ</w>
ኮ ካተ</w>
ኮ ነን</w>
ኮ ሙኒ
ኮ ላ</w>
ኮ ለ</w>
ክቱ ብ</w>
ክተ በ</w>
ክተ ረት</w>
ክብ ተ</w>
ክበ ድ</w>
ክሱ ስ
ክሮ ኤ
ክር ት</w>
ክር ተ</w>
ክር ብ</w>
ክር ሲ
ክር ም</w>
ክር ለ</w>
ክራ መ</w>
ክረ ትነ</w>
ክምሰል ሀ</w>
ክም እ
ክም ቱ
ክም ሰለ</w>
ክም ል
ክም ለ</w>
ክም ሆ
ክ ፉ</w>
ክ ገ
ክ ዲረ</w>
ክ ዩ
ክ ው
ክ ኪ</w>
ክ አ
ክ ና</w>
ክ ብለ</w>
ክ ባ</w>
ክ በው</w>
ክ ሶ</w>
ክ ስተ
ክ ሰት</w>
ክ ራቱ</w>
ክ ምስል
ክ ለን</w>
ክ ለ
ኬፍ ላይ</w>
ኬ ደ
ኬ ይ</w>
ኬ ስ
ኬ ልም</w>
ካፒ ታ
ካፈ ል
ካፈ ለት</w>
ካይ ዶ</w>
ካይ ብ</w>
ካየ ድ</w>
ካርቦሃይ ድሬ
ካርቦ ን
ካር ዬ</w>
ካር ኔ
ካር ነ</w>
ካር ር</w>
ካል አይ
ካል ቸር</w>
ካል ቅ</w>
ካል ስ</w>
ካ ፋ
ካ ዮም</w>
ካ ኩ</w>
ካ ንለ</w>
ካ ትከ</w>
ካ በን</w>
ኪ ዱ</w>
ኪ ዩ</w>
ኪ የ</w>
ኪ ዝ</w>
ኪ ናይ</w>
ኪ ቶም</w>
ኪ ሽ</w>
ኪ ሞ</w>
ኪ ማ
ኩ ፉ
ኩ ዱ</w>
ኩ ኮም</w>
ኩ ንዲ</w>
ኩ ተ</w>
ኩ ሰን</w>
ኩ ሮም</w>
ኩ ማም</w>
ኩ ማ</w>
ከፍ ከፈ
ከፋ ፈ
ከደ ማት</w>
ከደ መ</w>
ከእ ልል</w>
ከእ ለለ</w>
ከን ፈር
ከብ ደ</w>
ከብ ዬ</w>
ከብ ና</w>
ከብ ት</w>
ከብ ቴ</w>
ከባ ቢ
ከበ ዮም</w>
ከሽ በ</w>
ከስ ታ
ከስ ተ</w>
ከስ ቦም</w>
ከር ደነ
ከር የት</w>
ከር የ</w>
ከር ዖ</w>
ከር ከበ
ከሬ ከ</w>
ከረ ከ</w>
ከረ ቶ
ከምሰል ሁመ</w>
ከም ዘ
ከም ሰል</w>
ከሐ ድ</w>
ከል ቀ
ከሊ ማት</w>
ከለ ፍ</w>
ከለ እ</w>
ከለ ቅ
ከህ ረበ
ከሀ ል</w>
ከ ፉ
ከ ፈው</w>
ከ ፀ</w>
ከ ፀ
ከ ጨ
ከ ጢ
ከ ጎ
ከ ገይ
ከ ገበ
ከ ገር
ከ ድራ
ከ ዴ
ከ ዎሮ
ከ ክል
ከ ኩም</w>
ከ ከል
ከ እግ
ከ ኣል
ከ አርወሐ
ከ ኖ
ከ ነው</w>
ከ ነት</w>
ከ ትፈን
ከ ትሰአል
ከ ትር
ከ ቱ
ከ ተሀ
ከ ቃ
ከ ሴሕ</w>
ከ ሱ
ከ ሰት</w>
ከ ሪም</w>
ከ ማን
ከ መጸ
ከ መዳ
ከ ሔ
ከ ሐድ
ከ ሎ</w>
ከ ላት</w>
ከ ለአት
ከ ለቀ
ከ ለሐል
ከ ሄራ
ከ ሀደ
ከ ሀይ
ኦሎም ፒ
ኦሎ ምፕ
ኦ ፕ
ኦ ው
ኦ ክሳይድ</w>
ኦ ባ
ኦ ሻ
ኦ ስትራ
ኦ ሪ
ኦ ሎም</w>
ኦ ላ
ኦ ህ
እፍ ሩ
እጽ ቡ
እጅትመ ዕ</w>
እጃ ዘ
እዲ ና
እዲ ነ
እዮ ብ</w>
እዝ ግ
እዝ ን</w>
እክ ዎ</w>
እን ክራ
እን ካ
እን ከለ
እን ትባ
እን ትበ
እን ቅራ
እን ቀር
እን ስሕ
እት ዕ
እት ካ
እት ከ</w>
እት ነ
እት ብጉ
እት ሑ
እት ሉ
እት ሀ
እታ ይት</w>
እብ ጹ
እብ ሊ</w>
እስ ትቃ
እስ ትማ
እስ ቤ
እር ፍዕ
እር ፍ
እም በር
እም በራ
እሙ ን</w>
እ ፌ
እ ገሌ
እ ድረ
እ ደግ
እ ያይ</w>
እ ዙ
እ ዘት</w>
እ እ</w>
እ ኑ</w>
እ ታት</w>
እ ቤ</w>
እ ቕ
እ ሻረ
እ ሲት</w>
እ ሰይ
እ ሰላ
እ ረክ
እ ማ</w>
እ ሎ
እ ለም
እ ሁ</w>
ኤት ኑ</w>
ኤተ ነት</w>
ኤረት ሪ
ኤሌ ትሮ
ኤ ኔ
ኤ ተን</w>
ኤ ቫ
ኤ ሚ
ኤ ልመ</w>
ኤ ሉ</w>
ኣደ ሚ</w>
ኣት ዮም</w>
ኣት ዮ</w>
ኣምረ ኩም</w>
ኣም ሮም</w>
ኣም ሪ
ኣመ ራ</w>
ኣ ደም
ኣ ዮ</w>
ኣ ያ</w>
ኣ ዛ
ኣ ዕሩ
ኣ ዑ
ኣ ካይ
ኣ ኤል</w>
ኣ አ
ኣ ንታ
ኣ ንስ
ኣ ቶ
ኣ ትመ</w>
ኣ ቲ
ኣ ቦ
ኣ ብር
ኣ ሎም</w>
ኣ ሆም</w>
ኢፈ ትሐ
ኢፈ ቀድ
ኢገ ንሐ
ኢይ ፈሀም
ኢይ ል
ኢከ ሀ
ኢን ጥ
ኢን ዳ
ኢን ዕ
ኢነ ፈ
ኢነ ህ
ኢትት ዋ
ኢትት ሀየ
ኢት ግበ
ኢት ድገ
ኢት አመ
ኢት ና
ኢት ነስ
ኢት ተ
ኢት ብለ
ኢት ቀደ
ኢት ሻቀ
ኢት ሰር
ኢት ሰሐ
ኢቲ በ
ኢተአ ስ
ኢተሐ ይ
ኢተ ኣ
ኢብራ ሂም</w>
ኢቀ ት
ኢቀ ተል
ኢሰ ሐ
ኢልት ጋ
ኢልት አመረ
ኢልት ቀረ
ኢልም ሰለ
ኢል ድ
ኢል ዝ
ኢል ቅረ
ኢል ስእ
ኢል ምሕ
ኢለአ ን
ኢ ጅ
ኢ ደቅ
ኢ ደረ
ኢ ደል
ኢ ይሐ
ኢ ዓ
ኢ ዐጅ
ኢ ኳ
ኢ ኮ</w>
ኢ ኬ
ኢ አደ
ኢ አመ
ኢ ታ</w>
ኢ ተን</w>
ኢ ተበ
ኢ ቤለ
ኢ ባል
ኢ በሀ
ኢ ሽ
ኢ ሸፍ
ኢ ሬ
ኢ ረፍ
ኢ ረት</w>
ኢ ምስ
ኢ ምራ
ኢ ሜ
ኢ ሚ
ኢ መፋ
ኢ መጽአ
ኢ ሔ
ኢ ሐድገ
ኢ ሐር
ኢ ሌ
ኢ ሉ</w>
ኢ ለፈ
ኢ ለሰ
ኢ ሄረ
ኢ ሃ
ኢ ሀለዮ
ኡ ር
አፍ ዐበ
አፍ ህመ
አጽ ብጠ
አጽ በረ
አጽ ረ
አጽ ለዐ
አጭ ሮ
አግ ዱ
አግ ወሐ
አግ ን
አግ ነዐ</w>
አግ ቡይ</w>
አገ ው
አጅ ህ
አጀ ዝ</w>
አድ ፈዐ
አድ ኦ
አድ ሮ
አድ ሐን
አደ ገ
አይ ደት</w>
አይ ር
አየ ር
አዕ ተረ
አው ድ</w>
አው ደቅ
አው ዕሉ</w>
አው ዕ
አው ቄ
አው ረስ
አው ረሐ
አው ረ
አው ለዊ
አክ ረበ
አክ ሞ
አካ ዳም
አካ ን</w>
አካ ኑ</w>
አከ ዶ</w>
አከ ይ</w>
አንገ ዋ
አንያ ብ
አንበ ተት</w>
አን ገር
አን ጄ
አን ዬ
አን ቶ
አን ቴ
አን ቀስ
አነ ህ
አትፋ ቀድ
አትጋ ረ
አትዳ ሌ
አትዐ ገበ
አትዋ ይን</w>
አትና የት
አትሐ ደገ
አትላ ጥ
አትላ ጠ
አትሀ ዴ
አት ጣፍ
አት ካፈ
አት መዛ
አት መቃር
አት ሔ
አት ሃጌ
አት ሀየ
አተን ሴ</w>
አተላ ሉ</w>
አተ ጀሀ
አተ ኩም</w>
አተ ንተ
አተ ብረ
አተ ቡ
አተ ስ
አተ ረድ
አተ ምሰል
አብር ሃም</w>
አብ ዴ</w>
አብ ወ</w>
አብ ሽር
አብ ሳር</w>
አብ ረድ
አብ ሑ
አባ ያም
አቡ ሐሪሽ
አበ የ</w>
አቅ ብለ
አቅ ሹ
አቅ ረበ
አቅ ሎ
አቀ መጭ
አሽ ከተ
አሽ ቄ
አሽ ር</w>
አሸ ንገ
አሸ ብረ
አስ ኡ
አስ ታ
አስ ሓ
አስ ሐበ
አስ ለሐ
አሳ ድር</w>
አሳ ሚ
አሰ ኣ
አሰ ኔ</w>
አሰ ተብ
አር ገ
አር ጀንቲ
አር ዛቅ</w>
አር ትር
አር ብ
አር በዐ
አር ሐመ
አረ ትር
አምጸ እ
አምሳ ላት</w>
አምሐ ብር</w>
አም ነ</w>
አም በሰ
አም ሪክ
አም ሐር
አማ ሕ
አማ ል</w>
አሚ ር</w>
አመስ መስ
አመር ኮ</w>
አመ ሮም</w>
አመ ል</w>
አሕ ዳ
አል ፍ</w>
አል ጄር
አል ጀዛ
አል ያ
አል ዐስ
አሌ ክ
አ ፈር
አ ገ</w>
አ ዴ</w>
አ ይድ</w>
አ ዙ
አ ዎም</w>
አ ዋይ
አ ወጀ
አ ወላ
አ እግ
አ እም
አ ናቱ</w>
አ ቀብ
አ ሽ</w>
አ ሼ
አ ሻረ
አ ሹ
አ መት
አ ለለ
ኜ </w>
ኛ ታት</w>
ኖ ኒ</w>
ኖ ቲ
ንፈ ት
ንግ ራይ</w>
ንግ ለ</w>
ንጋ ል</w>
ንጉ ል</w>
ንገ ስ</w>
ንድ ገ
ንድ ሎ</w>
ንዳ ን</w>
ንዳ ር</w>
ንደ ቶም</w>
ንክ ተ
ንክ ሉ</w>
ንክ ለት</w>
ንከ ቱ</w>
ንከ ላይ</w>
ንትዐ ወት</w>
ንት ዋ
ንት ከበ
ንት ኑ</w>
ንት ነ</w>
ንት ስ</w>
ንት ሃጌ
ንቴ ባይ</w>
ንብ ብ</w>
ንቅ ፉ</w>
ንቅ ፈ</w>
ንቅ ረ
ንቅ ል</w>
ንቀ ፈ</w>
ንስ ወር</w>
ንሰ አ</w>
ንሐ ተ</w>
ን ጽ</w>
ን ይ
ን የትመ</w>
ን ዑ</w>
ን ዌ
ን ካይ</w>
ን ኑ</w>
ን ች</w>
ን ቶ
ን ታይ
ን ተል
ን በር</w>
ን ቐ
ን ቄ</w>
ን ሳ</w>
ን ር</w>
ን ሪ</w>
ን ምስ
ን ም</w>
ን ል</w>
ን ሃ
ኔ ዕመ</w>
ኔ ብረ
ኔ ሕቱ</w>
ኔ ሎ</w>
ናፍ ዕ</w>
ናድ ግ</w>
ናይ ጄር
ናዘ ል</w>
ናቃ ፍ</w>
ናቀ ሸ</w>
ናስ እ</w>
ና ዴ</w>
ና ዮም</w>
ና ዛ
ና ክን</w>
ና እ
ና ኡ</w>
ና ኖም</w>
ና ነት</w>
ና ትና
ና ታን</w>
ና ብር</w>
ና ቁ
ና ምጅ</w>
ና ሙስ
ኒ ያት</w>
ኒ ዝዌ
ኒ ካል</w>
ኒ ኪ</w>
ኒ ንመ</w>
ኒ ስ
ኒ ሆም</w>
ኑ ና</w>
ኑ ተ</w>
ኑ ረ
ነፍ ዝ</w>
ነፍ ዐ</w>
ነፍ ሒ</w>
ነፈ ዐነ</w>
ነግ ፈ</w>
ነገ ፍ
ነድ ፉ</w>
ነደ ቀ</w>
ነዝ መን</w>
ነዐ ከ</w>
ነዋ ኔ</w>
ነወ ስ</w>
ነአት ሳ
ነአት መሳ
ነአ ጽብ
ነአ ጽ
ነአ ዳ
ነአ ታ
ነአ ቀብ
ነት ክም</w>
ነት ናመ</w>
ነቲ ጀ
ነብ ራ</w>
ነቅ ል</w>
ነሽ ፍ</w>
ነሰአ ት</w>
ነሰ ኦ</w>
ነሐ ኩም</w>
ነ ጻ
ነ ጺ
ነ ጭ
ነ ጎ</w>
ነ ግል</w>
ነ ዳይ
ነ ዬ</w>
ነ ያ
ነ ዐው</w>
ነ ዎም</w>
ነ ወን</w>
ነ ኩም</w>
ነ ከሽ
ነ አርእ
ነ ትኩም</w>
ነ ቲ</w>
ነ ቢ</w>
ነ በት</w>
ነ ቁ</w>
ነ ቀው</w>
ነ ቀት</w>
ነ ሕቱ</w>
ነ ሐት</w>
ች የ</w>
ች ና</w>
ች ነ</w>
ቼል ሲ
ቼ ር</w>
ቺ ኖ</w>
ቹ ን</w>
ቹ ሽ</w>
ቸ ት</w>
ቸ ል</w>
ቶ ዬ</w>
ቶ ርያል</w>
ቶ ረት</w>
ቶ ሉ</w>
ትፋ ል</w>
ትፋ ሀም
ትፈር ገ
ትገ ፍት
ትጀ ራ
ትጀ ማ
ትዳ ትዳ
ትደ ዋ
ትዐ ሮ
ትዋ ጀ
ትክ ቱ</w>
ትክ ል</w>
ትካ ፈል
ትከ ሬ</w>
ትና ቅ
ትነ ድ
ትነ ከ
ትትቀ ደረ
ትት ጻ
ትት ነፍ
ትት ት</w>
ትት ረሰ
ትት ሓረ
ትት ህየ
ትብ ጸሐ
ትብ ነ</w>
ትብ ል
ትብ ለ</w>
ትበገ ስ</w>
ትበ ዳ
ትበ ን</w>
ትቃ ር
ትቃ ረ
ትቀ ሸ
ትቀ ስ
ትሸ ከከ
ትሸ ረሐ
ትሸ ልተ
ትሸ ልሀ
ትሸ ሃድ</w>
ትሳ ድፈ
ትሳ ረ
ትሰ ይ
ትሰ ው
ትሰ ኣል
ትሰ ረ
ትሰ ማ
ትር ድ
ትር ከ
ትር ኤ</w>
ትር ነ</w>
ትር ሰ
ትሬ ቫ
ትራ ጀ
ትረሰ ዑ</w>
ትረሰ ዐ</w>
ትረ ፈ
ትረ ጄ
ትረ ኤ
ትረ ብ
ትም ጽ
ትም ነ</w>
ትም ሳ
ትመቅ ረሐ
ትመሳ ኔ</w>
ትመ ይ
ትመ ክረ
ትመ ኒ</w>
ትሕ ዉ</w>
ትሕ ን</w>
ትሌ ጊ
ት ፎርድ</w>
ት ጽን
ት ጨቅ
ት ግ</w>
ት ዴ
ት ዲብ</w>
ት ዐ</w>
ት ወሽ
ት ወሴ
ት እተ
ት ኡ</w>
ት ንድ
ት ቨር
ት ራይ</w>
ት ሣ
ት ሞ</w>
ት መት</w>
ት መት
ት ሊ</w>
ቴ ጅ</w>
ቴ በ</w>
ቴ ርየት</w>
ቴ ርየ</w>
ታይ ቼ</w>
ታይ ለ</w>
ታክ ቲ
ታት ዬ</w>
ታብ ዐ</w>
ታስ ዓይት</w>
ታ ፍ
ታ ጅ</w>
ታ ያት</w>
ታ ያ
ታ ዕ</w>
ታ ወ</w>
ታ ከየ</w>
ታ ቡ
ታ ራ</w>
ታ ሪክ</w>
ታ ሞም</w>
ታ ሚናት</w>
ታ መት</w>
ቲ ደ
ቲ ኮ
ቲ ናይ</w>
ቲ ታት</w>
ቲ ታ</w>
ቲ ሉ
ቲ ህ</w>
ቲ ህ
ቱ ኡ</w>
ቱ ሽ</w>
ቱ ምን</w>
ቱ ሕ</w>
ተጠ ቕ
ተጅ ር</w>
ተድ ብር</w>
ተዕ ሊም
ተዐ ጅብ</w>
ተዐ ከ</w>
ተዐ ና
ተዐ ስ
ተዐ ልጠ
ተው ዴ</w>
ተው ቱ</w>
ተው በ</w>
ተው ቅ</w>
ተው ራሪ</w>
ተው ሊደ
ተወ ብ</w>
ተኽ ጢ
ተከ ዩ</w>
ተከ ለ</w>
ተእ ሪክ</w>
ተአት ፋር
ተአ ድም
ተአ ደንግ
ተአ ውዕ
ተአ ንግ
ተአ ንበ
ተአ ት</w>
ተአ በር
ተአ ሸ
ተአ ሰት
ተአ መ
ተን ጃ
ተብ ዴ</w>
ተብ ዐ
ተብ ቱ</w>
ተበሰም ተበሰም
ተበ ዩ</w>
ተበ ቱ</w>
ተስ ፍ
ተሰ ፋ
ተሰ ፈ
ተርጀ መ</w>
ተር ፎ</w>
ተር ኮ</w>
ተር ን</w>
ተራ ትመ</w>
ተራ ቀ
ተረ ደ</w>
ተረ ቱ</w>
ተም ነዩ</w>
ተም ነ</w>
ተም ሲል
ተም ም
ተመ ዩ</w>
ተሓ ወለ
ተሓ ል
ተሐ ዜ
ተሐ ሽ
ተልሄ ቱ</w>
ተል ዩ</w>
ተል ቱ</w>
ተል ሀ</w>
ተለ ዎ</w>
ተሀየ በ</w>
ተሀ ም</w>
ተሀ ልፈ
ተሀ ላ
ተ ገ</w>
ተ ዖ</w>
ተ ወብ
ተ ወል
ተ ናቱ</w>
ተ ኒቱ</w>
ተ ቦት</w>
ተ ቢ
ተ በር
ተ ቅ</w>
ተ ቀ</w>
ተ ሾ
ተ ሻር
ተ ሰአ
ተ ሞት</w>
ተ ሎም</w>
ተ ለየ</w>
ቮሪ ኮ
ቬ ለ</w>
ቫ ና</w>
ቫ ነ</w>
ቫ ላት</w>
ቪ የ</w>
ቨ ይ
ቨ ንቱስ</w>
ቧ </w>
ቦር ዲ
ቦር ን</w>
ቦ ይ
ቦ ተት</w>
ቦ ሮም</w>
ቦ ሎ</w>
ብዕ ዎ</w>
ብዕ ነ</w>
ብር ክ</w>
ብር ካ</w>
ብር ኩ
ብር ቅ</w>
ብራ ሾ
ብሪ ል</w>
ብሩ ድ</w>
ብሩ ስ</w>
ብላ ይት</w>
ብሉ ነ</w>
ብህ ላ
ብ ዳው
ብ ኦ</w>
ብ ቶ</w>
ብ ትሮ
ብ ተ
ብ ቅል</w>
ብ ሸራ
ብ ስም
ብ ሳ
ብ ላይ</w>
ብ ሊን</w>
ብ ሁ
ቤ ድ</w>
ቤ ዜ</w>
ቤ ክ</w>
ቤ ኩም</w>
ቤ ታይ</w>
ቤ ለዩ</w>
ቤ ለየ</w>
ባጽ ዕ</w>
ባጽ ዕ
ባክ ቴር
ባብ ተ</w>
ባር ለ</w>
ባር ሀት</w>
ባል ነ</w>
ባል ሱ</w>
ባል መ</w>
ባል ሖ</w>
ባል ሑ</w>
ባ ጅ</w>
ባ ደ
ባ ያ
ባ ኩ</w>
ባ ናቱ</w>
ባ ቲ</w>
ባ ተት</w>
ባ ብከ</w>
ባ ባይ</w>
ባ ሸ</w>
ባ ሸ
ባ ሲ
ባ ሮም</w>
ባ ሪት</w>
ባ ሞም</w>
ባ ለክ</w>
ባ ሃ</w>
ቢን ቶ</w>
ቢ ጣ</w>
ቢ ያት</w>
ቢ ቶም</w>
ቢ ቅ</w>
ቢ ረ</w>
ቢ መ</w>
ቡ ዲ</w>
ቡ ዱ</w>
ቡ ዙ
ቡ ካ</w>
ቡ ን
ቡ ኒቱ</w>
ቡ ተት</w>
ቡ ብ
ቡ ቅ</w>
በጣ ር
በድ ሎም</w>
በደ ለት</w>
በይ አ</w>
በይ ኑ</w>
በክ የ</w>
በአ ሶ</w>
በት ካ</w>
በቅ ሎ</w>
በር ን</w>
በር ናሁ</w>
በር ና</w>
በር በብ</w>
በራ መ</w>
በሪ ህ</w>
በረኸ ት
በረ ኒ</w>
በረ ሀ</w>
በል የ</w>
በሊ ስ
በለ ክ</w>
በለ ነ</w>
በለ ተ</w>
በለ ሰ</w>
በህ ለት</w>
በሀ ለት
በ ጺ
በ ጠል
በ ዲር</w>
በ ደት</w>
በ ዜሕ</w>
በ ዓት</w>
በ ዎ</w>
በ አው</w>
በ ቲት</w>
በ ቲ
በ በዩ</w>
በ ሸ</w>
በ ሮቱ</w>
በ ሕር
በ ሌነ</w>
በ ላይ</w>
በ ለሸ
ቈ ሴ
ቆ ረ</w>
ቅብ ሎም</w>
ቅር ኡ</w>
ቅራ ታት</w>
ቅሎ ሌ</w>
ቅል ተ</w>
ቅ ፈት</w>
ቅ ድር</w>
ቅ ይ</w>
ቅ ያት</w>
ቅ ዝ
ቅ ዕ
ቅ ው
ቅ ና
ቅ ባ</w>
ቅ ቆ</w>
ቄር አት
ቄ ተ</w>
ቄ በ</w>
ቃወመ ት</w>
ቃር ጭ</w>
ቃር ኑ</w>
ቃር በ</w>
ቃረ ም</w>
ቃም ቶ</w>
ቃ ጨ
ቃ ትከ</w>
ቃ ትመ</w>
ቃ ተን</w>
ቃ ማ</w>
ቃ ላ
ቂ ዕ</w>
ቂ ቶ</w>
ቂ ቡ</w>
ቂ መ</w>
ቁ ሩ</w>
ቁ ም</w>
ቁ ላት</w>
ቁ ላ</w>
ቀጥ ኮ</w>
ቀድ ርቱ</w>
ቀድ ማይ</w>
ቀድ መ</w>
ቀደም ለ</w>
ቀደ ሙ</w>
ቀይ ብ</w>
ቀይ ሱ</w>
ቀይ ሙ</w>
ቀየ ረ</w>
ቀት ካ</w>
ቀት ሎ</w>
ቀብ ቱ</w>
ቀስ ኖ</w>
ቀስ ብ</w>
ቀም ኮ</w>
ቀም ቶም</w>
ቀም ቶ</w>
ቀል ዑ</w>
ቀል ብ</w>
ቀ ፉ</w>
ቀ ጠው</w>
ቀ ጠር
ቀ ዳ</w>
ቀ ትና</w>
ቀ ትቱ</w>
ቀ ተ
ቀ በት
ቀ ረው</w>
ቀ ሞት</w>
ቀ ሕ</w>
ቀ ልከ</w>
ቀ ሌ</w>
ቀ ላ</w>
ቀ ለም
ሾ ኒ</w>
ሽ ፍር
ሽ ጥ</w>
ሽ ዐብ
ሽ ቶም</w>
ሽ ብህ</w>
ሽ ቤ
ሼ ን
ሼ ር
ሻፍ ጥ</w>
ሻፍ ጎ</w>
ሻር ከት</w>
ሻረ ፍ</w>
ሻ ወጠ
ሻ ክል</w>
ሻ ካ
ሻ ኒ</w>
ሻ ቀል
ሻ ሻ</w>
ሻ ሹ</w>
ሻ ረ</w>
ሻ ሙ</w>
ሺ ኖ</w>
ሺ ነ</w>
ሺ ብ</w>
ሹ ዕ
ሹ ራት</w>
ሹ ራ</w>
ሹ ሉ</w>
ሸፍ ት</w>
ሸን ኪት</w>
ሸን ሆ
ሸቄ ከ</w>
ሸቄ በ</w>
ሸር ፍ</w>
ሸም ሎም</w>
ሸ ጎ</w>
ሸ ጋ
ሸ ደ</w>
ሸ ዐር
ሸ ወ</w>
ሸ ትከ</w>
ሸ ተን</w>
ሸ ሾት</w>
ሸ ሽ
ሸ ሹ</w>
ሸ ሜ
ሸ ሎ</w>
ሸ ልተ
ሸ ልሸ
ሸ ሌ
ሶ ነ</w>
ሶ ቼ</w>
ሶ ትነ</w>
ሶ ታ</w>
ሶ ተን</w>
ሶ በ</w>
ሶ ሳይ</w>
ሶ ሲ
ሶ ማል</w>
ሶ ላ</w>
ሶ ላ
ስካ ንድ
ስካ ን</w>
ስካ ብ</w>
ስከ ዊት</w>
ስከ ረ</w>
ስእ ላይ</w>
ስትራ ተጅ
ስት ት</w>
ስር ጉል</w>
ስር ሓ
ስር ለ</w>
ስም ት</w>
ስ ጋድ
ስ ዴ
ስ ዱ</w>
ስ ደት</w>
ስ ዓ
ስ ዐው</w>
ስ ው</w>
ስ ዉ</w>
ስ ወ</w>
ስ ኳ
ስ ኬ
ስ ካሁ</w>
ስ ከር</w>
ስ ተን</w>
ስ ባን
ስ ሮም</w>
ስ ርት</w>
ስ ራይ
ስ ምን</w>
ስ መት</w>
ስ ለን</w>
ስ ህ
ሴ ስተርሲቲ</w>
ሴ ሮ</w>
ሴ ር</w>
ሴ ማ</w>
ሳድ ቅ</w>
ሳድ ሩ</w>
ሳን ቼ
ሳስ የት</w>
ሳስ ዐው</w>
ሳር ዬ</w>
ሳር ሖም</w>
ሳም ሕ</w>
ሳል ፋ
ሳል ሳይ</w>
ሳ ደፍ
ሳ ይድ</w>
ሳ ወ</w>
ሳ ንደር</w>
ሳ ንታ
ሳ ና
ሳ ኑ</w>
ሳ ቆ
ሳ ሱ</w>
ሳ ምነ</w>
ሳ ሌም</w>
ሳ ሀን</w>
ሲም ፖ
ሲ ፍ</w>
ሲ ድ
ሲ የት</w>
ሲ ንድ
ሲ ቶ</w>
ሲ ትነ</w>
ሲ ተ</w>
ሲ ቀት</w>
ሲ ሩ</w>
ሱ ፉ
ሱ ና</w>
ሱ ረት
ሱ ሎም</w>
ሰፍ ዩ</w>
ሰፈ ላል
ሰገ ድ</w>
ሰይ ደል
ሰየ ከ</w>
ሰው ረት</w>
ሰከ ሪ</w>
ሰአ የት</w>
ሰአ ሎም</w>
ሰን ዖ</w>
ሰና ቄ</w>
ሰነ ዕ</w>
ሰብ ዴ</w>
ሰብ ዬ</w>
ሰበ ጣ
ሰበ የ</w>
ሰበ ቱ</w>
ሰበ ተ</w>
ሰበ ብ
ሰር ናሁ</w>
ሰምዐ ን</w>
ሰም ዓ
ሰም ዐው</w>
ሰም ዐት</w>
ሰም ሐ</w>
ሰማ መዕ</w>
ሰማ ሕ</w>
ሰመዐ ነ</w>
ሰመ ዐት</w>
ሰሕ ቅ</w>
ሰላ ብ</w>
ሰላ ሕ</w>
ሰለ መ</w>
ሰ ፉ</w>
ሰ ጣ
ሰ ዳይት</w>
ሰ ይሐ
ሰ የን</w>
ሰ ዔ</w>
ሰ ዐድ
ሰ ዐር
ሰ ውመ</w>
ሰ ከብ
ሰ ንድ
ሰ ንቱ</w>
ሰ ናቱ</w>
ሰ ስነ</w>
ሰ ስተር</w>
ሰ ራት</w>
ሰ ራ</w>
ሰ ሪ</w>
ሰ ሜ</w>
ሰ ለፍ
ሮ ይድ</w>
ሮ ይ
ሮ ትነ</w>
ሮ ባ</w>
ሮ ረት</w>
ሮ ምቱ</w>
ሮ ማይ</w>
ሮ ማ</w>
ሮ ሆም</w>
ርክ የ</w>
ርከ ትለ</w>
ርከ ቱ</w>
ርከ ር</w>
ርኤ ናቱ</w>
ርኤ ና</w>
ርበ ነ</w>
ርሐ ነ</w>
ር ጌ</w>
ር ዬ
ር ዩ
ር ዉ</w>
ር አው</w>
ር አ</w>
ር ቶ</w>
ር ሓ</w>
ሬ ናይ</w>
ሬ ና
ሬ ሕቱ</w>
ራይ ዩብ</w>
ራክ ተር</w>
ራት ዐት</w>
ራቢ ጣ</w>
ራቀ በት</w>
ራሕ ማን</w>
ራ ጥየት</w>
ራ ዊት</w>
ራ ንስ</w>
ራ በበ</w>
ራ ቃ</w>
ራ ሬ</w>
ራ ራት</w>
ራ ምዬ</w>
ራ ሚ
ራ ልየት</w>
ሪ ደ</w>
ሪ ይ
ሪ ከት</w>
ሪ ናሁ</w>
ሪ ር
ሪ ረት</w>
ሩ ዳ</w>
ሩ ደት</w>
ሩ ካም</w>
ሩ ካ</w>
ሩ ሳ</w>
ሩ ም
ሩ ማ</w>
ረግ ዝ</w>
ረይ ሖም</w>
ረክ ስ</w>
ረአስ ማ
ረአ ነ</w>
ረአ ቱ</w>
ረት ዑ</w>
ረት ናመ</w>
ረብ ዪን</w>
ረብ ኩም</w>
ረበ ነ</w>
ረበ ሾ</w>
ረበ ሽ
ረሽ ዱ</w>
ረሸ ድ</w>
ረስ ት</w>
ረስ ቱ</w>
ረሰ ዖት</w>
ረሰ ዑ</w>
ረም ዝ</w>
ረመ ጭ</w>
ረሐ ቱ</w>
ረ ጎት</w>
ረ ግርግ</w>
ረ ጂ
ረ ዝ
ረ ዓት</w>
ረ ዓ
ረ ተኒ</w>
ረ ተብ
ረ ቨ
ረ ሳ</w>
ረ ሕቱ</w>
ሣ ይ</w>
ሣ ል</w>
ሠ ክ</w>
ሠ ኤ</w>
ሠ ል</w>
ሞ ይ</w>
ሞ ክ</w>
ሞ ኑ</w>
ሞ ትከ</w>
ሞ ቅራጥያይት</w>
ሞ ሻ
ሞ ሳ
ሞ ምቱ</w>
ሞ ምተ</w>
ሞ ም
ሞ ሕ</w>
ሞ ልድ</w>
ሞ ል</w>
ሞ ላድ
ምጸ አ</w>
ምግ ብ</w>
ምጅ ልስ</w>
ምያ ዩ</w>
ምያ ትነ</w>
ምዕ ያ
ምዕ ዉ</w>
ምዕ ወ</w>
ምዕ ቱ</w>
ምዕ ል
ምዐ የ</w>
ምው ዓ
ምን ድ
ምን ክ
ምን ቲ</w>
ምን ተ</w>
ምናድ ለት</w>
ምነ ኒ</w>
ምትክ ራ
ምበ ሪ</w>
ምበ ለ</w>
ምስ ነ</w>
ምስ ም
ምሰ ስ
ምም ምም
ምሔር ባይ</w>
ምል ሃይ
ም ይ</w>
ም ኬል</w>
ም እተ
ም ኖም</w>
ም ታይ</w>
ም ብራ
ም ብ</w>
ም ሽር
ም ሴ</w>
ም ሱ
ም ራት</w>
ም ሪ</w>
ም መን</w>
ም ልሕ
ሜ ክሲ
ሜ ትሪ
ሜ ታት</w>
ሜ ርከ</w>
ሜ ራስ
ማጽ ኦ</w>
ማግ ሌ</w>
ማይ ነ</w>
ማን ዴ
ማስ ሎ</w>
ማር የ</w>
ማር ነ</w>
ማሕ በር</w>
ማ ጤ</w>
ማ ጡ</w>
ማ ድሪ
ማ ዳ</w>
ማ ዮ</w>
ማ ዓ
ማ ዐት</w>
ማ ቴ</w>
ማ ተ
ማ ሸት</w>
ማ ስል</w>
ማ ሊ</w>
ማ ሆም</w>
ማ ህ</w>
ሚካ ኣኤል</w>
ሚን ጎ</w>
ሚ ጋ
ሚ ዴ</w>
ሚ ኢፋ
ሚ ኑ</w>
ሚ ሎ</w>
ሚ ላን</w>
ሙስተቅ በል
ሙ ፈ
ሙ ጥ</w>
ሙ ጅር
ሙ ዲር</w>
ሙ ይ
ሙ ዑ</w>
ሙ ወዘ
ሙ ክር
ሙ ክ</w>
ሙ አስ
ሙ ንተ
ሙ ነ
ሙ ሽ</w>
ሙ ስያ
ሙ ራት</w>
ሙ ራ
ሙ ማ</w>
ሙ ሓ
መጽ ኦ
መጽ አት</w>
መጽ አት
መጽ በጢ
መጺ ጸ
መጸ ከ</w>
መጸ ኒ</w>
መጭ ር</w>
መጣ ውር</w>
መጅ ልስ</w>
መጃ ግረ
መጃ ሜ
መድ ከ</w>
መድ ሓ
መዳ ርስ
መደ ጋ
መደ ድ
መደ የ</w>
መይ ም</w>
መዓ ል
መዐ ፍ
መዐ ደ
መዐ ን
መው ን</w>
መኽ ሉ
መክረ ሀ</w>
መክ ክ</w>
መክ ነ</w>
መክ ተብ</w>
መክ ሮም</w>
መንጠ ቀት
መንግ ስት
መንደ ብ</w>
መን ካ
መና ፍ
መና ግ
መነ ዝ
መትዐ ጃ
መትበ ሳ
መት ፈላ
መት ጨ
መት ክም</w>
መት ከበ
መት ከማ
መት ቤ
መት ቀራ
መት ሻቀ
መት ር
መት መዋ
መት መሃ
መት ሀና
መብ ዘ
መባ ድ
መባ ኒ
መበገ ሲ
መቅር ሖት</w>
መቅ ሬ
መቃ ዲ
መቃ ዪ
መቃ ረሐ</w>
መሽ ክ
መሽ ተር
መሽ ሩ
መሻ ይ
መሻ ዕ
መሻ ሬ
መስ ተዐ
መስ ለከ</w>
መስ ለት</w>
መሰ ንቆ
መሰ ን
መሰ ሉ</w>
መርከ ዘ</w>
መርሐ ባበ</w>
መር ገ
መር ዒ
መር ት
መር መ</w>
መር ሖ</w>
መር ሑ</w>
መራ ሕ</w>
መም ጽ
መሕ ፈዘ
መሓ ግ
መሐመድ ኑ
መል ያት</w>
መል ሃይ
መላ ብ
መ ፌ
መ ጻ</w>
መ ጎ</w>
መ ግ</w>
መ ዴ</w>
መ ዮ</w>
መ ዝ</w>
መ ዑ</w>
መ ዋ</w>
መ ወዝ
መ ወል
መ ከረ
መ ኤ
መ አር
መ አለ
መ ንት
መ ች
መ ቻ
መ ተከ</w>
መ ተነ</w>
መ በሽ
መ በር</w>
መ ቓ
መ ቄ
መ ሼ</w>
መ ሮም</w>
መ ሩ
መ መቅረሐ
መ መሕ
መ ሔር
መ ላት</w>
መ ሃ</w>
መ ሀድ
ሕፍ ዪን</w>
ሕፍ ዝ
ሕዳ ስ</w>
ሕዱ ግ</w>
ሕን ቃ
ሕን ቁ
ሕብረ ትሶ
ሕቁ ቅ
ሕሽ መት
ሕሳ ባ
ሕ ጋ
ሕ ያ</w>
ሕ ዘ
ሕ ንጎ
ሕ ና
ሕ ቦ</w>
ሕ ሴ
ሕ ሲን</w>
ሕ ሪር</w>
ሕ ረው</w>
ሕ ሞ</w>
ሕ መድ</w>
ሕ ሕ</w>
ሕ ሎ
ሕ ልፈ
ሕ ለት</w>
ሔዋ ናት</w>
ሔ ል
ሓይ መ</w>
ሓር ቅ</w>
ሓሪ ሽ</w>
ሓ ፋ
ሓ ጥር</w>
ሓ ጅ</w>
ሓ ያ
ሓ ኩ
ሓ ከ
ሓ ና</w>
ሓ ኑ</w>
ሓ ብር</w>
ሓ ህ</w>
ሒ ራ
ሐድ ሶ</w>
ሐድ ረት</w>
ሐደ ግ</w>
ሐዝ ዮ</w>
ሐዜ ኮ</w>
ሐበ ሬ
ሐቂ ቶ</w>
ሐስ ር</w>
ሐር ዩ</w>
ሐር መ</w>
ሐር ለ</w>
ሐረ ዉ</w>
ሐረ ቶም</w>
ሐሞ ድሪስ</w>
ሐም ድ
ሐም ዴ</w>
ሐም ቀ</w>
ሐ ጽበ
ሐ ጹ
ሐ ጥ</w>
ሐ ገል
ሐ ዳ</w>
ሐ ደት</w>
ሐ ንቱ</w>
ሐ ኒ
ሐ ኑ</w>
ሐ ነየ</w>
ሐ ቶ</w>
ሐ ትመ</w>
ሐ ቱ
ሐ ቨ
ሐ ብር
ሐ ቤ
ሐ ባብ</w>
ሐ ቁ
ሐ ሰው</w>
ሐ ራይ
ሐ ሪ</w>
ሐ ሚ
ሐ መጣ
ሐ መም
ሐ ሑ
ሐ ላይ
ሐ ላል
ሐ ለው</w>
ሎጂ ስቲ
ሎ ታይ</w>
ሎ ብ</w>
ልፈ ኒ</w>
ልጽ ቦ
ልያ ኖ</w>
ልው ሕድ</w>
ልከር ድ
ልከ ፎ</w>
ልእ ኮ
ልእ ከ</w>
ልአ ክ</w>
ልትዐ የ
ልትካ ሮ
ልትሀ ራ
ልት ገል
ልት አመረ
ልት አላ
ልት ናቀ
ልት ሰም
ልት ሰመ
ልት ረ</w>
ልት መየ
ልት መሐ
ልት ሐል
ልት ለበ
ልት ህየ
ልተ ራ
ልብ ት</w>
ልብ ቱ</w>
ልብ ል
ልብ ላ
ልብ ለሱ
ልበ የ</w>
ልሽ ሕ
ልስ ዴ
ልስ እ
ልስ ነ</w>
ልስ ት</w>
ልስ ም
ልስ መ</w>
ልስ ሑ
ልሳድ ፈ
ልሰ ው
ልር ፍ
ልር ኮ
ልም ትት</w>
ልም ሰለ
ልም ሐ
ልመ ዱ</w>
ልሕ ስ</w>
ልህ ት</w>
ል ፌ
ል ፈናት
ል ጽን
ል ጸበ
ል ጫ
ል ጨፍ
ል ደት</w>
ል ደ</w>
ል ዬመ</w>
ል ወ</w>
ል ካቱ</w>
ል ከምክ
ል ኤ
ል ንፍ
ል ነው
ል ነት</w>
ል ቱት</w>
ል ተአ
ል ተለ
ል ቓ
ል ሰብ
ል ርበ
ል ሠ
ል መን
ል ሐር
ል ልት</w>
ል ሌ</w>
ሌ ፍ</w>
ሌ ካ</w>
ሌ ሽ</w>
ሌ ማይ</w>
ሌ ሁመ</w>
ላፕ ቶ
ላይ ዝ</w>
ላንድ ዪን</w>
ላም ፔ
ላም ዱ</w>
ላ ፋት</w>
ላ እ
ላ ትት
ላ ቃ</w>
ላ ራ</w>
ላ ሎም</w>
ሊኮፕ ተራት</w>
ሊቨር ፑ
ሊ ኩም</w>
ሊ እ</w>
ሊ ንመ</w>
ሊ ትነ</w>
ሊ ትር</w>
ሊ ባ
ሊ ቡ</w>
ሊ በሉ
ሊ ለ</w>
ሉ ዕ</w>
ሉ ካ</w>
ሉ ቺ
ሉ ቶም</w>
ሉ ሞም</w>
ሉ ሌ</w>
ለፍ ድ
ለፈ ን</w>
ለፈ ኒ</w>
ለፈ ተ
ለጽ ዕ
ለጽ ን
ለጸ ር
ለጭ ን
ለጥ ም</w>
ለጠ ው</w>
ለጠ ምጠ
ለጠ ም
ለገ ልበ
ለጀ ራ
ለድ ግ
ለድ ንግ
ለድ ነ</w>
ለድ ቱ</w>
ለድ ሩ
ለደ ሚ
ለደ ሀ
ለይ እት
ለይ አስ
ለይ ን</w>
ለይ ሐስ
ለይ ሐ
ለይ ለአ
ለዝ ክር
ለዐ ደ
ለዐ ናቅ
ለው ድ
ለው ሽ</w>
ለዋ ተ</w>
ለወቅ ት</w>
ለክ ፈ</w>
ለከ ነ</w>
ለከ ቱ</w>
ለከ ሽ
ለከ ስተ
ለከ ም</w>
ለእን ወድ
ለኣ ቱ
ለኢት ትፈን
ለኢት ትፈ
ለኢት ትረ
ለኢት ረ
ለኢት ሀ
ለኢልት ዓ
ለኢ ጠ
ለኢ ዋ
ለኢ ወል
ለኢ ከሰ
ለኢ ሐሰብ
ለኢ ለአትሐዝ
ለኢ ለሐል
ለአፈ ግረ
ለአትሐ ላ
ለአት ፈር
ለአት ዐር
ለአት ሃግ
ለአት ሃጌ
ለአብ ሀ
ለአቅ ደረ
ለአስ ሕ
ለአ ደንግ
ለአ ደንገ
ለአ የ</w>
ለአ ወጀ
ለአ ክል
ለአ ኣ
ለአ ኒ</w>
ለአ ነቅ
ለአ ተሀንጦ
ለአ ሽዕ
ለአ ሻር
ለአ ርሐ
ለአ ረፍ
ለአ መሽ
ለአ መሕ
ለአ ልብ
ለአ ልበ
ለአ ለበ
ለን ዳ</w>
ለን ደ</w>
ለን አ
ለን ቃ
ለነ ጸ
ለነ ጅ
ለነ ሳ
ለትፈና ተው</w>
ለትወቀ ለት</w>
ለትከ ለቀ
ለትነ ደ
ለትሸ ንከ
ለትሰ መዐ
ለትመ ነሐ
ለትላ ኬ
ለት ፌ
ለት ፈደ
ለት ጻበ
ለት ገረ
ለት ደው
ለት ው
ለት ወተ
ለት ካረ
ለት ከብ
ለት ከም
ለት ኣ
ለት ንፋ
ለት ን
ለት ነድ
ለት ብል</w>
ለት ሻፈ
ለት ስሕ
ለት ሰል
ለት ምኔ
ለት ም
ለት ሐም
ለት ላከ
ለት ለከ
ለት ሀይ
ለታ ሪ
ለተአ ተን
ለተአ ተቅ
ለተሐ ባ
ለተ ፋ
ለተ ዐደ
ለተ ከ
ለተ አትፋ
ለተ ስ
ለተ ሕ
ለተ ሐም
ለተ ልሀ
ለብ ጽ
ለብ ካ</w>
ለበር ዕድ</w>
ለበ ኔ
ለበ ቱ</w>
ለበ ሽ
ለበ ለ
ለበ ህ
ለበ ሀ
ለቅ ጥ</w>
ለቅ ብላ
ለቅ ራ
ለቀ ጥ
ለቀ ሪ
ለሽ ዕ
ለሸ ፋ
ለሸ ግ
ለሸ ት
ለሸ ብ
ለስ ትራ
ለስ ላ
ለሳ ሜ
ለሰ ረ
ለሰ መዕ
ለሰ ለመ
ለረ ስመ
ለም ሕ
ለማ መ</w>
ለማ ህ
ለመት ነፈ
ለመሀ ዝ
ለመ ፍ
ለመ ጠ
ለመ ዝብ
ለመ ዋዲ
ለመ ክረ
ለመ እ
ለመ ስተ
ለመ ሰ
ለመ ለሀ
ለመ ሃ
ለሕ ሩ
ለሔ ሰ</w>
ለሓ ት</w>
ለሓ ል
ለሓ ሉ
ለሐ ዱ
ለሐ ው</w>
ለሐ ንገ
ለሐ ን
ለልአት ናይ
ለልአት ሓ
ለልት ዘ
ለልት ወሰ
ለልት ኣ
ለልት በረ
ለልት ቀደ
ለልት ቀረ
ለልት መጣ
ለልት መሳ
ለል ድ
ለል ካሁ</w>
ለል አግ
ለል አድ
ለል አን
ለል ናሀ</w>
ለል ተልሀ
ለል ቅ
ለል ርኡ
ለል መ</w>
ለለዐ ይ
ለለዐ ው
ለለአ ከስ
ለለአ ተም
ለለአ ር
ለለአ መጽ
ለለ ጥ
ለለ ዕ</w>
ለህ ግ
ለህ ር
ለሀይ ከ</w>
ለሀይ ብ
ለሀይ በ
ለሀ ደ
ለ ጤ
ለ ጋን
ለ ጊስ
ለ ጉ</w>
ለ ጁ
ለ ዶት</w>
ለ ዳፍ
ለ ዲና
ለ ዱ</w>
ለ ያነ</w>
ለ ያተ</w>
ለ ዝ</w>
ለ ዛብ
ለ ዙ
ለ ዋልዴ
ለ ወዕ
ለ ወላ
ለ ካረ
ለ ኪት</w>
ለ ኪቱ</w>
ለ ንግ
ለ ናይ</w>
ለ ቱመ</w>
ለ ቫይ
ለ ቦር
ለ ባይ</w>
ለ ሱ</w>
ለ ሜዛ
ለ ሜ</w>
ለ ሌኒ</w>
ለ ለእ
ለ ሂጋ
ሇ ሐ
ሆ ር</w>
ሆ ሙ</w>
ህይ ወታ
ህት ማም</w>
ህር ጋ
ህረ በት</w>
ህ ዮ
ህ ኮ
ህ ካ
ህ ነ
ህ ታ</w>
ህ ስ</w>
ህ ራ</w>
ህ ሩ
ህ ረሰ
ህ ሣ
ህ መው</w>
ህ ልከ</w>
ህ ላክ</w>
ህ ላ
ህ ለየ</w>
ህ ለው
ሄ ኮ</w>
ሄ ኖክ</w>
ሄ ቡ</w>
ሃገ ዮም</w>
ሃገ የን</w>
ሃጀ ክነ</w>
ሃይ በ
ሃ ፈ
ሃ ዳ
ሃ ይት</w>
ሃ ዩ</w>
ሃ ቶም</w>
ሃ ቡ</w>
ሃ ስ</w>
ሃ ረ</w>
ሃ ሃ</w>
ሂ ደት</w>
ሂ ን</w>
ሁ ርየት</w>
ሀድ ጉ</w>
ሀድ ድ</w>
ሀደ እ</w>
ሀይሌ ስላ
ሀበ ኒ</w>
ሀበ ል</w>
ሀም ሙ</w>
ሀመ ዩ</w>
ሀመ ዉ</w>
ሀመ ለ</w>
ሀ ደየ</w>
ሀ ንድስ</w>
ሀ ቼ</w>
ሀ ታ
ሀ ሰ</w>
ሀ ርነ</w>
ሀ ራት</w>
ሀ ሪ
ሀ ማ</w>
ሀ መየ</w>
ፖ ር</w>
ፕ ሎመ</w>
ፔ ሪ
ፓትር ያ
ፓራ ዲ
ፓ ንዮል</w>
ፓ ት</w>
ፓ ላ</w>
ፓ ላ
ፒ ተር
ፒ ስ</w>
ፐ ይ</w>
ፐ ን
ፎር ንየ</w>
ፎ ፍ</w>
ፎ ዙ</w>
ፎ ኮ</w>
ፎ ቶም</w>
ፎ ብ</w>
ፎ ልድ</w>
ፍዓ ዩ</w>
ፍንቱ ይ
ፍት ሑ</w>
ፍር ፍ</w>
ፍር ስ
ፍራ ሽ</w>
ፍሁ ሙ</w>
ፍ ጠ</w>
ፍ ጎ</w>
ፍ ግሮ</w>
ፍ ግር</w>
ፍ ጉ</w>
ፍ ደ
ፍ ይ</w>
ፍ ዪን</w>
ፍ የቱ</w>
ፍ ዉ</w>
ፍ አት</w>
ፍ ኑ</w>
ፍ ነት</w>
ፍ ትሓ
ፍ ትሐ
ፍ ታት</w>
ፍ ቲት</w>
ፍ በ</w>
ፍ ቕ
ፍ ቓ
ፍ ሶ
ፍ ሱ</w>
ፍ ሰሓ
ፍ ራ</w>
ፍ ሐ</w>
ፍ ልፍ
ፍ ሌ</w>
ፍ ላይ</w>
ፍ ሊ</w>
ፌ ፅ</w>
ፌ ብር
ፌ ሰር</w>
ፌ ራ
ፌ ል</w>
ፋጥ ና</w>
ፋግ ዑ</w>
ፋይ ቶ
ፋይ ል</w>
ፋይ ሌ</w>
ፋዝ ዖት</w>
ፋት ሕ</w>
ፋር ዬ</w>
ፋ ጥ</w>
ፋ ጠ
ፋ ዐት</w>
ፋ ው</w>
ፋ እደ
ፋ ትነ</w>
ፋ ትለ</w>
ፋ ታ</w>
ፋ ሞም</w>
ፋ ለል</w>
ፋ ህ
ፊ ኬት</w>
ፊ ከ</w>
ፊ ኤል</w>
ፊ ና</w>
ፊ ኒ</w>
ፊ ኑ</w>
ፊ ት
ፊ ቅ</w>
ፊ ልድ
ፉ እ</w>
ፉ ኡ</w>
ፉ ኑ</w>
ፈደሬ ሽ
ፈደ እ</w>
ፈይ ግ</w>
ፈዐ ጂ</w>
ፈዐ የ</w>
ፈዐ ን</w>
ፈዐ ተ</w>
ፈን ጨ
ፈን ጥሩ</w>
ፈን ጠር
ፈን የ</w>
ፈን ቴቱ</w>
ፈን ቱ
ፈና ታይ</w>
ፈት ዎ</w>
ፈት ዉ
ፈት ኪ</w>
ፈት ሐት</w>
ፈቴ ት</w>
ፈቴ ቱ</w>
ፈተ ዩ</w>
ፈቅ ኮ</w>
ፈርሐ ኮ</w>
ፈር ገ</w>
ፈር ዮም</w>
ፈር ዕ</w>
ፈር መሽ
ፈራ ጅ</w>
ፈረ ጀ</w>
ፈረ ጀ
ፈረ ንሳ
ፈረ ን</w>
ፈረ ስ</w>
ፈረ ሕ
ፈረ ሆም</w>
ፈረ ሀ</w>
ፈሀ ሞም</w>
ፈ ፊ</w>
ፈ ጠ</w>
ፈ ግራ
ፈ ገ
ፈ ጅር
ፈ ዚ</w>
ፈ ዙ</w>
ፈ ዖት</w>
ፈ ዐል
ፈ ዎ</w>
ፈ ውሽ</w>
ፈ ወቂ
ፈ ክሮ</w>
ፈ ከር
ፈ ኖ</w>
ፈ ኔ</w>
ፈ ቶ</w>
ፈ ሸ</w>
ፈ ሶት</w>
ፈ ስል
ፈ ሰት</w>
ፈ ሮት</w>
ፈ ሬሕ</w>
ፈ ሐ
ፈ ሎም</w>
ፈ ህ</w>
ፈ ሀም</w>
ፇ ት</w>
ፅ ያ
ፅ ንታ
ፅ ን</w>
ፅ ነ
ፅ ራ</w>
ፅ መ</w>
ፃ ም</w>
ፀ ዩ</w>
ፀ ራ</w>
ፀ ም</w>
ጾ ዕ</w>
ጾ ቱ</w>
ጾ ረ</w>
ጽዕ ኑ</w>
ጽን ዓ
ጽን ሕ</w>
ጽበ ጦ</w>
ጽበ ሐ</w>
ጽርግ ያ
ጽርግ የ</w>
ጽሕ ዎ</w>
ጽ ፎ</w>
ጽ ድ</w>
ጽ ድ
ጽ የ</w>
ጽ ዐ</w>
ጽ ሮ</w>
ጽ ሪ</w>
ጽ ሓይ</w>
ጽ ሓም</w>
ጼ ወ</w>
ጼ ኪ</w>
ጼ ከ</w>
ጼ እ</w>
ጻ ድ
ጻ ዕ</w>
ጻ ና</w>
ጻ ባ</w>
ጻ ቡጡ</w>
ጻ ረር</w>
ጻ ሁ</w>
ጺ ጽ</w>
ጺ ብ</w>
ጹ ቡ</w>
ጹ ም</w>
ጸገ ዐት</w>
ጸዐ ኖ</w>
ጸዐ ና</w>
ጸአ የ</w>
ጸአ ኒ</w>
ጸአ ር</w>
ጸንሐ ከ</w>
ጸን ሖ</w>
ጸን ሐት</w>
ጸብ ጣ
ጸብ ጠት</w>
ጸበር ኒ</w>
ጸበረ ቱ</w>
ጸል መተ</w>
ጸ ጽ</w>
ጸ ዕዳ
ጸ ከ</w>
ጸ ነሕ
ጸ ቡ</w>
ጸ ቅ
ጸ ሮ</w>
ጸ ሬ</w>
ጸ ረት</w>
ጸ ምብ
ጸ ሙ</w>
ጸ ልዕ
ጸ ልምት</w>
ጸ ላም
ጸ ለ</w>
ጶ ስ</w>
ጵ የ</w>
ጳ ጳ
ጳ ላ</w>
ጭበ ጨ</w>
ጭሮ ርሕ</w>
ጭሮ ር
ጭረ ሬሕ</w>
ጭ ፎ</w>
ጭ ገር</w>
ጭ ድ</w>
ጭ ቁ</w>
ጭ ራ
ጬ ፌ</w>
ጬ ወት
ጫ ፍር</w>
ጫ ይት</w>
ጫ ቱ</w>
ጫ በ
ጫ ረ</w>
ጫ ል</w>
ጫ ለ</w>
ጪ ያ</w>
ጩ ጨ</w>
ጩ ዜ
ጩ ን</w>
ጩ ቱ</w>
ጩ ሉ</w>
ጨራ ብብ</w>
ጨ ፉ</w>
ጨ ዋርሐ</w>
ጨ ወ
ጨ ክ
ጨ ከ</w>
ጨ ንገ
ጨ ኑ</w>
ጨ ቢ
ጨ በት</w>
ጨ በ
ጨ ቀጥ</w>
ጨ ቀት</w>
ጨ ቀም</w>
ጨ መር
ጨ መም</w>
ጦ ብ</w>
ጦ ስ
ጦ ሩ</w>
ጦ መ</w>
ጥዑ ም
ጥቀ ጢን</w>
ጥ ዐ</w>
ጥ ወ</w>
ጥ ካሁ</w>
ጥ ቢ
ጥ ቁ</w>
ጥ ረን</w>
ጣ ጠት</w>
ጣ ኣት</w>
ጣ ኒት</w>
ጣ ኒ</w>
ጣ ነ</w>
ጣ ነ
ጣ ትነ</w>
ጣ ቅዕ</w>
ጣ ሸት</w>
ጣ ርቅ</w>
ጣ ረቱ</w>
ጣ ላ</w>
ጢ ርዬ</w>
ጡ ፍ</w>
ጡ ት</w>
ጡ ራት</w>
ጠጠ ዕ</w>
ጠዓ ሞ</w>
ጠዐ ስ</w>
ጠብ ጠብ</w>
ጠብ ዩ</w>
ጠብ ዐ</w>
ጠባ ዕ</w>
ጠር ፍ</w>
ጠር ዕ</w>
ጠር ብ
ጠር ለ</w>
ጠረ ሚን</w>
ጠም ዕ</w>
ጠ ይት</w>
ጠ ያ</w>
ጠ ዚ
ጠ ዕ
ጠ ዋር</w>
ጠ ኖም</w>
ጠ ና</w>
ጠ ትከ</w>
ጠ ብየ</w>
ጠ ሮም</w>
ጠ ሬ
ጠ ረተ</w>
ጠ ሉ
ጓ ን
ጓ ሮ</w>
ጎ ዳይ
ጎ ሩ</w>
ግዕ ዞ</w>
ግንደ ዕ
ግን ራ
ግን ሓ
ግብ አት
ግብ አ</w>
ግብ ት</w>
ግብ ሮ</w>
ግብ ለት</w>
ግር በት</w>
ግር ማ
ግራ ነ</w>
ግራ ሆም</w>
ግ ደ
ግ ያም</w>
ግ ዛ</w>
ግ ዒ</w>
ግ ውር
ግ ወ</w>
ግ ንፈ
ግ ንግ
ግ ንሕ
ግ ኔዕ</w>
ግ በር</w>
ግ ሱ</w>
ግ ማ</w>
ግ ሎም</w>
ግ ልእ
ግ ላም</w>
ጌ እ</w>
ጌ ስ</w>
ጌ ሰው</w>
ጌ መ
ጌ ል</w>
ጌ ሆም</w>
ጋይ ቱ</w>
ጋይ ሶ</w>
ጋይ ሰት</w>
ጋን ሖም</w>
ጋብ እ</w>
ጋብ አት</w>
ጋብ ሄር
ጋር ድዮ
ጋ ግ
ጋ ድም</w>
ጋ ዛ</w>
ጋ ንሕ
ጋ ነሐ
ጋ ታ</w>
ጋ በሀ
ጋ ርመ</w>
ጋ ራት</w>
ጋ ልብ</w>
ጊ ሲ</w>
ጊ ሰት</w>
ጊ ም</w>
ጊ ል
ጉስታ ቭ
ጉ ቡ</w>
ገደ ዕ</w>
ገደ ብ</w>
ገይ ስቱ</w>
ገዐ ዝ</w>
ገብሬ ስላሴ
ገብረ ኤል</w>
ገብ አው
ገብ ሮ</w>
ገቢ ል
ገስ ዮም</w>
ገር ዬ</w>
ገራ ገም</w>
ገራ ብ</w>
ገራ መ</w>
ገም ቤ</w>
ገም ሎ</w>
ገሕ ቴ
ገል ገላ
ገል ድ</w>
ገል ናሁ</w>
ገሌ ታት</w>
ገ ፋ
ገ ግ
ገ ጋ</w>
ገ ዳይ
ገ ደል</w>
ገ ዩ
ገ ዛይ
ገ ዙ</w>
ገ ኔ
ገ ነፍ
ገ ቶ</w>
ገ ትከ</w>
ገ ቦ
ገ ቡ</w>
ገ ራይ</w>
ገ ምነ</w>
ገ ሐሩ</w>
ገ ለየ</w>
ገ ህ</w>
ጆር ጂ
ጆ ክ</w>
ጆ ስ</w>
ጆ ሜ
ጆ ላይ</w>
ጅ ዖት</w>
ጅ ዖም</w>
ጅ ዐ</w>
ጅ ኮ</w>
ጅ ኦ</w>
ጅ ኦ
ጅ ብት</w>
ጅ ቡ</w>
ጅ ቡ
ጅ በነ</w>
ጅ በት</w>
ጅ ሮ</w>
ጅ ምዕ</w>
ጅ መት</w>
ጅ ላ</w>
ጅ ሀት</w>
ጃህ ዲን</w>
ጃ ድ</w>
ጃ ዝማች</w>
ጃ ዝ
ጃ ው
ጃ ዋ
ጃ ክ
ጃ ትነ</w>
ጃ ብር</w>
ጃ ቅፍ</w>
ጃ ርብ</w>
ጃ ሚ
ጃ ሕ</w>
ጃ ልያ
ጃ ልየት</w>
ጂኦ ቅራ
ጂ ዮ
ጂ የት</w>
ጂ ት</w>
ጁ ድ</w>
ጁ ን
ጁ ስ</w>
ጁ ህ</w>
ጀግ ሐ</w>
ጀነ ድ</w>
ጀር መን
ጀር ሒነ</w>
ጀራ ዲን</w>
ጀረ ሰ</w>
ጀማ ዐ</w>
ጀሀ ቱ</w>
ጀ ግር</w>
ጀ ጌሕ</w>
ጀ ዘ
ጀ ዐት</w>
ጀ ዐቱ</w>
ጀ ወ</w>
ጀ ኮ</w>
ጀ ክት</w>
ጀ ኒ
ጀ ርሐ
ጀ ረው</w>
ጀ ሙ</w>
ጀ ሌ</w>
ጀ ሃት</w>
ዶ ኦ</w>
ዶ እ</w>
ዶ ቭ</w>
ዶ ሮም</w>
ዶ ማ
ዶ ልፍ</w>
ዶ ልቱ</w>
ዶ ልመ</w>
ዶ ሊ</w>
ዶ ሀ</w>
ድግ ድ</w>
ድግ ዬ</w>
ድግ ም
ድጋ ሁ</w>
ድን ቦ
ድር ዬ</w>
ድራ ሳት</w>
ድራ ል</w>
ድሪ ብ</w>
ድረ የ</w>
ድሕ ነነ</w>
ድሕ ቱ</w>
ድሕ ሮ</w>
ድሕ ረት</w>
ድ ጌ</w>
ድ ዲን</w>
ድ ዩን</w>
ድ ው</w>
ድ ዌ
ድ ዋን</w>
ድ ካሁ</w>
ድ ኔ
ድ ና
ድ ትተ</w>
ድ ሱ</w>
ድ ራት</w>
ድ ራም</w>
ድ ሊ</w>
ድ ሊ
ዴ ዱ</w>
ዴ ኩወ</w>
ዴ ታት</w>
ዴ ተነ</w>
ዴ ስ
ዴ ላት</w>
ዳፍ ዑ</w>
ዳገ ኑ</w>
ዳይ ግ</w>
ዳይ ድ</w>
ዳይ ና</w>
ዳይ ብ</w>
ዳይ ለ</w>
ዳው ዮም</w>
ዳው ዮ</w>
ዳው ም</w>
ዳብ ያም</w>
ዳብ አ</w>
ዳር ክ</w>
ዳር ሳም</w>
ዳም ቶም</w>
ዳ ዴ</w>
ዳ ዌ
ዳ ኽ
ዳ ንመ</w>
ዳ ኑ</w>
ዳ ነት</w>
ዳ ታ</w>
ዳ ምመ</w>
ዳ ማይ</w>
ዳ ሚ</w>
ዳ ሕየት</w>
ዳ ሌ
ዳ ላይ</w>
ዳ ሊ</w>
ዳ ለው</w>
ዳ ሀን</w>
ዲዛ ይን</w>
ዲብሎ ማስ
ዲሞ ክራ
ዲሙ ቅራጥ
ዲ ፓርት
ዲ ዳ</w>
ዲ ያ</w>
ዲ ዪን</w>
ዲ ከ</w>
ዲ ኖም</w>
ዲ ሉ</w>
ዲ ለ</w>
ዱ ፎም</w>
ዱ ግ
ዱ ዳት</w>
ዱ ያት</w>
ዱ ዩ</w>
ዱ ዩ
ዱ ና</w>
ዱ ተ</w>
ዱ ቕ</w>
ዱ ሮም</w>
ዱ ላም</w>
ደፍ ዐት</w>
ደፍ ከ</w>
ደፈ ዖ</w>
ደፈ ው</w>
ደግ ደ
ደጋ ግመ</w>
ደገ ጎ</w>
ደገ መት</w>
ደይ ቱ</w>
ደይ ም</w>
ደው ረ
ደው ል</w>
ደአ ም</w>
ደንጎ በ</w>
ደንገ ር</w>
ደን ከ</w>
ደብ ኡ</w>
ደብ አት</w>
ደባ ን</w>
ደቀ ቱ</w>
ደቀ ምሐሬ</w>
ደር ግ
ደር ቢን</w>
ደር ስፊልድ</w>
ደር ሲን</w>
ደራ ቶም</w>
ደረ ሳይ
ደም ኖ</w>
ደም ቦ
ደም ቤ
ደም ራይ</w>
ደመ ዖ</w>
ደሐ ሮ</w>
ደል ቃድር</w>
ደሀ ረ</w>
ደ ያሀ</w>
ደ ዛ
ደ ዕሮ
ደ ዔ</w>
ደ ዋር
ደ ወል
ደ ወ
ደ ትኩም</w>
ደ ቲት</w>
ደ ቱ
ደ ተኒ</w>
ደ ቤ
ደ ቡ</w>
ደ በው</w>
ደ ሮቱ</w>
ደ ምቱ</w>
ደ ሜ</w>
ደ ማ</w>
ደ ሐነ</w>
ደ ሌ
ደ ለተ</w>
ዮጵ የ</w>
ዮ ና</w>
ዮ ር</w>
ዮ ሀንስ</w>
ይእ ነ
ይእ ቱ</w>
ይአመ መ
ይአ ለብ
ይሐ ዘ
ይ ፈሀም
ይ ዲ</w>
ይ ዮ</w>
ይ የት</w>
ይ እግ
ይ ኣመር
ይ ኢን
ይ አፍረ
ይ አጥፈ
ይ አጅ
ይ አዘ
ይ አከ
ይ አስእ
ይ አምጽ
ይ አምጸ
ይ ናይ</w>
ይ ናመ</w>
ይ ነር</w>
ይ ታይ</w>
ይ ቅ</w>
ይ ስት</w>
ይ ርጋ
ይ መስ
ይ ሀመ
ዬ ጎ</w>
ዬ ዩ</w>
ዬ ሕቱ</w>
ዬ ል</w>
ያም ኪ</w>
ያ ጠት</w>
ያ ዱ</w>
ያ ደቱ</w>
ያ ይከ</w>
ያ ዐ
ያ ቶ
ያ ትቱ</w>
ያ ባ
ያ ቆ
ያ ስመ</w>
ያ ሞ</w>
ያ ሐት</w>
ያ ሆ</w>
ዪ ኑ</w>
ዪ ሕ</w>
ዩ ፎም</w>
ዩ ዬ</w>
ዩ ዩ</w>
ዩ ዎ</w>
ዩ እ</w>
ዩ ኑ</w>
የማ ኔ
የመ መው</w>
የ ገት</w>
የ ገ</w>
የ ዐጅ
የ ዐል
የ ከ</w>
የ አንተብ
የ ንኮ</w>
የ ና</w>
የ ነው</w>
የ ነ
የ ቼተ</w>
የ ታት</w>
የ ተት</w>
የ ባ</w>
የ ባ
የ ሶ</w>
የ ርኮ</w>
የ ሠ
የ ምም</w>
የ መዩ</w>
የ ሖ</w>
የ ሃንስ</w>
የ ሁ
ዥ ያ</w>
ዣ ት</w>
ዞ ቲ
ዞ ሖ</w>
ዞ ል</w>
ዝጊ ሄር</w>
ዝያረት ዝያረት</w>
ዝያ ደ</w>
ዝ ይ</w>
ዝ ያተ</w>
ዝ ያመ</w>
ዝ ያሁ</w>
ዝ የ
ዝ ክራ
ዝ ተዓ
ዝ ቢ</w>
ዝ ስ
ዝ ሮ</w>
ዝ ራ
ዝ ሓ</w>
ዝ ላም
ዜ ይ
ዜ ናይ</w>
ዜ ናቱ</w>
ዜ ሪ</w>
ዛብ ጡ</w>
ዛ ድ</w>
ዛ ዙ</w>
ዛ ዘ</w>
ዛ ከ</w>
ዛ እ
ዛ ንየት</w>
ዛ ቤት</w>
ዛ ቡ</w>
ዛ ሬ
ዛ ልም</w>
ዚ ዶ</w>
ዚ ክ</w>
ዚ ንጎ
ዚ ህ</w>
ዚ ሁ</w>
ዙ እ</w>
ዙ ብ</w>
ዙ ማት</w>
ዘብ ዩ</w>
ዘር ኣይ
ዘም ተ
ዘ ጨ
ዘ ግ</w>
ዘ ዮት</w>
ዘ ዛ</w>
ዘ ኻ
ዘ ክ</w>
ዘ ኖት</w>
ዘ ቶ</w>
ዘ ቢ</w>
ዘ በን</w>
ዘ ቆት</w>
ዘ ስተ
ዘ ሞት</w>
ዘ መት
ዘ መተ</w>
ዘ ሕ
ዘ ልም</w>
ዘ ሉ</w>
ዘ ለት</w>
ዘ ለም
ዖ ን</w>
ዖ ተን</w>
ዖ ሆም</w>
ዕዳ እ</w>
ዕያ ል</w>
ዕንጃረ ዕንጃረ
ዕን ጃ
ዕን ታት</w>
ዕር ፍ</w>
ዕላ ቀት</w>
ዕ ጭ
ዕ ግ</w>
ዕ ዶ</w>
ዕ ድየ</w>
ዕ የቶም</w>
ዕ ዛ</w>
ዕ ና
ዕ ኑ</w>
ዕ ትሮ
ዕ ቴ</w>
ዕ ታ</w>
ዕ ቢ</w>
ዕ ቅብ
ዕ ቅ</w>
ዕ ቃ
ዕ ሱ</w>
ዕ ሮታት</w>
ዕ ሞ</w>
ዕ ሎ
ዕ ለቀ
ዔ ት
ዔ ረ</w>
ዔ ማ
ዔ ሆም</w>
ዔ ሀ</w>
ዓይ መ</w>
ዓብ ዮም</w>
ዓ ፈ</w>
ዓ ጩ
ዓ ዝማ
ዓ በ</w>
ዓ ሽ</w>
ዓ ስ</w>
ዓ ራት</w>
ዓ ሪ
ዓ ረፍ
ዓ ሞም</w>
ዓ መት</w>
ዓ መት
ዓ ልየት</w>
ዓ ላ
ዓ ሊ</w>
ዒ ድ
ዒ ደ</w>
ዒ ናት</w>
ዒ ታይ</w>
ዒ ራቅ
ዑ ናም</w>
ዑ ና</w>
ዑ በ</w>
ዑ ር
ዑ ሩ
ዐገ ባ</w>
ዐጅ ቦ</w>
ዐጅ ብቱ</w>
ዐጅ በ
ዐጀ ላ
ዐድ ነ
ዐድ ለ</w>
ዐዳ ጋ
ዐዲ ዃ
ዐደ ዮ</w>
ዐደ ም</w>
ዐይ ብከ</w>
ዐይ ብ
ዐዘ ዩ</w>
ዐብ ዱ</w>
ዐብ የ</w>
ዐብ ቱ</w>
ዐቅ ብል</w>
ዐሸ መ</w>
ዐስከ ሪ
ዐር ገ</w>
ዐር ኮ
ዐረ ብ</w>
ዐም በል
ዐል ቱ</w>
ዐል ቦ</w>
ዐል ለ</w>
ዐለ ነት</w>
ዐለ ሙ</w>
ዐ ፎ
ዐ ፈ</w>
ዐ ጤ
ዐ ዳት</w>
ዐ ደም
ዐ ደል
ዐ ዮት</w>
ዐ ዞ</w>
ዐ ዚዝ</w>
ዐ ዎም</w>
ዐ ዎ</w>
ዐ ከር</w>
ዐ ኖ</w>
ዐ ንሰበ</w>
ዐ ት
ዐ ተነ</w>
ዐ ቤ</w>
ዐ ባይ</w>
ዐ በው</w>
ዐ ስተ
ዐ ርበ
ዐ ምበ
ዐ ሉ
ዐ ለግ
ዐ ለእ
ዎ ክ</w>
ዎ ች</w>
ዎ ስ
ዎ ርት</w>
ዎ ሉ</w>
ውድ ዩ</w>
ውር ተ</w>
ውራ ዩ</w>
ውራ ሁ</w>
ውረ ድ</w>
ውረ ኒ</w>
ውሕ ጠ</w>
ውሕ ደት</w>
ውሕ ር</w>
ውላ ጄ</w>
ውላ ይት</w>
ው ጽ</w>
ው ዮም</w>
ው ይ
ው የቶም</w>
ው የተ</w>
ው ኔ
ው ቅ</w>
ው ሻ
ው ም
ው ሓ
ው ሊ
ዌ ታይ</w>
ዋጅ ሆም</w>
ዋይ ደት</w>
ዋይ ቱ</w>
ዋን ዳ</w>
ዋቅ ሎ</w>
ዋር ዬ</w>
ዋል ዮም</w>
ዋል ብ</w>
ዋ ጭ
ዋ ዬ</w>
ዋ ከ</w>
ዋ ታ</w>
ዋ ሺ
ዋ ሴ</w>
ዋ ሳ</w>
ዋ ላ
ዋ ለ
ዋ ሆም</w>
ዊ ዬ</w>
ዊ ናት</w>
ዊ ልያ
ዊ ለት</w>
ዊ ህ</w>
ዉ ዝ</w>
ዉ ካ</w>
ዉ ኩም</w>
ዉ ሽ</w>
ዉ ራም</w>
ዉ ራ</w>
ዉ ለ</w>
ወፍ ዕ
ወፍ ሊ
ወፈ ታ
ወጸ ራ
ወጥ ብ
ወጣ ቅ
ወጠ ንየት</w>
ወጠ ባ
ወጠ ል
ወገ ንደ
ወገ ንሐ
ወገ ና
ወገ ባይ
ወገ ራ
ወገ ም</w>
ወገ ም
ወጂ ብ
ወጀ ድ</w>
ወጀ ደ</w>
ወጀ ዛይ
ወጀ ው
ወጀ ብ</w>
ወጀ ራይ
ወጀ ረ
ወጀ ህ
ወዶ ል
ወድ ፍ
ወድ ግ</w>
ወድ ሑ</w>
ወዴ ቱ</w>
ወዳይ ና
ወዲ ብሎ
ወደ ያ
ወደ ዩ</w>
ወደ የ</w>
ወደ ዋይ
ወደ ን</w>
ወደ ና
ወደ ቀም
ወደ ሐት</w>
ወይ ደል</w>
ወይ አ
ወዝ ዑ</w>
ወዝ ሕሮ
ወዝ ሕ
ወዘ ዐ</w>
ወዓ ድ
ወዐ ጣ
ወዐ ገብ
ወዐ ት</w>
ወዐ ማ
ወዐ ላ
ወዐ ለት</w>
ወው ፋ
ወው ሕደ
ወክ ዱ</w>
ወክ ን</w>
ወክ ና
ወክ ስ
ወክ ሪ
ወከ ደ
ወከ ያ
ወከ ሚ
ወከ ሊ
ወኦ ር
ወእን ግሊ
ወእን ጌ
ወእን ዳ
ወእን ደ
ወእት ፋ
ወእት ሓ
ወእት ሐ
ወእም ባ
ወእሕ ትራ
ወእህ ትማ
ወእ ደ
ወእ ዕ
ወእ ብ</w>
ወእ ሳ
ወእ ሕሳ
ወኢን ተር
ወኢት ደ
ወኢት ር
ወኢት ሐ
ወኢ ዳ
ወኢ ው
ወኢ ተ
ወኢ በር
ወኢ በል
ወኢ ረክ
ወኢ መ
ወኢ ልትከ
ወኢ ልሰ
ወኢ ለሀ
ወአፍ ሸ
ወአጥ ራ
ወአድ ኖ
ወአድ ሐ
ወአት ዛ
ወአት ዓ
ወአት አመ
ወአት ሻፈ
ወአት መሳ
ወአት ሐደ
ወአት ሌ
ወአብ ዘ
ወአስ ቶን
ወአ ፌ
ወአ ፋ
ወአ ገ
ወአ ዲ
ወአ ዜ
ወአ ውረ
ወአ ኖ
ወአ ንድ
ወአ ተግ
ወአ ቅር
ወአ ቀ
ወአ ሰአ
ወአ ሰና
ወአ ርኤ
ወአ ምጽ
ወአ ሓ
ወአ ልባ
ወአ ህዳ
ወአ ሀም
ወኖ ቱ</w>
ወኖ ስ
ወንጌ ል</w>
ወን ጉ
ወን ተር</w>
ወን ሰ
ወና ቀ
ወነ ጹ
ወነ ድ
ወነ ያ</w>
ወነ ኣይ
ወነ አተ
ወነ ባሪ
ወነ ሸ
ወነ ሳይ
ወነ ሓ
ወትት ሀ
ወትበ አሰ
ወትረ የ
ወት ፈረ
ወት ዓ
ወት ኪ</w>
ወት ከተ
ወት ከበተ
ወት ከለ
ወት ነፈ
ወት ትዋ
ወት ትባ
ወት ታ
ወት በሰ
ወት በሀ
ወት ሸን
ወት ሰፋ
ወት ሰጀ
ወት ሰአል
ወት ሰአ
ወት ሰን
ወት ሰር
ወት ርበ
ወት ሪ
ወት ልህ
ወት ህ
ወታ ውት</w>
ወተዕ ቢ
ወተዕ ሊ
ወተአ ተ
ወተቅ ዪ
ወተ ጥ
ወተ ጀ
ወተ ካ
ወተ ኣ
ወተ ብዐ
ወተ ቃ
ወተ ራ
ወተ ረ
ወተ ለፍ
ወተ ለ
ወብ ዝሕ
ወብ እስ
ወበ ደ
ወበ ቅ
ወበ ሀ
ወቅ የ</w>
ወቅ ት
ወቀ ጥ
ወቀ ድ
ወቀ ይ</w>
ወቀ ብ
ወሽን ሂ
ወሽ ከ</w>
ወሽ ር
ወሻ ፍ
ወሸ ክ
ወሸ ከ
ወሸ ት</w>
ወሸ ረ
ወስ ፍ</w>
ወስ ፍ
ወስ ዊ
ወስ ኩ</w>
ወስ ቅ</w>
ወስ ሜ
ወስ ሙ
ወሴ ም
ወሳ ድ
ወሳ ዕ</w>
ወሰ ጃ
ወሰ ጀ
ወሰ ውረ
ወሰ ንቅ
ወሰ ን</w>
ወሰ ነ
ወሰ ሜ
ወሰ ልጠ
ወር ወር</w>
ወር ስ
ወር ህ</w>
ወራ ክ
ወራ ታ
ወራ ቀ
ወራ ራ
ወረ ይሐ
ወረ ነ</w>
ወረ ስ
ወረ ር</w>
ወምስ ትንክ
ወም ራድ
ወም ሒ
ወም ልክ
ወመዓ ወነ
ወመት ፈን
ወመት ገ
ወመት ጃግረ
ወመት ካ
ወመት ከብ
ወመት ኣ
ወመት ነ
ወመት ሰባ
ወመት ረ
ወመት ማ
ወመት ሐራ
ወመት ሃ
ወመስ ለሐ
ወመር ዓ
ወመ ዋዲ
ወመ ካፍ
ወመ ካሪ
ወመ አንብ
ወመ ንግ
ወመ ተን
ወመ ተልህ
ወመ ብር
ወመ ቀይ
ወመ ሻቀዪ
ወመ ሰል
ወመ ምባ
ወመ ምበ
ወመ ሐብ
ወመ ሐር
ወመ ሐም
ወመ ልአ
ወመ ለሀ
ወመ ህ
ወሕ ጉ
ወሕ ደት</w>
ወሕ ነ</w>
ወሕ ቁ
ወሕ ሜ
ወሓይ ዝ</w>
ወሓ ዚ
ወሓ ዋ
ወሓ ቱ</w>
ወሓ ስ
ወሐ ዳ
ወሐ የ
ወሐ ዞ
ወሐ ቂ
ወሐ ቀ
ወሐ ሙ
ወልት በ
ወልት ሻ
ወልት ሰሐ
ወልት ረ
ወል ፍ</w>
ወል ጽ
ወል ጅ
ወል ዲ</w>
ወል ዉ
ወል አት
ወል ቡ</w>
ወል ቃ
ወል ሰ
ወላ ሁ</w>
ወለአ ጽ
ወለአ ተን
ወለአ ተባ
ወለአ ተር
ወለት ደ
ወለት ወረ
ወለት ከሰ
ወለት ት
ወለት ቃ
ወለሐ ንቅ
ወለ ፋ
ወለ ጽ
ወለ ዐው
ወለ ዋ
ወለ ና
ወለ ነፍ
ወለ ተሀ
ወለ ቀር
ወለ ረክበ
ወለ ረኤ
ወለ መድ
ወለ መደ
ወለ ሐዝ
ወለ ለዓ
ወለ ለአስ
ወለ ለአሰ
ወህ ካ
ወሀ ደ
ወሀ ንደ
ወሀ ር
ወሀ መ</w>
ወ ጽበ
ወ ጨቅ
ወ ጨ</w>
ወ ጥ</w>
ወ ጢ
ወ ጡ
ወ ጂ</w>
ወ ዲ</w>
ወ ዜዕ</w>
ወ ዋይዲ
ወ ወዓ
ወ ወሳይ
ወ ናይ</w>
ወ ናት</w>
ወ ቼልሲ
ወ ቀ</w>
ወ ሳ</w>
ወ ሬዕ</w>
ወ ራይ
ወ ሄር
ወ ሄረ
ወ ሃይ
ዅ </w>
ኽ ት
ኹ ም</w>
ኹ ል</w>
ኸ ር
ኸ ልፍ
ኮር ያ</w>
ኮማ ድሪድ</w>
ኮ ድ</w>
ኮ ይ</w>
ኮ ኩ</w>
ኮ ንግ</w>
ኮ ንግ
ኮ ንት
ኮ ንተ
ኮ ቪች</w>
ኮ ቪ
ኮ ቨ
ኮ ስታ
ኮ ሬ
ኮ ረ
ኮ ሠ
ኮ ሞ
ኮ ሎጂ</w>
ኮ ሉ
ኮ ለ
ኮ ሆኒ</w>
ክፍ እ</w>
ክእ ኒ</w>
ክቶ በር</w>
ክቶ ረት</w>
ክተ ቦ</w>
ክተ ቡ</w>
ክቡ ድ</w>
ክስ የት</w>
ክሳ ንደር</w>
ክሮ ኖ
ክር ዑ</w>
ክር ስቶ
ክሪስታ ል</w>
ክረ ይ</w>
ክምሰሌ ሁ</w>
ክሎ ሮ
ክል ዬ</w>
ክል ቲ</w>
ክሉ ቅ</w>
ክሉ ቃት</w>
ክ ፋ</w>
ክ ፀ
ክ ደ</w>
ክ ዝ
ክ ዘ</w>
ክ ዔ
ክ ዉቱ</w>
ክ ዉተ</w>
ክ ዉ
ክ ኡ</w>
ክ ንር
ክ ታት</w>
ክ ቲ</w>
ክ ተት</w>
ክ ብት</w>
ክ ብመ</w>
ክ ሱ</w>
ክ ሞ</w>
ክ ሜ
ክ ሚ</w>
ክ መ
ክ ላይ</w>
ክ ለስ</w>
ክ ሂ
ኬ ፕ
ኬ ፈ</w>
ኬ ድማ
ኬ ካ</w>
ኬ ቲ</w>
ካፍ ሎም</w>
ካኪ ቶ</w>
ካኒ ፎ</w>
ካት ረ</w>
ካር ከ</w>
ካር በ</w>
ካል ቁ</w>
ካ ፊ</w>
ካ ጅ
ካ ዶ</w>
ካ ያ</w>
ካ ኪ</w>
ካ ንጋ
ካ ብዬ</w>
ካ ብነ</w>
ካ ቤ
ካ ሬዕ</w>
ካ ምቦ
ካ ማ
ካ ሊ</w>
ካ ሃ
ኪ ዲ</w>
ኪ ደት</w>
ኪ ደ</w>
ኪ ያ</w>
ኪ ና</w>
ኪ ቼ</w>
ኪ ታ</w>
ኩ ፈ</w>
ኩ ድ</w>
ኩ ዳ
ኩ ኬም</w>
ኩ ኩ</w>
ኩ ኩ
ኩ ቱ
ኩ ምም</w>
ኩ ልየት</w>
ከፍ ዩ</w>
ከፍ ቱ</w>
ከፍ ል</w>
ከፈ ል
ከጅ ሎ</w>
ከድ ኮ</w>
ከእ ለል</w>
ከአ ፎ</w>
ከን ዋ
ከን ቴ</w>
ከት ዐ
ከት ኩም</w>
ከት ላ
ከብ ደት</w>
ከብ ደ
ከብ ብ</w>
ከበ ኩም</w>
ከበ ኒ</w>
ከሸ ፍ</w>
ከስ ት</w>
ከሳ ርሐ
ከሰ ዩ</w>
ከሰ ት
ከሰ ብ</w>
ከር ድ
ከር ዑ</w>
ከር ክ</w>
ከር ከሐ
ከሬ ኮ</w>
ከራ ክ
ከረ ዮም</w>
ከረ ኒ</w>
ከረ ም</w>
ከረ መ</w>
ከምከ ሞ</w>
ከም ካም</w>
ከም ሰሊ
ከማ ከም</w>
ከማ ከ
ከሚ ስ</w>
ከል ጥ</w>
ከል ኮ</w>
ከል ኤ
ከል ኣ
ከል ነ</w>
ከል ቅ</w>
ከል ቅ
ከላ ው
ከላ እ</w>
ከለ ሓ
ከለ ል</w>
ከለ ለ</w>
ከ ፎት</w>
ከ ጸብጠ
ከ ጊ
ከ ጃ
ከ ዱ
ከ ዬ</w>
ከ ያሁ</w>
ከ ወድ
ከ ከዩ</w>
ከ ከት</w>
ከ እተ
ከ እም
ከ አቡ
ከ ንደ
ከ ንከ
ከ ንብ
ከ ንስ
ከ ናፍ
ከ ኒተ</w>
ከ ኑ</w>
ከ ትደ
ከ ትነ
ከ ተን</w>
ከ ተኒ</w>
ከ ባት</w>
ከ ቀር
ከ ሼ
ከ ሹ
ከ ሶት</w>
ከ ሶ</w>
ከ ስት
ከ ሴ
ከ ሳይ
ከ ሳር
ከ ሳ</w>
ከ ሰል
ከ ራይ</w>
ከ ራይ
ከ ሚካ
ከ መቅ
ከ መሐ
ከ ሕር
ከ ልትዐ
ከ ሀለ
ኦ ፐ
ኦ ዲ
ኦ ክሲ
ኦ ክ
ኦ ኤ</w>
ኦ ቶ</w>
ኦ ብ
ኦ ሻት</w>
ኦ ስ</w>
ኦ ስ
ኦ ር</w>
ኦ ረ
እግ ዝ
እግ ን
እግ ሩ
እግ ሙ
እግ ሁ
እጅ ት
እድ ራ
እድ ሕ
እዝ ጊ</w>
እዘ ሞ</w>
እክ እሉ
እእ እእ
እንጮ ጨ
እንድር ያስ</w>
እንደ ወ</w>
እንተ ዘይ
እን ጭ
እን ጎ
እን ጂ
እን ክር</w>
እን ከ</w>
እን ነ
እን ትል
እን ቴ
እን ቱም</w>
እን ብል</w>
እን ቅር
እን ሽ
እን ስእ
እን ሳይ
እን ሰአ
እን ሰት
እን ሰር
እን ሰ</w>
እን ርእ
እትሐ ሰበ
እት ድ
እት ኩሩ
እት ከበ
እት ነ</w>
እት ብ
እት ቅዱ
እት ራ
እት መ</w>
እት ሌ
እት ሃ
እቅ ተለ
እስትሽ ሃድ
እስታቅ ፍር
እስቲ ፋ
እስ ፒ
እስ ተን</w>
እስ ተን
እስ ረ
እስ ሙ
እር ትርየ</w>
እም ጹ
እም ኒን</w>
እም ሮ
እም ሐ
እማ ሚ
እመ ኑ</w>
እ ፍር
እ ፍህ
እ ዱ</w>
እ ያ</w>
እ ዪን</w>
እ ኮን</w>
እ አግ
እ አ</w>
እ ነክ
እ ነት</w>
እ ቲ
እ ተዐ
እ ተክ
እ ተል
እ ተሀ
እ በር
እ ቀብ
እ ሴ
እ ሲ</w>
እ ሱ</w>
እ ሰፍ
እ ሰል
እ ሩ
እ ልል
እ ለለ</w>
እ ሆም</w>
እ ሆ
ኤክስ ፖ
ኤለክ ትሪ
ኤ ቭ
ኤ ረ</w>
ኤ መ</w>
ኤ ለትሮ
ኣቴ ከ</w>
ኣቴ ቱ</w>
ኣር ቲ
ኣሕ መድ</w>
ኣል ኣ
ኣ ፍዓ
ኣ ጽ
ኣ ጸ
ኣ ጠ
ኣ ጉ
ኣ ገ
ኣ ድር
ኣ ዲ</w>
ኣ ያ
ኣ ዕ
ኣ ዊ</w>
ኣ ክር</w>
ኣ ክላ
ኣ ንደ
ኣ ትነ</w>
ኣ ተሓ
ኣ ቡ</w>
ኣ ሰረ
ኣ ሰ</w>
ኣ ረጋ
ኣ ማ</w>
ኣ ሆ
ኣ ህ</w>
ኢፈ ቴ</w>
ኢፈ ቅ
ኢጣ ልየ
ኢገ ሜ</w>
ኢይ ትሰ
ኢይ ተአ
ኢን ዲ
ኢን ዱ
ኢን አ
ኢን ተ
ኢን ብ
ኢነ አሰ
ኢነ ት
ኢነ ሀይበ
ኢትትፈ ንተ
ኢትት ፋ
ኢትት ካረ
ኢትሕ ረ
ኢት ጠል
ኢት ደንግ
ኢት ደር
ኢት ወድ
ኢት ወሐ
ኢት ክሰ
ኢት ካ</w>
ኢት ኣ
ኢት አገ
ኢት ንስ
ኢት ና</w>
ኢት ነቅ
ኢት ትሳ
ኢት በሀ
ኢት ቅበ
ኢት ቀር
ኢት ሰረ
ኢት ርገ
ኢት ል
ኢተ ትሐ
ኢተ ህ
ኢሰ ትረ
ኢረ ድ
ኢልት ፈረ
ኢልት ፈሀመ
ኢልት ጃ
ኢልት ደ
ኢልት በ
ኢልት ረ
ኢልት መ
ኢል ጥዕ
ኢል ድገ
ኢል ዕ
ኢል አተ
ኢል ንከ
ኢል ንቀ
ኢል ንስ
ኢል ተአ
ኢል ርእ
ኢለአ ቀብ
ኢለአ ሰ
ኢለሐ ድገ
ኢ ፌ
ኢ ጽ
ኢ ጸግ
ኢ ጸብጠ
ኢ ጠር
ኢ ገብእ
ኢ ድ</w>
ኢ ዘብ
ኢ ወቅ
ኢ ወስ
ኢ ክ</w>
ኢ አብ
ኢ አቤ
ኢ አሰአል
ኢ አሰ
ኢ ንገ
ኢ ናይ
ኢ ና</w>
ኢ ተቅ
ኢ በተ
ኢ ቀረ
ኢ ሻቀ
ኢ ሸክ
ኢ ሸር
ኢ ሳይ
ኢ ር</w>
ኢ ረይ
ኢ መን
ኢ መታ
ኢ መሽ
ኢ መ</w>
ኢ ሐድ
ኢ ሐብ
ኢ ላ</w>
ኢ ለው
ኢ ለከ
ኢ ለር
ኢ ሁ</w>
ኢ ሀ</w>
ኡ ም</w>
አፍገረ የ</w>
አፍዐ በት</w>
አፍሪ ቃ
አፍሪ ቀ</w>
አፍ ግር
አፍ ሬ</w>
አፍ ህም</w>
አጽ ን
አጥመ እነ
አጥ ዐ
አጥ በ
አጣ ቀ
አጠ ንቀ
አጠ ለቀ
አግ ዋ
አግ ንሐ
አግ ርበ
አግ መሎ
አግ መለ
አገ ራ
አጅ ብ</w>
አጅ ህዘ
አድ ር</w>
አድ ሩ
አድ መዐ</w>
አድ መዐ
አድ ህ
አድ ሀ
አዳ ሕ
አዳ ለዮ
አደ ፋ
አደ ቅብ</w>
አደ ም</w>
አደ ሜዕ</w>
አይ ንም
አይ ና
አየ ሶ</w>
አዘ ዘ
አው ጀ
አው ዳይ</w>
አው ተ
አው ሕድ</w>
አው ል
አክ ጠ
አክ ዱ</w>
አክ ደት</w>
አክ ደ</w>
አክ ትበት</w>
አክ በረ
አክ ሩ
አክ ረብ
አክ ልአ
አክ ለሰ
አካ ሆም</w>
አከ በት</w>
አን ዋ
አን ኮ
አን ባት</w>
አን ቅስ</w>
አን ቀዋ
አን ስስ</w>
አን ሳይት</w>
አትፋ ገ
አትፋ ዝ
አትጻ በጠ
አትጋ የ
አትዳ ወር
አትዋ ጀሀ
አትባዝ ሐ
አትባ ረ
አትቀና ጨ
አትመቃ ረ
አትሓ ጠረ
አትሐሶ ሴ
አትሐ የ
አትሐ ዜከ</w>
አት ጠ
አት ገራ
አት ዐሬ
አት ወሐ
አት ኣማ
አት መመ</w>
አት ሀበ
አተን ከብ
አተም ሰለ
አተላ ለ</w>
አተ ካረ
አተ ንበ
አተ ርከ
አተ ራ
አተ ሀንጦጠ
አተ ሀ
አብር ሃ
አብር ሂ
አብር ሀ
አብረ ሀ
አብ ዕብ</w>
አብ ት</w>
አብ ሸል
አብ ሬ
አብ ለዕ
አባ ብ</w>
አባ ሬ</w>
አበ ገ
አበ ዴ</w>
አቅ ነአ
አቅ ም
አቅ ሊም
አቀ ምት</w>
አሽ ና
አሸ ይ
አሸ ረ</w>
አስተብ ዴ</w>
አስተሽ ሀደ</w>
አስተ ንትን</w>
አስተ ሸ
አስ ዋ
አስ ኬ
አስ ከብ
አስ ኔ</w>
አስ ነ</w>
አስ ቶን
አስ ቆ
አስ ለ</w>
አሳ ስለ</w>
አሳ ስ</w>
አሳ ሰር</w>
አሳ ር</w>
አሰ ጀ
አሰ ው
አሰ ክ
አሰ እ</w>
አሰ አሌ
አሰ ን
አሰ ሕ
አር ተዕ
አር ሰሐ
አር ሓ
አር ሄ</w>
አረ ይ</w>
አረ ር
አምዕ ሎ
አም ፅ
አም ዋ
አም ቱ
አም ባት</w>
አም ቡላ
አም በርሀ
አም ሐበ
አም ሐረ
አም ላኽ</w>
አም ላ
አማ ዚ
አማ ኑ</w>
አሕ ተፈ
አልአ ሚን</w>
አልሐም ድ
አል ፈ
አል ጥ
አል ጌ
አል ጄ
አል ዬ</w>
አል ባብ
አል በጥ</w>
አል ሰ
አል ም
አል ሓይ
አል ል</w>
አል ሃ
አሌ ሌ</w>
አህ ዳፍ
አሀም የት</w>
አ ፖ
አ ፈደ
አ ፈን
አ ጸግ
አ ጠር
አ ግ</w>
አ ዲን</w>
አ ዮት</w>
አ ዬ
አ ዕም
አ ዑዝ
አ ኳ
አ ኬ</w>
አ ካሁ</w>
አ ኩ</w>
አ ከረ
አ ኦ
አ እብ
አ ናሁ</w>
አ ናሀ</w>
አ ኑን</w>
አ ቼ
አ ቴት</w>
አ ታት
አ ቱ
አ ቫ
አ ቡ</w>
አ ቕ
አ ቃረ
አ ቂ
አ ቀደ
አ ሸር
አ ረት</w>
አ ረብ
አ ረ</w>
አ መም
አ ሊ</w>
አ ለየ</w>
አ ለህ
አ ሄ
ኘ ው</w>
ኖ ክየ</w>
ኖ ኩ</w>
ኖ ትነ</w>
ኖ ትቱ</w>
ኖ ትመ</w>
ኖ ትለ</w>
ኖ ቬ
ኖ በ</w>
ኖ ሰን</w>
ንፍ ጭ</w>
ንፍ ሮ</w>
ንፍ ር</w>
ንፈ ረ</w>
ንጦ ጥል</w>
ንጎ ባ</w>
ንጎ ም</w>
ንጎ ሕ</w>
ንግ ተን</w>
ንጋ ጽ</w>
ንጋ ናት</w>
ንጋ ሪ</w>
ንጊ መ</w>
ንጉ ር</w>
ንገ ዋጌ</w>
ንድ ግ</w>
ንድ ብ</w>
ንዳ እ</w>
ንዳ ቄ
ንዲ ሽ</w>
ንዱ ር</w>
ንደ ቀው</w>
ንደ ላይ</w>
ንዮ ቶም</w>
ንዮ ር</w>
ንዛ ም</w>
ንኮ ልል</w>
ንክ ዩ</w>
ንክ ለ</w>
ንከ በት</w>
ንኢ ሽ</w>
ንት ዮም</w>
ንት ካ
ንት ሻ
ንት ር</w>
ንታ ይን</w>
ንታ ን</w>
ንታ ና</w>
ንብ ከ</w>
ንብ ነ</w>
ንበ ረ</w>
ንቅ ፎ</w>
ንቅ ጠት</w>
ንቅ ን</w>
ንቀ ር</w>
ንስ ታን</w>
ንስ ሕብ</w>
ንስ ሊግ</w>
ንሰ ንት</w>
ንር አ
ንር ቡ</w>
ንሐ ም
ን ፍ</w>
ን ፊ</w>
ን ፉ</w>
ን ጸ
ን ጨ
ን ጠው
ን ጋ</w>
ን ዬቱ</w>
ን ዬመ</w>
ን ያመ</w>
ን የቶም</w>
ን የትለ</w>
ን ዚር</w>
ን ዚ
ን ዉ
ን ወቅ
ን ክን</w>
ን ካሁ</w>
ን ካሀ</w>
ን ኖ</w>
ን ንን</w>
ን በልብል</w>
ን ቕ
ን ቀር
ን ሾ</w>
ን ሽ</w>
ን ሱ
ን ሰት</w>
ን ርብ</w>
ን ምር
ኔ ይ
ኔ ብ</w>
ኔ ቡ</w>
ኔ ራት</w>
ኔ ላ</w>
ናግ ህ</w>
ናድ ቅ</w>
ናይ ተኒ</w>
ናይ ር</w>
ናቅ ሸ</w>
ና ፓ
ና ጅ
ና ደ
ና ዝ</w>
ና ወ</w>
ና ኩ
ና ከ
ና እሽ</w>
ና ኖ</w>
ና ቼ</w>
ና ትከ</w>
ና ተው</w>
ና ባ</w>
ና ቃ</w>
ና ሶም</w>
ና መል</w>
ና ህ
ና ሀ
ኒው ካስል</w>
ኒ ግ</w>
ኒ ያይት</w>
ኒ ተን</w>
ኒ ሰት</w>
ኑ ፅ</w>
ኑ ያም</w>
ኑ ዝ</w>
ኑ ኩ</w>
ኑ ብ</w>
ኑ ማ</w>
ነፍ ዘ</w>
ነፍ ስያ
ነፍ ስ</w>
ነፋ ሶ</w>
ነጽ ሩ</w>
ነጸ ፍ</w>
ነድ ፎ</w>
ነዝ ፍ</w>
ነዝ ሙ</w>
ነዝ መት</w>
ነዝ መ</w>
ነዘ ም
ነዐ ዩ</w>
ነዐ ም
ነው መ</w>
ነክ ሽ</w>
ነአድ ሕ
ነአት ፋቅ
ነአት አም
ነአት ቃ
ነአ ገር
ነአ ዝብ
ነአ ሽቅ
ነት ጅ</w>
ነት ት</w>
ነብ ብ</w>
ነብ ህ</w>
ነሸ ዕ</w>
ነሰ ኣ
ነሰ በት</w>
ነሰ ረ</w>
ነሐ ዜ</w>
ነ ዳፈ
ነ ዲ</w>
ነ ያሀ</w>
ነ ዘ</w>
ነ ዐት</w>
ነ ውዕ
ነ ውረ
ነ ዋ</w>
ነ ኦ</w>
ነ አተላ
ነ ንከ</w>
ነ ነዩ</w>
ነ ተኒ</w>
ነ ቡ</w>
ነ ቆ</w>
ነ ርያ</w>
ነ ራል</w>
ነ ራ</w>
ነ ራ
ነ ማ</w>
ነ ሎጂ</w>
ነ ሆም</w>
ኋ ት</w>
ቿ </w>
ቾ ም</w>
ቼ ክ</w>
ቼ ር
ቻ ይን
ቻ ርድ</w>
ቺኮ ዝ
ቺ ን
ቺ ም
ቹ ሬ
ቸ ቸ
ቶተን ሃም</w>
ቶ ዕ</w>
ቶ ንመ</w>
ቶ ና</w>
ቶ ቡ</w>
ቶ ሮ
ቶ ራት</w>
ቶ ምከ</w>
ቶ ሎ
ትፋ ቀደ
ትፋ ረ
ትፈና ቴ</w>
ትፈና ተው</w>
ትፈ ድ
ትፈ ናት
ትፈ ት</w>
ትፈ ቴ
ትጻ ገም
ትጸ ግ
ትጸ ዐን
ትጠ ባ
ትግራይ ት
ትጋ ንሐ
ትጋ ረፈ
ትጀ ግ
ትዳ እየት</w>
ትደ ገም</w>
ትደ ራገ
ትየ ቀ
ትዘ ብ
ትዕ ጀ
ትዕ ት</w>
ትዕ ማር</w>
ትክ ስ</w>
ትከ ፋ
ትከ ራ
ትከ ረጅ
ትከ ለበ
ትከ ለቅ
ትእ ሊ</w>
ትና ን</w>
ትነ ጸ
ትነ ዘ
ትነ ክ
ትነ ሰ
ትነ ሀ
ትት ጀ
ትት ዐየ
ትት ወቀ
ትት ኣ
ትት አሰ
ትት ነፈ
ትት ነደ
ትት በረ
ትት ቀረ
ትት ሰረ
ትት መል
ትት ሕ
ትት ሐበ
ትት ሐሰ
ትት ላከ
ትት ህ
ትት ሀና
ትታ ላት</w>
ትባ ጠረ
ትባ ረ
ትበሀ ል
ትበሀ ለት</w>
ትበ ደል</w>
ትበ ይ
ትበ የ</w>
ትበ ው</w>
ትበ ቱ</w>
ትበ ራ
ትበ ሀለ</w>
ትቅ ተለ
ትቃ ምት</w>
ትቀ ደረ
ትቀ ያ
ትሻ ቀል</w>
ትሸ ዕ
ትሸ ነህ
ትሸ ቄ</w>
ትሸ ቀ</w>
ትሸ ሃዱ</w>
ትስ ፋ
ትስ ወር</w>
ትስ አል
ትሳ ለም
ትሰ አሌ
ትሰ ብ</w>
ትሰ ርግ
ትሰ ሜ
ትሰ ል
ትሰ ለመ
ትሮ ፒ
ትር መ</w>
ትራ የ
ትራ ክ
ትራ ን</w>
ትረ ን</w>
ትረ በሽ
ትምህ ሮ</w>
ትም የ</w>
ትም ዓት</w>
ትም ዑ</w>
ትም ሕ
ትም ህር
ትማ ዕየት</w>
ትማ ተ</w>
ትመጽ እ</w>
ትመ ጥ
ትመ ድረሰት</w>
ትመ ዩ
ትመ ራ
ትመ ረ
ትመ ሕበር</w>
ትመ ላ
ትሕ ት</w>
ትሓ ቱ</w>
ትለ ር</w>
ት ፎ
ት ጥ</w>
ት ገብእ</w>
ት ገብእ
ት ጃር
ት ዛ</w>
ት ዘ</w>
ት ዌ
ት ዊ
ት ወዲ
ት ወና
ት ኣም
ት አስ
ት ተክ
ት ተበ
ት ባት</w>
ት ራት</w>
ት ሪን</w>
ት መንቀ
ት መርሐ
ት ሓ</w>
ት ልፍ
ት ልት</w>
ት ላት</w>
ት ለዋ
ት ለወ
ት ለኣ
ት ሀር
ቴክኖ ሎጂ</w>
ቴ ናሁ</w>
ቴ ተት</w>
ቴ ልካ
ቴ ላ</w>
ቴ ለተ
ቴ ሀን</w>
ታይ ጅ</w>
ታይ ኖ</w>
ታይ ትስ</w>
ታይ ተ</w>
ታት ት</w>
ታብ ዑ</w>
ታ ዝ</w>
ታ ዕም
ታ ዐት</w>
ታ ኬከ</w>
ታ ካ</w>
ታ ኪ</w>
ታ ኖ</w>
ታ ረ</w>
ታ ል
ታ ሉ</w>
ቲ ፍ</w>
ቲ ግ</w>
ቲ ጀት</w>
ቲ ናት</w>
ቲ ትከ</w>
ቲ ታ
ቲ ሠ
ቲ ላፕ
ቱ ግ</w>
ቱ ዲ</w>
ቱ ታት</w>
ቱ ሮ</w>
ቱ ረ</w>
ቱ ሎ</w>
ተፋ ሲ
ተግ ብር</w>
ተጃ ሪ
ተጂ ያይ</w>
ተየ ልል</w>
ተዓ ቤ
ተዐ ግ
ተዐ ንድ
ተዐ ቅብ
ተው ዴ
ተው ቦ</w>
ተው ስ
ተው ርድ</w>
ተወ በ</w>
ተክ ኒ
ተክ ሉ</w>
ተክ ለ
ተእ ሂ
ተኣ ብ</w>
ተአክ ድ</w>
ተአከ ድ</w>
ተአት ፈ
ተአት ጃ
ተአት ዐግ
ተአት ባር
ተአት ሳጅ
ተአት መሳ
ተአት ሐሶ
ተአም ሮ</w>
ተአም ሩ</w>
ተአም ረ</w>
ተአ ጽብ
ተአ ገር
ተአ ጀር
ተአ ደር
ተአ ዛ
ተአ ከጅ
ተአ ንድ
ተአ ንት
ተአ ንቅ
ተአ ተአ
ተአ ተም
ተአ ብር
ተአ ብል
ተአ ብለ
ተአ ቅር
ተአ ስሕ
ተአ ርኤ
ተአ መስ
ተአ መር
ተአ ሌ
ተን ኮ</w>
ተን ከበት</w>
ተብ ዐት</w>
ተቅዪ ር
ተቅ ዬ
ተቅ ብለት</w>
ተቃ ብሉ</w>
ተቃ ሪ
ተስፋ ሚካኤል
ተስ ጂ
ተርጅ ሞ</w>
ተርጀ መቱ</w>
ተር ያ</w>
ተር ክ</w>
ተር ቅ</w>
ተር ሲቲ</w>
ተረ ዶ</w>
ተረ ም</w>
ተምት ሞ</w>
ተም ዕ</w>
ተም ዊ
ተም ቲ</w>
ተማ ሪ
ተመዕ መ</w>
ተመ ዓት</w>
ተመ ዐ</w>
ተሓ ገ
ተሐ ጀ
ተሐ ው</w>
ተላ ይት</w>
ተለፍ ዝዮ
ተለ ቪ
ተሀይ ቡ</w>
ተሀራ ሀ
ተሀ ጃጀ
ተሀ ዴ
ተሀ ደ
ተሀ ለ</w>
ተ ፎ</w>
ተ ፉ</w>
ተ ጀር
ተ ደር
ተ ያሁ</w>
ተ ዘ</w>
ተ ወለ
ተ ኮት</w>
ተ ካቱ</w>
ተ ነው</w>
ተ ትኪ</w>
ተ ተሀ
ተ ባ</w>
ተ በሀ
ተ ራቱ</w>
ተ መን</w>
ተ ሎት</w>
ተ ላቱ</w>
ተ ለን
ተ ሆገ
ተ ሆ
ቮሊ ቦል</w>
ቮ ል</w>
ቭ የት</w>
ቬ ት</w>
ቬ ር</w>
ቫ ዮ
ቫ ክየ</w>
ቫ ርክ</w>
ቫ ራ
ቫ ላን
ቪ ድዮ</w>
ቪ ታ
ቪ ር</w>
ቪ ር
ቨ ስ</w>
ቨ ርት</w>
ቦር ን
ቦ ን
ቦ ቺ
ቦ ትቱ</w>
ቦ ቲ
ቦ ቡ</w>
ቦ በት</w>
ቦ ሬ</w>
ቦ ላ</w>
ብጽ ሖ</w>
ብጠ ሮ</w>
ብዳ ልየት</w>
ብዝ ተኻ
ብዝ ሓ
ብዕ ዳም</w>
ብዕ ወ</w>
ብዕ ከ</w>
ብዕ ተ</w>
ብዕ ራይ
ብእ ነት</w>
ብእ ለ</w>
ብሮ ን
ብራ ጦር</w>
ብራ ዚል</w>
ብራ መ</w>
ብራ ሀ</w>
ብረ ክ</w>
ብረ ናቱ</w>
ብረ ቶም</w>
ብረ በት</w>
ብረ ር</w>
ብለ ይ</w>
ብለ ዕ</w>
ብለ ካ</w>
ብለ ታይ</w>
ብለ ቅ</w>
ብ ጽ</w>
ብ ጠቱ</w>
ብ ያቱ</w>
ብ ኸ
ብ ክር</w>
ብ ክር
ብ ነ
ብ ትነ</w>
ብ ታይ</w>
ብ ታ</w>
ብ ቲ</w>
ብ ተር</w>
ብ ብት</w>
ብ ቁ</w>
ብ ቁ
ብ ቀ
ብ ስት</w>
ብ ሱ
ብ ራይር</w>
ብ ምግ
ብ ልሰ
ብ ሊክ</w>
ብ ሀ
ቤ ጥ</w>
ቤ ዘው</w>
ቤ ዘት</w>
ቤ ናቱ</w>
ቤ ናሁ</w>
ቤ ትነ</w>
ቤ ተ
ቤ ርት</w>
ቤ ሕተ</w>
ቤ ለን</w>
ባጽ ሖ</w>
ባጽ ሐ</w>
ባይ ቼ</w>
ባን ዳ</w>
ባን ኪ
ባብ ሮ</w>
ባብ ሩ</w>
ባል ቆ</w>
ባል ሶም</w>
ባል ሰ</w>
ባል ሖም</w>
ባ ዲ</w>
ባ ደ</w>
ባ የር</w>
ባ የር
ባ ዊ</w>
ባ ኩም</w>
ባ አ</w>
ባ ንግ
ባ ንየ</w>
ባ ች</w>
ባ ትክ</w>
ባ ቲ
ባ ተክ
ባ ተን</w>
ባ ሮ</w>
ባ ረክ</w>
ባ ረን
ባ ማ</w>
ባ ሌሕ</w>
ባ ለት</w>
ባ ሁቱ</w>
ቢ ዕ</w>
ቢ ኑ</w>
ቢ ቼ</w>
ቢ ትከ</w>
ቢ ታይ</w>
ቢ ሎም</w>
ቢ ልዮ
ቢ ሊ
ቡ ጣም</w>
ቡ ዩ</w>
ቡ ኪ</w>
ቡ እመ</w>
ቡ ኡ</w>
ቡ ና</w>
ቡ ባት</w>
ቡ ባም</w>
ቡ ባ</w>
ቡ ሶም</w>
ቡ ሳም</w>
ቡ ራ</w>
ቡ ራ
ቡ ላት</w>
በጽሐ ነ</w>
በጸሐ ነ</w>
በጸ ሖ</w>
በጸ ሐት</w>
በጥ ከ</w>
በጥ መ</w>
በጠ ሎ
በግ ሶ</w>
በገ ሶ</w>
በገ ስነ</w>
በድ ብድ</w>
በድ ረ</w>
በይ ቶ</w>
በይ ቱ</w>
በይ ል</w>
በክ ተ</w>
በአ ኒ</w>
በን ዚ
በት ክም</w>
በተ ተ</w>
በሰ ም</w>
በርገ ሽ</w>
በርና መጅ</w>
በር ገር</w>
በር በ</w>
በር መጅ
በራ ድ
በራ ይት</w>
በራ ር</w>
በረ ድ</w>
በረ ዎም</w>
በል ዖም</w>
በል ክወ</w>
በል ት</w>
በል ሶ</w>
በላ ዕ</w>
በለ ዉ</w>
በለ ቶም</w>
በለ ሕ</w>
በሀ ሎ</w>
በ ዱ</w>
በ ያቱ</w>
በ ዜ
በ ክት</w>
በ ንቱ</w>
በ ነው</w>
በ ብዝ
በ በነ</w>
በ ቀት</w>
በ ሺ
በ ሸር
በ ሐስ
በ ላይ
በ ሂ
በ ሁ</w>
ቘ ኬ
ቘ </w>
ቒ </w>
ቋ ት</w>
ቈ ከ</w>
ቆ ታት</w>
ቆ ታ</w>
ቅብ ላት</w>
ቅብ ለት</w>
ቅብ ለት
ቅበ ይ</w>
ቅበ ሉ</w>
ቅሮ ረ
ቅራ አት</w>
ቅሩ ባ
ቅረ እ</w>
ቅረ ቅ</w>
ቅ ፈከ</w>
ቅ ጹ
ቅ ዲ
ቅ ዮም</w>
ቅ የ
ቅ ዐ</w>
ቅ ካሀ</w>
ቅ ካ</w>
ቅ ኡ</w>
ቅ ሽ</w>
ቅ ሱ</w>
ቅ ሪ</w>
ቅ ምብ
ቅ ሐ</w>
ቅ ላት</w>
ቄ ትላ
ቃን ጽ</w>
ቃን ጪ
ቃር ሖት</w>
ቃር ሕ</w>
ቃ ዶ</w>
ቃ ዲ</w>
ቃ ዱ</w>
ቃ ኒ</w>
ቃ ኑን</w>
ቃ ትላ
ቃ ብሎ</w>
ቃ ብሉ</w>
ቃ ባ</w>
ቃ ቃ</w>
ቃ ረብ</w>
ቃ ሕ</w>
ቃ ሎም</w>
ቂ ተ</w>
ቂ ቄ</w>
ቁር ደት</w>
ቁ ዶም</w>
ቁ ድ</w>
ቁ ንስ
ቁ ን</w>
ቁ ባት</w>
ቁ ባም</w>
ቁ ሱ</w>
ቀፍ ኮ</w>
ቀጥ ፍ</w>
ቀድረ ው</w>
ቀድረ ከ</w>
ቀድረ ነ</w>
ቀድ የት</w>
ቀድ ርመ</w>
ቀዳም ያም
ቀደር ከ</w>
ቀደም ነ</w>
ቀደ ስ</w>
ቀይ ቅ</w>
ቀይ ሞ</w>
ቀይ መ</w>
ቀን ጸ</w>
ቀን ጥ
ቀት ሉ</w>
ቀብ ኮ</w>
ቀብ ቅብ</w>
ቀብ ረ</w>
ቀበ ትለ</w>
ቀበ ብ
ቀበ ረት</w>
ቀር ኦ</w>
ቀል ጥ</w>
ቀል ዩ</w>
ቀል ዐ</w>
ቀ ጺ
ቀ ጨ
ቀ ጤ</w>
ቀ ውኒ</w>
ቀ ኑ
ቀ ቶ</w>
ቀ ትዬ</w>
ቀ ትላ
ቀ ቀየ</w>
ቀ ሺ
ቀ ሲ
ቀ ሮት</w>
ቀ ራ</w>
ቀ ሪ</w>
ቀ ለዩ</w>
ቀ ለብ
ሽዕ ብ
ሽእ ግ</w>
ሽን ር
ሽቅ የት</w>
ሽሕ ግ</w>
ሽህ ደ</w>
ሽ ዱ</w>
ሽ ያም</w>
ሽ ዩ</w>
ሽ ካ</w>
ሽ ካ
ሽ ከር</w>
ሽ ንጋ
ሽ ቕ
ሽ ሾ</w>
ሽ ሮ
ሽ ረሕ</w>
ሽ ሞም</w>
ሽ ሐ
ሽ ላ
ሽ ሀደው</w>
ሼ ነ</w>
ሻይ ል</w>
ሻረ ክ</w>
ሻ ድ</w>
ሻ ይን</w>
ሻ ዩ</w>
ሻ ኪ
ሻ ቂ
ሻ ሻት</w>
ሻ ሬ
ሻ ራ</w>
ሻ ረከ</w>
ሻ መ
ሻ ለት</w>
ሺ ደት</w>
ሺ ክ</w>
ሺ ናት</w>
ሹ ጡ</w>
ሹ ዱ</w>
ሹ ክረ
ሹ ኒ</w>
ሹ ቁ
ሹ ም
ሸፍ ገ</w>
ሸፋ ግ</w>
ሸክ ሽክ</w>
ሸክ ል</w>
ሸክ ለት</w>
ሸከ ኮ</w>
ሸን ርብ</w>
ሸን ሆ</w>
ሸነ ቅ</w>
ሸባ ሸባ
ሸቅ ዮ</w>
ሸቅ የን</w>
ሸር ከት</w>
ሸሪ ፍ</w>
ሸም ኮ</w>
ሸም በር
ሸል ሀት</w>
ሸ ጠ</w>
ሸ ዲ
ሸ ዑ
ሸ ከክ</w>
ሸ ኖት</w>
ሸ ንደ
ሸ ንበ
ሸ ንቅ
ሸ ና</w>
ሸ ተል
ሸ ባ</w>
ሸ ሮት</w>
ሸ ሮ</w>
ሸ ርከ</w>
ሸ ርነ</w>
ሸ ርበ
ሸ ርሕ
ሸ ሕ</w>
ሸ ሀድ
ሶ ይረ</w>
ሶ ብ</w>
ሶ ቅራ
ሶ ስዩ</w>
ሶ ር
ሶ ሎ</w>
ሶ ል</w>
ሶ ሊ</w>
ሶ ሊ
ስዮ ኒ</w>
ስያ ሰት</w>
ስያ ሰት
ስያ ሕ
ስዊ ች</w>
ስኮ ፕ</w>
ስኮ መ</w>
ስካ ንዲ
ስከ ቦ</w>
ስእ ዩ</w>
ስቶ ር</w>
ስትራ ልየ</w>
ስትህ ለን</w>
ስት የት</w>
ስት ን</w>
ስት ሮን</w>
ስት ሬ
ስት ሪ
ስተቅ በል</w>
ስተር መ</w>
ስተ ይን</w>
ስተ ራት</w>
ስተ ል</w>
ስብ ሃ
ስር የት</w>
ስም ጥ
ስም ረት</w>
ስሙ ድ
ስሕ ቃይ</w>
ስሕ ቀነ</w>
ስሌ ማን</w>
ስላ ቭ</w>
ስላ ሕ</w>
ስ ፉ
ስ ጦ</w>
ስ ጠ</w>
ስ ደ
ስ ዮም</w>
ስ ዮ</w>
ስ ዖ</w>
ስ ክዉ</w>
ስ ካር
ስ ኪስ</w>
ስ ኖም</w>
ስ ናይ</w>
ስ ቦም</w>
ስ ሬ
ስ ሙ</w>
ስ መይ
ስ መዕ
ሴር ባይ</w>
ሴር በት</w>
ሴ ንት
ሴ ናይ</w>
ሴ ምዐ
ሴ ም</w>
ሳፍ ሮ</w>
ሳፍ ሪን</w>
ሳድ ድ</w>
ሳይ ትመ</w>
ሳይ ተን</w>
ሳር ሖ</w>
ሳል ጥ</w>
ሳል ብ</w>
ሳ ዴ</w>
ሳ ያት</w>
ሳ ያም</w>
ሳ ዖ
ሳ ውር</w>
ሳ ክር</w>
ሳ ኪ</w>
ሳ ነ
ሳ ት
ሳ ብሪ
ሳ ቅ
ሳ ሲ
ሳ ራት</w>
ሳ ረሕ
ሳ ሞ
ሳ ምን</w>
ሳ መሐ
ሳ ሕል
ሳ ላ
ሳ ሃ</w>
ሲ ዲ</w>
ሲ ያ
ሲ ኮ</w>
ሲ ኞ
ሲ ንመ</w>
ሲ ስቶ
ሲ ልየት</w>
ሲ ለት</w>
ሱ ድ</w>
ሱ ዕ</w>
ሱ ዑ</w>
ሱ ኡ
ሱ ምሕ
ሱ ሌ
ሰፍለለ ከ</w>
ሰፍ ኮ</w>
ሰፍ ረ</w>
ሰፍ ሓ
ሰፍ ልል</w>
ሰፈ ፍ</w>
ሰጅ ሉ</w>
ሰይ ድ
ሰይ ተ</w>
ሰዐ ቱ</w>
ሰክ ቦ</w>
ሰክ በ</w>
ሰአ ዉ</w>
ሰአ ወ</w>
ሰን ዐፌ
ሰነ ይ</w>
ሰት ዮ</w>
ሰት ዬ</w>
ሰት ቼ</w>
ሰብ ብ
ሰብ ል</w>
ሰበ ዩ</w>
ሰበ ዉ</w>
ሰስ ዕ</w>
ሰርግ የ</w>
ሰርገ የ</w>
ሰር ሕ</w>
ሰምዐ ነ</w>
ሰም በር</w>
ሰመዐ ኒ</w>
ሰመ ሬ
ሰሎ ና</w>
ሰል ቫ
ሰል ሕ</w>
ሰላ ስ</w>
ሰለ በ</w>
ሰ ጠት</w>
ሰ ደፈ
ሰ ደ</w>
ሰ ያይ</w>
ሰ የት</w>
ሰ ዎ</w>
ሰ ውር
ሰ ወረ
ሰ ወ
ሰ ካ</w>
ሰ ከር</w>
ሰ ኤ
ሰ ናቅ
ሰ ቲት</w>
ሰ ቦዕ</w>
ሰ ቦት</w>
ሰ ብር
ሰ በር</w>
ሰ ሰየ</w>
ሰ ሰው</w>
ሰ ሮም</w>
ሰ መት</w>
ሰ መራ
ሰ ለሕ
ሮ ዝ</w>
ሮ ዝ
ሮ ዚ
ሮ ትቱ</w>
ሮ ቦ
ሮ በር
ሮ ሩ</w>
ሮ ረ
ሮ ማን
ርግ የ</w>
ርግ ት</w>
ርገ ን</w>
ርዕ ዮ
ርክ ነ</w>
ርከ ክ</w>
ርአ ይ</w>
ርአ ስ</w>
ርት ዖ</w>
ርሕ የት</w>
ርሕ ማን</w>
ርሐ ትመ</w>
ርህ የ</w>
ር ፎ</w>
ር ፊ</w>
ር ፉ</w>
ር ዱ
ር የትመ</w>
ር የቱ</w>
ር ዝ</w>
ር ዓት</w>
ር ዎ</w>
ር ዋ</w>
ር ክን</w>
ር ካሁ</w>
ር ኢስ
ር ኢሰ
ር ባ</w>
ር ቅ
ር ቀ</w>
ር ሽ</w>
ር ረ</w>
ር ምን</w>
ር ምቱ</w>
ር ሙ</w>
ር ሆ</w>
ሬ ጨ
ሬ ይ
ሬ ዬ</w>
ሬ ካሁ</w>
ሬ ኤኒ</w>
ሬ ናሆም</w>
ሬ በ</w>
ሬ ማ</w>
ሬ ሀ</w>
ራይ ሞ</w>
ራብ ጥ</w>
ራ ፍዓ
ራ ጥ</w>
ራ ጃን</w>
ራ ጃ</w>
ራ ጀ</w>
ራ ዳት</w>
ራ ያም</w>
ራ ዩብ</w>
ራ ከት</w>
ራ ቢ</w>
ራ ቁ</w>
ራ ሱ</w>
ሪ ጋ</w>
ሪ ጋ
ሪ ገ
ሪ ዝም</w>
ሪ ካት</w>
ሪ ኤል</w>
ሪ ቼ</w>
ሪ ትለ</w>
ሪ ብ
ሪ ሠ
ሪ ሞም</w>
ሩ ኽ</w>
ሩ ኽ
ሩ ኑ</w>
ሩ ቦም</w>
ሩ ባም</w>
ሩ ባ
ሩ ቀት</w>
ረፍ ለ</w>
ረፈ ዖም</w>
ረፈ ዖ</w>
ረግ እ</w>
ረድ ዮ</w>
ረይ ሖት</w>
ረዋ ሬ</w>
ረከ ተን</w>
ረኤ መ</w>
ረአ ሰ</w>
ረተ ዕ</w>
ረተ በ</w>
ረብ ና</w>
ረብ መ</w>
ረብ ሑ</w>
ረበ ዕ</w>
ረስ ዕ</w>
ረሕ ማን</w>
ረሕ መት</w>
ረሕ መ</w>
ረሐ ኩም</w>
ረሐ መት</w>
ረ ፈው</w>
ረ ጊ
ረ ጉ
ረ ገበ
ረ ደከ</w>
ረ ዮ</w>
ረ ኽ
ረ ኺ
ረ ንቱ</w>
ረ ቃ</w>
ረ ሴዕ</w>
ረ ሚ</w>
ረ ሙ</w>
ረ ሙ
ረ መው</w>
ረ ሓት</w>
ረ ሓመ</w>
ረ ሓ</w>
ረ ሉ</w>
ሥ ን</w>
ሥ ህ
ሣ ር</w>
ሠ ዘ
ሠ ን</w>
ሠ ሪ</w>
ሠ ላ</w>
ሞ ድሪስ</w>
ሞ ኮ</w>
ሞ ንገ
ሞ ና</w>
ሞ ኒ</w>
ሞ ቶ</w>
ሞ ትነ</w>
ሞ ትመ</w>
ሞ ታቶም</w>
ሞ ሁ</w>
ምጽ አት</w>
ምግ ሌ
ምጅተ መዐ
ምጅ ል
ምያ ንግ</w>
ምዕ ጥ
ምዕ ዎ</w>
ምዕ ራፍ
ምን ግ
ምን መ
ምን ሕ
ምብ የ
ምብ ት</w>
ምብ ራ</w>
ምስ የት</w>
ምስ ሎ</w>
ምር ዬ</w>
ምር ኒ</w>
ምር ሕ</w>
ምራ ን</w>
ምራ ሁ</w>
ምሕ ረት
ምል ኡ</w>
ምህ ነ
ም ግራ
ም ዮ</w>
ም ክን</w>
ም ክ</w>
ም እኩ
ም ኤ
ም ናተ</w>
ም ትዐ
ም ትካ
ም ትር</w>
ም ባት</w>
ም በት</w>
ም በል</w>
ም ቁ
ም ቀደሜ
ም ሥ
ም ምን</w>
ም ምሕ
ም ልእ
ሜካ ኒክ</w>
ሜር ሐት</w>
ሜ ትሮ
ሜ ሮን</w>
ሜ ረት</w>
ሜ ልከ
ማጽ ኣም
ማይ ክ</w>
ማይ ካ</w>
ማው ሪ
ማእ ያት</w>
ማን ዶ</w>
ማን ዬ</w>
ማስ ሎም</w>
ማርያም አሰይድ</w>
ማ ጭ</w>
ማ ጥም</w>
ማ ጢ
ማ ጆ</w>
ማ ጅ</w>
ማ ዶ
ማ ዱ</w>
ማ ክሮ
ማ ካ</w>
ማ ኪ</w>
ማ ኖም</w>
ማ ናይ</w>
ማ ኒት</w>
ማ ሽር</w>
ማ ስታ
ማ ስስ</w>
ማ ረን</w>
ማ ሜ
ማ ሚ</w>
ማ መን</w>
ማ ሎ</w>
ማ ህረ
ማ ሃ
ሚን ዩም</w>
ሚና ር</w>
ሚና ራት</w>
ሚ ያይ</w>
ሚ ዪን</w>
ሚ ዛን
ሚ ኮ</w>
ሚ ክ
ሚ ኢት
ሚ ኖ</w>
ሚ ነት</w>
ሚ ትብ
ሚ ትመ</w>
ሚ ታት</w>
ሚ ስዮ
ሚ ራ
ሚ ሜ</w>
ሚ ሆም</w>
ሙናድ ለት</w>
ሙ ጭ</w>
ሙ ጀ
ሙ ድር
ሙ ዘ
ሙ ነት</w>
ሙ ት
ሙ ታ</w>
ሙ ተሕ
ሙ ስታ
ሙ ሳ</w>
ሙ ሰል
ሙ ረብ
ሙ ሞ</w>
ሙ ማይ</w>
ሙ ማት</w>
ሙ ማሙ</w>
ሙ መር
ሙ ሕ
ሙ ሃጅ
መፋ ጅ
መፋ ሀመት</w>
መጽ አከ</w>
መጸ ት</w>
መጨ ው</w>
መጠ ጥ</w>
መጠ የ</w>
መጋ ባ
መጅ ተመዕ</w>
መጅ ተ
መድ ህ
መዳ ፍ
መዳ ልያይት</w>
መዳ ልየ
መዳ ል
መዳ ሊት</w>
መዲ ነት
መደ ይ
መይ ል</w>
መያ ንግ</w>
መዝ ብያ
መዕ ጽ
መዓ ኒ</w>
መዓ ሾ</w>
መዐ ግ
መዐ ድ
መዐ ው
መዐ ስከ
መዐ ልመት</w>
መው ቶም</w>
መው ቱ</w>
መወ ኖ</w>
መክረ ህ</w>
መክረ ሀት</w>
መክ ቱ
መክ ተበ
መክ ሩ</w>
መክ ረ</w>
መአሰ ሰት</w>
መአ ኒ</w>
መንፈዐ ቱ</w>
መንፈ ስ</w>
መንገ ፎ</w>
መን ጉ
መን ድ
መን ተብ
መን በር
መን ሰ
መን ሀ
መናድ ለት</w>
መና ዕ</w>
መና በር
መትዳ ላይ</w>
መትከም ካ
መትነዛ ም</w>
መትሰ ባል
መትሐ ሳር</w>
መትሐ ሳ
መት ፈዳ
መት ጫ
መት ጋድ
መት ገም
መት ዖ</w>
መት ወር
መት ካፍ
መት ካራ
መት ነሻ
መት በግ
መት ስ
መት ሰራ
መት ሰል
መት ሰላ
መት ም
መት መጣ
መት መን
መት ልህ
መታ በዐ
መተል ህየት</w>
መተል ሂ
መብ ሽ
መባ ጥር</w>
መቅ ኮ</w>
መቃ ወመት
መቃ ወመ
መቃ ረሖ</w>
መቃ </w>
መሽ ጡ</w>
መሽ ሸ</w>
መሻ ክል</w>
መሻ ረከት</w>
መሻ ረ
መስ ጢ
መስ ተሽ
መስ ም
መስ ሎ
መስ ላይ</w>
መስ ሊን</w>
መስ ለነ</w>
መሳ ክ
መሳ ም
መሳ ልሕ
መሳ ል
መሰ የ</w>
መሰ ው
መሰ ረ
መሰ ሕ</w>
መሰ ሎ</w>
መሰ ለት</w>
መር ጅ
መር ተዓ
መር ቡ</w>
መር በይነ</w>
መራ ር</w>
መረ ወ</w>
መም ተለ
መም በሮ
መም ርሒ
መመ ዉ</w>
መመ ወ</w>
መሕ ከ
መሓ ግዝ
መሐመድ ዐሊ
መሐ ሙ
መሎ ቭ</w>
መልህያ ም
መል የት</w>
መል ስ</w>
መል ሄ
መላ ትሕ
መሀ ዝ</w>
መ ፈር
መ ዶር</w>
መ ያት</w>
መ ዘር
መ ዘ</w>
መ ዖ
መ ዒ
መ ወክ
መ ክም</w>
መ ክል
መ አበ
መ አምብ
መ ኖ</w>
መ ኔ</w>
መ ታመ</w>
መ ተዐ
መ ተበ
መ ተስ
መ ተር</w>
መ ባልስ</w>
መ በር
መ ቕ
መ ሾ
መ ሸር
መ ሴ
መ ሲ</w>
መ መቅር
መ ሐት</w>
መ ለዩ</w>
መ ሀደ
ሖ ጀ
ሖ ትቱ</w>
ሖ ረ</w>
ሕፍ ዝ</w>
ሕግ ላን
ሕኩ መት
ሕተር ሙ</w>
ሕር ያን</w>
ሕር ያን
ሕም ባ
ሕም ል</w>
ሕመ ዳይ
ሕ ፍን
ሕ ፍረ
ሕ ጽሕ
ሕ ዶ</w>
ሕ ዶ
ሕ ደግ
ሕ ደጋ
ሕ ዩ</w>
ሕ የ
ሕ ዋሌ
ሕ ንብ
ሕ ኔ
ሕ ና</w>
ሕ ሶ</w>
ሕ ሮ</w>
ሕ ራ</w>
ሕ ሙ</w>
ሕ መድ
ሔዋ ናት
ሔ ክ
ሔ ተት</w>
ሔ ስ
ሔ ለ</w>
ሔ ሁ</w>
ሓፍ ኑ</w>
ሓይ ዮ</w>
ሓይ ታ</w>
ሓይ ተ</w>
ሓይ ብ</w>
ሓም ቶም</w>
ሓም ሳይ</w>
ሓም ል</w>
ሓ ጠ
ሓ ጋ
ሓ ድር</w>
ሓ ደ</w>
ሓ ዬ</w>
ሓ ያ</w>
ሓ የት</w>
ሓ ዛ
ሓ ንቴ
ሓ ንቀ
ሓ ንስ</w>
ሓ ታት</w>
ሓ ታ</w>
ሓ ቡ</w>
ሓ በር</w>
ሓ ራ</w>
ሓ ሪ</w>
ሓ ለ</w>
ሒ ደ</w>
ሒ ንመ</w>
ሒ ናሀ</w>
ሒ ኑ</w>
ሑ ድ</w>
ሑ ኩም</w>
ሑ ነት</w>
ሑ ተ</w>
ሐድ ጎም</w>
ሐድ ሱ</w>
ሐድ ሰ</w>
ሐዳ ስ</w>
ሐዲ ስ</w>
ሐደ ድ</w>
ሐደ ደ</w>
ሐና ፈ
ሐብ ዑ</w>
ሐብ ሮም</w>
ሐቀ ቆ
ሐሸክ ሸ
ሐሸ ካ
ሐስ ን</w>
ሐሰ ዩ</w>
ሐሰ ሮ</w>
ሐር ዮም</w>
ሐር በ
ሐር ሶ</w>
ሐር ሰ</w>
ሐረግረ ገት</w>
ሐረ ድ</w>
ሐረ ን</w>
ሐረ ቱ</w>
ሐረ ብ</w>
ሐረ ስታይ</w>
ሐረ ስ
ሐም ረግ
ሐም ም</w>
ሐመል ማሎ
ሐል ፋ</w>
ሐል የ</w>
ሐል ል</w>
ሐል ሊን</w>
ሐ ፊ</w>
ሐ ፈት</w>
ሐ ፈ</w>
ሐ ጠት</w>
ሐ ጋ
ሐ ዶ</w>
ሐ ዝ</w>
ሐ ዎም</w>
ሐ ዌ
ሐ ዋን
ሐ ዉ
ሐ ወጽ
ሐ ወጅ
ሐ ትኪ</w>
ሐ ትሐ
ሐ ቲት</w>
ሐ ተን</w>
ሐ ሰን
ሐ ራት</w>
ሐ ማይ
ሐ ሌ</w>
ሐ ሉ</w>
ሎ ፉ</w>
ሎ ንግ</w>
ሎ ትነ</w>
ሎ ለብ</w>
ልፈ ቱ</w>
ልድ ሑ
ልያ ነ</w>
ልየ ትቱ</w>
ልው ዕል</w>
ልከ ፉ</w>
ልእ ም</w>
ልን ሰአ
ልትዓ የ
ልትዐ ዳወ
ልትነፈ ፅ
ልትበ ደ
ልትሰ ማ
ልትሰ መዐ
ልትሓ ረ
ልት ፈተ
ልት ጅ
ልት ወዐ
ልት ከፈ
ልት ከላ
ልት አመር
ልት ነዘ
ልት ት</w>
ልት ት
ልት በለ
ልት ሻፈ
ልት ሻረ
ልት ሸቄ
ልት ሰበ
ልት መዘ
ልት መል
ልት ል</w>
ልት ለቀ
ልት ሀር
ልታ ቪጎ</w>
ልታ ብ
ልተ ራቀ
ልብ ተ</w>
ልብ ቡ</w>
ልብ ሎ</w>
ልባብ ልባብ
ልበ ዩ</w>
ልቅ ተሉ
ልሽ ቀ
ልስ ሐ
ልሰ ኣል</w>
ልሰ ራ
ልር ኡ</w>
ልም የት</w>
ልም ረሐ
ልም ህ
ልመ ይት</w>
ልመ ታ</w>
ልሐ ቴ</w>
ልሐ ቱ</w>
ል ፈና
ል ፅ
ል ጽ</w>
ል ጳ
ል ጭቀ
ል ጦ</w>
ል ገል
ል ጀር
ል ዶ</w>
ል ዴ</w>
ል የትነ</w>
ል ዛበ
ል ወቅ
ል ኽ
ል ኸ
ል ኣብ</w>
ል አ</w>
ል ንገ
ል ኑ</w>
ል ቼ
ል ተሀየ
ል ቃ</w>
ል ቁ</w>
ል ቀድ
ል ቀስ
ል ሽ</w>
ል ራቅ
ል ሞም</w>
ል ምን
ል ማይት</w>
ል መተ</w>
ል ሔ</w>
ል ሂ
ል ሀ</w>
ሌ ጠ</w>
ሌ ታይ</w>
ሌ ታ</w>
ሌ ተር</w>
ሌ ብ
ሌ በ</w>
ሌ ቅ</w>
ላድ ኩም</w>
ላይ ና</w>
ላይ ሙ</w>
ላን ዳ</w>
ላን ዲን</w>
ላን ዲ</w>
ላን ካ</w>
ላብ ስ</w>
ላቅ ያት</w>
ላም ደ</w>
ላል ፉ</w>
ላል ፈ</w>
ላ ጼ</w>
ላ ጥ
ላ ደ</w>
ላ ይድ</w>
ላ ያት</w>
ላ ኬ</w>
ላ ኪን</w>
ላ ኪ</w>
ላ ታ
ላ ባ</w>
ላ ቃ
ላ ምከ</w>
ላ ለት</w>
ላ ሃ</w>
ሊ ፉ</w>
ሊ ደ</w>
ሊ ይ
ሊ ዘ</w>
ሊ ዉድ</w>
ሊ ቶም</w>
ሊ ተን</w>
ሊ ብ
ሊ በለ
ሊ ማ</w>
ሊ ሌ</w>
ሊ ሉ
ሉ ዩ</w>
ሉ ዉ</w>
ሉ ኮ</w>
ሉ ክስ</w>
ሉ ኩም</w>
ሉ ኡ</w>
ሉ ኑ</w>
ሉ ታይ</w>
ሉ ማም</w>
ለፍ ድብ
ለፍ ክረ
ለፍ መ</w>
ለፋ እ</w>
ለፋ ሽ
ለፈ ጅ
ለፈ ናት
ለፈ ነ</w>
ለፈ ራ
ለፈ ልሰ
ለጽ ብ
ለጸ ንሕ
ለጥ ር
ለጠ ለቀ
ለግ ናዘ
ለገ ዐ
ለገ ኖ
ለገ ን
ለገ መት</w>
ለገ መ</w>
ለጅ እ</w>
ለጀ ረ
ለድ ከ</w>
ለዳገ ም
ለደ ፋ
ለደ ገም
ለደ ዋ
ለይ ዐ
ለይ ኣቴ
ለይ ኣ
ለይ አብ
ለይ ት
ለይ ም</w>
ለይ ል</w>
ለይ ለአም
ለይ ለ</w>
ለዘ ብጠ
ለዕ ን
ለዕ ም
ለዓ ል
ለዐ የ
ለዐ ው</w>
ለዐ ን</w>
ለዐ ረግ
ለዐ ሉ
ለዐ ለት
ለው ጥ</w>
ለው ያት</w>
ለው ሉ
ለዋ ላይ</w>
ለወ ዚ
ለወ ቆ</w>
ለኸ ስ
ለክ ነ</w>
ለክ ትሮ
ለክ ብ
ለክ ስ
ለክ ሊ
ለካ የድ
ለከ ደም
ለከ ሰብ
ለከ ሰር
ለእን ብ
ለእን ሸ
ለእን ሰ
ለእት ፋ
ለእት ሐ
ለእስ ትሽ
ለእስ ትራ
ለእ ፍ
ለእ ዘ
ለእ ዕ
ለእ ክ
ለእ ናስ</w>
ለእ ብለ
ለእ ቅ
ለእ ምበ
ለእ ማ
ለኣ ድ
ለኣ ይ
ለኣ ትሐ
ለኢት ከ
ለኢት ነፈ
ለኢት ትዐ
ለኢት ትሰ
ለኢት ቀ
ለኢት ሓ
ለኢልት ቀ
ለኢ ፈሀም
ለኢ ጸግ
ለኢ ጠዐ
ለኢ ዐ
ለኢ ወጅ
ለኢ እን
ለኢ አብ
ለኢ ነፍ
ለኢ ታኬ
ለኢ ልአ
ለኢ ልስ
ለኢ ለዓ
ለኢ ለተ
ለኢ ለቀ
ለኢ ለህ
ለአግ ዋ
ለአግ ሩ
ለአክ ላ
ለአን ጎ
ለአትና የተ
ለአት ገ
ለአት ዐጀ
ለአት ካርም</w>
ለአት አመረ
ለአት አመ
ለአት መቃር
ለአት መም
ለአት ሐረ
ለአት ሃድ
ለአተን ሱ
ለአተላ ሌ</w>
ለአተ ናስ
ለአተ ባ
ለአቅ ብ
ለአስተ ፊ
ለአስ ኡ
ለአስ ታህ
ለአሰ ተብ
ለአር ዛ
ለአር አ
ለአም ዕ
ለአም ሐ
ለአ ጸብ
ለአ ገድ
ለአ ዳል
ለአ ደቅ
ለአ ዜ
ለአ ዋ
ለአ ከይ
ለአ ንፈ
ለአ ንቅ
ለአ ተል
ለአ ቦ
ለአ በጽሕ
ለአ ቀድ
ለአ ቀን
ለአ ስ</w>
ለአ ሳር
ለአ ርበ
ለአ ልባ
ለንት ነፈ
ለንት ሐ
ለን ዲ</w>
ለነ ፊ
ለነ ደ
ለነ ዘም
ለነ ሲ
ለነ ሰእ
ለነ ሰኣ
ለትፈና ተየ</w>
ለትፈ ክር</w>
ለትዐ ለም
ለትት ጃ
ለትት ባ
ለትሰ ረ
ለትሓ በረ
ለት ጸዐ
ለት ገበ
ለት ጀል
ለት ደበ
ለት ዛ
ለት ዓደ
ለት ዐደ
ለት ወከ
ለት ወል
ለት ካ</w>
ለት ከበት
ለት ከምክ
ለት ከምከ
ለት ኣመረ
ለት አዘ
ለት ን</w>
ለት ትነፈ
ለት ተብ
ለት ሰምዐ
ለት ረክ
ለት ረአ
ለት ረስ
ለት ማ</w>
ለት መዛ
ለት መው
ለት ለበ
ለት ለመ
ለት ህ
ለት ሃጌ
ለት ሀይበ
ለቴ ለ
ለተአ ው
ለተአ ተላ
ለተአ ተ
ለተም ኔ
ለተ ፍ
ለተ የል
ለተ ርከ
ለተ ምት
ለተ ሐብ
ለተ ሐር
ለተ ልሄ
ለተ ለ
ለተ ህ
ለተ ሃጌ
ለብ ኪ</w>
ለብ ሶም</w>
ለብ ህ
ለባ ቱ</w>
ለባ በት</w>
ለበዝ ሐው</w>
ለበ ሐ
ለበ ላ
ለቅ ዱ
ለቅ ቱ</w>
ለቃ ን
ለቀ ጻ
ለቀ ርበ
ለቀ ልበ
ለሸ ዐ
ለሸ ንገ
ለስ ታ
ለስ ብ
ለስ ሕ
ለስ ላሴ</w>
ለሳ ብ
ለሱ ፍ</w>
ለሰ ድያ
ለሰ ዐ
ለሰ ወ</w>
ለሰ አ
ለሰ ነ</w>
ለሰ ሬ
ለሰ ሕ
ለር ዝ
ለረ ከዘ
ለረ ኢ
ለረ ሳ
ለምን ኣ
ለም ክ
ለም ት</w>
ለም ቱ</w>
ለም ስተ
ለሙ ን</w>
ለሙ ሲ
ለመት መ</w>
ለመት ሄ
ለመ ዛ
ለመ ውዕ
ለመ ክር
ለመ ን</w>
ለመ ኒ</w>
ለመ ነ
ለመ ታ
ለመ ሳር
ለመ ሓር
ለመ ልሀ
ለመ ህ
ለሕ ው
ለሕ ን
ለሕ ም
ለሓ ልፋ
ለሐ ዲ
ለሐ ዩ</w>
ለሐ የ</w>
ለሐ ካይ
ለሐ ኪ
ለሐ ብሬ
ለሐ ባ
ለሐ ርግ
ለሐ ማ
ለሐ ሙ
ለልአ መጽ
ለልት ዓደ
ለልት ዐዳ
ለልት በሀል</w>
ለልት ቀየ
ለልት ሸነ
ለልት መደ
ለልት ሃጌ
ለልት ሀገ
ለል ጅ
ለል ዐድ
ለል ዐይ
ለል ዐው
ለል ዐቅ
ለል ኪ</w>
ለል አስእ
ለል አርኤ
ለል ተበ
ለል ብል</w>
ለል ብል
ለል ሓል
ለል ሃይ
ለል ሃ
ለለዐ </w>
ለለአት ዐጅብ</w>
ለለአት ባ
ለለአት መሳ
ለለአት ሓ
ለለአ ግ
ለለአ ጀር
ለለአ ደ
ለለአ ው
ለለአ ስእ
ለለት ና
ለለት ሓ
ለለሐ ሽ
ለለሀ ዩ
ለለ ዮም</w>
ለለ ዎ</w>
ለለ ወ</w>
ለለ ን</w>
ለለ ስተ
ለለ ረ
ለለ ሃ
ለህ ዩ
ለሃ ሚ
ለሀ ድግ
ለሀ የ
ለሀ ው</w>
ለሀ በተ
ለ ፋይ
ለ ፊት</w>
ለ ገብእ</w>
ለ ጄራ
ለ ዳ</w>
ለ ዮቶም</w>
ለ ዬ</w>
ለ ዩ
ለ ዞ
ለ ዜ</w>
ለ ዎሮ
ለ ዋልዳይ
ለ ዉኒ</w>
ለ ኽ
ለ ካይ
ለ ንደ
ለ ባት</w>
ለ ባር
ለ ቕ
ለ ሩ</w>
ለ ሜኒ</w>
ለ ማን
ለ ለከፍ
ሇ ዏ
ሇ አ
ሆር ሞ
ሆ ተ</w>
ሆ ባ</w>
ሆ ልም</w>
ህይ ወት
ህ ፊ</w>
ህ ፀ</w>
ህ ጻ
ህ ጩ
ህ ጠ</w>
ህ ጋ
ህ ዲ</w>
ህ ደም
ህ ያት</w>
ህ ያም</w>
ህ ዚ</w>
ህ ንቅ
ህ ነት</w>
ህ ርክ
ህ ራት</w>
ህ ሠ</w>
ህ ማ
ህ ሊ</w>
ህ ለክ</w>
ሄር ሮ</w>
ሄ ብ</w>
ሄ ሪ</w>
ሄ ሞ
ሄ ለኮፕ
ሄ ለ</w>
ሃግ ዩ</w>
ሃገ ዉ</w>
ሃይ ድ
ሃይ ባም
ሃይ በት
ሃምፕ ቶን</w>
ሃም ቶን</w>
ሃ ፍ</w>
ሃ ዶም</w>
ሃ ዴ</w>
ሃ ደየ</w>
ሃ ያ</w>
ሃ ው</w>
ሃ እ</w>
ሃ ኑ</w>
ሃ ባ
ሃ ሮ</w>
ሃ ራት</w>
ሃ ሪ
ሃ ምነ</w>
ሃ ማት</w>
ሃ ማ
ሃ መት</w>
ሃ ለ</w>
ሂጋ ሁ</w>
ሂ ዲ
ሂ ሮ
ሂ ሙ</w>
ሁ ዝ</w>
ሁ ዎ</w>
ሁ ሩ</w>
ሁ ህ</w>
ሀድ ን</w>
ሀዳ እ</w>
ሀደ ፍ</w>
ሀደ ገት</w>
ሀይ በነ</w>
ሀብ ኩ
ሀበ ዮም</w>
ሀበ ዩ</w>
ሀበ ቱ</w>
ሀርበ ብ</w>
ሀር በ</w>
ሀረ ሰ</w>
ሀመ ቶም</w>
ሀሌ ኮ</w>
ሀለ ዮቱ</w>
ሀ ግያ
ሀ ዲ</w>
ሀ ዲ
ሀ ዪ</w>
ሀ ዞ</w>
ሀ ኩም</w>
ሀ ንዳ
ሀ ነክ
ሀ ትካ</w>
ሀ ተማ
ሀ ቅ</w>
ሀ ሮም</w>
ሀ ርብ</w>
ሀ ራይ</w>
ሀ ሩ
ሀ ለው
ሀ ለብ
ሀ ሀ
ፖ ድ</w>
ፖ ይ
ፖ ዚ
ፖ ክስ</w>
ፖ ት</w>
ፖ ስ</w>
ፕሮፌ ሽ
ፕሮ ፈ
ፕሮ ቲን</w>
ፕሮ ሚች</w>
ፕሪ ንተር</w>
ፕ ያን</w>
ፕ ያ
ፕ ዩተር</w>
ፕ ት</w>
ፕ ተን</w>
ፕ ስዊች</w>
ፕ ራግ
ፕ ራይ
ፓር ታ
ፓ ፕ
ፓ ፓ
ፓ ታይትስ</w>
ፒ ደስ</w>
ፒ ት</w>
ፒ ቲ</w>
ፒ ሮ</w>
ፑ ተር</w>
ፑ ሽ
ፑ ር</w>
ፐ ንደ
ፐ ል</w>
ፎር ቶ
ፎ ጀጅ</w>
ፎ ይ</w>
ፎ ዘ</w>
ፎ ው
ፎ ብየ</w>
ፎ ሽ</w>
ፎ ርስ</w>
ፎ ራ</w>
ፎ ምመ</w>
ፎ ሎ</w>
ፎ ል</w>
ፎ ህ</w>
ፎ ሀ</w>
ፍዐ የ</w>
ፍት የት</w>
ፍት እ</w>
ፍር ድ</w>
ፍር ያይ</w>
ፍር ያት</w>
ፍር ያም
ፍር የ</w>
ፍሬ ም</w>
ፍራ ቅ</w>
ፍረ ይ</w>
ፍረ ዩ</w>
ፍሎ ሬ
ፍህ መኒ</w>
ፍ ፎ</w>
ፍ ፈ</w>
ፍ ጻ
ፍ ጭ</w>
ፍ ዱ
ፍ ይሔ
ፍ ያም</w>
ፍ ያ
ፍ ዞም</w>
ፍ ዝዮን</w>
ፍ ዓ</w>
ፍ ዒት</w>
ፍ ዑኒ</w>
ፍ ዎ</w>
ፍ ዋ
ፍ ክ
ፍ ኦ</w>
ፍ ና
ፍ ታሕ</w>
ፍ ታ
ፍ ተር</w>
ፍ ስኪ</w>
ፍ ስታ
ፍ ሮም</w>
ፍ ራይ
ፍ ሖ</w>
ፍ ሒ</w>
ፍ ሒ
ፍ ሑ
ፍ ሎ</w>
ፍ ልት</w>
ፍ ሃ</w>
ፍ ሀም</w>
ፍ ሀ
ፌ ዴ
ፌ ዕመ</w>
ፌ ታ</w>
ፌ ስቲ
ፌ ሬ</w>
ፌ ራይ</w>
ፌ ረ
ፋግ ሩ</w>
ፋግ ረ</w>
ፋጅ አት</w>
ፋይ ፍ</w>
ፋይ ነ</w>
ፋዝ ዖ</w>
ፋት የት</w>
ፋት ሑ</w>
ፋሺ ሽ
ፋር ፍ</w>
ፋር ሶ</w>
ፋር መ</w>
ፋ ገት</w>
ፋ ዋ
ፋ ክክ</w>
ፋ ኢደ
ፋ ንታ
ፋ ብ</w>
ፋ ቀድ</w>
ፋ ቀዲ
ፋ ሾ</w>
ፋ ሶ</w>
ፋ ራ
ፋ ሪ</w>
ፋ ረን</w>
ፋ ሉ</w>
ፋ ሃ</w>
ፊ ዮ
ፊ የ</w>
ፊ ዝ</w>
ፊ ንለ</w>
ፊ ታት</w>
ፊ ሪ</w>
ፊ ረን
ፊ ረት</w>
ፊ ም</w>
ፊ መ</w>
ፊ ላ
ፊ ሆም</w>
ፊ ሁ</w>
ፉ ጉ</w>
ፉ ንጃ
ፉ ኑ
ፉ ቃም</w>
ፉ ስ</w>
ፉ ሩ</w>
ፉ ረ</w>
ፉ ላም</w>
ፈግረ ከ</w>
ፈግ ዖ</w>
ፈግ ዕ</w>
ፈድ ዮም</w>
ፈድ ኦ</w>
ፈድ ል
ፈዳ ብያ
ፈዳ ብ
ፈደ ሪ
ፈዝ ዝ</w>
ፈዝ ዖ</w>
ፈዝ ቱ</w>
ፈዐ ኪ</w>
ፈዐ ል</w>
ፈንት የ</w>
ፈንተ ዉ</w>
ፈን ጠረ</w>
ፈን ጂ</w>
ፈን ቴነ</w>
ፈን ቴት</w>
ፈን ቅል
ፈት ያኒ</w>
ፈት ዉ</w>
ፈት ሾ</w>
ፈት ሐ</w>
ፈቴ ነ</w>
ፈታ ዩ</w>
ፈታ የ</w>
ፈተ ች
ፈተ ሾ
ፈቅ ደከ</w>
ፈቅ ደን</w>
ፈሽ ሉ</w>
ፈስ ሮ</w>
ፈርሀ ነ</w>
ፈር ጎ</w>
ፈር ግ
ፈር ገዕ</w>
ፈር ዬ</w>
ፈር ያት</w>
ፈር ና
ፈር ተክ</w>
ፈር ቀቅ</w>
ፈር ስ</w>
ፈር ሐት</w>
ፈር ሀት</w>
ፈራ መ</w>
ፈሪ ከ</w>
ፈረ ዩ</w>
ፈረ ንሰ</w>
ፈረ ሀከ</w>
ፈል ናሁ</w>
ፈል ሉ</w>
ፈላ ሲ</w>
ፈላ ሰፍ</w>
ፈሀ መት</w>
ፈ ፎም</w>
ፈ ፍል</w>
ፈ ጽ
ፈ ጺ
ፈ ጬ
ፈ ጥን</w>
ፈ ጄዕ</w>
ፈ ደብ
ፈ የን</w>
ፈ ዞም</w>
ፈ ውኒ</w>
ፈ ዉከ</w>
ፈ ኣ
ፈ አት</w>
ፈ ነው</w>
ፈ ትተ</w>
ፈ ትሸት</w>
ፈ ቨ
ፈ ቀዲ
ፈ ሽል</w>
ፈ ልከ
ፈ ልስ
ፈ ሉ
ፈ ለዩ</w>
ፈ ለሰ
ፈ ለል</w>
ፇ ር</w>
ፅ ደት</w>
ፅ ዝ</w>
ፅ ራይ</w>
ፅ ህ</w>
ፀ ጠ</w>
ፀ ና</w>
ፀ ታ</w>
ፀ ለ</w>
ፀ ህ</w>
ጾ ኦም</w>
ጾ ረ
ጾ መ</w>
ጽን ዕ
ጽበ ጢ
ጽሐ ቱ</w>
ጽሐ ተ</w>
ጽ ፎም</w>
ጽ ፈ</w>
ጽ ያም</w>
ጽ የን</w>
ጽ ዖ
ጽ ኡ</w>
ጽ ተ</w>
ጽ ቦ</w>
ጽ ቦ
ጽ ቤሕ</w>
ጽ በር</w>
ጽ ምብ
ጽ ሖቱ</w>
ጽ ሔነ</w>
ጽ ሓ</w>
ጽ ላል</w>
ጽ ላል
ጼ ኔ
ጻገ መው</w>
ጻን ሕ</w>
ጻበ ጦ</w>
ጻ ይን</w>
ጻ ዩ</w>
ጻ የት</w>
ጻ በ</w>
ጻ ረ</w>
ጻ ሙ</w>
ጻ ህ</w>
ጻ ሀ</w>
ጺ ቱ</w>
ጺ ሆም</w>
ጹ የ</w>
ጹ ኔ</w>
ጹ ና</w>
ጹ ነ</w>
ጹ ሩ</w>
ጸግ ዐ</w>
ጸአ ኮ</w>
ጸአ ኩም</w>
ጸአ ን</w>
ጸአ ቱ</w>
ጸን ሔነ</w>
ጸብጠ ን</w>
ጸብጠ ኒ</w>
ጸብ ከ</w>
ጸብ ሐ</w>
ጸባ ሕ</w>
ጸበጥ ከ</w>
ጸበር ቱ</w>
ጸበረ ዩ</w>
ጸበ ጥነ</w>
ጸበ ዩ</w>
ጸበ ሮም</w>
ጸበ ሖ</w>
ጸር ጽር</w>
ጸር ጸረ</w>
ጸር ጸ
ጸሕ ናሁ</w>
ጸሐ የ</w>
ጸሐ ው</w>
ጸሐ ና</w>
ጸ ፀ
ጸ ድ</w>
ጸ ዮን</w>
ጸ የ
ጸ ውር</w>
ጸ ወታ
ጸ አው</w>
ጸ አት</w>
ጸ ኔ
ጸ ኑ
ጸ ባ</w>
ጸ ቡ
ጸ ምነ</w>
ጸ ልል</w>
ጸ ላ</w>
ጸ ህ
ጮ ቱ</w>
ጭን ብር
ጭሮር ሓይለ</w>
ጭ ጌ
ጭ ድቅ</w>
ጭ ው
ጭ ኮ</w>
ጭ ንገ
ጭ ንብ
ጭ ራ</w>
ጭ ሪ
ጭ ልሕ
ጬ ው</w>
ጬ ዋይ
ጬ ወት</w>
ጫ ይለ</w>
ጫ ና</w>
ጫ ቀት</w>
ጫ ረ
ጪ ክ</w>
ጪ ን</w>
ጪ ቱ</w>
ጪ ቅ</w>
ጩ ፊ</w>
ጩ ኳ</w>
ጩ ነ</w>
ጩ ብ</w>
ጩ ሪ</w>
ጩ ረ</w>
ጩ መ</w>
ጨ ፋ
ጨ ፈት</w>
ጨ ፈ
ጨ ገ</w>
ጨ ደ</w>
ጨ ዋርሕ</w>
ጨ ወ</w>
ጨ ኒ</w>
ጨ ብብ</w>
ጨ በዕ</w>
ጨ ቁ</w>
ጨ ቁ
ጨ ቀ
ጨ ረም
ጨ ም</w>
ጨ መር</w>
ጨ ለት</w>
ጨ ህ</w>
ጦ ታት</w>
ጦ ተ</w>
ጦ ርየት</w>
ጦ ረ</w>
ጦ ሕ</w>
ጥዕ ስ</w>
ጥ ጦም</w>
ጥ ውር</w>
ጥ ወት</w>
ጥ ኡ</w>
ጥ ንቅ
ጥ ነት</w>
ጥ በብ</w>
ጥ ሪ
ጥ ረነ</w>
ጥ ረቱ</w>
ጥ ረተ</w>
ጥ ሉ</w>
ጤ ጣይ</w>
ጤ ኩም</w>
ጤ ን</w>
ጤ ር</w>
ጤ ም</w>
ጣፍ ሕ</w>
ጣ ይመ</w>
ጣ የት</w>
ጣ ዛ</w>
ጣ ዕ</w>
ጣ እ</w>
ጣ ኢ
ጣ ናት</w>
ጣ ነብ</w>
ጣ ታት</w>
ጣ ቀት
ጣ ሽ</w>
ጣ ሮም</w>
ጣ ርየት</w>
ጣ ርከ</w>
ጣ ሪ</w>
ጣ ረሕ</w>
ጣ ማ</w>
ጣ ሚ</w>
ጣ ልባ
ጢ ፍ</w>
ጢ ብ</w>
ጢ ራት</w>
ጢ ራ</w>
ጡ ኑ</w>
ጡ ቅ</w>
ጡ ሮም</w>
ጡ ሙ</w>
ጡ ሕ</w>
ጡ ሉ</w>
ጠፍ ጥ
ጠፍ ጠ
ጠፍ ሖ</w>
ጠፍ ሐት</w>
ጠፈ ሐ</w>
ጠይ ዕ</w>
ጠው ራት</w>
ጠወ ጢ</w>
ጠቢ ዓ
ጠበ ዐ</w>
ጠር ው</w>
ጠር ኪ</w>
ጠር ና</w>
ጠር ስ</w>
ጠረ ዘ</w>
ጠምጠ መ</w>
ጠም ጥመ</w>
ጠል በ</w>
ጠል መከ</w>
ጠ ፎ</w>
ጠ ፀ</w>
ጠ ዌ
ጠ ወረየ</w>
ጠ ወረት</w>
ጠ ኪ</w>
ጠ ና
ጠ ቼ</w>
ጠ ትተ</w>
ጠ ብለ
ጠ ቤ
ጠ ባ</w>
ጠ በው</w>
ጠ ቀ</w>
ጠ ሾት</w>
ጠ ርበ
ጠ ራት</w>
ጠ ለፍ
ጠ ለቅ</w>
ጠ ለም</w>
ጠ ህ</w>
ጓ ት</w>
ጎቪ ነ</w>
ጎ ገነ</w>
ጎ ይት
ጎ ዝ</w>
ጎ ኖ
ጎ ኒታት</w>
ጎ ታ</w>
ጎ ቦ</w>
ጎ ሰ</w>
ጎ ራ
ጎ ረ</w>
ጎ ሉ</w>
ጎ ለ</w>
ግድ ላ
ግን ጉ
ግብ አ
ግበ እ
ግር ን
ግር ኒ</w>
ግር መተ</w>
ግሬ ብ</w>
ግራ ዬ</w>
ግራ የ</w>
ግሩ ሽ</w>
ግረ ይት</w>
ግረ ከ</w>
ግረ ነ</w>
ግረ ቱ</w>
ግረ ህ</w>
ግማ መት
ግል ሚ</w>
ግላ ስ
ግ ፎ</w>
ግ ፋ
ግ ፈ</w>
ግ ዶ
ግ ድሪ
ግ ድም</w>
ግ ዴ</w>
ግ ዳ</w>
ግ ዮርጊስ</w>
ግ ያሁ</w>
ግ ዖም</w>
ግ ዓት</w>
ግ ኪ</w>
ግ ኦ</w>
ግ እዝ
ግ አ</w>
ግ ንብ
ግ ኒ</w>
ግ ቡይ</w>
ግ በአ
ግ ስና
ግ ስነ</w>
ግ ስት</w>
ግ ሳይ</w>
ግ ሰን</w>
ግ ሩነ</w>
ግ ምከ</w>
ግ ምብ
ግ ምመ</w>
ግ ማይት</w>
ግ ሚ</w>
ግ መ
ግ ሖ</w>
ግ ልዕ
ግ ላ</w>
ግ ሃም</w>
ግ ሃ</w>
ግ ሁ
ጌ ጋ</w>
ጌ ድ</w>
ጌ ኪ</w>
ጌ ታ
ጌ ቲ</w>
ጌ ስ
ጌ ሳ</w>
ጌ ሰት</w>
ጌ ር
ጌ ረማ
ጌ ልል</w>
ጌ ሉ</w>
ጋይ ከ</w>
ጋይ ነ</w>
ጋይ ሰ</w>
ጋይ መ</w>
ጋን ሑ</w>
ጋብ ሆም</w>
ጋብ ሆ</w>
ጋር ያ</w>
ጋ ጌ</w>
ጋ ጋ</w>
ጋ ጊ
ጋ ገ
ጋ ዶ</w>
ጋ ዴን</w>
ጋ ደ</w>
ጋ ይን</w>
ጋ ዙ</w>
ጋ ዐ</w>
ጋ ክ</w>
ጋ ክ
ጋ እ</w>
ጋ ኑ</w>
ጋ ተ</w>
ጋ ብር
ጋ በ
ጋ ሻይ</w>
ጋ ሲ</w>
ጋ ሮም</w>
ጋ ሞም</w>
ጋ ምል</w>
ጋ ማቱ</w>
ጋ ሎ</w>
ጋ ልያኖ</w>
ጋ ሌ
ጋ ላክ
ጋ ሉ</w>
ጋ ለበ</w>
ጊ ጎ</w>
ጊ ብ</w>
ጊ ሶም</w>
ጊ ስቱ</w>
ጊ ማይ</w>
ጊ ላ
ጉር ጉር</w>
ጉ ጅ
ጉ ዕ</w>
ጉ ን
ጉ ባም</w>
ጉ ሳም</w>
ጉ ሰን</w>
ጉ ሮ</w>
ጉ ሌ</w>
ጉ ላት</w>
ጉ ሉ
ጉ ለት</w>
ገጽ ገ
ገጊ ቶም</w>
ገይ ሶ
ገዝ ኮ</w>
ገዐ ዘ</w>
ገኖ በት
ገን ሖም</w>
ገነ ዕ</w>
ገነ ሕ</w>
ገብሬ ማርያም
ገብረመስ ቀል
ገብረ ሂወት
ገብ አነ</w>
ገበ ዮም</w>
ገበ አት</w>
ገስ ዩ</w>
ገሮ ተ</w>
ገሮ ብዬ</w>
ገሮ በ</w>
ገርጊ ሽ
ገር ዴዕ</w>
ገር ዝ
ገር ው</w>
ገር ኩም</w>
ገር ኔ</w>
ገር ሰት
ገር ሀት</w>
ገራ ደመ</w>
ገረ ቶም</w>
ገረ ብ</w>
ገረ ህ</w>
ገም ዮም</w>
ገልጸ ጽ</w>
ገልጸ ጸት</w>
ገለ ባይ</w>
ገሀ ፎ</w>
ገ ፋት
ገ ፅ</w>
ገ ዶም</w>
ገ ዴን</w>
ገ ደር
ገ ይት</w>
ገ ያድ</w>
ገ ያ</w>
ገ ዝመ</w>
ገ ዐዝ
ገ ና</w>
ገ ኒ
ገ ነስ
ገ ነሐ
ገ ቲት</w>
ገ በው</w>
ገ ሲ</w>
ገ ሰዩ</w>
ገ ምለ</w>
ገ ሚ
ገ ሎት</w>
ገ ልቱ</w>
ገ ልል</w>
ገ ሀይ
ገ ሀ</w>
ጆር ጆ</w>
ጆር ጅ</w>
ጆ ፕሊን</w>
ጆ ዕ</w>
ጆ ታት</w>
ጅን ሱ</w>
ጅነ ቲ</w>
ጅር ሚን</w>
ጅ ጅ</w>
ጅ ዱ
ጅ ደ</w>
ጅ ዮም</w>
ጅ ዮ
ጅ ያይት</w>
ጅ ያት</w>
ጅ ያ</w>
ጅ ዌ
ጅ ክ</w>
ጅ ናይ</w>
ጅ ና</w>
ጅ ባ</w>
ጅ በከ</w>
ጅ በ</w>
ጅ ስ</w>
ጅ ራይ</w>
ጅ ሩ</w>
ጅ ማን</w>
ጅ ልጅ
ጅ ሌ
ጅ ለኒ</w>
ጅ ሃት</w>
ጅ ሁ
ጄሪ ካ
ጄ ይ
ጄ ንደት</w>
ጄ ንቲ
ጄ ን</w>
ጄ ላን</w>
ጄ ላ
ጄ ህ</w>
ጃግረ ነ</w>
ጃ ፓን
ጃ ጂን</w>
ጃ ዝዩ</w>
ጃ ኖም</w>
ጃ ኑ</w>
ጃ ቶም</w>
ጃ ትከ</w>
ጃ ባ</w>
ጃ ሪብ</w>
ጃ ላት</w>
ጃ ህድ</w>
ጃ ሃት</w>
ጃ ሀ
ጂኦ ግራፍ
ጂ ዲ</w>
ጂ ያይ</w>
ጂ ያ
ጂ ንግ</w>
ጂ ታትነ</w>
ጂ ታ
ጂ በት</w>
ጂ ስ</w>
ጂ መ</w>
ጁ በ</w>
ጁ ሩ</w>
ጁ ላት</w>
ጁ ሉ</w>
ጀግ ሐው</w>
ጀዛ ይር</w>
ጀዋ እ
ጀዋ ብ</w>
ጀዋ ባት</w>
ጀነ ራል</w>
ጀነ ራ
ጀነ ረይ
ጀብ ሃ
ጀር መና
ጀራ ርቦ</w>
ጀሪደ ትሰ
ጀረ ቦ
ጀረ በት</w>
ጀማ ዐቱ</w>
ጀል ጥ</w>
ጀላ ሊ
ጀሀ ዶ</w>
ጀሀ ነ</w>
ጀሀ ተ</w>
ጀ ፈ</w>
ጀ ግ</w>
ጀ ገ
ጀ ድዶ</w>
ጀ ዳ
ጀ ይ
ጀ ዘ</w>
ጀ ዋን
ጀ ዉ</w>
ጀ ወር
ጀ ነት</w>
ጀ ቼ</w>
ጀ ቦም</w>
ጀ ቦ</w>
ጀ ቢ
ጀ ቀ
ጀ ሬት</w>
ጀ ረየ</w>
ጀ ሞት</w>
ጀ መዐ
ጀ ለጀ
ጀ ሆ</w>
ዽ </w>
ዶብ ሐ</w>
ዶ ግ
ዶ ጋን</w>
ዶ ዶ</w>
ዶ ከ</w>
ዶ ትቱ</w>
ዶ ትመ</w>
ዶ ታቱ</w>
ዶ በ</w>
ዶ ሮ</w>
ዶ ርየ</w>
ዶ ራ</w>
ዶ ረት</w>
ዶ ረ
ዶ ም
ዶ ሎም</w>
ዶ ልተ</w>
ዶ ሌ
ዶ ሆም</w>
ድፍ ዑ</w>
ድጋ ሀ</w>
ድገ ው</w>
ድያ ትመ</w>
ድን ያይት</w>
ድብ ኢ</w>
ድብ ረ</w>
ድሮ ሬ</w>
ድር ኒ</w>
ድር ሆ
ድራ ር
ድራ ሌ</w>
ድሪ ተ</w>
ድረ ትነ</w>
ድረ ሱ</w>
ድረ ር</w>
ድም የት</w>
ድም ኩም</w>
ድሕ ኖ</w>
ድሕ ኑ</w>
ድሕ ት</w>
ድሕ ሩ</w>
ድ ፋን</w>
ድ ፈን</w>
ድ ጊ</w>
ድ ድት</w>
ድ ደት</w>
ድ ይ</w>
ድ ያተ</w>
ድ ያሁ</w>
ድ የትለ</w>
ድ ዎም</w>
ድ ውራ
ድ ዋ</w>
ድ ኽ
ድ ክን</w>
ድ ኣይ</w>
ድ ኢ
ድ ንገ
ድ ናት</w>
ድ ኑ
ድ ቶም</w>
ድ ቤ
ድ ቂ
ድ ሰ</w>
ድ ሬ</w>
ድ ሞም</w>
ድ ምን</w>
ድ ሚር</w>
ድ ሕር
ድ ሒ
ድ ለን</w>
ድ ሆ
ድ ህር
ድ ሄ
ድ ሃ</w>
ዴንማር ክ
ዴ ዴ
ዴ ዬ</w>
ዴ ናይ</w>
ዴ ቪ
ዴ ርያ
ዴ ሪ</w>
ዴ ረ
ዴ ም</w>
ዴ ል
ዴ ሌ</w>
ዳገም ናሀ</w>
ዳገ ነ</w>
ዳገ ሽ</w>
ዳይና ሚ
ዳይ ዕ</w>
ዳይ ኖ
ዳይ ሬክ
ዳይ መን
ዳይ ሎ</w>
ዳው ድ</w>
ዳን ዪን</w>
ዳር ፍ</w>
ዳር ለ</w>
ዳም ያት</w>
ዳም የት</w>
ዳም ማ</w>
ዳል ዮም</w>
ዳ ጋት</w>
ዳ ዳት</w>
ዳ ደት</w>
ዳ ያይ</w>
ዳ ው</w>
ዳ ዊት</w>
ዳ ወዮ
ዳ ኖስ</w>
ዳ ንያ
ዳ ና
ዳ ቢት</w>
ዳ ሻ
ዳ ሞም</w>
ዳ ማ</w>
ዳ ለት</w>
ዳ ህ</w>
ዲ ፒደስ</w>
ዲ ዳት</w>
ዲ የ
ዲ ኮ
ዲ ካል</w>
ዲ እ</w>
ዲ ኖ</w>
ዲ ቶ</w>
ዲ ትተ</w>
ዲ ሰ</w>
ዲ ርለ</w>
ዲ ሜ
ዲ መት</w>
ዲ መቅ
ዲ ሀን</w>
ዱ ዶም</w>
ዱ የ</w>
ዱ ው</w>
ዱ ክ</w>
ዱ ባይ</w>
ዱ ቡ</w>
ዱ በ</w>
ዱ ቁ</w>
ዱ ራይ</w>
ዱ ሁ</w>
ደፍ ኮ</w>
ደፍ መ</w>
ደፍ ለ</w>
ደፈ ዐከ</w>
ደፈ ዐት</w>
ደፈ ኖ</w>
ደግ ድግ</w>
ደግ ልል</w>
ደጋ ግሙ</w>
ደጋ ገም
ደይ ለ</w>
ደው ቶም</w>
ደዋ መ</w>
ደክቶ ረት</w>
ደአ ሎ</w>
ደንገ ረ</w>
ደን ጋ
ደን ገ</w>
ደን ክ</w>
ደን ኑ</w>
ደነ ብር
ደነ ስ</w>
ደብ ድቦ</w>
ደብ ደብ</w>
ደብ ዛ
ደብ ኦ</w>
ደባ ደ
ደበ ሳይ
ደቅ ጥ</w>
ደቅ ቱ</w>
ደቀ ቅ</w>
ደር ናሁ</w>
ደር ና</w>
ደር ቡ
ደር ህ
ደራ ግግ</w>
ደራ እ</w>
ደራ መ</w>
ደራ ል</w>
ደሩ ሶም</w>
ደረ ኩም</w>
ደረ በ</w>
ደረ ሽን</w>
ደም ዬ</w>
ደም የት</w>
ደም ዖም</w>
ደም ኑ</w>
ደም በ
ደመ ሚት</w>
ደል ዮም</w>
ደሀ ረት</w>
ደ ጎም</w>
ደ ዐየ</w>
ደ ወን</w>
ደ ኮ
ደ ክን</w>
ደ ክ</w>
ደ ኦም</w>
ደ አው</w>
ደ ነት</w>
ደ ች</w>
ደ ትኪ</w>
ደ ቦ
ደ ባ</w>
ደ ቂ</w>
ደ ሪ</w>
ደ ማን</w>
ደ መን</w>
ደ ልከ</w>
ደ ላት</w>
ዮው ሃንስ
ዮ ድ</w>
ዮ ዲን</w>
ዮ ይ</w>
ዮ ንስሊግ</w>
ዮ ኔል</w>
ዮ ትቱ</w>
ዮ ታቱ</w>
ዮ ቲ</w>
ዮ ቱመ</w>
ዮ ሩ</w>
ዮ ማ</w>
ዮ ሙ</w>
ይአት መ
ይአ ቱ</w>
ይአ መን
ይአ ሌሌ
ይሕ ዉ</w>
ይሐ ደግ
ይሐ ኮ</w>
ይሐ ን</w>
ይ ጽ
ይ ዘ</w>
ይ ዐ</w>
ይ ኸ
ይ ካ
ይ ኣም
ይ አፍገር
ይ አገ
ይ አዳ
ይ አትሐ
ይ አተን
ይ አሳ
ይ አምጸአ
ይ ንብ
ይ ኔ</w>
ይ ትተ</w>
ይ ትበ
ይ ትቀ
ይ ትረ
ይ ትሕ
ይ ትሐ
ይ ታት</w>
ይ ቐ
ይ ሱ</w>
ይ ርቱ</w>
ይ ረጋ
ይ ሠ
ይ ሞ</w>
ይ ሐብ
ይ ሐረ
ይ ሐል
ይ ሎ
ይ ልት
ይ ላ</w>
ይ ለሐ
ይ ሄረ
ይ ሃ</w>
ዬ ንመ</w>
ዬ ና</w>
ዬ ቼ</w>
ዬ ትመ</w>
ዬ ቭ</w>
ያ ገት</w>
ያ ድ
ያ ይስ</w>
ያ ያም</w>
ያ ያ
ያ ዖ</w>
ያ ዕ
ያ ው</w>
ያ ዊት</w>
ያ ወ
ያ ክ</w>
ያ ኦ</w>
ያ ትና</w>
ያ ተት</w>
ያ ቆብ</w>
ያ ሻ</w>
ያ ሺ
ያ መ
ያ ህ
ዪ ከ</w>
ዪ ኖም</w>
ዪ ንቶም</w>
ዪ ሀ</w>
ዩኒ ቨር
ዩ ና</w>
ዩ ቶ</w>
ዩ ሲ
ዩ ራም</w>
ዩ ሞም</w>
ዩ ማም</w>
ዩ ሉ</w>
የው ሀንስ</w>
የት ኮ</w>
የት ቡ</w>
የመ መት</w>
የ ፎ</w>
የ ፎ
የ ፍ
የ ፈ
የ ጽ</w>
የ ጋ
የ ዶት</w>
የ ዳ</w>
የ ዬ</w>
የ ዩ</w>
የ የ
የ ዕቆ
የ ዐቅ
የ ዐለ
የ ክ</w>
የ ኣ
የ አጽ
የ አደ
የ አዝ
የ አዘ
የ አትመም
የ ንድ
የ ና
የ ኑ</w>
የ ቶ</w>
የ ታቱ</w>
የ ታተ</w>
የ በው</w>
የ በተ
የ ቀንኮ</w>
የ ሲ</w>
የ ሱ</w>
የ ርቱ</w>
የ መን
የ ሐት</w>
የ ሉ</w>
የ ሃ
የ ሀይ
ዞ ዕ</w>
ዞ ሆም</w>
ዝያ ዳ
ዝያ እ</w>
ዝብ የት</w>
ዝበ ጦ</w>
ዝበ ጡ</w>
ዝበ ጠ</w>
ዝረ ኽ
ዝረ ኸ
ዝሕ ረት</w>
ዝ ፎ</w>
ዝ ፋ
ዝ ጸ
ዝ ጎ</w>
ዝ ግ</w>
ዝ ጋብሄር</w>
ዝ ገት</w>
ዝ ያይት</w>
ዝ ያቱ</w>
ዝ የም</w>
ዝ ዛ
ዝ ዎም</w>
ዝ ው
ዝ ዀ
ዝ ክሪ
ዝ ክ
ዝ ኩም</w>
ዝ ከረት</w>
ዝ ናሁ</w>
ዝ ተጠቕ
ዝ ተኣ
ዝ ተሓ
ዝ ቤ</w>
ዝ በን</w>
ዝ ራ</w>
ዝ ሪ</w>
ዝ ምት</w>
ዝ ሙ</w>
ዝ መ
ዝ ሖት</w>
ዝ ሔ</w>
ዝ ሒ</w>
ዝ ሌ
ዝ ላ</w>
ዝ ሇ</w>
ዝ ህር</w>
ዜ ዴ</w>
ዜ ያ</w>
ዜ ዝ</w>
ዜ ኮ</w>
ዜ ክ</w>
ዜ ካ</w>
ዜ ቦ</w>
ዜ ቤ</w>
ዜ በ</w>
ዜ ርን</w>
ዛይ ማት</w>
ዛይ ለ</w>
ዛየ ሮም</w>
ዛብ ጥ
ዛበ ዮም</w>
ዛ ዛ
ዛ ዎ</w>
ዛ ው</w>
ዛ ክር
ዛ ክረ
ዛ ናይ</w>
ዛ ኑ</w>
ዛ ቤከ</w>
ዛ ቤኒ</w>
ዛ ባ
ዛ ርድ</w>
ዛ ራ</w>
ዛ ሪ</w>
ዛ ረብ</w>
ዛ ሙ</w>
ዛ ሓ</w>
ዛ ሉ</w>
ዚ ፎ
ዚ ግ</w>
ዚ ዳ</w>
ዚ ክስ</w>
ዚ ከ</w>
ዚ ረ</w>
ዚ ም
ዚ መት</w>
ዚ ሕ</w>
ዙ ዩ</w>
ዙ ዉ</w>
ዙ ና</w>
ዙ ቱ</w>
ዙ ማም</w>
ዘይ ዶ</w>
ዘይ ድቱ</w>
ዘይ ደ</w>
ዘዖ ታት
ዘከረ ን</w>
ዘከ ሩቱ</w>
ዘብ ጥ
ዘብ ጡ</w>
ዘብ ዮ</w>
ዘበ ጠት</w>
ዘርላንድ ስ</w>
ዘር ዘ
ዘራ ኬ</w>
ዘም ኮ</w>
ዘም ቶ</w>
ዘ ፈት</w>
ዘ ፈ
ዘ ፀ</w>
ዘ ግ
ዘ ዮ</w>
ዘ ዞት</w>
ዘ ካየ
ዘ ኖ</w>
ዘ ንዛ
ዘ ንኮ</w>
ዘ ኒ
ዘ ትነ</w>
ዘ ታ</w>
ዘ ሮ
ዘ ረእ
ዘ ለም</w>
ዖ ፌ</w>
ዖ ና</w>
ዖ ታቱ</w>
ዖ ሀ</w>
ዕንቦ በ</w>
ዕን ተ</w>
ዕብ ዮ</w>
ዕቀ ቡ</w>
ዕም ረ</w>
ዕሉ ማ
ዕ ፉ</w>
ዕ ጀ
ዕ ዶም</w>
ዕ ድመ</w>
ዕ ዮ
ዕ ይ</w>
ዕ ያ</w>
ዕ ዪን</w>
ዕ የን</w>
ዕ ዙ</w>
ዕ ዘ
ዕ ዐ
ዕ ክዉ</w>
ዕ ክወ</w>
ዕ ንግ
ዕ ንከ
ዕ ንስ
ዕ ነ
ዕ ቱ
ዕ ተን</w>
ዕ ተርፍ</w>
ዕ ተረ
ዕ ቤ
ዕ ሼ
ዕ ሰኒ</w>
ዕ ሰ</w>
ዕ ሬ
ዕ ራይ</w>
ዕ መቱ</w>
ዕ መር</w>
ዕ ልበ
ዕ ላመ</w>
ዕ ሊ</w>
ዕ ለው</w>
ዔ ኪ</w>
ዔ ናተ</w>
ዔ ብ</w>
ዔ ሻ
ዔ ረት</w>
ዔ ለጸ
ዔ ለባ
ዓድ ሉ</w>
ዓይ ደ</w>
ዓይ ነ</w>
ዓይ ቶም</w>
ዓይ ተ</w>
ዓይ ሮም</w>
ዓይ ረ</w>
ዓይ ለት</w>
ዓይ ለ</w>
ዓው ዮታት</w>
ዓር ፍቱ</w>
ዓር ረ</w>
ዓረ ፈው</w>
ዓል ያም</w>
ዓ ዶ
ዓ ዴ</w>
ዓ ዮም</w>
ዓ ያ</w>
ዓ የ
ዓ ና</w>
ዓ ቼ</w>
ዓ ትለ</w>
ዓ ቕ
ዓ ሳ</w>
ዓ ረት</w>
ዓ ሞ</w>
ዓ ምቶም</w>
ዓ ሚቶ</w>
ዓ መል</w>
ዓ ሎ</w>
ዓ ለት</w>
ዒ ፍ</w>
ዒ ዶ</w>
ዒ ያይ</w>
ዒ ናሁ</w>
ዒ ና</w>
ዒ ትነ</w>
ዒ ታት</w>
ዒ ር
ዒ ረ</w>
ዑ ፉይ</w>
ዑ ዙ</w>
ዑ ና
ዑ ባት</w>
ዑ ቡይ</w>
ዑ ሽ</w>
ዑ ስ</w>
ዑ ሮም</w>
ዑ ማት</w>
ዐገ ቦት</w>
ዐገ በ</w>
ዐገ ለ</w>
ዐጅ ቡ</w>
ዐጃ ይብ</w>
ዐጃ ብ</w>
ዐጀ ብ
ዐጀ በው</w>
ዐድ ተከሌ
ዐዳ ለት</w>
ዐዲ ኳ
ዐደ ዮት</w>
ዐደ ብ</w>
ዐይ ብ</w>
ዐየ ድ
ዐየ ደ</w>
ዐዘ ቦ</w>
ዐው መ</w>
ዐክ ሰር
ዐንደ ቅ
ዐንቀ ፈ</w>
ዐን ኮ
ዐን ቀር
ዐን ሁ</w>
ዐብደል ረ
ዐብ ከ</w>
ዐባ ዪ</w>
ዐቅ ድ</w>
ዐሽ ዋ
ዐሸ ሙ</w>
ዐር ፎ</w>
ዐሬ ር
ዐራ እ</w>
ዐረ ዩ</w>
ዐረ እ</w>
ዐረ ቢ</w>
ዐረ ቢ
ዐም በር
ዐማርዐማር ኣድም</w>
ዐመል የት</w>
ዐል ን</w>
ዐል መት</w>
ዐሊ ለት</w>
ዐለ ዮት</w>
ዐለ ሞ</w>
ዐለ ለ</w>
ዐ ፋን</w>
ዐ ፊ
ዐ ፈር</w>
ዐ ጥ
ዐ ገ</w>
ዐ ጅ</w>
ዐ ጄ
ዐ ዳይ</w>
ዐ ዳ</w>
ዐ ዘበ
ዐ ውነ</w>
ዐ ወቶ
ዐ ወተ
ዐ ንከ
ዐ ናሆም</w>
ዐ ነት</w>
ዐ ትና</w>
ዐ ትተ</w>
ዐ ታይ</w>
ዐ ብር</w>
ዐ ቃ
ዐ ሚ</w>
ዐ ህ</w>
ዎሮ ት
ዎል ቭ
ዎ ው</w>
ዎ ነ</w>
ዎ ተ</w>
ዎ ርድ</w>
ዎ ር</w>
ዎ ምቱ</w>
ዎ ሙ</w>
ውድ ዮ</w>
ውድ የት
ውያ ንን</w>
ውካ ስል</w>
ውር ዱ</w>
ውራ ድ</w>
ውራ ሙ</w>
ውል ዋል</w>
ውላ ዶም</w>
ውላ ድከ</w>
ውላ ያት</w>
ው ፍ
ው ፋቅ
ው ጸ
ው ጀ
ው ዱ
ው ዒ
ው ኖም</w>
ው ንመ</w>
ው ኔ</w>
ው ኒተ</w>
ው ኑ
ው ነን</w>
ው ትት</w>
ው ብ</w>
ው ቡ</w>
ው ቅት</w>
ው ቂ
ው ሾ</w>
ው ሹ
ው ርድ</w>
ው ረር</w>
ው ሖት</w>
ው ሖ</w>
ው ሓ</w>
ው ለድ</w>
ው ሃንስ</w>
ዌስት ብሮ
ዌር ሳይለ</w>
ዌ ዕ</w>
ዌ ኩም</w>
ዌ ንዛ</w>
ዌ ንዘ</w>
ዌ ሮ</w>
ዌ ምብ
ዌ መ</w>
ዌ ለ</w>
ዋፈ ቀው</w>
ዋፈ ቀት</w>
ዋጥ ነ</w>
ዋጅ ሀት</w>
ዋጀሀ ነ</w>
ዋድ ቅ</w>
ዋዲ ሆም</w>
ዋሰ ፍ</w>
ዋሰ ፈ</w>
ዋሬ ዝ</w>
ዋል ደ</w>
ዋ ጭ</w>
ዋ የት</w>
ዋ ክስ</w>
ዋ ንግ</w>
ዋ ናይ</w>
ዋ ትከ</w>
ዋ ተን</w>
ዋ ቢር</w>
ዋ ቄ
ዋ ሰ</w>
ዋ ርት</w>
ዋ ረር</w>
ዋ ህድ</w>
ዊ ይ</w>
ዊ የቶም</w>
ዊ የ</w>
ዊ ኪ</w>
ዊ ኖ</w>
ዊ ና</w>
ዊ ቶም</w>
ዊ ትመ</w>
ዊ ር
ዊ ሩ</w>
ዉ ዴ</w>
ዉ ዱ</w>
ዉ ዩ</w>
ዉ የት</w>
ዉ ኒተ</w>
ዉ ኑ</w>
ዉ በ</w>
ዉ ሮም</w>
ዉ ሪ
ወፍ ይሔ
ወፍ ቲ
ወፍ ሌ
ወፊ ቃዶ
ወፈተ ች
ወፈ ዝ
ወፈ ታይ
ወጽ ጋ
ወጽ ዖ</w>
ወጸ ን
ወጸ ም
ወጭ ን
ወጭ ቁ
ወጠን ያይት</w>
ወጠ የ</w>
ወጠ ወሮ
ወጠ ነ</w>
ወጠ ምጠ
ወጠ ም
ወጎ ማ
ወግ ን
ወግ ና
ወገረ ዊ
ወገ ወው
ወገ በ
ወገ ልገ
ወጅ ዱ</w>
ወጅ በ
ወጀ ኔ
ወጀ ራዲ
ወጀ ሀነ</w>
ወዶ ል</w>
ወድ ዮ</w>
ወድ ያ</w>
ወድ የን</w>
ወድ ውድ</w>
ወድ ዋር
ወድ ወል
ወድ ንግ
ወድ ቁ</w>
ወድ ሖ</w>
ወድ ሕ
ወድ ሐ</w>
ወድ ሐ
ወዴ ኮ</w>
ወዳ ዴ</w>
ወዳ ም
ወዲ ዛይ
ወዲ ቅ</w>
ወደ ግ</w>
ወደ የት</w>
ወደ ሕ
ወይ ጭ</w>
ወይ ደ</w>
ወይ አቅ
ወይ ሔ
ወይ ል</w>
ወዝ ሩ
ወዝ ላ
ወዛ ዕ</w>
ወዘ ፊን</w>
ወዘ ይ
ወዘ ካ
ወዘ በ
ወዘ ር
ወዕ ፉ
ወዕ ደ
ወዕ ቢ
ወዕ ስክር
ወዕ ሳ
ወዕ ሩ
ወዕ ል</w>
ወዕ ለ</w>
ወዔ ቅ
ወዓ ጭሞ
ወዐብ ደል
ወዐባ ዪ
ወዐ ጃይ
ወዐ ጀ
ወዐ ዶ
ወዐ ዙ
ወዐ ንሰ
ወዐ ና
ወዐ ሬ
ወዐ ሊ
ወዌ ስ
ወዋ ድ
ወዉ ሕ
ወወ ሬ
ወኮ ሎ
ወክ ብረ
ወክ ሎም</w>
ወክ ሎ</w>
ወኬ ት
ወካ ቲ
ወካ ህ
ወከራ ሪ
ወከ በሮ
ወከ ሲ
ወከ ማ
ወከ ልአ
ወእጅ ትመ
ወእን ጎ
ወእን ትበ
ወእን ሳን
ወእን ሰ
ወእስት ዕ
ወእስት ቅ
ወእም ትሓ
ወእ ድራ
ወእ ዳር
ወእ ስተ
ወኤ ም
ወኤ ል
ወኣ ው
ወኣ ክረ
ወኣ ስ
ወኣ ር
ወኣ መር
ወኢን ዶ
ወኢት ከበት
ወኢት ከ
ወኢት ትከ
ወኢት ትሰ
ወኢት ትረ
ወኢት ስ
ወኢት መ
ወኢልት ቀ
ወኢ ፍ
ወኢ ከ
ወኢ አቅ
ወኢ ነስ
ወኢ በ
ወኢ ሰአ
ወኢ ሰት
ወኢ ራ
ወኢ መጽ
ወኢ መስ
ወኢ ልትፈ
ወኢ ልትሰ
ወኢ ልተ
ወኢ ልባ
ወኢ ልሕ
ወአት ጃ
ወአት ካፍ
ወአት ሻ
ወአት ማሸ
ወአቅ ሹ
ወአሽ ቃ
ወአስተ ሽሀ
ወአስ በ
ወአስ ቆ
ወአር ተ
ወአም ሐር
ወአም ሐ
ወአ ፈ
ወአ ጽበ
ወአ ግረ
ወአ ገረ
ወአ ድሪ
ወአ ዴ
ወአ ደፋ
ወአ ዘር
ወአ ውር
ወአ እ
ወአ ንተ
ወአ ንስ
ወአ ተክ
ወአ ተረ
ወአ ቅበ
ወአ ሼ
ወአ መን
ወአ ሎ
ወአ ልበ
ወአ ህ
ወአ </w>
ወን ተ</w>
ወን ቃ
ወን ም
ወን መ</w>
ወን ህ
ወኔ ስ
ወነ ፍዐ
ወነ ዘ
ወነ ዉ</w>
ወነ ቅ
ወነ ሽ
ወነ ሳ
ወነ ር
ወት ፈደ
ወት ፈና
ወት ፈት
ወት ጸ
ወት ደ</w>
ወት ውት</w>
ወት ወቀ
ወት ወሰ
ወት ወር
ወት ወሐ
ወት ከማ
ወት ንፋ
ወት ነፍ
ወት ነስ
ወት ቼ</w>
ወት ቶ
ወት ትፋ
ወት ትጀ
ወት ትካ
ወት ትራ
ወት ቱ</w>
ወት ቀየ
ወት ሰዐ
ወት ሰና
ወት ር</w>
ወት ረበ
ወት ምሳ
ወት ል</w>
ወት ለም
ወቴክኖ ሎጂ
ወቴክ ኒ
ወቴ ልየ
ወታ ዕ
ወተፍ ኪ
ወተክ ኖ
ወተአ ክ
ወተር ኪ
ወተ ጠ
ወተ ጅሪ
ወተ እሲ
ወተ አትሓ
ወተ ቃሊ
ወተ ር</w>
ወተ መ
ወተ ሌ
ወተ ለፉ
ወተ ህ
ወብ ዕድ
ወብ ሽ
ወብ ስ
ወብ ላ
ወብ ህ
ወባ ንዴ
ወበ ዳ
ወበ ንዴ
ወቆ ም
ወቆ ሚ
ወቅ ዉ</w>
ወቅ ሻ
ወቅ ልጭ
ወቄ ትላ
ወቄ ት
ወቃ ይ
ወቃ ል</w>
ወቀዋ ኒ
ወቀ ጽ</w>
ወቀ ጠ
ወቀ ዳሚ
ወቀ ዩ</w>
ወቀ ነብ
ወቀ ት</w>
ወቀ ቢ
ወቀ በል
ወቀ በ
ወቀ ሻ
ወቀ ስ
ወቀ ሎ
ወቀ ል
ወቀ ሉ</w>
ወሽ ማ
ወሸ ከር
ወሸ ባብ
ወሸ ቄ
ወሸ ሃ
ወሶ ማ
ወስያ ስ
ወስ ዕ</w>
ወስ ዕ
ወስ ዌ
ወስ ወስ</w>
ወስ ክ
ወስ ከ</w>
ወስ ታይ
ወስ ብ
ወስ ቅ
ወስ ስዒ
ወስ ር</w>
ወሳውዛ ምፕ
ወሳ ውዝ
ወሳ ወስ</w>
ወሳ ወሰ</w>
ወሳ ርሐ
ወሳ ረ
ወሳ ልሰ
ወሰቅብ ሳ
ወሰ ገ
ወሰ የ</w>
ወሰ ው
ወሰ ኩ
ወሰ ኣ
ወሰ ናቅ
ወሰ በ
ወሰ ቅ</w>
ወር ይ
ወር ኡ
ወር ሶ</w>
ወር ሰ</w>
ወራ ትዐ
ወራ ር
ወሩ ሱ</w>
ወረ ጥ</w>
ወረ ዎ</w>
ወረ ክበ
ወረ ከ
ወረ ን</w>
ወረ ም
ወረ ሐ</w>
ወረ ህ
ወሞ ር
ወም ድር
ወም ዔ
ወም ውዳ
ወም ክ
ወም ትክ
ወም ብላ
ወም ቅ
ወም ምያ
ወም ም
ወማ ዕ
ወማ ት
ወማ ሕ
ወማ ሌ
ወሚ ሊ
ወሙ ዲ
ወሙ ደርሲ
ወሙ ክር
ወሙ አሰ
ወሙ ር
ወሙ ረብ
ወመደረ ቱ
ወመን ተብ
ወመት ጫ
ወመት ዋ
ወመት አ
ወመት ና
ወመት ብእ
ወመት ቀዳ
ወመት ሸ
ወመት መሳ
ወመት መራ
ወመራ ዐ
ወመም ተል
ወመል ሂ
ወመ ፈረ
ወመ ጺጸ
ወመ ጭ
ወመ ጠ
ወመ ዳል
ወመ ዲ
ወመ ዝ
ወመ ዋቅ
ወመ ካር
ወመ ኪ
ወመ ከር
ወመ ከረ
ወመ ከለ
ወመ ንጎ
ወመ ነዘ
ወመ ነ
ወመ ታብ
ወመ ብድ
ወመ ብዝ
ወመ ባድ
ወመ በገ
ወመ በ
ወመ ቅር
ወመ ሻይ
ወመ ሸ
ወመ ሳር
ወመ ሰጀ
ወመ ሰደ
ወመ ሰን
ወመ ራቅ
ወመ ራቀ
ወመ ሪ
ወመ ረብ
ወመ መቅረሐ
ወመ ሀ
ወሕ ግ
ወሕ ድር
ወሕ ን
[...]
