#version: movoc-tok constrained-merge BPE
ን </w>
ት </w>
። </w>
ም </w>
ው </w>
ር </w>
ች </w>
እ ን
ል </w>
ና </w>
. </w>
ህ </w>
ይ </w>
ድ </w>
ስ </w>
የ ሚ
ነ ው
አ ን
ጥ </w>
ያ </w>
ላ ይ</w>
ል ።</w>
እ ና</w>
ሉ </w>
እን ደ
ዎ ች</w>
ብ </w>
፣ </w>
የ ተ
ነ ው</w>
ው ስ
አ ይ
ኛ </w>
ነ በ
ነ ት</w>
ች ን</w>
ቸ ው</w>
ው ን</w>
ዚ ህ</w>
ታ </w>
? </w>
, </w>
ውስ ጥ</w>
ነው ።</w>
ነ ገ
ቱ </w>
ለ መ
ጊ ዜ
ወ ደ
እ ር
ለ </w>
ቅ </w>
፤ </w>
ም ።</w>
ራ </w>
እን ዲ
ሱ </w>
አ ስ
ለ ማ
ሩ </w>
ጊዜ </w>
ግ </w>
አ ለ
ፍ </w>
መ ን
" </w>
ሁ </w>
ኝ </w>
ወደ </w>
ኔ </w>
ግ ን</w>
ም ን
ሆ ነ
አን ድ</w>
ክ </w>
ኑ </w>
ነገ ር</w>
ቸ ው
እ ነ
ላ </w>
ዊ </w>
ቶ ች</w>
አ ብ
፡ </w>
ይ ህ</w>
ሆ ን</w>
በ መ
ለ ው</w>
ጋ ር</w>
! </w>
ደ ረ
መ ል
ተ </w>
አ ል
በ ት</w>
ች ላ
ስ ለ
በ ተ
ድ ረ
የ መ
ለ ት</w>
እ ና
ም ን</w>
ያ ስ
- </w>
ሰ ው</w>
እ ኔ</w>
) </w>
ሆነ </w>
ይ ህ
ደ ር
ወ ይ
ዎ </w>
ት ን</w>
ፈ ል
እ ግ
ከ ተ
ይ ችላ
ብ ዙ
ነበ ር
እ ስ
አ ሁ
መ ስ
ጣ ም</w>
ን ም</w>
አ ገ
ለ ም</w>
ለ ሁ
ሪ </w>
ቻ </w>
በ ጣም</w>
ሽ </w>
. .
መ ለ
ሪ ያ</w>
ድ ር
ሁ ሉ</w>
ሞ </w>
ሁ ሉ
እግ ዚ
ጀ መ
0 </w>
ተ ኛ</w>
ሮ </w>
ወይ ም</w>
እንደ </w>
እግዚ አብ
ዱ </w>
የ ማ
ል .</w>
ቹ </w>
ገ ባ
: </w>
የ ም
እግዚአብ ሔ
ማ </w>
ደ ግ
ዓ መ
ብ ቻ</w>
ይ ወ
ብዙ </w>
ራ ት</w>
እን ዳ
የ </w>
ቸ ውን</w>
ን ድ</w>
እንደ ሚ
ያ ለ
ጅ </w>
ን ን</w>
ሉ ።</w>
ም ክ
አ ላ
ቶ </w>
አ ም
በ ማ
ጃ </w>
ስ ት</w>
ሮ ች</w>
ዋ ል።</w>
ም ር
ን ያ
፥ </w>
ዩ </w>
በ </w>
ቡ </w>
ሰ ዎች</w>
በ ዚህ</w>
እ ኛ</w>
ት ።</w>
ረ ት</w>
እ ያ
ቤ ት</w>
ሪ ያ
የሚ ያ
ባ ለ
መ ረ
ከ </w>
ስ ተ
መ ጠ
ጭ </w>
ሬ </w>
ደግ ሞ</w>
እ ው
መን ገ
ሎ ች</w>
አሁ ን</w>
ነበር ።</w>
እር ስ
እግዚአብሔ ር</w>
ች ሁ</w>
ች ሁ
ዝ </w>
ዎ ችን</w>
ና ቸው
ው ም</w>
ጉ ዳ
ነው .</w>
አይ ደ
ቀ ን</w>
ሆ ና
ን ።</w>
አ ካ
ማ ን
የ ት</w>
ፊ ት</w>
ሎ </w>
ጋ </w>
ቱ ን</w>
ሆ ኑ</w>
አ ባ
ሚ </w>
2 0
ነበ ረ
እን ዴ
የ ለ
ክ ፍ
ምክ ንያ
መ ጣ
ካ </w>
ኋ ላ</w>
ድረ ግ</w>
ካ ከ
ተ ሰ
ኛ ው</w>
ለ ሁ</w>
ስ ት
በ ሚ
ሳ ይ
ር ት</w>
ስ ለ</w>
እ የ
ና ገ
ሁ ኔ
ቅ ር
አ ው
ሆ ኑ
መን ግ
ዚ ያ</w>
ከ ፍ
ግ ባ
ታ ት</w>
ው ።</w>
መ ሰ
ወ ጣ
ዚ ህ
ዓ ለም</w>
ያ ን</w>
እርስ ዎ</w>
እንዴ ት</w>
አ ዲ
ወ ን
ሻ </w>
ዳ ን
ነበ ር</w>
ቁ </w>
e </w>
ም ህ
ጠ ቃ
አስ ተ
.. .</w>
ሰ ማ
ጡ </w>
ጥ ሩ</w>
ማ ለት</w>
ገ ን
ና ት</w>
ዬ </w>
ጉ </w>
ች ግ
ክ ር
አይደ ለ
ጠ ቀ
ረ </w>
ታ ወ
ፋ </w>
መንገ ድ</w>
ለሁ ።</w>
5 </w>
በ ር
ግ ን
ለ ን</w>
2 </w>
ል ጆ
ጨ ረ
ዳ </w>
ኘ ት</w>
ድ ር</w>
ጫ </w>
ይ ሆና
ሙ ሉ</w>
ላ ል</w>
ቱ ም</w>
ሆ ኖ
ጽ </w>
ያ ው
አን ተ</w>
ኩ </w>
ጨ ማ
ዘ መ
ወ ሰ
ነው ?</w>
ት ን
ዓመ ት</w>
ት ም</w>
ሁ ለ
ን ግ
1 </w>
ሙ </w>
መ ሳ
እና ን
አ ማ
ማ ስ
ሁ ለት</w>
ሌ ላ</w>
ቀ ር
ረ ው</w>
ፈል ጋ
ቢ </w>
ሆ ን
ቀ ጥ
አ ት
ላ ት</w>
ሥ ራ</w>
ል ቅ</w>
ያ ለው</w>
ወ ቅ
ኞ ች</w>
ዓ ይ
ቴ </w>
ተ ገ
ጂ </w>
ግ ብ
ባ </w>
ስለ ዚህ</w>
ጀ ም
መ ካከ
ዋ ል</w>
ሉ .</w>
ዎ ን</w>
አዲ ስ</w>
ሕ ዝ
ሁኔ ታ</w>
ያ ል
እ ሱ</w>
ድረ ስ</w>
3 </w>
ቃ </w>
ሉ ት</w>
ቢ ያ
ዎ ች
አ መ
እን ኳ
እ ኔ
ሰ ራ
መ ር
በ ቀ
ት ምህ
ዛ ሬ</w>
ሳ </w>
እነ ዚህ</w>
ም .</w>
4 </w>
አ ድር
ቃ ል</w>
ይ ገ
ለ ያ
የ በ
ደ ን
ብ ሎ</w>
ጥ ያ
ጠ </w>
ከ ዚህ</w>
አገ ል
ላ ቸው</w>
እር ሱ</w>
አም ላ
በ አ
ል ?</w>
ጥያ ቄ
ፈ ለ
ና ቸው</w>
ራ ዊ</w>
ባ ት</w>
ሌ ሎች</w>
ስ ል
ሕ ይወ
እው ነ
ህ ል</w>
እ የተ
ነ </w>
ገ ና</w>
ገን ዘ
ያ ደር
አን ዳ
ጥ ር</w>
ከ መ
ሌ </w>
ም ና
ኢ የ
በ ረ
ቅ ም</w>
እናን ተ</w>
ክር ስ
እር ግ
ድ ን</w>
ሀ ገ
ግ ኘት</w>
መካከ ል</w>
ች ።</w>
ፉ </w>
ኝ ።</w>
ማ ድረግ</w>
ት ዮ
ቂ </w>
ድ ን
ጀመ ሪያ</w>
በ ት
ቦ ች</w>
ን ስ</w>
ዋ </w>
ይህ ንን</w>
ወ ዳ
ዓ ት</w>
1 9
ኢ ትዮ
ህ ዝ
ጋ ገ
ኛ ውም</w>
8 </w>
የ ቀ
በ ር</w>
ከፍ ተኛ</w>
ታ ው
ፈ ላ
ይ ል</w>
ቦ ታ</w>
ዚ ያ
ተ ስ
ል ም</w>
ለ ው
እን ግ
ደረ ገ
ይ ሄ
ሳ ይ</w>
እስ ከ</w>
ዶ ች</w>
ይ ጠ
ታ ሪ
ክ ክ
ሪ ካ</w>
ዎ ቹ</w>
ናቸው ።</w>
እ ዚህ</w>
ያ ገ
ኢትዮ ጵ
7 </w>
እ ም
ታ ል።</w>
6 </w>
t </w>
አገል ግ
ፕ ሮ
ጨ ዋ
ጉዳ ይ</w>
በ ል
ተ ቀ
ማ ን</w>
ኢየ ሱ
ግ ራ
ትምህ ርት</w>
ባ ቸው</w>
ተ ው</w>
ያ ለ</w>
ሜ </w>
ል ጅ</w>
ሠ ራ
አ ሜ
ያ ህል</w>
ይ ሁ
ደረ ጃ</w>
ች ል</w>
ፈላ ጊ
መ ሆን</w>
አገልግ ሎ
ቶ ችን</w>
ላ ለ
› </w>
ቼ </w>
ተ ከ
ምክንያ ት</w>
ኖ ር</w>
ም ስ
ቸው ።</w>
አንዳ ንድ</w>
ገንዘ ብ</w>
ሰ ጠ
መል ከ
ሪ ዎች</w>
ኖ ች</w>
እነ ር
ፈ ጠ
ግ ለ
ስ ም</w>
አን ዱ</w>
አ ደ
ሱ ን</w>
ኢ ን
ት ክክ
ላ ይ
ጨማ ሪ</w>
ህ ን</w>
ብ ር
ረ ዳ
ው ጤ
አ ሳ
o r
የማ ይ
ቅ ዱ
ከ ሚ
ኖ ር
ኙ </w>
ሰ ብ</w>
ተ ና
ሰ ላ
ድ ም
እ ጅ
‹ ‹
ፍ ት
መ ተ
አስ ፈላጊ
መለ ከ
ቀ ት</w>
ክ ት</w>
የሚ ያስ
ቅ ር</w>
መ ሆኑ
ሰ ው
ዘ ጋ
ዘ ንድ</w>
20 1
ታ ላ
መ ጥ
ዛ </w>
ት ና</w>
አካ ባ
መል ካ
ላ ል።</w>
ታ ቸው</w>
እንደ ሆነ</w>
ከ ባ
ከ ሆነ</w>
ቢ ያ</w>
s </w>
እን ጂ</w>
ጣ ት</w>
ታ ል</w>
ቤ ተሰ
ታ ዊ</w>
ችግ ር</w>
ብ ር</w>
ለያ ዩ</w>
ለ ን።</w>
ሴ </w>
ለ ን
ቲ </w>
አይደለ ም።</w>
ልጆ ች</w>
የሚ ገ
ች ንን</w>
ለ ጠ</w>
አ ቀ
ሞ ክ
ጽ ሐ
እነ ሱ</w>
ደ ለም</w>
ሩ ት</w>
ሄ ድ</w>
ማ ት</w>
ሰ ብ
ዚህ ም</w>
ነገ ሮች</w>
ደ </w>
ሳ ት</w>
ር ድ</w>
መ ር</w>
r e
መንግ ሥ
አሁ ን
ባ ህ
ሰ </w>
እያ ን
ሥ ራ
ዓመ ታት</w>
መ ብ
ክ ል
የ ት
ሆኖ </w>
ፅ </w>
ስ ራ</w>
ለ ም
ራ ሳ
እያን ዳን
.. .
ዕ ድ
ጥ ቂ
ያ ን
እ ድ
ተ ጠ
ቀ </w>
ጣ </w>
መረ ጃ</w>
የም ት
ኢየሱ ስ</w>
የ ምን
ወ ገ
ነ ፃ
ያ ሳ
ለ ህ
ግ ል
ስ ን
ሊ ሆን</w>
ክፍ ል</w>
መሳ ሳይ</w>
ወ ቅ</w>
ት .</w>
ገ ና
አ የ
ኩ ል</w>
0 0</w>
ባ ል</w>
ጣ ን</w>
ገ ለ
ን ና</w>
መሆኑ ን</w>
መ ሠ
ሞ ች</w>
ቤ </w>
እ ኛ
ሌ ላ
ኛ ል።</w>
ሳ ብ</w>
ላ ችሁ
ወ ስ
ተ ማ
ሰ ጣ
ተ ጨማሪ</w>
አ ር
ፍ ጥ
ግ በ
ይ ገባ
ኢትዮጵ ያ</w>
ደ ት</w>
ግ ም
ኮ </w>
ቀ በ
ይ ዘ
ው ጭ</w>
እግዚአብሔ ር
ል ፤</w>
ስ ብ
ሕይወ ት</w>
ሆ ነው</w>
አስፈላጊ </w>
የበ ለጠ</w>
ወቅ ት</w>
አምላ ክ</w>
ም ድር</w>
ሴ ት</w>
የ ሆነ</w>
ጀመ ሪያ
ፊ </w>
ክርስ ቲ
ና ል።</w>
ግ ል</w>
ማ ህ
አ ያ
ግ ብ</w>
መ ከ
ታ ችን</w>
ዚያ ም</w>
ባ ን
ሩ ን</w>
አገ ር</w>
ጌ ታ</w>
ጁ </w>
ፈ ረ
ይችላ ል</w>
ራ ሱ</w>
ዶ </w>
እው ነት</w>
ራ ስ
አለ ብ
ገ ው</w>
አሜ ሪካ</w>
ደ ም</w>
ፓ ር
ቅ ድ
ድር ጅ
ተ ዋ
እር ሱ
ካ ል
ላ ል
አብ ዛ
ህ ይወ
ኤ ል</w>
አ ዳ
ሳ ምን
ገባ </w>
ች ል
ለ ሚ
ደ ስ
ፎ </w>
አ ድ
መን ፈ
ስ ር
አ ፍ
ቀ ላል</w>
አ ሉ
ለ ቲ
ጠ ር</w>
እጅ ግ</w>
ቹ ን</w>
ጓ ደ
ተ ግባ
; </w>
ብ ዬ</w>
ቀ ው</w>
መጠ ን</w>
ከ ዚያ</w>
ቀ ድ
ዎ ት</w>
ች ም</w>
ገ በ
ወ ረ
መ ላ
በር ካ
› ›</w>
ም ፤</w>
ዉ </w>
ዝ ር
መ ደ
ዴ </w>
መንግ ስት</w>
ተ ነ
መ ጽሐ
ሲ ሆን</w>
የተ ሻ
ጀም ሮ</w>
ፍ ቅር</w>
ትን ሽ</w>
እን ድ
> </w>
o n
ዘመ ን</w>
ፍ ላ
ይችላ ል።</w>
/ </w>
ት ልቅ</w>
፡ -</w>
ዋ ጋ</w>
ነ ቱ</w>
ፖ ለቲ
ገ ል
መ ዝ
ዲ ዮ
ን ጉ
ወ ር</w>
ኛ ል</w>
ባ ል
ዮ ች</w>
ጥቂ ት</w>
i n
ማ ለ
ፈ ጥ
አን ድ
ታሪ ክ</w>
ደ ር</w>
ብ ለ
ጠ ብ
ደ ህ
ጫ ወ
ሁሉ ም</w>
ሲ </w>
መ ን</w>
ይችላ ሉ</w>
ይ ት</w>
በተ ለ
በ የ
ከ ሰ
ከተ ማ</w>
ገ ኘ
ዛ ት</w>
እስ ራ
9 </w>
ህዝ ብ</w>
ኖ ራ
: 1
እን ቅ
ጥ ን
ት ር
የ ታ
የሚ ል</w>
በርካ ታ</w>
e r
ሃ </w>
ጥያቄ </w>
ግን ኙ
ምክንያ ቱም</w>
ደ ስ</w>
ፋ ት</w>
አገልግሎ ት</w>
ጎ </w>
አ ጋ
ያስ ፈል
አው ሮ
ወ ለ
ንግ ድ</w>
ሚ ያ</w>
ኖ </w>
ፈ ው</w>
ድ ጋ
ም ረ
ሽ ን</w>
ል ,</w>
ጨረ ሻ</w>
ጠ ይ
ተ ር</w>
መልካ ም</w>
ቁ ጥር</w>
ደ ው</w>
ዞ </w>
የሚ ሰ
ዋ ና</w>
ች ንም</w>
ስ ሜ
ሶ </w>
ይ መስ
ም ር</w>
ት ,</w>
ም ,</w>
ተስ ፋ</w>
ወን ድ
መ ው
ቅዱ ስ</w>
ሴ ቶች</w>
ይ ታ
ቅ ረ
የ አ
ዮ ን</w>
ዲ ያ</w>
ሰ ዓት</w>
ጠ ት</w>
እያንዳን ዱ</w>
ላ ሉ</w>
ሷ </w>
ፈ ር
ነ ጻ
ገ ደ
ጠ ን
አካ ል</w>
ጠ ቅ
ብ ለው</w>
ያለ ውን</w>
' </w>
፦ </w>
ያ ሉ</w>
ይ መ
ፍላ ጎ
ታ ች</w>
ተ ር
ፈ </w>
ብ ሎ
ማ ር</w>
ማ ር
ነበ ሩ
በ ኩል</w>
ጠ በ
ለማ ድረግ</w>
ች ኋ
ቸው ም</w>
ጥ በ
ኃ ይል</w>
ይ ቻ
ቻ ችን</w>
ረ ጋ
አ ቅ
ያ ው</w>
ሮ ችን</w>
ተ መሳሳይ</w>
ሕዝ ብ</w>
መ ቀ
ል ዩ</w>
መተ ግበ
ማ ግኘት</w>
አይ ነት</w>
ብ ራ
እነር ሱ</w>
የተ ለያዩ</w>
መ </w>
ጨማ ሪ
ም ና</w>
እርግ ጥ</w>
ም ል
ዘ ር
ለማ ግኘት</w>
ዙ </w>
ላ ከ
ዝ ግ
ፈ ቃ
አለ ።</w>
ል ክ</w>
ወ ዲ
ሳ ሌ</w>
ጨረ ሻ
የ ነበረ
ቀ ረ
ሞ ት</w>
ነው !</w>
ን ድ
ራ ል</w>
2 0</w>
ቷ ል።</w>
ጠ ና
መንግሥ ት</w>
ቦ ታ
ሆኖ ም</w>
: :</w>
ብ ረ
ቂ ያ</w>
ለ ዚህ</w>
አማ ራ
ጥ ቅ
መ ው</w>
ዚህ ን</w>
ሊ ያ
ቶ ች
ስ ራ
ሁኔ ታ
ና ል</w>
ወ ር
አ በ
ብ ረት</w>
ይችላ ሉ.</w>
ማ ሳ
በተ ጨማሪ
ከ ና
መ ነ
ለማ ስ
" የ
በ ላ
ቸ ዋ
ደን በ
ያ ዘ
አሁ ኑ</w>
ል ን</w>
መጣ </w>
ቀ ናት</w>
ለ ኛ</w>
ስ ላ
የለ ም።</w>
መ ቶ</w>
ስ ም
1 0
ሳይ ሆን</w>
ረ ጋገ
ክ ት
ታላ ቅ</w>
አ ለ</w>
ጠ ራ
ን ቋ
ሲ ያ
ስ ቃ
ከ ዚያም</w>
ተ ኛው</w>
ጠቃ ሚ</w>
ከ ማ
ስ ታ
ቢ ሆን</w>
ቻ ቸው</w>
ባ ይ
ጉ ት</w>
ዛ ሬ
ዝር ዝ
ክ ብ
አየ ር</w>
ሰ ጥ
ተ ቋ
የመ ጀመሪያ
ለ ውን</w>
በ ሰ
ቋ ንቋ
ጥ ቅም</w>
ል ብ</w>
ፍጥ ነት</w>
እንግ ዲ
1 0</w>
ቪ ዲዮ
እ ባ
ነፃ </w>
ለ ች።</w>
ች ሉ</w>
ቸ ዋል።</w>
ወ ያ
ቀ ም</w>
ምና ል
ማ ስተ
ት ኩ
ል ን
የ ው</w>
ቃ ት</w>
መ ራ
ጨዋ ታ</w>
ትክክ ል</w>
ናገ ር</w>
ው ያን</w>
ት ራ
ግ ና
% </w>
መ መ
C or
ሀገ ር</w>
እነ ሱ
መ ሣ
ጪ </w>
ባ ለው</w>
በ ት።</w>
ማን ኛውም</w>
ል ፍ</w>
በ ው</w>
ነ ግ
ይሄ </w>
ይሆና ል።</w>
ዳ ን</w>
ተ ት</w>
አ ለመ
ም ት
re c
ፖ ርት</w>
+ </w>
ሊ ዮን</w>
ነ ፍ
ጨዋ ታ
ነ ት
ም ?</w>
ፖ ሊ
ን ት</w>
ን ቀ
አ ሉ።</w>
መ ኪ
ተ ሳ
ይ ፈልጋ
ደር ጋ
ምር ጥ</w>
ሚ ኒ
ነ ሳ
መለ ስ</w>
አቀ ፍ</w>
ቨ ር
ተ ኞች</w>
ቤ ቱ</w>
ኝ ነት</w>
ክርስ ቶ
ያ ላ
አን ተ
M e</w>
ፈ ራ
rec t</w>
ከባ ድ</w>
ው ል
የ እርስዎ</w>
Cor rect</w>
የተሻ ለ</w>
ገ ብ
ቅር ብ</w>
መ ድ
20 0
ሲ ል</w>
ሉ ም</w>
ጠቃ ላይ</w>
ጽ ሑ
ቴ ክ
መል ስ</w>
አል ነበረ
ይሁ ን</w>
መጽሐ ፍ</w>
በተጨማሪ ም</w>
ሉ ?</w>
ባ በ
ጀ ት</w>
ም ፣</w>
እነ ዚህን</w>
ግንኙ ነት</w>
ቷ ል</w>
ያ ዎች</w>
ሪ ካ
እርግ ጠ
ዊ ት</w>
የተ ወሰ
ቆ ጣ
እር ም
ዩ ኒ
ኑ ን</w>
d </w>
ነ ኝ</w>
ጨ ም
ይ ልቅ</w>
ምር ጫ</w>
ፈ ጸ
ከ ር
ቡ ድን</w>
ፕሮ ግራ
ታ ቸውን</w>
ይ ማ
ብ ሔ
ማ ዕ
ሻ ሻ
ቤ ተ</w>
ክ ስ</w>
ሆ ንም</w>
አስተ ያ
ራ ችን</w>
ነበር .</w>
ው ድ
ነ ጥ
ሪያ ዎች</w>
ቁ ጥ
ቷ </w>
በ ስ
ወ ላ
ይ ለ
ል ጅ
ዱ ን</w>
ፖለቲ ካ</w>
የ ሰ
አስ ደ
ል !</w>
ም !</w>
መ ታ
መረ ጃ
ሰላ ም</w>
ኛ ውን</w>
ላ ችሁ</w>
ስለ ሚ
ው ሃ</w>
ውስ ጥ
ናቸው .</w>
አካባ ቢ</w>
ን ኛውም</w>
ዳ ት</w>
ጦ ር
በ ትን</w>
ኩ ባ
መንፈ ስ</w>
ፕ ሬ
መ ፍት
" በ
ደ ጋ
ማ የት</w>
ሕ ግ</w>
ምን ድን</w>
ና ።</w>
ጠቀ ም</w>
ኩ ት</w>
ም ላ
ቀ ጠ
መሰ ግና
ሰ ባ
ቢያ ንስ</w>
ሁ ል
አውሮ ፓ
ል ብ
ሥ ር
ቡ ን</w>
ቆ ጠ
ደ ራ
አል ተ
እ ጅ</w>
ሉ ን</w>
አ ግ
a r
ስ ተኛ</w>
እም ነት</w>
ት ፣</w>
እንቅ ስቃ
በ ራዊ</w>
በ ሽ
a n
አን ዳን
ጡ ት</w>
ፍ ራ
ሳምን ት</w>
ሶ ች</w>
ው ሳ
ነው ፤</w>
ብ ት
ግ ም</w>
ነ ትን</w>
ቺ </w>
እንደ ማ
ጋ ት</w>
ገ ት</w>
ዓ ላ
ል ም
በ አሁኑ</w>
ተ ን</w>
ይችላ ል.</w>
ጀ ር
ቆ </w>
ሉ ትን</w>
ዩኒ ቨር
ህይወ ት</w>
የሚ ፈል
በ ዚያ</w>
ሁ ን</w>
አለ ው።</w>
ጅ ም</w>
ኃ ጢ
ያስ ፈልጋ
ኩባ ንያ
አላ ህ</w>
አካባ ቢ
ይ በል
ነው ,</w>
ፉ ት</w>
ገ </w>
ቀ ር</w>
ቀ ን
አ ት</w>
ላ ፊ
ብ ል
ይ ሰጣ
ማስ ታወ
ወ ድ
ታ ይ</w>
ኖ ረ
እንግ ሊ
እስራ ኤል</w>
እስ ኪ
ለ ተ
ፍ ት</w>
ር ዕ
ማ ወቅ</w>
ሚ ዎች</w>
ወ ጥ</w>
ወጣ </w>
ል ማት</w>
ለመ ስ
ሳ ሌ
ክ ፈ
ሦ ስት</w>
ሪ ቱ</w>
ኢ ኮ
ሬ ት</w>
ከተ ማ
ም ግብ</w>
ተ ዋል።</w>
ሆ ይ
መ ግለ
እንደ ዚህ</w>
ክርስቲ ያን</w>
ሰ ር
ዋ ን</w>
ከ በ
ከ ሆነ
ይሆና ል</w>
ፍ ርድ</w>
ባ ለ</w>
ደ ቂ
ክርስቶ ስ</w>
በማ ለት</w>
ጎ ች</w>
ደህ ን
ጌ ታ
እንዳ ለ
ከ ር</w>
ዘ ላ
ፍላጎ ት</w>
አ ነ
ቤ ተ
ሁለ ቱም</w>
ነጻ </w>
ሂ ደት</w>
አስተ ዳ
ዙ ሪያ</w>
መ ድረ
አመ ት</w>
ሌ ሎ
ራ ል።</w>
ሰ ራ</w>
ቻ ል</w>
ስ ህ
የተ ለ
ፈ ጽ
ው ም።</w>
ለው ጥ</w>
መ ጥ</w>
እንዳ ይ
እ ኮ</w>
የመ ጀመሪያ</w>
ውጤ ት</w>
ምናል ባት</w>
ይ ም</w>
ብ ቻ
ተ ብሎ</w>
ችሁ ን</w>
አ ሉ</w>
መሠ ረት</w>
ገ ነ
እንኳ </w>
ዝ ና
ሚ ሊዮን</w>
ከ ፍ</w>
ት ል
አ ራት</w>
ማ ማ
ዝርዝ ር</w>
ይ ላ
ኢኮ ኖ
ቤተሰ ብ</w>
ከና ወ
ው ንም</w>
ደ ብ
እባ ክ
ደረ ጃ
ብር ሃ
ያ ላቸው</w>
ዝ ም</w>
ጤ ና</w>
የሚያ ደር
ሥ ል
ፕሮ ጀ
ቻ ይ
ግል ጽ</w>
ሁ ላ
o u
ስሜ ት</w>
ከ ፈ
ጀመ ር
ዲ ስ</w>
ቻ ል
አ ታ
] </w>
ጥ ራት</w>
ከ ታ
ቾ ች</w>
ጠ የ
ብ ን</w>
ስ ቴ
እነር ሱ
ግም ገ
ረ ጅም</w>
ሎ ት</w>
y </w>
ኖ ሩ</w>
ቦ </w>
ድጋ ፍ</w>
ራ ቸው</w>
ጉ ዞ</w>
ያደር ጋ
ኝ ም።</w>
መሠ ረ
ካ ሄ
በ ቃ
ጫ ዋ
መብ ት</w>
ል ዩ
ፍ ር
ቅረ ብ</w>
መ ግ
እ ሷ</w>
ት ?</w>
አም ስት</w>
ኞ ቹ</w>
አ ሰ
: 2
እስ ካ
ቀ ጣ
s t
ሏ ል።</w>
ን .</w>
ፕ ላ
ጣ ቢያ
ይማ ኖ
ላ ዊ</w>
ሙ ዚ
ጠ ፋ
ን ?</w>
ቆ ም</w>
መ ድ</w>
ገ ብ</w>
እንዳ ል
በ ቂ</w>
ገ ጽ</w>
ዳ ር</w>
አውሮፓ </w>
ተ መል
ት ዕ
አማ ካ
አ ክ
ሀ ብ
ምን ድ
ጠ ላ
ጋ ዜ
ፋ ይ
ነገ ር
ቴ ን</w>
ኋ ላ
አይ ች
ጋ ራ</w>
ለ ች</w>
መሰ ረ
አ ቶ</w>
አ ረ
ዩኒቨር ሲ
በ ታ
አለ ም</w>
ሞክ ራ
እግ ር</w>
ጥ ረት</w>
ቀ ስ</w>
ል "</w>
በ እውነ
ሆነ ም</w>
ተና ግ
ቆ ይ
ን ስ
ይችላ ሉ።</w>
እንዲ ያ
ፎ ች</w>
3 0</w>
መ ፍ
ሁል ጊዜ</w>
ግን ባ
ጥ ር
የ ላ
e n
ው ይ
እ ፈልጋ
እ .</w>
አ ሸ
ቡ ድ
ተ ቃ
ም "</w>
ቋ ቋ
መ ት</w>
ሆኑ ም</w>
ወ ጥ
ደረገ </w>
በቀ ላሉ</w>
ሶ ስት</w>
19 </w>
የሚ ከተ
የ ንግድ</w>
ስ ድ
ግ ድ
ማ ው
መ ም
እንደ ተ
ይ ል
ነበ ሩ</w>
ነ ኝ
ጄ </w>
መጠ ቀም</w>
ሰጠ ው</w>
ተ ጠቃ
መ ጀመሪያ</w>
ይመ ስለ
ነ ቶች</w>
a t
ጀመ ር</w>
ቀ ደም</w>
ረጋ ግ
ያ ዝ</w>
አ ጥ
ሩ ።</w>
ክ ምና</w>
ፍ ጹ
ክ ር</w>
ይ ኖር
ች ሎ
የተ ቀ
እር ስ</w>
ነው ን</w>
መ ና
ኳ ስ</w>
r o
ደ ል</w>
ለማ ሳ
ፈረ ን
እን ችላ
* </w>
ዋ ና
የሚ ለው</w>
ያ ት</w>
ተ ኛ
ተ ው
የ ዚህ</w>
አለ በት።</w>
ያው ቃ
መ ሆኑ</w>
ዶ ላ
ነ ሳ</w>
ም ዕ
ኒ </w>
ቤ ቶች</w>
በ ብ</w>
ህ ም</w>
ጣ ቢያ</w>
m </w>
መተግበ ሪያ</w>
ታ ዲያ</w>
ጉ ም</w>
ብ ለን</w>
ምክ ር</w>
ፖ ር
ቤ ት
አ ዋ
ሙ ያ
ከ ረ
የም ና
አስ ቸ
ኤ </w>
ች ና</w>
መ ዘ
ካ ር
ከ ራ
እ ሱን</w>
ድርጅ ት</w>
ች ው</w>
ዜ ና</w>
ሁ ።</w>
ይ ስ
አዳ ዲስ</w>
ኩ ።</w>
አላ ው
መ ሬት</w>
ደ ቡ
ከ ል</w>
ሙ ያ</w>
ጋ ሪ</w>
ት ና
ሆ ኗ
ኖ ሎ
ኝ ም</w>
ችል ም።</w>
አደ ጋ</w>
ሰማ ይ</w>
አ ፈ
ጉዳ ዮች</w>
የ ገ
ራ ሽ</w>
ደን ብ</w>
ሰ ድ</w>
ዱ ስት
ሁ ት</w>
ተ ደር
ቴክ ኖሎ
በተለ ይ</w>
ሉ ም።</w>
ባ ይ</w>
ቁ ር
ይ ቀ
ም ድ
ቦ ት</w>
አን ደ
ነው "</w>
ገበ ያ</w>
ስል ክ</w>
ኢን ዱስት
በመ ስ
" ></w>
ቅድ ሚያ</w>
አግ ኝ
ና ይ
ይ ረ
ሩ ም</w>
ታ ማ</w>
በ ዚ
ው ?</w>
የሚ ች
መ ሥ
ለም ሳሌ</w>
ቡ ር</w>
ገ ር</w>
ተ ራ
ጠ ው</w>
ይበል ጥ</w>
ጽሑ ፍ</w>
ባ ሕ
ሙ ን</w>
ክል ል</w>
ካ ለ
ጫወ ት</w>
እ ሱ
ዲ </w>
የተ ሰ
ነ ን</w>
_ </w>
ቋንቋ </w>
ኮ ች</w>
ጌ </w>
ይ መልከ
በ ቅ
ተ ለ
ጥ ናት</w>
ያ ድር
ነ ጋ
የመጀመሪያ ው</w>
አፍ ሪካ</w>
ስ ኬ
ያ ም</w>
መ ገ
መኪ ና</w>
ም ት</w>
ል ፣</w>
ግ ድ</w>
ጆ ች</w>
ሰ ት</w>
ይ ነ
በ ጭ
ጠን ካ
መ ቼ
1 5</w>
ሰ ዓ
o o
ፍጹ ም</w>
ሺ ህ</w>
ተ ን
ቄ </w>
ትኩ ረት</w>
መ ጨረሻ</w>
ስ ፍ
ል ማ
ክርስቲ ያ
ዬ ን</w>
ት ፤</w>
መስ ጠት</w>
መልከ ት</w>
ኖ ረው</w>
ይ ኖራ
በ ራ
ረ ገ
ማ ግ
ር ም</w>
ቪዲዮ </w>
ቅ ም።</w>
ኮ ን
በ እ
ለሁ .</w>
ደረ ግ
ስም ም
እ ዚያ</w>
ስ ብ</w>
i c
አ ያው
ፈቃ ድ</w>
ወጣ ት</w>
ተ ረ
... .</w>
መ ዋ
ቶ ቹ</w>
እውነ ተኛ</w>
ራ ሱን</w>
S </w>
ሳ ቸው</w>
በ ዚህም</w>
ደረገ ው</w>
ከ ት
ፕ </w>
ትምህ ር
ዲ ያ
ባ ት
ነገ ሮችን</w>
ወይ ስ</w>
ታ ው</w>
ሁላ ችንም</w>
ስ ቱ</w>
ው ና</w>
በ ፍጥነት</w>
ሃ ይማኖ
ች .</w>
ሹ </w>
a </w>
በማ ንኛውም</w>
ተ ወ
ዎ ታ
መል ኩ</w>
ተ ጋ
ወን ጀ
ሌ ሊ
በ የቀ
ነ ዋ
i t
ቀ ቅ</w>
ለ እርስዎ</w>
ዳ ታ</w>
ዶላ ር</w>
ማ ዎች</w>
አ መሰግና
ይገ ኛ
እርግጠ ኛ</w>
ስር ዓት</w>
ጮ ች</w>
1 8
a l
ንቀ ሳ
መለከ ተ</w>
ተማ ሪዎች</w>
ፈ ተ
ክ ለ
መል እ
በ ቅር
ባ ሉ</w>
ታ ገ
ሥ </w>
ሪ ው</w>
ም ፒ
ረ ን</w>
ይ መጣ
እን ስ
ተ ወዳ
አለ ው</w>
ይ ሆን
ጭ ር</w>
ደ ግ</w>
ብ ቸ
ል ኝ</w>
መ ኖር</w>
ዋ ጋ
አው ቃ
ሠ ራ</w>
ስለ ሆነም</w>
ጥ ፋት</w>
አ ቅር
ሰ ነ
ዝግ ጅ
ይ ሰማ
እንድ ት
እስካ ሁን</w>
የ ሆ
ለ ህ</w>
ተከ ታ
ን ፣</w>
ከ ብ
ቅ ድ</w>
ህ ግ</w>
ቻይ ና</w>
አሜ ሪካ
በየቀ ኑ</w>
መ ራ</w>
ጠ ር
ሚኒ ስት
ጠንካ ራ</w>
ቻ ቸውን</w>
ሚ ያ
የሚ ችል</w>
ና ዊ</w>
አማራ ጭ</w>
እርም ጃ</w>
ማ ረ
ፎ ቶ
ቀበ ል</w>
በ ስተ
ችግ ሮች</w>
ግባ ት</w>
የመ ስ
ምዕ ራ
ቢ ሆንም</w>
ይ ፋ</w>
በ ሁሉም</w>
ያ ግ
አለ ባ
ገ ረ
ድን ጋ
ሳ ዊ</w>
የተለ የ</w>
የ ሆኑ</w>
ደስ ታ</w>
ይ ባ
ን ግ</w>
ገ ራ
መስ መር</w>
ሰ ር</w>
ዛ ዝ</w>
ቀ ም
ተ ፈ
ጎ ብ
t h
ምር ት</w>
ሎ ችን</w>
ሰ ዎችን</w>
አዲ ሱ</w>
1 2
ይ ናገ
ቡ ት</w>
ገ ን</w>
ደረ ሰ
ሆኑ ት</w>
ዮ ሐ
እ ሳት</w>
ተስ ማ
ድር ጊ
ተ ጽ
ሁለ ቱ</w>
ት ችላ
ል ት
ውሳ ኔ</w>
ከ ነ
ደረ ጉ</w>
ነ ስ</w>
ብርሃ ን</w>
1 5
1 2</w>
አ ቅም</w>
ስ ን</w>
ታ ማ
ከ ላከ
አለ ው
ም ሳሌ</w>
ገ ኝ</w>
ደግ ሞ
ሀ ሳብ</w>
በ ኛ</w>
ክፍ ያ</w>
ምላ ሽ</w>
ራሳ ቸው</w>
ደቡ ብ</w>
ያስ ተ
ት ውል
ስ ር</w>
ፈ ጣን</w>
ይ ቆ
ገ ቡ</w>
በእውነ ቱ</w>
እነ ሆ
ይ ሰ
ዋ ት</w>
ቦ ችን</w>
የ ሥራ</w>
ው ል</w>
ታ ደ
አ ዝ
አስተያ የት</w>
ኤ ል
ው ቃ
ወ ራ
መል ዕ
ያዘ </w>
ጉዳ ት</w>
በተ መለከተ</w>
መ ቼ</w>
ከ ፈለ
ዱ ት</w>
ማህ በረ
ያ ስ</w>
አጋ ጣ
ታ ይ
ስለ ሆነ</w>
መ ጻ
አ ዎ</w>
e x
ታው ቃ
ተግባ ር</w>
ክ ስተ
0 00</w>
ዲ ት</w>
በ ለ
እነ ዚ
ጨረሻ ው</w>
የ ር</w>
አል ቻ
ካ ት</w>
ማ ድረ
በመ ጀመሪያ</w>
የ ህ
ኃ ይ
ክ ብር</w>
የ ሌ
ዕ ለት</w>
የ ሆነው</w>
የም ታ
l e</w>
ጠቀ ሙ
ዳ ዊት</w>
መ ሆና
ዘ ር</w>
ግ ር</w>
መ ቅ
ለማ ወቅ</w>
ፓር ቲ
ጥያቄ ዎች</w>
ይ ኸ
ነ ኝ።</w>
ም ሽ
ነ ህ
አ ና
ስህ ተት</w>
ሯ ል።</w>
ዘ ንድ
ይሆና ል.</w>
እ ችላ
መፍት ሄ
አ ራ
ከ ላይ</w>
መ ጡ</w>
የ እርስ
አባ ላት</w>
ለህ ?</w>
ክ ቶች</w>
ግ ር
እናን ተ
ቸው ም።</w>
ደረ ግ</w>
ል ና</w>
ከ ን
ሳ ተ
በተለ ይም</w>
ፈ ጣ
ነ ጋገ
ዓመ ቱ</w>
ቁ ት</w>
ይገባ ል።</w>
ቻ ለ</w>
ጠ በቀ
a c
ሄ ደ
ዘላ ለም</w>
ስ ማ
ይ ሖ
ትክክ ለኛ</w>
ለሁ ፤</w>
ምረ ጥ</w>
ደ ገ
ነ ቱን</w>
አባ ት</w>
ያ ሉት</w>
መሰ ረት</w>
ወ ራት</w>
ሄ ድ
የእርስ ዎን</w>
መ ሄድ</w>
እንቅስቃ ሴ</w>
አምላ ክ
ያል ተ
ባን ያ</w>
ፕሮግራ ም</w>
ደር ግ</w>
አመ ራ
ባ ቡር</w>
እ ህ
ረጋገ ጥ</w>
ባ ዊ</w>
ኩ ባንያ</w>
መንገ ዶች</w>
አን ቀ
አለ በት
ነገ </w>
ሙ ስ
በ ደ
ኃ ላፊ
በመ ሆኑም</w>
ሰ ለ
ል ና
ብዙ ውን</w>
ወ ሳ
ሳ ች</w>
ታ ን</w>
በ ሆነ</w>
ብለ ዋል።</w>
ፊ ያ</w>
ት ር</w>
ነበሩ ።</w>
ቹ ም</w>
መል ክ
ግም ት</w>
ሙዚ ቃ</w>
ጎ ዳ
ው ሂ
ጨ ር
er </w>
ሁለ ተኛ</w>
የሚሰ ጡ
ት ም።</w>
ህ ወ
ለን .</w>
ምር ጫ
ዳ ር
ወ ል
ሴ ን</w>
1 4
ብ ዛት</w>
ፍ ለ
የቀ ረ
መ ስለ
ወን ዶች</w>
አይደለ ም.</w>
ድም ፅ</w>
ዥ </w>
ይ ታወ
ቀ ለ
ብ ን
አ ዎ
አ ቋ
ሰ ይ
በተ መሳሳይ</w>
ለመ ሆን</w>
ት ስ</w>
ገ ኙ</w>
ትል ቁ</w>
አ ደርጋ
ፀ ሐ
ወ ንድ</w>
በ ጥ
በ ታል።</w>
ሪ ክ</w>
ግ ማ
ግብ ር</w>
ሸ ነ
ብ ኝ</w>
ም ታ
ሲ ሉ</w>
ን ,</w>
ዳ ል</w>
ይ ፈ
ስ ቲ
ለማ የት</w>
ባለ ፈው</w>
ደስ ተኛ</w>
ኘ ው</w>
ግ ዛት</w>
ከሆነ ,</w>
ኢትዮጵ ያ
አስቸ ጋሪ</w>
ፊ ቱ</w>
ቀድ ሞ</w>
ግ ራ</w>
የሚ ለውን</w>
1 1</w>
በቅር ቡ</w>
አ ጠቃላይ</w>
ሚ ዲያ</w>
o </w>
ጠ ረ
ቁ ም</w>
ታ ዋ
አስደ ሳች</w>
በ ቅ</w>
ፈል ጉ</w>
ጉ ባ
5 0</w>
ዎች ም</w>
ሪያ ው</w>
ረ ዋል።</w>
ገ ድ
ቀጥ ለው</w>
ጆ </w>
a g
ወያ ኔ</w>
ጦ </w>
በ በ
ር ን</w>
ለመ ፍ
እንዳ ለ</w>
ራ ን</w>
ሰ ን
መ ጋ
ዝ ቅ
ፓር ቲ</w>
ሻሻ ል</w>
እ ራ
የ ቆ
መጥ ፎ</w>
ከ ለ
ሜ ን</w>
1 1
ሪ ት</w>
በተ ለያዩ</w>
ብሔ ራዊ</w>
ጨ ነ
ሺ </w>
ሂ ደ
ክፍ ሎች</w>
የነበረ ው</w>
ኤ ሌ
ይወ ስ
ስል ጣን</w>
ማህ በራዊ</w>
ያስፈል ግ
ንጉ ሥ</w>
ቆጠ ሩ</w>
ለ ች
ጥበ ብ</w>
ግ ጥ</w>
ስፍ ራ</w>
አበ ባ</w>
ጋ ር
በ ውስ
ሰ ባት</w>
ይ ን</w>
ስ ጦ
ዩኒቨርሲ ቲ</w>
ዕድ ል</w>
መ ጡ
ሚ ል</w>
ዝግ ጁ</w>
ና ት።</w>
ዕ ው
ቸ ዋል</w>
እንግሊ ዝ
ሁለ ተኛው</w>
ጉ ል
አላ ቸው።</w>
ቅ ን
የ ሞ
ው ጪ</w>
እስ ከ
ምር ቶች</w>
ታ ችሁ</w>
ሀ ሳ
ጓደ ኛ
ኮ ሚ
ለህ ።</w>
ወቅ ቱ</w>
ባ ር
ምል ክት</w>
ይ ዞ</w>
ትር ጉም</w>
ው ኃ
ወገ ን</w>
ዕድ ሜ</w>
ስድ ስት</w>
ዘጋ ጀ
ረ ድ</w>
እን ድን
ዋ ል.</w>
ፈጥ ሮ</w>
ሁ ል</w>
ዘ ረ
በማ ድረግ</w>
መንግ ስ
ሳ ን
ም ም</w>
ቆ ን
2 1</w>
ሽ ያ
ይዘ ት</w>
የሚያ ሳ
ክ ፉ</w>
ቀ ል</w>
እር ዳታ</w>
በአ ጠቃላይ</w>
መለ ከተ
ያ ቸው</w>
አብዛ ኛው</w>
ኤሌ ክት
ሃ ት</w>
ቃ ል።</w>
ነ ህ</w>
የመ ጣ
ደቂ ቃ
ታ ዎች</w>
1 8</w>
አድ ራ
ይ ደ
ግ ጥ
ትክክ ለ
D </w>
ባ ረ
ከ ራ</w>
መሣ ሪያ</w>
እ ገ
አድር ጎ</w>
1 3
ሕዝ ቡ</w>
ሰ ም
መግለ ጫ</w>
ውይ ይት</w>
ሆ ይ</w>
ቅ ና</w>
ል ጥ
ቃ ላት</w>
ን ብረት</w>
ት "</w>
ዊ ነት</w>
የሚሰጡ ዋ
እ ረ
ፈ ር</w>
ባን ክ</w>
ዊ ው</w>
ማን ኛ
ኢን ተር
ጀመ ረ
ከ ፋ
ኪ </w>
ይ በ
አገል ጋ
ጦ ች</w>
ቴክኖሎ ጂ</w>
ግምገ ማዎች</w>
አባ ል</w>
ብረ ተሰ
ሰ ባ</w>
ስት ና</w>
ጠ ል</w>
ልዩ ነት</w>
ፊ ት
ማ ኅ
ሚ ስ
ቁጥ ጥር</w>
ሃ ል</w>
ተ ዋል</w>
ሉ ,</w>
ዮ </w>
ገባ ው</w>
ጥ ና
እድ ል</w>
በጭ ራሽ</w>
ደህ ና</w>
ረዳ ት</w>
ጨም ሮ</w>
C </w>
ን ቅ
ው ድ</w>
ጠበ ቅ</w>
ኢ ሜ
መረ ብ</w>
ገ ር
እና ት</w>
ኢንዱስት ሪ</w>
ኞ ችን</w>
ስ ፖርት</w>
ኢኮኖ ሚ</w>
ሉ ፤</w>
ይ ጀም
ያ ካ
ክ ረ
ነገ ሩ</w>
ፈል ግ</w>
የ ውጭ</w>
ያ ቀር
ቀ ደ
ደረ ጋ
ናይ ት
ወ ጡ</w>
ራሳ ቸውን</w>
አቅ ጣ
ቀ ኝ</w>
ኖ ሮ</w>
on e</w>
ስ ደ
የም ር
ስ ቡ
ተ ጫዋ
እ ላ
ይ ቀጥ
ድ ል</w>
o m
ባህ ር</w>
ዓላ ማ</w>
" ከ
ተ ናገ
ና ቂ</w>
በ እርሱ</w>
ዕ ኖ</w>
አ </w>
ከ ብ</w>
ይ ረዳ
ሙ ት</w>
ስ ለማ
ዓ ል</w>
ጉ ትን</w>
አ ዘ
ይጠ ይ
አስተ ሳ
አላ ቸው
ሥ ር</w>
ት !</w>
ስር ዓ
ሽ ከር
ፈለ ግ</w>
A </w>
ይቻ ላል።</w>
ኔ ት</w>
ሊ </w>
ጠ ቅ</w>
ዜ ጎች</w>
የ ሕ
ሃ ሳብ</w>
ግ ዴ
ተጠቃ ሚዎች</w>
ከ ሌሎች</w>
ሰ ን</w>
ር ክ</w>
በመ ጨረሻ
ሥር ዓት</w>
አስተዳ ደር</w>
0 %</w>
ያ ል</w>
ታ ስ
ገኘ ው</w>
ነጥ ብ</w>
ደንበ ኞች</w>
ጦ ር</w>
ጠቅ ላይ</w>
ሌ ት</w>
ምክንያ ቶች</w>
1 4</w>
ወሰ ነ</w>
ፊ ል
ራ ስ</w>
ይ ላል</w>
ለመ ሆኑ</w>
ይ ላል።</w>
ስምም ነት</w>
ሄ ር</w>
ብ ቅ</w>
የተ ለመ
መድረ ክ</w>
ው ስ</w>
አ መለ
በ ኋላ
ዩ ናይት
ወ ይ</w>
ብ ኝ
ፍ ን</w>
ቢ ት</w>
1 6
አገ ኘ
ቴ ሌ
ው ሎ
ዶ ክ
ዳ ል።</w>
ይ ሻ
ከተ ል</w>
ከ ት</w>
አልነበረ ም።</w>
ተ ሸ
ለማ ስተ
ፖሊ ስ</w>
ጀ ን
ሏ ል</w>
ሬ ን</w>
ምን ?</w>
ፈ ን</w>
ዜ </w>
አውሮ ፕላ
ብ ስ
ጠ ና</w>
ስን ት</w>
ለመ ጀመሪያ</w>
መ ሪ</w>
ዋ ር
ገ ውን</w>
ውሂ ብ</w>
ጸ ሎት</w>
ጉዳ ዩ</w>
ትውል ድ</w>
ኢየሱ ስ
ጎ ን</w>
ይሆን ?</w>
የ ስራ</w>
ያገ ለ
በረ ታ
ንጉ ሡ
ኮ ምፒ
ጭ ት</w>
ሰ ሩ</w>
ዩናይት ድ</w>
ቡ ም</w>
ሶ ፍት
ምንድ ነው?</w>
ክ ን
የ ወደ
1 7
አገ ሪቱ</w>
ሶፍት ዌ
ክ ል</w>
ድም ጽ</w>
ግለ ሰ
አብዛ ኛ
ያ ነ
ረ ጥ</w>
ኦ </w>
ፉ ን</w>
ደ ን</w>
የሚ ጠ
እ መ
ት እ
አንዳን ዶ
ፊ ልም</w>
ይሖ ዋ</w>
ቱ ንም</w>
ያ ያ
k </w>
ሌሊ ት</w>
የ ፈጠ
መጠ የ
ት ህ</w>
ጋ ና</w>
ጠ ባ
ገ ጽ
ቀ ና
ም ፥</w>
ቀ ዳ
ላችሁ ።</w>
ጥ ቃት</w>
ገ ዳ
ያላ ቸውን</w>
ማንኛ ውንም</w>
ዳን ት</w>
ፕሬ ዚ
መ ሸ
የተወሰ ነ</w>
ካ ን
ግብ ይት</w>
አድር ገ
አን ዲት</w>
ቀ መጥ</w>
ጨዋታ ዎች</w>
ዋ ል
አስ ታው
ኃጢ አት</w>
ይህ ን
ችሁ ።</w>
ለሁ !</w>
ዎ ቹን</w>
ደ መ
ዣ </w>
ነ ዉ
g </w>
ሳ ን</w>
ግንባ ታ</w>
እ ሷ
ዘ ን</w>
ቅር ታ</w>
የሚ ታ
ጋዜ ጠ
እንግዲ ህ</w>
ግ ና</w>
እያ ለ</w>
ም ድር
ገ ኛ
አነ ስተኛ</w>
ጥ ራ
ል ጣ
ላ ን
ሌ ለ
ቅ ን</w>
ጽ ሁ
በመ ሆኑ</w>
ይሄ ን</w>
አይ ገባ
አ ጠ
i P
ደብ ዳ
ስብ ሰባ</w>
ያገ ኛ
ማስ ረ
ወገ ድ</w>
ዝቅ ተኛ</w>
ተስ ፋ
2 4</w>
በ ብዙ</w>
ተ ሞክ
ጥ ቁ
መ ዳ
ዳ ግም</w>
ብዙ ዎች</w>
ገ ኙ
ች ን
የሚ ቆጠሩ</w>
ፌ </w>
ዩ ን</w>
ጣ ል
በ ቃ</w>
ጨ ት</w>
እስ ቲ</w>
ሆ </w>
በመ ጠቀም</w>
መ ቆ
እነ ዚያ</w>
ቋቋ ም</w>
ከታ ተ
የማ ስ
አል ፎ</w>
ህ ።</w>
ፊ ዎች</w>
ደር ስ</w>
አ ጠቃ
በ እነዚህ</w>
የሚ ሆን</w>
ወንድ ሞ
መ ም</w>
አ ህ
መፍት ሔ
ወዲ ያው
ፌ ስቡ
የ ም</w>
ሩ ሳሌ
መ ጽ
ሆ ቴ
ለ ዚህም</w>
መ ኖ
በማ ስ
ወንጀ ል</w>
ኮ ር
" እኔ</w>
ይ ታ</w>
የ ን</w>
ሥል ጣን</w>
ጓደ ኞ
አገ ሮች</w>
ሙ ከራ</w>
አይ ችልም።</w>
ማ ሪ</w>
ወሰ ን</w>
ይጠ ብ
ነበረ </w>
ዘ ግ
የለ ውም።</w>
ቁ ልፍ</w>
አመለ ካከ
ዓ .</w>
ተግባ ራዊ</w>
በ ሩ</w>
ለመ ቀ
መመ ሪያ</w>
ጨ ለማ
ተ ደ
2 5</w>
እንደ ምት
በ እርስዎ</w>
19 9
ተ ባ
: 3
መጠ በቅ</w>
ፕሮጀ ክት</w>
መከ ላከ
ላ ል.</w>
እን ጂ
ጣ ል</w>
ለመስ ጠት</w>
ት ዎ</w>
አይ ሁ
እርም ጃ
ታ ችንን</w>
ነበረ ው</w>
የተ ሳ
ወጣ ቶች</w>
ወን ጌ
ሕ ፃ
ወ ጪ</w>
ፌ ዴ
ጠቅ ላ
እስ ር</w>
ይ ን
ጤ ና
ክ ራ
አ ዴ
ውጤ ታማ</w>
ግባ ር</w>
ሾ ች</w>
ችሎ ታ</w>
ኒ ት</w>
ሰ ሜን</w>
መው ሰድ</w>
በተ ጨማሪ</w>
እ ወዳ
ብ ቃት</w>
ም ራ
ጠቀ ሙ</w>
ዮሐ ንስ</w>
e l
እንደሚ ችል</w>
ይ ሆን</w>
እው ቀት</w>
ኬ </w>
ያለ በት</w>
ች ,</w>
ከ ው</w>
ጥ ረ
ስ ፒ
ችግ ሩ</w>
ኢየ ሩሳሌ
ግል ፅ</w>
ወዲያው ኑ</w>
ዝግጅ ት</w>
በ ከፍተኛ</w>
ሽያ ጭ</w>
ላ ንድ</w>
ቡ ና</w>
እ ኩል</w>
ሰ ጥ</w>
ብዙ ም</w>
የመስ መር</w>
ወ ታደ
ቆን ጆ</w>
ህ ል
በሽ ታ</w>
ጥን ቃ
ደቂ ቃ</w>
ባለ ፉት</w>
ጓ ዝ</w>
( የ
ፈጽ ሞ</w>
ታ ም</w>
ጳ ውሎ
ዘ ዴ</w>
ማ ቸው</w>
ካ ና
ች ለው</w>
ዎች .</w>
ይ ው
የት ኛው</w>
ካ ዊ</w>
አ ደረገ
ም )</w>
ቶ ቻ
መለ ስ
ቷ ን</w>
ቢ ዎች</w>
ት )</w>
በ ወቅቱ</w>
ቋ ል።</w>
ብ ሏል።</w>
ማህበረ ሰብ</w>
ያለ ሁ</w>
መ ዛ
ፈል ግ
አን ቺ</w>
ለሁ ?</w>
ሱ ት</w>
ቆ ይ</w>
ስል ጣ
አው ታ
ቤተሰ ቦ
ዎ ታል</w>
ቫ ይረ
ፈል ገው</w>
ምን ጭ</w>
ዋ ነ
አስደ ናቂ</w>
ተስማ ሚ</w>
ጋ ዊ</w>
ቢ ሆን
የ ቅርብ</w>
እድ ገት</w>
ሀ </w>
ኖ ሩ
ፍ ሬ
1 3</w>
ሚ ው</w>
ካ ህ
ከናወ ን</w>
ዘ ለ
ነገ ረ
ማ ዊ</w>
አማ ራ</w>
መስ ራት</w>
ባለ ቤ
ታዋ ቂ</w>
ማ ራ
ፍ ል
, 000</w>
መል ክ</w>
አ እም
እና ውቃ
ተገ ቢ</w>
አብዛኛ ዎቹ</w>
ው ን
አካባቢ ው</w>
1 6</w>
ከ ዚህም</w>
ይገ ኛል።</w>
ጠበቀ </w>
ምን ም</w>
መ ቻ
ጥ ፋ
ው ቀው</w>
ሣ </w>
ይመስለ ኛል።</w>
ኒ ው</w>
ፈተ ና</w>
ሳ ል።</w>
ይመስ ላል።</w>
ውድ ድር</w>
ጫ ን</w>
ግብ ፅ</w>
ሄ ዳ
ፍለ ጋ</w>
ገ ቢ</w>
ውኃ </w>
ማ ታ</w>
የሚሰጡዋ ቸውን</w>
ማ ም
ነ ሱ</w>
" ለ
ቀድ ሞ
አብዛ ኞቹ</w>
ጁ ን</w>
ኤ ር
የተ ነሳ</w>
የ ራ
i </w>
መልእ ክት</w>
ኦ ሮ
ሊ ያስ
የሆ ነውን</w>
እንደ ም
ጠ የቀ
አ ጭር</w>
አለ ኝ።</w>
መ ምህ
ናቸው ?</w>
እንቅስቃ ሴ
ለ ው።</w>
ሃ ሳ
ቃ ወ
ፌስቡ ክ</w>
ፈ ፀ
ያ ዊ</w>
ጎ በ
ዘጋ ጅ
ጥ ላ
አጋጣ ሚ</w>
ዘ </w>
ፖለቲ ካ
መ ናገር</w>
ው ሸ
ለማ ለት</w>
ያደር ግ</w>
ይመልከ ቱ</w>
ዚ ሁ</w>
አድር ጓ
ድረ </w>
የት ኛውም</w>
ሙ ቀት</w>
ሞ ከር</w>
ኝ ን</w>
ዘመ ናዊ</w>
ሁ ሌ
ቱ ት</w>
1 7</w>
ሉ በት</w>
on </w>
ል ህ</w>
እፈልጋ ለሁ</w>
አለ ?</w>
ባ ቸውን</w>
ሰ ፊ</w>
ነ ን።</w>
ለመ ው
ሃ ገ
አይ ቀር
ረ ድ
አመሰግና ለሁ</w>
ሚ ና</w>
ው ፣</w>
ገና ኘት</w>
ወላ ጆ
ግ ዳ
ዓ ለ
ክፍ ት</w>
ር ስ</w>
v i
ራ ቅ</w>
4 0</w>
ጀር መን</w>
ተ ካ
ኪ ዳን</w>
ተቀ ባይ
ወሳ ኝ</w>
ጥቁ ር</w>
ጉ ዞ
ያ የ
ሽከር ካ
ሃይማኖ ት</w>
ህዝ ቡ</w>
ተ መ
ነበር ፤</w>
አካ ላት</w>
ዜ ና
ብለ ህ</w>
ስለ ዚህ
ተቋ ማት</w>
ተወዳ ጅ</w>
ጠ ፋ</w>
ግማ ሽ</w>
አስ ፈ
ሠ ር
ሃ ል።</w>
ጩ </w>
ማ ቅረብ</w>
ለ ብ
ጡ ።</w>
ፀሐ ይ</w>
1 .</w>
ያደር ገ
ለማ ን
እንደሚ ያ
ሪ ፖርት</w>
ፍ ሬ</w>
ሳ ት
መፍትሄ </w>
ሻ ለ</w>
ጥበ ቃ</w>
ግ ላ
ያገ ኙ</w>
በሚ ቀጥለው</w>
ዕ ለ
ሱ ም</w>
ተጽ ዕኖ</w>
ሚ ስት</w>
ሐ ሳብ</w>
ቆጣ ጠር</w>
ከ ል
ርዕ ስ</w>
ፍ ቅር
ረገ ድ</w>
አ ያስ
አይ መስለ
ከተ ሞች</w>
ጾ ች</w>
አን ዴ</w>
ያ ሉትን</w>
h one</w>
አሳ ል
መደ በኛ</w>
በ ሌሎች</w>
ቅ ዳ
ጠቀ ም
አ ይ</w>
ለመ ጠቀም</w>
r a
c o
አ ሉ.</w>
የተ ናገ
ዎች ,</w>
ኢ ዮ
መለከ ት</w>
ራ ረ
ጥንቃ ቄ</w>
መ ምረጥ</w>
ድርጅ ቶች</w>
የ ፈለ
በ ሳ
ዕድ ሜ
ለ ጠ
ሕ </w>
ሆ ስፒ
ግን ቦት</w>
መ ክፈ
ጤ </w>
ደግሞ ም</w>
የተ ፈጠ
ዘጋ ጀት</w>
ቆ ር
ጠቀ ማ
ን ም።</w>
አደ ጋ
ተ ኮ
በ ድ
ሰላ ም
ር ና</w>
ቱ ሪ
በስተ ቀር</w>
ቪ ዥ
የመ ጨረሻ</w>
ው ኑ</w>
ች ልም</w>
ሩ .</w>
ን ጥ
ተከ ት
c h
በ ዓ
ቱ ።</w>
ምሽ ት</w>
ዩ ት</w>
በቀ ጣ
ሞ ዴ
ጠ ዋት</w>
ዘ ዴ
ያስፈልጋ ል።</w>
e s
ር ግጥ</w>
ዶ ችን</w>
ቶ ቻችን</w>
ሰዓ ታት</w>
ጥ ሪ</w>
ሲ ያ</w>
በ ግልጽ</w>
) .</w>
ው .</w>
አገልግሎ ቶች</w>
ክፍ ለ</w>
አባ ቴ</w>
አስ ገራ
ደጋ ጋ
መለ ክ
አምላ ካ
ነ ዳ
በመጨረሻ ም</w>
እና ደርጋ
ያ ዕ
ው ው
አሸ ና
ና ችን</w>
ስ ምን
ጥ ን</w>
ኩ ት።</w>
ከ አ
ኑ ሮ</w>
ያ ዝ
ፈቃ ደ
ማ ክ
ያ ጋ
ሐ ዋር
ል ፥</w>
ይቻ ላል</w>
ን !</w>
ሄ ዱ</w>
አገ ና
አመ ታት</w>
ሊ ሆኑ</w>
ካ ሄድ</w>
ማ ሰብ</w>
መንገ ድ
ጀመሪያ ው</w>
ሆነ ።</w>
መሥ ራት</w>
ን ባ
ለ ኝ</w>
አይ ሆን
ቀ ለም</w>
የሚ ችሉ</w>
ኩ ም</w>
ተ ፈጥ
ስብ ሰባ
የሚ ፈ
ነበ ሩት</w>
በዚ ያን</w>
ዴ ሞክራ
ኑ ም</w>
በሽ ታ
በመ ጨረሻ</w>
ገን ባት</w>
ልም ድ</w>
ግን ዛ
ያ ል።</w>
አን ዱን</w>
ራ ሉ።</w>
ሙስ ሊ
a s
ኢንተር ኔት</w>
የሚገ ኙ</w>
ቼ ን</w>
አቅጣ ጫ</w>
ሞ ን</w>
ሸነ ፍ</w>
ጹ </w>
20 20</w>
ካል ሆነ</w>
አን ጻ
መድ ሃ
ዛ ው</w>
ስት ራ
2 4
1 00</w>
oo g
የሚ ወ
ጠ ፍ
አቅ ራ
እባክ ዎን</w>
ነው ፣</w>
ዳ ቸው</w>
ጊዜ ,</w>
ፋ ብ
ይ ሰራ
ቀ ል
ስለ ዚህም</w>
ካ ለ</w>
የም ግብ</w>
ሰ ል</w>
ጥ ሩ
ተ ያ
መሠረ ተ</w>
ን ፃ
ገባ ት</w>
ባ ህል</w>
አን ባ
አ ደረ
እንደ ሆኑ</w>
ማ ጣ
በ ል</w>
ላለ ፍ</w>
ይኖር ብ
መ ገለ
ውስጥ ,</w>
አት ክል
ቴሌ ቪዥ
ኪ ያ</w>
መጠየ ቅ</w>
ወ ሲ
ሰ ል
ቁ ።</w>
ዋ ን
ሕ ዛ
በ ም
ሶፍትዌ ር</w>
እንዴ ?</w>
ነበር ?</w>
ዋ ዕ
ል ጃ
ቢ ው</w>
ካ ሉ</w>
እርግጠ ኝ
ቁ ማር</w>
ይ ላል
ቁ ን</w>
የለ ው
ሩ ትን</w>
ሥር ዓ
( በ
ባህ ሪያ
ስ ቶ</w>
ተ ጠቃሚ</w>
ጠ ን</w>
ጨ መረ
ይ ዛ
ያደር ጉ</w>
ደጋጋ ሚ</w>
ስ ና
አስተሳ ሰብ</w>
ተቀባይ ነት</w>
ይ ሠራ
ተ ል
ኤሌክት ሪክ</w>
e t
ያዕ ቆ
ድ ቅ</w>
ው ፤</w>
ን "</w>
ካከ ል</w>
አው ቶ
ላይ ,</w>
2 2</w>
ሳ ል</w>
ት ዳር</w>
ፍ ቃ
ኖራ ቸው</w>
ፈረን ሳይ</w>
ሰ በ
የቀ ድ
ና ቀ
ልብ ስ</w>
ያ ያዘ</w>
ለሁ "</w>
ሆይ ፥</w>
ቂ ዎች</w>
ህ ?</w>
የሚ ባል</w>
ም ግ
ደ ቀ</w>
ቡ ።</w>
ና ን
በተ ቻለ</w>
ት ላ
ቦ ር
ሞ ላ
የ ዋ
እግዚአብ ሄር</w>
ር ሃ
መዝ ሙ
ገ ል</w>
l i
አም ራ
አ ሻ
2 5
የተ ወለ
መኪ ና
ነበር ,</w>
ተ ህ</w>
ራሳ ችን</w>
ያ ረጋግ
ያገ ኘ
o p
ፈ ን
ሰ ቡ</w>
የሚያ ው
ጊ ያ</w>
አስተያ የ
ስ ላል
ተገ ኝ
ፈጸ ም</w>
ምር መራ</w>
G oog
ወላ ጆች</w>
መጻ ሕ
ሠ ሩ</w>
ዎ ቻችን</w>
በ ፊ
ግለ ሰብ</w>
ደረጃ ዎች</w>
ውሳ ኔ
ይዘ ው</w>
አስተ ማማ
ተሞክ ሮ</w>
ፎ ቶ</w>
አስገራ ሚ</w>
ተሰ ጥ
ማለ ት
መል ሶ</w>
የተወሰ ኑ</w>
n d
በመ ካከ
ሊ ክ</w>
ስ ል</w>
ንግ ግር</w>
ቤ ን</w>
እንደማ ይ
ስጦ ታ</w>
ሪ ዎችን</w>
ሳይ ንስ</w>
iP hone</w>
ወ ጪ
ችሁ ም</w>
እያ ሉ</w>
ሪ ፖር
ሮ ን</w>
ጥ ፍ</w>
ዋ ለሁ</w>
ታወ ቀ</w>
መዝ ገብ</w>
አብ ሮ</w>
ዱ ።</w>
ለያ የ</w>
ካ ላ
ላ ል?</w>
ብ ሄ
ለ ኛው</w>
የ ስ
በ ጀት</w>
ጠና ቀ
ይ ቅር</w>
መ ጫወት</w>
የለ ውም</w>
ኑ ት</w>
ቂ ያ
2 3
መለ ያ</w>
ማ መን</w>
ቭ </w>
e s</w>
የ ራሱ</w>
ፊ ው</w>
አይ ቻል
እን ጀ
የ ው
ጳውሎ ስ</w>
ፍ ረ
ድ ራ
እስራ ኤ
ነበ ራ
ነ -
እ ል
ያድር ጉ
ስተ ኛው</w>
ብ ላ</w>
ሁ ም</w>
ሀብ ት</w>
ሥ ጋ</w>
እንደሚ ቻል</w>
ን ጹ
ው ያ
ወገ ኖች</w>
ት ል</w>
ያ ሉ
ተ ኩ
ጊ </w>
< /
ፀ ጉ
ል ጁ</w>
አይ ቻ
እንደሚ ችሉ</w>
በ ሕይወ
ገ ኛ</w>
እ ራስ
ይገባ ል</w>
አለባ ቸው።</w>
መስ ከረ
0 0
በ ቅርብ</w>
ትራ ንስ
o w
ይ ሸ
ነ ቢ
ም ጣ
ያ ደረ
ብ ዛ
ሓ ት</w>
ሞ ችን</w>
አ ቤ
ጠ ኝ</w>
ተና ል።</w>
ሞ ተ
2 2
እ ሳ
ባህ ሪ</w>
ጉ ድ
ለ እናንተ</w>
ን በት</w>
ሩ ሲያ</w>
ጉ ን</w>
ሲ ባል</w>
አላው ቅም</w>
ስ ና</w>
ወር ቅ</w>
ዛ ን</w>
ለማ ንኛውም</w>
ብ ም</w>
ዕ ም
ሞ ላ</w>
በ ህ
ር ሽ
በ ዙ
ድንጋ ይ</w>
ቸው .</w>
አይ ችል
ሰ ረ
ተጫዋ ቾች</w>
ወጣ ው</w>
ጀመ ረ</w>
ተናግ ረዋል።</w>
አውሮፕላ ን</w>
ጽሐ ፍ</w>
አንዳንዶ ቹ</w>
አም ና
ጥ ሮ
ስኬ ት</w>
እና መሰግና
ሥ ነ</w>
ተ መልከ
ነ ታቸው</w>
ዘር ፍ</w>
· </w>
መፍትሔ </w>
አመለካከ ት</w>
አለ ባቸው</w>
ካ ለው</w>
ለመ ለ
ጡ ን</w>
ከላከ ል</w>
መሳ ሪያ</w>
ሥል ጣ
ተሳ ት
l </w>
ተቋ ም</w>
ድ ህ
ም ኞ
አለብ ዎ
ያ መጣ
ፍጥ ረት</w>
የም ርት</w>
ኮ ሌ
ጥ ቃ
መሣ ሪያዎች</w>
ድ ም</w>
ቃ ሽ</w>
ም ቹ</w>
በ ገ
ሚኒስት ር</w>
ግ ዛ
እንቅ ልፍ</w>
አገ ራት</w>
ክ ቱ</w>
ያስፈል ገ
ራ ው</w>
በ ጎ</w>
መ ፅ
ጫዋ ች</w>
እ የመ
ኒ ክ</w>
ያ ኔ</w>
ፋ ይል</w>
ለ ፍ</w>
ጎ ን
ል ጄ</w>
... ]</w>
ስ ዕ
ከ ፊ
ለ ረጅም</w>
ማን በብ</w>
መስከረ ም</w>
ዉ ን</w>
አ ጣ
ሳ ል
Goog le</w>
[ ...]</w>
ተቀ ም
ብ ላ
ጉ ብኝ
የሚያስ ችል</w>
ነዉ ።</w>
መልዕ ክት</w>
አድር ገው</w>
መ ማር</w>
ይ ኼ
ወይ ን</w>
ታወ ቅ</w>
አን ብ
ሏ ቸው</w>
ች ለ
P re
ይሁ ንና</w>
ዕ ቃ
ሰ ስ</w>
እ ይታ</w>
ድርጊ ት</w>
ፋ ን</w>
ን ፤</w>
ለ ምንድን</w>
ኔ ን</w>
ት ግራ
ማ ረጋገ
ት ግ
አይደ ል?</w>
ምር ምር</w>
ቸው ንም</w>
ዩኒቨርሲ ቲ
I n
ገል ጸ
እርስ ዎ
እ ኩ
ሞ ባ
በ እያንዳንዱ</w>
ለ ም።</w>
ይ ሞክ
ሰ ና
ይገ ኛል</w>
ሸ ን
ሊ ያ</w>
ሙ ሴ</w>
ካ ል</w>
አይ ኖር
ቀ ዝ
ሳምን ታት</w>
ይላ ሉ።</w>
ጀ </w>
እር ሷ</w>
ለ ይ
ወስ ድ</w>
ቀር ብ</w>
እንስ ሳት</w>
ያ ዙ
ዋ ለሁ።</w>
ቅ ሬ
ሳ ቁ
ድ ሮ</w>
ክ ስ
ርዕ ሰ</w>
ቸው ና</w>
አሉ ት።</w>
ምስ ጋና</w>
ሌ ለ</w>
እውነ ት
አ ሰራ
ች ዎ</w>
በት ም።</w>
አ ዊ</w>
ስቴ ትስ</w>
ካ ርድ</w>
ፍ ም</w>
ት ረ
ት ግል</w>
ር ሱ</w>
በ ዚያም</w>
ቤተ ክርስቲያን</w>
ቸው ፤</w>
ድን ቅ</w>
ል ታ
ከ ሆኑ</w>
ኤ ስ</w>
አስ ር</w>
ገ ላ
ቢ ሮ</w>
ከሰ ት</w>
አለበት .</w>
አይች ልም</w>
የ ነ
እ ቅድ</w>
አ ታው
የ ሽ
ሰ ማ</w>
እንደ ነበር</w>
ወረ ቀት</w>
ያግ ኙ
ቆጣ ጠ
ያገ ኙ
መንፈ ሳዊ</w>
መ መለስ</w>
አላ ቸው</w>
አባ ቱ</w>
ያለ ን</w>
ሉ !</w>
ፕሬ ዝ
ሞባ ይል</w>
አካባቢ ዎች</w>
ጠብ ቃ
መስ ፈር
አብ ረው</w>
አማካ ኝ
ነፍ ስ</w>
ብ ሩ
R e
ባ ችን</w>
ይመስ ላል</w>
እድ ሜ</w>
ጭ ምር</w>
ጨለማ </w>
ኢን ቨ
አ ወ
ተ መለ
ግ ዜ</w>
የተ ነ
u n
ስህ ተ
የሚ ገባ
ቶ ችም</w>
ቅ ና
ኬ ት</w>
ተጠ ቅ
2 1
ጃ ፓ
ማ ዳ
እንግሊ ዝ</w>
ቃ ሉ</w>
ድር ሻ</w>
መሆና ቸውን</w>
ሱ ።</w>
ዘ ይ
ጸ ሎ
ታ ዳ
መፍ ጠር</w>
ዱ ም</w>
ባበ ሩት</w>
ድ ሮ
ብ ድር</w>
ህ ብረት</w>
ብሎ ግ</w>
በዚ ሁ</w>
ስለዚህ ,</w>
ታ ል.</w>
E </w>
ባሕ ር</w>
አገ ራችን</w>
ምንድ ነው</w>
ይሄ ን
ቅ ጣት</w>
ኜ </w>
ቴሌቪዥ ን</w>
r i
መድ ኃ
ች ፣</w>
ኒ ያ</w>
ዋ ስትና</w>
ብቸ ኛው</w>
የመ ጨረሻው</w>
ተ መራ
ተ ዳ
ስ ለመ
ዴ ት</w>
ፈ ት</w>
ዲዮ </w>
ያው ቅ</w>
አብ ርሃ
ቅድ መ</w>
ዋ ወ
ይ ደረጋ
የ ኔ</w>
አንቀ ጽ</w>
ተጠ ያ
መዛ ሙ
ህ ፃ
የሚከተ ሉትን</w>
ሰ ኞ
ፈ ገ
ሀገ ሪቱ</w>
ለማ ም
ፈል ጉ
አቋ ም</w>
ሪያ ዎችን</w>
ይችላ ል?</w>
ጥን ካ
ሮ ት</w>
ግዴ ታ</w>
ክስተ ት</w>
የ ጎ
ን ታ
ዘ መን
3 0
ቀ ሳ
በ ው
እንችላ ለን</w>
ኢ ህ
መረጃ ዎች</w>
ላ ቀ
የ ሰማ
ም ዝ
ት ንም</w>
ሲ ሆን
ውይ ይ
ፕ ሪ
ቶ ን</w>
ስምን ት</w>
ድን ገት</w>
ባ ሪያ
አስ ቀድሞ</w>
ነ ጭ</w>
ሯ ል</w>
ጓ ጓ
ነ ፋ
አም ባ
ዕ ቅድ</w>
T </w>
ጭ ነት</w>
መስ ል</w>
ያካ ት
ትና ንት</w>
ተገ ለ
ኃጢ አ
ቁ ሳቁ
መ ጨ
ተ ኞ
ሂ ሳብ</w>
ለመ ር
P </w>
ይ ምረ
ገ ኝ
ታ ዘ
ክረ ምት</w>
ሩ ቅ</w>
ቆ የት</w>
ሐዋር ያ
እንዳ ለው</w>
ሌሎ ቹ</w>
የ ካ
ክ ን</w>
ተደር ጓ
የ ፍቅር</w>
ካና ዳ</w>
ሜ ዳ</w>
ጊዜ ያት</w>
ት :</w>
ሃ ይ
ከፈለ ጉ</w>
አን ፃ
ግ ዙ
መነ ሻ</w>
የ ነበሩ</w>
አይደ ሉም።</w>
ተከታ ታይ</w>
ሥራ ዎች</w>
አለ ን</w>
ንቀሳ ቃሽ</w>
ሚኒ ስቴ
ታላ ላ
መስ ክ</w>
አስተማማ ኝ</w>
ሕዝ ብ
ች ህ</w>
o l
ፈ ተና
ጀር ባ</w>
ክ ቶ
የማ ያ
ቆ ች</w>
ያው ቁ</w>
ወንጌ ል</w>
ክ ፉ
r </w>
እ ዚያ
ማዕ ከል</w>
ለ ቅ
ም ሳሌ
ዘ ይት</w>
ራስ ህን</w>
የ ደ
ማስረ ጃ</w>
ደ ድ</w>
ሥ ጋ
ባህ ሪ
ፃ ፀ
6 0</w>
ጨረ ታ</w>
የ ደረ
ኘ </w>
ስ ሪት</w>
N ex
መ ሪ
$ </w>
ደብዳ ቤ</w>
ደ ሉም</w>
ታላ ቁ</w>
ሩ በት</w>
ላችሁ ?</w>
እና ቴ</w>
ከተ ለው</w>
ቦ ርድ</w>
አመራ ር</w>
አለብ ን።</w>
ን ያ</w>
ከ እርስዎ</w>
የ መንግስት</w>
መግ ዛት</w>
ነ ባ
አለ ኝ
ጠ ላት</w>
ኩ ን</w>
አማራ ጮች</w>
ል :</w>
ለመ ጀመር</w>
ባ ቸዋል።</w>
2 3</w>
ተነ ሳ
ል ም።</w>
ዳ ይ
ጠይ ቅ</w>
ዲ ዛ
ቃ ላ
a m
ዮ ሴ
በተ ሻለ</w>
መ ላ</w>
2 .</w>
ፈ ታ
ጨመረ </w>
ቷ ል.</w>
ይሰጣ ል</w>
በውስ ጡ</w>
እንደ ምን
ገ ዛ
ቪ </w>
ጣ ል።</w>
የሚገ ኝ</w>
ጨዋታ ው</w>
ቶ ሎ</w>
ነግ ረ
ጠይ ቃ
አጠቃ ቀም</w>
ሠራ ተኞች</w>
ምናል ባት
ጴ ጥሮ
" ይህ</w>
ነበረ በት</w>
ለ ብዙ</w>
ደር ገው</w>
ነ ብ
/ ር</w>
i d</w>
ጠቅላ ላ</w>
ከ ም</w>
p p
መ ግባት</w>
I </w>
እስኪ </w>
ዋ ዋ
ታ ውን</w>
በቀ ር</w>
ገ ም</w>
ጉ ር
ያ ለሁ።</w>
አብ ረን</w>
2 6
በ ድጋ
ናገ ር
አደ ባ
ጋገ ር</w>
ኖ ችን</w>
ክ ህ
በ ዛ</w>
ሕይወ ት
ሆኗ ል።</w>
i s
የ ኢ
ብሔ ር</w>
ፍ ን
ጓደ ኛ</w>
መስ ማት</w>
ጠ መ
u b
ያን ብ
ጭ ን
በ ዚያ
ግንዛ ቤ</w>
ነገ ሥ
ያድር ጉ</w>
ባ ሉት</w>
አ መጣ
ድረ ስ
ዛ ፍ</w>
እን ፈልጋ
ለ ል</w>
ብ ታ
ክ ሪ
ለ ሌሎች</w>
ማ ይ
ኮምፒ ው
ለሁ ፥</w>
ነዳ ጅ</w>
ነ ዉ</w>
ሰራ ተኞች</w>
ገና ኛ</w>
የ ዘ
ተገ ና
ከ እነሱ</w>
የነበረ </w>
ን ብረ
መከ ራ</w>
እንግ ዳ</w>
ያ ህ
ነጋገ ር</w>
ለ ቀ
አንደ ኛው</w>
ጎ ረ
ግለሰ ቦች</w>
የተ መሠረተ</w>
ጫ ዎች</w>
አ ዛ
ማስታወ ቂያ</w>
ጀመ ሩ</w>
ውጤ ቶች</w>
በ ኩ
መለ ሳ
ገንዘ ብ
ወይ ?</w>
እንችላ ለን።</w>
ጽሁ ፍ</w>
ጠ ላ</w>
ተ ራ</w>
in </w>
ተ ፅ
ጥ ም</w>
ህ ብረተሰ
ያለ ብ
ፈጣ ሪ</w>
ር ቀት</w>
ጋ ብቻ</w>
ጀም ር</w>
ል )</w>
ድርጅ ቱ</w>
ለመስ ራት</w>
ስ ፍራ
ማዕ ከ
ያስ ታው
ቡድ ኖች</w>
ትግራ ይ</w>
ኳ ይ</w>
ብ ል</w>
እንዳ ት
ማር ያም</w>
ሳይ ን
በተ ደጋጋሚ</w>
ሟ ላ</w>
ጎ ል
እናንተ ም</w>
ላ ው</w>
የ ግ
እንደሚ ሆን</w>
: -</w>
በተ ቃ
ምል ክቶች</w>
ጡ .</w>
ላ ማ</w>
ለማ ረጋገጥ</w>
a y
ያ ሰ
ለመ ረዳት</w>
ተ ም</w>
ማ ረጋገጥ</w>
ሥራ ው</w>
ማ ል</w>
የሚ ረ
ፊ ክ</w>
ማ ሪ
e d
ለን ?</w>
መ ቁ
ተ ጫ
የሚ ሆነው</w>
ሽ ልማት</w>
ዳ ሪ</w>
ዮ ችን</w>
ወለ ድ</w>
የ ሆነ
የሚ መጣ
መን ት</w>
ለመፍ ጠር</w>
ዥ ም</w>
ል ቦ
201 3</w>
ው ር
ተቃ ው
የሚፈል ጉትን</w>
ማ ሪዎች</w>
ዓላ ማ
አ ቃ
ቱ .</w>
1 )</w>
እስራ ኤል
19 8
ይ ዞ
ቻ ችንን</w>
በ ትም</w>
ንድ ፍ</w>
ሰጣ ቸው</w>
ትራንስ ፖርት</w>
አል ቻል
ኩ በት</w>
ይገ ል
ሙ ሉ
የ ከ
የ አባ
በሚ ገባ</w>
መረ ዳት</w>
ተገ ል
ፖሊ ሲ</w>
A nd
ተ ጨ
መ ግባ
ማ መልከ
ተ ደራ
ያ ዙ</w>
ብቸ ኛ</w>
አ ሮ
ዓይ ነቱ</w>
መ ጀመር</w>
ቀ ይ
ደጋ ግ
አ ሳይ
ሮ ቹ</w>
ን )</w>
ኤ ም
ያል ሆነ</w>
ቂ ያዎች</w>
አ ግባ
ኑ ።</w>
ቡድ ኑ</w>
ሰራ ው</w>
ገኘ </w>
በ አብዛኛው</w>
የተለመ ደ</w>
አብዛ ኛውን</w>
መ ሪዎች</w>
ሐ ኪ
ክል ሉ</w>
ምዕራ ፍ</w>
ፈ ል</w>
201 7</w>
መሳ ሪያዎች</w>
ቅዱ ሳን</w>
እረ ፍት</w>
ቸ ዉ</w>
ንጉሡ </w>
ዳ ዊ
ድ ሩ</w>
ቲ ን</w>
ችሁ ት</w>
ደንበ ኞ
ግጥ ም</w>
ተ ክ
l e
ጸ ሐ
ችኋ ል።</w>
ስራ ዎች</w>
ጠበ ቅ
ህ ንድ</w>
መለከ ታ
ኝ ?</w>
መንግስ ታት</w>
ነ ታችን</w>
በመ ሆን</w>
ቴ ዎ
ባ ለመ
ሰ ድ
ላ ችን</w>
ትና ን
ረ ሳ
ፈጠ ር</w>
ምስ ጢ
ቀጠ ል</w>
በኋላ ,</w>
ወ ዘ
ገደ ብ</w>
ፕሬዚ ዳንት</w>
ሶ ስተኛ</w>
ሆቴ ል</w>
ካ ሜ
ር ዳ
መከ ራ
መላ እ
አይቻል ም።</w>
ዶክ ተር</w>
ሆስፒ ታል</w>
ጉባ ኤ</w>
የሚ ሆኑት</w>
እን ክብ
2 8
ደ ሩ</w>
ሂ ድ
አይ መስ
ሻ ው</w>
ዓ ለማ
ነው ና።</w>
አው ጥ
ጠና ቀቅ</w>
ሐ ሳ
ጸ ል
ስትራ ቴ
ሌሎ ችን</w>
ች ው።</w>
ሷ ል።</w>
እንዳለ በት</w>
መዳ ረ
ቀ ይ</w>
ቻ ለሁ</w>
ስተ ር</w>
ናገ ሩ</w>
በመስ መር</w>
ግምገ ማ</w>
ማ ሻሻ
ዕ </w>
ለሁ ,</w>
በ ቃል</w>
አ ሕዛ
ነ ትና</w>
የተ ጠቀ
ና ው</w>
ነዋ ሪዎች</w>
ክ ም</w>
ሟ ላት</w>
ለመ ድረስ</w>
201 6</w>
ነበረ ።</w>
ህወ ሓት</w>
ቃ ል
ለመ ጠበቅ</w>
ደ ስተ
ተና ል</w>
ተማ ሪ</w>
ተራ ራ</w>
ለ ፍ
ለመ ሄድ</w>
ዲ ጂ
ነ ዚህ</w>
የሚፈል ጉ</w>
ስ ጋት</w>
አስ ባ
ስ ቶች</w>
ደር ስ
አለብ ን</w>
ቁ ል
ሀገ ራችን</w>
201 2</w>
ምስ ል</w>
ቀጥ ል</w>
ለ ወደ
አ ፕ
በ ምት
ሃ ገር</w>
ነጥ ቦች</w>
አዴ ግ</w>
የላ ቀ</w>
ያ ደረገ
And ro
አ ል</w>
የተ መረ
ና ችሁ</w>
ዎታ ል.</w>
ጊዜ ም</w>
201 8</w>
ጠየ ቅ</w>
ፍር ሃት</w>
መ ክ
ትእ ዛዝ</w>
ቀ ዋል።</w>
ሰኞ </w>
ከ ን</w>
ው ብ</w>
ስ ቶ
ፈ ቀ
ሳምን ቱ</w>
አብ ራ
ተ ኛውን</w>
ል ባ
ጥቅ ሞች</w>
ም ...</w>
ሶ ችን</w>
ዳ ሚ</w>
ጥቅ ምት</w>
የ ሰጠ
ይወ ዳ
አ ለማ
መ ካ
ዞ ን</w>
in g</w>
በ ላ</w>
ላ ሉ።</w>
ፎ ር
በ ይ
ሃ ብ
ትር ፍ</w>
20 19</w>
ለን !</w>
t i
አለብ ዎት</w>
ም ሥራ
በ ሕ
ለ ።</w>
መከላከ ያ</w>
ዎች ና</w>
a b
ቧ ል።</w>
ም ፕ</w>
አፈ ፃፀ
ገነ ዘ
ቿ </w>
እ ሺ</w>
መል አ
የ እ
እ ያለ
ዓይ ን</w>
አለው .</w>
ሊ ኖረው</w>
አደርጋ ለሁ</w>
ህ ጻ
ዝና ብ</w>
አ ጀን
ም ሕ
ጉ ጉት</w>
ኩ ኝ</w>
ክብ ደት</w>
ቀድሞ ውኑ</w>
ፈለ ገ
አም ል
M </w>
ዓለ ምን</w>
X </w>
ፈለ ግ
ማ ሽ
ወሲ ብ</w>
ይነ መረብ</w>
አብ ይ</w>
ምስ ራቅ</w>
ቶች ና</w>
በ ሉ</w>
እየ ጨመረ</w>
ማ ያ</w>
ቋ ሚ</w>
አውቃ ለሁ</w>
ሽ ማግ
ብለ ዋል</w>
ቋ ረጥ</w>
እንዳ ሉ</w>
ቆ መ
አውታ ረ</w>
ማ ል።</w>
ሰብ ዓ
ማድረ ግ
ኢንዱስት ሪ
ጓደ ኞች</w>
አደ ገኛ</w>
ሰ ኔ</w>
ፎ ችን</w>
የ ገባ
ኖ ስ</w>
ሊ ቀ
ገ ጾች</w>
ም ኑ</w>
ሞ ገ
ያው ያን</w>
ስ ?</w>
አስተ ና
ታ ክ
ው ለ
ትዕ ዛዝ</w>
በተ ያያዘ</w>
መ ሆን
እነ </w>
ይፈልጋ ሉ?</w>
መው ጣት</w>
ወደ ው</w>
ህ በራዊ</w>
ጎዳ ና</w>
አድ ና
የሚ ለ
ሆን ኩ</w>
ድ ል
ዢ </w>
Andro id</w>
ዎ ታል።</w>
vi ou
ኝ ፤</w>
ጥ ልቅ</w>
ጥን ት</w>
... "</w>
ይ ጠቀማ
እንክብ ካ
መ ሩ</w>
መስ ኮ
Pre viou
ሰነ ድ</w>
የተ ጻ
ትር ጉ
በ ፍቅር</w>
ተ ጣ
ሰ ጡ</w>
2 )</w>
ሌላ ውን</w>
ቻ ለው</w>
ፍ ፁ
ሠ ላ
ስተ ዋ
ወቅ ታዊ</w>
ግ ኘ
ጠ ነ
ደንበ ኛ</w>
ሊ ን</w>
አስ ቀድ
ሳ ስ</w>
O </w>
ታላላ ቅ</w>
ፍ ቅ
በ ግ
ነበ ብ
መ ቶ
የሌ ለው</w>
መንገ ዱ</w>
ም ሁ
ለመር ዳት</w>
መስ ጠ
ይሁ ዳ</w>
ይገኛ ሉ።</w>
ስል ጠና</w>
ለማ ው
መዛሙ ር
በ ዛ
ደ ካ
ን ነት</w>
ብ ሪ
ይችላ ሉ?</w>
ተ ሽከርካ
ዳ ግ
ወዲ ያ
ኦ ር
ሳ ተ</w>
ዘ ጠኝ</w>
አላ ህ
ዲጂ ታል</w>
ባ ዶ</w>
የ እሱ</w>
ዘመ ኑ</w>
ሚኒስቴ ር</w>
ወረ ርሽ
ው ቅ
ጣ ፋ
የሚች ለው</w>
ፈር ዖ
ማ ል
ቃ ለ</w>
ዝ ና</w>
ረ ቱ</w>
ቻ ለሁ።</w>
ፈል ገ
ቶ ቹን</w>
ስኬ ታማ</w>
መለ ሱ</w>
በ ረ</w>
መሰረ ታዊ</w>
የለ ኝ
ሳ ቢ</w>
ወ ዴት</w>
ኮ ል</w>
ቂ ው</w>
ለማ ቅረብ</w>
ከተማ ዋ</w>
ቆ ጥ
እ ሁ
መ ቃ
ይ ቀበ
ቁ ም
ሀገ ራት</w>
ሁ ት።</w>
ጀመ ረው</w>
ሳ ሙ
ዘ ን
ቫይረ ስ</w>
ቸዋ ል.</w>
የተ መሰረ
ነው ...</w>
ዝ ን</w>
ተደር ጎ</w>
የተ ጠበቀ</w>
መተግበ ሪያዎች</w>
ራ ሴ</w>
2 7</w>
ጸ </w>
እንዲ ህ
ባ ላ
ከ ዛ</w>
ገ ቡ
ጽ ን
ጎብ ኘት</w>
መለከተ ው</w>
ይፈልጋ ሉ</w>
ቤተሰ ቦች</w>
የሚከተ ሉት</w>
መለከ ቱ</w>
ኤ ስ
ማሳ ያ</w>
አንዳን ዶች</w>
ስደ ተኞች</w>
ግባ ቡ</w>
ሯ ቸው</w>
ሰላ ማዊ</w>
ማረጋገ ጫ</w>
ክ ሮ
ይመስለ ኛል</w>
ለመ ናገር</w>
ይ ኖረ
በ ስ</w>
ኛ ነት</w>
በ ሉ
ኢሜ ል</w>
ረ ስ</w>
መጻሕ ፍት</w>
ዲ ግ
የነበረ ውን</w>
ቻ ሉ</w>
ለ ጥ</w>
ብቻ ውን</w>
ረ ዥም</w>
ም ሥ
ሥ ራት</w>
መለ ወጥ</w>
ሻ ል</w>
ዳር ቻ</w>
ፈለ ጉ</w>
ይህን ንም</w>
እ ውን</w>
ይገ ና
ይል ቁ
ባ ል።</w>
እድ ሜ
ወ ሬ</w>
ቻ ችሁ</w>
ኝ .</w>
ሳ ለ</w>
ጫ ፍ</w>
ወላ ጅ</w>
ወ ሩ</w>
እውነ ታ</w>
እን ጅ</w>
ጫ ው</w>
ቀጣ ይ</w>
e b
ጥ ል
a d
እርግ ጥ
ወገ ኖ
ጪ ው</w>
ጽ ና
የ ራሱን</w>
x </w>
አንጻ ር</w>
ይ ጨም
ቧ </w>
ተከት ሎ</w>
ተማ ሪ
O S</w>
የተ ጣ
ብ ህ</w>
ተወ ካ
ቲ ክ</w>
ሰ ጡ
ቴክኖሎ ጂ
ይባ ላል።</w>
እ ቃ
መ ቀበል</w>
ይ ከተ
ሉ ም.</w>
ያ ምና
ጠ ቁ
አቤ ቱ
ማ ብ
ሕዝ ቦች</w>
መ ሆ
እንዴ </w>
አይመስለ ኝም።</w>
ፈቃደ ኛ</w>
ማ ሽን</w>
ትን ና</w>
ፍት ህ</w>
ተመል ክ
ቀጣ ዩ</w>
አን ቺ
ሰይ ጣን</w>
ባ ጭ</w>
አገ ር
ው ,</w>
ረ -
አይ ታ
ቸ ት</w>
ናቸው ም</w>
እንዳል ሆነ</w>
ወለ ደ
ት ህን</w>
ሊ ኖር</w>
እባክ ዎ</w>
አለ .</w>
ቱ ርክ</w>
አደባ ባይ</w>
ጥር ጥር</w>
አካባ ቢያ
አ ብ</w>
ለመ ኖር</w>
አይ ፈ
መሠረ ታዊ</w>
ወሰ ኑ</w>
ያገለ ግ
ት ሆና
ሱ ዳን</w>
ጣ ኝ</w>
ወ ግ
አ ሠራ
ደ በ
ቀጥ ታ</w>
2 6</w>
ኢንቨ ስት
አ ል።</w>
B </w>
መ ች</w>
ሷ ል</w>
ተግባ ራት</w>
ጥ ገና</w>
ሳ ሽ</w>
ለመ ከላከል</w>
መለ ያ
ስ ኳ
ጥ ም
ቆ ዳ</w>
መ ፈለግ</w>
አማ ል
ይሄ ዳ
ተ ኝ
ዓይ ኖ
th i
ታ ተ
ራ ሉ</w>
ከን ቱ</w>
ወደ ዚህ</w>
ስ ሙ</w>
ነ ቴ</w>
ምዕራ ብ</w>
አፍ ሪካ
ተ ሻ
ሆን ክ</w>
ተ ጓ
ቢ ሊዮን</w>
ቅ ል
በተ ግባር</w>
ህ መም</w>
2 8</w>
ተሳ ታ
የሚ ወስ
ዓይ ነቶች</w>
አይደ ለሁ
ዘ ም</w>
ፍፁ ም</w>
የሚ ሉ</w>
ተቃ ዋ
ት ፥</w>
በድጋ ሚ</w>
ድ ካ
ዲ ሞክራ
የተ ባበሩት</w>
መ ድረስ</w>
የ ጠ
ፋ ል</w>
ሞ ቱ</w>
ል ቤ</w>
ይ ጫ
ስ በ
ፒ </w>
አላው ቅም።</w>
ካ ተ
ኸ ው</w>
ከተማ ው</w>
ቁ .</w>
ሚ ሊ
ለ ያ</w>
2 7
መ ና</w>
( ከ
ክስተ ቶች</w>
ጿ ል።</w>
ንጥ ረ</w>
ህዝ ብ
አድር ጎ
ሸ ማ
አማ ር
የሚ ሆ
መሥ ዋዕ
ያ ቀረ
ወን ዶ
ቀ ስ
ፍ ረት</w>
ደረ ሰ</w>
ሃ ላፊ
ሞ ከ
ዝ ማ
: 4
ት ብ
i l
ገደ ማ</w>
ዞ ች</w>
P l
ደመ ወ
ያዕቆ ብ</w>
አ ፍ</w>
አማካ ይ</w>
ፈጠ ረ
መ ዝ</w>
ትክክለ ኛውን</w>
ሙ ከራ
ሪ ቱን</w>
በመስ ጠት</w>
አሸና ፊ</w>
ችግ ሩን</w>
ደ ነ
ለመ ግባት</w>
ሄ ደ</w>
ለመ ቀበል</w>
ደ ሰ
እችላ ለሁ?</w>
ይ ሉ
Nex t</w>
ቀጥ ሎ</w>
ባለ ስልጣ
አ ያስፈልግ
እየ ሆነ</w>
ባሕ ር
ሃ ል?</w>
በ ነገ
ሞ ከር
ሸ ጥ</w>
ለም ሳሌ
ወሰ ደ
3 .</w>
ሮ ች
u r
የሚ ሆኑ</w>
ማ ብራ
ጃፓ ን</w>
ናቸው ,</w>
የም ስ
ሼ </w>
ው ሃ
ሁኔታ ው</w>
R </w>
መ ሐ
ተገ ቢ
ኝ "</w>
ሌሎ ችም</w>
ራ ቸውን</w>
ለመፍ ታት</w>
በ አንዳንድ</w>
መ ሀ
አስ ቀም
ገልጸ ዋል።</w>
በ ጎ
ለመ ክፈ
ለማን በብ</w>
ሊ ት</w>
እስ ከሚ
ታ ል
ና ቸውን</w>
ች ም።</w>
መግ ቢያ</w>
ላ ካ
ና ል.</w>
ቱሪ ዝም</w>
ማረ ፊያ</w>
መ ያዝ</w>
ነ ቢያ
e m
በአ ግባቡ</w>
ለመ ግዛት</w>
እ ያስ
ጠቀሙ በት</w>
አመ ቱ</w>
ና ል
ታወ ቂያ</w>
ሽ ነት</w>
ዜ ጋ</w>
ሙ ሴ
ክርስቲያ ኖች</w>
ጸ ለ
ዊ ተር</w>
ተገ ደ
ለማ ሻሻል</w>
የምር ጫ</w>
የሚያደር ግ</w>
አዋ ጅ</w>
መ መልከት</w>
ካሄ ደው</w>
ይችላ ሉ
ይ ነት</w>
ም ሌ</w>
ዳ ችን</w>
ያግ ኙ</w>
ፅ ሁ
ው ቅ</w>
ብስ ክ
ሪ ስ</w>
ኢየሩሳሌ ም</w>
የመ ጣ</w>
በየ ዓመቱ</w>
P o
ነ ኛ</w>
በ የትኛውም</w>
201 5</w>
ን ገ
ናገ ረው</w>
a d</w>
ገ ም
o f
ው በት</w>
ለሁ ለ
እርምጃ ዎች</w>
ሙ ።</w>
ታማ ኝ</w>
ነጋ ዴ
ጭ ሩ</w>
L </w>
G </w>
ሎ ን</w>
e t</w>
ጠ ባበ
ሪያ ውን</w>
ዶ /ር</w>
ልጆ ቹ</w>
ጣ ቸው</w>
የመጀመሪያ ውን</w>
ሠራ ው</w>
እ ለ
አብ ዮ
አ ቸው</w>
ባ ባ
ቆ የ
ትን ሣ
ቆ ት</w>
ም ሳ</w>
ሂ ድ</w>
ዊ ና</w>
አትክል ት</w>
ር ፍ</w>
" ።</w>
ቢ ኖር</w>
ኩ ትን</w>
ሙ ም</w>
ሻ ዎች</w>
ዳይ ሬ
ገል ገል</w>
አባ ላ
ለ እያንዳንዱ</w>
የ ጉዞ</w>
ቱ ና</w>
ት ህ
ተ መስ
እ ለት</w>
አ ውስ
ሰብዓ ዊ</w>
ሠራ ዊት</w>
ፍ ና</w>
ጉዳ ዩን</w>
ዚ ያን</w>
ር ካ
ብዙ ዎቹ</w>
al </w>
ዘመ ናት</w>
ኢኮኖ ሚ
ወን ዝ</w>
ያደር ጉ
ይ ሞ
ጣ ሊ
መኖ ሪያ</w>
እና ቱ</w>
ኢ ሳይ
ኮ ሮ
ደ ለሁ
^ </w>
ዋ ም</w>
ፌዴ ራል</w>
/ ቤት</w>
ደ ቅ</w>
ኢኮኖ ሚያ
እንክብካ ቤ</w>
ሞ ተር</w>
ሞ ል
አይች ሉም</w>
ዷ </w>
ተጠ ና
መ ፈ
ድ ብ
ራሳ ችንን</w>
አውቃ ለሁ።</w>
ቀር ቶ</w>
ሃ ይል</w>
ሕ ግ
ዎ ቻቸው</w>
ሳ ያ
ታወ ቀው</w>
ኝ !</w>
ምርጫ ው</w>
ተገ ኘ
ጠ ጣ
ና ፍ
ጠ ሩ</w>
ለመቀ ነስ</w>
ሄ ዱ
ሰማ ው</w>
በተቃ ራ
ይጠ በቃ
ክ ሬ
አካ ላዊ</w>
ኮሌ ጅ</w>
N </w>
በ ሺ
ባ ን</w>
ቃ ጠ
ያለ ው።</w>
አዎ ንታ
ነ ጠላ</w>
ባ ችሁ</w>
አ ፋ
የተ ጋ
ቀር ቡ</w>
ካሄ ደ</w>
ይ ግባ
ጠን ቀ
ይታወ ቃል።</w>
ሆነ ን</w>
ቅር ጸ
እንድ ና
የመ ሳ
ግ ጭት</w>
መዝሙ ር</w>
ሆኗ ል</w>
ሆና ቸው</w>
ሌላ ኛው</w>
የሚገ ኘው</w>
ሌ ን</w>
አብርሃ ም</w>
ሮ ም</w>
አይቀር ም።</w>
ሟ ል።</w>
20 21</w>
ነግ ር
ነ ዘ
አጠ ገብ</w>
ድር ድር</w>
ግለ ጽ</w>
ወደ ሚ
ሰ ዎች
መ ሞከር</w>
ተመል ሶ</w>
ኩ ም።</w>
ለ ዋል።</w>
co m</w>
ፈል ግም</w>
ዜ ጎ
ብ ና</w>
ይ ቱ</w>
በ ዘ
ከ በር</w>
ተሰ ማ
ቤ ቱን</w>
2 9
ሐ </w>
a y</w>
ከ ብዙ</w>
ሩ ት።</w>
የተ ዋ
e w
አንዳን ዴ</w>
እር ሻ</w>
ማ ቆ
መድሃ ኒት</w>
የተ ፈጥሮ</w>
የ ባለ
ለው ጦች</w>
A pp
የሚ ቀ
መጠ ቀ
ሃ ለሁ</w>
ክ ሲ
መብ ቶች</w>
ድን ኳ
ተ ዘጋጅ
ያደርጋ ል።</w>
ያስ ከት
ጧ ል።</w>
የ ወ
ትእ ዛ
ደህን ነቱ</w>
ex t
ጀመረ ።</w>
ፈ ራ</w>
ካን ሰር</w>
ብ ላችሁ</w>
in d
ቅ ጽ
ዲዛ ይን</w>
ቃ ን</w>
መልእ ክ
መር ጣ
የሕ ክምና</w>
ወደ ድ
አ ዝና
ቆ ራ
አ ዕም
የለ ም.</w>
የ ሁሉም</w>
አስተና ጋ
ሕ ገ</w>
አባ ባል</w>
V </w>
ቤ ቴ</w>
ኪ ያ
ድ ግ
ቀ ና</w>
ሃ ያ</w>
ስ ፔ
ድን በር</w>
ን ጓ
አ ሏ
ራ እ
መክፈ ል</w>
ለመ መለስ</w>
ፀጉ ር</w>
ጥ ሬ</w>
ጋ ራ
እ ብ
ፕሮ ፌ
at i
አውቶ ቡ
ተ ከተ
አ ሉት</w>
ባህ ር
ዘመ ቻ</w>
ስ ጥ</w>
እን መልከ
5 00</w>
ዘ ው</w>
ት ስ
ከ ዋ
ከ መጠን</w>
ተሳት ፎ</w>
ኢ ያ
በ ደስታ</w>
‹‹ </w>
ኮ ድ</w>
ጩ ኸ
ሆ ኜ</w>
ቤተ ክርስቲያ
ነ ትም</w>
ፋ ል።</w>
ተለ ይ
ያ ወጣ
ሊ ን
ነ ች</w>
ረ ውን</w>
ሚ ነት</w>
ዎ ት?</w>
እያ ደ
an </w>
ፋይ ና
ል ደት</w>
ሞዴ ል</w>
ል ስ</w>
ት ዎን</w>
ት ፈልጋ
ጠብ ቅ</w>
ች ፤</w>
ፈልግ ም።</w>
ቲ ት</w>
ይ ቅር
ካ ን</w>
ጎ ድ
መ ሃል</w>
ጅ ም
ይጠ በቅ
ተ ኞችን</w>
ባ ው</w>
ራስ ዎ</w>
ይፈልጋ ል።</w>
ላለ ች።</w>
እሁ ድ</w>
ለ ዋ
መ ዋል።</w>
ይህን ኑ</w>
ቀ ።</w>
የማ ን
ላይ .</w>
ቀ ነ
ታወ ቁ</w>
ውስ ብ
ላ ክ</w>
ያ ጣ
ያነ ሰ</w>
መቀ ጠል</w>
ያ ችን</w>
ያ ደ
ፈል ገውን</w>
አዝ ማ
የ ዳ
ኢሳይ ያስ</w>
እኔ ም</w>
ሰ ለ</w>
ጉ ።</w>
እላ ችኋ
ሚኒስት ሩ</w>
የቀድ ሞ
ብሄ ራዊ</w>
ገ ዝ</w>
በ ውጭ</w>
ሚ ዲያ
ና ፤</w>
ላ ቸውን</w>
አላ ስ
ም ድረ</w>
- -
ያ መ
አን በ
ው ቀ
እንደ ዚያ</w>
መስፈር ቶች</w>
ለ ት።</w>
ራ ል.</w>
ቶ ቻቸው</w>
ት ዝ
ፋይ ሎች</w>
ያገ ኝ</w>
ይ ደር
እንጀ ራ</w>
ስ ፋ
ትዕ ዛ
ሽ ኑ</w>
እው ቅና</w>
አቀ ረ
ት ነት</w>
በረ ከ
አካ ሄድ</w>
ካ ካ
አያው ቁ
ይ ደግ
ህ ልም</w>
ች ንና</w>
ሰብ አዊ</w>
አውስ ትራ
ያ ደረገው</w>
ታ ሉ</w>
ላችሁ ም</w>
እው ቀ
የ ነበሩት</w>
ምዝ ገባ</w>
ሽ ልማ
ነ ቃ
ጨ ው</w>
ይ ቅ</w>
ዞ ር</w>
የመ ረ
አፕ ል</w>
አእም ሮ</w>
ምክ ሮች</w>
ባህሪያ ት</w>
ክ ሮ</w>
የተ ከሰ
ለመ ደ
ግብ ጽ</w>
ኦ ል</w>
እውነ ቱን</w>
አላ ገኘ
ሲ መጣ</w>
ክ ላ
ው ጣ
እያንዳን ዱን</w>
ር ።</w>
ህ ክምና</w>
የ ጻ
ያስፈል ገና
ወታደ ራዊ</w>
8 0</w>
ይወስ ዳ
ሽ ።</w>
ሰ በ</w>
ስብ ስብ</w>
ብ ዎ</w>
ተዋ ጽ
ሜ ትር</w>
ት ...</w>
የ ል
ቴዎ ስ</w>
ች ት</w>
አፈፃፀ ም</w>
አረ ንጓ
ረ ዳ</w>
መሰ ል</w>
ዚህ ች</w>
እንድ ታ
ቸ </w>
አል ገባ
ና ሙ
ህ ጋዊ</w>
Y ou
ብ ቃ
መ ሬ
የሚ ቆ
ይ ከፍ
ም ድ</w>
ጉል በት</w>
ድ ና</w>
በ ሥራ</w>
ገኙ ት</w>
ታ የ
ቀር ባለ
አሉ ታ
ኝ ና</w>
አለ ን።</w>
ኃይ ለኛ</w>
ል ...</w>
ሻ ገር</w>
አስ ራ</w>
ሀገ ሮች</w>
ፖለቲ ከ
በማ ን
ክል ሎች</w>
ጉብኝ ት</w>
10 0%</w>
ለመ ን
በት ክክ
ስ ፖር
አድራ ሻ</w>
አሰ ልጣ
ሰ ልፍ</w>
t ext
ጆ ሮ
ቶች .</w>
ሲያ ዊ</w>
ነበ ት</w>
op i
ት ሮ
መ ኝ</w>
ይ ለያ
ሽማግ ሌ
ጥንካ ሬ</w>
የ መንግሥት</w>
ፈ ውን</w>
ክት ባት</w>
አንፃ ር</w>
የፈጠ ራ</w>
ይ ጫወ
ኢህ አዴግ</w>
የሚ ገባው</w>
ጉ ድ</w>
ተ ዛ
ሸ ራ
እ ጥፍ</w>
አላ የ
አገልጋ ይ</w>
በረ ከት</w>
ዝ ም
20 0</w>
ን ቁ</w>
ማ እ
በሚ ያ
ማግ ኘ
ንቀሳ ቀ
የ ነበሩ
ቀጥ ሉት</w>
አቅር ቦት</w>
ር .</w>
f or
ሽ ?</w>
e d</w>
ፎቶ ግራ
201 4</w>
በ ራሳቸው</w>
ሃ ን</w>
በ 19
ሰ ዋል።</w>
ጋዜ ጣ</w>
ይ ተ
ማ ጭ</w>
አንደ ኛ</w>
ጎ ል</w>
text ></w>
</ text></w>
ፈ ሩ</w>
እድ ገ
የ አገ
ማስ ቀመጥ</w>
ለማሳ የት</w>
ተ መዝ
ሪ ነት</w>
ጥር ጣ
እ ኮ
ሽ ን
ዮ ቹ</w>
ቴክ ኒ
ክ ብር
ኦሮ ሞ</w>
ያ መለክ
ትራ ፊክ</w>
አንዳ ች</w>
E thi
ቂ ኝ</w>
የተ ባለ
ዙ ር</w>
የ አሁኑ</w>
አይሁ ድ</w>
ጣፋ ጭ</w>
ቀ ውስ</w>
ከ ም
ጆ ር
ag ra
ር ያ</w>
ምል ክ
ይጠ ቅ
ሕዝ ቡን</w>
ይ ዟ
ይ ሰጠ
5 0
ይመጣ ል</w>
በ ጥንቃቄ</w>
እ ጆ
ይፈልጋ ል</w>
ን ገረ
በ ሰማ
ጋር ,</w>
ገ ዛ</w>
ፋይና ንስ</w>
ት ዝ</w>
ል ኩ</w>
የ ቅ
ች በት</w>
ዘ ወ
አይደለ ም,</w>
ቋ ል</w>
መብ ላት</w>
እየ ሰራ</w>
ታ ድ
ሬ ሽን</w>
ሥ ዕ
አል ባ</w>
መረጃ ዎችን</w>
ማህ በር</w>
ቆይ ታ</w>
ማው ረድ</w>
ላለ ፉት</w>
መቅ ደስ</w>
ፍ ጻ
ዕው ቀት</w>
ውስ ጣ
አሰራ ር</w>
ክር ክር</w>
እንዲ ሆኑ</w>
ፈጠ ረ</w>
ሸ </w>
ጭን ቀት</w>
ፋብ ሪካ</w>
አቀ ራረ
ነ ሐ
ነ ግ</w>
ጽ ድ
ኪ ሳ
የ ባ
ፕሬዝ ዳንት</w>
ገ ጥ
መስ መ
ቀ ላ
ሪ ውን</w>
እር ሳቸው</w>
የሚገ ር
ሳተ ፍ</w>
መም ጣት</w>
ከ ግምት</w>
እጅ ጉ</w>
st agra
አመ ጋገ
ይ ሂ
የተ ገነ
200 8</w>
እንቅስቃሴ ዎች</w>
የ ሴቶች</w>
ሂደ ቱ</w>
በ አካባቢው</w>
ሦ ስተኛ</w>
ዕ ር
ዩ ም</w>
ሕ ክምና</w>
መጋ ቢት</w>
ዳ ም
ክርስቶ ስ
የ ሙዚቃ</w>
1 :
አይ ሆንም</w>
መን ስ
ሰ አት</w>
አያው ቅም።</w>
ተ ሮች</w>
ገበ ያው</w>
ስ ዊ
ግ ሩም</w>
በ ዝ
ሰ ።</w>
ላ ክ
የሚገ ኙ
ዲያ ብሎ
ባህ ላዊ</w>
ፋ ዊ</w>
ሽ ም</w>
ሕ ንድ</w>
2 9</w>
# </w>
እ ጃ
ዘ ገባ</w>
" አንተ</w>
መልዕ ክ
ከ ቶ</w>
ር ዝ
ለተ ወሰነ</w>
ቁ ጭ</w>
en t
የለ በትም።</w>
ነ ች።</w>
ኖ ሪያ</w>
ሳ ችሁ</w>
ነ ታቸውን</w>
3 )</w>
አስ ከ
ታ ን
በራ ስ</w>
የተ ገለ
አለ ቃ</w>
አልነበረ ም</w>
ንፃ </w>
ስታ ን
ያስ ችላ
ዓመ ታ
መስ ፈ
ጫ ና</w>
ሊ ፈ
እ ጥረት</w>
ቀ ኑን</w>
ሆኑ ን</w>
ሥራ ውን</w>
ቀጥ ተኛ</w>
ወያ ኔ
ዎ ትን</w>
ችሁ ?</w>
7 0</w>
C O
ዱ .</w>
የ ሰራ
ራ ዎች</w>
መር መር</w>
ሯ </w>
ሕ ያው</w>
እፈልጋ ለሁ።</w>
ፏ ል።</w>
ጆ ሮ</w>
ዋ ቸው</w>
ቆ ረ
ይሁ ን
ው ሉ</w>
ዳ ደር</w>
ጅ ነት</w>
ዎ ት
ቂ ነት</w>
ተ ኝነት</w>
ለማስ ወገድ</w>
ታወ ስ</w>
ተ ም
በ ዳ
1 ኛ</w>
ሁ ነ
ች ውን</w>
የሚገ ል
የመ ጡ</w>
የ ታወቀ</w>
አ ረጋግ
ታሪ ካዊ</w>
አላቸው .</w>
የተ ቃ
በ ኢ
እና ስ
ዮሴ ፍ</w>
መዝ ና
ጨ ምር</w>
በ ነፃ</w>
ማ ቆም</w>
አይደለ ም፤</w>
አ ከባ
ነው ::</w>
ተ ግ
መ ቻል</w>
ኧ ረ</w>
ስ ጋ
ነው ;</w>
እና ት
ስኳ ር</w>
ረ ታ</w>
ሪ ዎቹ</w>
ነ ቅ
ለመ ም
ሁ ፤</w>
በመ ሠ
ቀ ኑ</w>
አ ክብ
ተኮ ር</w>
መር ከብ</w>
h </w>
ቤተሰ ቡ</w>
ያ ነሳ
ይወ ድ
ሰው የው</w>
አእም ሮ
ራስ -
ሰ ቢያ</w>
እነ ዚህም</w>
ዘላ ቂ</w>
ማለ ቴ</w>
ጋ ራት</w>
ሦ ስተኛው</w>
ጠ ብ</w>
ናቸው ፤</w>
እራ ሱ
በተለ የ</w>
የከ ፋ</w>
ሳ ካ</w>
ዳዊ ት
በ ጋ</w>
አስ ታ
ኾ ን</w>
የ ረ
ል ውው
መቀ ነስ</w>
በተ ወሰነ</w>
ፕሮጀ ክቶች</w>
ስራ ው</w>
ያስ ቀም
201 1</w>
ድረ ግ
መ ኛ</w>
4 0
ኢሜ ይል</w>
ያል ሆኑ</w>
ሻ ሻ</w>
ይሰጣ ል።</w>
ጄ ን</w>
የሚ ሉት</w>
ግዙ ፍ</w>
እን ጨት</w>
ና ን</w>
አብ ረ
እ ዚህ
ዓ ለም
ወ ቁ</w>
ታ ም
ነ ካ
ቪ ድ
ሞ ተ</w>
የሚ በል
ገ ነት</w>
ልጥ ፍ</w>
የ ዚህን</w>
ዮ ና
ዝ ቅ</w>
አሕዛ ብ</w>
የ ወጣ
ምና ።</w>
እስራኤ ላ
ሐ ምሌ</w>
ጭ ንቅ
ይናገ ራል።</w>
ተ ኳ
የሚ ሸ
ዱ ቄ
ዘ ፈ
& </w>
ን ጀ
አገና ኝ</w>
ዳን ኤል</w>
ጣል ቃ</w>
ይናገ ራሉ።</w>
ከለ ከ
ኮምፒው ተር</w>
ተ ወስ
ደር ሱ</w>
ይ ፈጥ
ቢ ሮ
ሁለ ቱንም</w>
ፓ </w>
በ ሁለቱም</w>
ያ ድ
እነሆ ፥</w>
እ ማ
ጌ ታችን</w>
እር ሷ
ደረ ጉት</w>
ጻ ጸ
ሰ ሞ
ሬ ዲዮ</w>
ic </w>
ከላከ ያ</w>
ም ግባር</w>
ማስ ገባት</w>
ዳይሬ ክ
ረ ግ</w>
እስ ረ
መዳረ ሻ</w>
ተ ንቀሳቃሽ</w>
ቅሬ ታ</w>
የተ ሰጠው</w>
ዎች ።</w>
ደስ ታ
ይችላ ል,</w>
እግ ር
መል ስ
ላ ፊ</w>
እባ ካ
ብ ሏ
ማ መን
የ ሙቀት</w>
እወዳ ለሁ</w>
ኤ ም</w>
ፌ ደ
ራ ችሁ</w>
ላ ማ
ቀ ጥ</w>
ትን ሹ</w>
ቀ ፍ</w>
ደብዳ ቤ
አል ፈ
ደገ ፍ</w>
ስ ታ</w>
በ ነጻ</w>
የወደ ፊት</w>
ወ ኪ
አል ነበሩ
የ ራሳቸውን</w>
በበ ኩ
የ ወሰ
ክር ስት
ጻ ፍ</w>
የ ሁ</w>
ወ ጡ
መል ሱ</w>
ኢዮ ብ</w>
ይ ይዛ
አር ቲ
ጴጥሮ ስ</w>
ጣሊ ያን</w>
ጠየ ቅ
ኃ ይል
አይች ሉም።</w>
ባለ በት</w>
ህ ገ
ሀሳ ቦች</w>
ባል ደረ
ትኩ ረ
ተጠ ር
ዘ ው
ዘንድ ሮ</w>
የህ ክምና</w>
ጉዳ ይ
ጠረ ጴ
አ ወጣ
የበ ላይ
መጽ ሔ
ቴ ም</w>
ለወደ ፊቱ</w>
ቸው ፣</w>
stagra m</w>
e c
አልቻ ለም።</w>
የተሻ ለው</w>
ህ ም።</w>
መ ከተል</w>
እንዲ ህ</w>
ነጋ ግ
የተ ዘጋጀ
ወዳ ጅ</w>
ጸ ጋ</w>
ር ክ
የማ ስተ
x )</w>
የ ሆኑ
ል ና።</w>
ብ ሉ
ስ በው</w>
| </w>
ደ ም
የ አገልግሎት</w>
በነገ ራችን</w>
ቅ ።</w>
ሞ ኝ</w>
ዷ ል።</w>
ጥና ቶች</w>
ህዝ ቦች</w>
አድር ግ
ለማሳ ደግ</w>
የመጣ ው</w>
ለማሳ ካት</w>
መ ጓዝ</w>
ለመ ደው</w>
ይ ላሉ</w>
ክ ሮች</w>
የ ኛ</w>
3 3
እንደ ሆነ
ሎ ም</w>
ማው ጣት</w>
ልን ?</w>
የሚሰ ጥ</w>
እንጂ ።</w>
← </w>
ፕሮጀ ክቱ</w>
ሁለ ቱን</w>
ተ መላ
ምር መራ
ረ ብ
ያቀር ባ
200 9</w>
በ ደል</w>
በር ግጥ</w>
በ አገሪቱ</w>
i d
. "</w>
ች ሏል።</w>
ዕለ ቱ</w>
ው !</w>
እንዲ ያገኙ</w>
ሏ </w>
ፋብ ሪካ
አዝ ራ
ኢኮኖሚያ ዊ</w>
ለመ ገንባት</w>
ኮ ከብ</w>
ሊ ግ</w>
ፋ ቸው</w>
ሉ ፣</w>
ክ ምና
የለ ብ
ለ እነሱ</w>
ር ድ
ቀር በው</w>
ማው ራት</w>
አ ሥር</w>
እርሱ ም</w>
አይሆን ም።</w>
ለ ታ
አማር ኛ</w>
የሚ ገባ</w>
ፍራ ን
ስ ጥ
ነ ቶችን</w>
Previou s</w>
ሜ ዳ
በስ ፋት</w>
የ ኤ
ካ ክ
አን ስቶ</w>
ዜ ማ</w>
ነው )</w>
ባ ሪ</w>
ለ የት</w>
ለ ነገሩ</w>
አድር ጌ</w>
ደ ደ
ጥያቄ ው</w>
እናመሰግና ለን</w>
ኢትዮጵ ያውያን</w>
ቀጠ ሮ</w>
አ ደረግ
ም ሰ
ፍ ጆ
የተ ባለው</w>
ቅ ጣ
ፈጠ ራ</w>
ሆይ ፣</w>
ብ ና
ኢንቨስት መንት</w>
ደመወ ዝ</w>
አ ያስፈል
2 :
መ ጫ
ጻ </w>
ዘጋ ጁ</w>
ቀ መጠ
ሥ ነ-
መተግበ ሪያው</w>
ተናገ ረ
ከታተ ል</w>
ባለቤ ቴ</w>
መጣ ።</w>
እንዳ ን
በአ ጭር</w>
ለመው ሰድ</w>
ያ ረ
ማስ ጠንቀ
ይ ችል</w>
ያ ል.</w>
ልጆ ችን</w>
እ ኖ</w>
ትዕ ግ
ሳ ለ
የተ ሟላ</w>
ይሆና ል,</w>
ይ ግ
ቃወ ም</w>
ዕድ ገት</w>
ፕሮግራ ሞች</w>
እየ ሰራ
አረንጓ ዴ</w>
ው ሎ</w>
ራ ሴን</w>
ሃ ዊ</w>
አውስትራ ሊያ</w>
ሪ ን</w>
ጉባ ኤ
ኤሌክት ሮ
ዛ ም</w>
የተ ለያየ</w>
ኪ ራ
ባለ ሁ</w>
ማ ሰ
ጠ ኛ</w>
ጓ ድ</w>
በ ን
ሙ ታን</w>
አት ፍ
ያስፈልጋ ል</w>
ያዘ ው</w>
ነው :</w>
ምር ቶችን</w>
ጮ ችን</w>
አል ጋ</w>
p </w>
፤ "</w>
ኮሚ ቴ</w>
እን ቁ
ነሐ ሴ</w>
የ ሽያጭ</w>
Ethi opi
ዊ ያን</w>
የሚ ኖሩ</w>
በተ ለም
አክ ሲ
ሊ ታ
ወንድ ሜ</w>
እባክ ህ</w>
ዋን ጫ</w>
ሱ ስ</w>
አ ን</w>
ነ ር
ም ቾ
ለማም ጣት</w>
ናን ተ</w>
ፈገ ግ
ነበረ ች።</w>
ዲግ ሪ</w>
አላው ቅ
ነበር !</w>
በ ምን
ዚ </w>
እ ራሱ</w>
ቤ ታችን</w>
መሆና ቸው</w>
ይ ዝ</w>
ት ግበ
ምስ ክር</w>
s t</w>
አስተያየ ቶች</w>
ሀብ ታም</w>
ፈለ ገ</w>
ደካ ማ</w>
ማለ ፍ</w>
መቀ የር</w>
አል ችልም</w>
በዚያ ው</w>
ፕሬዚ ዳን
አስ መልክ
ሕዝ ቡም</w>
s :</w>
ለ ስላ
ጣ ጠ
ግ ፊት</w>
ቤ ታቸው</w>
ub e</w>
ያ ደረግ
ፕ ሎ
የሚያደር ገው</w>
ና ,</w>
ሁ ትን</w>
መጥ ቶ</w>
ይልቁ ንም</w>
3 6
አስቸ ኳይ</w>
ማለ ዳ</w>
የሚ ደረግ</w>
ረ ዱ
T h
ትናን ሽ</w>
ሴ ት
ንግ ግ
ፍ ጡ
ያ ለሁ
ም ስ</w>
ቅ ራ
ራ ዕ
ሥ ት</w>
የመ ጽሐፍ</w>
ind ow
ደራ ሲ
ማ ሽ</w>
ል ::</w>
ያለ ምንም</w>
አር ባ</w>
በመ ባል</w>
ዴሞክራ ሲ</w>
9 0</w>
የ ሠራ
አይችል ም.</w>
ስ ሞች</w>
አዳ ም</w>
ጽ ድቅ</w>
:1 1</w>
መ ፃ
ወረ ደ
ገባ ቸው</w>
ገ በ</w>
ውስብ ስብ</w>
ጋዜጠ ኛ</w>
ማ ነው?</w>
ለ ሙሉ</w>
የለ ኝም።</w>
ዋነ ኛ</w>
አለመ ሆኑን</w>
ብ ሏል</w>
መከ ታተ
ያ ዎችን</w>
አ ዘጋጅ
ትን ታ
አድ ማ
ማስ ወገድ</w>
ሷ ን</w>
ሌ ለው</w>
ሆ ድ</w>
አዲ ሱን</w>
አድርጓ ል።</w>
ስ ነ
አጥ ብ
ጌታ ዬ</w>
: ,</w>
አምላካ ችን</w>
u m
ያ ዛ
ፖሊ ሲ
የሚያ ሳይ</w>
:1 5</w>
ፍጥ ረ
ሲ ሆኑ</w>
መሣ ሪያ
l o
ስለ ነበር</w>
መጻ ፍ</w>
ጋ ጥ
ጠ ራ</w>
ያ ውን</w>
ጫ ማ</w>
ለ ወ
ቢሆን ም,</w>
ከ ማንኛውም</w>
:1 2</w>
አለብ ኝ</w>
የ ፈ
ብ ቁ</w>
ማ ዘጋጀት</w>
እን ቆ
ማሳ የት</w>
ፅ ን
ሚ ካ
የመ ጨረሻ
ካ ት
ዘር ፉ</w>
ውጤ ቱ</w>
W indow
እንደሚ ከተለው</w>
መንግሥ ታት</w>
ማ ጣት</w>
ላ ቸው።</w>
እ ሰ
መም ጣ
የተ ረ
ደር ገ
የ ሆኑት</w>
ዌ </w>
ይ ቀር
ት ዊተር</w>
ጭ ብ
በመ ው
ሴ ቶችን</w>
ተጠያ ቂ</w>
ተ አም
4 .</w>
ሩ ፤</w>
የሚ ሰጠው</w>
ሳ ቱ</w>
ቅዳ ሜ</w>
ክ ቡር</w>
i OS</w>
ይቻ ላል?</w>
በ ታል</w>
3 1</w>
ጀ ግና</w>
ቀ መጥ
ና ትን</w>
ሆይ ፤</w>
ሉ ቃ
ዋ ይ</w>
in g
ልጃ ገረ
አግባ ብ</w>
ገ ዝ
ድ ንግ
የ እነሱ</w>
ው ህ
ቀዝ ቃ
መጠ ጥ</w>
ዴ ን</w>
ድን ገ
በመ ፍ
ብ ።</w>
ሃ ለሁ።</w>
ቃ ሉ።</w>
የ ቱ</w>
ሊ ያደር
በለ ዚያ</w>
ይ ከሰ
ሲ ያስ
የሚ ባለው</w>
ነ ም</w>
እ ሳቸው</w>
የ ር
" አ
ታ ህ
ቸዋ ለሁ።</w>
ተዋጽ ኦ</w>
ይ ጠቀሙ
ኑ ሮ
3 5</w>
ዉ ስጥ</w>
:1 0</w>
የ ደረሰ
ት -
ይ ኑ
እችላ ለሁ</w>
ግብ ርና</w>
ረዳ ው</w>
ለን ፤</w>
ሙ ላት</w>
ጨነ ቅ</w>
መድሃ ኒ
ጠ ጅ</w>
ማስታወ ሻ</w>
ነው ን?</w>
ማ ችን</w>
የ ውሂብ</w>
ነኝ .</w>
ሰ ዎችም</w>
የማ ት
ትክክለ ኛው</w>
ና ቱ</w>
ስተ ካከ
ዜ ግ
ዘወ ትር</w>
ረ ም</w>
ፈፀ ም</w>
ቀ ድ</w>
201 0</w>
ተቃው ሞ</w>
የላ ቸውም።</w>
ይደ ሰ
ጣ ሉ</w>
ይኼ </w>
ኮ ሪያ</w>
ሳ ሉ</w>
ጋዜ ጣ
አድር ገን</w>
በተለም ዶ</w>
ያውቃ ሉ?</w>
ታውቃ ለህ?</w>
ተ ፈጥሮ</w>
ቁጥ ሮች</w>
ተ ብሏል።</w>
1 -
አጀን ዳ</w>
አላ ህም</w>
ጀመር ያ</w>
የተሳ ሳተ</w>
ሌ ዋ
ፓር ላማ</w>
ገ ዢ
ፈረን ሳይ
ጉር ሻ</w>
ሰ ሉ</w>
ማግ ኛ</w>
ጋ ቸው</w>
የለ ባ
በ ጀ
ሯ ዊ</w>
ተ ቆጣ
ና ፥</w>
ግ ግር</w>
መድኃ ኒት</w>
ሆ ና</w>
እ ቅ
ኮ ሎ
ጭ በር
መቆ የት</w>
ግ ጭ
የሚ መ
ካ ፒ
የተ መዘ
ው ት</w>
ደ ላ
In stagram</w>
ካ ም
መር ህ</w>
ማ ከማ
ፍቃ ድ</w>
ከ ሆኑት</w>
እር ዳ
መስ ረት</w>
እየ ታ
ም ደ
ል ጁን</w>
አ ጫ
ተነ ሥ
ምስ ጋ
በ ዳ</w>
ል ክ
ግ ፍ</w>
ጡ ን
ጎብ ኝ
የ ን
ኗ ኗ
ህ ና</w>
3 2</w>
መስ ራ
ይችላ ሉ,</w>
ከና ው
ተ መር
የ ልማት</w>
ላ ችኋ
የተ ሰማ
አይገባ ም።</w>
ደር ሶ
ተቃ ራ
ብ .</w>
የታ መ
ትን ቢት</w>
ልጆ ች
ወዳ ጆ
የቀድ ሞ</w>
ጥ በት</w>
ከተ ሉት</w>
በ ህይወ
በሚ ለው</w>
ይኖራ ል።</w>
ኤ ጀን
በመ ጀመሪያው</w>
ሽ ፋን</w>
ብስክ ሌት</w>
ይሆና ሉ</w>
ለመ ማር</w>
አፈ ጻጸ
ሆን በት</w>
ከነ ዚህ</w>
ሟ ል</w>
ስዕ ል</w>
ኅ በራዊ</w>
አሳል ፎ</w>
ቋ ር
ምስ ክር
ዬ ው</w>
ነ ዎት</w>
በ ስራ</w>
እ ራት</w>
ዕ ቃ</w>
አስ ቂኝ</w>
Window s</w>
የ ሃ
አላ ማ</w>
በአ ጭሩ</w>
የተ ሸ
የሚች ሉት</w>
ግንባ ር</w>
ይ ፍ
ኖር በት</w>
ሆና ችሁ</w>
ለ እሱ</w>
ኖረ ን</w>
h ar
ሲ ኖ
አ ቁ
ጸ ው</w>
አገልግሎ ቶችን</w>
መነ ሻ
አጋ ማሽ</w>
ስ ያ
ውስጥ .</w>
መልአ ክ</w>
u t
ሰማ ይ
ሄ ደው</w>
በቀጣ ይ</w>
ታሪ ክ
አ ጠና
የ ገበያ</w>
መሰ ለ
ይምረ ጡ</w>
ያደርጋ ል</w>
አይደለ ም
ዘረ ዘ
ዮ ርክ</w>
አ ሰብ
በ አንዱ</w>
ከ ቅርብ</w>
ቅር ን
አላ ት።</w>
በተ ለያየ</w>
ኑ ትን</w>
ወን በር</w>
ሀገ ር
ይ ካሄ
ያልተ ለመ
ቻ ለ
ግብ ረ</w>
እ ሴት</w>
የ ግብይት</w>
ይገል ጻ
ወንድ ሞች</w>
ያውቃ ል።</w>
ው ንት</w>
ችል በት</w>
በ ታላቅ</w>
ለመ ያዝ</w>
ለመ መልከት</w>
ቸ ር
ሆ ንን</w>
ያንብ ቡ</w>
ቶ ም</w>
ዎ ቹም</w>
ሊ ቃ
ወዳ ደር</w>
ና ችሁ
ተለ ዋዋ
ኑ .</w>
ሉ ፥</w>
ዮ ኖች</w>
አ ቡ
ረጋገ ጠ</w>
ው "</w>
ጥያቄ ዎችን</w>
ይሆና ሉ።</w>
ኝ ታ</w>
ሀ ይ
v e</w>
ጠይ ቅ
ወጣ ቱ</w>
ወዘ ተ</w>
ተረ ድ
ታ ዎችን</w>
( ለ
ካህ ናት</w>
ታ ሉ።</w>
ተግባ ራ
እም ሮ</w>
ብ ሊክ</w>
መ ገናኘት</w>
በ ብዛት</w>
ማ ነው</w>
ቧ ን
ወሰ ድ</w>
አቅጣ ጫ
ባለ ሥልጣ
3 :
መንግ ስቱ</w>
መ ዱ</w>
ካል ተ
ጠራ ው</w>
አምባ ገነ
ማ ሸነፍ</w>
ዋ ል?</w>
እና ምና
ሙስሊ ም</w>
ኽ </w>
አማል ክት</w>
ቅና ሽ</w>
መጨ መር</w>
መገ መት</w>
መላ ክ</w>
ብ ሩ</w>
ይ ከ
o t
እናውቃ ለን።</w>
በረ ዶ</w>
ይጀም ራል</w>
ጓጓ ዣ</w>
ቁ ጣ</w>
ፓ ሪስ</w>
ስል ክ
ስታ ን</w>
ራ ም</w>
እ ሄዳ
ይ ጣ
[ ተጨማሪ</w>
i r
5 )</w>
ክለ ብ</w>
ኖ ቹ</w>
ሀ ት</w>
ወረ ቀ
እናደርጋ ለን</w>
ስት ል</w>
ጅም ላ</w>
ቀሳ ቀስ</w>
ፍላጎ ቶች</w>
ጠቀ ሜ
ከመ ጀመሪያው</w>
መጣ ጣኝ</w>
ንባ ብ</w>
መ ደረግ</w>
ታ ጋ
ዎ ትም</w>
ፍ .</w>
ቶች ,</w>
መ ተው</w>
አምና ለሁ።</w>
ም ግብ
ማ ጥፋት</w>
ማ ደ
መሥዋዕ ት</w>
ሉ ኝ</w>
አን ገ
ግ ኝ
ራ ችንን</w>
ጉ ግል</w>
የሚከተ ለውን</w>
5 .</w>
እ ይታ
በ ጣ
ካሜ ራ</w>
ይገ ር
ን ጋ
ሰ ጠ</w>
ምግ ቦች</w>
ለን ደን</w>
ትላ ልቅ</w>
አሠራ ር</w>
w w
መስፈ ርት</w>
የተቀ መጠ
ዎች ዎ</w>
ዓመ ታዊ</w>
የሚ ሰማ
ወዳ ጄ</w>
ጓደኛ ዬ</w>
ከፊ ል</w>
ገብ ቶ</w>
ቆ ም
መ ታ</w>
እ ሰጣ
ዲ ፕሎ
ድረ -
መንግሥ ቱ</w>
ብ ጁ</w>
ዙ ት</w>
H om
አመጋገ ብ</w>
ተዋ ል.</w>
2 ኛ</w>
መረጃ ን</w>
ኖ ሩት</w>
ነ ጋ</w>
አ ሰጣ
ዝርዝ ሮች</w>
ዎታ ለን</w>
ስር ጭት</w>
የመ ነ
ካ ሉት</w>
ነ ር</w>
ረ ቂ
መን ደር</w>
የተ ሰጠ
ምን ጮች</w>
እገ ዛ</w>
ሙ ስ</w>
ለስላ ሳ</w>
ዘ ል
ይጠበቃ ል።</w>
አባ </w>
የተ ቀበ
ቃ ሉን</w>
ክ ም
ድ ስ</w>
ታገ ኛ
ማመልከ ቻ</w>
ጣ ሪ</w>
ማ ው</w>
ቀዳ ሚ</w>
ጠ ዋል።</w>
ትንሣ ኤ</w>
ኗ </w>
ማ ሩ</w>
ቀር በ
ሸ ት</w>
ተል ዕ
ሬ ው</w>
ቋ ረ
ጀም ሮ
ሰ ሌ
oo k</w>
የ ገለ
ባለ ሙያ
ህ ንም</w>
ይሠራ ል</w>
በ ሰዎች</w>
መል ሰው</w>
ዳግ መኛ</w>
ና ፣</w>
ሳተ ፉ</w>
ዘ ፈን</w>
ምቾ ት</w>
4 )</w>
ድር ግ
ስ ፣</w>
ወደ ዚያ</w>
እን መ
ሰ ሙ
አ ኳ
ተከ ሰ
ሳይን ሳዊ</w>
ሕፃ ናት</w>
ነ ታ
ጨ መር</w>
ታሪ ካ
አባ ት
መ ቆጣጠ
ጠይ ቀ
ጋ ጠ
ኳ ቸው</w>
ክፍ ሉ</w>
አሳ ዛ
ሕ ጋዊ</w>
ላ ለው</w>
ሚ ስት
መ ዋል</w>
አይደለ ም!</w>
እ ዛ</w>
ስ ጋ</w>
በበ ለጠ</w>
:1 3</w>
4 :
የተ ቋቋ
አይ ታወ
የተ ሰራ</w>
ሳይ ቀር</w>
መደ ብር</w>
ት ራ</w>
ፎ ን</w>
የሚ ናገ
ያለ ባቸው</w>
ታሪ ኮች</w>
ኛ ል.</w>
ተጨ ባጭ</w>
እንደ ነበረ</w>
ጋ ን
ፈል ጉት</w>
ዲ ስ
ሊ ያሳ
er s
ንግ ተን</w>
ያ ሻ
u l
ስ ላለ
ህ ገ</w>
ፈጠ ሩ</w>
ቢ ኖር
ባ ቸው።</w>
ሄ ዶ</w>
አይ ቀ
ሙ ሽ
ረጋ ጋ</w>
ላ ቸዋል።</w>
ወ ተት</w>
ሰሞ ኑን</w>
ራእ ይ</w>
የ መን
ኩ ኝ።</w>
ቅዱ ስን</w>
ሸ ለ
ል ዑ
ድል ድ
ዐ ይ
ለ እነርሱ</w>
ዋ ሽ
ፈለ ገው</w>
ታህ ሳስ</w>
ይዘ ን</w>
ዘ ዝ</w>
ጠ ል
መቅ ደ
ቺ ን</w>
ብር ቱ</w>
ፊል ሞች</w>
ነቢ ዩ</w>
ማስረ ጃ
እንደ ምና
ሊ ና</w>
ንጹ ህ</w>
ና .</w>
የ ውን</w>
ትን ፋ
ታ ና
በ ሩን</w>
ጠ ጥ</w>
ኾ ነ</w>
ያ ቸውን</w>
ቆ ሻሻ</w>
ሙዚ ቃ
ተጠቃ ሚ
ሮ ችም</w>
ተ ገን
ማ ከል</w>
ጨ </w>
ለ ካ
በ ዝርዝር</w>
ያሳ ያል።</w>
0 .</w>
ዘ ገ
ረ ዋል</w>
ፌደ ራል</w>
ግን ,</w>
" እኛ</w>
ሰይ ፍ</w>
ጉዳ ዮችን</w>
ገል ፀ
መገለ ጫ</w>
ች )</w>
ደ ሞ</w>
አቅር በ
መ ጫን</w>
ጠየ ቁ</w>
ይመጣ ል።</w>
ዕ ረ
ኩ ራት</w>
ተጫ ራ
አስመልክ ቶ</w>
ሰ ዉ</w>
የሚያ ገለ
ሳሙ ኤል</w>
አይደ ሉ
ፈ ት
ያው ቃል</w>
እያደ ገ</w>
አለ ,</w>
ተ ግበ
የታ ዘ
ትብ ብር</w>
የተሻ ሉ</w>
:1 4</w>
ጥላ ቻ</w>
መግለ ጫ
ሀ )</w>
ይገ ለ
የሚ ነ
ለን "</w>
ፁ </w>
ስ ነ</w>
ሎ ቹ</w>
ጥን ታዊ</w>
አቅር ቦ
ስብሰባ ው</w>
ስላ ለው</w>
ቪ ዛ</w>
ክርስቲ ያን
በትክክ ለኛው</w>
ወስ ዳ
ያ ጠፋ
S t
መ ገንባት</w>
አ ሪ
በ ሆኑ</w>
የ ራሳቸው</w>
ህ ፣</w>
ከ ብራ
ሀብ ቶች</w>
ሚ ዛን</w>
ጣ ዕ
ጠብ ቅ
በማ ስተ
ዕ ጣ</w>
ሰ -
ለማ ግኘ
ያ ወ
ማ ገ
አምላ ኬ</w>
በሚ ያስ
በ ሁለቱ</w>
ነህ ።</w>
ካ ስ
ቀዝ ቀ
ከ ሞት</w>
ጠበ ቁ</w>
ላለ ን።</w>
:1 6</w>
አው ቀ
ህብረተሰ ብ</w>
መካከ ለኛ</w>
ተቀ መጠ
ኮር ፖ
ቆ ሮ
ና ውያን</w>
አ መልክ
u s</w>
ፈላጊ </w>
ክ ሊ
ደ ሞ
ሜ ክሲ
C h
ምሥራ ቅ</w>
መድኃ ኒ
ቻ ው</w>
እነዚ ያን</w>
አስባ ለሁ።</w>
ሳ ሉ።</w>
ተራ ራ
መላእ ክት</w>
አባ ቶች</w>
እንደሚ ሰራ</w>
ጠቀ ሰው</w>
እኩ ል
ች ላ</w>
ሚ ዛ
ሰ ቃ
እያ ሳ
የተ ራ
በሚ ቀጥሉት</w>
ወያ የት</w>
ውድ ድ
ች "</w>
መምህ ር</w>
የ ኦ
ሰ ፋ</w>
ሕ ል
ወስ ደ
ው ሻ</w>
ጋ ው</w>
ሰ ሙ</w>
ፈጠ ር
መሳ ሳይ
ጥቂ ቶች</w>
ታወ ቀ
ጧ ል</w>
ባ ሻገር</w>
አንባ ቢ
ይኖር በታል።</w>
ምድ ብ</w>
ገ ፅ</w>
ውጤ ታማ
ተቀ ማጭ</w>
ሲ ቪ
3 7
ወ ታ
ክ በር</w>
ነፋ ስ</w>
ፉ ።</w>
ተቀ በ
ቡ በት</w>
ስ ።</w>
ሴ ቲ
የ ኮ
ኤር ም
ደር ግ
ምስጢ ር</w>
8 .</w>
እንደ ምታ
ሉቃ ስ</w>
የማ ድረግ</w>
መስኮ ት</w>
ብ ሮች</w>
ታው ቋል።</w>
ዘጋ ጁ
ይመልከ ቱ
ህወ ሃት</w>
ነ ሽ</w>
ፕሮግራ ሙ</w>
አሸ ን
ዘ ና</w>
ቸ ዉ
አምራ ች</w>
ቪዲዮ ዎችን</w>
ይ ፈልጉ</w>
ለማ ከናወን</w>
ችን ንም</w>
ክ ሌ
ዱቄ ት</w>
ፈ ፅ
በ ላይ
" አንድ</w>
እራስ ዎን</w>
ች ዎን</w>
የ ሸ
መ ገንዘብ</w>
ማብራ ሪያ</w>
በት ና</w>
በ አዲሱ</w>
ፈጠ ረው</w>
ድ ግ</w>
አ ያስፈልገ
እስ ያ</w>
መ ቅረ
ክ ሬን</w>
ኝ ፣</w>
የሚ መስ
ልቦ ና</w>
ይታ ያል</w>
በተ ከታ
ፍል ስፍ
ይላል :</w>
ሶ ማ
ማስተ ላለፍ</w>
ፈ ።</w>
ክለ ቡ</w>
ኖ ሮ
ቡ ትን</w>
ሳ ለሁ</w>
ም ኒ
ጣ ው</w>
አውቶቡ ስ</w>
ተሰጥ ቶ
ሳን ቲ
ጥርጣ ሬ</w>
የተ ገደ
እውነ ቱ</w>
ቃ ቸው</w>
ህ .</w>
ላ ሉት</w>
ሄደ ።</w>
የቀረ በ</w>
ጦ ችን</w>
የ ፍርድ</w>
ል ኝ።</w>
ከ ጎ
እንዲ ኖር</w>
በ ቁ
ል ቡ</w>
ይገኛ ሉ</w>
መጥ ተው</w>
ጠ ለ
ማ ውያን</w>
ሕፃ ን</w>
ያው ቁ
አቀ ማ
እንዳ ያ
ለመ ታ
እና ገኛ
መ ጨረሻው</w>
ለ ወጥ</w>
ሉ ና</w>
ጠ ቢያ</w>
ጋ ዝ</w>
መር ከ
የተ ነሳ
አን ችልም።</w>
ል ;</w>
:1 8</w>
ኸ ኝ</w>
እያንዳን ዳቸው</w>
የተሰ ጠ</w>
ልጆ ቻቸው</w>
ይ ም
ሞ ክር
ማስታወ ሻ
ስርዓ ቱ</w>
ጦ ት</w>
በ ሞ
ለሁ ፣</w>
ነጋዴ ዎች</w>
ነገ ሩን</w>
ሉ ት።</w>
ኪራ ይ</w>
• </w>
ግድ ብ</w>
ዓ ን</w>
) ,</w>
ዎ ቹ
መስ ሎ</w>
ጓ ዙ</w>
የመ ኖሪያ</w>
ሠ ሩት</w>
እንዳለ ባቸው</w>
ንግ ድ
ስለ ተ
በሰ ፊው</w>
ወታደ ሮች</w>
ቡ ል</w>
ለ እነዚህ</w>
ውጤ ቶችን</w>
እ ሆና
አዳ ም
ነፃ ፀ
በ ግልፅ</w>
ሐ ሰት</w>
እንዳ ላ
መንገ ዱን</w>
ቶ ቻቸውን</w>
ጳ ጳ
ያው ቁት</w>
ወረርሽ ኝ</w>
በዙ ሪያ
ኪሳ ራ</w>
ል ቀ
ያ ም
እስ ክን
ቸው ?</w>
ኪ ዳ
ሰ ቦች</w>
ይወ ሰ
ማስተ ካከ
ርካ ሽ</w>
የ ብ
ስቲ ክ</w>
en </w>
ኤ ን</w>
አይ ሰራ
አስፈ ፃ
ቢ ይ</w>
ዲያብሎ ስ</w>
ሹ ን</w>
ማ ቅረ
ነህ ?</w>
የተለመ ዱ</w>
ብ ሄር</w>
የተ ደ
የ ያዘ</w>
መለ ሰ
ጀመር ።</w>
ሩ ና</w>
ar t
ፕሬ ስ</w>
ወ ድ</w>
ምኞ ት</w>
ለመ ገናኘት</w>
በ መንግስት</w>
ብሪ ታ
ጠ ።</w>
መመ ሪያ
ጠቀም በት</w>
ተመል ሰው</w>
ችግ ሮችን</w>
200 7</w>
ያ ሉ።</w>
ተሰ ር
ከሰ ቱ</w>
አ ሞ
ናገ ድ</w>
መ ያ
ሁ ዋ
ናይ ጄ
5 :
ታ ለች።</w>
በ ኤ
ነ ት,</w>
ታ የው</w>
ይ ቀን
ብራ ዚ
ምክንያ ቱ</w>
ዘጋ ጅ</w>
አደ ራ</w>
ህ ጎች</w>
ጀ ምር
ኮሚ ሽን</w>
ባ ሉ።</w>
ዘመ ና
ባ ሪያ</w>
በቀ ዳሚ</w>
የ ሳ
አል ቀረ
የመ ከላከያ</w>
የ አካባቢ</w>
ይታ ያል።</w>
የተ ባለ</w>
ዎ ቻቸውን</w>
n </w>
ክ ፋት</w>
ያገኛ ሉ</w>
ፋይ ሎችን</w>
ገለ ል
ከፍ ተኛው</w>
ሰ ሎ
ሳ ችን</w>
መለ ሱ
የማይ ቻል</w>
ነው ፥</w>
፤ ››</w>
ክት ትል</w>
ውስ ን</w>
እ ሞክራ
ተ መልካ
ውል ድ</w>
መተግበ ሪያ
ታ ል?</w>
4 5</w>
ነበር "</w>
ካ ቲት</w>
ሊ ወስድ</w>
አምል ኮ</w>
አባ ይ</w>
ተከ ራ
ላይ ሆን</w>
ቆ መው</w>
ቻ ቸውም</w>
( ፪
› ›
ረ ክ
እባካ ችሁ</w>
ለ ራሱ</w>
የመጀመሪያ ዎቹ</w>
ስ ,</w>
ሊ ረዳ
የተነ ሣ</w>
ግ ደ
በ ፊቱ</w>
እያ ደረገ</w>
ሰማ ያ
እግዚአብሔር ም</w>
ባት ሪ</w>
ደረ ስ
የተ ገና
ትን ቢ
ስትራቴ ጂ</w>
ስ ሙ
i g
ወ ል</w>
ጩኸ ት</w>
መጣ ው</w>
ያሳ ያል</w>
ተ ዘግ
ለ ታል።</w>
ሁ ም።</w>
ላ ም</w>
ገ መድ</w>
ለመ ሥራት</w>
ውስጣ ዊ</w>
በ ሮች</w>
ወ ራ</w>
እንዳ ላቸው</w>
ሞ ትን</w>
ት መት</w>
የ ፊ
የ ከተማ</w>
ዘ ፍጥረት</w>
ስ ቲ</w>
ጋ ግ
ሞ ቅ</w>
ፈርዖ ን</w>
ማኅ በረ
ጨረ ቃ</w>
ይጠይ ቃል።</w>
መስ ቀል</w>
የ ጨዋታ</w>
የበ ይነመረብ</w>
ጥ ል</w>
ንቀሳ ቀስ</w>
ሰ ኝ</w>
መ ቋቋም</w>
የ እነዚህ</w>
ዩኒቨርሲቲ ው</w>
መታ የት</w>
መመ ሪያዎች</w>
ሩ ኝ</w>
ግላ ዊ
በማ ሳ
ሳ ው</w>
አል በ
ይገና ኛ
መ ጨረሻ
እያ ደረጉ</w>
ተስማ ም
ቆ ዩ</w>
ጭ ን</w>
ያ ነጋግ
ቢ ሆኑ</w>
እንዳ ስ
:1 7</w>
ይ ጋ
በመ ጨረሻው</w>
ጦር ነቱ</w>
ማ ሻሻል</w>
በተ ፈጥሮ</w>
የሚሰ ራ</w>
ፅሁ ፍ</w>
አፍ ቃ
ሶ ን</w>
ራ ጭ</w>
ሚ ን</w>
ግንኙ ነቶች</w>
አለባ ቸው.</w>
ዳ ሴ</w>
ደስተ ኞች</w>
F </w>
ያደርገ ዋል</w>
ዱ ትን</w>
ዋ ል፤</w>
o c
የሚፈል ግ</w>
ኮ ችን</w>
በማ ህበራዊ</w>
ፍ ራ</w>
መር ዳት</w>
ክት ባ
ብሎ ም</w>
ልውው ጥ</w>
አጋጣ ሚዎች</w>
" ወደ</w>
ተኳ ሃ
ከዋ ክብ
እ </w>
ላችሁ ፤</w>
ወ ቀ
ዘግ ይ
መብ ራት</w>
ታሪ ኩ</w>
ክፍ ያዎች</w>
ክር ስትና</w>
ጨም ሮ
ይመስ ል
ይ ነሳ
በ ግ</w>
ለ ዚያ</w>
ሰራ ዊት</w>
የ ረጅም</w>
ችኋ ል</w>
ተ ፍ</w>
ቤት ዎ</w>
መ ዳን</w>
ዘ ም
ለማ ዳ
ገ ዙ</w>
ለ ስ</w>
ደ ፋ
ቧ ል</w>
ውያ ንን</w>
መለከ ት
ሁ ሌ</w>
ፈጸ መ
i m
ያለብ ዎት</w>
ቸው ፥</w>
ተያ ይዞ</w>
ፊ ቱን</w>
ለመ ጎብኘት</w>
ተናግ ሯል።</w>
ምስ ሎች</w>
የሚያው ቅ</w>
ግን ፣</w>
አር ሶ</w>
አ ዎን</w>
ፋ ሽን</w>
ያለ ብን</w>
የምን ችለው</w>
አጋ ጥ
መ ጫ</w>
ያስ ቡ</w>
በቀ </w>
መ ወሰን</w>
እና ቶች</w>
ለመስ ማት</w>
መንግ ስት
ጥ ብ
ጠ ያ
አገ ዛዝ</w>
ይ መል
ስ ኮ
ሙስ ና</w>
መለ የት</w>
ተቋ ማ
አስ ኪያ
በ ቅድሚያ</w>
u s
አስ ባለሁ</w>
ቢ ስ</w>
ምህ ን</w>
ባ ብ</w>
ሕ ልም</w>
ከተ ለያዩ</w>
ና ውን</w>
ጠብ ቁ</w>
ይለ ፍ</w>
የሚመጣ ው</w>
ጠቅላ ላው</w>
ተሰ ም
ቡ .</w>
እንቅ ል
ጋ ቢ</w>
የሚፈል ጉት</w>
ቀ ዶ</w>
አለ ፤</w>
3 00</w>
ጸ ጥ
ዳር ቻ
የ ወረ
ወሰ ዱ</w>
ሪ ፐ
- 19</w>
ፍጆ ታ</w>
ሳ ው
ለው ጡ</w>
አን ዷ</w>
ናቸው !</w>
ሊ ቀ</w>
ጉባ ዔ
ቁሳቁ ሶች</w>
አምላክ ን</w>
የ አገሪቱ</w>
o v
ሚ ያዎች</w>
ልም ምድ</w>
እንደ ዚ
ካ ቶ
በ እምነት</w>
መ ቆጣጠር</w>
ቢ ዝ
በተቃራ ኒው</w>
ቀዝቃ ዛ</w>
ሚ ን
ፊ ደል</w>
ዷ ል</w>
ዙ ን</w>
አለ ች</w>
ሊ ያደርግ</w>
መ -
ፈታ ኝ</w>
ኤር ትራ</w>
ሕ ወ
ሁል ጊዜም</w>
አደርጋ ለሁ።</w>
አ ሃ
ነበ ራቸው</w>
ተ ከተል</w>
የሚ ኖር</w>
ሻ ውን</w>
መፅ ሐ
የሚ ጀም
እና ቀርባለ
ድንገ ተኛ</w>
አ ሊ
ለማ ሸነፍ</w>
ነው ም</w>
መብ ራ
ሕ ገ
19 6
ነ ሣ
አው ራ
ነበር ኩ</w>
አመራ ሮች</w>
ለመ ሞከር</w>
ዓ </w>
ለማ </w>
ሮ ሜ</w>
5 %</w>
አደረገ ።</w>
ቀ ረ</w>
ዘጋ ጃ
ተፈጥ ሮ
ዶ ሮ</w>
አስተናጋ ጅ</w>
የም ለ
መዛሙር ቱ</w>
ደ ሴት</w>
መዋ ቅር</w>
፤ +</w>
ን ዑ
a k
መ ኖር
ኮሮ ና</w>
አይ ገ
ቅርጸ ት</w>
ይመልከ ቱ.</w>
ዝ ውው
ም በር</w>
ረ ዱ</w>
የ ዘር</w>
መ ሆኗ
ፍ ር</w>
አሻ ንጉ
መደ ብ</w>
ረ ሃ
ጓደኞ ቼ</w>
ታ ደርጋ
ሊ ባል</w>
ጋዜጠ ኞች</w>
ለመ ጠየቅ</w>
ን ጣ
ያድርጉ .</w>
ነ ት.</w>
ሀ ይል</w>
ዋ ወቅ</w>
ባ ክ
አውታ ረ
በ ግምት</w>
ስተ ን</w>
ልማ ድ</w>
ካር ታ</w>
ለማ ዳን</w>
ፈን ታ</w>
ዱ ር</w>
አስፈላጊ ነት</w>
ል -</w>
ሳ ቅ</w>
ማ ዋ
ደጋ ፊዎች</w>
a p
ማ ቸውን</w>
አይደለ ም?</w>
ሲ ታይ</w>
ማ ሪያ</w>
ገበ ሬ
የ ና
19 7
በመ ሄድ</w>
ጠ ዋ
ቶ ቼ</w>
ተወካ ዮች</w>
ዘ ኛ</w>
ማስታወ ቂያ
ፋ ፋት</w>
የ ታሪክ</w>
ኢ -
ከ ኝ</w>
ይስ ጥ
ያ ለመ
አል ተገኘ
ኃይ ሎች</w>
ዝ ያ</w>
ዎች ፣</w>
ጎ ዳ</w>
ፍ ል</w>
ያለ ንን</w>
ኾ ኑ</w>
ነ ግራ
ረ ቅ</w>
ለመለ ወጥ</w>
አዕም ሮ</w>
ይ ድ
ተ ግዳ
ለመ ጫወት</w>
ገ ቢ
ውድ ቀት</w>
የላ ቸውም</w>
ሊያስ ከት
አባ ል
የተ ደረገ</w>
ከናወ ኑ</w>
ይ መረ
( ኤ
ኃ ላ</w>
በመ ጽሐፍ</w>
ንጉሡ ም</w>
ነ ሳት</w>
ጋር .</w>
እውነ ታው</w>
ተመላ ሽ</w>
አድር ጌ
ግ ዚ
እራ ሴን</w>
ቆ ሞ</w>
ጫወ ቻ</w>
የሚሰጡዋ ቸው
a :</w>
ያስ ችል
ቻ ዎች</w>
" ምን</w>
ጊዜ ውን</w>
ኃጢ አት
ሙስሊ ሞች</w>
ራሳ ችሁ</w>
ተሳ ፋ
ሰ ፈር</w>
አን ዱ
ታ ዛ
ለ ሆኑ</w>
ል ደ
ማ ችሁ</w>
ሆይ !</w>
መ ሻሻል</w>
ጨዋታ ዎችን</w>
ገባ ኝ</w>
በ ሁለተኛው</w>
ኗ ል።</w>
በ አይ
አቀራረ ብ</w>
ፀ </w>
ፓር ክ</w>
ያገለ ግል</w>
ሌ ላቸው</w>
ይ ችሉ</w>
ዮሐ </w>
ሱ .</w>
ለመ ቆጣጠር</w>
ጆ ን</w>
በገ ዛ</w>
ቃ ል.</w>
ይገኛ ል.</w>
ች !</w>
ት ላለ
You T
ቦ ን</w>
ሰይ ጣ
ዳ ቦ</w>
ይሰጣ ል.</w>
ተፅ ዕኖ</w>
ጠን ቅ
ጠ ፉ</w>
መ ገናኛ</w>
W i
ፈጸ መ</w>
8 :
ዕ ዳ</w>
ማን ሳት</w>
አ መሰ
ስ .</w>
አል ችልም።</w>
ተደርጓ ል።</w>
ብ ት</w>
ዳ ም</w>
የተ ሞላ</w>
ትችላ ለህ።</w>
ስል ት</w>
M ac
አሳዛ ኝ</w>
ርዝ መት</w>
ያ ተኮ
የበላይ ነት</w>
መ ኮ
የተ ከበ
ተ ረት</w>
ባ ቡ
ሰጠ ን</w>
አና ው
ወ ሬ
ባል ንጀ
ያ ር
ኩ ኪ
ቀል ድ</w>
ለማ ጥፋት</w>
ግራ ም</w>
ለመ ምረጥ</w>
ድንኳ ን</w>
ራስ- ሰር</w>
ፉ ም</w>
ጥር ስ</w>
ሠራ ተኛ</w>
አስተ ማሪ</w>
ነት ዎ</w>
በተከታ ታይ</w>
ዕ ብራ
ይ ድ</w>
ስለ ሆኑ</w>
እስራኤላ ውያን</w>
ምክ ትል</w>
ቴክ ኒክ</w>
ይ ነገ
ቀጠ ለ</w>
እንቆ ቅል
እርግ ዝና</w>
በ ቁጥጥር</w>
ፈ ሪ
እር ካ
ነገሥ ታት</w>
ቀ ሰ
ለማ ሟላት</w>
መከላከ ል</w>
ልጆ ቼ</w>
8 )</w>
ረ ግ
ተ ላ
ሜክሲ ኮ</w>
የ ዩ
ግ ዳ</w>
አገልጋ ዮች</w>
መገ ኘት</w>
u c
አስተ ዋ
ካ ላቸው</w>
የተ ደረገው</w>
መ ኑ</w>
ይ መለከ
ማሻሻ ያ</w>
የሚሰ ሩ</w>
ዓ ም</w>
ና ወ
ለሁ ኝ።</w>
ጾ ም</w>
ጀም ራ
የ ፍ
ማ ጅ</w>
ጥ ላ</w>
ይወ ጣ
ብ ዝ
መግባ ባት</w>
ክፍ ተት</w>
ሥል ጠና</w>
ሕ ጉ</w>
ሆ ች</w>
ብረተሰ ቡ</w>
በይ ነገ
ቆይ ቷል።</w>
የሚ ታይ</w>
ህፃ ናት</w>
ስቃ ይ</w>
የ ሙከራ</w>
ያደር ጉት</w>
አማካ ይ
ተ ሩ</w>
ፀ ረ-
ይኖራ ል</w>
ዩ ክሬን</w>
ካ ፈል</w>
ሰ ጡት</w>
ይ ከብ
መጡ ።</w>
ያያ ዙ</w>
ገ ጠር</w>
የ ክፍያ</w>
ሱ ቅ</w>
ክለ ቦች</w>
ስፔ ን</w>
ሟ </w>
የተ ዛ
ዕ ል
አስ ር
አት ሌ
ስትራቴ ጂ
ኪ ንግ
ሩ ም።</w>
ረቂ ቅ</w>
ን ፁ
= </w>
ረ ዘም</w>
ያ ለማ
ኩ ስ</w>
ነት ህ</w>
ከ ምን
ነገ ረ</w>
መጠ ጣት</w>
የለ በት
አረ ብ</w>
ቁ ኝ</w>
እ ጠብቃ
Hom e</w>
ጸለ ይ</w>
አሪ ፍ</w>
( ማ
ኳ </w>
የተ ደረገ
ሳ ላ
ዌ ይ</w>
ሶ ቹ</w>
ማስተ ማር</w>
ተዋ ና
ለመ ግለጽ</w>
እስራኤ ልም</w>
አል ፈልግም</w>
ት ውስ
S E
ማስተ ካከል</w>
ቫይረ ሱ</w>
መ ቆም</w>
6 :
ዘ ገባ
ር ,</w>
ጻ ድ
የለ ን
ቆ ሙ</w>
: :
ጫ ማ
ከ ረ</w>
አፈጻጸ ም</w>
ኪ ን</w>
ግባ ባት</w>
የበ ለ
አይቻ ልም</w>
ፈ ዋል።</w>
የ ሞት</w>
አበ ባ
እናውቃ ለን</w>
ሳ ጥን</w>
ጎ ት</w>
ቶቻ ችንን</w>
ራ ውን</w>
ማም ጣት</w>
የ ኑሮ</w>
ነቢያ ት</w>
መስ ሪያ</w>
ለመ ል
በመ ጀመሪያ
በ በርካታ</w>
ዋነ ኛው</w>
አለ ሁ።</w>
b r</w>
ንጉ ስ</w>
ቅ ጽ</w>
ጣ ሚ</w>
ኤርም ያስ</w>
ኋ ቸው</w>
መ ቸ
ያለ ፈ</w>
በ ፍርድ</w>
አ ያደር
u </w>
ት ሪ
ዘይ ቤ</w>
ን ዶ
ተለዋዋ ጭ</w>
ቅ ደም</w>
1 "></w>
ያል ፍ</w>
አስፈ ሪ</w>
አለ በለዚያ</w>
or </w>
ላ ለን</w>
ደ ክ
አዝና ኝ</w>
ጅ ምር</w>
(፪ x)</w>
ገል ገ
ግ ሌ</w>
ለ ውም</w>
አ ጋር</w>
ጃ ን
አምላክ ህ</w>
ሁ ኑ</w>
በ ሞት</w>
ሠራ ዊ
ይህ ን</w>
ገና ኝ</w>
እ ጁን</w>
ቤ ል</w>
ይሁ ኑ</w>
ቲ ቪ</w>
ጭ ም
ሎ ስ</w>
ታው ቅ</w>
ሰ ዶ
ይወስ ዳል</w>
ምን ጊዜም</w>
ል ቀት</w>
ዱ ባይ</w>
ይጠ ፋ
ዕ ቅ
ተሰ ብስ
የ ሀገ
በእ ጃ
መሀ ል</w>
200 6</w>
ሃብ ት</w>
የ ኔ
ለመ ግ
ፀ ደ
ይል ቅ
ጌ ጥ</w>
ጊዜ ያዊ</w>
ገደ ል</w>
ዲ ን</w>
ሰብ ሰብ</w>
መፍ ታት</w>
★ </w>
አካባቢያ ዊ</w>
አ ሥራ</w>
አ ነሳ
ለመው ጣት</w>
3 2
አ ረጋ
እንደ ,</w>
ch </w>
ናገ ራ
ቢ ል</w>
ጌ ታቸው</w>
እ ሚ
ተ ላለ
ና ችሁ።</w>
ጨ ምር
የ ሉ
ም እ
አብ ነት</w>
ከባ ከብ</w>
ተነ ግ
ጥ ብቅ</w>
ድ ሬ
ካ ተት</w>
ማ ጥ
ሚ ስቱ</w>
ሊ ውል</w>
A m
እንደ ዚሁ</w>
ጻ ሚ</w>
ፀ ጥ
ረ ር</w>
ለ ኛ
ፈጸ ሙ</w>
የሚ መጣ</w>
YouT ube</w>
ስራ ውን</w>
ለ በ
ያሳ ድ
አብዮ ት</w>
አማ ኞች</w>
ጠ ፍ</w>
አያው ቅም</w>
በ ሆነው</w>
እንስ ሳ</w>
ሲሆን ፣</w>
< br</w>
ያስፈልግ ዎታል</w>
ፕ ራ
ፈ ቅ
የመ ሆን</w>
በመካከ ላቸው</w>
በመ ደ
ፈ ቀደ
ራዕ ይ</w>
ለማስተ ካከል</w>
ህ ግ
ሦ ስቱ</w>
በ ሻ
ሊ ከሰት</w>
ያግኙ .</w>
P S</w>
ይጫ ኑ</w>
ስለ ሆነ
አገ ላለ
ብሎ ግ
ገ ፍ</w>
ፕሮጀ ክ
ቅድ መ-
ነቢ ይ</w>
ማ ከናወን</w>
የምር ምር</w>
አለብዎ ት.</w>
ዓ ሣ</w>
ለች ፤</w>
ባን ኮች</w>
በ ደረ
መጠ ይቅ</w>
መና ን</w>
ሰጠ ኝ</w>
ው ሰድ
ጎ ም</w>
ጭ ማሪ</w>
ኗ ል</w>
ማስታወ ስ</w>
መተ ማመን</w>
ባ ቢ
ግድ ግዳ</w>
ደ ለ
ን ቃ
የ ልጆች</w>
ስ ሙን</w>
ዩ ።</w>
ብ ኝ።</w>
ድንግ ል</w>
ናሙ ና</w>
በ ከፊል</w>
ስታን ቡል</w>
ት ዳ
ም ነው</w>
ጥና ቱ</w>
የተመሰረ ተ</w>
ይ ዝ
ተከታ ዮች</w>
ሞክ ር</w>
ይ ጎብ
አሁ ኑ
ይ መለሳ
ቀ ውን</w>
የሚ ከ
ህ ,</w>
ያ ደረገ</w>
ህጻ ናት</w>
የ አይ
ጥ ይት</w>
> ></w>
a t</w>
አጋ ን
ዴሞክራ ሲያዊ</w>
ተ ከፍ
በጥ ብቅ</w>
c om
የመ ታ
በል ጅ
እንፈልጋ ለን</w>
ተጠ ንቀ
ህዝ ቡን</w>
እንዲ ፈ
እንዲ ቀ
ነው ››</w>
አል ባ
ግምገ ማ
አ መስ
ብሩ ህ</w>
እየተ ደረገ</w>
ፈገግ ታ</w>
ቻ ር
ይመስ ል</w>
ህ መ
አጋ ር
እነር ሱን</w>
ብ ላት</w>
እንደሚ ገባ</w>
ቤተሰ ብ
ለመ ሸ
ታ ችንም</w>
በመ ጠ
ህ ዳር</w>
የ ሶ
መኖ ሩን</w>
ለመ ፈለግ</w>
" እናንተ</w>
ነገ ድ</w>
ነበረ ው።</w>
ቦር ዱ</w>
በመ ሆናቸው</w>
ል ት</w>
እን ጠብቃ
ተባ በር</w>
ቆ ዳ
9 :
ለ ሰዎች</w>
ያ ብራ
ማ ሉ።</w>
አያ ያዝ</w>
መረ ቦች</w>
ለ ምንድነው</w>
t e
ፈል ጌ</w>
ታድ ያ</w>
( ወይም</w>
አይኖር ም።</w>
መ ላለ
ሰማ ያዊ</w>
እህ ት</w>
ለማ ጣ
ጥ .</w>
አ ደረገ</w>
ብዙ ዎቻችን</w>
አ መልካ
3 3</w>
ማ ሸ
ድ ክ
ዓ ረ
ተወዳ ዳሪ</w>
ነት ፣</w>
መንገ ደ
ቦ ቹ</w>
ጥቅ ስ</w>
ይ ከፈ
ዋ ለን።</w>
ራስ ዎን</w>
ቆ ይታ
ሁ ላችሁም</w>
ተዋ ፅ
ስ ፋ</w>
የሚያ ምር</w>
አለ ቃ
ው ጫ
ሸ ክ
አብ ያ
አለ ው?</w>
ሜ ት
ሐኪ ም</w>
የ ግንባታ</w>
ፋ ው</w>
ጤ ን
አል ጋ
አለ :</w>
ማስጠንቀ ቂያ</w>
ዚያ ው</w>
ል ዎ</w>
እን መለከታ
w it
ያገኛ ሉ.</w>
ትምህር ቶች</w>
ባለስልጣ ናት</w>
በየ አመቱ</w>
ሥራ ዎችን</w>
ይገባ ል.</w>
ወስ ደው</w>
ጡ ትን</w>
h t
ወለ ል</w>
ለህ .</w>
6 )</w>
ሰ ውን</w>
ያ ውም</w>
7 .</w>
ትራ ምፕ</w>
ልጅ ዎ</w>
ኦ ሎ
ቀረ በ
ታክ ሲ</w>
ት ቶ</w>
ስን ል</w>
Po st
ጋ ጭ</w>
ወጪ ዎች</w>
ግ ሪክ</w>
ማለ ቱ</w>
የማ ግኘት</w>
ግ ቦች</w>
ር ፣</w>
ይሆና ል፤</w>
ቱ ፣</w>
ጠብ ቀው</w>
እ ቃ</w>
ጫ ት</w>
ማዕከ ላዊ</w>
መለ ኮ
እ ህል</w>
የ ጣ
ዕው ቀ
በ ታሪክ</w>
መሰ ብ
ይ ጥ
ነገር ን</w>
ደመ ና</w>
r .</w>
T ag
ዩ ሮ</w>
ው ር</w>
ስህተ ቶች</w>
ብ የ</w>
ም ኑ
ኘ ውን</w>
U </w>
ብል ህ</w>
የማይ ታ
ላ ስ
ተገል ጿል።</w>
ራሳ ችሁን</w>
ል ባ</w>
ተጫዋ ቾ
የማ ል
መቻ ቸት</w>
መስ ታወ
እችላ ለሁ።</w>
ን ቶ
ሙሴ ም</w>
ፍቅር ን</w>
ችኋ ለሁ።</w>
ቫ </w>
በ ዚህች</w>
ያ ቀ
ጻ ድቅ</w>
u m</w>
ች ለውን</w>
ሰራ ተኛ</w>
ግ ቢ</w>
አየ ሁ
አድር ጉ
ሰነ ዶች</w>
መጣ ጥ
አለ ች።</w>
ሊ ኖር
አጠቃ ቀ
ክ ወ
ኒ ው
ባ ብ
ፍጻ ሜ</w>
ገ ጠ
ር ሳ
ኩ ራ
ከ ባለ
ለመ ቀጠል</w>
አብ ሮ
መው ደ
ካለ ዎት</w>
ጋ ን</w>
ጀመ ሩ።</w>
በ ሻ</w>
ሲ ስተ
ከ ኛ</w>
እንዳ ሉት</w>
ጠባ ቂ</w>
ብ ክ
ወን ድም
ግብ ረ
ጊዜ ፣</w>
የሌ ላቸው</w>
ቀለ ል</w>
ጋ ችሁ</w>
መነ ጋገር</w>
እወዳ ለሁ።</w>
እየ ሰሩ</w>
ፋ ን
ይቻ ላል.</w>
እና ሳ
አ ጥን
ችሎ ታ
ጉል ህ</w>
ነዋ ሪ</w>
ስ ማማ
ለመ ዋ
ሁለ ተኛ
U S
ዓይ ነቱን</w>
ሄ </w>
ጽ ሕ
በተጨማሪ ም,</w>
ጽ ኑ</w>
የተ ጀመረው</w>
ሊቀ መን
F ac
ያስፈል ግ</w>
መጽሔ ት</w>
ው ሰ
አለ ሁ
P ro
ጫወ ቱ</w>
ጠይ ቁ</w>
ፕሮፌ ሰር</w>
ዲፕሎ ማ
የ ይለፍ</w>
አም ጥ
( እና</w>
ዘመ ነ</w>
ር እ
መከታተ ል</w>
ጮ </w>
ጊ ዎች</w>
ያ ዩ
መ ገኘ
ፍ ትን</w>
ለ ልጆች</w>
ህ ፤</w>
ይ ንት</w>
ይቻ ል</w>
ህይወ ት
ሰ በሰ
ይ ዤ
ፈተ ሽ</w>
እያ ልኩ</w>
ኗኗ ር</w>
አስቀድ መው</w>
ሣ ይ</w>
ጅ ት</w>
የቀድሞ ው</w>
ተገ ድ
ፍ ሰት</w>
ኪ ም</w>
ፈገ ግ</w>
አይ ነቱ</w>
ብዙ ሃን</w>
W h
የሚገር መው</w>
ኖ ሩም</w>
ወሰ ን
ንዑ ስ</w>
ደ ው
ታ ግ
ቀበ ሉ</w>
ጉ በት</w>
የሚ ደረገው</w>
ዳ ኛ</w>
ያሉ ት።</w>
አስታ ውስ
አዳ ራሽ</w>
ንጹ ሕ</w>
ተጋ ላ
ለ ድ</w>
በ ጉዳዩ</w>
s h
አስ ታወ
ይለ ኛል።</w>
እንደሚ ያሳ
ነ ።</w>
በ አገራችን</w>
በ ሃ
ለው ?</w>
ወይ ዘ
ድ በት</w>
ሰማ ያት</w>
፪ </w>
ም ፦</w>
ያውቃ ሉ</w>
ህ !</w>
" እ
አሳ ሳቢ</w>
ወ ግ</w>
ተ ና</w>
ላ ቀል</w>
አዝራ ር</w>
4 8</w>
ቀ ሩ</w>
ማ ፍ
ገ መ
ጻ ናት</w>
እንደ ሆንኩ</w>
አንበ ሳ</w>
ደንበ ኛው</w>
ተጠቃ ሚው</w>
በ ድር</w>
ተፈጥ ሯዊ</w>
አል ኮል</w>
ይ ነግ
አፈ ር</w>
ከ ሩ</w>
ቃ ጠል</w>
መስ ሎ
ባለ ቤቶች</w>
ሱ በት</w>
ግ ዜ
ክ ፋ
፩ </w>
ወል ድ</w>
ኦ ነግ</w>
ስ ኮ</w>
ቁር ጠ
አብዛ ኞ
ያ ክል</w>
እየተ ካሄደ</w>
በ ል።</w>
ለማ ዘጋጀት</w>
ጄ ኔ
ይሁ ን።</w>
የት ኞቹ</w>
9 .</w>
ሲ ናገር</w>
ለ ዋል</w>
ከ ዚያን</w>
ታ ዲያ
ቀ የ
ገ ጹ</w>
አቀ ፉ</w>
V I
ፈ ስ</w>
አል ሰማ
በ ኞች</w>
ተ ረጋግ
ቀረ በ</w>
ህዝ ባዊ</w>
ት ከ
ሩ !</w>
መር ሃ
በ መን
አለብዎ ት።</w>
ነ ዎ
ቸው ,</w>
ቸ ር</w>
በ ዋነ
ምክንያ ታዊ</w>
ሉ "</w>
መ ጡት</w>
7 )</w>
ም ግባ
ሉ :</w>
ያቀርባ ል.</w>
6 .</w>
ጽ ዳት</w>
በ ካ
ተ ዓ
በቀጣ ዩ</w>
ለመክፈ ት</w>
የተወለ ደው</w>
ደን ቦች</w>
የተ ማ
የ ቡድን</w>
አላ ማ
አ ጠፋ
ጠይ ቀው</w>
ገለል ተኛ</w>
መራ ው</w>
ገል ጿል።</w>
ና ቃ
ትግበ ራ</w>
ቸ ኳይ</w>
M P
ጀር ባ
ማክ ሰኞ</w>
ነበረ ች</w>
i s</w>
ያ ቆ
ኪ ሎ</w>
ቼ ም</w>
ይኖራ ሉ።</w>
ዋ ቂ</w>
ተ ተ
አክሲ ዮን</w>
→ </w>
የተ ከለከ
እየ ፈለጉ</w>
ስማ ማ</w>
a s</w>
ጠቃ ል
ሊ ኖራቸው</w>
አቀማ መጥ</w>
ለ )</w>
ይ ኖር</w>
የ ፌስቡክ</w>
ክሌ ር</w>
ያደርገ ዋል።</w>
ተገና ኝ
ገና ኘ
ካሄ ደ
ዓላ ማዎች</w>
ው ደ
ከናወ ነ</w>
ጋ ለ
አለ ች
ነበር ኩ።</w>
ለ በርካታ</w>
አካ ላ
ሲ ኦል</w>
p o
ጀር መን
ታ ክስ</w>
ብዛ ም</w>
እን ወዳ
አይ ለ
ሩ ጫ</w>
ያዙ ት</w>
ቀር ብ
ምና ባዊ</w>
ጠና ከር</w>
ገዳ ይ</w>
ው ጣ</w>
ተ መጣጣኝ</w>
ደ ሪያ</w>
አልተ ቻ
ባ ስ
የ ጠፋ
የ ሰዎች</w>
ማስተ ዋል</w>
እናደርጋ ለን።</w>
አማካ ሪ</w>
በረታ ታ
መስ ገን</w>
እነ ዚያም</w>
የም ናገ
የ ሰጠው</w>
እንደ ገለ
መሆኑ ንም</w>
ይ ሰጥ
ም ››</w>
ሀ ፍ</w>
:2 2</w>
የ ሉም</w>
የሚያደር ጉ</w>
ም ::</w>
ለመ ጠ
ኮሚ ቴ
ረ ኛ</w>
መለከ ታቸው</w>
ወ ቃ
ፎ ካካ
እንደሚ ያስ
አ ሌ
ጊዜ ፥</w>
ሱ ትን</w>
ጭንቅ ላ
የለ ም፤</w>
ሸማ ቾች</w>
ባ ዕ
ፕላ ኔ
ግድ ያ</w>
የበ ረ
የ ፍለጋ</w>
ይ መለ
መሸ ጥ</w>
ጎ ሳ</w>
የሚ ቻል</w>
የሚ ቻለው</w>
ጽ ፏ
የ ወጣ</w>
ሻ ይ</w>
ደጋ ፊ</w>
ቤተ -
ጽሐ ፉ</w>
ሊ መጣ</w>
ነ ዋል።</w>
መጽሐ ፍት</w>
ሃ ፍ</w>
አሰጣ ጥ</w>
ነ ቀ
ቅር ጽ</w>
ዝ ቃ
ባበ ል</w>
ነ ት።</w>
ኩ ላ
ቿ ን</w>
ሁኔታ ውን</w>
ዮ ሽ</w>
ይ ና</w>
የለ ሽ</w>
ተነሳ ሽነት</w>
ሰ በር</w>
ኢን ቬ
ሩ ፣</w>
ፈረ ስ</w>
አመሰግና ለሁ።</w>
ሩ ,</w>
ጨዋታ ውን</w>
N ew
ነፃፀ ር</w>
ፓ ው
ለመለ የት</w>
የተ ያያዘ</w>
የሚ ታወቅ</w>
አን ጀ
ሰጥ ቶ
ጠቀሜ ታ</w>
ቸዋ ለሁ</w>
ፆ ታ</w>
የሚያደር ጉት</w>
አይደለ ምን?</w>
ነኝ !</w>
ስብሰባ ዎች</w>
( 1)</w>
የ ብዙ</w>
ችግ ሮ
ይቀ መጣ
መሰ ና
ማስታወ ቂያዎች</w>
ከ ውን</w>
እግ ዜ
በር ሳቸው</w>
ይ በላ
ይ ጠቀሙ</w>
ዝ ን
ውድ ድሩ</w>
እ ጠይቃ
ሽ ና</w>
ሻ ለሁ</w>
እ ራሳቸውን</w>
ምፒ ክ</w>
ብራዚ ል</w>
ከ ሳ
አይደለሁ ም።</w>
ሂደ ቱን</w>
ሽ ናል</w>
በ ክልሉ</w>
ክ ሩ</w>
ተቃራ ኒ</w>
ል ፦</w>
ፉ ትን</w>
ይው ሰ
ኝ ,</w>
ነበሩ .</w>
ጻ ፍ
ዳ ቸውን</w>
ናይጄ ሪያ</w>
ጀ ልባ</w>
መዋ ዕ
በማ ሰብ</w>
ዖ ት</w>
ኢ </w>
አል ችል
ላችሁ .</w>
የ ሠ
እንደ ነዚህ</w>
ኖ ረ</w>
ዳ ው</w>
አለ ባበ
ትል ልቅ</w>
ክም ችት</w>
ባ ሰ</w>
በር ሱ</w>
ደ ሴቶች</w>
ክፍ ለ
ነ ሰ</w>
ው ፥</w>
ገጽ ታዎች</w>
3 4
ድህ ነት</w>
ታ ቸውም</w>
የተ ጠቃሚ</w>
ካ ሊ
" አሁን</w>
ሕዝ ቅ
W or
ዶ ቹ</w>
ጥቅ ል</w>
የተ ጠ
ደረ </w>
አይመስ ልም።</w>
በ ሀገሪቱ</w>
ሚያ ዝያ</w>
ዳ ችሁ</w>
ቸ ግ
ማ ጨ
መስመ ሮች</w>
የ ወንጀል</w>
አያውቁ ም።</w>
በ ጨለማ</w>
3 1
ያለ ህ</w>
ክረ ም
ተሳታ ፊ</w>
ተ ሃ
ሞገ ስ</w>
ማክ በር</w>
ፋ ሲ
ጓደ ኝ
ጎ ራ</w>
የተ ላ
ዘር ፎች</w>
ጬ </w>
ይማኖ ት</w>
በ ኔ</w>
አል ሆነ
አህ መድ</w>
P S
ሙ ቀ
የመ ግ
ከናወ ነው</w>
ነጻ ነት</w>
መምህ ራን</w>
ቢ ሆኑም</w>
ደንበ ኞችን</w>
ቸ ገ
የ አር
ኛ ት</w>
ይቀጥ ላል።</w>
አል ተሰ
የመ ሰለ</w>
ታ ችሁን</w>
App le</w>
የሆኑ ትን</w>
ባይ ሆን</w>
ስል ጠና
ልጆ ቻ
ላ ለሁ</w>
ጀ ብ
ኛ ል፤</w>
የም ፈልገው</w>
መ ቱ</w>
ምክንያ ቱ
ኦ ፊ
ተገ ረ
ይሆና ል?</w>
ንስ ሐ</w>
ቁሳቁ ስ</w>
በመ ል
የሚ ባለ
እገ ምታ
ሙ ትን</w>
የገ ቢ</w>
7 :
ኮ ዝ</w>
ተነ ስቶ</w>
or e</w>
ፍት ሕ</w>
ጉ ን
መስ ማ
ገንዘ ቡ</w>
አ ናት</w>
ተ ወያ
ጀ ግ
በመሠ ረቱ</w>
መሳ ሰል</w>
ጠ /
ፎቶ ዎችን</w>
አቅራ ቢ</w>
ጉ ር</w>
ፈቀ ደ</w>
ለህ ፤</w>
ብ ፁ
ኤ ፍ</w>
ደ ሰ</w>
አይ ሰጥ
ተ ዘ
ላይ ።</w>
ፉ በት</w>
አዝማ ሚያ</w>
አይቀር ም</w>
በ ራት</w>
ሽ ው</w>
የ ቻ
ዕድሜ ያቸው</w>
ተ ኞቹ</w>
ደራ ሲ</w>
ው ንና</w>
ለመ ጨረሻ</w>
ዳ ሩ</w>
ክ ሽን</w>
ጓ ቸው</w>
ትኩ ስ</w>
ሲ ሄድ</w>
ፈጸ መው</w>
ያስተ ም
አኳ ያ</w>
ለማስ ቀመጥ</w>
እያንዳን ዳችን</w>
ስ ካ
ተ ፋ
ምት ኬ</w>
ለመክፈ ል</w>
ያደርጋ ል.</w>
ጠበ ቃ</w>
ሡ </w>
ጣዕ ም</w>
ጤ ንነት</w>
ቶች ዎ</w>
መ ቅረብ</w>
ው ሞ</w>
ተ ሟ
ጠ ቢ
የተ ከፈ
መድረ ኮች</w>
አዋ ቂ</w>
ሰ ዎቹ</w>
' የ
an d
3 -
ዲሞክራ ሲ</w>
የመ ላ
አቤቱ ፥</w>
ሁ በት</w>
ማ ድ
ልጆ ቹን</w>
ይፈልጋ ሉ።</w>
ካለ ፈው</w>
ተ ቆ
ሳይ ሆን
አይ ሰማ
ዮ ርዳ
Pl ay</w>
ሴ ራ</w>
ሐ ዲ
on t
ያሳ ው
በ ነበረው</w>
ይመስ ላል
ነፃ ነት</w>
ቸው ንና</w>
ቴክኒ ካዊ</w>
ሰ ው።</w>
የሚሆ ነውን</w>
ታው ቁ</w>
ገብ ቶ
ጀም ሩ</w>
እ ዚሁ</w>
ኅ ብረት</w>
ገ ጠመ
በ ን</w>
ሮ ው</w>
1 ,
ስር አት</w>
ን ፥</w>
ባ ንድ</w>
ላ ንድ
ጎበ ዝ</w>
አይ ነቶች</w>
ባ ላቸው</w>
ማም ረት</w>
ሙሉ ውን</w>
አገ ሩ</w>
ደ ኅ
የማይ ችል</w>
ኢ ሕ
አል ፈልግም።</w>
ዎች :</w>
ለመቀ የር</w>
ጸ ን
የጎ ደ
ከ ኔ</w>
ስርዓ ቶች</w>
ያደረ ጉት</w>
ያልተለመ ደ</w>
በ እር
በ ብ
የ ጀመር
ነ ታችንን</w>
ጂ ን</w>
ትን በ
ሁኔታ ዎችን</w>
ይገናኛ ሉ</w>
የተጣ ራ</w>
ወ </w>
አል ተሳ
ተጠ ራ
መቀ መጥ</w>
ከ ብር</w>
ተ መን</w>
ብ ዬ
ar </w>
ታ ር</w>
ህል ውና</w>
ኛ ለሁ</w>
መ ኖሩ</w>
አስተዳ ዳሪ</w>
ይን ገ
ጊዜ ያ
ይ ር
የሚከተ ለው</w>
መነ ሳት</w>
ቢዝ ነስ</w>
2 -
ደረ ቅ</w>
የለ ብን
አድርገ ዋል።</w>
አምራ ቾች</w>
ሐ ሰ
ጎን ደር</w>
አን ዲ
ብር ቱ
የሚገ ቡ</w>
20 00</w>
ሰ ፍ
ፎቶግራ ፍ</w>
ኛ ም</w>
ች ሎት</w>
ስተ ው</w>
ሲ ታ
ሰ በብ</w>
ባ ዮ
ፃ ናት</w>
የነበሩ ትን</w>
ከባ ቢ</w>
ሆነ ዋል።</w>
አ ሳይ</w>
ይናገ ራ
ወ ርድ</w>
በሕይወ ቴ</w>
በ እንደዚህ</w>
K </w>
፫ </w>
የተ ገኘ</w>
ቆጠ ብ</w>
ማ ስ</w>
ተ ባለ
ማዳ መጥ</w>
W </w>
መ ሃ
ፍጡ ር</w>
ብ ነት</w>
ግድ ቡ</w>
ካ ሳ</w>
ስ ቱም</w>
ዓመ ቱን</w>
ወስ ዶ</w>
ድም ፅ
ትላ ንት</w>
ታ ካ
መንስ ኤ</w>
አያው ቅ
ሮ ጥ</w>
s .</w>
ይገ ድ
ወስ ዱ</w>
ስራ ዎችን</w>
:2 1</w>
ያስ ባ
ነኝ ፤</w>
ማ ናቸውም</w>
ጋ ል</w>
እን ሰራ
ያ ላት</w>
ወለ ደ</w>
ነበር ፣</w>
ጥ ቅ</w>
ጣ ጣ
ው )</w>
መረ ጋ
ል ን።</w>
ተ ዘር
ጦ ማር</w>
:2 4</w>
የሚ ሰራ
ያለ ኝ</w>
ተ ያያ
ዬ ም</w>
እም ብዛም</w>
ለማው ረድ</w>
አባ ታችን</w>
ሕ ንፃ
በይነገ ጽ</w>
መንግስ ታዊ</w>
ላ ቸውም</w>
ፈ ሳሽ</w>
ከ ዛም</w>
አው ራ</w>
አስ ረድ
ተጋ ብ
ይታወ ሳል።</w>
ተሸ ክ
ማረ ፊ
የመ ገናኛ</w>
ች ፥</w>
ያስ ረዳ
ቱ ,</w>
ኬ ንያ</w>
ሠላ ም</w>
መሳ ተፍ</w>
ጠ ጣ</w>
ነፍ ስ
ሳይ ቆይ</w>
ዘንድ ሮ
ው ጊያ</w>
አምባ ሳ
መስ ቀ
ዌ ር</w>
አስታው ቋል።</w>
በማ ለ
ሊ ኖሩ</w>
n e
ወ /
በመ መር
ቪ ድ</w>
በ ሬ</w>
በ ቤ
ይቀጥ ላል</w>
ቤ ቶችን</w>
ረሃ ብ</w>
ምስጋ ና
ጥ ።</w>
r c
ከ ስ
ጥ ቆ
ወላጆ ቹ</w>
አድራ ሻ
ኀ ጢ
ሁነ ታ</w>
እየ ሞከ
ጥ ና</w>
ደንበኞ ቻችን</w>
ተስፋ ዬ</w>
ሲቪ ል</w>
ጎዳ ና
ጮ ኸ
ች ሉት</w>
ም ሮ</w>
ዎ ቼ</w>
ገ ድ</w>
አ ሲ
ለምሳሌ ,</w>
አግኝ ቷል</w>
/ >
ግዛ ቶች</w>
ቃ ቂ</w>
ጡ በት</w>
የሚ መረ
ጠበቀ ው</w>
መ ሞ
ጥ ሎ</w>
የሚሰጡዋቸው ን.</w>
ጠ ሪያ</w>
የተ ያያዙ</w>
ያን ተ</w>
ምሁ ራን</w>
ዘ ዳግም</w>
ዘር ላንድ</w>
q u
ሃ ድ</w>
በት ፣</w>
S A
p l
ይደረጋ ል።</w>
ወንድ ሙ</w>
ነፍ ሴ</w>
ታ ል፤</w>
የምስ ክር</w>
ዳ ሪዎች</w>
አታው ቁ
ኤ ክስ
4 00</w>
እንዳለ ብኝ</w>
አይ ጨነ
ለሁለ ተኛ</w>
ገ ዥ
ይመ ራ
ግል ጽ
እንደ ነበሩ</w>
ጨር ቅ</w>
እስ ከመ
እንመልከ ት።</w>
eb ook</w>
በሚ ገኘው</w>
በ ከ
ን ...</w>
ሁላ ችን</w>
እላ ለሁ</w>
አልቻ ሉም።</w>
ቁር ኣ
እያ ደረ
ይገ ዛ
የሚታ የው</w>
ፍ ተ</w>
ፋይ ዳ</w>
አደ ራ
የሚ ሄድ</w>
ስለ ምን</w>
ድካ ም</w>
የተዘጋጀ </w>
ወታ ደር</w>
ለማ ር
አ ደረጃ
በዓ ላት</w>
ማዕ ድን</w>
ፈ በት</w>
ወ ፍ</w>
ወለ ድ
ሾ </w>
ደ ነገ
ገበ ው</w>
ጎ ማ</w>
ም :</w>
መሳ ሪያ
መመ ገብ</w>
ይ ሳ
ዘላ ለማ
አ ሠ
ዘጋ ጃ</w>
አሰልጣ ኝ</w>
Th e</w>
ጊዜ .</w>
ተጠ ናቀ
ቅ .</w>
ለመ ጫን</w>
ፈረን ሣይ</w>
በስተ ቀር
መሰ ግ
እንደሚ ሉት</w>
3 6</w>
ሰ ሳ</w>
ያካ ተ
የሚሰ ጡ</w>
መስታወ ት</w>
ልዑ ል</w>
ከ ምት
ም ም።</w>
እንዲ ያደርጉ</w>
አዎ ,</w>
ሂ ሳ
ጆር ጅ</w>
የቀረ በው</w>
የለው ጥ</w>
በረ ራ</w>
ምር ቱ</w>
የሚያስ ከት
በ ጋ
ለማ ገዝ</w>
አቡ ነ</w>
ቆይ ቷል</w>
ስል ኮች</w>
ደር ጉ</w>
ደ ሰት</w>
አባ ቶቻችን</w>
ወረ ዳ</w>
መ ጣም</w>
ሆነ ህ</w>
ሸ ቀ
ሰ ጪ</w>
ያጋ ጥ
የ ሕይወ
ኢያ ሱ</w>
ፍት ሃዊ</w>
ጢ ር</w>
የ እምነት</w>
ክብ ደ
ነ ቴን</w>
ያውቃ ሉ።</w>
ል በት</w>
ለመ ቆየት</w>
ያገኙ ት</w>
of </w>
ንግ ስት</w>
ፈጽ ም</w>
ሞ ቹ</w>
መ መዝገብ</w>
እ ጄ</w>
ተደራ ሽ</w>
ያቀር ባል</w>
ብርሃ ን
ቅር ፅ</w>
ለ ዓመታት</w>
ዕ ና</w>
ደን ቅ</w>
ዝር ያዎች</w>
ተጫ ው
በ ውን</w>
ጭ ፍ
የሚ ከፍ
ነሳ ው</w>
ስሜ ታዊ</w>
ል -
ወንዶ ችና</w>
ል ጇ
200 4</w>
ድ ሶ</w>
ለመ ሳተፍ</w>
፬ </w>
ይሞክ ሩ</w>
እንዲ ችሉ</w>
ኛ ል!</w>
ካህ ና
መ ታወቂያ</w>
አቅራ ቢዎች</w>
ከ እ
ጎብ ኚ
የ አካባቢው</w>
ግ ሪ
ያስተ ላል
ኙ ን</w>
ንፁ ህ</w>
ለን ,</w>
ማሳ ወ
አሁኑ ኑ</w>
ስብ ስ
ፐ ር
አይ ቶ</w>
ከ ነበረው</w>
d i
ati on</w>
ዓመ ት
በ ሀገራችን</w>
ሠ </w>
ያዕቆ ብ
ሊ ል</w>
የተ ባረ
ያለ ን።</w>
አገ ራ
ሄ ጄ</w>
ስላ ም</w>
ማ ቅ</w>
ለ ች.</w>
ገባ ።</w>
አለው ,</w>
አ ጎ
ኚ ህ</w>
ተ ውን</w>
አስከ ፊ</w>
ገባ ን</w>
መስ ዋዕ
ጭ ንቀ
አሉ ?</w>
እ ት
መብ ት
ደጋ ፊ
መ ሞት</w>
an d</w>
መ መለ
ለማ ገልገል</w>
በ ነ
በ ሆ
በማ ይ
ፍረ ስ</w>
o b
ፈተና ዎች</w>
ኪ ስ</w>
ተ ኛውም</w>
በ ጥቂ
በማ ቅረብ</w>
ሟ ሉ</w>
" ጌታ</w>
ር ቶ</w>
ዎች )</w>
እፈልጋ ለሁ.</w>
ይህ ችን</w>
የ ብድር</w>
ትምህር ቱ</w>
በእውነ ተኛ</w>
እርምጃ ዎችን</w>
ለ ተጨማሪ</w>
ያገ ና
አይች ሉም.</w>
S h
ተቋ ቋ
ጆ ቹ</w>
3 8
ያስ ችለ
ች ?</w>
ተ ቆጥ
~ </w>
አስፈላጊ ው</w>
ወጣ ።</w>
እንደዚ ሁም</w>
ተገ ነዘ
Re ad</w>
በማ ድረ
ቀጣ ይነት</w>
ላ ለ</w>
አሳ የ
ሳይን ቲ
እን ሰጣ
ፈ ታ</w>
ወደ ብ</w>
ዓይ ኖች</w>
ጫ ካ</w>
ማሳ ደግ</w>
ና ው
ፍልስፍ ና</w>
ሰ ህ</w>
ጊዜ ።</w>
የመ ር
የ ብረት</w>
በሰ ባ
ሀ ላፊ
ጠ ባ</w>
እ መጣ
በየ ሳምንቱ</w>
ዕረ ፍት</w>
ኛ ለሁ።</w>
ነበ በ</w>
ተነ ስ
ተልዕ ኮ</w>
ከመ </w>
አህ ያ</w>
ሽማግሌ ዎች</w>
ልዩ ነቶች</w>
መ ኖራ
የ ጀመረው</w>
ገ ፅ
ማ በረታ
ጥ ግ</w>
የተፈጠ ረው</w>
የሚ መጡ</w>
ዳ ውያን</w>
እንችላ ለን?</w>
በተ ሳካ</w>
ቋር ጥ</w>
ይስ ሐ
መረጃ ው</w>
ለ ቅ</w>
ድም ፃ
ወሰ ደ</w>
አራ ቱ</w>
ቻይ ና
የ ድ
ለመ ከታተል</w>
የተ ፃ
ኦር ቶ
ሌዋ ውያን</w>
ፋ ይ</w>
ቅድ ስት</w>
ሯ ን</w>
ዎች ዎን</w>
ሲ ደርስ</w>
ይጠ ቁ
የ ቤ
ረ ው።</w>
t er</w>
ዘ ጋ</w>
የተ ረጋገጠ</w>
ብ ሮ
Mac </w>
የ ቅን
ዎች ንም</w>
ሚካ ኤል</w>
ወድ ቅ</w>
ማከማ ቻ</w>
ገብ ተው</w>
ችሁ ንም</w>
በ ንግድ</w>
በ ነበረበት</w>
ግዴ ታ
አለ ቆ
ባ ዩ</w>
ሏ ል.</w>
እርስዎ ም</w>
በ ቱ</w>
በ ሲ
የ አን
ው ሾች</w>
ካ ገኘ
አድና ቆት</w>
አክብ ሮት</w>
ምሕ ረ
እንዲ ያስ
200 5</w>
አሳ ማ
ትንታ ኔ</w>
el </w>
ደ ደ</w>
የ ከፍተኛ</w>
ሹ ራ
አስ ደን
6 0
በየ ዕለቱ</w>
ኛ ና</w>
ንጉ ሥ
ቀ ው
ለመ ደገፍ</w>
ግ ቡ</w>
3 4</w>
ኑ ክሌር</w>
የምን ዛሬ</w>
ፋ ሪ</w>
እያ የ
ሾ ችን</w>
አሉ ኝ።</w>
ለመ ጓዝ</w>
ጠብ ቆ</w>
የተ ረጋጋ</w>
ይግባ ኝ</w>
ይ ራ
በ ይ</w>
ስ ሪ
ሰራ ጨት</w>
መ ጸለይ</w>
in e</w>
ፈል ጎ</w>
ተ ለያ
( s
ስለ ት</w>
ለ ዘ
ጠየቀ </w>
ለማ ችን</w>
ተሞክ ሮ
ህ በረ
ኬ ቶች</w>
ስለ ም
መ መርመር</w>
ጡ ረታ</w>
የ ጥራት</w>
ግለሰ ቡ</w>
ወለ ዱ</w>
ነበር ና</w>
በመ ደበ
ቧን ቧ</w>
ድርጊ ቶች</w>
ou t</w>
ግብ ር
ይሻ ላል</w>
እውነ ተኛው</w>
ለማው ጣት</w>
ውሸ ት</w>
አስ ቀ
የ ደንበኛ</w>
በ ቁ</w>
ይ ነግረ
ከፍ ተኛ
ቀ ኛ</w>
ለመ ሸጥ</w>
እንደሚ ፈልጉ</w>
ጽሑ ፎች</w>
የማ ህበራዊ</w>
ቪድ ዮ</w>
ማ ወቅ
አንባ ቢ</w>
ሃገ ራት</w>
የሚበል ጥ</w>
ሀ ያ</w>
ነገ ረው</w>
ፍ ቺ</w>
ያ ዳ
በ ኮ
ሌ ባ</w>
ግድ ግዳ
ካ ም</w>
ሩ ብ</w>
ማ ሟላት</w>
ማ ሞ
ይ ስ</w>
ሸ ሽ
ጥም ረት</w>
የ ሀገሪቱ</w>
ተ ጀም
ይ በቃ
የ ከበ
በራ ሴ</w>
አ ቤት</w>
ላ ላቸው</w>
ሰ በው</w>
ኔ ዎች</w>
የ ሮ
ው ሎች</w>
በየ ወሩ</w>
ሰ ዋ
ወንድ ማማ
በ ላይ</w>
አብያ ተ</w>
ልጆ ቻቸውን</w>
ላ ሉ.</w>
ዊ ውን</w>
በ ።</w>
ፍለ ጋ
የተ ዘረዘ
ቢ ን</w>
ህ ን
የተናገ ረው</w>
3 5
ተማ ር
7 "></w>
እያ ልን</w>
አድር ገና
በመ ጥ
ሥ ላ
ለማ ጠናቀቅ</w>
e .</w>
ዉ ም</w>
የታ ቀ
ተገቢ ውን</w>
ማ ተ
ጣ ራ</w>
ጡ ም</w>
በ ምድ
ሻ ል።</w>
ዓይ ነ
በ ነዚህ</w>
ኪ ንግ</w>
ሥራ ን</w>
ማ ጠቃ
ይቻ ላል
ኒ ያ
ፈል ግም
የቆ የ</w>
ፊ ደ
ጾ ታ</w>
እም ቢ</w>
ላን ተ</w>
ያለ ነው</w>
አፍ ሪ
መቃ ብር</w>
ጌ ጣ
ድልድ ይ</w>
ሰ ጪ
ላችሁ ን</w>
2 "></w>
የማ ውቀው</w>
ተ -
አራ ተኛ</w>
ካ ው</w>
የሚጠ ጉ</w>
አልቻል ኩም</w>
ነበረ ኝ</w>
ሞዴ ሎች</w>
ኦሮ ሚያ</w>
ተከ ፈ
ተ ደረገ
ፋ ፋ
a m</w>
ግር ማ</w>
በ ከተማ</w>
ቅ ስ
ብሉ ይ</w>
ያ ጠና
ግባ </w>
በመ ር
Tag :</w>
ፍር ሃ
አል ነበራ
ፄ </w>
የ ፒ
ካሄ ዱ</w>
ነጻ ጸ
ጥቅ ሶች</w>
የ ጽሑፍ</w>
ነኝ "</w>
ም ፕ
መተ ን
ጉዳ ቶች</w>
ኛ ል?</w>
ለ ካ</w>
፭ </w>
ይኖርብ ናል።</w>
በ ሂደት</w>
ማራ ኪ</w>
ማ ጥናት</w>
በቀ ል</w>
እ ትም</w>
ለሁ ...</w>
ነ ቅ</w>
ቶ ት</w>
ታ ች
እንዲ ሰማ
ጓ ዛ
ቦታ ው</w>
ምሕ ረት</w>
ደረ ጉ
የተ ገኘው</w>
ዋ ር</w>
እን ሄዳ
ሰሌ ዳ</w>
ማቆ ሚያ</w>
ሕዝ ባዊ</w>
ይ መሰ
ያለማ ቋረጥ</w>
ዲ ሲ</w>
አይ ኖረ
በእ ጁ</w>
ሊያስከት ል</w>
ኛ ዎች</w>
ምርጫ ዎች</w>
ይ ፈር
የ ግንኙነት</w>
የታ ተ
E x
ቢያ ው</w>
እን ቀጥ
መን ቀሳቀስ</w>
የለ ንም።</w>
ወ ዱት</w>
አማራ ጮችን</w>
ሃገ ሪቱ</w>
ግብ ዣ</w>
አየ ር
9 )</w>
አስተ ም
e g
ፍ በት</w>
ፕላ ስቲክ</w>
ቀ ቀ</w>
ዘ ጸ
ቆ ጠር</w>
" እግዚአብሔር</w>
ፍ ቅረ
ሰ ገ
ደ ዱ</w>
ነ ብ</w>
በ እስር</w>
ዝውው ር</w>
መ ህ</w>
በተ ና
ማኅ በር</w>
የተ ደራ
ዜጎ ችን</w>
ፕሪ ል</w>
ለ ምን
ተከ ላካ
መዝ ገ
ጠናቀ ቀ</w>
ተ ስተ
ንግ ሥት</w>
ነገ ራ
ያለ ፈው</w>
ዎት ም.</w>
አይ ተ
በመመር ኮዝ</w>
ኪንግ ደም</w>
ረ ቡ
ኖሩ በት</w>
አደረ ጉ
ም ፤
ቅጽ በት</w>
ማሳ ለፍ</w>
ዩኒቨር ስቲ</w>
እንዲ ኖረው</w>
ምህ ረት</w>
ማ ዶ</w>
ጭ ቆ
ኖ ኅ
ይመልከ ቱ።</w>
ና ቅ
ታ ታ
ሪ ና</w>
ይቆ ጠራ
ወጥ ተው</w>
እን ሆና
th e</w>
3 8</w>
ዎች "</w>
ኛ ዋ</w>
ን ኛ</w>
ሰ ዋል</w>
:2 3</w>
ዳይሬክ ተር</w>
አን ችልም</w>
ተቃዋ ሚ</w>
ተሽከርካ ሪዎች</w>
ባ ቸዋ
በ ትንሹ</w>
ገ ጃ
ማኅበረ ሰብ</w>
ስ ፋት</w>
መቆጣጠ ሪያ</w>
"ለ ምን</w>
ባለ ቤቱ</w>
ሳ ም</w>
ጋን ዳ</w>
አነ ጋገር</w>
ንቀሳቀ ሱ</w>
ዘመ ድ</w>
አለ ዎት?</w>
ና ል፤</w>
ከ ላ
ና ግ
ብ ለው
እንግ ዶች</w>
መ ጨነቅ</w>
ሊ ታይ</w>
የሚ ኖረው</w>
በጥ ልቀት</w>
v </w>
ውድ ቅ</w>
አስ ማ
ልጆ ቻችን</w>
ጠበ ቃ
የ ዘለ
ጨ በ
ባለ ን</w>
ሳ ቸውን</w>
ይጀም ራል።</w>
ያስ ወግ
ሥ ፍራ</w>
ጹ ን</w>
ጠረጴ ዛ</w>
ይበ ሉ</w>
ዘ ራ
ስቴ ት</w>
ስ ፓ
ሰብ ን</w>
መው ጣ
= "
ማ መልከት</w>
ሂደ ቶች</w>
ትግ ሬ</w>
ኩ ረት</w>
እርካ ታ</w>
C om
አይ ነ
ር ስት</w>
ኩ .</w>
ታ ጣ
ነጥ ቦችን</w>
በ ከንቱ</w>
ጨረ ስ</w>
እንፈልጋ ለን።</w>
ታ ት
ሰው ዬው</w>
እን ነጋገ
ያገ ኘው</w>
ያ ዋ
ንቅ ና
ና "</w>
ጨር ሶ</w>
እብ ድ</w>
ዋሽ ንግተን</w>
ትዕ ይንት</w>
ይ ከታተ
አላ ደረገ
ደር ሶ</w>
በ እርግጥ
የመ ለ
ዘመ ዶ
ኢ ራን</w>
d r.</w>
አስተዳ ደ
ከ ሰዎች</w>
ት ገኛ
በ ምርጫ</w>
ዱ በት</w>
ፆ ች</w>
ጽ ዮን</w>
ከነ ሱ</w>
ጠላ ቶች</w>
መልካ ም
ጋ ኝ</w>
ያ ክ
የት ኛውን</w>
ንግ ዶች</w>
ለ በት</w>
መም ሪያ</w>
ኪ .</w>
አሜሪካ ውያን</w>
ኛ ን</w>
ገንዘ ቡን</w>
ያው ቀው</w>
ለ ነ
f </w>
ቅ ጥር</w>
መንፈ ስ
ል ሽ</w>
ቆ ስ</w>
ላ ለመ
10 0
ቴ ና</w>
ቂ ያው</w>
መለከ ቱት</w>
የተ ገኘ
ቹ ንም</w>
አባ ቶቻ
t er
ብሪታ ንያ</w>
ቢ ራ</w>
ቁ ትን</w>
መዋ ቅ
ትምህር ት
የ እስራኤልም</w>
at s
የሚ ደር
ኒ ን</w>
C l
ፊል ሙ</w>
ወሲ ባዊ</w>
ሆኑ ።</w>
ደጋግ ሞ</w>
ደ ብ</w>
Fac ebook</w>
ቀጥ ሉ</w>
ወረ ደ</w>
ብሔ ረ
ምላ ሽ
መ ኑ
F i</w>
ቋ ቸው</w>
ች :</w>
ደን ቃ
የሚያ መለክ
ከባ ቢው</w>
የ ሲ
15 0</w>
አለ ቆች</w>
ር ነት</w>
መጽሐ ፉ</w>
A d
እ ዛው</w>
ቀ ቁ</w>
ት ኖራ
ተማ መን</w>
T un
ተጽ እኖ</w>
በ ሴቶች</w>
ጾ ችን</w>
ጣቢያ ዎ</w>
በ ወ
ሚሊ የን</w>
ጠራ ቀ
ይረዳ ል</w>
ወድ ጄ
ዋ ል,</w>
ኢን ጂ
ባለ ስልጣን</w>
ፍ ።</w>
ተ ለው
ይፈልጋ ሉ.</w>
ሃይማኖ ታዊ</w>
ተጫራ ቾች</w>
የመ ተግበ
ባ ስ</w>
ጋ ታ</w>
የፈለ ግ
ኮ ራ
በሚ መለከት</w>
ዑ ደት</w>
ወል ቃ
ምድር ም</w>
ሙ ሴን</w>
ዝና ኛ</w>
ቶ አል
የተ ሠራ</w>
ዎ ቻ
ማድረ ጉ</w>
ለማ ቆየት</w>
በላ ቸው።</w>
ሞ ና</w>
ማ ድረስ</w>
ንቶ ስ</w>
ነት "</w>
እንደ ሆነም</w>
ሪፐ ብሊክ</w>
ያረጋግ ጡ</w>
ባን ኩ</w>
እነ ዚህ
ጉድ ጓድ</w>
ይ ከናወ
ውጫ ዊ</w>
ላ ን</w>
ካቶ ሊክ</w>
በ ይነመረብ</w>
ጣ ሉ።</w>
ይ ክፈ
የተፈጠ ረ</w>
የ ሴ
እ ጽ
ነገ ሩ
ጸሐ ፊ</w>
ያለ ቅ
መፍ ራት</w>
ተ ኩል</w>
ባሕር ይ</w>
ሞ ታ
የሚ ስብ</w>
ለመ ቅረ
ግ ሉ</w>
የ ውድድር</w>
ለማ ድረግ
እየመ ጣ</w>
ትን ሳ
ተመራ ማሪዎች</w>
ለ ,</w>
የሚያስ ፈልጋ
የ ክልል</w>
ግ ዢ</w>
ለመ ላክ</w>
አገ ባ
ይመስ ላል.</w>
ይ ዋ
ዝ ግ</w>
ለ ባ
ች ኝ</w>
ኝ ፥</w>
ጹ ት</w>
ዷ ቸው</w>
መኮ ንን</w>
ሕዝ ቦ
C A
የ ሆን
በር ግ</w>
m ent
ፀ ሎት</w>
ደ ጃ
ውጤታማ ነት</w>
‹‹ የ
አምና ለሁ</w>
በዋነ ኝነት</w>
ጥቃ ቅን</w>
ሰብ ስ
አንዳ ር
ናቸው ንም</w>
በ እጅ
ሞ ን
ተሳታ ፊዎች</w>
ተ ጎ
በ ጸሎት</w>
መጥ ቀስ</w>
መላእ ክ
ጻ ፈ
መ ዓ
እስ ማማ
ተግዳ ሮ
ሞ ኝነት</w>
ገበ ያዎች</w>
ያመለክ ታል።</w>
ሲ ሉም</w>
ጂ ዎች</w>
ከን ቲ
፮ </w>
አብ ዝ
ኝ በት</w>
ታዳ ሚ
ካ ሳ
ማጣ ሪያ</w>
አስፈፃ ሚ</w>
መዝና ኛ</w>
ሦ ስተ
:2 5</w>
የሚ ከሰ
የሚ መስለ
ኤ ን
:2 6</w>
5 -
የሚያ ረጋግ
የለ ም!</w>
እግ ሮ
ስጦ ታዎች</w>
ፖለቲከ ኞች</w>
ያ ጠ
የሚገኙ ት</w>
ኦ ፕሬ
ተለይ ቶ</w>
በ ሌለ
ስያ ሜ</w>
በመ ቀጠል</w>
በላ ው</w>
ያስተ ዳ
ወይዘ ሮ</w>
ኮ ሜ
የ ፓ
ለ ንግድ</w>
ህፃ ን</w>
ይ ዙ</w>
ማ ጋራት</w>
ደሞ ዝ</w>
በአ ቅራ
ይኖር ባቸዋል።</w>
የሚያስ ፈልገው</w>
ል ››</w>
ሀገ ራዊ</w>
[ .</w>
ፓው ንድ</w>
አሁን ,</w>
ድ ሃ</w>
ይዤ </w>
እ ይ
አል ኩ
ወደ ደ
ብል ጽ
ገደ ቦች</w>
ጅ ማ
የማ ሳ
ውቅ ያ
አያው ቁም</w>
በመ ሰረ
ላ ቸዋ
ያ ዳም
ካር ቦን</w>
ይ መርጣ
መቀ ሌ</w>
ትችላ ለህ</w>
ምን ዛሬ</w>
ኤ ች</w>
ሸ ክም</w>
መው ደድ</w>
መልዕ ክቶች</w>
3 7</w>
ው ጥረት</w>
ወ ክ
ነገ ሮ
ምክንያ ት,</w>
መገለ ጫ
ሊ ድ</w>
የሚ መስል</w>
ባለ ን።</w>
ለ ፊ
ምክንያ ት
ካ ቸው</w>
በ የትኛው</w>
ወዘ ተ
i p
ጭብ ጥ</w>
ጥ ለው</w>
ተ ጭ
ምሳሌ ዎች</w>
መ ት
ተጠ በቀ</w>
መለ ዋወ
ያ ዋን</w>
ብቻ ዬን</w>
ባቢ ሎን</w>
/ ቤቱ</w>
ውጤ ቱን</w>
: )</w>
እ ወድ
አሸ ነ
ሙ በት</w>
መል ሱን</w>
ትውስ ታ</w>
መ ኾ
ሙከራ ዎች</w>
በ ሱ</w>
ስለ ጀመሩ</w>
የ ሁለተኛ</w>
ምት ክ</w>
ግን ብ</w>
ይሰማ ኛል።</w>
ከ ሌሎቹ</w>
አንቀ ፅ</w>
ሽ ት</w>
ሰራ ዊ
ሕ ንፃ</w>
ተ ላል
በሚ ያሳ
ፋ ኑ</w>
ካፒ ታል</w>
እነሆ :,</w>
ነጋ ዴ</w>
መ ባ
ለ ሕዝቡ</w>
ከ በር
ችሁ ፤</w>
ከ ሌ
ከ ልጅ
ሱ ና</w>
መለ ወ
የቀ ለም</w>
እ ራሳችንን</w>
ተ ሞል
ብ አዴ
ተ መረ
ቢ ባል</w>
ሪ ም</w>
ጠቀሙ ባቸው</w>
ሰዓ ቶች</w>
አይች ሉ
ቃላ ትን</w>
ሀ ን</w>
ስቲ ክስ</w>
ቆ መ</w>
ማ ታ
ይለ ኛል</w>
ከ ጓደኞ
በ አንጻ
ይሰጣ ሉ</w>
ያደረገ ውን</w>
የባለ ሙያ</w>
ጠ ጋ</w>
ወ ት</w>
Ethiopi a:</w>
ባለሥልጣ ናት</w>
ተመስ ገን</w>
ለተ ለያዩ</w>
ጨር ስ</w>
o d
ቢ ሲ</w>
አቅራ ቢያ</w>
መጽሐ ፉን</w>
የ ክልሉ</w>
ው ታል።</w>
ሆነ ች</w>
ቢ ሊ
አድር ግ</w>
ሃሳ ቦች</w>
እግ ሩ</w>
ችሁ ፣</w>
በ ራሳችን</w>
ለማስ ታወስ</w>
ይ ጨ
ስ ሜ</w>
ዘ ረጋ
ኤጀን ሲ
ኢ ሳ
ቅ ጥ</w>
ላ ስ</w>
ከተ ሞ
እ ጣ</w>
መሥ ሪያ</w>
እንዲ ኖራቸው</w>
ውይይ ቱ</w>
አ ሽ
ገ ርም</w>
ያድርጉ ።</w>
የማ ይገ
ዕለ ታዊ</w>
ዓ ሳ</w>
የሚ ተ
ቨ ር</w>
ክፍ ተ
ገ ኘት</w>
ac k
ፍ ሎ
1 :</w>
የማ ጣ
ው ሰድ</w>
መንገ ዶችን</w>
ዝር ዝር
አልቻ ለም</w>
ብ ስ</w>
ስ ተ</w>
ለመ ጨመር</w>
ፕሬዝ ዳን
ለመ ቋቋም</w>
ይደግ ፋ
ት ች
ዎታ ል?</w>
ፀ ው</w>
የ ጸሎት</w>
ቅዱ ሳት</w>
ው ጭ
በመ ቀ
ሪያ ን</w>
በ ዓል</w>
ሰ ፈ
ስ ነ-
App </w>
ቅድ ም</w>
ጠረ ዥ</w>
ስድ ብ</w>
የሚ ጠቅ
ዘንድ .</w>
ነገሥ ት</w>
መላ ውን</w>
ዋ ሪ</w>
ቃ ይ</w>
ዋ ለን</w>
ለ ጥ
ተ ፎካካ
ሞ ት
ረ ጃ</w>
ደ ፍ
ይሻ ላል።</w>
th </w>
ተገን ዝ
ራ ለን</w>
ደር ሷል</w>
ማ ማ</w>
ዝ ንባ
በሚ ሆንበት</w>
ሚ ና
N A
ቱ በት</w>
ቀ ሻ</w>
በ ሐ
s s</w>
ጎረ ቤት</w>
የሚ ሠራ</w>
ተማ ሪዎችን</w>
ሴቲ ቱ</w>
3 9
እስ ክ
አለብ ኝ?</w>
ይገባ ዋል።</w>
ከባ ከ
v e
ል ፤
ቲ ያ
ምና ምን</w>
ሳ ም
... ?</w>
የ ደንበኞች</w>
ድርጊ ቱ</w>
በጥቂ ቱ</w>
የ ድር
አታ ድር
የለ ም"</w>
እራስ ዎ</w>
በመፍ ጠር</w>
በስተ ጀርባ</w>
ለ ሴቶች</w>
ይጠ በቃል</w>
re n
Wh ats
ነ ቷ</w>
ቢ ነት</w>
ሥርዓ ቱ</w>
አይመስለ ኝም</w>
ር ስ
ለሚ ፈልጉ</w>
ያ ቃ
ገበ ያ
ዶ ም</w>
አይደ ሉም.</w>
መተ ኛት</w>
በ ቁጥር</w>
መለ ሰ</w>
ጐ </w>
ሳንቲ ም</w>
ላ ቸው
መጥ ፎ
እንዲ ያው</w>
ሳ ታ
ሞክ ሩ</w>
አሮ ጌ</w>
ሕዝ ቤ</w>
የመግ ቢያ</w>
እየሰራ ን</w>
እላ ለሁ።</w>
የ ከተማ
ዓለማ ችን</w>
ኤል ያስ</w>
ይ መዝ
የሚ ከፈ
ር ቀ
ጠ ነ</w>
እንዳለ ብን</w>
ሲሆን ፤</w>
ሰ ለት</w>
ጠቁ መዋል።</w>
አጋጣ ሚ
ፈራ ው</w>
ግብ ፃ
ፈቃ ድ
በ ሰው
አርቲ ስት</w>
ሸ ፍ
ጠ ጡ</w>
ኦ ባ
ስ ለመሆኑ</w>
እንመ ክራ
ኖር ዌይ</w>
መ በት</w>
የሚ ናገር</w>
ልም ዶች</w>
ተቀ ላ
መል ሶ
ቷ ቸው</w>
ል ድ</w>
ከ ቀ
አቀ ባበል</w>
አ ያሳ
it co
የም ድ
ኒ ክስ</w>
ከ ወ
መንፈ ሳ
ፌዴ ሬሽን</w>
ምስ ራ
በ ላይ,</w>
ለ ሽ
CO VI
ው :</w>
ፎ ቅ</w>
ሲ ዳ
መና ፍ
ታው ቀው</w>
i Tun
የ ስ</w>
ጤ ን</w>
ተ ደጋጋሚ</w>
በላ ዩ</w>
ምኒ ልክ</w>
ለ ገ
አያስፈል ግም</w>
ት መ
መለ ኪያ</w>
ለ ይ</w>
ሲ ቀ
ሪፖር ቱ</w>
አይፈ ቀድ
ተቀም ጦ</w>
የ ቅዱስ</w>
ቆሮ ንቶስ</w>
እንደ ሌለው</w>
ውሳኔ ዎች</w>
እንዲ ያ</w>
የተ መ
ወኪ ል</w>
አር ብ</w>
የሚች ለውን</w>
ሰለ ባ</w>
አገ ራዊ</w>
እንቆቅል ሽ</w>
ሲ ን</w>
አስ በ
የ ዚያን</w>
አይ ዞ
መ ሻ
ገና ኙ</w>
የ ው።</w>
ብረተሰ ብ</w>
ካር ታ
ይሄ ዳል።</w>
ለ ረዥም</w>
2 :</w>
ጎበ ኙ</w>
ወ ዱ
ማ ገልገል</w>
ትችላ ላችሁ።</w>
ተ ው።</w>
የተ ን
ወዳ ቸው</w>
ቅድ ሚያ
ኬ ሚ
ፎ ም</w>
ይባ ላል</w>
ተሽከርካ ሪ</w>
በውስ ጣ
ስልክ ዎ</w>
1 x
የ ጭነት</w>
መ ገልገ
L E
ይችላ ሉ!</w>
ኤ ፕሪል</w>
ዩ .</w>
ባን ዲ
እንደ ማስ
ሹ ም</w>
ማር ክ</w>
ይሄ ዳል</w>
ዐ ቢይ</w>
መሰረ ዝ</w>
ው ዝ
አሉ ት.</w>
ነው ፤
ተና ጋሪ</w>
ድ ም።</w>
በ ገበያው</w>
ለመ ወሰን</w>
ፕሪ ሚ
ማ ቴ</w>
ተዋና ይ</w>
ለሁ ና</w>
ከፋ ፈ
አይ ፈልጉ
ን ጋት</w>
የተ ስፋ</w>
የሚ ደግ
የ ጠበቀ</w>
የወደ ፊቱ</w>
ነ ን
ው ለው</w>
እኔ ና</w>
አ ቤቱ</w>
ኬ ን</w>
ምስክር ነት</w>
ሐ )</w>
ድ ነት</w>
ያስ ከፍ
ካ ሪ</w>
ማህ በሩ</w>
የ ቁ
ትስ ስር</w>
ቁርጠ ኝነት</w>
ሸለ ቆ</w>
ጠባበ ቂያ</w>
ታ ቦት</w>
ይደረጋ ል</w>
ተ ጨማሪ
ተ ችሏል።</w>
በ ቤቱ</w>
ጽ ፍ</w>
ይሰማ ኛል</w>
የ ሐ
እየ ገ
አስፈላጊ ውን</w>
አስኪያ ጅ</w>
አስታው ቀዋል።</w>
አሮ ጌ
ቃ ረ
ሰ ከን
ው ጣት</w>
እ ወደ
ለማ ቆም</w>
የሚያሳ ዝ
እንደ መሆኑ</w>
ቅ ል</w>
መደ በ
ለ ራሳቸው</w>
ለ ራ
ቶ ች።</w>
ቀለ በት</w>
ፖ ስታ</w>
ከ ሱ</w>
ማእ ከል</w>
እር ሳ
እና ድርግ
ትር ጓ
ተፅ እኖ</w>
ተሰ ና
ሕ ን
ል ጄን</w>
መ ኝታ</w>
መ ሥራ
ሄ ዱ።</w>
ጎን ዮሽ</w>
የ ቃል</w>
ው ረድ</w>
ና ል?</w>
በተ መለከተ
ሊ ገኝ</w>
ጸ ጸ
ጨ ን
ጥያቄ ውን</w>
ተደርጓ ል</w>
ብዙ ዎችን</w>
ል ሃ
እንድት ሆን</w>
አወ ቃ
ነበረ ፤</w>
ጸል ይ</w>
እድ ሉ</w>
ጠ ዋል</w>
ዦ ች</w>
ቅሬ ታ
የሚ ሰጠ
ይቀ ላቀ
ያ ችሁ</w>
አለው ፤</w>
ትችላ ለህ?</w>
ጀመር ኩ።</w>
ይስ ጡ</w>
እስረ ኞች</w>
ረ ፈ</w>
በመ ጣ
ተ መለስ
ከና ውን</w>
ት ;</w>
በ ዓይ
i a</w>
የተ ሞላ
አካባቢ ውን</w>
ማስተካከ ያ</w>
እን ባ</w>
አድርገ ህ</w>
ሰ ቢያ
አስ ረ
አል ሰጠ
ታዳ ጊ</w>
ያ ጠቃል
ሬ ሽኑ</w>
ፌ ን</w>
ሐሳ ቦች</w>
ካሊ ፎር
ከ ረጅም</w>
ቀ ላል
ይጠ ናቀ
ውድድ ሮች</w>
ኮምፒ ዩ
ታ ትን</w>
መር ሆ
ሉ )</w>
ዘጋጀ ው</w>
በ 199
ሲ ወጣ</w>
ያደርጋ ሉ</w>
ከሆነ ፣</w>
እየተ ባለ</w>
ሪ ቷ</w>
9 9</w>
በ ሮ
ፃ </w>
ጀምሮ ,</w>
ያ ንን</w>
የተ ካተ
ኛ )</w>
ሊ ያገለግል</w>
ከ መካከ
አሉ ን።</w>
የመ ኖር</w>
ቀበ ለው</w>
ጋ ጣሚ</w>
ነባ ር</w>
በ ወጣ
ቅርን ጫፍ</w>
ዝግጅ ቶች</w>
ሁሉ ፥</w>
ያስ ተዋ
የሌ ለ
ተዛ ማጅ</w>
ባህር ይ</w>
N U
የሚ ጠይቅ</w>
አድርጓ ል</w>
አዘ ዘ
ምሽ ቱ</w>
አዳ ራ
አሰ ል
ን :</w>
ቡ ት።</w>
መግለ ጫዎች</w>
ፈር ስ</w>
የ ራስዎን</w>
አዋ ጁ</w>
ሁሉ ፣</w>
የሚረ ዱ</w>
ሽከር ከር</w>
ይጠ ራ
መጠ ኑ</w>
ለ ዚያም</w>
ሁ .</w>
የ ጋ
I S
ስር ጭ
ማኅ በራዊ</w>
- በ
ይዘ ዋል።</w>
ፀ ሀ
እን ጠይቃ
በሚ ገኙ</w>
ይምረ ጡ.</w>
ውያ ኑ</w>
አመ ቺ</w>
የተ ደገ
ቦታ ዎችን</w>
ሀገ ራ
ጡ ት።</w>
ክፍ ል
መቁ ረጥ</w>
ህብረተሰ ቡ</w>
የሚ ን
መረ ዳ
ማ ደግ</w>
ጫ ውን</w>
ብ ናል።</w>
ቀጥ ሏል።</w>
ሁለ ን
ለመ ብላት</w>
ችሁ ትን</w>
ያጋ ጠ
በመው ሰድ</w>
እንደሚ ቻ
ይሆና ል!</w>
ትር ዒ
ሩ ንም</w>
v er
4 2</w>
ሰብ ኩ</w>
መም ራት</w>
( ዮሐንስ</w>
መሰረ ተ</w>
ባ ቸውም</w>
በመ ክፈ
iTun es</w>
ጡን ቻ</w>
አገልግሎ ቱ</w>
ሾ ፌ
ስጥ ኤ
ፈ ኛ</w>
ጠብ ቁ
ይናገ ራል</w>
ገ ቡ።</w>
ዴ ም</w>
ደ ውን</w>
ወዳ ጅነት</w>
እንዳይ ሆን</w>
አንተ ም</w>
ቸ ዉን</w>
መስ ኮች</w>
ቁጥ ራቸው</w>
መጣ ል</w>
ደርጋ ቸው</w>
የሚ ሉትን</w>
መጥ ፋት</w>
የ ውይይት</w>
አል ነበር
ቱ !</w>
ራ ን
የሆ ነበት</w>
ኮምፒ ተር</w>
ገልፀ ዋል።</w>
የሚጀም ረው</w>
ሆቴ ሎች</w>
ደር ሷል።</w>
ህ "</w>
ጉባዔ </w>
የማ ም
በመ ጪው</w>
: 9</w>
ግ ሬ
ያደር ገው</w>
በ ዚህ
ራ ራ
ለ ት
ጅ ን</w>
ከ ሪያ</w>
ትል ቁን</w>
ሥራ ቸው</w>
ፍ ቶ</w>
ይ ፈራ
የመሳ ሰ
ስ ቱ
እመ ክራ
ቅር ስ</w>
ሞ ትም</w>
ጎ ራ
ወንድሞ ቹ</w>
በ ኦ
አድራ ጎት</w>
በአ ር
ጌታ ም</w>
ኛ ቸው</w>
በት .</w>
ሲ ደ
የገ ዛ</w>
ቶች ዎን</w>
ክ ረው</w>
ባ ሉበት</w>
መቀ መጫ</w>
የ ዘመ
ጧ ቸው</w>
በ ዓመቱ</w>
ፈረንሳይ ኛ</w>
አገ ራቸው</w>
ቀለ ሞች</w>
y p
የሚያ ን
የ ያዘ
ኙ ት</w>
ሠራ በት</w>
መንግሥ ተ</w>
3 9</w>
ይሂ ዱ</w>
ከ አምላክ</w>
ችኋ ለሁ</w>
ይሸ ፍ
ያለ በትን</w>
የ እግዚአብሔርም</w>
ከፍ ል</w>
በ ገበያ</w>
ሊ ጉ</w>
t o</w>
እንዲ ሠራ</w>
ቆ ሮ</w>
ምን ጭ
ጉ ራ
አስተ ማሪ
መደ ምደ
አሉ ን</w>
በ ቁም</w>
ሲ ነፃፀር</w>
ጠቀ ስ
ካ ቢ
ብዙ ኃ
ፃ ፍ</w>
ይ ቱም</w>
የተ ወሳ
ረጋ ጋት</w>
ነፍ ሰ</w>
የማይ ረ
በመደበ ኛነት</w>
ቱ ንና</w>
ልን ም።</w>
ጥል ቀት</w>
አፍቃ ሪ</w>
አ ችን</w>
መግለ ጽ</w>
መረጋ ጋት</w>
ጠቃ ሚዎች</w>
እንዲ ሰ
ባይ ሆንም</w>
V P
ደረጃ ው</w>
የላ ቸው
ናቸው "</w>
ታ ር
በ መንግሥት</w>
ያደርጋ ሉ።</w>
ሮ ስ</w>
ቅዳ ሜ
ቁ ረጥ</w>
ሽ ከረ
አስደን ጋጭ</w>
አ ድም
ለማ ክበር</w>
አት ች
ያተኮ ረ</w>
ተከ ታይ</w>
ሚስ ጥር</w>
ይ መለከታ
ባ ልም</w>
እንደምን ችል</w>
ገል ጻ
ያደር ግ
ዩ ብ</w>
ስሜ ት
መ ጎብኘት</w>
የሚ ወሰ
ተ መሳሳይ
ቅ ኝ</w>
ሽ ብር
ሄድ ም</w>
ዚያ ች</w>
አገኘ ሁ</w>
አጀን ዳ
ፔ ን</w>
w .</w>
ውር ርድ</w>
ና ት፤</w>
ሁ ፥</w>
በማ ኅበራዊ</w>
ቀ ረት</w>
ሥዕ ል</w>
ዙ ፋን</w>
ያስ ተው
በ ምና
ሰጥ ተዋል።</w>
: 4</w>
ዘላለማ ዊ</w>
ati on
ጓ ጉ
የ አስተዳደር</w>
ወ/ ሮ</w>
እ ጆች</w>
አይ ጠ
o s</w>
ይወስ ዳል።</w>
ይቅር ታ
ዘጸ አት</w>
እንቁ ላል</w>
ሎ ጂ
የሚ ታወቀው</w>
ላይ ኛው</w>
ፊ ሊ
አድ ዋ</w>
ናገ ሩት</w>
በመ ዝ
ል ኩ
ክ በብ</w>
ከ ሥራ</w>
ጎረ ቤ
ያለ ኝን</w>
የማስ ታወቂያ</w>
አ ወዳ
ን ት
ቶች ፣</w>
ደ ኛ</w>
ወ ቁ
በ አስቸኳይ</w>
ዊ ንዶ
በ ራስ-ሰር</w>
ለ ፍርድ</w>
Am har
ደረ ሱ</w>
ውል ት</w>
ኢን ሹራ
ም ;</w>
ክርስቲያ ናት</w>
ዞ ሮ</w>
ን ዲ
በ ቋ
አበ በ</w>
አረ ቢያ</w>
ተቋ ሙ</w>
ግ ሞ
አሳ ው
እስክን ድር</w>
አለው :</w>
ኃ ላፊ</w>
እንደ .</w>
ከ ግማሽ</w>
ለ ኞች</w>
ሠር ግ</w>
መንግስ ትን</w>
ድህ ረ</w>
ዝ ነኛ</w>
ሳ ቢያ</w>
አ መን
ታ ለች</w>
ላለ ች</w>
ሊቀመን በር</w>
ቀ ኝ
ጠባ ብ</w>
ክ ንድ</w>
እየ ሠራ
ባ ቸዋል</w>
ው ...</w>
እውነ ታዎች</w>
አ ፓር
ጨ ካ
ያው ር
ኔ ት
በማስ ገባት</w>
ሸ ሸ
ል ቤን</w>
አይደለ ም"</w>
ተግ በር</w>
ኦፊ ሴ
ትን ተና</w>
ሜ ው</w>
ለመ ጥ
ፁ ን</w>
ብሎ :</w>
ሚ ስተር</w>
ፖሊ ሶች</w>
በአ ራ
ጠ ም</w>
ጉዞ ው</w>
ይወ ቁ</w>
ዋ ሳ</w>
ር ጊ
ትን ፣</w>
ጓ ዳ
M ic
ሳ ኦ
አለ ም
ትፈልጋ ለህ?</w>
መጥ ቷል።</w>
የ ሌሎች</w>
ዘንድ ፥</w>
ተደር ገ
ቀ ኖች</w>
ኑ ፤</w>
ተቀ ይ
ያካተ ተ</w>
አልቻል ኩም።</w>
ኙ ።</w>
ንግ ዱ</w>
ኮ ን</w>
አፍ ር
o g
ገን ቢ</w>
ካር ዶች</w>
ነ ዎት?</w>
ብ ዎን</w>
: 3</w>
አላ ት</w>
ሊ ሰጥ</w>
ፍጥረ ታት</w>
የመ ሣ
ስደ ተኛ</w>
እ ችል</w>
ሲ ቲ</w>
መልካ ሙ
ያ በቃ
በቀ ረ
መው ጫ</w>
ይወስዳ ል.</w>
ያላ ችሁ</w>
የተ ቀረ
እንደሚ መጣ</w>
ይ ደረ
ሁዋ ላ</w>
ደስ ታን</w>
ናቸው :</w>
- የ
ጠ ው።</w>
ይ ኖሩ</w>
ከመ ሆን</w>
ከ እንቅል
ከ ሉ</w>
ቦታ ውን</w>
በር ከት</w>
ፈ ው።</w>
ነ ን!</w>
ተኳሃ ኝ</w>
ተ ክል</w>
አቀ ፋዊ</w>
የ ጸ
ኳ ት</w>
አዘ ገጃ
በ ሬ
4 4
ፓ ነ
እን ገኛ
ሶማ ሊ
ማዕ ቀ
መክፈ ት</w>
ኮ ከ
እግር ኳስ</w>
አዋ ቂ
ሳ ለሁ።</w>
መር ሃ</w>
ለሁለ ቱም</w>
ኤ ች
አሸና ፊ
ቀ ላሉ</w>
i b
በ ምግብ</w>
ስም ዖ
ለ አ
" ማ
አሏ ቸው።</w>
ከ ወደ
ናገ ረ
ታሪ ክን</w>
ሰሎ ሞን</w>
የሚሆ ነው።</w>
ሰው ዬ</w>
የ አስቸኳይ</w>
አስተያ የት
ኃይ ሉ</w>
መ ናል።</w>
አለ !</w>
ዋ ስ</w>
ክወ ና</w>
ቅ በት</w>
የበ ጎ</w>
ውያ ንም</w>
መዘ ግ
እንችላ ለን.</w>
አይ ሰ
ት ወዳ
በተ ወሰኑ</w>
በ ጥቅ
ኤል ሳ
መ ።</w>
ላ ቸውም።</w>
ዛ ፎች</w>
ታ ያለ
ኃ ያል</w>
ቸው "</w>
ካም ፓ
እስ ል
መሣ ሪያዎችን</w>
እስ ትንፋ
ቅ ጥ
ኖረ ኝ</w>
ሰው ፣</w>
ይችላ ል!</w>
ይኸ </w>
እንቅ ፋት</w>
ፍ ታ</w>
አንድ ዬ
ቃ ና</w>
ም '</w>
አቤቱ ታ</w>
s of
ሊ ባ
ጎ ዱ</w>
አገልጋ ዮ
መለወ ጫ</w>
ለመዋ ጋት</w>
ለ ር</w>
* *</w>
መፃ ፍ</w>
ግላ ዊነት</w>
ውሳኔ ው</w>
በመ ሆኑ
ሰን ሰለት</w>
መ ፈጸም</w>
አው ሎ</w>
ምረ ቻ</w>
ል ጄ
የሚያሳ የው</w>
( 2)</w>
እ ዬ
ስ ደት</w>
መን ደ
ከ ዚሁ</w>
ለማ ድረስ</w>
ታ ዊነት</w>
ያ ገባ
የተ ደረጉ</w>
ቅርን ጫ
ዳ ሚ
ዎ ቻችንን</w>
አመስ ግ
8 0
ይጎብ ኙ</w>
Whats App</w>
ይገባ </w>
ያ ፈ
አሉ ,</w>
ምስ ሎችን</w>
አለመ ታ
ተቀ በል
COVI D
ችሁ ም።</w>
ተና ጋ
እ ሰጥ
ድራ ይ
ድ መ
የሚ ኖሩ
3 "></w>
አያ ት</w>
ቀ ዋል</w>
መለ ክት</w>
ፋ ስ</w>
በመ ቶ
Previou s:</w>
ፍ ጠር</w>
ምን ም።</w>
ም ቢያ</w>
ሊ ሰ
አ ጥንት</w>
ሽ ግግር</w>
ግንባ ታው</w>
ፊ ር
ቅ ኝ
የተቃ ውሞ</w>
ሁለን ተና
ዘ ፋ
ሯ ል.</w>
ከሚ ያስ
እየ ሄደ</w>
ገ ሉ</w>
ይገ ደ
ክሬ ዲት</w>
ከ አባ
እንደማይ ችል</w>
እንደ ሆን</w>
ተራ ሮች</w>
ያ በ
ጉዳ ዮ
የ ኛ
አ ያል
ቅ ፣</w>
ቀነ ሰ</w>
የት ግል</w>
ትክክለ ኛነት</w>
የም ዝ
ው ት
አብ ን</w>
ማድረግ .</w>
መ ጫወ
፰ </w>
የማ ላ
እንደማ ት
ታ ዊው</w>
ይ ።</w>
አገ ሬ</w>
ማ ዘጋጃ</w>
መሰብ ሰብ</w>
የለው ም.</w>
ካሊፎር ኒያ</w>
ኦ ህ
እንደ ማንኛውም</w>
ሕዛ ብ</w>
.. ..
ከ ደ
እ ሴቶች</w>
ጋ ርም</w>
የመ ክፈ
ተር ዎ</w>
በ ሁለተኛ</w>
ሲ ስ</w>
የ ክረምት</w>
አሳ ሽ</w>
ሰ ም</w>
ab out</w>
H </w>
ገ ዥ</w>
ቹ ህ</w>
ታዘ ዝ</w>
ሰጥ ቶ</w>
መንገ ዶ
ይዟ ል።</w>
ዕ ን
እን ባ
ላ ችንም</w>
የመ ጠባበቂያ</w>
ችሁ !</w>
ና ሽናል</w>
ደኅ ን
ፅ ዋት</w>
ጨረ ታ
ንግ ሥ
ጳ </w>
ደ ጅ</w>
አ ር</w>
ታ ዊ
በመ ታ
; .</w>
ግራ ፊ
ደን ት</w>
አለ ዎ
ያ ማ
የ ይዘት</w>
ዖ </w>
ህይወ ቴ</w>
rc )</w>
ይ ለው
ና !</w>
ች ህን</w>
(s rc)</w>
ፓር ላማ
አፍ ን
ብ ብር</w>
ሰባ ሰብ</w>
ጉድ ለት</w>
" ዛሬ</w>
እግዚአብ ሄ
ና ም</w>
ቅ ,</w>
ግኝ ት</w>
ቁር አን</w>
ስለ ነበረ</w>
ያስ ገቡ</w>
ከፈ ት</w>
ቅዱ ሳ
ይመስ ላል?</w>
ዘመን ፡-</w>
ስሜ ን</w>
3 |
F or
ድ .</w>
የለብን ም።</w>
በረ ሃ</w>
ቆ ለ
አይገባ ም</w>
ሞ ሉ</w>
የ ነገ
እ ፎ
ስርዓ ተ</w>
ማ የ
ቢ ኖሩም</w>
o s
ከ ሌለ
ኒ ስ</w>
ሽ ፣</w>
ም ጃ</w>
ት ተው</w>
የሚ በ
ያ ሰብ
አን ጋ
አለብ ኝ።</w>
ታና ሽ</w>
ሜ ዲ
መድረ ሻ</w>
2 ፡
መላ ክ
አካ ዳሚ</w>
ተነ ሣ
ማ ዳን</w>
የበ ጀት</w>
ሃ ነም</w>
ዶ ር</w>
ደረሰ በት</w>
የ ጥበብ</w>
ህ ሊና</w>
፯ </w>
ቱ ፤</w>
ራ መድ</w>
ማስተ ላለ
ማ ቴዎስ</w>
ጠናቀ ቁ</w>
ወር ቃ
ሰጥ ቷል።</w>
5 5</w>
እና ስተ
አት ችልም።</w>
ትረ ፍ</w>
ሟ ቸው</w>
መጥ ን</w>
የራ ሴን</w>
ቁር ስ</w>
እንዲ ታ
ነፍ ሴ
ሊ ገድ
መተ ላለ
መር ጡ</w>
ለመ ጻፍ</w>
ለ ሽያጭ</w>
ተ ።</w>
ተ ወላጅ</w>
የተባለ ውን</w>
ኤሌክትሮ ኒክ</w>
ማብ ሰል</w>
ማስተ ዳደር</w>
ድራ ማ</w>
የሚ ጋ
ችሁ ና</w>
ህ ፥</w>
ይ ጮ
አላ ስብ
ቤተሰቦ ቻቸው</w>
ምስ ኪን</w>
ድ ነው</w>
ክብ ረ</w>
በቀ ለ</w>
: 7</w>
ፍ የ
ዐ ይን</w>
መፅሐ ፍ</w>
በ ሀ
ሰከን ዶች</w>
ባህሪያ ትን</w>
ፈራ ረ
ጓደ ኞቹ</w>
አ ያ</w>
ሏ ት</w>
ባዕ ድ</w>
ፒ ሲ</w>
ሁኔታ ን</w>
ጠየ ቁ
ልጆ ችም</w>
ጭ ራሽ</w>
ጧ </w>
ዩ በት</w>
ትግ ሉ</w>
ሉ ትም</w>
ኛ ል"</w>
ስማ ርት</w>
መል በስ</w>
በመስ ራት</w>
ዕድ ገ
ብ ሊ
በ ቆ
ሳ ር</w>
ሠ ረ
ጠቀ ሱት</w>
ኑ ና</w>
በዙ ሪያው</w>
ዎ ትም።</w>
ከዋክብ ት</w>
በመ ም
ሻ ምፒ
ስለ ምን
ማ ሉ</w>
ይጠብ ቃ
ሪ ንግ</w>
ተገለ ጸ</w>
መ ጀመሪያ
ግዚ ቢ
ና ችንን</w>
የምና ውቀው</w>
በ ሴ
ህይወ ቱ</w>
ዋ ንም</w>
በተ ጨ
የማ ና
አሰ ቃቂ</w>
em b
at e</w>
:2 8</w>
ው ያን
ይገባ ኛል</w>
ሀሳ ቦችን</w>
በ ሕዝቡ</w>
ል በ
ww w.</w>
B itco
ጅ ና</w>
ወንድሞ ቼ</w>
አ ጸ
ሐ ሙስ</w>
ወቅ ት
አ ቢ
ናገ ረ</w>
ሲ ጋራ</w>
ላ ል፤</w>
10 00</w>
አባ ቱን</w>
ማስተ ናገ
በ እርሱም</w>
ን ሽ</w>
መስ ጋኝ</w>
T wit
የሚያ ሰ
አው ር
ንገረ ኝ</w>
በ ነፃነት</w>
በመ ሳ
በ ምድርም</w>
በተ ፈጥ
የሚ ደ
ተ ምረ
ስማ ቸው</w>
የተቀ ና
ኳ ቸው።</w>
እን ጠቀማ
ተናገ ር
ቦ ም
al l
ከ ትምህርት</w>
ቀድሞ ው</w>
ዘለ ዓለም</w>
ያገኛ ሉ።</w>
ቆጠ ራ</w>
በር ሳችሁ</w>
መረጃ ውን</w>
ይሰ ጡ
የመተግበ ሪያ</w>
ዋ ስት
አ ቀር
ባለ ፈ</w>
ማ ጭበር
ለ የ
ያ ና</w>
ወረርሽ ኙ</w>
ይችላሉ :</w>
ል ቅ
ከ ወዲ
ኞ ችም</w>
ድግ ግሞ
ቻ ን</w>
የት ውልድ</w>
ብለ ሽ</w>
200 3</w>
እግዜ ር</w>
10 .</w>
ፋ ሉ።</w>
ድር ቅ</w>
ቀይ ር</w>
ሏ ን</w>
ተመራ ጭ</w>
" ሁሉም</w>
አገላለ ጽ</w>
ብ ፣</w>
ሰ ሞን</w>
ተአም ር</w>
ቁር ጥራ
ሽ ኖች</w>
ላ ለሁ።</w>
ድንጋ ጌ
የም ክር</w>
መስ ለው</w>
መ ገብ</w>
e p
የም ል
ተሰ በሰ
ቤተሰቦ ቼ</w>
በተ ሳ
ስት ሜ
በሌለ በት</w>
ሞክ ረ
የ እረፍት</w>
ዓ ር
በ ደረጃ</w>
ጠብ ቀ
ከሚ ለው</w>
እና ም,</w>
ሲ ኖር</w>
ሕ ጎች</w>
ያሳ ዝ
ም ፡</w>
ወ ች</w>
ና ዎች</w>
መ ሄ
ብክ ለት</w>
የ ሁለቱ</w>
ከሚ ገኙ</w>
ሰራ ተኞ
ም ፡-</w>
አል ታ
ሲ ያደርጉ</w>
ልጃ ቸው</w>
እግዚአብሔር ንም</w>
አስተ ላል
ሆን ሁ</w>
ዓላማ ው</w>
ለን ጉ
ቀር ቦ</w>
ሞከር ኩ</w>
ሂ ዱ</w>
: 8</w>
ጎብኝ ዎች</w>
በማ ግ
በ ሶ
ያስ ደስተ
የማይ ችሉ</w>
ኤጀን ሲ</w>
አይ ወድ
ለን ፣</w>
የማ ኅበራዊ</w>
ክል ና</w>
i k
ሱ ፤</w>
ትምህር ቱን</w>
ት ናገራ
ት /
ቁ ና</w>
ሂ </w>
ይነገ ራል።</w>
የተጻ ፈ</w>
ካ ራ
አሉ ኝ</w>
ባ በር</w>
ወ ዮ
ዊ ን</w>
በሚ ከተሉት</w>
ለማስ ገባት</w>
ባህ ል
ማ ሕ
መ ናገ
ይበል ጣል</w>
ለሚ ለው</w>
ይኖረ ዋል።</w>
የ አሁ
በር ክ
ቀጠ ለ።</w>
ፃ ፍ
የተለ ዩ</w>
ከ ላዊ</w>
አልነበሩ ም።</w>
ታላ ቅ
ቁ ሳዊ</w>
ሱ ንም</w>
u p
ከተ ሉ</w>
ታው ቁት</w>
ታ ሳ
ቡ ል
ሀገ ሬ</w>
ይ ፋዊ</w>
ሚ ር</w>
ጋ ስ</w>
ኹ </w>
ታሪ ኩን</w>
ስም ዎ</w>
4 "></w>
የተ ጫ
የሚ መለከት</w>
Y </w>
ኬ ሽን</w>
ከ ማድረግ</w>
ስ ምህን</w>
ለያ ይ</w>
ሰ ቀ
: 6</w>
መሆኗ ን</w>
A l
ዘ ብ</w>
ድ ሆች</w>
3 :</w>
እንዲ ሁ።</w>
በ ዩ
ላይ ን</w>
ገኝ በት</w>
ይሖ ዋን</w>
ፈሪ ሳ
የተ ወደ
እነ ግር
ማሽ ኖች</w>
ፖ ላንድ</w>
ጎ ጂ</w>
ኩ ል
አሳ ብ</w>
በሕይወ ታችን</w>
ዙ ሪያ
አት ፍራ
ቸ ግራ
ሞ ኑ</w>
ል ወጣ</w>
ጸ ልዩ
: 2</w>
ድ ጉ</w>
እስ ክት
ያካት ታ
ቀ ሪ</w>
ስዊ ድን</w>
መኪ ኖች</w>
አራ ተኛው</w>
ደረግ በት</w>
በመ ሆ
ሳ ጥ
ሌሊ ቱን</w>
ፍራ ም</w>
ድ ,</w>
እ መርጣ
ስታ ዲ
መን ቀጥ
ውቃ ቸው</w>
ሾ ቹ</w>
ኦ ሊ
ት ፡-</w>
ሰም ተው</w>
ም ሩ
ጸ ባረ
ጠ ረ</w>
ኢንሹራ ንስ</w>
ውህ ደት</w>
በተ ደረገው</w>
ልና ፤</w>
ዓ ብ</w>
ባን ተ</w>
ረቡ ዕ</w>
ፎ ቹ</w>
ያስፈልገና ል</w>
ጎ ችን</w>
ክ ሎ
እ ገባ
አቋ ር
ያህ ል,</w>
ኑ ር</w>
ማን በ
ታውቃ ለህ</w>
በዓ ሉ</w>
ሥላ ሴ</w>
የሚቆ ጠር</w>
የሚ ቀጥለው</w>
ተቃዋ ሚዎች</w>
ይገኛ ሉ.</w>
ክርስት ያን</w>
ኢ ሳት</w>
ን ፅ
ምል ልስ</w>
መ ጓጓዣ</w>
አንዳ ቸውም</w>
NU M
ይኑ ር
ነበሩ በት</w>
ፓ ስፖርት</w>
ጥንካ ሬ
መ ተ</w>
ያደርገ ዋል.</w>
አስ ቤ</w>
እና ገራ
ፍ ህ</w>
ይጠይ ቃል</w>
ኔ ው</w>
አገና ኞች</w>
ብ ሮ</w>
ሜ ሽን</w>
ከለ ክ
ጩ ን</w>
ግብ ይ
አይቻ ለሁ</w>
አሉ ፤</w>
ለመ ሰብሰብ</w>
ይሰራ ል</w>
የተከለከ ለ</w>
ተ መለከተ
ማ ቀዝቀ
ና ትና</w>
ቀ መር</w>
ል ፉ</w>
ፀ ል
ያካት ታል</w>
ያህ ሉ</w>
የት ኛ
ኦሎ ምፒክ</w>
በ ው።</w>
ጡ ፤</w>
የሚ ቀር
አት ሁ
ሩ ስ
በ ሪያ</w>
ወሰ ዱ
እነ ግራ
7 5</w>
ዳ ሉ።</w>
ከ ነበሩት</w>
ሽ ብር</w>
መደ ገፍ</w>
ብ ,</w>
ይወ ክ
የሚገ ኘውን</w>
አ ፈ</w>
በ ሳምንቱ</w>
የሚያስ ፈል
አ ሟ
a i
Post :</w>
ይለ ወጣ
ያሳ ለ
ከ የትኛውም</w>
ቅ ኔ</w>
ይወ ር
ን ክ
ነ ክ</w>
መ ስ</w>
ግንዛ ቤ
ተመዝ ግ
የሚያ ውቀው</w>
ነበረ በት።</w>
ምር ።</w>
ለመደ ሰት</w>
ይ ፈጠ
ወ ቀ</w>
በ ጨዋታው</w>
ሳ ና
ጭንቅ ላት</w>
ያለ ች</w>
የ ሌላ
አፍሪ ቃ</w>
የ ቻለ</w>
ታ ና</w>
ነግ ሮ
ብሄ ረ
በት ፤</w>
ያ ድጋ
ዥ ያ</w>
በማ ድረግ
ሩ ትም</w>
አስተዳ ደር
መስ ፍን</w>
i z
ቆይ ቶ</w>
es s
ፀ ባር
የ ከፈ
አማ ዞን</w>
በ ራ</w>
ኩ ር
ና ት
ማ ሟ
ለ ግ
ፀደ ይ</w>
፣ ...</w>
ዋ ለ</w>
ከመ ሆኑ</w>
ኔ ም</w>
art ic
እ ጩ
ነዋ ሪ
, "</w>
" ይህን</w>
ፋን ታ</w>
ጁ ም</w>
አለ ህ?</w>
ሰ ከ
ሊ ደረግ</w>
ለማ ሰብ</w>
5 0%</w>
የተመረ ጡ</w>
ውስ ጤ</w>
ክክ ር</w>
ጥ ገኛ</w>
የመላ ኪያ</w>
ዕድ ሎች</w>
ባል ተ
ሻ ሽ
ደ ንግ
በመ ግለ
4 4</w>
ጠ ውን</w>
ታገ ል</w>
ag o</w>
ስሜ ቶች</w>
ጉዞ ዎች</w>
አስተዳ ደሩ</w>
ናሙ ና
" +</w>
ዕብራ ውያን</w>
ከ በረ
አው ርድ</w>
ቁ ራጭ</w>
እ ዘ
ነጻጸ ር</w>
በማ ም
€ </w>
ዮርዳ ኖስ</w>
አንዳ ቸው</w>
ማ ጉ
ሞተ ።</w>
ሕ ክምና
ለ ምን?</w>
" እንዴት</w>
ወ ስ</w>
ጎ ር
ያሻ ሽ
እና ቱን</w>
ድም ር</w>
ቹ ና</w>
ሲ ገባ</w>
ዕ ኖ
ወደ ቀ
በ እነዚያ</w>
ስምም ነቱ</w>
ለም ት
ዒ ላማ</w>
ከ ሁለቱ</w>
ቡ ና
ርዕ ሶች</w>
ሞ ከረ
መካከ ል
ህወ ሀት</w>
er s</w>
ተከ ሳ
በማ ጣ
ሀብ ታ
ፍራ ፍሬ
ፀ ን</w>
አዋ ቂዎች</w>
የሚ ስ
ትር ፋ
ሆኗ ል.</w>
ጠ ቁ</w>
ስ "</w>
ልና ፥</w>
አ ደር
የሚ ደረጉ</w>
የ ወጣው</w>
ክፍ ያ
አ ጠራ
በላ ሸ</w>
በ ከተማዋ</w>
የሚያገለ ግል</w>
እንስ ሳት
ነው ር</w>
ነበር ን።</w>
ስት ሆን</w>
የሚያ ጋ
ልጆ ቻችሁ</w>
ይታ ያል.</w>
ወር ሃዊ</w>
ኩ ህ</w>
አይኖር ም</w>
መ በ
ፋ ሉ</w>
ህ ብረ
ይሞክ ሩ.</w>
የተ መሠረ
በየ ቦታው</w>
ጃ ው</w>
አግባ ብነት</w>
መረ ጡ</w>
ወይ ንስ</w>
4 8
የሚያስ ፈልግ
አለመታ ደል</w>
መለ ያዎች</w>
ዲስ ክ</w>
ል ናል።</w>
ዳ ሉ</w>
ክፍ ሎ
ማህ በራት</w>
ነበራ ቸው።</w>
ተ ደብ
መቅደ ሱ</w>
ተጋ ድ
y ou
ፍል ስጥኤ
ሳይ ንስ
ለማም ረት</w>
ፈ ሻ</w>
ከፈለ ግ
ባለ ቤት
ለ ሽ</w>
ቶች :</w>
ሎ ተ
እንደሚ ታየው</w>
ሲ ጀመር</w>
የተ ንቀሳቃሽ</w>
አሻንጉ ሊ
ተነ ጋገ
ጊ ዮ
ገባ ም</w>
ው ጊ
ተ ረዳ
ደራ ጀት</w>
እን ረዳ
አል ወድ
መረ ጥ</w>
ለማ ካሄድ</w>
ለሚ ያ
ፈረ ደ
ገበ ሬ</w>
የተ ፈ
ባ ራ
አል መጣ
ይገ ኙ
ይገ ነዘ
ይ ፈጸ
ካ ሚ</w>
ቁ ረ
( C
ፕሮ ጄ
የቀ ደ
sof t</w>
አፍ ታ</w>
በ ዘመ
ያ ደረጉ</w>
ያ ቅር
የ አል
ባ ሳ
ጋ ብቻ
የም ወደው</w>
የ አስ
ዘ ወር</w>
በ ፓ
ው ፦</w>
አቅ ሙ</w>
ን -
i f
ጠይ ቁ
በመ ያዝ</w>
ሳው ዲ</w>
ጸ ጥ</w>
አቅርበ ዋል።</w>
አል ተገ
ብርሃ ኑ</w>
ለ ገበያ</w>
አት ር
ዋ ሻ</w>
ሰን ደቅ</w>
VP N</w>
ሆስፒ ታ
የ ቦ
የ ሻ
ወራ ው</w>
እነርሱ ም</w>
ነ ቡ</w>
ተ ቀጥ
ስተካከ ለ</w>
የጻ ፍ
ህ ፈት</w>
‹‹ በ
አየ ሁ</w>
ቡ ር
እንግሊ ዘኛ</w>
ተ ዉ
መነ ሳ
m e</w>
ያምና ሉ።</w>
የም ችለው</w>
ወዳ ጆች</w>
ኬ ክ</w>
ታ ጥ
ማ ዘ
ክፍ ሎችን</w>
እናምና ለን።</w>
አ ሏቸው</w>
ታ ስተ
a z
ፈፅ ሞ</w>
የፈጠ ረው</w>
ኤም ባ
በመ ነሳት</w>
iP ad</w>
የ ቅር
ቶ ታል።</w>
በ ክብር</w>
4 -
ብ ን።</w>
ስ ሕ
ዶ ክስ</w>
ድም ጽ
አልቀረ ም።</w>
መያ ዣ</w>
ያስ ተማ
ሒ ሳብ</w>
ዳ ዎች</w>
ያ ሉበት</w>
ዝርዝ ሩ</w>
በመ ተባበር</w>
እንደሚ ገኝ</w>
እንደ ተገለ
ተሻ ሽ
ቤ ም</w>
ወልቃ ይት</w>
ከወዲ ሁ</w>
እየተ ሰራ</w>
አጋ ዥ</w>
Pro </w>
የተከሰ ተው</w>
ሹ መት</w>
ስ ጠ
እንዲ ሆን
አማ ኝ</w>
ም ረው</w>
ው ሀ</w>
እ ሰራ
ቶ ቹም</w>
ት ኬት</w>
ጥ ገና
የተ ሰራ
እንደ ሌለ
ለመል ቀቅ</w>
ልብ ህ</w>
ዳ ኛ
ጨረ ቃ
አ ቆ
ብ ዎት</w>
ሽ ታ</w>
ስዕ ሎች</w>
ህ መም
e )</w>
ለ ዘመናት</w>
: 5</w>
ካ ፈ
ከፍ ተኛውን</w>
ነበር ን</w>
ቡ ድን
( ዘ
የተቀ የ
የተ ያዙ</w>
ቶ ኛል።</w>
ቁ ጥሩ</w>
የ ውም</w>
አይ ታይ
ሳ ቅ
ሬ ያለሁ</w>
ሠላ ሳ</w>
ኬ ድ</w>
እናመሰግና ለን።</w>
ቷ ቸዋል።</w>
ልጃገረ ድ</w>
ይስ ማማ
ያ ነበብ
ብ ቶ</w>
በ ባ
ፀ ሃ
ቋ </w>
ሲ ኖ</w>
ያገ ኛል</w>
ን ሰን</w>
ለመ ፈጸም</w>
ፍት ሐ
መሰለ ኝ።</w>
ሎ ጂ</w>
ያስተ ካክ
ያውቃ ል?</w>
እል ቂ
ከ ቻ
ሪ ል</w>
የሚ መነ
መጣ ጥፍ</w>
ካ ሪ
ተናገረ ።</w>
ብት ሆን</w>
ማስተ ዋወ
ጻ ፈ</w>
የተለመ ደው</w>
ዝግጅ ቱ</w>
ከ መንግስት</w>
ሆነ ፤</w>
S p
ክረም ቱ</w>
አይታወ ቅም።</w>
ሻ ቸው</w>
ሊ በ
ex </w>
ይ መከ
አንዳ ችም</w>
በሰማ ያት</w>
( እ.</w>
ጀግ ኖች</w>
የ ሊ
ይ ዘጋ
ዥ ረት</w>
ተካ ሂ
ከሰ ተ</w>
እንደ ሆንክ</w>
ምድ ቦች</w>
ጀም ረ
ካ ሲኖ
ራ ዊነት</w>
ህ ክምና
እሄዳ ለሁ</w>
ኝ ነትን</w>
ቪ ዬ
ህ ነት</w>
£ </w>
ደርስ በት</w>
አባ ትህ</w>
ሲ ፈ
ኖር ም</w>
የሚያ ቀር
ባ ለሁ።</w>
ሚስ ጥ
M ar
ዳ ረ
ተወ ል
ይ ኽ
ሊ ገ
ፈቃ ዱ</w>
ከመ ድረ
አከባ ቢ</w>
ዘር ላንድ
እህ ቴ</w>
አደረ ጉ።</w>
አለ ር
ያስፈልጋ ል.</w>
ዋ ዜማ</w>
ሳ ዑ
መሠ ዊ
ጠ መን
ኮ ረ
ምህ ንድ
መለ ኪ
li ></w>
ያሳ የ
ያ ሸን
የምና ደርገው</w>
እንዲ ገቡ</w>
እነሆ ፣</w>
ጣ ሪዎች</w>
ይወ ጣል</w>
የማ ያውቅ</w>
ደፋ ር</w>
ጫ ጫ
አሸ ባ
ነገር ም</w>
ታ ለ
ጋ ሽ</w>
ች ኝ።</w>
ፐ ር</w>
ኦፊሴ ላዊ</w>
ብአዴ ን</w>
ሽ !</w>
ሉ ዓላ
አ ደረጋ
ሸ ዋ</w>
s p
7 0
ያልተ ነበበ</w>
ዊ ነትን</w>
ውስ ጡ</w>
ተ ጉ
ሊቃ ውንት</w>
Wor d
ፈ ዋል</w>
ጠ ግ
ስ ም።</w>
ፈ ቀቅ</w>
ድም ጻ
የመሳ ሰሉ</w>
እን ሞክራ
ስተ ካከል</w>
ለመ ቅ
ጽ ናት</w>
ሀ ብት
ተለ ዋ
ፀ ረ</w>
ካን ተ</w>
ት ችት</w>
ሚስ ቱን</w>
እን ሂድ
ኤ ፍ
አለበት ?</w>
ፅ ር</w>
ቧ ን</w>
ገነ ባ</w>
ይወ ዳል</w>
አ ወቅ
አ ሥ
ስማ ሙ</w>
የተሰ በሰ
ውስጥ ።</w>
ት ፦</w>
በ ጠቅላላው</w>
መጠ ኖች</w>
መዘ ገቡ</w>
መ ሙላት</w>
ሁኔታ ም</w>
ዮ ስ</w>
የሚ ቆይ</w>
አሸ ዋ</w>
ጮ ህ</w>
ያስ ፖ
የ ሉም።</w>
( ይህ</w>
ኪ ስታን</w>
አ ቆጣጠር</w>
ር "</w>
መላ ኪያ</w>
ሲኖ ዶ
ሚ ል
የአ ኗኗር</w>
የሚ ዘ
ቆ ሻሻ
:2 7</w>
የተነ ደ
ቀመጠ ው</w>
ይ ኖሩ
ማ ወ
5 2</w>
ህ ጉ</w>
ደ ቅ
የተ ማር
ሄድ በት</w>
ጥ ሪ
ቸው !</w>
የ ስልጣን</w>
የ ሀ
ከ ለ</w>
ቸዋ ለን።</w>
ቲ ዩብ</w>
ተው ት</w>
ይታወ ቃል</w>
የተ ወ
የ ዛሬ
ቴ .</w>
ተግባራ ትን</w>
ከተ ቀ
ማ ሪው</w>
ሁለ ተኛውን</w>
ዴ ን
የማ ህ
የመጨረሻ ውን</w>
ከ ሙታን</w>
ባ ችንን</w>
ጽሕ ፈት</w>
ጀ ልባ
የሚያስ ደ
ነበር ና።</w>
ቼ ክ</w>
እ ደ
ተረ ጎ
የ ሶስተኛ</w>
ቱሪ ስት</w>
መንስ ኤ
ለው ጦችን</w>
ድብ ልቅ</w>
ስ ሌት</w>
ለ ሞት</w>
ፕሬዚዳን ቱ</w>
ገኙ በት</w>
ስተ ዋል።</w>
ፈ ው
ጀመር ኩ</w>
መኖራ ቸውን</w>
ይ ከበ
አክ ራ
ሊ ላ</w>
ፍ ,</w>
የ ጀመ
ቅ ጠ
ሽከርካ ሪ</w>
ም ህ</w>
ላ ላ
እንደ መጣ</w>
ና ና</w>
ንጉ ሱ</w>
Mic ro
ከ መጣ
እ ሸ
አገ ዛ
አስ ከት
ቃ ሌን</w>
ሲ ናገሩ</w>
ማ ነጋገር</w>
ቀ ልጣ
ራ ሉ.</w>
መ መር
ልጃገረ ዶች</w>
</ li></w>
ያስፈል ገው</w>
የ ይሁዳ</w>
ኦህ ዴ
ገ ቢያ</w>
ተ ደስ
መ ጀመርያ</w>
ፕሮ ቶ
ጎል በት</w>
እር ጥበት</w>
በቃ ሉ</w>
በርካ ቶች</w>
በ ከተማው</w>
ህ ንፃ</w>
ከፍ ሉ</w>
ቤ ን
ማር ች</w>
የሚገ ርም</w>
አጋ ሮች</w>
ም ሩ</w>
መ ገን
እንደማስ በው</w>
አር ማ</w>
በዚያ ች</w>
በሚያሳ ዝን</w>
መክፈ ቻ</w>
ጀ ው</w>
ንቅ ሳት</w>
ሥራ ቸውን</w>
6 5</w>
" እኔ
አይደለ ችም።</w>
አል ረሳ
ሲ ገል
ረ ከ
መዛሙ ርት</w>
እየታ የ</w>
ነ ን.</w>
ልጥ ፎች</w>
ጊዮ ርጊ
የ ላከ
በተ ረፈ</w>
ዝ ምድ
መግ ደል</w>
ለማ ጋራት</w>
ጣ ና</w>
ዛ ሪ</w>
ባር ነት</w>
መ ድን</w>
ac k</w>
ፖ ር</w>
ውይይ ቶች</w>
አሳ ዳ
በ አንፃ
ሙ ላ
ሊ ሰማ
ታስ ቦ</w>
በ ኔ
ለ .</w>
ዘረ ኝነት</w>
እኩ ለ</w>
ጥ ም።</w>
ወ ሮች</w>
ካ ምፕ</w>
አይ ቼ</w>
ደራሲ ው</w>
ታ ረ
ቢኖር ም</w>
መል ሶች</w>
የምና የው</w>
ስ ቴ</w>
ም እራ
መ ሲ
ዳ ውን</w>
ዘጋጀ </w>
እ ጁ</w>
አሳ ድ
በመካከ ለኛው</w>
በ ከተማ
ሻ ለሁ።</w>
r an
የ እድገት</w>
ማ ና
የመ ዋ
ነው -</w>
" በዚህ</w>
ፀ ጋ</w>
አሳ ስ
ይመጣ ሉ</w>
አለ ችው።</w>
ት ሽ</w>
የሚያ ግ
ሠራ ተኞ
ጭ ራ
በ ዘርፉ</w>
ሩ ሲያ
ዱ ና</w>
የሰ ዎችን</w>
ቶ ፣</w>
የመ ቀ
አመልክ ተዋል።</w>
አ ያስፈልጋ
en d
a st
ጥ ብ</w>
ከ ወጣ
ናል ድ</w>
ሰብ ሳ
ፈረ ሰ
ይጠብ ቁ</w>
ዜ ማ
ማሳ ካት</w>
ታ ለሁ</w>
ባ ዮች</w>
በተ መሳሳይ
ያስ ገ
ካ ህን</w>
ህይወ ታቸውን</w>
አን ችል
መሳ ይ</w>
የመ ማር</w>
ኮን ስትራ
በቋ ሚነት</w>
ጥ ሎ
እ ሺ
ኦሮ ሞ
ስፋ ፋ</w>
Bitco in</w>
: 20</w>
ቻል በት</w>
ቀበ ሌ</w>
የሽ ግግር</w>
ከፋ ፈል</w>
አድር ጋ
በበኩ ሌ</w>
ስ ስ</w>
ይሰራ ል.</w>
እንደ ነበረው</w>
ተ ጨዋ
በ አብዛኛዎቹ</w>
ተ ፈጽ
ጥፋ ተኛ</w>
ዳ ጃ</w>
ዘፈ ኖች</w>
ንጥ ል</w>
ዴ ስ
ች ን፣</w>
ሃገ ራችን</w>
የተወሰ ኑትን</w>
ዝ ር</w>
በቀ ላል</w>
ሳይ ኖር</w>
ኦርቶ ዶክስ</w>
በ ክ
ሚዛ ናዊ</w>
አንዳር ጋቸው</w>
ነበር ፥</w>
ትዕ ይን
መሆ ኔን</w>
እንስ ሳ
ምር ጡን</w>
ማ ቲ
ሃ ምሳ</w>
ጥ ለ
ይ መር
ታስ ታው
ውቅያ ኖስ</w>
በ ሙ
ሊ ዮኖች</w>
ብሎ ኛል</w>
ደ ባ</w>
አላስ ፈላጊ</w>
ነኝ ,</w>
ልጅ ,</w>
COVID -19</w>
ኑ በት</w>
ቀዳ ዳ</w>
ያግ ዛ
አነ ጋገ
ች ን።</w>
ሴ ንት</w>
f f
6 6
ል ኡ
እ መለሳ
እግዚአብሔር ።</w>
ር )</w>
ሜ ካ
ማዕ ቀፍ</w>
ፈቃደ ኝነት</w>
ያስታው ሱ</w>
የሚ ባሉ</w>
ስለ ምት
ል ከ
ፀ ጋ
ካ ኔ</w>
ብልጽ ግና</w>
በመ ጫን</w>
ሰ ናል</w>
ሙ ና</w>
ልን ገር
ጌታ ው</w>
ያስፈልገና ል።</w>
ከተ ባለ</w>
አም ስቱ</w>
አለብ ህ።</w>
ሽ በት</w>
i t</w>
ተወካ ይ</w>
ባ ሌ</w>
ርዕ ዮ
ጉል በ
የሚፈል ገው</w>
ኤሌክትሮ ኒክስ</w>
ቤተሰ ቤ</w>
እንግዲ ህ,</w>
አስ ጨ
ጥቃ ቶች</w>
እው ቂያ</w>
ቆይ ተዋል።</w>
ካል ሆኑ</w>
ከፈለ ጉ
ብ ዕ
የሞ ተ</w>
አን ዴ
አስተ ው
ነት ዎን</w>
ዳ ል.</w>
ተገ ኘ</w>
መ ገባ
ጀመር ያው</w>
ድ ፍረት</w>
እንደ ተሰ
ኑ !</w>
በውስ ጣቸው</w>
" ስለ</w>
መታ ሰቢያ</w>
ዳ ዊ</w>
አ ጉ
ት ው
በአ ጋጣሚ</w>
ማስተ ዋ
ሃይ ድሮ
° </w>
እ ቆ
ካ ላችሁ</w>
ቡድ ናችን</w>
ወ ፎች</w>
ታ ለሁ።</w>
ስር አ
ምህ ረ
መንግስት ም</w>
ይረዳ ል።</w>
የሚ ተዳ
ል ፡</w>
ዱ ላ</w>
እን ጨ
አ ጥር</w>
በ ና
ሐ ይቅ</w>
A n
ከ መስመር</w>
የ ድጋፍ</w>
አንባ ቢዎች</w>
ጠፍ ቷል</w>
: 19</w>
የተ ገ
የሚያደር ጉትን</w>
የ ራሳችን</w>
መጠ ሪያ</w>
ሊ ሠራ</w>
ያ ደረጋ
እህ ቶች</w>
ንግድ ዎ</w>
መሆና ችን</w>
መ ኮን
ጃ ዎች</w>
የሚ ሠ
እር ቅ</w>
አምላካ ችሁ</w>
ተዋ ይ</w>
መድሃኒ ቶች</w>
ለህ !</w>
ተባ ባሪ</w>
ዓይ ነ</w>
ሲ ን
አናው ቅም።</w>
ጢ ሞ
ገዳ ም</w>
ይጨም ራል።</w>
መልዕክ ቶችን</w>
ጓ ዝ
ብቻ ።</w>
% )</w>
ፈጽ ሙ</w>
የሚፈል ገውን</w>
ዕ ራ
ስብ ከ
ድር ግ</w>
ይሰጣ ሉ።</w>
ኪ ዎች</w>
እመ ቤት</w>
ለ ሥራ</w>
ፍ ተ
ፈጣ ሪ
ጋር ።</w>
ስምም ነቶች</w>
ሰ ሜ
መ ል</w>
ከ አንዱ</w>
፱ </w>
ፖር ቱ
ደግሞ ,</w>
ደ ቀ
ይገ መ
የምር መራ</w>
አልነበረ ውም።</w>
ስላ ለ</w>
ፋ ውን
እ ኖራ
በማ ግኘ
ሞ ያ
የ ኪ
ዓ /
ኛ ,</w>
መቁ ጠሪያ</w>
ጂ ኦ
ይዘ ቱ</w>
ያስፈልግ ዎታል.</w>
ጣ ል.</w>
ይ ዳ
የ ብል
ከ አስር</w>
አውሮፕላ ኖች</w>
የካ ቲት</w>
ክሪ ፕ
ከ ስራ</w>
ይፈ ት
የመ ዝናኛ</w>
ቸው )</w>
መርከ ቦች</w>
መራ መድ</w>
ለ ቀው</w>
ድ ና
የ ደስታ</w>
ሰላ ሳ</w>
ሆቴ ሉ</w>
ኚ </w>
እንዳ ዘ
ንግ ግራ
መ ወሰ
ለመ ወያየት</w>
እን ከን</w>
አ ቸው።</w>
መዋዕ ል</w>
I N
የማ ኅ
ሳዑ ዲ</w>
ሰዓ ቱ</w>
መተግበ ሪያውን</w>
ለው ፣</w>
ኳ ን
ታ ዬ</w>
በኋላ ፣</w>
በመ ፈለግ</w>
ህገ -
አጋን ንት</w>
ተገ በር</w>
ተቃው ሞ
ኩ ና</w>
አ ቻ</w>
የ ወንዶች</w>
ሞ ሮ
6 00</w>
መተግበ ሪያዎችን</w>
እንዲ ወጡ</w>
አ ግብ
ትዕግ ስት</w>
b o
እንደሚ ታወቀው</w>
በፊ ት,</w>
በመ ረ
ሲ ያደርግ</w>
አት ጨነ
ማ ኑ
መስ ዋ
ት መስ
ማስ ወገ
ሊ ከናወን</w>
ዓመ ቷ</w>
መከ ር</w>
እኛ ስ</w>
ኢንተር ናሽናል</w>
ሉ ...</w>
1 ፡
ጥፋ ቱ</w>
የ ገደ
አሳ ታ
ቦር ሳ</w>
ሰለ ሞን</w>
ይስጥ ልኝ</w>
ክ ?</w>
ቱሪ ስቶች</w>
en t</w>
ኢ ስታንቡል</w>
አለ ሁ</w>
ተአም ራት</w>
ተቀ በለ
ሮ ቹን</w>
ደንበ ኝነት</w>
ሪያ ም</w>
ግብ ፅ
የሚ ደርሱ</w>
1 ,</w>
ፈለ ጉ
የ ቢ
ቅ ደ
ሚስ ቶች</w>
Twit ter</w>
ድን ች</w>
ነው '</w>
ሊ ና
አለ ቀ
ንያ ን</w>
በ ድም
የ ሰው
ምስ ክሮች</w>
መለከ ቱ
የሚገል ጽ</w>
ወር ቅ
አያስፈልግ ም።</w>
ው ም.</w>
ኢሕ አዴግ</w>
ነበ ብ</w>
ተቃ ር
ጠባበ ቅ</w>
ገ ብር
የ ጥናት</w>
አስ ገዳ
በር ን</w>
ወሰ ድ
እናቀርባለ ን</w>
አ ና</w>
በቀ ድ
ሳ ለን</w>
e ar
ከ ብር
ከ ሕዝቡ</w>
አሰል ቺ</w>
ናገ ኝ</w>
ቤተሰ ብዎ</w>
ትዝ ታ</w>
ማህ በራ
ለማ መን</w>
7 -
ያ ሰማ
ቶ ኝ</w>
ታይ ቶ</w>
ብስክ ሌ
ሞ ቃ
p h
ደ ሳ
ያስፈልጋ ቸው</w>
ዝር ያ</w>
ት በት</w>
t :</w>
:2 9</w>
እየ ደ
ስ ቱን</w>
ል ታ</w>
አይሰራ ም</w>
መመ ዘ
ለ ስራ</w>
ፍ ፣</w>
ያለ ፈውን</w>
አ ከራ
በ ሉ።</w>
4 1</w>
በ ጠ
ያ ዩ</w>
ማስተ ናገድ</w>
ይገባ ናል።</w>
ይሠራ ል።</w>
እነሆ ም፥</w>
ቁ መት</w>
ቀ ንድ</w>
ዊንዶ ውስ</w>
ፍቅር ና</w>
ጠየ ቃ
ኦባ ማ</w>
ለማስተ ዳደር</w>
8 00</w>
የታ ገ
ሀ ል</w>
ጸጥ ታ</w>
የ ሌሎችን</w>
እንዳ ደረገ</w>
ል '</w>
p ></w>
ሀ ዲ
ደብ ረ</w>
ያ ላችሁ
ኤ ግዚቢ
ለሚ ገኙ</w>
ፋውን ዴ
ማ ባ
ፍ ዎ</w>
ገ ኝነት</w>
ዶ ን</w>
ድረ ው</w>
እየተ ከናወነ</w>
ቃ ለ
ለሁ ::</w>
አዕም ሮ
ለመ ከተል</w>
የታዘ ዘ</w>
የራ ቀ</w>
ወ ሎ</w>
ና ል"</w>
ለ ምን</w>
ብ ሶ
ለ ዛ</w>
ታ ቦ
ቅ ቅ
ማ ቋቋም</w>
ይ ወደ
የተ ዘ
ክፍ ፍል</w>
አስተ ባባ
ሊ ዝም</w>
ይነ ሣ
አዎ ፣</w>
አይ ጠፋ
ስል ኩን</w>
ሳ ስብ</w>
ለመግ ደል</w>
እያ የን</w>
አሻ ራ</w>
Amhar ic</w>
ያስከት ላል</w>
ንብረ ቶች</w>
f one</w>
የተ ባሉ</w>
በ ብቃት</w>
ብ ሽ</w>
እንዲ ያደርግ</w>
አውታረ መረብ</w>
ተ ቆር
ማ መቻቸት</w>
በእ ጥፍ</w>
ች ኛው</w>
ሯ ችን</w>
ማ ተኮር</w>
ፅ ዳት</w>
ገን ዳ</w>
ኩኪ ዎች</w>
ማይ ክሮ
ድ ።</w>
እን ሰ
ቻ ት</w>
ተ ሽ
መን ጋ
የሚ ጠቀሙ</w>
እርግ ማን</w>
ላ ቲን</w>
19 5
ያ ብ
በመ ሣ
የቀ ጠ
ቸዉ ።</w>
ሶ ስቱ</w>
ሲ )</w>
ወ ፍራም</w>
: 1</w>
ተ መልከት</w>
ላይ ፣</w>
ገ ዢ</w>
ደረጃ ን</w>
ይችላ ል፤</w>
ኮን ግ</w>
ካት ት</w>
በመ ቀጠ
ለማጣ ራት</w>
ዱ ፤</w>
የሚ ሰራው</w>
የ ገባው</w>
የ ኖር
ድረ- ገጽ</w>
ይገልጻ ል።</w>
ከ ማለት</w>
ቤተሰቦ ቹ</w>
ከ ሩቅ</w>
ትን ሽ
ተመለ ሰ
ባ የ
የተ መሰ
እሆና ለሁ</w>
ታ ችሁም</w>
ብ ድ
ሕይወ ቴ</w>
ገም ገም</w>
የሚታ ዩ</w>
ሻምፒ ዮ
ወዳ ጃ
ሕ ብረት</w>
s s
- -</w>
ዋ ሚ</w>
ነ ዋል</w>
በረ ራዎች</w>
መ መልከ
ጭ ቆ</w>
ጢ </w>
ነግረ ኝ</w>
ደ ዋል።</w>
ይ ፈልጉ
የ ጀመረ
ህወ ሓ
ክ ,</w>
ከ ነ</w>
በመ ግ
ቀ ው።</w>
ማሳ ወቅ</w>
ማ ቅ
ለመ ግለ
መ ዘር
ፈለ ጉት</w>
ይኸ ውል
ይቆ ጥ
ሊ ዝ</w>
ለማስተ ዋወቅ</w>
ሀገ ሩ</w>
ግጭ ቶች</w>
የሚያስ ፈልገውን</w>
እ ወስዳ
አቅ ም
ምና ሌ</w>
የማ ይወ
ኮሚ ሽኑ</w>
ተከታ ዮ
በጥቅ ሉ</w>
ፈ ሰ
ጉድ ለ
አገኘ </w>
ሚ ለው</w>
መስ ተዳ
ለመ መርመር</w>
li >
< li>
ኮ ም</w>
አስረድ ተዋል።</w>
ፍ ፃ
ድግ ስ</w>
የሚወ ድ</w>
ነ ካ</w>
መ ታወ
an g
በት ር</w>
ለመ ሳብ</w>
የሚ ጠበቅ
አ ትን
ያግኙ !</w>
የ እርሻ</w>
አሻንጉ ሊት</w>
መ ቀበ
ሆኑ ,</w>
ፔ ዲያ</w>
በ እም
ሩ ዝ</w>
የት ርፍ</w>
ዝግ ጁ
ዐ ዋቂ</w>
አውራ ጃ</w>
ማስታወቂያ ዎችን</w>
ግብ ሩ</w>
የ ሙሉ</w>
B C</w>
ጠቃ ሚ
ኖ ችም</w>
ሲ መጡ</w>
መስ ተጋ
በ ዝ</w>
መል ቀቅ</w>
ኦ ዲት</w>
እስ ራት</w>
ሲስተ ም</w>
ጣ ዖ
ይ ከላከ
ይ ሳተ
Cl ou
ፈለ ጋ
አይ ተው</w>
ጉድ ጓ
አስ ገድ
መ ጀመ
ድ ፣</w>
የሚ ረዳ
የመ ያዝ</w>
የ ሜ
እ ጠራ
ነገረ ው።</w>
አዛ ውን
ተፈጥሮ አዊ</w>
ት ፡</w>
ሲ ንጋ
( 1</w>
ድራይ ቭ</w>
እን ገና
በማ ግኘት</w>
ሽ ቦ</w>
ሳ ል.</w>
ይጠ የ
ለ ክ</w>
ሚን ስት
መመ ሪያዎችን</w>
እየ ሱስ</w>
አለባበ ስ</w>
ለመ ዝ
ለመ ነጋገር</w>
ዮና ስ</w>
ተፈ ት
እያለ ች</w>
እንደሚያ መለክ
አይ ፈልግም።</w>
ተገና ኘ
Re :</w>
እንደ ገና
አግ ኝ</w>
ስላ ላ
ሰ ቆ
20 %</w>
ቧ ቸው</w>
ቅ ጂ</w>
ሪያ ቸው</w>
ማ ካሄድ</w>
ፓ ለቲ
የ ስደተኞች</w>
ው ክ
ትርጉ ሙ</w>
ላ ዎች</w>
አለ ህ</w>
ታ .</w>
ሪፖር ቶች</w>
ማር ቆስ</w>
ፅን ሰ-
አድ ጓ
ቸ ል</w>
ብ ይ</w>
ባለቤ ቷ</w>
@ </w>
3 ፡
ተከ ስ
በተ ካሄደው</w>
ሙ ኒ
ውለ ታ</w>
ድረስ .</w>
አካ ል
ተቀላ ቅ
ብ ራት</w>
ሰረ ዝ</w>
ምሰ ንግ</w>
ሁ ና</w>
B l
የ ነበራ
ኔ ል</w>
ት ሄዳ
ተመለ ሱ።</w>
ሁለ ገብ</w>
እርስ ዋ</w>
ቴ ዲ</w>
u e</w>
ነት )</w>
ረ ፍ</w>
ሚ ዝ</w>
ለማሳ ለፍ</w>
ለመም ራት</w>
ጠን ከር</w>
ይ ድረ
ካ ዚ
ለው ጥን</w>
2 ,
ኦ ን
ተሳፋ ሪዎች</w>
ብ ኛል።</w>
ፌ ሶን</w>
ጧ ት</w>
ጋ ኒ
አዘገጃ ጀት</w>
በ ግል
ሣ ር</w>
እና ቷ</w>
ቁር ጠኛ</w>
ም ጽ
የሚ ጣ
ሰ ዎች,</w>
ለህ ፥</w>
ro te
ያስ ፈራ
የበ ኩ
ባ ር</w>
c e</w>
ግ ቦችን</w>
ውድ ቀ
አያ ቴ</w>
ታ መ
በ ፊት
ሳ ትን</w>
አመሰ ግን
ለማስተ ማር</w>
4 9
ይጀም ራል.</w>
የታመ ነ</w>
ተቀ ብሎ</w>
በ ችግር</w>
ለማ ት</w>
Wi -
ፖ ን
ጸ ና</w>
ዝርዝ ሮችን</w>
ሐ ት</w>
ሉ ህ</w>
ነ ቷን</w>
ተሰ ብ
በመ ግባት</w>
ቀጥ ሏል</w>
በማ ዕ
ቂ ም</w>
ቀ ሚ
አ ጽና
ሁሉ ,</w>
ብል ህ
የ ሱ
አይ ጠቅ
ጀ ግና
ካ የ
ከ መጠ
በ ሱ
የ ጥ
ኢን ች</w>
አመሰግና ለሁ!</w>
አው ደ</w>
; ,</w>
ፌዴ ራ
አዳ ኝ</w>
ስብ ከት</w>
ሪፖር ተር
ከሆነ .</w>
ኒ ቱ</w>
ነ ቱም</w>
መር ፌ</w>
መ ወያየት</w>
አን ጎል</w>
ለማስተ ላለፍ</w>
ጡ ና</w>
ክብ ሩ</w>
እንዲ ወጣ</w>
ን ህ</w>
ታ ምና
</ p></w>
ጎ ደ
ሃ ል.</w>
መስ ህ
A T
ያን ተ
የሚ መራ</w>
ተመለ ሰ።</w>
መሆ ንን</w>
እችላ ለሁ
4 3</w>
ጸ ጋ
የምዝ ገባ</w>
የምት ችለው</w>
አይመስለ ኝ
ድር ብ</w>
ደ ጃ</w>
የተ ከተ
መ ውን</w>
ሕዝቅ ኤል</w>
በ ዙ</w>
ፋ ችሁ</w>
ይሄዳ ሉ</w>
እረ ኛ</w>
የተሳ ካ</w>
ችሁ .</w>
ቢ ጫ</w>
ጠ ባይ</w>
የ ራስህን</w>
በ ጽሑፍ</w>
ማ ላ
የማ ወቅ</w>
በ ይነ
ከሚ ገኙት</w>
በ ራስዎ</w>
ጸሎ ቶች</w>
የምን ኖረው</w>
እ ኅ
በ ሸ
ዓ/ ም</w>
Micro soft</w>
ይሁ ዳ
የተጻ ፈው</w>
የመ ሰ
ዓለማ ት</w>
አድርጎ ታል።</w>
አንዳን ዱ</w>
ri ve</w>
የ ብሔራዊ</w>
እስ ከማ
ችላ ቸው</w>
ቀጣ ይ
ማ ካተት</w>
ጼ </w>
ጠዋ ቱ</w>
እና ቴ
ተሟ ጋ
ማ ማት</w>
የሚ ውል</w>
ዥ ነት</w>
ዘይ ቤ
አ ዙ
ቆን ጆ
ይኖራ ሉ</w>
የተቋቋ መ</w>
አደ ሮች</w>
ነበረ ብኝ</w>
ለ ራስዎ</w>
ክህ ሎ
እም ሮ
ለማን ሳት</w>
እጃ ቸውን</w>
አ ዘጋጅ</w>
ማ ቆየት</w>
ይኖረ ዋል</w>
የ ኝ</w>
አታ ስ
ጥቂ ቶቹ</w>
ድንጋ ጌ</w>
ደረሰ ።</w>
አናው ቅም</w>
ትንበ ያ</w>
ምልክ ቶችን</w>
ማስታወሻ :</w>
ዷ ን</w>
እንዲ መጣ</w>
th e
በ ቡድን</w>
ሸክ ላ</w>
አይቀ ሬ</w>
አ ተ
ራ ና</w>
ጽሑ ፉ</w>
ጃ ም</w>
ከመ ሆኑም</w>
እ ሴ
ግባ ባ
ገ ስ</w>
የገ ጠ
የደረ ሰው</w>
ስት ሮ
ሯ ት</w>
መታ ገል</w>
ድር ጣቢያ
ይጨም ራል</w>
የ ድርጅቱ</w>
ተጋላ ጭ</w>
መከ ፋ
ሃ ለሁ፤</w>
የመ ጠጥ</w>
እንኳ ን</w>
በተ ራ
ማመልከ ቻ
ጡን ቻ
ድ ኃ
ያገለግ ሉ</w>
9 5</w>
ደ መና
እየሞከ ሩ</w>
ቶ ቼን</w>
በ ሦስተኛው</w>
a w
6 -
2 ,</w>
ጅ ብ</w>
ይ ሞክራ
ተ ላለፍ</w>
ብቸ ኝ
ቀር ቦ
ሁ ከት</w>
st r
ያስ ቀ
ወቅ ቶች</w>
ፈጣ ሪዎች</w>
የምታ ደር
አመ ላካ
ተ ውም</w>
200 2</w>
ያካ ሂ
የተገነ ባ</w>
የ ጥፋት</w>
ነት ህን</w>
ባ ድ
ጠ ህ</w>
እያደረ ግን</w>
ምክ ሮችን</w>
ማር ያ
ል ኝ
አዲ ስ
አሳ ፋሪ</w>
ማው ጫ</w>
ለመ መዝገብ</w>
ይሁ ኑ.</w>
ዕው ቅና</w>
እና ያለን።</w>
ሳ ኦል</w>
ሮ ይድ</w>
መነ ጋገ
ፈቃደ ኞች</w>
ቲ ቪ
I P
ጦ ስ</w>
የሚ ሆኑ
አስ ቴ
ንቅና ቄ</w>
ለ ምንድነው?</w>
ዳን ስ</w>
ስ ሞ
የ አመጋገብ</w>
በመስ ቀል</w>
በመ መልከት</w>
መሳ ሪያዎችን</w>
ሊ ቢያ</w>
ኬሚ ካል</w>
ቦ ይ</w>
ሕይወ ቱን</w>
ወ ረ</w>
ቃ ው</w>
ስል ኩ</w>
ሰን በት</w>
የ ዲ
ወን በ
ምሥ ክሮች</w>
ፍ ሰ
ኩ ትም</w>
የ ጭ
የ ሙ</w>
ሻ ን</w>
ل </w>
ደረሰ ኝ</w>
የመ ካከ
ሳይንቲ ስቶች</w>
ዕር ዳታ</w>
ህ በት</w>
ኖ ት</w>
ለማ መልከት</w>
ድም ዳ
ያሳ ያል.</w>
ሰጥ ም</w>
ሊ ወስ
የተመዘ ገበ</w>
አደረጃ ጀት</w>
በ ብሔራዊ</w>
ያመጣ ል</w>
የምን ለው</w>
አዝ ፦</w>
በል ጥ</w>
ሰን ጠረዥ</w>
ርሽ ር</w>
ሪያ ል</w>
ግ በር</w>
አ ደርገ
' s</w>
ያ በረታ
ዩ ኤስ</w>
የ አገራችን</w>
አስፈ ጻሚ</w>
የገ ቢያ</w>
አል ያ
ፈ ነ</w>
ጥ ,</w>
ግ ዢ
ሊ ደርስ</w>
ት ም፤</w>
ቴ ል</w>
አስ ፋ
ቶ ማስ</w>
ቀረ ቡ</w>
ለ ትምህርት</w>
፡ -
ግ ሎ
የሚ ኖሩት</w>
ችለ ዋል።</w>
ታ ።</w>
ቡድ ኑን</w>
ጨረ ር</w>
እግዚ ኣ
ር ቆ</w>
አስ በው</w>
ሳይ ሆኑ</w>
ወገኖ ቻችን</w>
ኪ ዳን
ት ም
ለማሳ ወቅ</w>
ጸ ባር
ጥቅ ሞችን</w>
ቷ ል,</w>
መረ ቡ</w>
ላችሁ "</w>
የፈለ ገውን</w>
እንዲ ሰሩ</w>
ዜ ሮ</w>
ይካሄ ዳል</w>
እን ቀበ
ተል እኮ</w>
በት ኩረት</w>
የሚ ከናወነው</w>
ታ ቅ
ስ ማ</w>
ምረ ቃ</w>
መንግሥ ትም</w>
የ ድርጅ
እጅ ህን</w>
h e
አገልግሎ ቱን</w>
በር ግጥም</w>
ሞ ቃት</w>
ማዕ ረግ</w>
የ ሄ
ዉ ።</w>
እንደም ችል</w>
ቸዋ ል፤</w>
7 |
በን ቃት</w>
ረ ።</w>
ም ጥ</w>
ሄድ ኩ</w>
ችሁ ኝ</w>
መል ሱ
ፈ ጥ</w>
ኃ ያላ
መ ደር
እ ያለሁ</w>
ቻ ይ</w>
መ ጪው</w>
ሕይወ ቴን</w>
ለማ ቋቋም</w>
ሆ ር
የ ጠቅላይ</w>
ዋ ው</w>
የፈለ ጉትን</w>
የተጠቀ ሱት</w>
ኮንስትራ ክሽን</w>
ተባለ ።</w>
ባልደረ ቦ
ይላል ፦</w>
መንገ ር</w>
ኮሮ ና
እ ጄን</w>
ኑ ንም</w>
ቁ ር</w>
ማስተናገ ጃ</w>
አይደለ ንም።</w>
አስተዳ ዳ
ትእዛ ዛ
ይገር መ
ተከ ናው
ሩስ ያ</w>
8 -
ፋሲ ካ</w>
ይህ ቺ</w>
የሚያሳዝ ነው</w>
ኢን ዶ
አንብ ቤ
ሳ ምሰንግ</w>
የተወሳ ሰበ</w>
የመ ደ
እንዳ ይወ
ውዝ ግብ</w>
እንዴ !</w>
እ ዛ
ሲ ሄዱ</w>
መ ጸ
9 0
ይሄ ኔ</w>
ተገለ ጸ
Po st</w>
4 9</w>
ጥሩ ውን</w>
ይደ ው
ተወያ ይ
ተከ ፋ
ቀድ መው</w>
ስትሜ ንት</w>
መን ዳት</w>
የማያ ቋርጥ</w>
ነ ን"</w>
ሶ ፍት</w>
ሙ ግ
oo k
ፋ ና</w>
ጡ !</w>
ጋ ብ
ቀ ጭን</w>
ሽ ንት</w>
የተጠቀ ሰው</w>
ሊ ጠቀሙበት</w>
እየ ቀነሰ</w>
ብር ጭቆ</w>
የሚ ነግ
ና ት.</w>
it y</w>
ፏ ል</w>
ክ ብ</w>
እጠብቃ ለሁ</w>
ትክክለ ኛ
ሊ ያገኙ</w>
ህ ም?</w>
4 5
ያየ ሁት</w>
በ ስራ
ስ ጤ
ማ ጠራቀ
መሆና ችንን</w>
ሐ ረግ</w>
የሚሰ ጡት</w>
የ ያዘው</w>
አለ ን.</w>
የተቀ ደሰ</w>
ቡ ንም</w>
ለሁ ላችንም</w>
N et
ቫ ን</w>
ስለሚ ችል</w>
ሰም ቶ</w>
የሚከ ፈል
ትር ኢ
ቍ </w>
ታደ ሰ</w>
መ ው።</w>
ፈ ውስ</w>
ጋ ለጥ</w>
ዮሐ ንስ
የመጣ ሁት</w>
መሰ ለኝ</w>
Word Pre
ጊዜ ው</w>
ዘ ነጋ
ወንድ ሙን</w>
ኔ ዘርላንድ
ጨ ብ
ጤ ነኛ</w>
የቅን ጦት</w>
ዘዴ ዎችን</w>
Wi- Fi</w>
ደጋግ ሜ</w>
ይረ ዱ
ከመ ግባ
ተ ሾ
ቆ የ</w>
ቀዳ ሚው</w>
ምግ ቦችን</w>
የሚ ኖር
የ ሥልጣን</w>
ወራ ቶች</w>
ከ ምና
አልሆነ ም።</w>
ረጋ ጋ
w rote
ፍን ዳታ</w>
ዊ ም</w>
ኸ ውን</w>
ጻድ ቃን</w>
እንዲ ሁ
ስ ረ
" እንደ</w>
መብ ቱ</w>
ዘ ቅ
ሁለ ታችንም</w>
ጽ /ቤት</w>
ቁል ቁ
ታውቃ ላችሁ</w>
በተ ባበሩት</w>
4 ፡
የ ክብር</w>
ተሰብስ በው</w>
m or
" እነዚህ</w>
ድር ጣቢያ</w>
ዳ ሴ
ኤ ክ
ተከታ ት
ተመልካ ች</w>
እንዳ ይገ
ት ::</w>
ሁ ን።</w>
( A
ተ ጎድ
ማ ም</w>
ድም ፁን</w>
አለመ ቻ
ሰራ በት</w>
ወላጆ ቼ</w>
ል ባቸው</w>
4 7</w>
ጃ ን</w>
ዲ ና
የምን ፈልገው</w>
ው ፍረት</w>
ኢንቨስት መን
ሰራ ሽ</w>
ያ ሉ.</w>
ባ ታል።</w>
ሸን ፍ</w>
መለኮ ታዊ</w>
H T
ደሰ ቱ</w>
የተወሰ ኑት</w>
የሚ ዛ
ከፈ ል</w>
ነበሩ ፤</w>
በተቃራ ኒ</w>
መስ ተ
መል ቀ
ህ ዳሴ</w>
ትረ ፈረ
ለ ዚሁ</w>
ክ ተር</w>
ካ ል።</w>
አታው ቅ
ነት :</w>
ባለ ሥልጣን</w>
ሕ መም</w>
9 9
" በጣም</w>
የሚያስ ፈልገ
ወዳ ጅ
ካ ሉ
ነጋገ ር
በ .</w>
መረ </w>
● </w>
ብ ሆን</w>
ደ ኝ</w>
ሞ ስኮ</w>
መል ሳ
a in
ጥ ሞና</w>
ክሊ ኒ
አስቀድ ሜ</w>
ሰ ናል።</w>
ሊኖር ዎት</w>
ለማ ለፍ</w>
ጭ ም</w>
ጥበ ብን</w>
ሳ ስበው</w>
የተሰጠ ውን</w>
እድ ለኛ</w>
ኖረ ው።</w>
ተ ፈጠረ
C B
ዘላ ቂነት</w>
አ ዶ
ና ሉ።</w>
በተ ቀ
ሽ "</w>
መደ ሰት</w>
ጎ ት
ይጠቀሙ .</w>
ወን ዙ</w>
አድ ናቂ</w>
ተለይ ተው</w>
ሕወ ሓት</w>
20 22</w>
የ የ
ተመልከ ት።</w>
ይው ላል</w>
አም ሳ
እሞክራ ለሁ</w>
በተ ዘ
መርሃ ግብር</w>
( ለምሳሌ</w>
ጎብኚ ዎች</w>
ይ ሉ</w>
ከ እነዚህም</w>
አ ፄ</w>
ንቀ ጠቀ
ታዋ ቂው</w>
ተለያ ይ
በአ ዋ
ቀ ሳ</w>
O n
2 |
ጽ ዋ</w>
ድንጋ ጤ</w>
የአሁ ኑን</w>
የ ኾ
ማለ ቂያ</w>
ሁለ ት
z </w>
NUM X</w>
የተ ገኙ</w>
የሚገባ ውን</w>
ዓመታ ትን</w>
በተሳ ሳተ</w>
ሰ ጭ</w>
ዶ ናልድ</w>
ድግግሞ ሽ</w>
ከ ታ</w>
በ ሜ
ምጣ ቱ</w>
ለ ትም።</w>
የተገነ ባው</w>
ዣ ው</w>
ራ ዘም</w>
መጣ በት</w>
ሉ ንም</w>
ሲ ሰ
ሰ ረ</w>
መጽሐ ፈ</w>
ምህ ዳ
ጻ ፈው</w>
ወ ዱ</w>
ሥ ቃይ</w>
ቲያ ትር</w>
በ የ</w>
ሽ .</w>
( S
ገባ በት</w>
የሚገ ለ
ዝንባ ሌ</w>
ተገኝ ቷል</w>
በ ክፉ</w>
10 %</w>
ካል ቻ
ቶ ችንም</w>
መንቀጥ ቀጥ</w>
ጥቃ ቱ</w>
ባሕ ሩ</w>
ሳ ይወ
ት ላለች።</w>
ተከላካ ይ</w>
ሲዳ ማ</w>
መጣ ጠነ</w>
መጠ ለያ</w>
ፊል ሞችን</w>
ወጥ መድ</w>
ከ ዚያ
ዓ ሉ</w>
አ ሳ</w>
በሕይወ ቱ</w>
እርሳ ቸው
አል ፎ
አል ማ
ቀላ ቀል</w>
አምባሳ ደር</w>
ን ንም</w>
ለ አዲሱ</w>
ከብ ት</w>
ችኋ ል፤</w>
ቲ ክስ</w>
ሐሰ ተኛ</w>
ደ ች</w>
ለመቅረ ፍ</w>
አላቸው ፤</w>
ሙ ታ
ሄዱ በት</w>
የማ ይጠ
አይደ ላችሁ
ፈለ ገውን</w>
ዘመ ቻ
ከን ፈ
የ ድርጅት</w>
አ ያገ
ኃጢ አታ
መስዋዕ ት
ተደርጓ ል.</w>
ማስተ ዋወቅ</w>
የለባ ቸውም።</w>
ኤ ፍሬ
የሚያው ቁ</w>
እስ ልም
በማን በብ</w>
የተናገ ር
የሚ ደረገ
የሆነ ች</w>
ከ ዳ
P ay
ጭ ው</w>
እን ኖራ
እነሱ ም</w>
ብዙኃ ን</w>
አንደ ኛ
አን ገት</w>
ሆ ን።</w>
ድረስ ።</w>
ካህ ኑ</w>
አልቻል ኩ
በ ዝቅተኛ</w>
ስል ቶች</w>
ሟ ን</w>
ምር ኮ
አየር ላንድ</w>
አ ቸውን</w>
' እኔ</w>
" )</w>
ቴ ንም</w>
ቆ ል
ድ ህ</w>
የሚረ ዳ</w>
ም ዎ</w>
ክ በ
ስታ ውስ
... !</w>
የቀረ ቡ</w>
ከ ጨረ
እድሜ ያቸው</w>
አይሁ ዳውያን</w>
አመጣ ጥ</w>
አለ ፦</w>
ለ ትም</w>
የ ከተማዋ</w>
አ ያገኙ
መጽ ና
ደር ግም</w>
ዐ ረ
አምባገነ ን</w>
ኗ ን</w>
ችኋ ል?</w>
ቻ ችሁን</w>
ተነግ ሯል።</w>
በተጨ ባጭ</w>
( እንደ</w>
ትን ንሽ</w>
መደ ብ
ኪ ው</w>
አልነበሩ ም</w>
ቢ ያስ
በአ ጠቃ
ሲንጋ ፖር</w>
ራ ዎችን</w>
የነበረ ው።</w>
የሚ ናገረው</w>
ሮ ችና</w>
ማጨ ስ</w>
ወደ ውን</w>
ቪዲዮ ውን</w>
ለው ም።</w>
የተ ላለ
ስት ሪ
ስሪ ቶች</w>
የመ ጠቀም</w>
ምን ዛሪ</w>
ያረጋግ ጡ.</w>
ዘ ሌዋውያን</w>
ዓ ዛ
ም ያ</w>
ጠ ጥ
እንዲ ኖር
አሰ ና
አልቻ ሉም</w>
ቢ ታ
ቋ ት</w>
ቀልጣ ፋ</w>
ጥረ ቶች</w>
አንደ በት</w>
i v
Nex t:</w>
የታ ሰበ</w>
የ ጥገና</w>
የ ሳምንቱ</w>
የ ሌላውን</w>
ኮምፒዩ ተር</w>
ከ ልክ</w>
ነ ታችሁ</w>
ርድ ዌር</w>
ሬ ድ
ማዕ ዘን</w>
ፈ ች</w>
በ ጥ</w>
ሰ ሩት</w>
ጠን ቋ
ይሰራ ል።</w>
አለብ ን.</w>
ትዕዛ ዞች</w>
ም ፣
መሐ መድ</w>
ለሁ :</w>
ክ ዋ
ተደር ጎ
መገ ም
ላችሁ !</w>
ጸ ድ
እባ ብ</w>
ተናግ ረዋል</w>
ሕንፃ ዎች</w>
:3 2</w>
ከበ ደ</w>
ሲ ነሳ</w>
ላቀ ሉ</w>
( P
የ ላይኛው</w>
ከ ፋ</w>
ተቃዋ ሚ
ይጠይ ቃ
ወረ ራ</w>
እስ ቴ
ምንድ ናቸው?</w>
ዝግ መተ</w>
እንዲ ያገኝ</w>
አላየ ሁም</w>
ባ ለማ
በማ የት</w>
ሁላ ችንንም</w>
እ ዉ
ትዕግ ሥት</w>
ደረሰ ባቸው</w>
ዝማ ኔ</w>
ወ ረዳ
ከ ስ</w>
ሀ ል።</w>
ክ ።</w>
ስተ ናገ
ለ አንዳንድ</w>
የተ ማሪ</w>
የሚያ ምን</w>
ወ ገን
ቧን ቧ
መንግሥ ታዊ</w>
ዘ ቀ
አውጥ ቶ</w>
ተገ ለጠ
ለ ትን</w>
የት .</w>
ዙ ።</w>
እንዲ ሰጥ</w>
ት /ቤት</w>
ቍ ር
ለህ "</w>
M O
ድ መት</w>
የሚ ወስድ</w>
የመ ጡት</w>
መር ጥ</w>
ሕ ጻ
ፍ ቱ</w>
ያስተ ምረ
ኮን ት
ድ ሃ
ለዘ ላለ
" ታዲያ</w>
የ ችግሩ</w>
ከ ሞ
ተር ጉ
ቤ ል
ራሳ ችን
አንዳ ችን</w>
አላቸው ,</w>
በመ ጠበቅ</w>
ቀ ዋ
ማ መስገን</w>
በ ክፍል</w>
ጭም ብል</w>
ጠፍ ቶ</w>
እስኪ ያ
ተ በት</w>
ኮርፖ ሬሽን</w>
አይ በል
ተቋ ቁ
ከ ሆነው</w>
ከ ሃ
እና ያለን</w>
እ ሽ
አን ኳ
ሕገ -
4 6</w>
የመጀመሪያ ዋ</w>
ማጠቃ ለያ</w>
ለመቀ ላቀል</w>
c </w>
ፎ ርድ</w>
ያስ ም</w>
የተሰ ሩ</w>
አን ዱም</w>
ተፈ ጻሚ</w>
ሜት ሮ</w>
መረ ጥ
የ ታወቁ</w>
ከሚ ያ
ብሔ ር
በ ኢሜል</w>
ለመ ገ
ግብ ዓት</w>
ዩኒቨር ስቲ
የጎደ ለው</w>
የ አመራር</w>
ሲ ኾን</w>
ገዢ ው</w>
ደ ቱ</w>
የሚ ሠራው</w>
ት ላን
አስተ ምረ
ተሰ ራ
ረ ኝ</w>
ፉ .</w>
ይከሰ ታል</w>
ያደር ገና
እ ፈራ
ሴ ን
መን ከባከብ</w>
A r
ውር ደት</w>
1 20</w>
የማ ያውቁ</w>
ዎች !</w>
ችግ ርን</w>
ቬ ን
ቁር ጥ</w>
ማ ነ
ሀ ቅ</w>
ው ጪ
በላ ሸ
ሶ ሪያ</w>
ድር ም</w>
ዳ ዋ</w>
ይለ ናል።</w>
የ ነፃ</w>
እንዳ ሳ
አ ዉ
መገባ ደጃ</w>
ገል ፃ
እንዲ ቀጥል</w>
ተደ ሰ
ሰ ፋ
ሞ ራል</w>
ሌሊ ቱ</w>
Clou d</w>
የሚች ሉበት</w>
የሚ ደርስ</w>
ቦ ችና</w>
ቤተ ክርስቲያን
ሺ ሕ</w>
ስብ ዕና</w>
ሏ ቸውን</w>
ፖ ስት</w>
ይታ ያሉ።</w>
ሩ ፥</w>
እንገኛ ለን።</w>
ባ ወጣው</w>
ቅን ብሮች</w>
ምክ ር
ጥም ቀት</w>
ድ ፍረ
ያካት ታል.</w>
የሚ ቻ
ቸው ም፤</w>
ባ ቱ</w>
ጉዳ ቱ</w>
ሽ ፤</w>
የወደ ፊቱን</w>
አም ስተ
ኋ ለኛው</w>
ቲ ንግ</w>
ቀ ውም</w>
ፈ ህ</w>
ይ ዛ</w>
የተቀመጠ </w>
መጠ ና
ትሪ ክ
ባ ደረገው</w>
} </w>
የአ ፈ
እንደ ሆንን</w>
ነ ሣ</w>
ሪያ ዎ</w>
ቸ ኮ
እግዚአብሄ ርን</w>
አመ ክን
ቦም ብ</w>
ይግ ዙ</w>
የሚያስ ችሉ</w>
የ ከተማው</w>
ከፍተኛ -
እ ረዳ
አወቃ ቀር</w>
ፕሪሚ የር</w>
ጥ ሰት</w>
ገደ ሉ</w>
ይገል ፃ
ኮሚ ሽ
አብራ ር
ነ ቃ</w>
ጣ ጣ</w>
ጠር ቶ</w>
ተግዳሮ ቶች</w>
በ ከባድ</w>
ሔ ዋን</w>
ጠየቀ ው</w>
ያ ሸነ
እሳ ቱ</w>
ታሪ ኮችን</w>
ታማ ኝነት</w>
' በ
ኑ ት።</w>
በ ኪ
ጣ ችሁ</w>
ሰ ሚ</w>
መግለ ጫው</w>
E S
ለመ </w>
ፍራ ፍሬ</w>
ይ ኾ
ያ ተኩ
ካ ሲኖ</w>
እውነ ተኛ
ን ብ</w>
በ ጉዞ</w>
ሠ ል
ል ፡-</w>
:3 1</w>
" "</w>
ዙ በት</w>
በ ስልጣን</w>
ሥራ ዎቹ</w>
ማ ራ</w>
እንደተ ለመደው</w>
አር ታ
መፍትሄ ዎችን</w>
ጥ ገኝነት</w>
መግ ዛ
ፈረ ም</w>
ኮንት ራት</w>
ቫ ል</w>
ምዕራ ባ
ፖ ል</w>
የተቀ መጡ</w>
ወንጌ ልን</w>
ወ ተ
ካ ደረጉ</w>
አል ፈልግም
ተጠና ክሮ</w>
ባ ት።</w>
ይለ ዋል።</w>
ይሁ ዳም</w>
የ ዋ</w>
አሲ ድ</w>
ሃ ል፤</w>
< <
አን ድም
በ ጥበብ</w>
ሲ ነጻጸር</w>
መተ ካት</w>
ች ሉ
ባ ዎች</w>
ዋዋ ሪ</w>
ባ ትን</w>
ይማ ሩ</w>
መጠ ንቀ
ይቀጥ ሉ</w>
አድርጓ ል.</w>
የ ያዝ
ፊደ ላት</w>
የፈጠ ረ</w>
እንድን ሆን</w>
ኢ ሳ</w>
ነበ ቡ</w>
ቁ በት</w>
ር ህ
ድ ያ</w>
በመ ጣ</w>
ማ ችንን</w>
ጊዮርጊ ስ</w>
የበረ ራ</w>
እንዲ ሰራ</w>
ደሳ ለኝ</w>
የለበት ም.</w>
የ ቱን</w>
ቤተሰ ቡን</w>
ዳ ኞች</w>
አል ፤</w>
ትናን ት
ይዘ ህ</w>
የራ ሴ</w>
የሚገኙ ትን</w>
ብር ታት</w>
ቅርጸ ቶች</w>
ገላ ጭ</w>
የ ኢን
በመ ከተል</w>
ማብ ቂያ</w>
ፊ ነት</w>
የመ ራ
እንደሆነ ች</w>
ነ ስ
ፕሮ ቲን</w>
ክህ ነት</w>
ሊ ሰጠው</w>
ይኼ ን</w>
ዘግይ ቶ</w>
ኮን ትራ
እስ ከዚህ</w>
ሲ ጀምር</w>
ስም ፣</w>
B et</w>
ዓመ ቴ</w>
ኛ .</w>
ኑ ,</w>
ዳ ኒ</w>
በ እርሳቸው</w>
ፈጥ ረው</w>
ኮር ስ</w>
ኒ ኮ
በሚ ሊዮኖች</w>
በ ኣ
ሴ ትዮ
መር ዛ
6 |
ተ ጀመረ</w>
በቅር በት</w>
ይ ጓዛ
የሽ ብር</w>
የ ሀገራችን</w>
እንጂ ,</w>
ት ይ
በ ዋ
ሰ ደ
ሩ ዋን
ه </w>
ኮ ረብ
ለ ራሳችን</w>
ከፍ ቶ</w>
ንግ ግር
ታ ዝ
መንገደ ኞች</w>
ሐዋር ያት</w>
ለማ መድ</w>
ጫ ኑ</w>
ቶች ህ</w>
ለመ መስረት</w>
ከ ሆን
ህ ዋ
ያለ ነው።</w>
ያ ንም</w>
የሚ ታወ
ብራ ራ
ሌ ን
ለሁ )</w>
የሚ ሉ
ነበ ል
በህይወ ቴ</w>
7 2</w>
ጨካ ኝ</w>
ይታወ ቅ</w>
የማይ ቀር</w>
ተደረገ ።</w>
እንዲ ገባ</w>
ኢ .</w>
አላቸው :</w>
ታማ ነት</w>
ቢያ ዎች</w>
ወ ላይ
ኦ ት</w>
እን ሰጥ
አን ሥ
ቀረ ጥ</w>
መቀ መ
ላ እ
ፈ ነ
ዴሞክራ ሲ
ያ ህል
የሚ ሄዱ</w>
የ ዩኒቨርሲቲ</w>
አስ ታወቀ</w>
ረ ጅ
ሥርዓ ቶች</w>
መንግሥ ትን</w>
እየተ ጠቀሙ</w>
እንዲ ኖሩ</w>
ና ል!</w>
ነበ ው</w>
ተን ኮል</w>
ቃ ብር</w>
ማዋ ቀር</w>
ጭፍ ጨ
የ ቻል
የሚያሳ ዩ</w>
አይ ቆ
አ ደረጉ</w>
ንጉሡ ን</w>
በመሆ ኔ</w>
ሽከርካ ሪዎች</w>
ሰው ,</w>
s e</w>
ጡ ,</w>
ግብ ሮች</w>
ግር ማ
የማ ደርገው</w>
የ ቪ
ከ ሞተ</w>
እድ ሉን</w>
ቅድሚያ .</w>
ሠራ ር</w>
መደ ብሮች</w>
መሆኑ ም</w>
መ :</w>
ያ ሚ</w>
( 3)</w>
ኮሎ ምቢያ</w>
አይ ሻ
ቀረ ።</w>
ህዝ ባችን</w>
እኛ ም</w>
ቀን ,</w>
ሰ ማን
on g
እስማማ ለሁ</w>
እ ዳ</w>
አባ ታቸው</w>
ተቀ መጥ
ተር ን</w>
ደረጃ ውን</w>
የ ጠፋ</w>
ካለ ህ</w>
ከ 20</w>
ቦ ችም</w>
ምን ድ</w>
ምር ቱን</w>
M A
ዝና ናት</w>
አን ጎ
ተ ካት</w>
ተ ካ</w>
ቢ መስ
ቃ ቤ</w>
ቁም ፊዎች</w>
ፍ ንት</w>
አድ ሮ</w>
አብ ቅ
አል ፈለገ
ሮ ዎች</w>
i on
ይነ ጋገ
ያምና ሉ</w>
የሚ ቀጥ
ቆጣ ቢ</w>
T C
ገ ላ</w>
ይወ ዳል።</w>
ብል ጥ</w>
ስን ቱን</w>
ሰ ልጣ
ህጻ ን</w>
ደግ ሜ</w>
ሮ ቻቸው</w>
ሊ ፈጠር</w>
በሰ ዓ
በረ ጅም</w>
ሽማግ ሌ</w>
መረጃ ዎን</w>
የ ወጡ</w>
ያለ ፉት</w>
ተደር ገው</w>
ቀ ራ
ሲ ል
4 :</w>
ፎ ርም</w>
ጉ ዝ</w>
ተናግ ሮ</w>
በ ክ</w>
የዳ ሰሳ</w>
a h
ያለ ሽ?</w>
ቡ ፤</w>
መጽሐ ፍ
ል ኬ
ጸ ልዩ</w>
አይጨነ ቁ</w>
አም ስተኛ</w>
ዞ ችን</w>
ካዚ ኖ</w>
በመ መስረት</w>
ሥ ፍራ
ሁኔታ ,</w>
የተ ደረ
የሚገባ ቸው</w>
የሚያው ቁት</w>
ዚ ች</w>
እየተ ን
ናቸው ና</w>
በ ዲ
ያለ ሽ</w>
የሚች ሉትን</w>
ዕ ዝ</w>
አባላ ትን</w>
ባል ሆነ</w>
ሰ ቅ
ሕ ዋ
የም ስል</w>
አፋ ር</w>
ብላ ቴ
የመነ ጨ</w>
ባለ ድርሻ</w>
መድኃኒ ቶች</w>
( "
ጠቃ ሚው</w>
ይ በት</w>
ታውቃ ላችሁ።</w>
ምር ጡ</w>
የተ ባ
የቆ ዩ</w>
የመ ጓጓዣ</w>
አስተ ምህ
ነበረ ኝ።</w>
መር ጠው</w>
ለህ ን?</w>
‹ </w>
ገባ ሁ</w>
በመ ጫወት</w>
የሚወስ ደው</w>
ራ ሷን</w>
መ ኖራቸው</w>
ፋ ቸውን</w>
የታ ሸ
ሳምን ታዊ</w>
መ ወጣት</w>
5 ፡
ጸ ና
ጠን ክ
ደጋግ መው</w>
የለ ም?</w>
ዋ ወጥ</w>
እንዳ የ
አው ቆ</w>
ንቅ ለ</w>
ባ ነሰ</w>
መግለ ፅ</w>
ጓደኛ ዎ</w>
ምግብ ን</w>
ጀርመን ኛ</w>
ይደረጋ ል.</w>
ሊባ ኖስ</w>
ጳውሎ ስ
i )</w>
ድክ መ
እንጂ ፣</w>
መው ሰድ
U N
ይ ቺ</w>
ተጠ ም
ፍል ስጤ
አም ስተኛው</w>
ቁ !</w>
መዘ ንጋት</w>
ለው ፤</w>
2 50</w>
ያሳ ስ
እንቅስቃሴ ዎችን</w>
ት '</w>
መሣ ሪያው</w>
ያ ከናው
ከ ሁለቱም</w>
ኖኅ </w>
ተ ፈር
d e
የ አይሁድ</w>
የ ርቀት</w>
እንደሚ ያደርግ</w>
በ 198
መሪ ነት</w>
ደር ሷ
ኮን ፈረ
በመ ድረ
በ ቦ
ሚ ሜ</w>
ጨነ ቃ
ዘንድ ,</w>
ክህ ሎት</w>
ኅ ብረተሰብ</w>
መደ ራ
ፉ ክክር</w>
አይ ወስ
ድሮ ስ</w>
ያለ ችው</w>
ውክ ፔዲያ</w>
ተመዝ ግበ
ሐ ቀኛ</w>
ዣ ዎች</w>
አልበ ም</w>
ስ በት</w>
ሰማ ን</w>
ህ ፍት</w>
የሚያደር ገውን</w>
የ እሷ</w>
አባ ቷ</w>
ተፈ ታታ
ተጠና ቅ
ል ዕል
ሆነ ዋል</w>
ያልተለመ ዱ</w>
የተሻ ሻ
መ ወሰድ</w>
ሆይ :,</w>
በአ ሕዛብ</w>
ል ባችን</w>
ይከ ፈላ
የ ቲ
ተ ዉ</w>
መደምደ ሚያ</w>
የሚ መራ
ነገ ሮች
ሐ መድ</w>
-- -</w>
እገ ዛ
አ ዩ
መለያ የት</w>
ያስባ ሉ?</w>
ቆጠ ር
ወ ጣም</w>
እ ከ
የሰ ጡት</w>
ዚ ላንድ</w>
ትእዛ ዛት</w>
ተ ደረገ</w>
WordPre ss</w>
የሚ ሻ
እንዳ ለን</w>
አይ ፎን</w>
ተፎካካ ሪ</w>
ርእ ስ</w>
a f
1 /
ይጠይ ቁ</w>
የሚ ችልበት</w>
ካ ራ</w>
ሰር ጥ</w>
ገን ቢዎች</w>
ዝምድ ና</w>
አይመስ ልም</w>
ስዊ ዘርላንድ</w>
ህይወ ታቸው</w>
የተሻ ሻለ</w>
ወላጆ ቻቸው</w>
ነፍ ሶ
መከ በር</w>
ል ካ
ለ ብዙዎች</w>
c on
E T
ፈረ ድ
የሚያ ጋጥ
እንደ ማለት</w>
አለመ ኖር</w>
ቡ ክ</w>
መ ቃወም</w>
ለተ ወሰኑ</w>
ሀ ይማኖት</w>
ጠ ች</w>
ዬ ት</w>
ኢንቨ ስት</w>
ለመ ተግበር</w>
ገ ፋ
የሚ ጠራ
a re
ገለ ጻ</w>
ያል ታ
እየ ጠበቁ</w>
እናገኛ ለን</w>
አሸና ፊዎች</w>
ሱ ,</w>
ሀ ትሪክ
የተጋ ለ
አትሌ ቶች</w>
ሲ ሰራ</w>
ፍ ም።</w>
አይ ቼ
ሬ ያለሁ።</w>
ምሥራ ች</w>
ማሞ ቂያ</w>
ፖለቲከ ኛ</w>
ጠነ ቀ
እንደሚ ፈልግ</w>
ሕይወ ቱ</w>
ገ ቤ</w>
ተ ወላጆች</w>
በቅ ን
ሬ ድ</w>
ይ ጎዳ
አሳማ ኝ</w>
ቷ ም</w>
ትገኛ ለች።</w>
መስሎ ኝ</w>
ለ ሆነ</w>
ጊ ያ
ይመስል ሃል?</w>
ይ ቀጣ
ዋጋ ውን</w>
ተ አምራ
ውስ ጠ
እንዲ ጠቀሙ</w>
በጭ ን
ቀ ሪውን</w>
0 )</w>
የሚ ጠበቅ</w>
የ ቫ
አብ ሬ
መልክ ተኛ</w>
ይ ጣን</w>
ክርስት ያ
መጣጥ ፎች</w>
ልብ ሶች</w>
የመ ዝ
እንዲ ሉ</w>
ታላ ችሁ።</w>
ተቀም ጠው</w>
ያግኙ ን</w>
ዕድ ሉ</w>
ከ መሰ
ኤ ድስ</w>
ሁለ ቴ</w>
Pl ay
ን ዲ</w>
ሴ ሎ
መጻሕ ፍትን</w>
S D</w>
የሚ ችል
ዙ ም</w>
ክብር ና</w>
አህ ጉ
በመ ግለጽ</w>
እየ ሆኑ</w>
ትንሣ ኤ
ባ ሏ</w>
በ ምታ
መስ ሉ</w>
መምህ ራ
ሌሎ ችንም</w>
ሊረዳ ህ</w>
ግብ ጽ
የተ ቻለ
ተ ሽ</w>
ሻ ጭ</w>
ል ል</w>
የበለ ፀ
የምስ ጋና</w>
ቅ ጠል</w>
ለ ደንበኞች</w>
4 |
ግብረ መልስ</w>
አግኝ ተዋል</w>
አለመ ሆኑ</w>
ተጠያ ቂነት</w>
በተ ጠቀሰው</w>
ኮ ም
እሳ ቤ</w>
ቶ ሪ</w>
አይ ር
በእጅ ህ</w>
ሰከ ንድ</w>
ምር ኮ</w>
U n
ይዘ ቶች</w>
ይህ ም</w>
ይ ቱን</w>
የመ ከላከል</w>
ኮሮና ቫይረስ</w>
ከ ሙ</w>
እልቂ ት</w>
ማተ ሚያ</w>
2 %</w>
ገብ ቼ</w>
እየተ ጫወ
ኣ ን
ሰ ኛ</w>
ማር ቲን</w>
ሀገ ራቸው</w>
ያሳ ለፍ
የተ ካሄደው</w>
አልቻ ልንም።</w>
ሙ ቅ</w>
ፋ ር
ጥ ሰ
መስ መር
እስል ምና</w>
ተ ቈ
" ሰው</w>
ጽ ላ
ገነዘ ቡ</w>
እንደሚቻ ል?</w>
አይደለ ን
ታይ ቷል።</w>
ተጠ ብ
ተ ብሎም</w>
ብራ ሂ
ማር ት
ቅ ፅ
ሴ ቶቹ</w>
ጽ ር</w>
እንደምት ችል</w>
አግኝ ቶ</w>
ተናገ ሩ።</w>
ህ ንፃ
4 ,</w>
ጄ ምስ</w>
የምት ፈልገውን</w>
ወጥ ነት</w>
a .</w>
የቀ ረው</w>
ላ ኩ</w>
ለ እኔም</w>
" እዚህ</w>
‹‹ ከ
ጥ :</w>
ዘር ግ
ፈረን ጅ</w>
ከ ማስ
አውታረ መረቦች</w>
አላቸው ፦</w>
ይቀ ይ
የተቀና ጀ</w>
ጽን ሰ</w>
የደረ ሰ</w>
ዎ ት,</w>
ከበ ሩ</w>
ኞ ቹን</w>
" እውነት</w>
ቁርኣ ን</w>
10 )</w>
ኳ ት።</w>
መለከ ትኩ
ጓ </w>
እን ፋ
ሉ ቃ</w>
ይ ቅርታ</w>
የ ጥን
እ ኤ
በ ዋል።</w>
መንፈ ሱ</w>
) :</w>
በ ጉ
ጎ ጆ</w>
ገለ ጸ
ወ ጡ።</w>
ሚኒ የም</w>
ለሁ ፤
ገነ ባ
ይዞ ታ</w>
ዝ ነ
አቃ ፊ</w>
ሟ ላ
1 %</w>
ጨ መሩ</w>
ጠ ፈ</w>
ኦ ክስ
አስተ ማሪዎች</w>
ነር ቭ</w>
በ ሌ
ለማ ነጋገር</w>
ጠቢ ብ</w>
የ እውቀት</w>
ነገ ን</w>
በእጃ ቸው</w>
ምድ ጃ</w>
የተባረ ከ</w>
የ እር
እ ኒ
ይበ ዛ
ታሪካ ችን</w>
3 ,</w>
ጎ ሳ
ግ ሩ
ከፍ ለው</w>
ኖ ም</w>
ቦ ይ
ብርቱ ካን</w>
ብ ንም</w>
ባልደረ ባ
አውሮፓ ውያን</w>
አው ሬ</w>
ስርዓ ት
< p
ካል ቻሉ</w>
ኤር ትራ
ነህ ፤</w>
ህ ያው</w>
ጀ ግን
ቶ ኛል</w>
ተ ይዞ</w>
ብሎግ ዎ</w>
ይ ተዋ
አፍ ጋኒ
ሸ ጡ</w>
ሰነ ፍ</w>
ም -
ማዕ በል</w>
ሁ ኝ</w>
የሚ ጠቀ
ማለ ታቸው</w>
መ ሙ</w>
ሄደ ህ</w>
እየተ ነጋገ
ያለሁ ት</w>
ዋ ሻ
ኩ ፤</w>
አድርግ ።</w>
ኅ ዳር</w>
መር ሳት</w>
ሕይወ ታችን</w>
ይጠቀማ ሉ</w>
የተደገ ፈ</w>
ከረ ጢ
የመነ ሻ</w>
እንዲ ያሳ
ዎ .</w>
ክሪ ስቶ
አመላካ ች</w>
ሜ ል</w>
ማድረ ጋ
ሃይ ሎች</w>
የተወለ ደ</w>
ምድ ራዊ</w>
መፍ ቀድ</w>
በ ጠላ
ለማስተ ናገድ</w>
ገብ ቷል።</w>
ያገኘ ሁት</w>
ተ ወለደ
ማበረታ ቻ</w>
ገ ሃነም</w>
ዮሴ ፍም</w>
ያ ት
እዚህ .</w>
ነገር ።</w>
በሚ ከተለው</w>
C o
የሚያረጋግ ጥ</w>
የሚ መለከቱ</w>
ኒ ስት
ሰጥ ህ</w>
አይ ጠበቅ
ነፍ ሱን</w>
አስገዳ ጅ</w>
l y</w>
ከ ቻሉ</w>
ታገ ኝ</w>
ተናገ ረ</w>
ሻሻ ለ</w>
ድር ሻ
ዋ ዛ</w>
አሁ ንም</w>
ሰማ ት</w>
ቸው ም.</w>
ቀጥ ሎም</w>
መለስ ።</w>
ልጇ </w>
ሆስፒ ታሉ</w>
ፍ ታ
ግ ዥ</w>
ዓረ ፍተ</w>
በፊ ቴ</w>
ለ አምላክ</w>
ና ፈ
ታ ደር
ሸ ነፍ
መተ ግበር</w>
ማህበረ ሰቡ</w>
እን ጋ
እ ጠላ
ሐ ረ
ክል ላዊ</w>
አት ላን
አላ ል
በመጀመሪያ ዎቹ</w>
መልእክ ተኛ</w>
US B</w>
ች ነት</w>
ሱ ቆች</w>
ሰላ ሰል</w>
ሐዲ ድ</w>
ጸ ያ
ይመለ ሳል።</w>
እ ሰማ
ሮ ቻችን</w>
ሠ ው</w>
ፈራ ም</w>
የተ ፈፀ
አይደለ ም፣</w>
ማህበረ ሰብ
ጨለማ ው</w>
የተገና ኘ</w>
የቆ የ
አድና ቂዎች</w>
አልተቻ ለም።</w>
<p >
ፉ ም።</w>
የተ ቆራ
ተከሰ ተ</w>
ጉ ት።</w>
ገ ሩ</w>
ነ ሰ
ተ ባበ
በዚ ች</w>
በአ ዕም
በስ ሜ</w>
ጎ ና
ኛ ል
ተን ኮ
ተነ ፍ
በ መንፈሳዊ</w>
ሆነ ?</w>
ዲሞክራ ሲያዊ</w>
የማይ ታወቅ</w>
ን ቶ</w>
ተ ች
ማ ጽ
መ ፀ
ገድ ል</w>
እንዳለ ብዎ</w>
ባቡ ሮች</w>
ባ ጭሩ</w>
ቅና ሾች</w>
ስምዖ ን</w>
ማሻሻ ያዎች</w>
ሎተ ሪ</w>
e :</w>
የተ ቋ
የሚገ ና
ከበ ረ</w>
እንመልከ ት.</w>
ማህ ደረ</w>
ሎ ችም</w>
ደ ባ
ይፈጥ ራል።</w>
የሚ ሳ
እገ ሌ</w>
አምላክ ም</w>
ጓዳ ኝ</w>
የተ ከማ
የመሣ ሪያ</w>
ጀ ነ
ዎ ቼን</w>
እ ጩ</w>
ኒ ሽ</w>
ምዝ ገባ
የ ፈረ
ኦህዴ ድ</w>
እስካ ሁ
ብር ድ</w>
በመደ በኛ</w>
በማ ደግ</w>
መስተጋ ብር</w>
ጠቀም ባቸው</w>
ግንኙ ነትን</w>
የ ዓለማችን</w>
ወዳ ጄ
ካህ ናቱ</w>
አካ ዳሚ
ቅ ናት</w>
ሚ ያው</w>
ልኡ ክ</w>
LE D</w>
ይፈልጋ ል.</w>
በተና ጠል</w>
በ ዘር</w>
መ ጪ
ፕላ ን</w>
ፌ ደራ
ጽ ህፈት</w>
ነው -
ሩ ሌት</w>
ማ ግባት</w>
የሚ መጡ
ኖ ሩን</w>
አስ ቦ</w>
ስ )</w>
አድርግ .</w>
ፈተና ው</w>
አጥብ ቆ</w>
ትግ ሬ
ስለ ሆንኩ</w>
ሰጣ ቸውን</w>
መርሆ ዎች</w>
SE O</w>
R S
የሞ ቱ</w>
የለ ም,</w>
ተፈታታ ኝ</w>
ምስ ኪ
መጣ ሁ</w>
ኮንፈረ ንስ</w>
አጋጥ ሞ
ሶ ስተኛው</w>
መ .</w>
ሕ ያዋን</w>
R E
ያ ቀና
እቃ ዎችን</w>
ትንሳ ኤ</w>
ደረጃ ዎችን</w>
የምን ፈልገውን</w>
ከ ኤ
ስ ጡ
ስ ታው
የተፈጠ ሩ</w>
ኔ ታ</w>
በ ቅዱስ</w>
( ሉቃስ</w>
ጣቢያ ዎን</w>
ያቀር ባል።</w>
የመን ጃ</w>
ሁሉ ።</w>
i Cloud</w>
ይሻ ላል
ከ ክፉ</w>
ኋ ችሁ</w>
ምሥ ጢር</w>
ለው .</w>
የ ቅድመ</w>
ከና ወን
ከሚ ገኘው</w>
አስ ቆጥ
አለ ን?</w>
ምን ድር</w>
ይባ ላል
ይ ፣</w>
ያስችል ዎታል.</w>
የስ ፔን</w>
ኹ ።</w>
ኮ ራ</w>
ህገ ወጥ</w>
S am
ጭ ማ
ጃን ዋሪ</w>
ድጋ ሚ</w>
እ ጠቀማ
ቾ ችን</w>
ቅ ህ</w>
የሚ መራው</w>
ከመ ጀመሩ</w>
ናገ ርም</w>
ለው ና</w>
የሚ ጠብቅ</w>
በ ምላ
20 )</w>
የአ ጠቃ
ዎታ ለን።</w>
ተፈ ናቃ
በውስ ጤ</w>
በአ ሳ
በመሰረ ቱ</w>
ሰማ ዕ
ዘመ </w>
እንደሚ ል</w>
ሽልማ ቶች</w>
ማዕከ ላት</w>
ow </w>
8 0%</w>
አስ ወግ
ር ቻ
መንግ ስታ
ሔ ድ</w>
1 |
የተ ያዘ</w>
ተና ል.</w>
u g
ብ ሬ
ቢ ያን</w>
ፍጻ ሜ
ይ ሰብ
ኦ ሪት</w>
አጫ ው
ነገረ ኝ</w>
ጓ ጓዝ</w>
ያስ ቸግራ
እ ጸል
አግኝ ቷል።</w>
አነ ጋግ
ሰር ቶ</w>
ሥርዓ ት
s )</w>
የተሰ ረ
ከ እያንዳንዱ</w>
ቺ ው</w>
በ ዛው</w>
ር ኩ
አስተያየ ቶችን</w>
ኋ ት</w>
w e
ጫ ው
ግ ላዊ</w>
ይዘ ትን</w>
አመልካ ቾች</w>
ቆ ን</w>
ቅ ቅ</w>
ሰማ ሁ</w>
ያስ ባሉ</w>
የሰ ለጠ
አል ኩት።</w>
ያስ ገባ
የለባ ቸውም</w>
ወደ ነበረበት</w>
ንድ ፈ</w>
በአ ዳ
በማ ናቸውም</w>
i es</w>
ብራ ራት</w>
ባ ትም</w>
ል ኬት</w>
ፈል ጉም</w>
ዴስ ክቶ
እንደ ታ
ኖረ ውም</w>
ቃ ለል</w>
ር ጉም</w>
p ro
ጮ ቹ</w>
ብሎ ኛል።</w>
ለ ቱ</w>
ar e</w>
ከተ ጠናቀቀ</w>
እየ ጠበ
ተናግ ረ
በ ጠቅላላ</w>
በ አባቱ</w>
በ ቢ
3 D</w>
ደ ለች
የሚያ ሰኝ</w>
አል ደ
ብፁ ዓን</w>
ስብስ ቦች</w>
ፎር ሜሽን</w>
ፊ ዎችን</w>
ጥቅ ሞ
ገ ሊላ</w>
ይ ጻ
የመረ ጥ
ዘ ዝ
እንደሚ ሰጥ</w>
እባክ ህን</w>
ሲ ገቡ</w>
የ ወቅቱ</w>
ነው ፡</w>
ታ ሉ.</w>
( ወደ</w>
በ ሌላ
ሀ ዋሳ</w>
ፕ ረስ</w>
ዙ ፋ
ወ ጠ</w>
እናምና ለን</w>
በ ባለ
Ethiopi a</w>
የሚያ ምኑ</w>
የሚ ስማማ</w>
አውሮፕላ ኑ</w>
በል ጁ</w>
ስልጣ ኔ</w>
ሕ ጻናት</w>
ፓ ትር
ግ ቦ
የተናገ ረውን</w>
አድ ማ</w>
መሆኗ </w>
ሆነ .</w>
ሁ ላችሁ</w>
አለኝ .</w>
ማር ያም
ከተ ለመደው</w>
አ ደንቃ
ማስ ያዝ</w>
ለማዳ በር</w>
፣ "</w>
እያ ሰብኩ</w>
ባበ ቅ</w>
ሙ .</w>
ቤ ቱም</w>
በታ ለሁ።</w>
ሩ ?</w>
s it
ደ ጉ</w>
እ ዝ
አላ ወቅ
ና ት?</w>
ሞገ ድ</w>
ለች ?</w>
A b
ፈለገ ?</w>
ስራ ን</w>
ምል ከታ</w>
ለው ጡን</w>
ዋ ል!</w>
እስ ካል
ትዝ ታ
ባልንጀ ራ
ስን ዴ</w>
ፍቅ ሩ</w>
ጃ ዋር</w>
ራ ለሁ</w>
for um</w>
ጌጣ ጌጥ</w>
ጊዜ :</w>
ወንጀ ለኛ</w>
አሰ ፋ</w>
ሳይ ድ</w>
ደግሞ ስ</w>
ያ ማ</w>
የ ሁላችንም</w>
እንደሚ መስል</w>
አይሆን ም.</w>
ተወ ው</w>
ለወ ጠ</w>
ወጣ ቶችን</w>
አየ ሁ።</w>
ታዲያ ስ</w>
ተመልክ ቷል።</w>
ሪያ ችን</w>
ሞክ ረው</w>
ገደ ድ</w>
የሚ ሠሩ</w>
ቾ ቹ</w>
ቆመ ።</w>
ሰም ቻለሁ።</w>
መለኪ ያዎች</w>
ያስፈልግ ዎታል።</w>
ያ ከብራ
አድር ጉ።</w>
አ ረ</w>
ተዘር ዝ
በ አካባቢያ
በ አል
ሰጪ ዎች</w>
ማድረ ጉን</w>
ልም ም
ለማ ወቅ
ያ ዎቹ</w>
ከ ምሽቱ</w>
ት ሰጣ
በለ ስ</w>
ቀ ሪው</w>
ጽን ሰ-
ዛሬ ን</w>
ተኝ ቶ</w>
ሥራ ዬ</w>
መ ታወቅ</w>
ዓመ ፀ
7 00</w>
ፖ ች</w>
ቸዋ ለን</w>
መን ጋ</w>
ያ ቺ</w>
ወ )</w>
በተ ሰ
ጥበ በኛ</w>
መቀ ላቀል</w>
ሊ ያደርጉ</w>
ፀ ሎ
የ መልካም</w>
አቅራ ቢ
በ ሁሉ</w>
መ ጫወቻ</w>
ሃ ቅ</w>
ጣ ቶች</w>
ያል ኩት</w>
አስተዳደ ራዊ</w>
ቦር ሳ
ቃ ቃ</w>
ስ ኩ</w>
ሚያ ዚያ</w>
መስፈር ቶችን</w>
L uc
ፊ ን
የተወሰ ደ</w>
ወን ዞች</w>
ኦ ክ
እይታ ዎች</w>
ተ ንቀሳ
ሰማ ኝ</w>
ሰ ዎች.</w>
D e
ገለ ጥ</w>
የሚያስ ፈልጉ</w>
ከ እርሷ</w>
ባንዲ ራ</w>
ሊ ሆን
ገ ቡት</w>
ይሰጣ ሉ.</w>
የአ ሠራር</w>
ኀጢ አት</w>
ትችላ ለህ.</w>
ሠራዊ ቱ</w>
መ ቆጠብ</w>
:3 3</w>
ገል ጽ
ተገ ር
ብ ላለች።</w>
መ ከተ
C ont
ገበ ታ</w>
የ እነዚህን</w>
ካ ሬ</w>
ሃይማኖ ቶች</w>
ፊ ቴ</w>
እን ጀምራ
እርግጠ ኞች</w>
ለማ ከም</w>
a v
ጋ ል
እየተ ከታተ
አይ መጣ
200 1</w>
" አባ
አላ ህን</w>
ቻል ኩ</w>
ትርጓ ሜ</w>
ባረ ር</w>
ሞላ ው</w>
ላ ት።</w>
ወ ትሮ
ሥ ነ
እው ቂያዎች</w>
ኢንዶ ኔ
በ እግ
ፌዴ ሬሽኑ</w>
ክን ፍ</w>
አለ ምን</w>
ቱ ትን</w>
ተፈ ቅ
ሰጠ ው።</w>
መከ ናወ
ጡ ም።</w>
የበ ደ
በቅ ጡ</w>
በ ልጆች</w>
ማ ቲክ</w>
የሚ ወጣው</w>
መስ ኖ</w>
ጩ ት</w>
ዐ </w>
አሰብ ኩ</w>
ተሰ ማ</w>
ቀጣይ :</w>
መደ ቡ</w>
ሊያደር ገው</w>
ሊ ገኙ</w>
ህይወ ቱን</w>
እንዲ ያውቁ</w>
ማስ ፈራ
ጣቢያ ዎችን</w>
አር በኞች</w>
ቶች )</w>
ባ ገኘ
ስ ኩ
ለ ጀ
ይስ ጥ</w>
ታ ሳቢ</w>
ምርጫ ውን</w>
መኾ ኑን</w>
ይ ተገ
በ ነጻነት</w>
ቁ ፤</w>
d e</w>
እመ ቤታችን</w>
አጫ ጭር</w>
ነገር ግን</w>
ብቻ ቸውን</w>
ለመ ፈ
ለመ ድ
h t</w>
ድንጋ ዮች</w>
በረታ ታ</w>
ይ ድረስ</w>
የሚ ጠብ
ወረቀ ቶች</w>
ከብ ሩ</w>
ሰሌ ዳ
ጥላ ሁን</w>
ጥ ሮ</w>
ይ ፈጽ
አወዳ ድሮ</w>
ስን ኳ</w>
ለ እሷ</w>
ጋ ሻ</w>
ይወ ጣል።</w>
እን ላለን።</w>
አባላ ቱ</w>
! !</w>
ጂ ም</w>
ደመ ቀ</w>
ወላይ ታ</w>
ፈ ኑ</w>
መድረ ኩ</w>
የ ያዙ</w>
ከ አባቱ</w>
አዳ ማ</w>
ኖ ቤል</w>
በ ለጠ</w>
ስሕ ተት</w>
ስ ውር</w>
ረጋገ ጡ</w>
ሣ ት</w>
መ ወለድ</w>
የተወለ ደ
ተነ ጋግ
ባ ደረጉት</w>
በ በቂ</w>
7 ,</w>
የ ጨ
ዋ ለች።</w>
እያ ደረግ
አይ ኖ
ቁ ን
መፅ ሀፍ</w>
5 1</w>
አል ጠራ
ቤት ህ</w>
ሽ ኝ</w>
ሲ ገ
ማ በጀት</w>
ጎ ልማ
ድምዳ ሜ</w>
ይ ጠቀ
ተን ታ
በ ይሖዋ</w>
ይሰራ ሉ</w>
ባ ችሁ
መንገድ ,</w>
ግጥ ሞች</w>
የ ፋይል</w>
ኢን ስቲ
ተቋቋ መ</w>
ሰው .</w>
ራ ቱ</w>
ጋዜጠ ኝነት</w>
ያ ዘጋጃ
ዩ ኝ</w>
የሚ ጠቀሙ
ህበረ ሰቡ</w>
✔ </w>
ጥንቃ ቄ
ድ ሪ
የመስ ጠት</w>
ወደ ድ</w>
አልተገኘ ም</w>
ቤ ቷ</w>
ር ብ
5 3</w>
የሚ ጫወ
ዕ ይታ</w>
አላ ምንም።</w>
ምሁ ር</w>
ድ ኑ</w>
ይልቁ ንስ</w>
ያ ቅ
የሚ ከሰት</w>
የሚ መለከተው</w>
ከ ዓመታት</w>
ችግ ረ
በተ ለመደው</w>
ለማዳ መጥ</w>
artic le
ፍላጎ ቱ</w>
ግባ ብ</w>
የተጠቀ ሱትን</w>
የ ነበር
ክ .</w>
አስተሳ ሰብ
ባ ዶ
በተ ቻ
ረዳ ኝ</w>
ልጅ ቷ</w>
ለማ ጠናከር</w>
ይይዛ ል</w>
የሚች ሉ
የ እውቂያ</w>
ከ ብረ
ከ 10</w>
ተው ታል።</w>
ተን ከባ
ተለዋ ጭ</w>
ሰ ውም</w>
ድ "</w>
ላ ችኋል።</w>
ፋውንዴ ሽን</w>
ይ ስተዋ
ያንብ ቡ
ተደራ ሽነት</w>
ፍን ጭ</w>
ኃጢአ ተኛ</w>
ሳን ባ</w>
ሲ ም</w>
ሥርዓ ተ</w>
ፒ .</w>
የሚያመለክ ተው</w>
ዓር ብ</w>
ከ እናቱ</w>
ቁም ፊ</w>
ሚ .</w>
ል ንም</w>
ለመ ፈፀም</w>
M ore</w>
ጠር ዝ</w>
ይጀም ሩ</w>
ነገረ ኝ።</w>
ተልዕ ኮ
ሮ ች.</w>
ራ ብ</w>
መተ ር
ለመ ወጣት</w>
New s</w>
እየ ነ
እን በል።</w>
መ ሮጥ</w>
ለመም ጣት</w>
ጁ ን
ቶ ።</w>
መሳ ሳ
ፓ ኪስታን</w>
ጲ ላ
ጥን ዶች</w>
ደ ማቅ</w>
ሆን ግ</w>
ሀ ዘን</w>
የተፃ ፈ</w>
ኳ ስን</w>
ተመሳሳይ ነት</w>
በ ግማሽ</w>
ቀ ውም።</w>
ቀ ች</w>
መ ደ</w>
ሊያ መጣ</w>
ግጥ ሚያ</w>
እንዴ ትስ</w>
አልነበረ ም.</w>
ሣ ሥ</w>
ሞክር ።</w>
... ››</w>
የ እግዚአብሄር</w>
ኩላ ሊት</w>
ሠ ን
መስ ጫ</w>
ፕ ስ</w>
ጀም ረው</w>
የተ ሠሩ</w>
ወር ዶ</w>
እየ ሠራ</w>
እም ቢ
ነኝ ?</w>
ሴ ም</w>
ም ግል
9 |
ፓ ን
አድር ጋችሁ</w>
ሊ ረ
ይስሐ ቅ</w>
አል -
ተ ምሳሌ
በእ ረ
ማ ሰብ
መው ደቅ</w>
ትርፋ ማ</w>
ብሏ ል፦</w>
በታ ል.</w>
ሊ ኖረን</w>
in k
ፕላ ኔት</w>
አግኝ ቼ
ሄ ድን</w>
p re
የበ ዛ
አሜ ን</w>
ተመል ሼ</w>
ደቡ ባዊ</w>
እንዴ ት?</w>
እር ጉዝ</w>
ኑ ር
ተቆጣ ጣሪ</w>
ቆጣ ጠር
መጠንቀ ቅ</w>
( I
የሚ ቀርብ</w>
እስከመ ጨረሻው</w>
ቂ ዎቹ</w>
ስን ቱ</w>
ሱ ፍ</w>
አን ስ
ይመጣ ሉ።</w>
ያስተ ምራ
አደ ሩ</w>
ሪፖርተር ፡-</w>
8 ,</w>
ይጠ ራል።</w>
ክህ ደት</w>
ሥ ም</w>
ሞ ቶ</w>
ማስ ገቢያ</w>
ag e</w>
ጭቆ ና</w>
ዲ ና</w>
ዛ ዥ</w>
እንጠብቃ ለን</w>
አልተ ደረገ
ያስ ን</w>
የ ነገር
የ ነበራቸው</w>
ዝ መና
ከ ፈል
አይፈልጉ ም።</w>
ተጫዋቾ ችን</w>
ሰባ ችን</w>
ፈ ሩት</w>
ጎ ማ
ኛ ለህ?</w>
ያስፈል ጉ
የ ዝግጅት</w>
የ ዓይን</w>
አስ ብ</w>
ንገ ሩ
ተቀ ባይ</w>
ይ .</w>
ያ ምኑ</w>
እንዲ ሰጡ</w>
እ ወ
አ ጽ
በድ ፍረት</w>
an t
ይደግፋ ል.</w>
የ አብርሃም</w>
ወጪ ዎችን</w>
እናገኛ ለን።</w>
ኤ ልን</w>
አይፈ ቅድ
ኖ ቬ
ቁ ም።</w>
ላ ቸዋል</w>
ፈረን ጆቹ</w>
ግዳ ጅ</w>
በመ ለ
ም ኑም</w>
ከተ ወሰነ</w>
አስፈላጊ ነቱ</w>
አላስብ ም።</w>
መስማ ማት</w>
ጳጳ ሳት</w>
አለመ ግባባት</w>
ታ ኅ
መ ፋ
እየ ሞከርኩ</w>
በ ጥያቄ</w>
ነግር ህ</w>
ፈ ንድ</w>
የ እያንዳንዱ</w>
መለ ሰለ
a il
አል ሰራ
ኃጢአ ተኞች</w>
በ እን
በ እኔና</w>
መው ለድ</w>
የ ኩ
ዘመ ር</w>
ተስ ማማ
ቅ ድም
ሪ ዳ</w>
ማ ናቸውንም</w>
ጽሑ ፎ
ጴጥሮ ስ
የ ሟ
ኦ ዲዮ</w>
እንደ ቀጠለ</w>
አም ሳ</w>
አ ዘጋ
መሰ ጠት</w>
ሊ ቲ</w>
ሀ በሻ
5 ,</w>
ዛ ቸው</w>
ውሳኔ ዎችን</w>
ናቸው ፣</w>
በሚ ገኝ</w>
በ ምርጫው</w>
መሳ ሰ
እንደሚ ገኙ</w>
ሽልማ ቶችን</w>
መዘግ የት</w>
ኩ !</w>
ከ ሞላ</w>
እንዲ ቆዩ</w>
ማ ጫወት</w>
ሁ ህ</w>
A p
ወር ዱ</w>
አር አያ</w>
ለ ምና
8 |
ያህ ል፣</w>
ቀ ዱ</w>
ው ዳሴ</w>
ት ዊ
ብዙ ሃ
በስ ሙ</w>
ለማስ ቆም</w>
ጦ ሽ</w>
የ ሙ
ከፋ ፍ
እነ ዚያ
አላ ገኙ
ፌ ስ</w>
ሱ !</w>
ምህ ዳር</w>
ላ ሳ
ኢ ራቅ</w>
አነ ጋ
በውስ ጧ</w>
ድ )</w>
ይገልጻ ሉ።</w>
ይ ሠ
ነበል ባል</w>
ተ ባረ
መጫ ኛ</w>
C )</w>
ጡ ር</w>
እ የለ
ና ሉ</w>
ማ ጠናቀቅ</w>
መመ ዘኛ</w>
ያስፈልገ ዋል።</w>
አል ዓዛ
ቁጥ ር
ላ ትን</w>
የ ጠላ
ወደ -
ተጣ ጣ
ል ቁ</w>
የ ዓለምን</w>
አረ ብ
ችግ ኝ</w>
በበኩ ላቸው</w>
በ ሊ
ደር ሰው</w>
የማ የት</w>
አድርገና ል።</w>
አውቀ ዋለሁ።</w>
በ መንገዱ</w>
ስለ ሆነ።</w>
መቀ ጠ
እር ባ
አርቲ ስቶች</w>
ሊ መስል</w>
( ሀ)</w>
እሞክራ ለሁ።</w>
እ ሳት
አካ ሉ</w>
አም ነ
አል ፏል።</w>
or s
ፈ ጅ
ደርስ ባቸው</w>
የአጠቃ ቀም</w>
ዕድ ሎችን</w>
ተዋ ጊ</w>
ቫ ል
ራ ም
መጣ ት</w>
ፍት ሃ
ፋ ችን</w>
እስረ ኛ</w>
ች ርቻ
ትዕ </w>
ምን ት</w>
መ ዘጋጀት</w>
ፋይ በር</w>
የት ብብር</w>
አን ጀት</w>
ናፍ ቆት</w>
ነው ና፤</w>
በ ድርጅቱ</w>
ቁ ጠባ</w>
እንዲ ቆይ</w>
ንያ ም</w>
ታውቃ ላችሁ?</w>
በተጨማሪ ,</w>
ለማ ጥናት</w>
️ </w>
ዲግ ሪ
ዜ ን</w>
ኬ ብል</w>
አፍሪካ ውያን</w>
ቀና በር</w>
5 6</w>
ክብ ሮት</w>
እ ጦት</w>
ተ ተክ
ቪ ክቶ
ል በ</w>
ጣ ቸው።</w>
ከመ ጀመሪያ</w>
አስፈ ጻ
ኑ ፥</w>
በ ሰጠው</w>
ሳ ካ
ድ ብ</w>
ይሆና ሉ.</w>
ይ ቁ</w>
ዪ </w>
ኮ ስ</w>
ሕይወ ታቸውን</w>
ህ ትመት</w>
ይደግ ፋል</w>
የሚሰጠ ውን</w>
ካ ደረግ
አል ደረሰ
ሲ ልም</w>
ሊያ ጋጥ
ጥቆ ማ</w>
የሚመስ ሉ</w>
ኪ ሎ
ሸ ሹ
ጢሞ ቴዎስ</w>
ይፈ ቅድ
የ ቡድኑ</w>
እ ረ</w>
አል ወጣ
በሰ ንበት</w>
መለ ጠፍ</w>
ይገ ጥ
በር ቀት</w>
ሴ ቶችም</w>
ይ ጀመ
ካቢ ኔ</w>
ባክ ቴ
ቂያ ዎችን</w>
ሳ ህ
ማ ተም</w>
5 |
ክፍለ -
ፋ ፋ</w>
ጠፋ ው</w>
ያገ ኛል።</w>
ና ነ
ች ...</w>
ሲ ዘ
መንግሥ ቱን</w>
ለ ተጠ
1x Bet</w>
( ←</w>
ጦ ማ
የሚ ወጣ</w>
ወዳ ት</w>
ታካ ሚዎች</w>
መጽ ሃፍ</w>
ሊ ረዱ
ዘመና ዊው</w>
እያ ሰቡ</w>
ይበል ጣል።</w>
ኢህ አዴ
ኛ ለች።</w>
ስማ ቸውን</w>
ይጠይ ቁ
ያ ያዘ
በሚያስ ደንቅ</w>
በመቀጠ ልም</w>
አስ ከባ
ሊ ነግ
( E
ዶ ሮ
የመ ቋቋም</w>
አህ ጉር</w>
በ ላቸው</w>
ቀደ ምት</w>
ምርመራ ዎች</w>
መምጣ ቱን</w>
መ ጃ</w>
ሓ ዲ
ለ ከፍተኛ</w>
ደን ቦችን</w>
የተቀመጠ ው</w>
ኦ ዲ
አታው ቅም።</w>
አል ተቀ
በ ጅ
መ ማር
ይጠበቅ ባቸዋል።</w>
ይላ ንድ</w>
የአባ ቱን</w>
የሚያ ቀርብ</w>
ው ኝ</w>
ለ ፊያ</w>
f li
ቤተ መንግስት</w>
ቀ ኖ
ሲ ወጡ</w>
ላችሁ ፥</w>
ጀም ሯል።</w>
" "
ዘ ሮች</w>
ወድ ቆ</w>
እችላለሁ ን?</w>
አይደለ ች
በማግ ስቱ</w>
ቀ ሉ</w>
s un
ወንጀ ሎች</w>
አይሁ ዶች</w>
ችግ ር
ተገና ኙ</w>
ብል ት</w>
ባህር ዳር</w>
ለሚ ቀጥለው</w>
÷ </w>
.. ....</w>
ፈ ሳ
ገ ኝም</w>
ድረ- ገ
አጥ ነት</w>
ነ ስተኛ</w>
ቅስ ቀሳ</w>
ሆኗ </w>
ገባ ህ</w>
የ ሁለቱም</w>
ዎታ ለሁ</w>
ነበረ ን</w>
ለመ ፈተሽ</w>
D )</w>
ዲ ቪ
እ ቀጥ
ለ ታል</w>
ment s</w>
ገብ ተዋል።</w>
ዕ ፅ</w>
ካ ይ
እሳ ቸውም</w>
ታ ቸውንም</w>
ያል ተገደ
የአ ጭር</w>
ችሁ በት</w>
መጠ ነኛ</w>
ላ ሁ</w>
ይ ባል</w>
ተጠቃሚ ዎችን</w>
መል ስል
ለ ሶስተኛ</w>
ጋዜ ጦች</w>
ካለ በት</w>
ከ ው
እስ ላ
ብ ረው</w>
በሰ ሙ</w>
ገነዘ ብ</w>
የሚ ካሄደው</w>
ታሪ ኮ
ስ ዎ</w>
ሳ ያስ
ማስ ከበር</w>
ላ ውን</w>
ጣል ያን</w>
ያደር ግል
የምት ለው</w>
የ ዘመኑ</w>
ተባ ባ
ቃ ዊ</w>
ቀነ ባበ
ሀሳ ቡ</w>
የተሰ ጡ</w>
ከንቲ ባ</w>
ቪ ስ</w>
ሰጠ ።</w>
ማህበረ ሰቦች</w>
ሊ ወሰድ</w>
ጥ ሪዎች</w>
የሚያ መለክት</w>
አጋ ራ</w>
አማል ክ
ነብ ዩ</w>
ልጥ ፍ
ልዩ ነቱ</w>
ሄደ ን</w>
እንደማ ል
እናውቃ ለን.</w>
በ ነበሩት</w>
ፀሀ ይ</w>
ቆራ ጭ</w>
ሲ ሰጥ</w>
5 4</w>
እየ ሳ
ቅጽ ል</w>
ማ ጠ
ሚስጥ ራዊ</w>
ሆኖ ,</w>
ጠን ክሮ</w>
ካለ ፉት</w>
አገኘ ።</w>
ኝ ም፤</w>
ተመ ኘ
ም ሳ
ይመዝ ገቡ</w>
እ ኚህ</w>
ሦ ስት
ኦ ስት
አ ጀ
ሲ ደረግ</w>
ሜ ይል</w>
ማ ኔ
ሒ ደት</w>
ልብ ሱን</w>
ለማስ ረዳት</w>
ዋ ለ
አዛ ውንት</w>
አ ችሁ</w>
ተሰ ማር
ባለሙያ ዎችን</w>
በ ሩ
ሰ ቡን</w>
መታ ጠቢያ</w>
ሊ ሰራ</w>
_ _
ይገለ ጻ
ያቀ ፈ</w>
በ ስብሰባው</w>
መ መስረት</w>
ጥ ንድ</w>
ዎ ት።</w>
ወኪ ሎች</w>
በመጠ ኑ</w>
መቀ የ
ሐ ውልት</w>
ጀመረ በት</w>
ሹ ክ
ሬ ሳ</w>
መ ደረ
መ ሽ
ፓለቲ ካ</w>
ፈራ ጅ</w>
የም ፈልገ
ኢ ት
ኛ ዬ</w>
ተጫዋ ቹ</w>
ተማሪ ዎቹ</w>
በበኩ ሉ</w>
በ ደርግ</w>
በ ዐ
ማስ ጀመር</w>
መግ ቢያ
3 0%</w>
አድር ጋ</w>
ቀ ን።</w>
ስላል ሆነ</w>
" ከዚህ</w>
ጥ ፣</w>
ድ ዋ</w>
እራ ሴ</w>
ቆ ሙ
ምር ቶቻችን</w>
መጥ ራት</w>
ገነ ቡ</w>
ደ ሮች</w>
የፈጠ ረ
ዕቅ ዶች</w>
ኾ ኖ</w>
እጅ ጉን</w>
አን በሳ
በማ ኅ
ቀረ በው</w>
ምስ ሉ</w>
አይ ተናል።</w>
ነፍ ሱ</w>
ኃ ይለ
ቸዋ ል?</w>
ተያያ ዥ</w>
በ እርግዝና</w>
ሆስፒታ ሎች</w>
l ol
c r
"የ ሰው</w>
ስለ ነበሩ</w>
ሰው ዬ
ሙዚ የም</w>
የ "
ተነ ሳ</w>
ማሳወ ቂያ</w>
ጭ ቃ</w>
ይወዳ ሉ</w>
ው ም፤</w>
ካ ደረ
አስቴ ር</w>
ቴ ክ</w>
ታው ቂ
ስ ገባ</w>
መስ ፋፋት</w>
i st
ድ ሀ</w>
ዎች ንና</w>
ወዳ ድ</w>
አር ት
ባ ቸውም።</w>
ማው ጣ
ለመ ሙላት</w>
L T
) )</w>
አውቶ ማቲክ</w>
አል ና</w>
ስለ ላ</w>
ረ ጋ</w>
ጥቅ ሙ</w>
እግዚ ያ
ኝ ት</w>
መ ምረ
ልጆ ቿ</w>
ይተ ላለ
እንዲ ሄድ</w>
አና ሳ</w>
ነ ን፤</w>
ብር ታ
ሱ ት።</w>
N E
አላ ሳ
ነበር ...</w>
ተወ ግ
:: "</w>
6 4</w>
ባለ ሀብቶች</w>
ሆይ ,</w>
ጎ ብ</w>
ድርጊ ቱን</w>
ይነግ ሩ
ይረዳ ል.</w>
እውቀ ትን</w>
በሚ ጽ
በመ ጠባበቅ</w>
ቆጣ ጠራ
ራረ ብ</w>
ድርጣቢያ ዎች</w>
ይደር ሳል</w>
ይታ ያሉ</w>
ይሖ ዋ
አመ ጽ</w>
የዋ ለው</w>
ወረ ድ
በት ጋት</w>
በ ነበር
መዘ ዝ</w>
ይመስ ላችኋ
ያቀረ ብ
የተ ካ
ኢንቬ ስት</w>
አሳይ ቷል።</w>
የሚ ዋ
እንደሚ ሄድ</w>
ቶ ል
ወገ ኔ</w>
ከ ዛ
ሽ ፋ
መ ዘጋ
የ ዓመቱ</w>
ትና ም</w>
ተ .</w>
ማ ረው</w>
ግንኙ ነቶችን</w>
ያለ ዉ</w>
ወስ ዶ
ከራ ከር</w>
ኢትዮ ጲ
አንደ በ
ተከታ ዮችን</w>
ባለ ብዙ</w>
ቀ ሱ</w>
ግለ ሰብ
የ ጉግል</w>
ና ሽ</w>
ቲ ቭ</w>
ተነ ስተው</w>
ዘ ገባው</w>
ሳይሆን ፣</w>
ማሳ ሰቢያ
መምጣ ቱ</w>
ፕሮግራ ሞችን</w>
አባ ቴን</w>
አ ድን
ት ኩ</w>
ሊ ለወጥ</w>
ህ ኒ</w>
6 ,</w>
ግባ ቸው</w>
የ ሂ
አና ውቅ
ስደ ተኞችን</w>
መ ወ
ፍር ሀት</w>
አል ወደ
አል ባት</w>
ተን ሸራ
እኮ !</w>
አራ ዊት</w>
ኙ በት</w>
ለው ጦ
የሚ ናገሩ</w>
እንደ ደረሰ</w>
ሬ ቱ</w>
ገ ጥ</w>
ነፍ ሳት</w>
ተገነዘ ብ
ልጆ ቼን</w>
ar y</w>
ጽድ ቅን</w>
ይታ መናል።</w>
ዋና ዎቹ</w>
ኢሜ ይ
አንዳን ዴም</w>
ህል ው
" አይ</w>
ጣ ሪያ</w>
ካ ሁን</w>
ኩ ር</w>
እኤ አ</w>
ወንድም ህ</w>
እንዲ ኖረን</w>
ንግግ ሩ</w>
ታ ፣</w>
በት ?</w>
ቋ ም</w>
ስህተ ቶችን</w>
ሰነ ዱ</w>
ሰባ ዊ</w>
እየ ቀ
ቅ ብ
ሴት የዋ</w>
ዴስክቶ ፕ</w>
ደን ዛዥ</w>
የ ደርግ</w>
አገ ሪቱን</w>
በተ ባለው</w>
ቃ ችሁ</w>
ቀር ቧል።</w>
ያ ጥ
ወዳ ለው</w>
ከተ ለ
ች ሎ</w>
ሱ ም።</w>
P R
አካ ውን
ተመስ ር
ሚ ውን</w>
ለ ጥያቄ
እድ ሎች</w>
አይገ ኝም።</w>
በ ሰ</w>
ስ ፖን
ፈርዖ ንም</w>
ይጠቀማ ል</w>
እር ሶ</w>
J o
ያነ ሱ</w>
ቆ ይቻ
11 .</w>
ይሰማ ል።</w>
የሚ ጠራው</w>
በአ ከባቢው</w>
ፈለ ጌ</w>
ዎ ቻችሁ</w>
እያ የሁ</w>
አገ ኙ
ተቋ ር
ለጠ ፍ</w>
ጎ ኖች</w>
አል ኩ።</w>
ብር ሀን</w>
ይላ ሉ?</w>
አለበት ,</w>
በተዘ ዋዋሪ</w>
ሥ ጋት</w>
መዝ ገበ</w>
ጎ ርፍ</w>
እያ ዩ</w>
አደርጋ ለሁ.</w>
አው ሬ
አል ና።</w>
አላ ችሁ</w>
ነገሥ ታ
ምሁ ራ
ሁ ን
' ከ
እግዚኣ ብሔር</w>
ተ ች</w>
ቅን ጣት</w>
ይታ ይ</w>
እገ ዳ</w>
በመ ጠየቅ</w>
ቅዱ ስ
ዊ ቷ</w>
ኮከ ቦች</w>
ከተ ቻለ</w>
ሥዕ ሎች</w>
መ ገደ
w or
ይጀም ራ
የተ ና
እያ ል
3 %</w>
ፍ ሩ</w>
ጋ ል።</w>
ይጠናቀ ቃል</w>
ያስቀም ጡ</w>
ወጣ በት</w>
አያስ ደን
ቀጣ ዩን</w>
ሀ ሰት</w>
ያለ ንበት</w>
ው ክልና</w>
ተከ ናወ
በር ሊን</w>
በ ቀር
ር ኩስ</w>
መራ ራ</w>
ለመ ገምገም</w>
ፈጥ ኖ</w>
የ ብሎግ</w>
ከ ቀኑ</w>
አያ ድር
አን ቶ
አሳል ፈው</w>
ሸራ ተት</w>
ላ ልቅ</w>
ፅ ዋ
ጌታ ,</w>
ይ ና
የሚ ለው
የ እም
ደነ ቅ</w>
ከ ሴቶች</w>
በ ጥራት</w>
ሰ አ
ዊ ፣</w>
ኮ ት</w>
እግ ሬ</w>
ነበር ;</w>
ብ ሉ</w>
ቁ ጣ
ጠ ሩ
ይ ኽ</w>
አድራ ጊ
ራ ።</w>
መስጠ ቱ</w>
( ከ</w>
አብ ር
መ ወገድ</w>
ጕ ድ
የ ኒ
ምን ስ</w>
ማዕቀ ብ</w>
wrote :</w>
ew </w>
ጾ </w>
ይ ተር
ዩ ትን</w>
ዘ ፍ</w>
በ ጌ
ሲ ደርሱ</w>
ማመን ጫ</w>
t r
emb er</w>
ይገመ ታል።</w>
እናደርጋ ለን.</w>
አዝማ ሚያዎች</w>
ነበሩ ,</w>
ች ሉበት</w>
I I</w>
ደ ዋል</w>
ያው ስ</w>
የባለ ቤት
ኩ ሽ</w>
እላችኋ ለሁ</w>
አለር ጂ</w>
መሆ ኔ</w>
ል መና</w>
የታ ቸውን</w>
አር ማ
ግንኙ ነቱ</w>
ሯ ቸውን</w>
I M
12 .</w>
ይመጣ ል.</w>
የት ዊተር</w>
እንደ ሆን
ኢንጂ ነ
ቱ ስ</w>
በት !</w>
ስታዲ የም</w>
ይሂ ዱ.</w>
ያሳ ል
የ ድሮ
ካ ውን
አጥ ፍ
ቪ ን</w>
ይፍ ጠሩ</w>
የተመሰረ ተው</w>
እንደማይ ችሉ</w>
ለመ ተው</w>
Net fli
ፊሊ ፒ
ወ ግዳ
እ ኖ
አይገ ኝም</w>
አው ጪ</w>
በ ሆነ
ለሁ ››</w>
ሰጣ ቸው።</w>
መስ ረ
ፍ ራት</w>
ጭ ስ</w>
የሚ ሰማው</w>
ና ት!</w>
ችሎ ታዎች</w>
የ ጠቀ
ከ ጠዋቱ</w>
ا ل
ዲዛ ይ
ያውቃ ሉ.</w>
የሚወ ዱትን</w>
የ ይገባኛል</w>
ኤ ር</w>
አል ኩት</w>
አ ጨ
የተዘረዘ ሩትን</w>
እ ሑ
ችርቻ ሮ</w>
ሲ .</w>
ጓ ዳ</w>
ይ ቃወ
የተ ቻ
እንደሚ ያስፈልግ</w>
ቷ ል!</w>
ተማ ሪው</w>
በመ ምረጥ</w>
እንዲ ፈጠር</w>
ናቀ ሉ</w>
ተሳ ስ
የተመዘ ገቡ</w>
ዐ ይነት</w>
ከፈለጉ ,</w>
ሰዎች ፣</w>
ሐኪ ሞች</w>
ይ ክ
የተቋቋ መው</w>
የ ኖረ</w>
እንዳ ታ
ለ አጭር</w>
A c
የሚ ነሱ</w>
እንፋ ሎት</w>
ኝ ...</w>
ቴክ ሳስ</w>
ሰነ ዶችን</w>
" ብዙ</w>
ጨምሮ )</w>
ደር ሳ
ውቀ ውን</w>
አመ ታዊ</w>
በአ ጠ
መጽ ሃ
መዋ ጮ</w>
መ ጀመሪያው</w>
ጊዜ ያቸውን</w>
ይ ይት</w>
የ እርዳታ</w>
ወርቃ ማ</w>
ከተማ ዋን</w>
ከ ጀመረ</w>
አይ ን
አይ ረ
ተጣ ብ
እንደሚ ሆኑ</w>
አት ችል
ተመልከ ቱ</w>
ቦ ል</w>
ባ የ</w>
ቅር ጫት</w>
ጎ ደል</w>
የ ሄድ
አስታውስ )</w>
ት መጣ
ለማ ድረ
ጣቢያ ውን</w>
የ ሎ
ቶች "</w>
በ ፈቃደኝነት</w>
el l
ዴ ቪድ</w>
ይናገ ራሉ</w>
ው ረ
ተሰ ል
በ ሰላማዊ</w>
ቆ ስ
ማ ጫወቻ</w>
መሸ ከም</w>
ልን ገራ
19 )</w>
ዳ ሰ
የተመሰረ ቱ</w>
አሳ ስበ
ችሁ ፥</w>
A P
3 ፤</w>
እ ሠራ
አንዳንዶ ቹን</w>
ትዳ ሮች</w>
ተከ ለ
ቀረ ቡት</w>
ስም ህ</w>
አስ ፍ
ቪዬ ሽን</w>
መልእ ክቶች</w>
ዮና ታን</w>
የተናገ ሩት</w>
እንዲ መለሱ</w>
አል በላ
ኑ ፣</w>
ት ዋ</w>
ቢ ሉ</w>
መብራ ቶች</w>
ላይ ት</w>
ወይ ራ</w>
ኮርፖ ሬት</w>
ቀበ ሉት</w>
ሹ ፌ
ስራ ቸውን</w>
መስ ጊ
ዲያ ቢ
እፎ ይታ</w>
ተኛ ት</w>
ሴ ል</w>
" ፣</w>
ፌ ስቲ
ግልጽ ነት</w>
ይ መከራ
የሚያ ል
ዕ ጣ
ዐ ት</w>
ሠር ቶ</w>
ጠረጴ ዛ
ጇ </w>
ያስከት ላል።</w>
ከ ጠላ
አ ነበብ
ቃ ሎች</w>
ቁ ሙ</w>
እጅ ግ
እ ሾ
ኢንስቲ ት
አእምሮ ዬ</w>
ቶቻ ችሁ</w>
ብ ፤</w>
ምእ መናን</w>
ጥበ ቃ
የታ የው</w>
የም ኖረው</w>
ተጽ ፎ
ተጽ ዕኖ
ሻ ም</w>
ስርዓ ቱን</w>
የመ ናገር</w>
መድ ሀ
ሎ ሚ</w>
Sam sun
ቍ ጣ</w>
ለ ዛ
ጸ ደ
ደረጃ ም</w>
የተፈጠ ረውን</w>
የተ ጫወ
ሳኦ ልም</w>
ሲ መለከቱ</w>
4 ፤</w>
ፋ ቱ</w>
ጋ ባ
የተ መጣጠነ</w>
እንመለከታ ለን።</w>
አክ ለውም</w>
አ ሰባ
m on
9 -
🙂 </w>
ያቀረ በው</w>
ሰባ ቱ</w>
ማ ዋል</w>
I T
ጫጫ ታ</w>
የለብ ዎትም</w>
አጥብ ቀው</w>
ለማስ ቀረት</w>
A C
" ምንም</w>
ጦር ነቶች</w>
ግምገማ ዎች.</w>
ጀን ቲ
የ ካር
ተደራ ጅ
ህዝ ቡም</w>
ዳ ይ</w>
ይ ግዙ
የተጋለ ጡ</w>
በእጃ ችን</w>
መለ ካከ
ይቆ ያል።</w>
ያረጋግ ጣል</w>
የአገ ሪቱን</w>
ወ ሮ
አት ራ
ተቀ ላቀ
ማስታወ ሻዎች</w>
ለመ ተን
ሄ ሮ
6 "></w>
ፖ </w>
ፕሮግራ ሙን</w>
ብል ሃ
ቤ ዛ</w>
በሰባ ተኛው</w>
ማስ ቀ
] ።</w>
ፓ ድ</w>
ጠረጴ ዛው</w>
ክ ሎች</w>
እም ቅ</w>
አባ ባ
አስተዳ ዳሪዎች</w>
ቱ )</w>
ተው ፣</w>
ሰብ ል</w>
ፕሪ ም
ጎ ታ</w>
ያ መነ
የ እና
እንጂ !</w>
አይ ሰጡ
አቅር ቧል።</w>
ትንፋ ሽ</w>
በቀጣ ዮቹ</w>
ያላ ትን</w>
ውሂ ብዎን</w>
ከነ ዚህም</w>
ከ 30</w>
ተቋ ረ
ተመልከ ቱ።</w>
በ ዓላ
በ ለው</w>
ቅ !</w>
ቀረ ብ
ለ ሞ
ገረ ም</w>
ይ ይ
የሚያ ነ
ት ግር
በመ ጽሐፉ</w>
ጅ ማ</w>
ወ ጡት</w>
ነር ጂ</w>
ተፈ ፃ
ር ግ</w>
ምክንያ ቱን</w>
አለበት !</w>
አ ተኩ
ገ ሠ
ክ ራል።</w>
አት ሌት</w>
ት ም.</w>
ተሸ ላ
ባ ሻ
በ ግር
ሆኑ በት</w>
ያ ኔ
ዘገባ ዎች</w>
አስተ ካክ
ሻ ለ
ማፍ ራት</w>
ይቀ ራል</w>
የተወለ ድ
የተ ሞሉ</w>
ኦ ሪ
ተነ ስተ
ቃ የ
ad ing</w>
ገብ ቷል</w>
ያ ያዝ</w>
ኢትዮጵ ያው
ሾ ም</w>
መሰረ ቱ</w>
ሊ ስት</w>
y )</w>
(ማ ቴዎስ</w>
ፍየ ል</w>
ጸሐ ፊው</w>
የማይ ፈልጉ</w>
ረዳ ቸው</w>
ል ሔ
ለ አሁኑ</w>
ጠቀ </w>
የቀረ በ
የ ደረጃ</w>
በሚ ስ
በ ዚህን</w>
በ ዘመኑ</w>
ቅ ዝቃ
ማ ጽዳት</w>
ፊር ማ</w>
ጥያቄ ን</w>
ዳ ግ</w>
ኮ ር</w>
ክሬ ም</w>
እናቀርባለ ን።</w>
አም ኖ</w>
ቁ ራ
መስራ ች</w>
ፍተ ሻ</w>
ድንጋጌ ዎች</w>
ያሳ ስበ
የም ዕራ
ዕል ባት</w>
ከሚ ከተሉት</w>
ስ ሌ
9 0%</w>
ፊ ቴን</w>
ፈ ቅድ
ጽ ፈው</w>
ይሄ ድ</w>
የማ ር
ቻይ ንኛ</w>
ቪ ያ</w>
ማድረ ግን</w>
ሎ ቹን</w>
" እኔም</w>
የሚመጣ ውን</w>
እን ቢ</w>
አል ቆ
ኋ ቸው።</w>
ቢ ስ
X NUMX</w>
ጋ ይ</w>
የተ ትረፈረ
አ ቧ
መፍ ጠር
ለ ወጡ</w>
አይታይ ም።</w>
አልቻ ለ
ማ ል.</w>
መ ፈጠር</w>
ic e</w>
ገጠመ ኝ</w>
የገ ዛ
ባሕር ያት</w>
በእርግጥ ,</w>
ጡ ባዊ</w>
ጀ ማሪ</w>
የ ልብስ</w>
ከ ው?</w>
አበ ዛ
አልነበራ ቸውም።</w>
መፈ ክር</w>
" እና
ጽፏ ል-</w>
የሚወ ዱ</w>
ውሳኔ ውን</w>
ኔት ወር
ሙ ር</w>
ን ቱ</w>
ባ ለመሆኑ</w>
ምር ምር
ልት ሆን</w>
8 ፡
ይቆ ያል</w>
ዋ ለሁ፤</w>
እየመ ጡ</w>
ትምህር ታቸውን</w>
ታገ ሉ</w>
በኋላ .</w>
በር ሳችን</w>
ታይ ን</w>
ብሎ ኝ</w>
ሜካ ኒ
ፍቅ ሬ</w>
ጓ ል።</w>
ይ ,</w>
እንቅስቃ ሴን</w>
አያስፈልግ ዎትም</w>
ቁ ስ
ጥ ስ</w>
ያረጋግ ጡ።</w>
የማ ሰብ</w>
ከ ሸ
Luc as</w>
አስ ገባ
ኙ .</w>
ሀሳ ቡን</w>
ይመስ ላሉ።</w>
ኮ ንግ
ክር ክ
ተ ብሏል</w>
ብ ረ</w>
ራ ሱ
ምን ና</w>
ማ ክ</w>
ጳጳ ስ</w>
ይደሰ ቱ</w>
ያ መለ
የህ ትመት</w>
አ ኃ
ንጣ ፍ</w>
ተገ በሩ</w>
ብል ጭ
ሦ ስቱም</w>
የ ፕላስቲክ</w>
ኢየሩሳሌ ምም</w>
ቦ ቹን</w>
ሊቃ ነ</w>
( M
ያ ወራ
ዐ ው
ው ሏል</w>
አስ ፈራ
ሰላ ምታ
ምክ ህ
መርዛ ማ</w>
ለ ተቀ
ፍር ዱ</w>
ጸ ሃ
ያውር ዱ</w>
ክ ሱ</w>
እድ ሳት</w>
ነግ ሬ
ነገር ፣</w>
ነገ ራቸው</w>
በ ጃ
_ Lucas</w>
ያመ ኑ
አሌ ክ
ለካ ስ</w>
a pp
ዱ ት።</w>
ደግሞ ፣</w>
ከተ መረ
በተ ንቀሳቃሽ</w>
ቁም ነገር</w>
መንግስ ቱን</w>
ለ ኪ
ሃ ም</w>
ጠይ ቀዋል።</w>
ጆር ጂ
እንደሚ ኖር</w>
እን ጅ
አል ቀ
ቅ ላ
ቀ ህ</w>
ሜ ጋ</w>
መዝና ናት</w>
Q </w>
እን ወስዳ
ስለማ ይ
ለ ቀቅ</w>
i a
S T
N ov
( 201
የተፈጠ ረ
ብሔ ራት</w>
ቀበ ልም</w>
e st
ኢሳ ያስ</w>
ትንቢ ተ</w>
ለመን ከባከብ</w>
ግ ግ
የማ ያስ
የ ንባብ</w>
ክፍ ያዎችን</w>
አ ጭ
ቷ ል፤</w>
ብፁ ዕ</w>
በረ ክ
ሩ "</w>
ማ ሰስ</w>
ደ ።</w>
የ አምላካ
ቆጠ ረ</w>
ለ ህዝቡ</w>
ሃይማኖ ት
ጋ ሩ</w>
ያገኘ </w>
ሀትሪክ ፡-</w>
ይመለሳ ሉ።</w>
እን ገባ
አሉ !</w>
ነው ና</w>
ብ "</w>
ህ ዶ</w>
ጠየ ቁት</w>
አግኝ ቻለሁ</w>
አይቻ ለሁ።</w>
ሸለ ቆ
መጣ ችሁ</w>
ይነ ግራ
የሚ ቀርቡ</w>
ዕው ነት</w>
ተወዳ ጅነት</w>
ለ ወንዶች</w>
የታተ መ</w>
የሚያስፈልጋ ቸው</w>
ተሃ ድሶ</w>
199 7</w>
የ ጌታ
ኩኪ ዎችን</w>
ምን ጣ
ማን ዴ
ኬ ሚካ
እየ ሮ
መጥ ቷል</w>
E n
ዱ ም።</w>
እንድን ችል</w>
ችለ ናል።</w>
ት ባ
መፅ ሃፍ</w>
ገ ጸ
ኖ ክ</w>
ትርዒ ት</w>
ቅጽ በ
ሲኖዶ ስ</w>
ሣ ራ</w>
ዷ ቸውን</w>
ድክ መት</w>
እያ የ</w>
አቀ ና
ቀ በት</w>
ለመ ጨረስ</w>
ጨ ዋ</w>
ያስ ገቡ
አ ሕ
ሲ ገኝ</w>
መናፍ ስት</w>
F re
ፉ ት።</w>
ጠቅ ሰዋል።</w>
ክብ ብ</w>
እን ኩ
እ ጀ
በመ ሞከር</w>
ምርመራ ው</w>
ለ ብቻ
i on</w>
00 0
ጀመረ .</w>
ይልቅ ,</w>
እንዲ ታይ</w>
ንጉ ሣ
ኅ ብረተሰቡ</w>
ሲ ኒ
ማ ኝነት</w>
መሳ ስ
ለሁ ኝ</w>
ፈፀ ሙ</w>
ፈጸ ም
ያለ ው?</w>
አውቃ ለሁ.</w>
አስቀ ያሚ</w>
በመሠ ዊ
c ont
ጠ ቋሚ</w>
ኮ ሪያ
አ ዘጋጀ
ማ ለሁ</w>
6 6</w>
ጥ ጥ</w>
ድብ ደባ</w>
የተገና ኙ</w>
ክፍተ ቶች</w>
ስፓ ኒሽ</w>
ር ቀው</w>
ጀም ረዋል።</w>
ቢ ኖሩ
ቀን ፣</w>
ሲሆን ፥</w>
" እንደ
ደር ገውን</w>
የተ ረገ
የ አዲሱ</w>
አም ር
ታስ ባለ
ለበ ለጠ</w>
ህይወ ታችን</w>
Cont in
ገብር ኤል</w>
እውነ ታውን</w>
አግኝ ተናል</w>
ብለ ዋል
ሽን ፈት</w>
ምዕ ተ</w>
m ore</w>
ጣ ለን</w>
አልገባ ኝም</w>
ማ ጠና
አማራ ጭ
በተ ደረገ</w>
ቀር ቷል።</w>
ሰ ረገ
መሬ ቱ</w>
ለች ፥</w>
ፓር ኩ</w>
ዩ ም።</w>
የተ ዘጋጁ</w>
በ ጆሮ
ers ች</w>
ይሄዳ ሉ።</w>
ያልተገደ በ</w>
እር ጅ
ተሰ ጠ
በ ጸሎ
በ ነሱ</w>
ማጣ ቀሻ</w>
ሕ መም
ሐ ዘን</w>
ሉ ዊ
ግብ ረ-
የሚ ሠራ
ዘ ውድ</w>
ኬ ንያ
ችሎ ቱ</w>
ተኳሃ ኝ
" አዎ
ዘ ህል
ዘህል ቍ</w>
ኦን ላይን</w>
እየሞከ ረ</w>
አል ቅ
ሆነ ፥</w>
a x
Netfli x</w>
ድሬ ዳዋ</w>
የተ በላሸ</w>
ዓ ሦ
ሲ ነ
አ ኗኗር</w>
ቀለ በ
ማ ኒ
፤ +
ዋ ል"</w>
ክትባ ቶች</w>
ስ መለከት</w>
ላከ ው</w>
ኢ ም
ስታ ት
ማ ምረቻ</w>
:3 4</w>
ይወ ዱ
ምላሽ ,</w>
8 5</w>
ዘረ ጋ</w>
አመራ ሩ</w>
ሻ ማ</w>
ማ ለን</w>
መዋዕ ለ</w>
ህ ም.</w>
Pl us</w>
ይጠበቅ በታል።</w>
የ ቃላት</w>
አል ፈው</w>
ብ ጥብ
በመ ላክ</w>
ራ ር
( አስታውስ)</w>
ጨረ ታው</w>
ኢ ብራሂ
አው ጪ
አው ድ</w>
መንግ ስትና</w>
(ለ )</w>
ወይ ኑ</w>
እንግ ዳ
ነዉ ?</w>
በተ መጣጣኝ</w>
ማል ቀስ</w>
ሊ ገባ</w>
ሁ !</w>
የ ስኬት</w>
ውጤ ቶቹ</w>
አር ጀንቲ
ኞ ችና</w>
ተር ፎም</w>
ቅርንጫ ፎች</w>
ስ ላሉ</w>
ፋ ጠን</w>
ይውሰ ዱ</w>
የ ዛ
ከፍ ት</w>
አ ቪዬሽን</w>
ተ መለስ</w>
ሣ ጥን</w>
ጥ ዎ</w>
ይከብ ዳል።</w>
ይባ ርክ
የ ፈተና</w>
ን በትን</w>
ቶቻ ችሁን</w>
ቁ ስል</w>
ሰ ንት</w>
መጠ ራ
መኖር ን</w>
ለመስ ጠ
" እሱ</w>
ጎ ልፍ</w>
ይግ ቡ</w>
ይታወ ቃ
ዜና ዎችን</w>
ኮን ጎ</w>
ከሆነ ም</w>
ተከ ፈተ
የ ዜጎች</w>
ባ ል.</w>
ሰጥ በት</w>
ይሰ ረ
ዕ ብ
አባ ታችሁ</w>
በም ሳሌ
ቆጣጠ ሩ</w>
: .</w>
ያል ተፈ
የተደራ ጀ</w>
ክፍ ያው</w>
ንብረ ቱ</w>
ፅ ሑ
የነበረ በት</w>
ዞ ር
እን ሂድ</w>
በ ቫይረሱ</w>
ሌ ዎች</w>
ፏ </w>
ጠና ከረ</w>
ጠ ቡ</w>
የተናገ ረ
ዛ ል</w>
ታጋ ይ</w>
ተሻ ግ
መ ፈጸ
as s
ገዥ ው</w>
ያ የ</w>
ዋ ወር</w>
ክ በት</w>
እንደ ሌላቸው</w>
ፕሮ ፓ
ግ ንድ</w>
የተ ስተካከለ</w>
የ ክል
ኮ ሚኒ
በተ ግባ
በምድ ሪቱ</w>
ሀ ብ</w>
t ube</w>
ጌጣ ጌ
ይኖርብ ናል.</w>
ዝ መና</w>
ዊ ል
እ ቀበ
አድርገ ዋል</w>
ቆ ሜ</w>
ቅ ባት</w>
ስለ ዚያች</w>
ሳ ።</w>
ሞ ራ
ሔ ር</w>
3 ኛ</w>
/ /
እቅ ዶች</w>
ችኋ ል.</w>
ባ ች</w>
ቅን ጅት</w>
ያ ዘጋጁ
ተግባ ሩ</w>
ሊ ስ</w>
ጋ ቢ
ይገባ ል?</w>
የተ ረዳ
ዘረዘ ሩት</w>
ኢትዮ </w>
አላ ወ
አ ጽን
ነግረ ው
ቶ ,</w>
ሻ ን
ሶ ቹን</w>
ሊ ወጣ</w>
ፈጽ መው</w>
አ ከፋ
በመ ከራ</w>
በ ሰብ
መገም ገም</w>
የጠ ፉ</w>
የ ጠራ
የ ኔን</w>
ኳ ሱ</w>
ከ መንግሥት</w>
ታኅ ሣሥ</w>
ማደ ሪያ</w>
መል ሼ</w>
ጃ ክ</w>
ዳ ና</w>
አካ ውንት</w>
ቅር በት</w>
ወንድ ሜ
እንዲ ሳተፉ</w>
ኙ ም</w>
ቸር ነት</w>
በማሳ የት</w>
ሰ ጭ
ማ ።</w>
( G
የቀድሞ ው:</w>
ካ ሎ
እስትንፋ ስ</w>
እመክራ ለሁ</w>
በሰ ጡት</w>
ስያ ሜ
መ ኝ
ልጆ ችዎ</w>
ጢ ፋ
የምናገ ኘው</w>
ኳ ችሁ</w>
እየተ ጠቀ
ተመራ ማሪ
ም ኑን</w>
ለመ ንግስት</w>
u st
ጣ ጥ
የሰ ፈ
ብዝ ሃ
ብራ ራ</w>
ሰ በስ
ሮ ች,</w>
ር ኵ
ሞቃ ታማ</w>
መ ገና
ግማ ዊ</w>
ዘ ነበ
እንሰራ ለን</w>
ነሳ ሳት</w>
ተጠ ቁ
ሊ ያገኝ</w>
ዳ ችንን</w>
ያ ችንን</w>
የመታ ጠቢያ</w>
ው ጥረ
እር ጥብ</w>
ሯ ቸው።</w>
ጠ ውም</w>
ግ ጠ
ግ ዘ
ያስፈልጋ ቸዋል</w>
ዠ ት</w>
ዋና ውን</w>
ከ ምታ
ናቸው ና።</w>
ባ ጠቃላይ</w>
ባ ታ
ስፖር ቶች</w>
ማ ሰራጨት</w>
ያስፈልገ ዋል.</w>
የ ሱ</w>
ነባ ራዊ</w>
በ ቂ
ሕ ዶ</w>
ልጃ ቸውን</w>
ፈላጊ ዎች</w>
ያ ደግ
ኤ ልም</w>
ት ››</w>
መ ኳን
Contin ue</w>
" ስለዚህ</w>
ፕሪም የር</w>
የ ፃ
የ ሕዝቡን</w>
ካተ ቱ</w>
ከተ ገኘ</w>
ሌ ም</w>
8 "></w>
እንዲ ጨምር</w>
አል ሰ
ኖ ን</w>
ተጋድ ሎ</w>
ሰ ፊ
መዛ ግብ
መ ጪ</w>
ፈ ሪ</w>
ጫ ን
ኢየሱ ስም</w>
አቅርቦ ቶች</w>
አምላ ኩ</w>
በእረ ፍት</w>
በቀ ደ
ስራ ቸው</w>
for um
የመ ጀመርያው</w>
ከ ደነ
ቄ ስ</w>
ቁሳቁ ሶችን</w>
መ ፈተሽ</w>
ፍፃ ሜ</w>
ፈ ኞች</w>
ይላ ል.</w>
የተሳ ሳቱ</w>
የሚ ወሰን</w>
ዋ ለሁ.</w>
በ ቤትዎ</w>
ምን በት</w>
ኮር ሶች</w>
እን ችል</w>
አባ ቶቻቸው</w>
ስታ ቲ
ማጠራቀ ሚያ</w>
መዝሙ ረ</w>
ፍሎ ሪዳ</w>
የተ ሰጣቸው</w>
የሚ በላ</w>
የመ ሰረ
ከነ ዓን</w>
እንደ ዘ
አሰ ሳ</w>
ሆ ም</w>
ፓነ ል</w>
ያል ታወቀ</w>
የተሻ ለውን</w>
እንደሚ ኖሩ</w>
አት ስ
ብ ክለ
በኩ ል,</w>
ግለሰ ቦችን</w>
የሚበል ጡ</w>
ወዳጆ ቼ</w>
ካምፓ ስ</w>
ምክንያቱ ም.</w>
ሁ ትም</w>
ፈጥ ሮ
ከ ገ
በስ ደት</w>
በ ነገሩ</w>
ሰን ደቅ
ለማ ብራራት</w>
ለሁ ና።</w>
ፈለ ግን</w>
ድረስ ,</w>
አይ ገር
ት በ
ስር ቆት</w>
መር ዝ</w>
3 ,
ያለ ህን</w>
እየ ጣ
አይ ጠቀሙ
ባሕ ል</w>
ማረ ሚያ</w>
ይጠ ፋል።</w>
የተከበ ረ</w>
የሚ ወድ
የመ ጽሐፉ</w>
ቅ ቤ</w>
ላ ዊው</w>
t p
ያል ተጠ
የ ዘመን</w>
አደረጃ ጀ
አ ሮን</w>
ቻ ቸው።</w>
ተነሥ ቶ</w>
ሆና ለች።</w>
ፀሐ ፊ</w>
ክ ሩ
ኢ ነርጂ</w>
ታ ዩ</w>
Com ments</w>
ደጃ ፍ</w>
የሚያ ያዝ</w>
ክ ሰን</w>
እነ ኝ
እሳ ቸው
አይኖረ ውም።</w>
አብዮ ታዊ</w>
በመጀመሪያ ,</w>
ሰማ ቸው</w>
መቁ ጠር</w>
ይ መደ
ዋ ሉ</w>
እ ደግ
መ )</w>
ፍ ሪ
ደ ፍ</w>
ያለ በት።</w>
የሚያስደ ስት</w>
ዎች ህ</w>
አስተ ር
ታ ያ
በቅ ደም</w>
በማ ህ
ያለ ውም</w>
የታቀ ደ</w>
ተኞ ችም</w>
በ ዘመናዊ</w>
ሌ ው</w>
ጀመረ ች።</w>
ይወ ቁ።</w>
ዘ ሩ</w>
ወገኖ ቼ</w>
ወንዶ ችም</w>
በድጋ ሜ</w>
ሲ ሰሩ</w>
የኢ -
የ ፍጥነት</w>
በ ንጉሡ</w>
ደር ዘን</w>
ይቀበ ላል</w>
ይ ብ
አ ከናው
ቸ ኩ
ት ጥቅ</w>
ቪድ -19</w>
ቡ ቲ</w>
ሙ ኝ</w>
ገ ገም</w>
እገምታ ለሁ።</w>
እንዳል ሆኑ</w>
እንቅስቃሴ ው</w>
አይ ሠራ
ተናግ ሯል</w>
ያስችላ ቸዋል</w>
የ ጥቁር</w>
አፍጋኒ ስታን</w>
አል ሆን
ተኩ ስ</w>
በግ ፍ</w>
በውስጣ ችን</w>
ያን ኑ</w>
ኢ ን</w>
አይሰጥ ም</w>
አንድ -
ትግ ሉን</w>
ተጠናቀ ቀ</w>
ተዓ ምር</w>
ሰ ሪ</w>
ለማስ ጀመር</w>
ሆነ ና</w>
ት መንት</w>
በ ሽ</w>
ሪፐ ብሊ
ልጆ ችና</w>
ላለ ስ</w>
አበ ቃ
በሳ ቅ</w>
2 ፤</w>
ጥ "</w>
ግን ፤</w>
ከማ ቸት</w>
እንሰጣ ለን</w>
እማ ዬ</w>
አ ኑ
ተሰ ባ
መጽሐ ፍን</w>
ጥ ፤</w>
የታ ደሰ</w>
የመ ሠረ
የ ወጪ</w>
አይ ሆኑ
አ ፅ
ተ መድ
ሙዚ ቃን</w>
ጓደኛ ሞች</w>
የተ ውጣ
አስታው ሳለሁ።</w>
አ .</w>
ቡ ,</w>
ሸ ና
ሰል ፉ</w>
ለመሸ ፈን</w>
ግራ ፊ</w>
ድር ን</w>
ይዟ ል.</w>
ዝ ንጀ
ውጤ ት
በ አትክል
በ ሂደቱ</w>
ጠ ም።</w>
እንደሚ ያገኙ</w>
እን በ
አብረ ውት</w>
ኖ ራት</w>
በ 18
መ ማ
የሚ መለከታቸው</w>
ንጥ ሎች</w>
ይሆና ል"</w>
ወንድማማ ቾች</w>
ኾ ናችሁ</w>
እንደሚ ፈ
ለህ ,</w>
ድ ሬ</w>
ዲ ሴ
የሚያ ም
ለ ልጁ</w>
ሃ ሃ
l ic
N o
ጽ ዋ
ጥ ኩ</w>
ይመስ ላሉ</w>
ከ ሽ
እን መለሳ
አማ ላ
በቅ ንነት</w>
መሰ ክራ
የመ ሸ
ውጤ ቱም</w>
እግ ሮች</w>
እ ልፍ</w>
በ ርት</w>
ስብ ሃት</w>
ኤፍሬ ም</w>
አወ ዛ
አላ ደረ
ou n
ይ ጽ
የምታ ስ
የሚ ባሉት</w>
ዝማ ሬ</w>
ት ሪክ</w>
በጥ ቁር</w>
ሲ ሳይ</w>
ምህዳ ራዊ</w>
መላእክ ትም</w>
ሀ ነም</w>
:3 5</w>
ጣ ፋ</w>
ክ ታር</w>
ኩባንያ ችን</w>
እየተ ጓ
እ ያለን</w>
ኤግዚቢ ሽን</w>
በመ ጠቀ
ሰራ ር</w>
R A
5 7</w>
ይሞክ ሩ።</w>
የተ ለያ
የሚመስ ለው</w>
ሀሳ ቦ
ይላ ል፤</w>
የባለቤት ነት</w>
እንዳን ተ</w>
አዛ ዥ</w>
ሳ ሳ
መር ሐ
ለ አንዱ</w>
ዥ ን</w>
አቃ ቤ</w>
ና ቀል</w>
... "
ይ ከራ
እን ሰማ
ሪ ቱም</w>
መም ታት</w>
ሊ ታወቅ</w>
ጠን ቃቃ</w>
አሸ ባሪ</w>
በተ ሰጠው</w>
በረታ ታት</w>
ሎ ችና</w>
እነ ኚህ</w>
በምት ኩ</w>
ስተ ዋል</w>
ልጅ ህ</w>
ላክ ሲ</w>
ዕድ ለኛ</w>
ከተ ጋ
ቦ ራ
ማለ ች።</w>
ያለ ዎትን</w>
የሚገ ኘ
አድርገ ዋል.</w>
ቦ ንድ</w>
ሰጣ ችሁ</w>
CO 2</w>
" ይሄ</w>
ጠ ፈር</w>
ግ ኑ
ድ ሶ
ከተ ጀመረ</w>
ከበ ረው</w>
እንዲ ወስዱ</w>
እላችኋ ለሁ፥</w>
መጋ ባት</w>
ፀጥ ታ</w>
ያስ ገድ
እመጣ ለሁ</w>
አካባቢ ን</w>
ችሁ "</w>
ቸገ ሩ</w>
መፍ ቻ</w>
መደ ወል</w>
መ ቐ
ለ ሱ</w>
On e</w>
6 7</w>
ከንቲ ባ
አዎ ን,</w>
ር ቅ</w>
መታ ጠብ</w>
ሁ ኖ</w>
o st
ኝ )</w>
ቁ ,</w>
ሩዋን ዳ</w>
on e
I C
ዶክ ተሮች</w>
ኦር ጋ
እገምታ ለሁ</w>
እራ ሷን</w>
ፈጠ ራ
ኢንቬ ስትሜንት</w>
አስ ጠንቅ
አለች ኝ።</w>
ትዕ ቢት</w>
ት ተን</w>
በ ኵ
ሰ ባቸው</w>
የቀረ በውን</w>
የሰማ ሁት</w>
የሚ ጠቀሙበት</w>
የ ጉልበት</w>
ወሰ ነ
ካ ድ</w>
ከተ ቋቋ
እንደ ዚህ
እናመሰግና ለን!</w>
እ ራሳቸው</w>
በማ ዳ
ማኅ በሩ</w>
P A
5 :</w>
" አይ
ይቆጠራ ል።</w>
እንድና ደርግ</w>
እንዳ ደረግ
አማካ ኝ</w>
ን ዳ
ቤ ላ</w>
የ ጥላቻ</w>
ከል ቤ</w>
ከ መረ
እስ ጢፋ
ቶ አል።</w>
ተግዳ ሮት</w>
ቶ ናል።</w>
በቃ ላት</w>
ጠ ለጠ
ደገ ፉ</w>
ይ ቺን</w>
እ ጮ
አተ ገባ
ታላ ችሁ</w>
ተ ኝ</w>
በሕይወ ትዎ</w>
ሰም ቼ</w>
Samsun g</w>
ገለ ፃ</w>
የዋ ስትና</w>
የቀ ሩት</w>
ቢሆን ም፣</w>
በሰዓ ቱ</w>
ሌሎ ቹን</w>
ዴ ፓ</w>
የ ውሳኔ</w>
ክ ፣</w>
እየ ሠሩ</w>
አይመስ ል
በር ሳ
ቶ ቹ
ቅን ጅ
ሙሽ ራ
ፊ ያ
ደ ድ
ኮ ፒ</w>
ን ፋስ</w>
ታው ቁ
ብ ኛል</w>
ቃ ለመ
ማረ ም</w>
ለንጉ ሡ</w>
F C</w>
‹‹ እኔ</w>
ባለ ች</w>
በተ ን
ሃሳ ቡን</w>
ጠ ሩት</w>
ጊዜ ዎን</w>
ድር ድሩ</w>
ከ መስጠት</w>
ኖቬ ምበር</w>
ተገ ዢ</w>
ሊ ጥ</w>
ጨነ ቁ</w>
ይመለከ ታል።</w>
የ ክትባት</w>
አልነበረ ኝም።</w>
አ ፕ</w>
በ ጽድቅ</w>
ቅ መ
ሀ ኪም</w>
በ ያዝ
ሞ ግ
ል ል
ዐ ር
ተ በላ
በር ታ</w>
በማ የ
መ ክብብ</w>
ጠር ሙስ</w>
ገ -
ያ ዘጋጀ
ነበረ ብኝ።</w>
በመጥ ቀስ</w>
ር ምጃ</w>
ሪ ን
ለማስ ደሰት</w>
ፖርቱ ጋል</w>
ፓ ስ
ደ ሴ</w>
ያመጣ ው</w>
የመ ጠ
ታ የ</w>
ብረ ቱ</w>
ሰጥ ዎ</w>
ሊ ንግ</w>
የታ የ
እንዲ ውል</w>
መስለ ኝ</w>
ለማም ለጥ</w>
or t
Ch ro
ድ :</w>
ይገባ ቸዋል።</w>
ዓለ ሙ</w>
ካለ ፈ</w>
ካ ድሬ
አክ ሱም</w>
አልተገኘ ም።</w>
ማ ነስ</w>
መስኮ ቶች</w>
ገ ው።</w>
ድ ሆ
ዘመን ም</w>
ክላ ሲ
ካና ቢስ</w>
እየ ኖር
ቆ ላ</w>
ማማ ከር</w>
ሎ ቻቸው</w>
( i)</w>
ደር ስብ
ይወ ርዳ
የመስ ቀል</w>
የመ ማሪያ</w>
አም ጡ
ቅድ ስና</w>
ር ሷ</w>
ሩ ታል።</w>
መሬ ት
ከ ወጣ</w>
አይ ገኝ
ሽ ር</w>
ሚ ናል</w>
ፋ ሲል</w>
ፊት ህ</w>
እንደ ወደ
አሳይ ቷል</w>
ሲ ፈልጉ</w>
ሕገ ወጥ</w>
ደ ለህ
የተሰማ ሩ</w>
የበ ሰለ</w>
አድማ ስ</w>
ተጠያ ቂ
ልጇ ን</w>
ይው ላል።</w>
የሚ ሆን
የ ፀ
እያ ወራ
መ ነ</w>
ፓር ኮች</w>
ገ ብረ
ያ ኑ</w>
የተነሳ ው</w>
የተ ጠራ
የላ ቁ</w>
ሹ መ
b </w>
ጣ ዖት</w>
ይካሄ ዳል።</w>
ዓ ባይ</w>
አላ ሰብ
ቶ ኪ
ተጠ ይ
ሀገ ረ</w>
o d</w>
ይከተ ሉ</w>
የ ዝናብ</w>
ን ብር
ባለ ንበት</w>
ቁጥ ጥር
ሟ ት</w>
ም ራት</w>
ለመ ደ</w>
ፖ ድካ
ፕሮ ፖ
ያስችል ዎታል</w>
አደርጋ ለሁ!</w>
አ ዶ</w>
ቱ ም።</w>
ተጓ ዥ</w>
ተናገ ሩ</w>
ተና ግራ
መተግበሪያ .</w>
ግዛ ቱ</w>
ይጠቀሙ ።</w>
የሚ ቆጠ
የ ወጣቶች</w>
ትውል ዶች</w>
በተ ን</w>
ለማ ካፈል</w>
u d
7 _
ዮሐ .</w>
የለ ም
ከ ልጆች</w>
የሚነ ካ</w>
ቅ ፤</w>
ላ ው
ፀ ባረ
ጭፍጨ ፋ</w>
ግብ ዓ
የመ ው
የ እንቅልፍ</w>
ከ ወንዶች</w>
ትይ ዩ</w>
ተያ ይዘዋል።</w>
መ ሄድ
ላችሁ ,</w>
ou g
ጠመን ጃ</w>
ዷ ል.</w>
ይሁ ኑ።</w>
የ ነጻነት</w>
ክ ና</w>
አክ ሊል</w>
አ በረታ
ተዋፅ ዖ</w>
ሆኑ ፣</w>
አግኝ ቼ</w>
በህ ገ</w>
በ አካባቢ
በ ምሽት</w>
ሬ ም</w>
ሞ ው</w>
ሊ ሸ
: 30</w>
አምላ ኬ
ትግር ኛ</w>
ተቀመጠ ።</w>
መን ደር
A PS</w>
የመ ምረጥ</w>
ወ ጠ
አመሰግና ለሁ.</w>
በ አገልግሎት</w>
ቃላ ቶች</w>
ሰራዊ ቱ</w>
D is
ፈተና ውን</w>
ጨም ረው</w>
ጎ ጃም</w>
የመ ምህ
ከሰ ሞኑ</w>
እ ዝ</w>
አስ ማት</w>
ተዋ ል?</w>
በል ና</w>
ሽ ታ
ማኅ በረ</w>
መኖ ሪያ
ሔ </w>
ሀ ኪ
4 1
ፍ ነው</w>
እጃ ቸው</w>
በመ ገንባት</w>
በ ነጋ
ሻ ንጣ
መኪና ውን</w>
መ ሪዎችን</w>
ሊ ገለ
ጨ መር
ዘግ ቧል።</w>
ሳይ በር</w>
ከሰ ል</w>
ከመ ደ
ኢን ፌ
ጀ ር</w>
ት ሰማ
ተ ጀመረ።</w>
ሳ የው</w>
ከ በርካታ</w>
ነበ ራት</w>
ማ ይል</w>
ፈልጉ በት</w>
ብሎ ,</w>
ቡ ፣</w>
ሷ ቸው</w>
እግዚአብሔር ን</w>
እ ከፍ
አድር ጉ</w>
አው ቅ</w>
ተቋማ ትን</w>
መ ወዳደር</w>
po st
ይ ግለ
ያጠቃል ላል</w>
እጠይቃ ለሁ</w>
አንጀ ለስ</w>
ተ ፈላጊ</w>
ቅ ነሳ</w>
ዳ ኝ
እንሄዳ ለን</w>
ኃያላ ን</w>
ተጠቃ ሚነት</w>
ተኛ ነት</w>
በመ ዋ
ለዋ ወጥ</w>
" እነሆ
ይወዳ ሉ።</w>
ያል ተጠበቀ</w>
ወቅ ን</w>
ወ ዛ
አይ ስ
ስፍ ር</w>
ሳ ሎን</w>
ሃሳ ቡ</w>
ፋ ለን</w>
አደ ር</w>
ብራ ን
ማሳ ሰቢያ</w>
ላፊ ዎች</w>
ፍር ድን</w>
ፍ ጥ</w>
አው ርድ
በመካከ ላችሁ</w>
ሥ ሩ</w>
መጽ ሀፍ</w>
ለች !</w>
ጠባ ቂ
ይ ቆጠ
የተገደ በ</w>
ኩ ን
አይ ልም።</w>
አሳ ያ
ነገ ው</w>
ነ ን?</w>
በቀ ዝቃ
ሞ ራ</w>
ማ ቀ
መቁ ረ
ል መና
ፊት ህን</w>
ይፍ ጠ
የ ክፍል</w>
አማር ኛ
አመልክ ቷል።</w>
ማ ውን</w>
3 :1
ካ ይ</w>
ኦስት ሪያ</w>
በመ ቅ
በል ባቸው</w>
ሸራ ተ
ሳይ ታ
ዱ ፣</w>
ወ ፍ
አም ነው</w>
አ ሊ</w>
ተዋ ል፤</w>
ምና ፤</w>
ማዳ በር</w>
መታ ዘዝ</w>
5 9</w>
ጸ ን</w>
ጋ ሻ
የተ መደ
ዘ ንግ</w>
ከባ ቢ
ቡ ም።</w>
ቃለ -
ማስ ክ</w>
( ዮሐ</w>
ፍላ ሽ</w>
ገ ፍ
ባ ያ
በታ ተ
ጀብ ዱ</w>
ካቶ ሊ
እንጂ ፤</w>
አብራ ችሁ</w>
ና ፋ
በእ ጆ
ማ !</w>
የ ቻለው</w>
አ ሚ
መዋ ጋት</w>
ላ ት
for </w>
ያስ ተናግ
ዙ ርያ</w>
ቀሚ ስ</w>
ለማግኘ ት,</w>
ለ ርሱ</w>
ይላ ል?</w>
ያ ሸ
የተ ፈረ
ቼ ል
ስ ሄድ</w>
መልአ ኩ</w>
ል ሎ</w>
ፊል ሙን</w>
ጌታ ዬ
ዘፋ ኝ</w>
አጠ ገቤ</w>
ለማግኘ ት.</w>
ዱ !</w>
ያጋ ሩ</w>
ያዛ ቸው</w>
የ ስጦታ</w>
እስቴ ት</w>
ቼ ው</w>
መቀ ነ
ገ ዱ</w>
ውስጥ ፣</w>
እንዳል ኩት</w>
እንደሚ ሠራ</w>
ቁል ፎች</w>
ሪፖር ተር</w>
ምህንድ ስና</w>
ሊን ክ</w>
19 0
10 ,000</w>
ጀመር ን</w>
ድ ድ</w>
የዘ ገ
የተቀ ሩት</w>
ው ዴ</w>
አምላካ ቸው</w>
አል ረ
ስካ ር</w>
ሜዳ ው</w>
መመዘ ኛዎች</w>
ሐ ዋ
ጾ ታ
ይመ ክራ
ያካት ታል።</w>
የሚ ኖረ
የላ ትም።</w>
መዛሙር ቱም</w>
መለ ሰ።</w>
ለመ ዳ
ይወ ቁ.</w>
ይኖር ባ
ይመለከ ታል</w>
የተነደ ፈ</w>
ዘገ ይ</w>
ዕ ዝ
አመልካ ች</w>
አ ጼ</w>
ተ ደን
በቀ ኑ</w>
ምና ን</w>
መ ጎ
ሕል ውና</w>
ኹ ሉ</w>
ክ ፉን</w>
ኩ ርት</w>
ት ቼ</w>
በአ ነስተኛ</w>
ሰ .</w>
ሕይወ ታቸው</w>
ፖር ት
ይሁን ታ</w>
የሚያ ድ
ከ ደረ
በ መንገ
ል ኛል</w>
ጥበ በ
የ ኖረ
ከ አሁኑ</w>
ከ ቀጠ
እንግዲ ያውስ</w>
እንነጋገ ራለን</w>
ት ሉ
8 ፤</w>
ጠር ሙ
የምት ገኝ</w>
ኩባንያ ዎችን</w>
እድገ ትን</w>
አም ድ</w>
ት ወጣ
ተኛ ም</w>
ሬ ዎች</w>
ይናገ ሩ</w>
የጎ ራ</w>
የሰ ደደ</w>
እንወዳ ለን</w>
አሳል ፌ</w>
ን ጽ
ርህ ራ
ረ ዝ
ማገ ድ</w>
መዓ ዛ</w>
መ ናል</w>
6 ፡
ያገለ ገ
እሑ ድ</w>
ኢትዮጵያ ዊያን</w>
አዘ ውት
ተሰ ኪ</w>
ቤተክርስቲያ ኗ</w>
በተ ፈጠረው</w>
በ አንዲት</w>
መዝ ገብ
ለሁ '</w>
የ ቁጥጥር</w>
አስቀም ጥ</w>
ሌ ክ</w>
ላል ,</w>
ይ ሮ
የተ ማሪዎች</w>
የማ ረ
ዘር ዝ
ው ሏል።</w>
እስከ ዚያው</w>
አንቀ ጾች</w>
አበ ው</w>
አሕዛ ብም</w>
አ ያደርጉ
በማስ ቀመጥ</w>
በማ ር
በል ጡ</w>
ምሥ ጢ
ል ኮ</w>
ገ ጻ
አድና ቂ
ተወዳ ዳ
ተመ ላለ
ቫ ይታ
ብር ቅ</w>
ይቀ ራል።</w>
ያለ ብኝ</w>
የ ኾነ</w>
የ ቤቱ</w>
እንግሊ ዛ
እስካሁ ንም</w>
ታን ዛ
በ ች</w>
መር ሐ</w>
ል ህ
የተማ ረ</w>
ብ ሩን</w>
ሰው ?</w>
ማስ ረዳት</w>
ሊ ረዳ</w>
ፃፀ ም</w>
ጴጥሮ ስም</w>
ያድር ጉት</w>
የሚች ሏቸው</w>
እን ማራ
አጉ ል</w>
አብዝ ቶ</w>
አሜሪካ ኖች</w>
ናቸው ፥</w>
ቸ ገራ
( D
፣ .</w>
ጋ ላክሲ</w>
ያገለግ ላል</w>
እንጠብቃ ለን።</w>
እናንተ ስ</w>
ባ ዊ
በ አገ
10 -
ይፈጥ ራል</w>
ዕቅ ዱ</w>
ኮሜ ርስ</w>
MP 3</w>
ገ ጾችን</w>
ያደረግ ነው</w>
የሚጠ ቅም</w>
የ ልጅ
ኖራ ችሁ</w>
ስ ሞችን</w>
ምስ ረታ</w>
f l
ያስተ ምር</w>
የ ታወ
ከራ ሴ</w>
እንግ ዶ
ኤ ድ
በ ወንጀል</w>
ጨም ሩ</w>
ኩባንያ ውን</w>
አት ችልም</w>
አልማ ዝ</w>
ብ ቅ
ማ ሽከርከር</w>
ለች ም።</w>
ፓ ምፕ</w>
ጨ ምረ
ጠራ ጠር</w>
ያስረዳ ሉ።</w>
የሚ ጠበቀው</w>
እን ገነዘ
ተስተ ካክ
ሱ ዳን
ሰላ ማ
መ ባል</w>
9 ፤</w>
5 "></w>
ዓ ሣ
ከ ሲ
እ ወቅ
ራ ሚ
መ ገናኘ
ልጆ ች,</w>
ለ ባለ
እያ ልክ</w>
ሰራ ጭ</w>
ሠራ ተኛው</w>
ል ዕ
ግ ዕዝ</w>
ጉ ሮ
ዲ ያስፖ
የተሰ ኘው</w>
የሚ ከብ
ነህ ምያ</w>
መስ ተዋ
ለማ ብ
ፍር ድ
ጽሁ ፉ</w>
ይ ደረግ</w>
የመ ጀመርያ</w>
የ አላህን</w>
ወ ህኒ</w>
እንደሚ ጠቀሙ</w>
እስኪ መጣ</w>
በ እውቀት</w>
ራ ሪ</w>
ማ ዘጋጀ
ለ ተሰ
ጣ ሪው</w>
ይመስለ ኛ
ያስፈልጋ ቸዋል።</w>
የ ጥበቃ</w>
አነ ሣ
ቦይ ንግ</w>
ቅ ጭ
ምሰ ሶ
6 :</w>
20 .</w>
የማይ ፈልግ</w>
እንዲ መለስ</w>
አለብ ን?</w>
ቸ ነ
ቬ ጋስ</w>
ሸቀ ጦች</w>
ሐ ቅ</w>
ፈ ም</w>
ውስብ ስብ
ለሁ በት</w>
ሂ ል</w>
ያቀረ ቡት</w>
የቀ ረ</w>
የሚ ቻልበት</w>
ዝ ሙት</w>
ክፍለ ዘመን</w>
እንደተ ጠቀሰው</w>
እማ ማ</w>
ታስታው ሳ
በሕይወ ታቸው</w>
መብ ቶችን</w>
ለማስ ጠበቅ</w>
ለማ መቻቸት</w>
- ወደ-
' ኮ</w>
ፈጽ ሞ
ይይዛ ል።</w>
የታ ችኛው</w>
የሰጠ ውን</w>
ዓመ ፅ</w>
አድና ቆ
አማራ ጮ
ማዕ ድ</w>
መተ ዳ
መሠረ ት,</w>
ለው ጭ</w>
( N
ፈሪሳ ውያን</w>
ኮ ቪድ</w>
አ ቁም</w>
በ ታላቁ</w>
ምል ል
ኤምባ ሲ</w>
አዎ ን፣</w>
አሏ ት።</w>
24 /
ፊ ያው</w>
ጽፏ ል</w>
ግድ ም</w>
ይሰ ጥ</w>
የተ ኩስ</w>
የ አስተሳሰብ</w>
ለ ልጆቹ</w>
ጽሁ ፎች</w>
ገለ ጽ
ወ ግድ</w>
ከ መጣ</w>
ሾ ር
ማቀዝቀ ዣ</w>
ለመገ መት</w>
8 %</w>
የመጣ ውን</w>
ዞ ኑ</w>
እንደሚ ያደርጉ</w>
አ ፈር
ሦ ር</w>
ማጭበር በር</w>
Z </w>
CB D</w>
ይጠይ ቃል.</w>
ያንብ ቡ።</w>
የተቃ ዋሚ</w>
እየ ሰ
ች ዋ</w>
ብቻ .</w>
በድም ሩ</w>
በልጅ ነቱ</w>
v er</w>
የ ዐ
ኮ ሙኒ
እንደሆነ ና</w>
ትህ ነግ</w>
ሶፍትዌ ሩ</w>
ሰው ነታችን</w>
ጠየቀ ።</w>
ጊዜ ዬን</w>
ይ ሏ
የተ ፈቀደ
ከ ኋላ
አፕ ሊ
ረጋገ ጫ</w>
ለመ መገብ</w>
ሁለ ታችሁም</w>
5 ፤</w>
" እንግዲህ</w>
′ </w>
ፕሮ ቴ
ጠፍ ጣፋ</w>
የሚያ ዋ
አመክን ዮ</w>
ቱ ን
በተ ገለ
በስ ውር</w>
ማ ሰል
ሊ ቅ</w>
ለን ባብ</w>
O S
ጠቃ </w>
ወድጄ ዋለሁ</w>
ወዘተ .</w>
ኢንዶኔ ዥያ</w>
አመ ፅ</w>
ትና ው</w>
በር ና</w>
በላ ሽ</w>
ሚስ ቴ</w>
O )</w>
የሚያ ገኙት</w>
የሚ ው
ከመካከ ላቸው</w>
ቤተ ክርስትያን</w>
ሰ ግ
መለያ ዎ</w>
ሀ ረ
ዓለማ ዊ</w>
ክሪ ስ</w>
ነገ ሮችም</w>
ቱ "</w>
ቦ ሌ</w>
ምጣ ኔ</w>
ምሽ ግ</w>
ማቅረ ቢያ</w>
6 8</w>
ጡ ኝ</w>
ጄኔ ራል</w>
ዩ ን
አያውቅ ም.</w>
አያስ ገር
መከናወ ን</w>
ጥበ ባት</w>
አንተ ን
ብሎግ ዎን</w>
ቆይ ተዋል</w>
ያግኙ ።</w>
ያ መላክ
የተትረፈረ ፈ</w>
የሞ ተው</w>
ወደ ኝ</w>
እን ሁ
ተ ወለደ</w>
ቢ በዛ</w>
በ ክልል</w>
ስልጠና ው</w>
መጥ ቼ</w>
X X
ያደረ ጉትን</w>
ዘመ ኑን</w>
እንደሚ ባለው</w>
በፊ ት.</w>
በ ብዙዎች</w>
ሸ ር
የከበ ረ</w>
የቆ መ</w>
ወገ ዱ</w>
እያ ገለ
እንደሚ ያስፈል
ተኛ ና</w>
ቢ ላ
ማኔ ጅ
ለመለ ካት</w>
ai l</w>
ጽሑ ፎችን</w>
ይበል ጣ
ይለያ ያል።</w>
የሚያስ ብ</w>
ከ ድ
በመካከ ላችን</w>
የመስ ማት</w>
ናችሁ ፤</w>
ተ ጥ
ለመ ረዳ
ዙ ሪያውን</w>
እየ ሰጠ</w>
በመ ቃወም</w>
ቀር ብል
ጸ ረ</w>
ዳ ራ</w>
ይንገ ሩ
የሚያ ተኩ
ዔ </w>
እር ቃ
አያስፈልገ ውም</w>
አታ ድርግ
አስ ፈለገ?</w>
ትኩረ ትን</w>
በዓ ለማችን</w>
ሸ ሽ</w>
ስለ ሌለ
ሮ ክ</w>
ልጆ ችህ</w>
ካሲኖ ዎች</w>
ከ ሩ
እጽ ዋት</w>
ሰይጣ ን
ሕ ሊና</w>
ሄ ይ</w>
ይታ ዘ
የ ።</w>
ከበ ፊቱ</w>
ከ ዘ
አይ ባል
አ ሀ
በጥ ናቱ</w>
ስቱ ዲዮ</w>
W T
C N
የተ ሳተ
የሚያ ደርጋቸው</w>
እል ባት</w>
እ ፅዋት</w>
s ay
የሚደረገ ውን</w>
አይደለ ም...</w>
ስጦ ታ
ሚሊ ዮ
ሌ ።</w>
ለ ለ</w>
" አዲስ</w>
ፕሮጀክ ቶችን</w>
ጽድ ቅ
ደግ ፍ</w>
እላችኋ ለሁ፣</w>
አስተምህ ሮ</w>
ተያያ ዥነት</w>
ሶ ር
ድረ ገጽ</w>
ደ ነግ
የተ ስፋ
እራስ ህን</w>
ላ ከ</w>
ፈላ ለ
ከመ ጽሐፍ</w>
ስኬ ቶች</w>
ግም ጃ</w>
አ ሥር
ቱ ርክ
ተጠቅ ሞ</w>
መጣ .</w>
ሎ ን
ይገባ ዋል</w>
ያገኘ ነው</w>
የመ ዳ
ወ ጋ
ምድ ሪቱን</w>
ለመ ሆን
15 )</w>
ጠ ቅም</w>
ደገ ም</w>
ባ ቸው
መጠ ባበ
ሉ ፤
ይሁ ን.</w>
ይ ሆኑ</w>
የሚ ውሉ</w>
ከመ ቀ
እን ሠራ
ንግግ ሮች</w>
ተጓ l
በአ ክብሮት</w>
ስፖር ታዊ</w>
ራ ሔ
ሙ ዝ</w>
ይ ተካ
ያል ቻ
የተ ሰራው</w>
ከ ፊቱ</w>
እንደ ዚያው</w>
አገ ኛ
አንድዬ ፡</w>
አለም አቀፍ</w>
ኒስት ሮች</w>
በደ መና</w>
ስለ እነሱ</w>
ሱ ፣</w>
ማሰ ሪያ</w>
ፍራ ቻ</w>
ጨ ንቀ
ጎ ላ</w>
ዲሴ ምበር</w>
ያገለ ገሉ</w>
ከ ራሳቸው</w>
ኢ ስላም</w>
በሚ ባል</w>
ሮ ዬ</w>
መሐ ንዲ
ለብ ሰው</w>
የሚጠ ጣ</w>
የሚባለ ውን</w>
አይታ ሰብ
ት -</w>
ሙግ ት</w>
ለ ቆ</w>
ህወ ሃ
ኢንጂ ነር</w>
ንገ ሪ
ሞል ቶ</w>
ምደ ባ</w>
ማ ጠቢያ</w>
መሰ ራት</w>
ፃ ፈ</w>
ጌታ ህ</w>
ይመለ ሳል</w>
ያዙ ።</w>
ኮ ኖ
ክ ብራ
አ በርክ
ና ቸዉ።</w>
በሚ ደረገው</w>
በ 2012</w>
ስለሚ ያ
ጸን ቶ</w>
ደ ሙ</w>
የተ ጎ
የ ኒው</w>
አዳ ጋ
አስታወ ቀ።</w>
ቤተ መቅደስ</w>
ሶ ም</w>
ሙ ፤</w>
ፊ ዚ
ያለ ፈ
ካ ፍ
ከመድረ ሱ</w>
እፈልጋ ለሁ!</w>
ሠ ረገ
ለነ ርሱ</w>
ፍት ህ
ጸሐ ፊ
ይኖር በታል</w>
የሚናገ ሩት</w>
ከ ምግብ</w>
ነገር ,</w>
ብ ያ</w>
በመ ቅረ
ቀን .</w>
ሰብ ሳቢ</w>
መጠቀ ምን</w>
ለቅ ሶ</w>
s c
ኛ ለች</w>
ተሰማ ኝ</w>
በል ባችን</w>
ሰማ ራት</w>
ማም ለጥ</w>
ለ ዉ
ዝርዝ ሩን</w>
ከነ ዓ
አር በ
ቸኮ ሌት</w>
ገ ጣ
የተከፈ ለ</w>
ዕብራ ይስጥ</w>
ወል ደ</w>
ሙ ሳ
o t</w>
" ነገር</w>
ጥ ረው</w>
ድረ ስም</w>
ን ክ</w>
ም ነት</w>
ለ ትርፍ</w>
O ne
ፋ ለች።</w>
ጉዞ ውን</w>
ደግ ም</w>
ያገኙ ትን</w>
የተቀ በል
የመሳ ሪያ</w>
የ ፕሮጀክቱ</w>
የ ዘረ
አድራ ጊ</w>
አክሲ ዮኖች</w>
በ ይበልጥ</w>
ም ታት</w>
ለ ሊት</w>
D rive</w>
አባቶቻ ችሁ</w>
ምክ ክር</w>
ለማ ገናኘት</w>
😉 </w>
ይጫወ ታል</w>
እንቅ ፋ
ኡ </w>
አደረገ ው።</w>
ሼ ር</w>
መንግሥ ትና</w>
ለመ ቆጠብ</w>
1 ,000</w>
ፕላኔ ቷ</w>
ይሁ ን፤</w>
የሚ ካሄድ</w>
እያ ጋጠ
አዘ ን
ቆ ቹ</w>
ረ መዳን</w>
መጠቀ ሚያ</w>
ጉዳ ተኞች</w>
ወደ ,</w>
ተከት ሎም</w>
ተ በሳ
ባ ሆ</w>
በ ኬ
ር ሳ</w>
ሟ ች</w>
ሞከ ሩ</w>
ለ ቀጣይ</w>
on d
ፍላ ጐ
ፍ "</w>
ጉ ዲ
ይ ቅ
ክፉ ዎች</w>
አስቸ ጋ
ማል ታ</w>
" አምላክ</w>
የፈለ ገ</w>
ው በ
አይ ጥ</w>
ተጠቅ መው</w>
ገልጸ ው</w>
ይጠ ንቀ
የተ ፈጸመው</w>
ት ም፣</w>
ተ ሐ
በቀጣ ይም</w>
ቅን ብር</w>
ማ ቀነባበ
መከ ል
ነገር .</w>
ት ገባ
የሆነ ን</w>
የሀገ ሪቱን</w>
የ ቡ
ኞ </w>
ሮ ዝ</w>
መው ረድ</w>
መ ቅ</w>
m g</w>
ይኖርብ ዎታል.</w>
የሚያገለ ግሉ</w>
ዘጋ ቢ</w>
ወጪ ን</w>
ከታተ ሉ</w>
አ ወራ
ተቃ ወ
ሲ ው</w>
ሥራ ችን</w>
ምን ጮ
ht tp
( አንድ</w>
ጠ/ ሚ</w>
ደን ቡ</w>
ይወድ ቃ
ያያ ሉ።</w>
ያ መቻ
ዓ ላት</w>
በረከ ቶች</w>
በ አን
ሥራ ም</w>
ፍ ቀድ
ፈረ ሶች</w>
ይላ ቸዋል።</w>
የሚያሳ ዝን</w>
የሚ መሰ
ዎ ርድ
ሩ ህ</w>
ህ ትመ
ፋ ኩል
ያለ በለዚያ</w>
ው ይ</w>
ተ ወር
ፅንሰ- ሀሳብ</w>
ግኝ ቶች</w>
ይፈ ቅዳ
ያለ ው
ወ ጭ</w>
ክል ኝ</w>
እንጀ ራ
ነዎ ት.</w>
ታ ል!</w>
በ ትምህር
ቀ ስቃ
ስ !</w>
ጨር ሱ</w>
የተ ግባር</w>
ወንጀ ለኞች</w>
ከ እርስዋ</w>
እንመክራ ለን</w>
ኤ ች.</w>
አዘ ል</w>
በ ዛን</w>
በ ወደ
ፆ ም</w>
ያል ፋ
አይ ረሳ
ታ ል,</w>
ተቀ በሉ</w>
ተላለ ፉ</w>
ሙ ላ</w>
S S
ፀ ድ
ደ ብረ
የሚያስ ተም
ካ ለን</w>
አድጓ ል</w>
አል ጠ
በመ ናገር</w>
ሰር ተ
ምን ጩ</w>
ሙስሊ ሙ</w>
12 )</w>
መ ጨረስ</w>
የም ሽት</w>
የማ ታ
እና ,</w>
እለ ምን
አይ ፈልጉም</w>
አሳስበ ዋል።</w>
ነገ ዶች</w>
ቢ ቀር</w>
በ ምሳሌ</w>
ሻ ም
ሸ ባ
199 9</w>
ፊሊፒ ንስ</w>
ከፈ ተ</w>
አስከ ሬን</w>
ተግ ሣ
p er
ዱ ኝ</w>
ያቀር ባል
የማ ያ</w>
የ ጃ
ከ 15</w>
ኦርጋ ኒክ</w>
ተገኝ ተው</w>
il l
ቆይ ቷል.</w>
ሀ ይማኖ
ገደ ለ</w>
ደረጃ ,</w>
ያለ ዎት</w>
እንደም መኝ</w>
አመለካከ ቶች</w>
ሽ ጉ
ር ኅ
D E
እን ናገራ
አይታወ ቅም</w>
አስተ ላ
አስ ብ።</w>
ት ምክህ
ተ ቸግ
ለማ ዋል</w>
ሆነ ች።</w>
ti on</w>
ጫ ል።</w>
ይፈ ቀድ
ይታ የ
ያደ ገው</w>
ንግድ ዎን</w>
ና ቡ
ቁ ጠር</w>
ዳይሬ ክቶ
አጥ ጋቢ</w>
አይ ኖራ
አልነበረ ም፤</w>
ኃላፊ ነቱን</w>
ት ነቱ</w>
ቱ ት።</w>
ቨር ጂ
ሙዚቃ ው</w>
መዘ ገበ
ለመጠ ጣት</w>
" እንዲህ</w>
ገጸ -
እንዲ ቆም</w>
ያ ይ
ት ለ
ታይ በት</w>
ስብሰባ ውን</w>
ስ ሚዝ</w>
ሚል ዮን</w>
መካከ ለኛው</w>
Pay P
ፋ ሽ
ጋ ም
ገባ ሁ።</w>
ይሰ በስ
ኦሊ ምፒክ</w>
እንዳለ ህ</w>
ነግራ ችሁ</w>
ብ ያ
በማ መን</w>
በ ሙያ
ቅጽበ ታዊ</w>
ምግል ና</w>
ምስ ክ
ያስቸግራ ል።</w>
ያ ሟ
ት ጋ
ቲ ቱ</w>
ተደርገ ዋል።</w>
በ ግንባታ</w>
ረጋግ ጥ</w>
ፕ ቶ
ግብፃ ውያን</w>
ያ የው</w>
እንመ ኛ
አ ዜ
ኛ ፣</w>
ተ ድ
ቤ ት,</w>
ሮ ማ</w>
ፀ ት</w>
ግማ ሹ</w>
ጊ ያው</w>
ከ 100</w>
እየ ሄዱ</w>
ብዕ ር</w>
ሠራ ተኞችን</w>
መረ ምር</w>
ላ ሊ
6 ፤</w>
ጌ ን</w>
ዲፕሎማ ሲ</w>
የሕ ፃናት</w>
ባ ውን</w>
ጧ ል.</w>
ዳ ፊ</w>
እንችላ ለን
እ ል</w>
አ ፓ</w>
ል ሃል።</w>
ሂድ ና</w>
4 3
ጆርጂ ያ</w>
ዘ ግና
በ ዕለቱ</w>
ሴ ቶችና</w>
ሲያ ጋጥ
ልሔ ም</w>
ይይዛ ሉ</w>
የ ሁሉ</w>
ዢ ው</w>
ክሪፕ ት</w>
እየ ደረሰ</w>
እ ዳ
አያ ሌ</w>
ቁልቁ ል</w>
ረድ ፍ</w>
ዋ ቀር</w>
እኔ ማ</w>
ኢህአዴ ግ
አጠቃቀ ምን</w>
አይ ሰጠ
ነ ክ
ስተ ዋል
ምላ ስ</w>
7 ፤</w>
199 0</w>
ገለ ጸ</w>
የሚከሰ ተው</w>
የ ሁ
ካ ሮ
አልነበረ ውም</w>
ቸዋ ለሁ፤</w>
ትሆና ለህ።</w>
በጥ ልቅ</w>
ማለ ትን</w>
ለ ፉ</w>
ጓደኞ ችዎ</w>
ድርጅ ቶችን</w>
የሚያስ ተዳ
ዘ ውን</w>
አዝና ለሁ</w>
ተሸ ን
ሰ ቡት</w>
ፈፀ መ</w>
ጠንቅ ቆ</w>
ያለ ባቸውን</w>
አድማ ጮ
አይ ከሰ
ኝ ም?</w>
ች ን,</w>
ቸ ን</w>
ለመ ላ
7 0%</w>
ጭን ቅ</w>
ገ ጾ
የሚሰ ማ</w>
ባይ ኖር</w>
ቀ ደው</w>
ልማ ታዊ</w>
ለተ ጠቃሚዎች</w>
የገ ቡ</w>
የተ ባሉት</w>
የተ ሾ
ው ሻ
ከ አዲሱ</w>
ኤስ ቢ</w>
አይ መ
ተገ ዝ
መድረ ክ
መለዋወ ጫ</w>
ሊ ለያይ</w>
ar d</w>
ጓ ቸውን</w>
ወያ ይ</w>
ኮ ላ</w>
አለመ ግባባ
ነዎ ት።</w>
ኀጢ አ
ቦታ ,</w>
ሚኒስት ር
ለመ ተካት</w>
es s</w>
ፋ ታ</w>
ፈ ዋ
ውሸ ታም</w>
አያደር ግ
ቻ ቸውንም</w>
መጋ ራት</w>
ግ ዝ
ጆ ንሰን</w>
ይ ደርስ
ያስችላ ል።</w>
ያ ወጣው</w>
የ እስር</w>
ከ 50</w>
ሲ ጠናቀቅ</w>
የተዛ መዱ</w>
የ ታላቁ</w>
ና ል፣</w>
ብን ሆን</w>
በዙ ፋኑ</w>
በተ ከሰ
በላ ሹ</w>
ቅ ያ
ሰብ በት</w>
ለቀ ቁ</w>
ሆነ ,</w>
ሀ በሻ</w>
ፈጥ ረ
ጠፋ ።</w>
ጓ ሚ</w>
የማ ዕ
የ ጌ
ዜ ጋ
ተከ ል</w>
ተር ፍ</w>
በ ቂያ</w>
ራ ሴ
ሞ ያ</w>
ማ ወቁ</w>
መጣ ና</w>
ለመታ ደግ</w>
ጠባ ቂዎች</w>
ዮርዳ ኖ
ይመከ ራል</w>
የመ ድረ
የ ሐሳብ</w>
ወስ ን</w>
ኩባንያ ዎ</w>
ን ዴት</w>
ቮ ል
ባሳ ለፍ
ማ ል፤</w>
4 0%</w>
የሚወሰ ነው</w>
እንዳ ይጠ
ቹ ።</w>
ሰሎ ሞን
ምል መላ</w>
መገለ ጫዎች</w>
Ad d
" ን</w>
ጠቅ ታ</w>
ይገና ኙ</w>
ክ ቡ
ክ ሶች</w>
ከተ ለ</w>
አታው ቅም</w>
ነፍ ሳ
ነ ጭ
መ ሻሻ
ልጃ ችሁ</w>
ق ب
قب ل</w>
I E
ይታ ያል
ያስተ ላለ
የማ ያው
ወሰ ነ።</w>
እ ነበረበት</w>
እ ት</w>
አልቻ ሉ
ሽን ኩርት</w>
ሃ ለሁ"</w>
ፕሮግራ ሞ
ይሉ ታል።</w>
ከ እነዚያ</w>
እያ ደረገ
እና ድርግ</w>
ነህ .</w>
ች ሽ</w>
ቀ ደ</w>
ስ መጣ</w>
መራ ቅ</w>
O P
ግራ ፊክ</w>
ይኖርብ ናል</w>
ይ ማር
የሚ ባ
የ ቤተሰቡ</w>
እየተ ደረገ
እንደ ነበር
ተሳት ፎ
በ አንደኛው</w>
መሆን ህን</w>
ጫ ሉ</w>
ዶክ ተሩ</w>
የተዋ ሃ
የህ ፃናት</w>
ክፉ ውን</w>
ምዕራ ባዊ</w>
ማረፊ ያው</w>
መ ሪያ</w>
ሁለ ትዮ
ያመጣ ል።</w>
የም ናገረው</w>
የማ ዳ
የ ህዝቡን</w>
ወለደ ች</w>
ከ ገባ</w>
ቻ ችንም</w>
ት ሸ
ተጨዋ ቾች</w>
ብስ ጭት</w>
ብ ህን</w>
ሶ ስት
ምርጫ ን</w>
ማኅ ተም</w>
መገ ቡ</w>
መሠዊ ያ</w>
የሚ ቀጥል</w>
የ ሄደ
ተገኝ ቶ</w>
9 7</w>
ይጠብ ቅ
ያገለግ ላሉ</w>
በሚ ችል</w>
ይለያ ል።</w>
የ ገባ</w>
ኳ ቸውን</w>
አላ ወቀ
ነው ....</w>
ነታ ችሁን</w>
ተ ካሄደ</w>
ሌ ይ</w>
ሄደ ፤</w>
ፈልግ ም.</w>
የ አሜሪካ
ዌ ል</w>
አገልግሎ ትን</w>
አደረገ .</w>
አዛ ኝ</w>
አስጨ ናቂ</w>
ተ ጠቀ
በረ ዶ
ቀዝቀ ዝ</w>
ላ ቱ</w>
ለ ቁ</w>
ነበረ ባቸው።</w>
ቴዎ ድሮስ</w>
በኩ ራት</w>
ቀ ለ</w>
5 00
ፋር ማ
የ ለ</w>
አገ ሩን</w>
አ ደረሰ
ችኋ ለሁ፤</w>
ቤል ጂ
በመ ቻ
በ ወቅ
ራ ዲዮ</w>
ማስተላለ ፊያ</w>
ማ ት
ፈጥ ር
ጅ ራ
የ ግንዛቤ</w>
እንዳ ትረ
አገዛ ዙ</w>
ሚ ም</w>
ምስጢ ራዊ</w>
ማ ነት</w>
ማ ሰና
መከፋ ፈል</w>
መታ መን</w>
F S
ፕሬ ዘ
ጨ ቋ
ደቂቃ ዎችን</w>
እና ው
አስከ ሬ
ነ ዱ</w>
ታ ,</w>
በት ,</w>
በ ትን
ሰው የውን</w>
መጣ ,</w>
ጨ ፍ
ጠበ ቆች</w>
የአ ረ
ኸ ው?</w>
በመ ጀመርያ</w>
መ ኸ
* **</w>
( ሮሜ</w>
ዩ ቲዩብ</w>
የተ መቻ
የሚወ ክ
እየመ ረ
ቸ ገር
ቀ ባ
ሲ ሞት</w>
መጠ በቅ
it e</w>
ዱ ፥</w>
የ ፀረ-
ች ሮ
ሺ ያ</w>
ስተዋ ወቅ</w>
መጠ ጦች</w>
ለማር ያም</w>
ፈጸ ሙት</w>
ገባ ችሁ</w>
ዘር ፈ</w>
ከ ከተማ</w>
አል ፈለ
አ ድን</w>
ንክ ኪ</w>
ኒ ያት</w>
መከ ሰ
ያ ትና</w>
ው ሮ</w>
በመ ጽሐ
በ ሰጠ
ሽ ርሽር</w>
ሙ ት።</w>
ለ እነዚያ</w>
ደስታ ና</w>
የሚደግ ፍ</w>
ዜ ሽን</w>
ወደ ምት
ብ ርት</w>
ሰራ ተኞችን</w>
ማ ገዝ</w>
ማ ሰራ
ለ ሕዝ
V i
ፕሮጀክ ቱን</w>
ፈቀ ደው</w>
የመ ፍጠር</w>
እን ሸ
አብዛኞ ቻችን</w>
በመ ቀበል</w>
ጨዋ ወት</w>
ገ ነ</w>
ቻይ ናውያን</w>
በተ ጠበቀ</w>
ቀዳ ሚ
ማለ ፊያ</w>
መድረ ሻ
ጉ ዟ
የማይረ ሳ</w>
የሆነ ችው</w>
ከአ ብ</w>
እን ገ
አስ ቡ
አ ፀ
በመ ግዛት</w>
ቁል ፉ</w>
ሌሎ ቹም</w>
ለ ተማሪዎች</w>
11 )</w>
የ አማዞን</w>
ካፒ ታ
ከ አንተም</w>
እንዳያ መል
አፍን ጫ</w>
ኑ ዛ
ቷ ል?</w>
ተከፈ ተ</w>
ሞ ር
ምላ ሾች</w>
መቐ ለ</w>
ለመግለ ፅ</w>
ጣሊ ያን
ዘመ ናቸው</w>
ከ ሰማ
አይ ደግ
አውሮ ጳ</w>
ኖ ሯል።</w>
ቆጣ ሪ</w>
(ማ ቴ.</w>
ዶክ ተር
የሚ ወጣ
ክብር ን</w>
ቆር ጦ</w>
ቁርጥራ ጮች</w>
ምን ዳ</w>
ማቆ ያ</w>
መቅ ረት</w>
ለመጠ ገን</w>
ሄዳ ችሁ</w>
ደግ ነቱ</w>
ያ ራ
የብል ግና</w>
የቀረ ውን</w>
እንቀጥ ላለን</w>
ታው ቀዋ
ቀ ስት</w>
ሞተ ሮች</w>
የግ ዢ</w>
እንደ የ
እስ ከዚያ</w>
አሳ ቢ</w>
ተመልካ ቾች</w>
በሰ ሜ
መዝ ጋት</w>
መነ ቃ
ፕሬዚ ደንት</w>
ይደ ውሉ</w>
የት ,</w>
አቅ ማቸው</w>
አላ ምንም</w>
ት ሩ
ስለሚ ችሉ</w>
ሙሽ ራ</w>
ለ ት፤</w>
ሁ ላ</w>
ፕሮቶ ኮል</w>
ያ ጣ</w>
የተጻ ፈውን</w>
አርት ዖት</w>
አለ "</w>
ትችላ ለች።</w>
ተገን ብ
ተደ ነ
ተወዳ ዳሪዎች</w>
መነ ኮ
ሊ ጨምር</w>
ለማ ጫወት</w>
ጥና ትና</w>
የሚ ጠይቁ</w>
ዘረ ኛ</w>
እ ጀምራ
ቶ ሮ
ባለመ ኖሩ</w>
መገለጫ ዎ</w>
ዛሬ ,</w>
እንወዳ ለን።</w>
አምስተ ርዳ
በአ ህ
በር ም</w>
መተ ባበር</w>
r u
ይመልከቱ !</w>
የ ወላጅ</w>
ወቅ ት,</w>
እንደሚያሳ የው</w>
ኢትዮጵያ ዊ
ነ ሱም</w>
ት በላ
ለወደ ፊት</w>
ጻ ዎች</w>
ያ ሰራ
የ ደንበኝነት</w>
ኳ ል</w>
ካ ነበብ
እና .</w>
በሚ ፈልጉት</w>
ጠ ልጥ
ግ ቢ
ክፈ ት</w>
ኪ ነ</w>
ቼ ና</w>
ተካ ት
ብለ ናል።</w>
ደ ል
ያ ዣ</w>
የጎ ላ</w>
የተገነ ቡ</w>
የበ ለጠ
የም ታው
ዕም ነት</w>
አይ በቃ
በመ ገናኛ</w>
ሰው ፤</w>
ሥራ ዬን</w>
ለመ ፃፍ</w>
at ch</w>
ፀ ነሰ
ጠ ቋ
ይገባ ል!</w>
ያል ፋል</w>
እንዲ ደረግ</w>
እንመለከታ ለን</w>
አይ ፈልግም</w>
አሳ ሳ
አ ቻ
ለ ሆነው</w>
ፌ ት</w>
ገን ብ
ደንበኞ ችዎ</w>
ከ ቤቱ</w>
አጥ ቂ</w>
አግኝ ተዋል።</w>
አመ ድ</w>
ተጠያ ቂው</w>
ተማ መን
M S</w>
( አላህ
ፈ ኝ</w>
የሚ ቃወ
የመክፈ ቻ</w>
ዛ ወር</w>
ዋ ለህ።</w>
ኳ ን</w>
እር ሾ</w>
በእውነ ት,</w>
ሕፃ ኑ</w>
ለ ዉ</w>
ይ ቀድ
እር ሻ
ትናገራ ለች።</w>
ት ሕ
በ ሩቅ</w>
ሃ ውስ</w>
ti on
( እኔ</w>
ይ ናፍ
ናገ ሩ
ሕወ ሃት</w>
ፈ ቱ</w>
ያንብ ቡ.</w>
ያስረዳ ል።</w>
ተሰጥ ኦ</w>
በ ዩክሬን</w>
በ ህዝቡ</w>
በ 2009</w>
ለሚ ወዱት</w>
L A
ይ ነግር
እንደሚ ቀ
አባ ባ</w>
ኀ ይል</w>
ለማስ ከበር</w>
as e</w>
5 8</w>
ጭበር በር</w>
የቆ የው</w>
የሚያስ ቡ</w>
የሚያ ጠ
ዎ ስ</w>
እውነ ተኛውን</w>
እኮ ።</w>
አለመ ኖሩን</w>
ቴ ።</w>
ቱ ኒ
ቢ ቱ</w>
ቍ ጥር</w>
ስ ሰማ</w>
ሬ ትስ</w>
ምክ ኒያት</w>
ድ ብቅ</w>
ደ ለ</w>
የሚ መከ
ዓላማ ችን</w>
ወ ከል</w>
ታክ ሲ
ተስፋ ን</w>
በድ ብቅ</w>
ሲ ጀምሩ</w>
ማግኘ ቱ</w>
መለኮ ት</w>
ለመ ገንዘብ</w>
7 %</w>
ጠቀ ስ</w>
ደህን ነትን</w>
ይ ው</w>
ያምና ል።</w>
የሚ ታወቁ</w>
ተቀ ናቃ
መተን ፈስ</w>
ጥ ምር</w>
ዞ ረ
ተገኝ ቷል።</w>
ሰቃ ዩ</w>
ዴን ማርክ</w>
ወቅ ቱን</w>
እንዳይ ኖር</w>
እንዳ ገኘ
አው ቄ
አስ ነሣ
ነ ጣ
ችግ ራችን</w>
ለ እኔ
ጻ ጻፍ</w>
ደር ጉ
ይ ናገር</w>
የተ ከፋፈ
የመሳሰ ሉት</w>
ዋ ህ</w>
እንዲ ገ
አምል ኮ
ኔ ዎችን</w>
ትምህር ቶችን</w>
መልካ ምን</w>
0 6
ፋ ለሁ</w>
ያገለ ግላ
ያ ጡ</w>
እወደ ዋለሁ</w>
አት ርሳ
ኃጢ ያት</w>
ተመ ል</w>
ምክ ኒያ
መሆኑ ን,</w>
ል ሳ
ጠነ ቅ
ገና ኘው</w>
ድር ሰ
ደ ህ</w>
እንድ ሆን</w>
አትፍ ራ</w>
አል ሸ
ቢመስ ልም</w>
ቁ ስ</w>
ሊ ከሰቱ</w>
ግል ፅ
የመ ተን
የ አምልኮ</w>
ዊ ን
ታ ችን
ተግባ ሩን</w>
ሲ መለስ</w>
እንደ ነበረ
ቶች ንና</w>
ተር ሚናል</w>
ተማ ረ
በመክፈ ት</w>
በመ ሥራት</w>
መሰ ን
ሉ ;</w>
ወጣ ሁ</w>
ከተማ ይቱ</w>
ከ ጓደኞች</w>
እንዲ ደርስ</w>
ነግ ረው</w>
መስ ከር</w>
ለወደ ፊ
( አይ
ያስፈልገ ዋል</w>
ከመ ጀመሪያ
ከ ጥፋት</w>
አ ኗኗ
ትርኢ ት</w>
በራ ሪ</w>
ሯ ሯ
ማስ ቆም</w>
ፈለግ ሁ</w>
ጀግን ነት</w>
ክርስቲያ ናዊ</w>
ችሎ ታን</w>
ተ ፈጠረ</w>
በሆ ነበት</w>
ሻ ንጉ
ማን ነቱን</w>
መለ ዋወጥ</w>
ሊታ ዩ</w>
0 ዎቹ</w>
" ኧረ</w>
ጉል በተ
የማስ ታወስ</w>
ኖ ቹን</w>
ብ ጤ</w>
ል ዎት</w>
ዲያ ቆን</w>
ይቀር ባል።</w>
ያነበብ ኩት</w>
የሚያ ወ
እየተ ናገረ</w>
ንጉ ሠ</w>
ተገደ ሉ</w>
ቃጠ ሎ</w>
ሲ ሰሙ</w>
መጠ ጊያ</w>
ላይ ...</w>
ለምሳሌ ፣</w>
ለ ነዚህ</w>
ፀሃ ይ</w>
የተገለ ጸ
ዎ ቿ</w>
ወይ ኔ</w>
አገና ኞችን</w>
ተጀም ሯል</w>
b et</w>
PayP al</w>
ይመስላችኋ ል?</w>
ዓይኖ ቹ</w>
ን ዳ</w>
ናፍ ቆ
ተግባ ሮች</w>
መ ሽ</w>
ይቆ ዩ</w>
እየተ ሻሻለ</w>
እነርሱ ም፣</w>
በማ ወቅ</w>
ጫ ቸው</w>
የ ህዝቡ</w>
ዝ ሆን</w>
ው ም፣</w>
አልባ ሳት</w>
ይ ቁ
የመ መለስ</w>
እለ ቱ</w>
ልጆ ቹም</w>
ህዝ ቦ
ሁሉ ንም</w>
ዓ ድዋ</w>
ቨ ን</w>
በሕ ጋዊ</w>
ቋ ል.</w>
ይ ሽ
ዝቅ ተኛው</w>
ዕር ምጃ</w>
እን ጸል
ን ዋይ</w>
ቀ ልብ</w>
ሰዓ ት
ሰ ምታ
ማ ፈ
ላማ ናውያን</w>
ለመጥ ቀስ</w>
ጽሑ ፍ
ያ ከማ
ወ ት
ትላለ ች</w>
ተ ወሰነ</w>
ተ ቀር
ብራ ቅ</w>
ጽ ፌ
ጨ ጓ
ይጠቀማ ሉ።</w>
ትህ ትና</w>
ስል ታዊ</w>
ለህ ይወ
ዱ ንም</w>
ይነግረ ናል።</w>
የ ንግ
የ ስርዓት</w>
ከ ቆ
መምህ ሩ</w>
ህመ ሙ</w>
m s
ይችላሉ -</w>
የተከበ ሩ</w>
በመ ተግበ
ቅዳ ሴ</w>
ሲ ሸ
ሰጡ ኝ</w>
7 7</w>
20 19
የመ ተማመን</w>
እየሰራ ሁ</w>
አረ መ
ነበሩ ት።</w>
ቃ ለች።</w>
ምና ፥</w>
ለ አዳዲስ</w>
S er
198 0</w>
እድገ ቱ</w>
ነ ዳ</w>
ት ኬቶች</w>
ብቻ ህን</w>
For ex</w>
ይሻ ላል?</w>
ወጥ ቷል።</w>
ቢ መጣ</w>
በሌላ ም</w>
ሻ ዕ
ሬ ስ</w>
ሪ ኮ</w>
ሃ ሪ</w>
ፈቃ ዱን</w>
ከ አባቴ</w>
ከ ስልጣን</w>
አለባ ችሁ።</w>
ኑ "</w>
ነካ ው</w>
ነ ነ</w>
ት ቆ
ስተ ሮች</w>
ሳ ለች</w>
Q u
H D</w>
ጨር ሰው</w>
ዶክ ተ
ካር ቦ
አ ጅ
ኛ ለህ</w>
በላ ጭ</w>
ስ -
ምን ዛሬ
ገል ጽ</w>
ዳ ግማዊ</w>
አይ ተው
ራ ለን።</w>
ልን !</w>
ለመ ጣል</w>
ይሻ ለ
ይላል ,</w>
አይ ወዱ
አሻ ሽ
ና ችሁን</w>
ቸ ል
በመጨረሻ ም,</w>
ስን መለከት</w>
ማስ ቆ</w>
ጫ ዎችን</w>
ዱ ,</w>
ከ ጠቅላላው</w>
ነዋ !</w>
ነሳ በት</w>
ብል ጫ</w>
ቡድ ኖችን</w>
ሸነ ፉ</w>
መር ገ
ሁለትዮ ሽ</w>
b y</w>
ግ ፊ
ጃ ል</w>
ያደርጋ ቸው</w>
ዜና ውን</w>
ወለ ጋ</w>
እንዲ ችል</w>
ሳይ ቀሩ</w>
ማሟ ያ</w>
ያ የር</w>
ዩ ስ</w>
የ እህ
ኩ ፣</w>
እንደማ ይሆን</w>
አፋ ጣኝ</w>
ች ሉም</w>
ብል ሹ</w>
መሆን ዎን</w>
የ አንዱ</w>
ተለ ጣ
ምስራ ች</w>
ላ ችንን</w>
ሊ ሉ</w>
የሚ ጣል
አውቶቡ ሶች</w>
አም ሳል</w>
ተጠ የቀ
ለ ሰ
ያለ ፉ</w>
የ ኣ
ዘ ኑ</w>
አካ ሂ
ነፃ ነትን</w>
ታውቃ ለህ።</w>
በ ደረሰ</w>
ምስ ና</w>
1 ፤</w>
ፈጣ ኑ</w>
ግ ዞ
ጋ ኔን</w>
ያመጣ ል.</w>
የአ ሰራር</w>
ወጥ ቼ</w>
ከተ ከሰተ</w>
ከ እኔም</w>
አደ ገ
አንብ ብ</w>
ተቀ ብለው</w>
ምሳሌ ዎችን</w>
ል ገ
ሃ ገር
" እና</w>
ዬ ።</w>
የሚናገ ረውን</w>
የ ጂ
ወ ጭ
እንዲ መጡ</w>
አስቀድ መን</w>
ና ትም</w>
ሙስ ና
መከታተ ያ</w>
ገዛ ሁ</w>
ይ ሠራ</w>
በማ ውጣት</w>
ለመ ግባባት</w>
ጉ ምሩ
ድር ና</w>
ይመስ ገን</w>
ይ ት
ዘ -
እናን ት</w>
እኒ ህ</w>
አለበት "</w>
ሲ ኖር
ሟ ል.</w>
መጽ ሀ
str ong
:3 8</w>
ይገ ኝ</w>
የ ጽድቅ</w>
እመ ኛ
አሳ ለ
ት ያ</w>
በ ኋ
ስ ፤</w>
ሴ ፍ</w>
ማ ዘመን</w>
መገልገ ያ</w>
መር ጦ</w>
bo x</w>
4 6
ዲያቢ ሎስ</w>
ይ ፃ
አላ ግባብ</w>
ች ን.</w>
ቤተሰ ባችን</w>
ቍር ባን</w>
ሸ ገር</w>
ጥ ዋት</w>
ጀመር ን።</w>
የሚያ መጣ
ክፍ ልን</w>
ከተ ደረገ</w>
እውነ ታ
ቋቋ ሙ</w>
ቅዱ ን</w>
ቅ ጦች</w>
ቀየ ረ</w>
ማከማ ቸት</w>
ላ ቦራ
ሊ ንግተን</w>
ለ ቀጣዩ</w>
ድር ሰት</w>
የ እግዚአብሔርንም</w>
ው ረድ
ካውን ቲ</w>
ኦ ን</w>
እንዲ ያው
አ ኩ
ናቸው ;</w>
ተገኝ ተዋል።</w>
ራ ሷ</w>
ማ ለሁ።</w>
ለ ደህን
ሁሉ .</w>
ar d
"የ እኔ</w>
ደ ስት
ዋ ል፣</w>
እየተነጋገ ርን</w>
እንሆና ለን።</w>
እ ራሳችን</w>
አስ ጊ</w>
ታማ ኝ
ሮ ማ
ጫ ለሁ።</w>
ጋ ጠመ
የው በት</w>
የተ ነገረ
የ እያንዳንዱን</w>
ዕለ ተ</w>
ኢንተር ፕራ
በ ውይይቱ</w>
ሰራ ቸው</w>
ፌስቲ ቫል</w>
የማ መልከ
በመክፈ ል</w>
በ ሌለው</w>
ይጠብ ቃል</w>
ዕ ቅድ
ከ ሰጠ
እርሷ ም</w>
ብት ሆኑ</w>
ሕ ጉን</w>
ፀጉ ር
ፀ ጥ</w>
ጠቀ መው</w>
ዡ </w>
እንሆና ለን</w>
እ ታ
ናገር ኩ</w>
ተቀም ጧል።</w>
ተ ,</w>
ባህ ሎች</w>
በ አባቴ</w>
ሲ ዲ</w>
ልጥ ፎችን</w>
" አባቴ</w>
ጁ ንም</w>
ከመ ጋ
ቺ ካ
ትክክ ል?</w>
ትከ ሻ</w>
በመ ደገፍ</w>
በ አንድ
ሰማ ሁ።</w>
መሬ ቱን</w>
ሊያደር ጉት</w>
ሁ "</w>
t o
ጠላ ው</w>
ገ ዳ</w>
ዟ ል</w>
አጣ ጥ
አይ ሸ
አክ ለዋል።</w>
ስ ው</w>
ለማ ደስ</w>
14 )</w>
ፈረን ሳ
ጽ ፉ</w>
ግብር ና
ይመጣ ል፤</w>
ያስፈልገና ል.</w>
ውሰድ ።</w>
እነ ደ
ት ቀበ
ባድ ማ</w>
ሰው ንም</w>
ሰማን ያ</w>
ሉዓላ ዊ
ሁዋ ዌ</w>
ገኘ ውን</w>
ይሰ ማ</w>
የተቆራ ኘ</w>
ዊ ሊያ
ከ ምድ
እ መለከታ
ታዳ ሽ</w>
ያል ሆ
የተቻለ ንን</w>
የሞ ላ
የመ ጫወቻ</w>
ዕለ ታት</w>
አረ ፍተ</w>
ኗ ቸው</w>
ቱ ቦ</w>
ማ ጠናከር</w>
ጉን ፋን</w>
ያዝ ን</w>
የሚ ቀርበው</w>
ካ ሂ
ኩ ፖ
እ ዩ
ቴክኖሎጂ ዎችን</w>
ታላቅ ነት</w>
ብ -
ረ ጃ
ሜ ይ</w>
ለ እርሷ</w>
T op
ይቀ ራ
ይ ርዳ
ያውቁ ታል።</w>
አትክል ቶች</w>
አሰብ ኩ።</w>
ና ማ</w>
በመስ ጠ
D A
ፍ /ቤት</w>
ጊ ው</w>
የተ ፈጸመ
ዕ ፅዋት</w>
ብር ብ</w>
በማድረ ጉ</w>
ሳምን ቶች</w>
ል በስ</w>
ፈር ድ
ጸ ሀ
አድ ካሚ</w>
አይ ጎዳ
አመ ጡ
ተገለ ፀ</w>
በአንጻ ሩ</w>
በ ሪ
ቅዱ ሱ</w>
ሰጥ ተው</w>
ማንዴ ላ</w>
ልብ ሶችን</w>
ል ኮ
ለ ልጆቻቸው</w>
D P
18 )</w>
ጠቅ ለል</w>
ግማ ሹን</w>
ይፈ ቅ
ያነጋግ ሩ</w>
የሚያ ገኘው</w>
የመ ን</w>
ዎች ?</w>
አያ ምኑ
በል ን</w>
በ ረው</w>
ሴ ሎም</w>
ማባ ከን</w>
ሊ ቆም</w>
4 2
20 -
ይጠ ራል</w>
ይለ ቀ
አይ ም
ኃጢ ያ
በመሠ ረ
ሥል ጠና
es t</w>
ያገ </w>
የሚ መጥን</w>
ዘግና ኝ</w>
ዋወ ቂያ</w>
ከ ሓዲ
ኦ ፍ</w>
አብ ሬ</w>
በተመሳሳይ ም</w>
መረ ጠ
R O
( T
ፎ ችም</w>
የተ ማሩ</w>
እንደሚ ቀጥል</w>
እንደ ተገናኙ</w>
አሞ ሌ</w>
አ ርት</w>
ነህ !</w>
ብሎ ት</w>
ይኖራ ቸዋል</w>
ክን ው
ባይ ሆን
በ ጨዋታ</w>
ማስተዋወ ቂያ</w>
ህዝ በ</w>
H I
ደብ ተር</w>
የት ኩረት</w>
አስተ ማ
ታላ ቁን</w>
በር ና
መን ጨት</w>
ለጀ ማሪዎች</w>
" '
ፍላጎ ትን</w>
ፍ ኖ
ፈ ቻ</w>
አይ ቀበ
ተዋ ል,</w>
ተ ፈጸመ
በአንጻ ራዊ</w>
ሳ ዎች</w>
መዝ ግ
ፊል ጵ
ይሰራ ሉ።</w>
የሚያ ቀርቡ</w>
የሚ መሩ</w>
የመጀመሪያ ዎቹን</w>
አላገኘ ሁ
ሶማ ሌ</w>
መተ ማመን
ለሚ ቀጥሉት</w>
ለ ጫ</w>
ሃ ገራ
" ሰዎች</w>
ያመለክ ታሉ።</w>
ያለ ሽ።</w>
የተሞላ በት</w>
ኪ ና
አ ድረ
ን ንና</w>
ቷ ት</w>
በ ሃገሪቱ</w>
ቀ ትር</w>
ማ ጋ
መጣ ፤</w>
ሕን ጻ</w>
ለ ጋ
13 )</w>
( F
ይለ ር</w>
ይ ዘጋጃ
ይ ም።</w>
ያን ና</w>
ያ ወቅ
ውድድ ሩን</w>
ውይይ ቱን</w>
ስታት ስቲክስ</w>
A ut
ፀ ን
ጽ ፈ
ደ ጀ
ይ "</w>
ውስ ጡን</w>
ክፍል ፍል</w>
እንደማ ያ
አይደለ ህ
አይ ፈለጌ</w>
አምስተርዳ ም</w>
አ ጭበር
ተጀም ሯል።</w>
ል ግ
ሊ ዮ</w>
ren c
ይወ ሰና
የተ ማረ
በአቅራ ቢያ
ቁ ት።</w>
መለዋወ ጫዎች</w>
ል ሰን</w>
ላ ሉ?</w>
ጠብ ታ</w>
ደር ሰዋል።</w>
ይጮ ኻ
ከተ ቀበ
በአ ፋ
ሻ ጋታ</w>
ሲ ጠቀሙ</w>
መካ ድ</w>
W W
ጨም ሯል።</w>
ይባ ላሉ።</w>
ካ ገኙ</w>
ታ ል፥</w>
ቅ ፅ</w>
መል ሰን</w>
: //
ፍልስጥኤ ማው
ፈራ ር
የቀረ ቡት</w>
የሚወ ዷቸውን</w>
ከፈ ቱ</w>
ከ 40</w>
ሊ ሄድ</w>
ሁ ኑ።</w>
" እስከ</w>
ግም ታዊ</w>
ዕው ር</w>
አበ ቦች</w>
ተ ለያዩ</w>
ስ ጠኝ</w>
መላለ ስ</w>
ይሰ በሰ
ወጣ ፤</w>
ኮ ላ
መዳረ ሻዎች</w>
መቀ መጫ
መለ ካት</w>
ለመ ጋ
" እርሱ</w>
ጫ ለሁ</w>
ያቅር ቡ</w>
ወር ዳ
እና መጣ
አለ በለ
አ ተረ
ተቀ ብ
ቢ ን
ቆር ጥ</w>
ስለ ወደ
ሆና ችን</w>
ደን ታ</w>
ውሃ ውን</w>
ከ ሆኑ,</w>
አ ኖራ
ቶች ህን</w>
ተ ሃል</w>
በላ ሸት</w>
በ አካ
መተር ጎም</w>
ሉ ት፤</w>
ፉ ና</w>
ከተ ሳ
እኩ ይ</w>
ተጋ ር
ስ ቅ
‹‹ ለ
ጵ ያ</w>
ወጣ ቶቹ</w>
አር ም)</w>
ተፈ ናቅ
ተሳ ክቶ
መሰ ግን
ላከ ።</w>
ለሚ ቆጠሩ</w>
ለ ጉዳዩ</w>
13 ፤</w>
ጥ !</w>
የተመረ ጠ</w>
የ ወሰደ
ከ ኢ
አለኝ ፤</w>
አ ቶ
ቅር ሶች</w>
ሚስት ህ</w>
14 ፤</w>
ዱ ካ
ያ ለሁ.</w>
የተዛ ባ</w>
አምባገነ ኖች</w>
ሸ ጊያ</w>
ምኞ ቴ</w>
ፅ ሐ
ዐ ማራ</w>
ከጓደኞ ችህ</w>
አዳራ ሹ</w>
ነበረ .</w>
መን ታ</w>
ላእ ክት</w>
M ed
ጎበ ኘ
አሉ ሚኒየም</w>
ትርጉ ሞች</w>
በ ደንበኞች</w>
ስለ ዚያ</w>
ፋይ ሉን</w>
ያቃ ጥ
የተዘረዘ ሩት</w>
የተ ጨ
ዊ .</w>
ነዋ ።</w>
ተ ይዘው</w>
ስ ታል</w>
ም ....</w>
ሄድ ኩ።</w>
ጋ ቢዎች</w>
ያስ ነሳ
እየተ ቀ
ነጋገ ሩ</w>
ስን ቅ</w>
ሳ ፈ
ሰብ ክ</w>
ልጆቻ ችሁን</w>
ለማ ሰራጨት</w>
15 .</w>
ገባ ች</w>
የሚያ መጣ</w>
አንድም ታ</w>
አለ ፈ
ና ዝ
ቶኪ ዮ</w>
ቱ ?</w>
በመ ካሄድ</w>
ሽ ቱ</w>
ላ ብ</w>
ለው !</w>
at ed</w>
... ።</w>
ፖር ቹ
ጨም ሯል</w>
ጋ ዊነት</w>
ድህ ነትን</w>
የተ ጀመረ
ክብ ሩን</w>
አያ ይዘ
ተያ ይ</w>
ቄ ን</w>
ቀር ፋፋ</w>
መገለ ጥ</w>
ግል ን</w>
ይስተዋ ላል።</w>
የተ ጠረ
የማይ ች
የ ስብሰባ</w>
ክፍ ሉን</w>
አላገኘ ሁም</w>
ነው ም።</w>
ኃይ ሌ</w>
ማ ጠናቀ
ሐ ውል
ያሳ ያል
የተላ ከ</w>
ዋጋ ዎችን</w>
እ ፈልግ</w>
አግኝ ቷል.</w>
አ ዕ
ት መለሳ
በ አለ
ልጥ ፎ
199 4</w>
ፈልጋ ቸው</w>
ጭ ል
ግድ ቡን</w>
የለ ም፣</w>
የ ግጥም</w>
አል ሆነም</w>
ኑ ሮን</w>
ሰው "</w>
ልና .</w>
ሊ ደረስ
ለች "</w>
ይኖርብ ዎታል</w>
የ ነገረ
እንዳ ላት</w>
እንደ ማን
እ ጥረ
ቸ ገረ
ብር ን</w>
በ ፅ
ህወሓ ት
m p
፲ ፪</w>
ጸሐ ፊዎች</w>
ደደ ቢት</w>
ይረዳ ዎታል</w>
የሚ ንቀሳቀሱ</w>
የለ ህም</w>
የ ደንበኞችን</w>
ኩ ,</w>
እና ነ
አገልጋ ዩ</w>
ኛ ልና</w>
ተደ ም
ቅዱ ሳዊ</w>
ለማስተ ካከ
t s</w>
ጭ ካኔ</w>
ይቀጥ ላል.</w>
የተሰ ኘ</w>
የ ሕዝቡ</w>
ውለ ታ
ዉ ጭ</w>
ቆጠ ረ
ed ል</w>
የአይ ን</w>
ተ ሠር
ሰብ አ
መፈ ንቅለ</w>
ፅ ዓት</w>
የዛሬ ውን</w>
የሚያ ነሳ
አላየ ሁ
አ ቸውም</w>
በመ ዳ
ፕሮፓ ጋንዳ</w>
ግንባ ሩ</w>
የሚ ቀበ
ው ዴ
አዲ ሶቹ</w>
አ ቢይ</w>
ት ሻ
በ ሠ
ሙ ም።</w>
ለማስ ፋት</w>
ህ ው
ጮ ክ</w>
ጉምሩ ክ</w>
ይ ዙት</w>
የሚ ሆንበት</w>
ከ አካባቢው</w>
ቪድ ዮ
ሲ ኖሩ</w>
ou r
የምት ኖር</w>
የሚከፈል በት</w>
በ ሥራው</w>
ጻፈ :</w>
ጠን ቀቅ</w>
ያለ ኝ።</w>
የተ ከ
እንደሚ ከሰት</w>
በ ጦርነቱ</w>
ምስ ጉን</w>
ሆን ህ</w>
P U
የዋ ለ</w>
ዕ ዳ
እባክ ህ.</w>
ችሁ ,</w>
ባለ ሃብ
በመ ጨመር</w>
መጠ ነ</w>
ጫ ል</w>
ጃ ለሁ</w>
የሚያስ ፈልግ</w>
የ ወለ
እንደ ተጠበቀ</w>
እነዚያ ንም</w>
አጣ ብ
አል ገ
ን ገራ
ቶቻ ቸውም</w>
ሰ ፈሩ</w>
መለ ስም</w>
ve st
ግራ ፍ</w>
የ ወጥ</w>
ዖ ል</w>
ኢትዮጵያ ዊነት</w>
ነበር ::</w>
ት ከል</w>
ክትባ ቱ</w>
አስ መራ</w>
ቸ ግር</w>
ተ ይ</w>
ተ መለከት
በ ባህ
ሬ ዲዮ
ሊፈ ጥር</w>
ፋ ዮች</w>
ግድግዳ ው</w>
የ ኬ
አብ ሮት</w>
ተ መድ</w>
ቆጣጠ ረው</w>
መስዋ እት
ሕ ብረ
cr yp
C E
ጮ ኽ
ጆ ችን</w>
የተለ የ
የሚገባ ን</w>
ዕድ ሉን</w>
ኢየሱስ ፣</w>
ሴ ሎች</w>
ሚሊ ዮኖች</w>
ሙ ትም</w>
መለከ ትን</w>
ጥበ ቡ</w>
የደረሰ በት</w>
የ ከረ
የ ልጁ</w>
ኳ ሱን</w>
አረ ፋ</w>
ሲ ዋ
መፅ ሃ
ል ]</w>
en g
2 _
የተወለ ዱ</w>
ኢንጂነ ሪንግ</w>
አም ና</w>
አ ድ</w>
ት ላንድ</w>
የተመ ካ</w>
ከ ጨለማ</w>
ኢዮ አብ
አልቻ ለም
አ ጠር</w>
ነት ፤</w>
ቻይ ን
ቤ ቶቹ</w>
ሲ ከሰት</w>
ሱ ር</w>
መገ ጣጠ
መው ሰ
12 ፤</w>
ያሳ ያሉ።</w>
የሚ ስማማ
ነ ሽ።</w>
ቡ ሽ</w>
መለካከ ት</w>
ላችሁ ን?</w>
ለመ ዳን</w>
ሁ ላችሁ
c t
ዲሞክራ ሲ
ዎች ...</w>
እንደ ነገር
አላ ለ
ነገራ ቸው።</w>
ታ ዊና</w>
በ ጥን
ሻ ጮች</w>
መደ ም
ለመ ዝናናት</w>
ይጠቀማ ሉ.</w>
የጀመ ሩት</w>
የሚያ ካትት</w>
ዓይ ኔ</w>
እንቁ ላ
አው ድ
ት ቀ
ሻሻ ሉ</w>
ማስወገ ጃ</w>
ማ ደስ</w>
ላለ ህ።</w>
ድን ቁር
ዘር ህ</w>
ና ት"</w>
ቡ ሩ
በ ሉት</w>
ቀን ሷል</w>
ስላ ላቸው</w>
ፈረ ሰ</w>
ይበ ል</w>
የምት ል</w>
እንደም ታውቁት</w>
ኋ ት።</w>
ተ ቻ
በአ ሥራዎቹ</w>
ሯ ቸዋል።</w>
ጠይ ቅም</w>
ት ወ
ቤ ቴን</w>
በ ናንተ</w>
ማም ለክ</w>
ፈ ረ</w>
የሆ ነው
ዕቃ ዎችን</w>
ብጥብ ጥ</w>
ሸ ር</w>
ስታ ግራም</w>
ረሳ ው</w>
የቆ ሻሻ</w>
የሚገ ጥ
ዓይ ነቶችን</w>
እንጠቀማ ለን</w>
መዘ ገበ</w>
ጦር ነትን</w>
ደቂቃ ዎች</w>
ያ ፈራ
የሚገ ድ
ኤ ሊ
ተናጋ ሪዎች</w>
በት ናን
ቅድም ድም</w>
ቅ "</w>
ሙከራ ው</w>
ለማር ካት</w>
ፈለገ ።</w>
የ ፋ
አስደ ና
አለመ ኖሩ</w>
ታላ ቅና</w>
ተሰ ጠው</w>
ተመል ሰን</w>
ባይ ደን</w>
ል ጁም</w>
ጭ ቅጭ
ታች ኛው</w>
ሥልጣ ኔ</w>
መስ ር
e k
ይዟ ል</w>
የተዘጋጀ ው</w>
ወል ዳ
አሉ :</w>
ነኝ ፣</w>
ት ም?</w>
ቀርብ በት</w>
ሸን ጎ</w>
ር ግ
ማሽ ኑ</w>
y l
ፈ ስ
ገለ ጹ</w>
ዱ ካ</w>
ያው ቀዋል።</w>
የበ ዛ</w>
ክር ክሩ</w>
እመርጣ ለሁ</w>
ተከት ለው</w>
ሰለ ላሁ</w>
ማ ገናኘት</w>
ከተ ሰማ
አለብዎ ት?</w>
አ ኒ
ኝ ህ</w>
ንግግራ ቸው</w>
ት በል
ብ )</w>
ሲ ኾኑ</w>
n et</w>
... )</w>
( ምንም</w>
ፍ !</w>
ጥ ፉ</w>
ጥ ርት</w>
ይገ ኝ
ያህ ዌ
ዊ "</w>
እንዲ ሄዱ</w>
አይደለ ም)</w>
አያስፈልገ ውም።</w>
አሸና ፊው</w>
ትችላ ላችሁ</w>
ሰል ች
ረ ሱ</w>
"የ እግዚአብሔር</w>
ይገባ ሉ።</w>
የወረ ዳ</w>
የማጣ ሪያ</w>
ኒ የም</w>
ቤ ት.</w>
ቤ ታቸውን</w>
ሰር ጦች</w>
ም ስል
መልቀ ቂያ</w>
ሐኪ ምዎ</w>
ለሚ ኖሩ</w>
strong >
ፎቶ ው</w>
ጎልማ ሳ</w>
ግራፊ ክስ</w>
ይገኙ በታል።</w>
ያስፈልጋ ቸዋል.</w>
አቋ ቁ
አስ ረዳ
አላህ ና</w>
ትላለ ህ?</w>
ታገ ኙ
በጭን ቀት</w>
ጎ ጆ
አስባ ለሁ.</w>
አሌ ክስ</w>
ነት !</w>
ታይ ምስ</w>
ላችሁ ...</w>
ሊ መሰ
S k
ፋ ውያን</w>
ጥቂ ቶቹን</w>
ዲ ስትሪ
ብ ሰ
ቅር ጾች</w>
ስልክ ዎን</w>
መጡ .</w>
ሐ በሻ</w>
ሊ ስተካከል</w>
ፅ ግና</w>
ጉዳ ዩ
ያያ ሉ.</w>
የ እርግዝና</w>
ካ ታ
እል ካ
አካላ ትን</w>
አስ ገብ
ተቀ መጡ።</w>
በ አመ
ሳ ህን</w>
መቀመ ጫዎች</w>
ለ ሆኑት</w>
ይ ብቃ
አግኝ ተው</w>
አላ ስተዋ
አለመ ቻል</w>
ታጣ ቂዎች</w>
ባለ ኝ</w>
በዓ ሉን</w>
ሰማይ ንና</w>
ለ ዚያ
ፓርቲ ዎቹ</w>
ጣ ሊያ
ይቆ ች</w>
እንዲያ ቀርቡ</w>
እ ፈ
አስ ራ
ተጠቅ ሷል።</w>
በ እግዚአብሄር</w>
ሙ ንም</w>
የ ዶ
አር ዕ
ሎ ው</w>
ሉ ት.</w>
ለያ ው</w>
4 ,
ጠናቀ ቀው</w>
ደ ሃ</w>
አይገባ ኝም።</w>
አላ ስታውስ
ቀ ለም
ስና ይ</w>
ልማ ትና</w>
" አዎ</w>
ጭ በረ
ጎበ ኝ</w>
ይቀን ሳል</w>
ዓይነ ቶቹ</w>
ወ ዷቸው</w>
ካ ጋጠ
እንዲ ከፍሉ</w>
እቅ ፍ</w>
እር ከን</w>
አ ሰማ
ተፈር ዶ
ቢ ኖራ
በማን ሳት</w>
ምና ለ</w>
ዮሴ ፍን</w>
የካ ዱት</w>
የም ፈልገውን</w>
የመጨረሻ ዎቹ</w>
እየተ ባባ
አለ ፣</w>
ተ ካሄደ
ሲ ያን
ሞ ግዚ
ሞ ኞች</w>
ለማ ግባት</w>
ab le</w>
ጣ ለ
የ ንጉሡ</w>
አንጋ ፋ</w>
አን ገብ
ታዳ ጊዎች</w>
ተጓl ersች</w>
ተካ ፋይ</w>
በዘመ ናችን</w>
በኩ ል
በሚ መጣበት</w>
ሆር ሞን</w>
ፀሐ ይ
ደ ና
የማ ረጋገጫ</w>
ዊ ,</w>
አገ ኛለሁ</w>
አቀር ባለሁ።</w>
አ በረ
ነበሩ ?</w>
በሳ ጭ</w>
በመሣ ሪያዎ</w>
ቃ ይ
ሶ ስተ
ሲያ ዩ</w>
ምር ትን</w>
ማለ ታችን</w>
( በ</w>
ይሰጠ ናል።</w>
ይ ደረግ
የተ ሠራው</w>
ዎርድ ፕረስ</w>
ከት ውልድ</w>
እ ወጣ
ቹ ንና</w>
ተጋ ባ
በልጅ ነቴ</w>
በ ዝግጅት</w>
በ እርግጠኝ
ለተ ሻለ</w>
ሄ ክታር</w>
ፍር ም</w>
ጉብኝ ቶች</w>
የአ ዋ
የተውጣ ጡ</w>
የሚቀጥ ለውን</w>
ዋ ቸው።</w>
ነገ ሠ
ተጠቁ ሟል።</w>
በየ ነ</w>
ስተካከ ሉ</w>
ረ ዱት</w>
ማርት ፎን</w>
የያዘ ውን</w>
የሚያገለ ግ
የል ጁን</w>
አደረገ ፤</w>
ኑ ኝ</w>
ቲ ማቲ
ተመለ ሱ</w>
ለሁ ሉ</w>
25 %</w>
ጭማ ቂ</w>
ይጠ ይቀ
ይሄ ዱ</w>
ኹ ለት</w>
ካሄ ዱት</w>
አውጥ ተው</w>
ጉራ ጌ</w>
ጅም ሩ</w>
ያረጋግ ጣል።</w>
የ ወን
ኢ ብ
አስታው ቋል</w>
ኅ </w>
ተዘር ግ
ቢ ኖሩ</w>
ቢ ችልም</w>
ስ ህ</w>
ሞ ተው</w>
ሙዚ ቀ
መጣ ስ</w>
ለ ምርጫ</w>
ሁ ኝ።</w>
ይ ፋ
ወጡ ም</w>
ካ ው
ከ ሁለተኛው</w>
እንጠይቃ ለን።</w>
አያስፈልግ ዎትም.</w>
አሟ ል
አልቻል ንም</w>
ነ ጃ
ትራ ም</w>
ተል እኮ
ባቡ ሩ</w>
ባለ ች።</w>
በ ች
ስላ ሴ</w>
A A
ደንበ ኛ
ያ ያሉ</w>
ካል ን</w>
ቤ ታ</w>
ቀን በር</w>
ሲ ሰማ</w>
መጡ ም</w>
ሊ ነ
ለ አባ
:3 6</w>
6 2</w>
ጥና ቱን</w>
ጎዳ ው</w>
ደ ጉ
የአ ለማችን</w>
ትግራ ይ
በ ነገር</w>
ሙ ሐመድ</w>
" እን
" እሺ</w>
የመ ፍ
ክስተ ቶችን</w>
ከፈ ለ</w>
ታገ ስ</w>
ተጫራ ች</w>
ስዕ ሎችን</w>
ስለ እርስዎ</w>
መጠቀ ሙ</w>
መዳረ ሻ
ሊ ቲ
ለብ ሱ</w>
11 ፤</w>
ያል ፉ</w>
የሚያስ ች
ከብ ቶች</w>
I R
ጨዋታ .</w>
ያ ሰበ
ዟ ል።</w>
ኮሌ ጆች</w>
ከመ ጀመ
አከባ ቢው</w>
አለባ ት።</w>
አ ቋቋ
ተ ዳር
ባሪያ ህ</w>
በ ግም
በ ኢን
ሳ ትም</w>
ግር ግር</w>
ይ ያዙ</w>
ከ 18</w>
ነህ ና</w>
ተ ጀምሮ</w>
ማይ ክል</w>
መጡ !</w>
as t</w>
ፍራን ክ</w>
ጥያቄ ፡-</w>
ግር ጌ</w>
አየ ።</w>
ተሰማ ኝ።</w>
በረ ታ</w>
ር እስ
ሚ ዎችን</w>
መ ቋ
vi sit
Wi Fi</w>
ይከፈ ታል</w>
የተ ቆረ
የሚሰ ሩት</w>
አድር ገን
አባ ዜ</w>
ተረ ጉ
ማይ ክ</w>
መ ፈራ
ሄ ኖክ</w>
ፆ ታ
ይጠ ፋል</w>
ያነጋግ ሩ
እጠቀማ ለሁ</w>
እንደ ሌ
አልወድ ም</w>
ቴ ራ
ቢ ሆኑ
በመ ሸጥ</w>
ሰንደቅ ፡-</w>
ሰ በት</w>
ሐሳ ብ
ዲ ንግ</w>
ይ ፈልግ</w>
አይ ዘ
ኑ ም።</w>
ተ በ
ሳ ውን</w>
ሊቃ ውን
የገባ ውን</w>
የ እግ
እያ ላችሁ</w>
TC D
( B
ጽ ዮ
የራ ሷን</w>
ዘመ ዶች</w>
ከፍ ል
አይሰጥ ም።</w>
አ ፌ</w>
ተጠር ጣሪዎች</w>
በመፍ ራት</w>
በ 2008</w>
ቅ ጅ</w>
ቀበ ሌ
f e
T im
Ex c
ፈን ታ
ገር ሞ
ይምረ ጡ።</w>
ያ ,</w>
የምና ስ
የ ፖ
የ ጨረ
እ ቴ
አደጋ ዎችን</w>
አዝማ ሚያ
አን ቲ
አብ ል
" ልጄ</w>
ፍቅር ህ</w>
ይ ጎድ
እያ ገኙ</w>
ተ ቅ
ብቸ ኝነት</w>
በቀ ጠ
በ ሃሳብ</w>
ቍ ጣ
መንፈ ስም</w>
ል ሂ
an n
- ተኮር</w>
ፎቶግራ ፎች</w>
ይመ ራል</w>
ያደርጋ ቸዋል።</w>
የተ ሠ
የ ብቃት</w>
ተጨ ን
ተሳፋ ሪ</w>
በተ ያያዘ
ሰር ግ</w>
ሩ በትን</w>
ማ ንም</w>
መገኘ ቱ</w>
መሆኑ ን.</w>
ሐ ዲስ</w>
ላ ድ
ሊያስከት ሉ</w>
ለማ መስገን</w>
ህመም ተኞች</w>
15 ፤</w>
ጥ ፍር</w>
ያ ደገ
ዐ ቃቤ</w>
ካህ ኑም</w>
ኤ ፌሶን</w>
ተማ መና
ብር ሀ
ብሎ ጎች</w>
በየ ደረጃው</w>
በት ውልድ</w>
በ ጥናት</w>
መንደ ሮች</w>
ጨ ቅ
ወያ ዩ</w>
ከመ ጀመር
አ የ</w>
ሻ ል?</w>
ማ ል?</w>
an c
6 3</w>
ፍቃ ዱ</w>
የጠፋ ው</w>
የተናገ ሩት።</w>
ዎታ ለን.</w>
እ ክ
አከባ በር</w>
ኃይ ለ</w>
ቁ መ
ማራ ቶን</w>
ል ኛል።</w>
ጣቢያ ችን</w>
ግለ ል</w>
ድ ስት</w>
ይወዳ ሉ.</w>
አማካ ሪዎች</w>
አላ ችሁ?</w>
አ ወድ
በዓ ል
በ ጠቅላይ</w>
ቆ ችን</w>
ሰም ቻ
ማኔጅ መንት</w>
መነ ኩ
4 %</w>
ፒ ዲ
ጠይ ቁት</w>
ጠብ ቁ።</w>
ኳ ታር</w>
ኤ )</w>
አስተዳ ደግ</w>
ትዝ ብት</w>
ቬ ትናም</w>
ብቻ ችንን</w>
ማግ ስት</w>
መደ በቅ</w>
ልም ዶችን</w>
ፒ ያ
ጣ ለሁ</w>
እንደዚህ ,</w>
እስ ከሆነ</w>
እርግ ዝና
አየ ህ</w>
አው ቀው</w>
ተሸላ ሚ</w>
ባህሪ ይ</w>
ሰዶ ማ
ምዕ መናን</w>
መለሰለ ት።</w>
ለሚ መለከተው</w>
ለ ወያኔ</w>
[ </w>
:3 7</w>
ፋ ክ
ገ ምግ
ይ ቃ
ክ "</w>
ከባ ከባ
እ ክል</w>
ችኋ ለሁ.</w>
ቷ ል"</w>
ቨርጂ ኒያ</w>
በመ ሆኗ</w>
ቁ ፋ
ar i
ፍ ያ</w>
ጣ ሪ
የተ ያዘ
የሚፈል ጉ
ወረደ ።</w>
እጠይቃ ለሁ።</w>
ኢኮኖሚ ክስ</w>
አትፍ ሩ</w>
አለ ፈ</w>
ተ ብራ
ብረ ር</w>
በስ ዕ
በመ ጋ
ቈ ረ
ቀ ይረ
ል ነት</w>
b l
E N
የው ሻ</w>
የተ ቆ
ዌ ብ
ች ሏል</w>
ባር ያ</w>
ሰቆ ቃ</w>
ራ ይ
፲ </w>
ግ ረ
ጃ ል።</w>
ያሳው ቁ
ከ ቀጠለ</w>
እያ ነበብ
አትሌ ቲክስ</w>
ቦታ .</w>
በታ ል፤</w>
በስተቀር ።</w>
በ ትምህርቱ</w>
ቀደ መው</w>
ሾፌ ር</w>
ሽ ንም</w>
ስ ክ</w>
መሣ ፍንት</w>
ic k
ይደር ሳል።</w>
የደ ኅ
የመ ፈ
የሌላ ቸውን</w>
ወ ባ</w>
ከ ቡ</w>
አያስፈል ገን
ኖሮ ፣</w>
በር ቱ</w>
ሳ ንድ
ሜ ም</w>
ማይ ካ</w>
ማስተ ር</w>
መ ኘው</w>
ልብ ህን</w>
ላችሁ ፣</w>
oo </w>
ጣ ራ
ጠ ጋ
ገ ወጥ</w>
የሚ ከሰቱ</w>
የ ስለላ</w>
ወጣ ቸው</w>
ክለ ሳ</w>
ካሉ ዎት</w>
አምሳ ያ</w>
ት ታ
ቅ ኔ
ህይወ ቴን</w>
ዳይሬክ ተሮች</w>
ይቀጥ ላሉ</w>
ይሰጠ ዋል።</w>
የተቀየ ሰ</w>
ኤም ኤስ</w>
ነው ፤››</w>
ሰ ሃ
ምሕ ረቱ</w>
ሚ ክ</w>
መከል ከል</w>
መሣ ሪያውን</w>
ይ ሆኑ
የሚ ጓዙ</w>
የ ዓ
በት ርፍ</w>
ቅ ነት</w>
ምክንያቱ ም,</w>
ሜ ት</w>
ማጣ ራት</w>
ለመ ሳ
( 2</w>
ጥንካ ሬን</w>
ተዘጋጅ ቶ</w>
በመ ሸ
መን ካት</w>
መመ ሥ
ግላ ችን</w>
ዳ ሰሳ</w>
የለው ም፤</w>
ዘ ጠነ
ከመ ነ
ከ 19
እንግሊዝ ኛ
አጀ ማ
አምላክ ፣</w>
አልወድ ም።</w>
ባለ ትዳሮች</w>
በ ውድድሩ</w>
መ ለመ
ለ አፍታ</w>
MP 4</w>
ጭ ና</w>
ይዘ ቱን</w>
ይሞክ ሩት</w>
ይመስላል !</w>
ወዳጃ ዊ</w>
ከና ውኑ</w>
እፈልጋ ለው።</w>
እየተ ራ
አካ ሄ
ና ...</w>
በማ ይታ
ማዳ በሪያ</w>
ለማ ፍረስ</w>
s ,</w>
10 ፤</w>
" ብለዋል</w>
ይለ ናል</w>
እድ ልን</w>
እዘ ምራ
ኖ ሯ
ቆየ ።</w>
መኸ ር</w>
ሀሳ ብን</w>
18 0</w>
የተደረገ ውን</w>
የማ ቅረብ</w>
የሚያ ያዙት</w>
የሚመስለ ው።</w>
እያንዳን ዱም</w>
ች ያለሁ።</w>
ች ስ</w>
ረ ካ
ሁ ፣</w>
C R
9 "></w>
ገ ዋል።</w>
ካፈ ሉ</w>
አ ጫዋች</w>
አ ረጋገ
ን ተ</w>
ተያ ይዘው</w>
ተ መሠረተ</w>
ቦ ረ
ሸማ ች</w>
ሪያ ና</w>
ሩ ስ</w>
ይሂ </w>
የ አውታረ</w>
አገ ራችንን</w>
አያ ሌ
አስ ቀመጠ
አ ኖረ
ንጉሥ ,</w>
በ 2013</w>
ምሰ ሶ</w>
ማራ ዘ
ማ ቱ</w>
ሉዊ ስ</w>
ሀበሻ ፡</w>
17 .</w>
ያስ ባሉ።</w>
የተ ገኙት</w>
እስካ ለ</w>
አይ ተን</w>
ኃ ጥ
ቴ አት
ብቻ ዋን</w>
በ ወንዶች</w>
ሄ ን
👉 </w>
ግባ ።</w>
ገበ ያውን</w>
ይኼ ንን</w>
የተ ጀመረ</w>
አድማ ጮች</w>
ቲ ሽ</w>
ሳ ባ</w>
ሪ ድ</w>
መል ሰህ</w>
ፍራን ሲ
ጅ ቡቲ</w>
ጂ ናል</w>
ከፍ ተው</w>
አይዞ ህ</w>
አክ ቲቪ
ን ዲስ</w>
በያዝ ነው</w>
በአ ሜ
በ ሌላኛው</w>
ቀ ኝነት</w>
ሊፈ ታ</w>
ሊ ሰሩ</w>
W eb
) ;</w>
ኮ ፕ
ክ ምር</w>
አን ፈልግም።</w>
ት ሰራ
ተ ሞ
ቄ ዶ
ሻን ጣ</w>
S n
ጥ ኑ</w>
ድጋ ፍን</w>
ድርጅ ታዊ</w>
ዲ ፓር
ን ፦</w>
በሽ ያ
ቅ ት</w>
መጡ በት</w>
9 ,</w>
የሚያስ ተላል
ከባከ ቡ</w>
አይ ነቱን</w>
አዘዘ ።</w>
ተቃራ ኒ
በፊ ታቸው</w>
ሰ ተኛ</w>
መ ጓጓ
ሃ ቸው</w>
የፒ .</w>
የተ ደበ
የሚ ሸጥ</w>
የ ንግግር</w>
ውስጥ :</w>
ወስ ድ
ኦክ ሳይድ</w>
እኖራ ለሁ</w>
ኔትወር ክ</w>
ቆመ በት</w>
h as
ጠራ ጥር
ደረ ት</w>
ዮ ጋ</w>
ይሄ ኛ
የማይታ ሰብ</w>
ወ ን</w>
ክስተ ቱ</w>
እንደሚ ሰሩ</w>
አት ኩ
ተነስ ቼ</w>
በር ሷ</w>
መስዋዕ ት</w>
ልደ ቱ</w>
ላ ለማ
ህፃ ኑ</w>
s e
ፓ ኬ
ዲ ን
ደ ማስቆ</w>
የሚገ ኝበት</w>
የ ጠየቀ
እን ገልፃ
ተሟጋ ች</w>
ሕ መ
ፕሮጀ ክት
የ ሃሳብ</w>
እንዳ ና
እን ጀምር</w>
አጠና ቅ
አንብ ብ።</w>
በሚ ኖርበት</w>
በመ ጓዝ</w>
ለማስ ፋፋት</w>
ዑ ደ
ዌ ስት</w>
ዋ ለሁ!</w>
ወንድሞ ቻችን</w>
አን ስተዋል።</w>
ተገኝ ተዋል</w>
በዙሪያ ችን</w>
ሱ ባ
መዝገ ቦች</w>
ሃሳ ቦችን</w>
8 8</w>
13 .</w>
ይታ ይ
ይ ሙ
የሚ ሾ
እንድን ኖር</w>
አብራር ተዋል።</w>
አል ፈራ
ሽያ ጮች</w>
ሪ ።</w>
ሟ ገ
መስመ ሮችን</w>
10 ፡
ይደሰ ቱ.</w>
የተ ነገረው</w>
ዋር ካ</w>
ወል ደ
ከባ ህ
እንደተ ናገረው</w>
እና ያለ
ንቅና ቄ
ቦ ቶች</w>
በማስ ታወ
በመ ገኘ
በሕ ክምና</w>
ሳተ ላይት</w>
ሰለ ፍ</w>
ራ ጅ</w>
ፋ ለሁ።</w>
የፈጠ ር
የለ ምና</w>
የ ፔ
ወስ ኑ</w>
ወሰ ደው</w>
አሳ ት
በታ ማኝነት</w>
ማን ነቱ</w>
ማ ጎልበት</w>
መንገድ ።</w>
ለመ ሰ
ዳይሬክ ተሩ</w>
ዛ ል።</w>
እከ ሌ</w>
እርስ ዋም</w>
ኤክ ስፖርት</w>
አጽና ፈ</w>
አስ ጸያ
ነበር )</w>
ብቻ !</w>
በ ፍለጋ</w>
ቀድ ም</w>
ስብ ።</w>
ለ ፍቅር</w>
ለ እንደዚህ</w>
I S</w>
ደራ ደር</w>
ይነሳ ል</w>
ይታወ ቃል.</w>
የሚያደር ጉ
የመሳሰ ሉትን</w>
የመ ጽሐ
ዘንድ ።</w>
ዐ ዋ
ኪዳ ኑ</w>
አሻ ፈረ
ተነ ሡ
ብሄ ር
ባለመ ቻ
ሙሽ ራው</w>
መተላለ ፊያ</w>
አንዳ ችሁ</w>
አልችል ም!</w>
ሰ ዎቹም</w>
In </w>
ይሄን ኑ</w>
የትኛ ውንም</w>
የ ችግር</w>
ከሚ ችሉት</w>
እን ላለ
እ ቅድ
አል መሰለ
ነው ፡-</w>
ት ጠ
ታጋ ዮች</w>
ባን ኮ
ማዕከ ሉ</w>
ፖሊ ስ
ጲላ ጦስ</w>
ደረ ሰው</w>
ያለ ፉትን</w>
የምታ ደርገው</w>
ት ዳር
ብሔረ ሰብ</w>
መድረ ሱን</w>
መ ደረጉ</w>
ለ ዩ</w>
ለ ዘለ
2- 3</w>
ጋለ ጡ</w>
የ ሃገሪቱ</w>
ታሪ ክም</w>
በት ንም</w>
በሚ ያደርጉት</w>
በሚ ኖሩበት</w>
ሐኪ ሙ</w>
199 6</w>
ግን ፥</w>
ደንበኞ ቻቸው</w>
የታሸ ገ</w>
የ በርካታ</w>
ከ ታሪክ</w>
ከ ምርጫ</w>
ን ማ</w>
ሴ ትም</w>
ሞላ በት</w>
ማን ቀሳቀስ</w>
መስ መሩ</w>
c k
ጊዜ ዬ</w>
ያውቃ ል.</w>
አ ሽከርካሪዎች</w>
ስፔ ሻ
ማብ ራት</w>
T it
( 200
ጂ ንግ</w>
ድም ፁ</w>
ይ ነበ
ክለ ቡን</w>
እንዳ ይመስ
አስበ ህ</w>
ቴ ጅ</w>
ተጠቃ ሽ</w>
ብ ኝም</w>
በዙሪያ ቸው</w>
ሲ ያልፍ</w>
ማጣ ቀ
ፅ ንስ</w>
ገ ጹን</w>
ድ ብል
ይሁ ን!</w>
የሰ ጠ</w>
ነ ጥበብ</w>
በ ጉልበት</w>
ሹ ት</w>
ም በት</w>
ማረፊ ያዎች</w>
ሄ ት</w>
18 ፤</w>
ፍላ ችሁ</w>
ዶ ክት
ይዞ ት</w>
ይመስለ ኛል.</w>
የሚፈ ጥር</w>
ዘመ ኔ</w>
እያ ገኘ</w>
ኤ .</w>
አይሆን ም?</w>
ቻር ተር</w>
በታ ተን</w>
ar t</w>
199 2</w>
የመ ጠበቅ</w>
የመ ዳን</w>
የ እናቶች</w>
ዓመ ት,</w>
ከረጢ ት</w>
አስ ቆራጭ</w>
ናቡ ከደነ
ጂ ው</w>
የተባለ ው።</w>
የተሰ የመ
የሚ ውለው</w>
የ ትና</w>
ወንድ ማችን</w>
እስ ከተ
አላውቅ ም.</w>
ቼ ፣</w>
ተ ኸ
ሲ ነገር</w>
ማሸ ጊያ</w>
ለማ ከማቸት</w>
ይጠቀማ ል.</w>
ይሁ ን,</w>
ይ ተኛ
የሚ ቃጠ
የ ሴቶችን</w>
ወጣ ን</w>
ቦ ች.</w>
ባ ችሁን</w>
በት ላልቅ</w>
ራ ችሁን</w>
መሆን ,</w>
ህ ንና</w>
ጫዋ ቾች</w>
ይቀጥ ላል
የምታ ስተ
ወንጀ ለ
አለማ የሁ</w>
መስህ ቦች</w>
መሰ ክር
መለ ሰላ
ህል ሜ</w>
k e</w>
I F
ፍት ሕ
ግባ ችን</w>
ያ ዘጋጁ</w>
የሚያሳ ል
እርባ ታ</w>
አልተ ለወ
ስ ው
ጠ ጠር</w>
ጠ ገ
ደርግ በት</w>
ያዳም ጡ</w>
እንዳለ ኝ</w>
አታው ቁም</w>
ነፋ ሱ</w>
ቤልጂ የም</w>
በ ሥልጣን</w>
ቅ ጂዎች</w>
ሰ ች</w>
" ጥሩ</w>
ገቡ በት</w>
የተገኘ ውን</w>
የ አመቱ</w>
እያ ዳ
እን ዘ
አድር ጐ</w>
አክብ ሮ
ቲ ኬት</w>
መጨ መር
ልጆ ቻችንን</w>
" አንቺ</w>
ጠ ኑ</w>
የሚ ለው።</w>
እንዳ ደረገ
ቴሌ ቭ
ተበላ ሽ
ተ ተርጉ
ቅጣ ቱ</w>
ስምም ነቱን</w>
ም ኩ</w>
ማዕ ዘ
ሚኒስት ሮች</w>
ሙ ማን</w>
ላለ ህ</w>
ላ ፕቶ
ጥ ሪውን</w>
ጤ ፍ</w>
ጠ ናል።</w>
ደ ከመ
የት ርጉም</w>
የ ቅጣት</w>
ከ ድህነት</w>
እወስዳ ለሁ</w>
አፍ ስ
አያደር ግም</w>
አንብ ቤ</w>
አቤ ል</w>
ርዕ ይ</w>
ሬ አለሁ።</w>
መት ከል</w>
ልጣ ፍ</w>
ለማ መ
ሁ ና
( ኢ
የማ ምረቻ</w>
የመ ሠ
ዐ ብይ</w>
ከፈለ ገ</w>
እየሠራ ን</w>
ተ በዳ
በመ ጡ</w>
ሽ ም።</w>
ሰዎች ።</w>
መጥ ረ
ጉድለ ቶች</w>
ዉ ጤ
ነገ ራችን</w>
ተሰ ጠ</w>
በኢ ስታንቡል</w>
ሰም ተናል።</w>
ሮ ናል
ረዳ ን</w>
ሊ ዝ
n ti
: lol
የሚ ዳ
ኮ ዶች</w>
ከፈለ ግን</w>
ከተ ፈጥሮ</w>
እንጀ ምር
ተጓ ዦች</w>
ባለቤ ታቸው</w>
ምህ ም</w>
መሠረ ቱ</w>
ላ ም
ጠ ሉ</w>
ደደ ብ</w>
ደ ሉ</w>
ይችላ ል
ያ .</w>
የሚ ል
ዛሬ ስ</w>
ዛ መድ</w>
ዙ ፤</w>
ከተ ቃ
እ ልህ</w>
ታይ ቷል</w>
ስሜ ቱ</w>
ይሄዳ ል.</w>
የማም ረት</w>
ዘር ዘር</w>
አ ጥቂ
ነብ ይ</w>
ት ሁት</w>
ቁ ማር
መሆን .</w>
መ ቃወ
ለማስ ኬድ</w>
ግን ...</w>
ገ ቢዎች</w>
ይችላ ል:</w>
ይ ቀረ
ዙ ትን</w>
እና ሳይ
አብ ሔር</w>
አቋ ራጭ</w>
ቪክቶ ሪያ</w>
ማታ ለል</w>
ሕዝ ባችን</w>
ለ ችግሩ</w>
í nti
ínti os</w>
Cor íntios</w>
ይጀም ራሉ።</w>
ያዘ ።</w>
ያ ሬድ</w>
የቅ ጂ</w>
ከፈ ሉ</w>
ነበር :</w>
በቀድ ሞ</w>
ሳ ምራ
ሜዲ ካል</w>
መል አክ
ሊያ ቀርብ</w>
say s:</w>
ጉ ረ
ይ ጸ
ይ መጣ</w>
ውጊ ያው</w>
እንደሚያሳ ዩት</w>
በ ምርት</w>
ቀስቃ ሽ</w>
ስለማ ል
ራ ቁ
ሪ ፑ
መጠና ቀቅ</w>
ሊ ያገኙት</w>
H T</w>
ጠያ ቂ</w>
ይጠብ ቃል።</w>
ወጣ ቱን</w>
ክርስቲያ ኑ</w>
ከ ቀድሞ</w>
አይደሉ ም?</w>
አስ ታወቀ
ች በትን</w>
ቆ ጥር</w>
ሩ ባቸው</w>
ማ ዘዝ</w>
መደ መር</w>
መዘጋ ት</w>
17 )</w>
ጅ ራት</w>
ጃ ለሁ።</w>
የዘለ ለ</w>
ን ዴ
በአንፃ ራዊነት</w>
በት ልቅ</w>
ሰራ ተኛው</w>
( ሲ
ደህን ነታቸው</w>
ወ ዝ</w>
ከማ ቻ</w>
እየተጫወ ተ</w>
እየ ጠበቀ</w>
እርሱ ም፣</w>
አይ ገኙ
አር ትዕ</w>
ኝ ም.</w>
በአ ሥራ</w>
መረ ቅ</w>
ለመ ቆም</w>
ሀገ ሪቱን</w>
ይጀም ራሉ</w>
ይሰጣ ቸዋል።</w>
ወረ ድ</w>
አድርገና ል</w>
ታላ ቂ
ቡድ ኖ
ሙቀ ቱ</w>
መቅረ ጽ</w>
ሊ ጎዳ</w>
ድም ጹን</w>
በተ ቋ
በ ኝ</w>
ቀ ለማት</w>
ሉ ::</w>
visit ors
" መልካም</w>
ጠቀስ ኩት</w>
ግ ቤት</w>
ደረ ስ</w>
ይከተ ሉ.</w>
ወር ወር</w>
እመ ኛለሁ።</w>
ቻ ናል</w>
በታ ለን።</w>
ቀ ም።</w>
ስ ሙም</w>
ማብ ሰ
7 8</w>
ጠ ፉ
ድም ፆች</w>
ደር ሰን</w>
ይዛ መ
አልፈለገ ም።</w>
አላቸው ?</w>
ብረ ን</w>
ልን ሆን</w>
i e</w>
ጭ ቱ</w>
ገ ጸ</w>
ዳሴ ው</w>
ይጠቀማ ል።</w>
የሚያደር ገ
እጠብቃ ለሁ።</w>
አፕሊ ኬ
አፍቃ ሪዎች</w>
ቸዋ ል,</w>
ቲ ካ</w>
በት "</w>
መል ከ</w>
ሊ ጠቀሙባቸው</w>
You tube</w>
ያነሳ ሳ
የኢ .</w>
የሆ ነው።</w>
ከ ሆ
በአ እምሮ
ገል ጾ
ይባ ላል?</w>
የሚ ፈጸም</w>
እየ ሸ
በተ ዋ
በመው ጣት</w>
መ ካሄድ</w>
5 ,000</w>
ድም ፄ
የ እስራኤል
ከብ ረው</w>
አሰልጣ ኞች</w>
ተማ ሩ</w>
ባል ና</w>
ለመ ተኛት</w>
i p</w>
ይጠቁ ማሉ።</w>
ያስገ ኛል</w>
የማይታ መን</w>
አገኘ ሁ።</w>
አይ ፓድ</w>
አን ደ</w>
ነ ዋ</w>
ተፈጠረ ።</w>
ስና ደርግ</w>
ለማ ቃለል</w>
B e
የም ታወ
አላገኘ ም።</w>
በመም ጣት</w>
በ ሌሎችም</w>
CA D</w>
7 :</w>
18 .</w>
( 1
የሚጠ ጋ</w>
የ ፖላንድ</w>
የ ዕ
ተከ ላ</w>
ሸነ ፈ</w>
ር ኩ</w>
ም ሬት</w>
መላ ኩ</w>
ሄ ዱም</w>
( 4)</w>
ፈረ ሱ</w>
ያለ ፈበት</w>
የአ ከባቢ</w>
የሚደር ሰው</w>
ዚ ም
ክሪስቶ ፈር</w>
ኢዮ ርብ
አገልግ ለዋል።</w>
አቀ ባይ</w>
ና ነቅ</w>
ተቀበ ለ</w>
በት ልቁ</w>
ስለ ሌ
ሰው ነትዎ</w>
መብ ላ
ለመ ቅረብ</w>
ህ ጉን</w>
ይወ ድ</w>
ይሆና ል
የተ ፈለገውን</w>
ዛ ዛ</w>
ክርስቲያ ናችን</w>
ኩን ታል</w>
እንደሚ ቻለው</w>
አይ መለከ
አሉ ባል
ትዕዛ ዝ
በመጥ ፎ</w>
በ ውይይት</w>
ስኮ ስ</w>
ረ ሳ</w>
al l</w>
ጠብ ቁት</w>
ይከናወ ናል</w>
የቆ ረ
የማይ ሆን</w>
የማ ንኛውም</w>
የ ልዩ</w>
እንደሚ ታ
እንደ ፈለጉ</w>
አይ ል
አ ጥ</w>
ተናግ ሮ
ቀጠ ሉ።</w>
ርህራ ሄ</w>
ማ የቱ</w>
w h
ዳ ስ</w>
ያህዌ )</w>
የ ለመ
ከተ ወሰኑ</w>
ቶ ታል</w>
ትራ ክ</w>
ትሆና ለች።</w>
ተቋ ማዊ</w>
ተር ጎም</w>
ባ ደረግ
በሰ ማ</w>
ማስ ከበ
መሀ መድ</w>
ል ኝ"</w>
ላይ )</w>
ግ ሽበት</w>
ዳ ቦ
የሚጠ ራ</w>
የመስ ራት</w>
ዎች ፤</w>
ከጎ ኔ</w>
አፈ ሰ
ቻ ት።</w>
ተዋ ንያን</w>
ተሰም ቷል።</w>
ቅ ሪ
መጋ ዘን</w>
መቁ ጠ
M o
ፅን ሰ</w>
የሚባለ ው።</w>
የሚ መር
የ ሰራተኞች</w>
ወደ ኔ</w>
እግዚአብሔር ና</w>
ቃ ጨ
5 _
"ማ ንም</w>
ፕሮፌ ሰ
ጓ ሮ</w>
ዳግ መ
የሚያደር ግ
የሚያ ገኙ
የ ካህናት</w>
ው ቅም</w>
እንዲ ሠሩ</w>
አ ፉን</w>
ቆል ቆ
መጠ ጣ
ልቦ ናዊ</w>
3 50</w>
12 ፡
" አላህ</w>
ይነሳ ል።</w>
የዋ ሉ</w>
ዓመ ታቸው</w>
ካን ሰር
እ መል
አይ ቀር</w>
ነ ዌ</w>
ተገ ለጠ</w>
በመቀ ነስ</w>
ቀድሞ ውንም</w>
ስላለ ኝ</w>
መልእ ክቱ</w>
ሃብ ታም</w>
ግብ ጻ
ይለ ኝ</w>
የተከሰ ተ</w>
የማስተ ዋወቂያ</w>
የመ ወሰን</w>
አታውቁ ምን?</w>
አስተያ የታቸውን</w>
ነ ድ
ተ ሠ
ራ ለሁ።</w>
መሣሪያ ዎ</w>
( የ</w>
ይህ ቺን</w>
የ ጫ
ከመ ናገር</w>
ከ ማለ
እገባ ለሁ</w>
እንሰጥ ዎታለን</w>
አለው !</w>
ተጽ ፎ</w>
ቀጥ ሎ
ለማብ ሰል</w>
ሄደ ች</w>
ጥ ሉ</w>
የሚያስ ታው
የለብ ዎትም.</w>
አያ ጠራጥር
ችግ ሮቹ</w>
ተፅ እኖ
ብል ሃት</w>
በማም ረት</w>
ስን ሄድ</w>
ሚንስት ር</w>
ድራ ማ
የመ ግዛት</w>
ዘ ዋል</w>
እየ ጎ
አይችል ም,</w>
አ ናገ
በማስተ ማር</w>
መዝ .</w>
መንገ ዴን</w>
መ ጭ
ሀብ ቶችን</w>
1x bet</w>
ዝ ህ</w>
ዎቹ ንም</w>
ከራ ከሩ</w>
እና ከብራ
ኣ ል
ኝ ::</w>
ትከ ሻ
ብኝ ን</w>
ቢሊ የን</w>
ቢሆን ፥</w>
ቅ ማን
ማ ፅ
መጻሕ ፍት
ለው ,</w>
ac h
ጎ ኑ</w>
ደ ው።</w>
ይኖራ ቸዋል።</w>
የሚወ ዱት</w>
ወ ትር</w>
እያደ ጉ</w>
በመሠዊ ያው</w>
በ አባ
ሀ ምሌ</w>
ፈጥ ሯል።</w>
ጉብኝ ቱ</w>
የምት ፈልገው</w>
ከ ቀናት</w>
አገልጋ ዮቹ</w>
አቅ መ</w>
ት ህም</w>
ታ ል"</w>
ተ ቱ</w>
ስራ ዬ</w>
ራሳ ቸውም</w>
መመ ሪያው</w>
ጽሑ ፉን</w>
የተ ገነዘ
የሚያ መጣው</w>
ውህ ደ
ው ን፣</w>
አር ም
አል ታየ
ኃ ይማኖት</w>
ቺካ ጎ</w>
ት ሞ
ብ !</w>
ሰ ለዚህ</w>
ለህ ፣</w>
ሃ ርድዌር</w>
5 ,
199 5</w>
ፕሬዝዳን ቱ</w>
ጣ ላ
ዶ ል
ይቀጥ ሉ።</w>
የሚመ ጡት</w>
የ ዜጎችን</w>
ወጪ ው</w>
አስገድ ዶ</w>
አረ ም</w>
ነት ?</w>
ነበረ ፥</w>
ብን ል</w>
ስ ለው</w>
መሳ ሰላ
ይመከ ራል።</w>
የምል ክት</w>
የሚያስ ፈልጉ
ወ ዳን
እንደሚ ያደርጉት</w>
አልዓዛ ር</w>
ታ ትም</w>
ሰይጣ ንም</w>
ምእራ ፍ</w>
መልዕ ክቱ</w>
ለ ወጣቶች</w>
3 60</w>
ይላ ኩ</w>
ያደርገና ል።</w>
የገ ረ
የአ ከባቢው</w>
የሚ ወጡ</w>
ወደ ርሱ</w>
ክል ክል</w>
ካል ቻለ</w>
ከፋ ይ</w>
ከን ፈር</w>
ኦ ህ</w>
እና በረታታ
ት ወድ
ታስ ሮ</w>
ብል ጭ</w>
ቀና ጀት</w>
ሽ ርክ
ማ ለን።</w>
መጠ ገን</w>
ል ለው</w>
ለ ሌሎችም</w>
ገ ገ
ገ ቢያ
ይባ ላ
ወ ግድ
ከተ ማን</w>
ከልጅ ነቴ</w>
እንዲ ቀጥሉ</w>
አሳ ዩ
አር ጅ
አ ደርግ
አ ማን
ትግበ ራዎች</w>
ሴ ፕ
ለ ደንበኞቻችን</w>
* *
ጅ ል</w>
ያስተላል ፉ</w>
ከ ጀመሩ</w>
አስተማማ ኝነት</w>
ና ልና</w>
ግ መ
ደካ ሞች</w>
ይሰጥ ዎታል</w>
ያሳ ዩ</w>
እንዲሰማ ቸው</w>
ንግግ ሩን</w>
ባን ዳ</w>
በሽ ተኛ</w>
ሳይ ት</w>
ሰዎች ንም</w>
u st</w>
የሚ ነሳው</w>
አቧ ራ</w>
በ ዕ
ስለ ሆን
ሠል ጠን</w>
ምሥ ጋና</w>
መጀመ ሩን</w>
መን ጃ</w>
መብ ረቅ</w>
u nd
P h
ፈለግ ኩ</w>
ገ ሰ
ዲ ሲ
የመካከ ለኛው</w>
አፍን ጫ
አያስፈል ግም
አር በኛ</w>
አረጋግ ጠዋል።</w>
አል ሻ
በጭ ንቅ
ሰባ ተኛው</w>
ሠራ ።</w>
ለም ግብ</w>
ay s</w>
ድርጊ ታቸው</w>
የተቀ ረው</w>
የሚ ሄዱ
የሌ ለውን</w>
ዞ ኖች</w>
ዘቀ ዘ</w>
ባ ካ
ቋንቋ ዎችን</w>
መ ፈለ
ላ ታል።</w>
ጪ ዎቹ</w>
ጣ ።</w>
ጌታ ችሁ</w>
ያ ሏቸው</w>
የተዋ ጣ
የላቸው ም.</w>
ዝና ና
ዝማ ኔዎች</w>
ዝ ገት</w>
ዘንድ ፣</w>
ዐይ ኖ
እንደገና ,</w>
ነግር ዎ</w>
ታን ክ</w>
ተማ ረ</w>
ብሩ ክ</w>
በመጨረሻ ይቱ</w>
በ ሙዚቃ</w>
ሲ ሠራ</w>
መዋቅ ራዊ</w>
መቆ የ
ጥበ ብና</w>
ድ ፍን</w>
ይኖራ ል.</w>
ክ ብረ
አያ ካት
ኀ ዘን</w>
ት ፣
ባል ፣</w>
ሱ ፥</w>
ሰ ዉ
ሮ በርት</w>
መንገድ .</w>
መታ .</w>
ሐ ን</w>
ልጅ ሽ</w>
ሀብ ቱ</w>
ro </w>
6 0%</w>
( ከዚህ</w>
ጭብ ጨ
ጋም ቤላ</w>
ይ ር</w>
የመ ብራት</w>
የመ ለያ</w>
ው ርስ</w>
እሰጣ ለሁ</w>
አንቀ ጾ
አስተ ውለ
አስተ ዋል
ተጋላ ጭነት</w>
ተ ወጥ
ተ መለከትኩ
በመካከ ላቸውም</w>
በ ሎ
ስርአ ቱ</w>
ሳት ሆን</w>
መገልገ ያዎች</w>
ይቀን ሳል።</w>
ይመ ጡ</w>
የተ ተረጎ
የማ ጥፋት</w>
እንደ ሁ</w>
አውቶ ሞ
ነህ "</w>
ት ክ
በጥ ላ
ሴ .</w>
ጠር ም።</w>
ገን ዝ
አለባ ቸው
አለመ ረጋጋት</w>
አለ ፈ።</w>
አ ደረገው</w>
ሃ ርድ</w>
ይከበ ራል።</w>
ያስወግ ዱ</w>
የሚ ደረግበት</w>
ዓይ ን
ክርስት ና
ኦ ፕ
ና ዊው</w>
ተቋ ራ
በማ ዘጋጀት</w>
ም ታ</w>
መድ ገም</w>
ሐ ገር</w>
ሊ ውሉ</w>
ሂድ .</w>
as h
20 ፤</w>
ፈ ናል።</w>
ይጀም ሩ.</w>
ይታ ሰባ
የ ዚሁ</w>
እና ድር
ትዕይን ቶች</w>
ባበ ረ</w>
ማረ ፍ</w>
መሸ ፈኛ</w>
ሊ ይ</w>
P A</w>
ከሚ ባሉት</w>
እንደ ተጠ
እም ነቱ</w>
ሶ ስቱም</w>
ስም ሪት</w>
መብ ል</w>
I P</w>
ይው ላል.</w>
እየ ሰጡ</w>
እንገና ኛ
ችሎ ታው</w>
ታንዛ ኒያ</w>
ተከ ሳሽ</w>
መሐንዲ ሶች</w>
l y
24/ 7</w>
ፋይ ሉ</w>
ግል ኝ</w>
ይደር ሳ
የተ ማሪ
የሚያስ ገርም</w>
ኤ ክስ</w>
ተፈጥ ሮን</w>
በ ላይ.</w>
ለ ሉ</w>
en s
ጅ ናል</w>
ደ ወል</w>
ዔ ሳው</w>
ወረ ደው</w>
እንፈልጋ ለን.</w>
ኃ ይላ
ችሁ ም?</w>
ትን ኮ
ቅን ብ
ሊቀ ንስ</w>
y ear
21 )</w>
ያጠና ቅ
በ ዝግ
በ ሥ
ቅ ሶ</w>
ቀ ረው</w>
ማድረግ ።</w>
መክ ሊት</w>
ሎ ች,</w>
ሀ ዘ
ጠረ ፍ</w>
ጠ በት</w>
ዎት ም?</w>
ዋል ድ
እሱ ም</w>
አ ፅን
ባት ም።</w>
በ ሂ
ሩ ት?</w>
ላችሁ ም።</w>
ለ ና</w>
ሃ ጢ
ፋ ፊያ</w>
ጥቆ ማዎች</w>
የራ ሷ</w>
ወሰን ኩ</w>
ካ ገኘ</w>
ባራ ቂ</w>
ቡ !</w>
ሰበሰ ቡ</w>
መከ ሰት</w>
መ ያዝ
ል ታስ
ለማ በረታታት</w>
"እኔ ን</w>
ጥያቄ ም</w>
የፈለ ገው</w>
ዞ ሩ</w>
ወስ ጄ</w>
ከሌለ ዎት</w>
እየተ ሸ
ኛ ዉ</w>
ትምህር ታዊ</w>
በ ንጹህ</w>
ማ ሌ
መ ቋረጥ</w>
ይኖራ ቸዋል.</w>
ያገለግ ላል።</w>
የሚ ፈለገው</w>
ዘው ግ</w>
ተቀ በረ
ተሞክሮ ዎች</w>
ማዋ ሃድ</w>
መጠ ን,</w>
መዋቅ ሮች</w>
መ ማሪያ</w>
ለ አካባቢ</w>
e re
ጨ ስ</w>
ጠፋ ም</w>
ጠይቃ ቸው</w>
ገ ፃ
ይቀበ ላሉ</w>
ኮን ዶ
ከሆነ ።</w>
አቀረ በ
ተዘጋጅ ቷል</w>
ተመስ ርቶ</w>
ቫይታ ሚን</w>
በአ ፍ
በመ ነ
ቅ ያ</w>
ሻ ር</w>
ራ .</w>
መኮን ኖች</w>
ሊያ ጠፋ</w>
ሊ ነሳ</w>
ወሰደ ።</w>
እየ ቀረበ</w>
ችላ ቸውን</w>
ትኩ ሳት</w>
በ ሥራ
ርእ ሰ</w>
ሪ ዎ</w>
' .</w>
ዶ ችም</w>
የስ ነ-
ከተ ከሰ
ና ታ
ቸር ቻ
ተፈፃ ሚ</w>
ተመል ሷል</w>
በራ ሷ</w>
በ ዘመነ</w>
ሜ ሪ</w>
" እኛ
ፋሲ ካ
ይበ ሉ.</w>
ዩ ,</w>
ብ የ
መዳ ፍ</w>
ፊል ጶ
ግብ ዝ
ያ ከናወ
የወ ሊድ</w>
የማይ ክሮ
የሚያስከት ለው</w>
ከ ወጡ</w>
ሐ ሤ
ላከ ኝ</w>
" አት
ይወጣ ሉ።</w>
ይክፈ ቱ</w>
ይ ደገ
ከ ቤ
እንረዳ ለን።</w>
ተረጋግ ጧል።</w>
በላ ያቸው</w>
ሰ ጋ
19 ፤</w>
- )</w>
ይዛ ችሁ</w>
የአ ቋም</w>
የተ ነሱ</w>
ክ ንድ
እንደምና ውቀው</w>
አያስፈልግ ም.</w>
አንባ ቢው</w>
አንቀ ላ
አልተ ጠቀ
ታም ራት</w>
ማር ታ</w>
ዳን ኤል
የተ ጠመ
ዘመ ቻዎች</w>
ዒ ላማ
ከተማ ም</w>
ከ አንዳንድ</w>
እንደሚ ወስድ</w>
እናን ተው</w>
እ ሥራ
አረጋ ውያን</w>
ነባ ሪ</w>
ቆ መን</w>
ስቲ ን</w>
ሪ ቻ
ሄደ በት</w>
L C</w>
17 ፤</w>
◆ </w>
ጉ ዋ
ይጨም ሩ</w>
ይባ ር
የ ኡ
እና ውቀ
እና ...</w>
አረንጓ ዴ
ና ሆም</w>
ተማ ም
በ እርሻ</w>
ያደርጋ ቸዋል</w>
ዝ ረ
እናመሰግና ለን.</w>
እባክ ሽ</w>
ኑ ሩ</w>
በል ቶ</w>
መገ ኛ</w>
ለ አብዛኞቹ</w>
u re
ይጠብ ቁ.</w>
ይበ ሉ።</w>
ይ በረታ
የሚ ቃ
ክፉ ው</w>
እ ፀል
ና ችሁ?</w>
ነሳ ን</w>
ትሆና ለህ</w>
ሸ ዋ
መስ ክ
( 1ኛ</w>
ጽ ጌ
የ ጠየቅ
ዝና ቡ</w>
ወደ ቀ</w>
ኣ ንድ</w>
ኃ </w>
ስት ሄድ</w>
c ar
A ir
199 8</w>
ግብ ዣ
ዲቪ ዲ</w>
ያድርጉ !</w>
የታ ጠቁ</w>
ው ፅዓት</w>
ው ም?</w>
እንሰጣ ለን።</w>
እነ ኚ
አስታው ሳ
ነው ;.</w>
ትችላ ለች</w>
በት ብብር</w>
በ ጫ
ቆ ር</w>
ምኞ ቶች</w>
ልባ ችንን</w>
l d</w>
16 )</w>
ይቅር ታን</w>
አጋን ን
አር ክ
ላ ብራ
ለ ቃ
15 -
11 ፡
የም ታውቀው</w>
ክምና ው</w>
እንዲ ሰጣቸው</w>
አብ ላ
አመ ሻ
በመ ሰ
በ ክፍሉ</w>
ሙከራ ዎችን</w>
መጥ ፋ
መና ፈ
መስ ጂ
ሊ ዮ
የ ንጉሥ</w>
ክራ ይ
እንኳ ን
እና የዋ
ኛ ።</w>
ነ ይ</w>
ችግ ርም</w>
ተብራ ር
ተምሳሌ ት</w>
ቁ ጠባ
ሙ ሳ</w>
ሃ ል"</w>
or g</w>
ain s
26 |
ገ ፆች</w>
ዮ ሃ
የበለ ጸ
የ ራስዎ</w>
አይደለም ;</w>
ተሸክ መው</w>
ስ ሟ</w>
ር !</w>
መጠባበ ቂያ</w>
m ent</w>
L G</w>
ፍ ቶች</w>
ይገባ ል"</w>
ከፊ ሉ</w>
ከተ ሰ
አይ ወጣ
በድ ህነት</w>
በ ዋል</w>
ቀይ ሩ</w>
ሲ ወርድ</w>
ሬድ ዮ</w>
ራ ሽ
ማር ሽ</w>
ማመን ጨት</w>
ሕ ፍት</w>
ል ው
W O
P T
ፍጻ ሜው</w>
ጽና ና
ጭንቅላ ቱ</w>
ጎ ስ</w>
ድኃ ኒ
ያደርጉ ታል</w>
ዘ ላለ
ዋ ይ
ወታደ ሮቹ</w>
ማጠቃ ለያ
ልማ ቱ</w>
ለዚያ ውም</w>
ሃ ለሁ,</w>
የሚ ሰጣቸው</w>
ካና ዳ
እንዲ ጠብቁ</w>
አያ መጣ
አውቶ ብስ</w>
ቲ ም</w>
ተከ ስቶ</w>
በ 2015</w>
ሻሽ ል</w>
ማጥ መድ</w>
መሐ ል</w>
ሆነ ፣</w>
ፓ ራ
ከፍ ሎ</w>
እ ሮ
አም ፖ
ነበረ ባቸው</w>
ቱ ፥</w>
ብራ ንድ</w>
ባል ን</w>
በዘ ፈቀደ</w>
በ ቡ
በ 2011</w>
ሞገ ስ
ማ ና</w>
t ic
B T
3 00
ያስተዳ ድ
ከ ዚ
እንዳ ደረገው</w>
ታ ያለህ</w>
ተነ ዋል።</w>
ቆር ጠው</w>
ሬ ስቶ
ለመን ገር</w>
ለመም ታት</w>
ለ ሙ</w>
ጠየቀ ው።</w>
የም ሰጠው</w>
የመ ለስ</w>
የ እስ
አይ ጥ
ኖ ህ</w>
ን ም፣</w>
ነው ፦</w>
ነው "።</w>
ትንታ ኔዎች</w>
ተከሳ ሾች</w>
ተተ ኪ</w>
በቃ ለ</w>
ሲ ድ
ሰው የውም</w>
ሰር ቷል</w>
ሰ ነበ
መጡ ፤</w>
ለ እውነት</w>
37 |
‹‹ ምን</w>
ፍ ረው</w>
ድ ሉ</w>
የ እውነተኛ</w>
የ ሠርግ</w>
ው ቅር</w>
እጃ ችን</w>
እንዲ ካሄድ</w>
አሸነ ፈ</w>
አስ ገኝ
አሮጌ ውን</w>
አል ታወቀ
ኖረ ዋል።</w>
ተላ ላፊ</w>
በ ዘለ
ቀበ ቶ</w>
ስሜ ቱን</w>
ሰን ሰለ
P C
199 1</w>
ፍን ዳ
ፍ ቺ
ጽ ጌ</w>
ጠቃ ለል</w>
ይም ጡ</w>
ዩን ቨር
የተ ጠበ
የሚ መከር</w>
የ ፃፍ
የ ደመና</w>
ዘ ጠ
እለ ምና
አለበለ ዚያ
ኛ "</w>
ት ረዳ
በ ፈለጉት</w>
ማስተ ባበ
መን ደሩ</w>
ሆነ ናል።</w>
[ [
ፍ ኝ</w>
ፈልግ በት</w>
ጅማ ሬ</w>
የተ መለከተ</w>
የ ኪራይ</w>
ክፍ ፍ
እስጢፋ ኖስ</w>
ኝ ም!</w>
ቶሮ ንቶ</w>
ት ሬ
ታዋ ቂ
ተገለጸ ።</w>
በዓ ለ</w>
ሎ ግ</w>
ለ ለውጥ</w>
O ut
ፍቃ ደኛ</w>
ፍ )</w>
የሚያስከት ለውን</w>
የሚሰጡ ትን</w>
ዕውቀ ትን</w>
ናቸው ...</w>
ተዋ ወቅ</w>
በ ጽኑ</w>
መፍ ረስ</w>
ሊ ያን</w>
ጻ ፉ</w>
ጊዜ )</w>
ይችላ ል"</w>
ይሰማ ል</w>
እ ቀ
አገ ሮችን</w>
አንድ ዬ</w>
ተወ </w>
ቀይ ረው</w>
ራ ትን</w>
መዘ ገበው</w>
ሃሳ ብን</w>
O ff
D i
ጡ ፣</w>
ጠብ ጣ
ያስተካክ ሉ</w>
ካ ቴ
ተ ብላ</w>
በተና ጥል</w>
መለ ስን</w>
ለሁ ;</w>
ለ ፤</w>
9 8</w>
ጥራ ዝ</w>
ያል ከው</w>
የህ ፃ
ኳ ኳ
ክፍ ሌ</w>
ተደስ ቻለሁ</w>
ተሞል ቶ</w>
ስት ሉ</w>
ሕዝ በ</w>
ሑ </w>
ፊ ን</w>
ፊ ል</w>
ዶ ው</w>
የተ ሽከርካሪ</w>
ቫ ን
ራ ቸው።</w>
ሕዝ ቤን</w>
ጽ ፏል።</w>
የሚ ንቀሳቀ
የ ራስ
ኝ ››</w>
ት ሑ
ተጠብ ቆ</w>
ተ ፈረደ
በመ ጀመር</w>
ስብ በት</w>
መጣ ጠን</w>
ፍር ስራ
ፀ ሓ
ግ ቢው</w>
ያደረ ጉ
ያየ ሁትን</w>
አልፈ ዋል።</w>
ንብረ ት
በአራ ተኛው</w>
ቂ ጣ</w>
ቀድሞ ም</w>
ሐ ገ
ህ ጎችን</w>
14 .</w>
ግም ቶች</w>
ያ ቺን</w>
የሚወስ ዱ</w>
ባሳለፍ ነው</w>
ሲ መለሱ</w>
ሰው ነቱ</w>
ሰ ሪዎች</w>
ማሽ ነ
ላይ !</w>
ለመግ ታት</w>
er e</w>
ይጠቅ ማል</w>
ይገርመ ኛል።</w>
የተለ ቀ
የምን ችለውን</w>
ኮምፒው ተሮች</w>
እሄዳ ለሁ።</w>
አክራ ሪ</w>
ቸ ገር</w>
ቱ ቦ
ተነ ሱ</w>
ሰዶ ማውያን</w>
ላ ላ</w>
ለ አሕዛብ</w>
] ]
0 4</w>
/ ን</w>
ፍቅረ ኛ
ድመ ቶች</w>
ደ ወ
ያለመ </w>
የ ቁጥር</w>
ኦርቶ ዶክ
አየ ሩ</w>
ተ በት
ሉ አ
( ፫
ዲ .</w>
የሚ ይዝ</w>
ወዳ ደሩ</w>
እናደርጋ ለን!</w>
አሰ በ።</w>
ባ ም</w>
በ ቤታቸው</w>
ቅ ሉ</w>
ስድ ስተኛ</w>
ሱ ኝ</w>
ሪ ቷን</w>
ሊያ ድ
ለማ ረጋገ
i o</w>
ጠንክ ረን</w>
ጠ ዋል.</w>
ግ ስ</w>
ወንድ ማ
ኮምፒው ተርዎ</w>
እ ሰጠ
አውታ ር</w>
አም ባ</w>
ተክ ሎች</w>
ተመል ሰህ</w>
ር ሺ
ማ ደር</w>
ጨዋ ች</w>
ደጋግ መን</w>
ይ ዋጋ
የሚያ ይ</w>
የህ ጻናት</w>
እመ ቤ
አንዴ ና</w>
አ ቦ</w>
ተሸክ ሞ</w>
በየ እለቱ</w>
ቀሰ ቀ
ሰ ቡ
ም /ቤት</w>
መጠ ንን</w>
A R
ፓ ን</w>
ፎ ረም</w>
ይወ ስድ
የደረሰ ባቸው</w>
የ ዲያብሎስ</w>
ው ጡ</w>
አወዛ ጋቢ</w>
ባን ክ
ስለዚህ ፣</w>
ምር ታማነት</w>
ማበረታ ታት</w>
መ ፈጠ
ሀዲ ድ</w>
ጀብ ድ</w>
ዶ ና</w>
ዳን ዱ</w>
ይ መሳሰላ
የሚያስ ፈራ</w>
የመ ከራ</w>
የ ሥልጠና</w>
ካ ር</w>
ከበ ደ
አመሰግና ለሁ,</w>
አመ ት
ን ም፤</w>
ብ :</w>
ቆ ሞ
ቀርባለ ሁ</w>
ሺ ህ
ረ ስ
መሥ ረት</w>
ለማ ንቀሳቀስ</w>
L e
9 00</w>
ፈረን ጆች</w>
ጋ ችን</w>
ያስ ገር
የምን ሰጠው</w>
ዘ ካር
ዕ ይታ
ኮንግ ረስ</w>
አይ ሳ
አቀረ በ</w>
ትምህር ቴን</w>
ተሸ ል
ተ ፈላጊ
ስለ ምና
ልብ ሶ
ሌ ቦች</w>
_ 1</w>
ይመርጣ ሉ</w>
የማ ያውቁት</w>
የ ሠራ</w>
ዘ ጉ</w>
እርዳ ታ
አሻንጉሊ ቶች</w>
ታ ለን።</w>
ብረተሰ ቡን</w>
በማ ከናወን</w>
በሚ ሰ
በ ሶስተኛ</w>
በ ህ</w>
ስ ዩም</w>
ሴ ራ
ረ ካ</w>
ማ ሰላሰል</w>
ሏ ቸው።</w>
ፍላጎ ቶችን</w>
ዩ ና</w>
የጀመር ኩት</w>
ከለ ላ</w>
እም ነትን</w>
አሮ ንም</w>
ተቀ ብለ
ቅ ስ</w>
ሲኒ ማ</w>
ሲ ለኝ</w>
ምሕረ ትን</w>
መ ጓ
ለማ ገገም</w>
ጦር ነቱን</w>
ጥቅ ማ
ደ ሴ
ይቆ ያል.</w>
ያገኘ ውን</w>
ያማ ረ</w>
የሚ ደረ
እን ድ</w>
እነርሱ ንም</w>
አንጋ ፋ
በማድረግ ,</w>
an s</w>
ፍር ም።</w>
ፁ ት</w>
ጋ ።</w>
የተቀበ ለው</w>
የሚ ሹ</w>
የ ቃ
ውስጥ )</w>
እ ዛዝ</w>
አ ሣ
ቢ ኖረ
ስላ ገኘ
ማገ ገም</w>
ላ ኩ
You </w>
ያተኮ ሩ</w>
የበለፀ ገ</w>
የሚ ከናወን</w>
እየተ ጠቀም
አቅር ቦ</w>
ቶ ና</w>
ተጠ ግ
ሸ ም
መጠ ኑን</w>
ል ዎን</w>
( H
( 1-
ፍ ጠር
ጠይ ቀኝ</w>
ዕድ ላቸው</w>
ዋ ርድ</w>
አይቻል ም.</w>
አስ ነሳ
ና ስ</w>
ተመለ ሰ</w>
ሥ ዋዕ
ል በል
ሊ ትር</w>
ለመ ጀመሪያው</w>
ጠራ ቸው</w>
ጎን ደ
ጋ ባ</w>
ጉ .</w>
ድር ድ
ይጠበቅ ብናል።</w>
ያያ ል።</w>
የአ ራ
ከአ ሥራ</w>
ኣ ይ
አልተቻ ለም</w>
አልተ መለሰ
ቼ ንም</w>
ብ ንን</w>
ሆነ ኝ</w>
ደረግ ላቸው</w>
ዩ ክሬ
የሚገ ዛ</w>
ዘ ዋል።</w>
እየመ ራ</w>
እንዳ ለሁ</w>
አለ ሁ፤</w>
በሰባ ተኛውም</w>
በ ሩም</w>
መፍ ሰስ</w>
መ ቂያ</w>
ለይ ተው</w>
ለ አንባቢ
ጽ /ቤቱ</w>
ጠይ ቋል።</w>
ያ በራ
የጻ ፈው</w>
የሚያስ ተናግ
የሚ ከናወ
ዘ ና
ት ሠራ
ቮ </w>
በማግኘ ቴ</w>
ማ ጆች</w>
መነ ጽር</w>
ላን ቺ</w>
ዋን ጫ
ወድ ህ</w>
ክፋ ትን</w>
እንደሚ ደረግ</w>
አም ስት
ነ ጢ
ባል ሆኑ</w>
በ አማዞን</w>
ስላ ስ
ማን ነትን</w>
ማመልከ ቻዎች</w>
ሙ ያዎች</w>
መለስ በት</w>
at or</w>
ጣቢያ ው</w>
ይ ቆጣጠራ
የ አካባቢውን</w>
አይ ከብ
አልቻ ለችም።</w>
ቾ </w>
ችሁ ን?</w>
ታዛ ዥ</w>
ተሰማ ።</w>
ብ ይን</w>
ቢ ጤ</w>
ቀዝቀ ዣ</w>
መ መለስ
ዬ ንም</w>
ያን ፀባር
ያለብ ህ</w>
ያ መሰግ
እያንዳን ዳ
እመለሳ ለሁ</w>
ተዘግ ቶ</w>
ተ ጻፈ</w>
በ ፈገግታ</w>
ቀን "</w>
ስቴ ን</w>
ለተ ቃ
ለመደ በቅ</w>
T V</w>
የ ቤተክርስቲያ
ከ መጠቀም</w>
አን ተነ
ትር ፉ</w>
ተቀ ና
በአንፃ ሩ</w>
በ አስተማማኝ</w>
ስሙ ንም</w>
ስ ግብ
A )</w>
10 |
ጋ ቡ</w>
ዒ </w>
ከበ ቂ</w>
ኤ ሚ
አይሰራ ም.</w>
አስ ችሎ
አስ ራት</w>
የተደ በቀ</w>
የተከሰ ተውን</w>
ካሄደ ውን</w>
እግ ረ</w>
አል ፈለግ
ተነግ ሮ
ሪያ ቸውን</w>
መግ ደ
መቆ ለፊያ</w>
ፈ ሩ
ይረዳ ናል።</w>
ያለ ውና</w>
የእስራኤል ንም</w>
የሚ ቀበል</w>
አድ ኖ
አለ ን
ነ ብር</w>
ታሪክ ና</w>
ተወዳ ጅ
ቢ ራ
በር ስ</w>
መ ዘጋጀ
ሐ ና</w>
ላ ቸው፤</w>
ጥሰ ቶች</w>
ይል ና</w>
ያነጋግ ሩን</w>
የተ ፋ
ከመ ታ
ከ ዳዊት</w>
እድ ሎችን</w>
እንሄዳ ለን።</w>
ተንሸራ ታች</w>
ባ ቂ</w>
በግል ጥ</w>
ቅ ዱ</w>
ቅ ዠት</w>
ቀደ ውን</w>
ሞ ተር
ሄደ .</w>
One Plus</w>
8 7</w>
የመ ግለ
የ ስልጠና</w>
ዋ ልና</w>
ከ ረው</w>
አድርጓ ል,</w>
አድ ማጭ</w>
አስጸያ ፊ</w>
አልነበረ ኝም</w>
ባለስልጣ ኑ</w>
ሶ ርያ</w>
መድ ህን</w>
B A</w>
6 9</w>
ይግባ ው</w>
ይ ገን
ያደርጋ ል,</w>
የግ ሉ</w>
የድርጅ ቱን</w>
እንደተ ባለው</w>
አቅ ማችን</w>
ብሔረ ሰቦች</w>
መተዳ ደሪያ</w>
መ ውም</w>
ላይ ነት</w>
ጥ ኝ</w>
ይሻ ል</w>
የምት ለ
የማ ለት</w>
የ ሁለቱን</w>
ውድ መት</w>
እንደሚ ያደር
እንቀጥ ላለን።</w>
አድራ ሻዎች</w>
ተ ብሎ
ስን ሆን</w>
መሰ ግን</w>
ፋ ለን።</w>
ፈጣ ሪው</w>
ገጥ ሞ
ዱ ቤ</w>
ደ ናል።</w>
ያዙ ን</w>
ያን ቺ</w>
የሚፈ ቅድ</w>
ከፊ ታችን</w>
ከ የትኛው</w>
ብስክሌ ቶች</w>
በመ ገኘት</w>
ቆ ጣ</w>
ሬ ተር</w>
ሥራ ህን</w>
ምዕራ ቡ</w>
መፃ ህፍት</w>
ሉ ፡-</w>
ሄሮ ድስ</w>
( ምሳሌ</w>
ጠብ ቀን</w>
ጄ ነ
ደግ መው</w>
ደረጋ ቸው</w>
ይ ተነ
ዉ ድ</w>
እም ነቶች</w>
ቢ .</w>
ር ብርብ</w>
D I
1 :1
የ ዚህ
የ ኃጢአ
የ ብሄራዊ</w>
ዘ በ
እንዲ </w>
አይሁ ዳ
አነ ስተ
ቢ ቀ
በታ ለሁ</w>
በመድረ ኩ</w>
ስህተ ቱ</w>
ስ ሆን</w>
ሲ ካሄድ</w>
ራ ያ</w>
ለማ ደግ</w>
ጠ ም
ይመከራ ል.</w>
የ ጥፋ
ዓመ ት.</w>
ዊ ቱ</w>
ክር ሽና</w>
እውቀ ቱ</w>
እንኩ ዋን</w>
አይ .</w>
አሉ -</w>
በ እግሩ</w>
ሷ ም</w>
ማ ሰባ
er n
9 ፡
ግሪ ክ
እን ጃ</w>
አጠ ባበቅ</w>
አላደረገ ም።</w>
ተሰጥ ቷል።</w>
በማስ ወገድ</w>
m e
15 %</w>
" የ</w>
ፋ ዎች</w>
ጉር ምስና</w>
ከፍ ሬ
ከሆነ ፤</w>
ከ ዳር</w>
አንዳንዶ ቹም</w>
አሳ ም
አል ልም</w>
ተከታ ዮቹ</w>
ብ በት</w>
ቡ ኝ</w>
በት ፥</w>
መገ ቢያ</w>
ለም ል
, .</w>
ድርጅ ታችን</w>
ይታወ ቃሉ።</w>
ይሠራ ል.</w>
ያ ምን</w>
የተሸ ፈነ</w>
የማይ ሰራ</w>
እንሰራ ለን።</w>
እል ክላ
ኢን ፎርሜሽን</w>
አንገ ቱን</w>
አ ቡ</w>
ትን ,</w>
ቃ ለሁ</w>
ሳንቲ ሞች</w>
ሳሙ ና</w>
ምር ም
ሊ ቀጥል</w>
ለመዝ ጋት</w>
7 1</w>
ይችላ ል)</w>
እንዲ ሁም</w>
ተሸ ካሚ</w>
ተ ጨማ
ተ በተ
ሲያ ይ</w>
መስተዳ ድር</w>
ፓትር ያ
ከ ው።</w>
ተ ነገረ
ተ ታ</w>
ሪ .</w>
6 %</w>
199 3</w>
የተ ከናወነው</w>
ወዳ ድነት</w>
ከ ማን
አሰ በ
ችኋ ለን።</w>
ብት ል</w>
በበ ይነመረብ</w>
ስታቲ ስቲክስ</w>
ሲ ሲ</w>
ሰ ሱ</w>
ሞ ተዋል።</w>
ሙ ፣</w>
መሰና ክሎች</w>
ህን ጻ</w>
ro p
har e</w>
ፎ ቹን</w>
ጣ ሊያ</w>
የአፈ ፃፀም</w>
እያ ረ
አ ጃ
ንስ ር</w>
በ ገባ</w>
ቅጥ ያ</w>
ስላ ሳ
ስለ ሌለው</w>
ሦስተ ኛውም</w>
ለ ሊ
ፕሮጄ ክቶች</w>
እየተ ጠባበ
እንደነበር ም</w>
አቃ ጠ
አስታው ሳለሁ</w>
ች ፡-</w>
ባይ ነት</w>
በ ጽዮን</w>
ሳሙ ኤልም</w>
ሳ ሳት</w>
መ ፈለግ
ለመ ቃወም</w>
Exc el</w>
ግ ሉ
የማይ ታይ</w>
የሚያስ ፈራ
የ ድርጊት</w>
የ ኋለኛው</w>
ወር ደው</w>
አይ ናገር
ነገ ረን</w>
ት ወደ
ት ወር
ቀጠ ና</w>
ሲ ፈጠር</w>
መጠየ ቂያ</w>
1 30</w>
ፒ ተር</w>
ጀር መና
ይከታተ ሉ</w>
ይመለሳ ሉ</w>
ውስ ጤን</w>
ውሰድ .</w>
ወጣ ፥</w>
ወንድሞ ችና</w>
ከተ ጠቀሱት</w>
አስ ቤ
አልተሳ ካ
ታ ችሁ
ርስ ዎ</w>
ም -</w>
መን ን</w>
ሉ ና።</w>
14 ፡
14 0</w>
ጣ ጣም</w>
ይኖራ ሉ.</w>
ያጋ ጠመ
እስላ ማዊ</w>
ኣ ት</w>
አይሰራ ም።</w>
አይ ቪ</w>
አይ ሞ
አሰልጣ ኙ</w>
ምዕራ ፎች</w>
ማ ቋረ
ሕዋ ሳት</w>
ሊቀ የር</w>
ሊ ጠፋ</w>
ህ ስ</w>
for m
[ Read</w>
: D</w>
6 1</w>
ፓ ል</w>
ጋ ኔ
ገ ቢው</w>
ያ ና
የምት ኖረው</w>
የ ክብደት</w>
ዙ ፋኑ</w>
ዉ ሳ
ወያ ኔን</w>
ከሰ ይጣን</w>
ከ ካ
ከ ቻለ</w>
አበ ል</w>
አስተ ምራ
ኑ ኤል</w>
ት ኬ
በቃ ኝ</w>
ሳን ታ</w>
መብ ታቸው</w>
ል ከው</w>
W atch</w>
ግ እዝ</w>
ጁን ታው</w>
ዲ ህ</w>
የሰራ ተኛ</w>
አየሁ ፥</w>
ተራ ራው</w>
ቤተሰቦ ቻቸውን</w>
በቀድ ሞው</w>
በመቶ ውን</w>
በ ፍጥ
ሿ </w>
ሳ ያውቁ</w>
ማስ ቀረት</w>
ማ ፍረስ</w>
መልእክ ቱን</w>
መ ሓ
op </w>
ገጽ ዎ</w>
የሽ ልማት</w>
ዕ ውን</w>
አል ሠራ
ነዋ ሪዎቹ</w>
ማቀነባበ ሪያ</w>
መ ፈፀም</w>
S e
" ለመሆኑ</w>
ጠፍ ቷል።</w>
የሚ ጓ
ዘ ጠና</w>
ወ ኔ</w>
እን መለስ
አጥ ቶ</w>
ና ና
ቀርበ ዋል።</w>
ስለሆነ ች</w>
ሁ ነኛ</w>
" ይህንን</w>
ጉዳ ያችን</w>
ይባ ላል.</w>
ያሳዝ ናል።</w>
የ ረ</w>
አብ ዱ
ና :</w>
ቿ ም</w>
በሽታ ዎችን</w>
ማ ዕድ
2 /
ግ ን።</w>
ጋ ጥም</w>
ጋ ብ</w>
የነ ቢያ
የተ ጠቀም
የማስተ ማር</w>
የሚያስፈልጋ ቸውን</w>
ው ፡-</w>
ወዳ ደ
ከ ማህበራዊ</w>
ከ 2</w>
በዚህ ኛው</w>
ስለ ነበረው</w>
ሴ ቷ</w>
ሕዝ ቡንም</w>
ow n
ፍት ሀ
ፍሬ ያማ</w>
ይሆና ሉ፤</w>
የ ዴ
ወዳጆ ቹ</w>
ኸ ን</w>
ትላን ት
ተጠና ቋል።</w>
መዛግብ ት</w>
ለ ቤተሰቡ</w>
M ess
ጸ ጉር</w>
ጊዜ ዎችን</w>
ያዕቆ ብም</w>
የሚች ለው።</w>
ዛሬ ውኑ</w>
አየ ሁ፤</w>
በተ ገኘው</w>
ምር ም</w>
መብ ቱን</w>
መሰና ክል</w>
ልዩ ነ
ለው ይይት</w>
ለመ ንግሥት</w>
s k
ፕሬዝ ደንት</w>
ጥና ታዊ</w>
ዛሬ .</w>
ከባ በር</w>
ከ ቤተሰ
እንደሚያመለክ ተው</w>
ኤልሳ ዕ
ኢ ጣሊያ</w>
አፍ ሮ</w>
አላየ ሁም።</w>
አህ ያ
ነ ናል።</w>
ታዘ ዙ</w>
ቆሮ .</w>
ሸ ን</w>
ሳ ለን።</w>
ሰ ርት</w>
መፅ ሀ
መመለ ሻ
መ ወያ
ሕፃ ናትን</w>
ልም ዶ
ሉ ባቸው</w>
ለብ ሶ</w>
ፕሮፌ ሽናል</w>
ገዥ ዎች</w>
ጃ ቸው</w>
ይሆና ል፥</w>
ያስፈል ገኛ
ያ ተረ
ያ ሰባ
የሚ ጎ
ኢያ ሱም</w>
አድ ልዎ</w>
ባለ ው።</w>
በአትክል ቱ</w>
ረ ኞች</w>
ሊ ዋ
ለ ራሳችሁ</w>
ፈር ቶ</w>
የመ ኖር
ትምህር ቶች:</w>
ተ ወለ
ባ ቸውና</w>
በማዕ ከላዊ</w>
ሶ ላ
ምክ ረ</w>
ልጃ ችን</w>
ለህ ፃናት</w>
h a
A S
( ግን</w>
ግብይ ቶች</w>
ደን ቀው</w>
ይፈጠ ራል።</w>
ይጠቅ ማል።</w>
የተካተ ቱ</w>
ዘል ቆ</w>
እ ጋ
አግኝ ቻ
አብርሃ ም
አስተም ሮ
ነጋዴ ው</w>
ተከፋ ፍ
በ እንቅልፍ</w>
ቀም ዎ</w>
ልም "</w>
ለ ድ
T E
ፒ ክ
ፈ ጥር</w>
ፈ ሩ።</w>
ግጭ ቱ</w>
ጀመር .</w>
ድንኳ ኑ</w>
ደ ዌ</w>
ያል ሆኑ
የን ፋስ</w>
የሚሸ ፍን</w>
የሚ ከለ
እንዲያ ም</w>
ኢትዮጲ ያ</w>
ተከታ ተ
ተቀ በሉ
ቀ ሪዎቹ</w>
ለማን ኛ
ለ እነርሱም</w>
f ac
V C</w>
7 6</w>
( ክፍል</w>
ግበ ው</w>
ይ ምጣ
የ ቶ
ዎ ት.</w>
ክብደ ትን</w>
እህ ቱ</w>
ኤልሳ ቤ
ኤ ኮኖ
አውሮፓ ውያኑ</w>
አ ከብራ
ታው ቋ
ተፈ ፀ
ተ ብዬ</w>
ማህበረ ሰ
ለመ ጠቀ
m ak
New s.</w>
ጠ ቂ</w>
ይወሰ ዳል</w>
እውነ ትን</w>
እህ ት
ትህ ንም</w>
ተ ጸ
ሗ ላ</w>
ለ ሌላቸው</w>
ጠነ ከረ</w>
ድርጅ ቱን</w>
ይታ ገ
ይ ከለክ
የሚገባ ቸውን</w>
ክፈ ፍ</w>
እንደተገለ ጸው</w>
ኢን ጅ
አይ ኔ</w>
አያስፈልግ ዎትም።</w>
አል ኳቸው።</w>
በሽያ ጭ</w>
ቆይቻ ለሁ።</w>
ስድ ሳ</w>
ሲ በዛ</w>
ሰማ ህ</w>
ለው "</w>
ፕሬዚዳን ታዊ</w>
ፋክ ቸ
ጋ ላ
የበላይ ነትን</w>
ተቀ ባዮች</w>
ማ መላለ
መጋ ረጃ</w>
ለ አንዴና</w>
8 6</w>
20 30</w>
ፋ ርስ</w>
ጥያቄ ፤</w>
የሰ ለ
ከ ነበሩ</w>
አለኝ !</w>
ነ ጠብጣ
ተፈናቃ ዮች</w>
በ ክን
መጣ ች።</w>
ሃ ር
ሁ ,</w>
C S
የተዋ ቀረ</w>
የ ዚያ
ከ ገቡ</w>
አማ ረ
አ ጠናቀ
ቢ ጦሽ</w>
በስ ድ
ሞ ትና</w>
ማግኘ ት.</w>
ለመ ጪው</w>
ለ አገልግሎት</w>
Hom e
ጥላ ቻ
ዋል ና።</w>
ዋ ጣ
እንዴ ት
ኢትዮ ዽ
በማም ጣት</w>
ሶፍትዌ ሮች</w>
ማስጠንቀ ቂያ
ማስ ቀመጥ
መድሃኒ ቱ</w>
ፅ ፍ</w>
ገባ ን።</w>
ይ ስቃ
አይ መከ
በ ኃጢአ
ቁጥ ርም</w>
ምድ ሪቱ</w>
ሎ ሂ
ለማ ደ
ዳ ያስፖ
ይጣ ጣ
ዩ ትም</w>
የሚጠ ቁም</w>
የሚተዳ ደር</w>
የ ይሖዋን</w>
የ የራሳቸው</w>
እር ጋታ</w>
አይ ተህ</w>
አንገብ ጋቢ</w>
አተገባ በር</w>
አስተባባ ሪ</w>
ት ጠብቃ
በአፋ ጣኝ</w>
ሰጥ ቼ
ለ አገራችን</w>
2 :1
ግራ ጫ</w>
ይ ሰር
ያሳ ድራ
ያ መልክ
የሚ ለኝ</w>
የ ፍጥረት</w>
የ ፍላጎት</w>
የ ጭንቀት</w>
እንዲያ ድጉ</w>
እንደ ግ
አላውቅ ም፤</w>
በር ዕ
ማህ ተም</w>
ack j
አመስ ጋ
ኖ ቻችን</w>
ቴሌ ኮም</w>
በኋላ ።</w>
ቃ ቱ</w>
ሻዕ ቢያ</w>
ሪ ዎቹን</w>
ማስ ገባ
ለ ር
ሀይ ሎች</w>
ይመስለ ኝ</w>
የሚ ነሳ</w>
የሚ ታወስ</w>
አባ ረ
ን ጽሕ
ታስ ረው</w>
ብክለ ትን</w>
በረ ራዎችን</w>
በ ስሜ
ሪ ዮ</w>
ማስከበ ሪያ</w>
መስተ ካከል</w>
ህል ሞች</w>
cont ains
Chro me</w>
ይ መለሱ</w>
የተወሰ ዱ</w>
ከጎ ኑ</w>
እሰራ ለሁ</w>
አያስደን ቅም</w>
አበ ሻ</w>
ተክ ለ</w>
ቢ ቢሲ</w>
በ ሌሊ
ረድ ኤ
መስጠ ትን</w>
06 7"></w>
የሚታ የውን</w>
እንደ ሌሎች</w>
ትዕ ቢ
ተቀመጠ </w>
ቄ ም</w>
ሞተ ሩ</w>
ምንጣ ፍ</w>
መ ቸ</w>
ለመም ሰል</w>
L i
ፖር ቶ</w>
ፍጡ ራን</w>
ግን ቦ
ገብ ሩ</w>
ድም ጾች</w>
ወደ ር</w>
እየተ ቃረ
እን መጣ
አጥ ፊ</w>
አይ ወ
ና ፍቃ
ነው ›</w>
ትላ ላችሁ?</w>
ተከ ልክ
በር ፣</w>
ሴቲ ቱም</w>
ሲ ወዳደር</w>
መረ ጠ</w>
ላ ህ</w>
16 .</w>
ይወ ጣሉ</w>
ይ ቃጠ
የታ ሰበ
የሚ ጠበቀ
የ ቁልፍ</w>
ከል ጁ</w>
እን ወጣ
አጠ ገብ
አሕዛ ብ
ተ ክለ
በከ ፋ</w>
በል ማት</w>
ስን መጣ</w>
ማኅ በራት</w>
ሚኒስቴ ሩ</w>
ልባ ችሁ</w>
ፓስ ፊክ</w>
ያስተዋ ው
የተ ያዘው</w>
የሚፈ ራ</w>
ዘመ ቻው</w>
ከ ላ</w>
እንድት ሆኑ</w>
እንዳይገ ቡ</w>
አዜ ብ</w>
አልተ ፈቀደ
ታገ ኙ</w>
በውስጣ ችሁ</w>
ለማ ረም</w>
b ack</w>
7 4</w>
ፈላ ስፋ</w>
ይሰማ ቸዋል።</w>
ያው ቋቸው</w>
የመታ ሰቢያ</w>
የ ሾ
እስኪ ያልፍ</w>
ተገድ ለዋል።</w>
ባይ ኖርም</w>
በ ነቢዩ</w>
ቀረ ብ</w>
መዛሙር ቱን</w>
ፍር ዱን</w>
የተወሰ ደው</w>
የሕይወ ትን</w>
ከመ ውጣ
ከ ጠ
ከ ከፍተኛ</w>
አቤቱ ታ
አሥር ተ</w>
ተገና ኝ</w>
ተቆር ቋ
በማ ክበር</w>
በ ኡ
ቁጥ ሩን</w>
ሞ ስ</w>
ሙቀ ትን</w>
ፈ ቅድ</w>
ግዞ ት</w>
ዳ ጊ</w>
የገ ቡት</w>
ትራ ፊ
ተዋ ህ
ተመራ ማሪ</w>
ቢ ል
በሚ ሆኑበት</w>
ማ ቀድ</w>
ሎ ች.</w>
የ .</w>
ው ራት</w>
ኮ ምፕ
እንዲ ያውቅ</w>
አይ ፒ</w>
አሳታ ፊ</w>
ችሁ ት?</w>
በ ፕሮግራሙ</w>
ሰን ብ
ማህ ፀን</w>
መሰ ላችሁ?</w>
መም ሰል</w>
መላ ዕ
T o
ጦ ታ</w>
ይረዳ ናል.</w>
ይሆና ል:</w>
ኮሎ ኔል</w>
እግ ሩን</w>
ኡ ጋንዳ</w>
አን ግ
ታ ለል</w>
በሚ ታ
በ ሄ
ሣ ብ</w>
ሞ ለኪ
ማስተዋ ልን</w>
መረ ምራ
ለ ስኬት</w>
ur renc
" ?</w>
ጠለ ቅ</w>
ይ ጥራ
ዝ ምታ
እን መር
አንዳንዶ ቻችን</w>
አሰ ም
ብሪ ቲሽ</w>
ቢያ ንስ
በ ሙሉ
ስጋ ቶች</w>
ሰ ኝ
መተ ላለፍ</w>
ሁ ን.</w>
ጭ ምር።</w>
ጥ ሪዎችን</w>
ግል ህ</w>
ጌ ቶች</w>
ድምፄ ን</w>
ያብራ ራል</w>
የሚ ማ
ዛሬ ም</w>
ወደ .</w>
ኮ ማ
ከ ቁጥጥር</w>
ቤት "</w>
ቢ ሉ
በ ጊ
ምኒ ልክ
ሚ ግ
0 1</w>
ከ ራሳችን</w>
አነጋ ጋሪ</w>
ትር ምስ</w>
ተነሳ ።</w>
በአጠቃ ላይ,</w>
ረ ፈ
መ ዲና</w>
ያመለክ ታል</w>
የም ለው።</w>
የሚያ ከናው
የ ፈፀ
ወንበ ዴ
ክ ሽ
አውራ ጃ
ማ ይ</w>
መሻ ት</w>
M I
ጀምር ።</w>
ይ መለከተ
የተ ጠቃሚ
ዝግጅ ቱን</w>
ዘር ፉን</w>
ክሊኒ ካዊ</w>
ኦሮ ም
እንዳይ ሆን
እነዚህ ንም</w>
ና ል,</w>
ነግራ ቸው</w>
ተሳታ ፊ
ተሳ ካ</w>
ተመዝ ጋቢዎች</w>
ተሐ ድሶ</w>
በተቃራ ኒ
በሚ ፈልጉበት</w>
በ ግብይት</w>
በ "
ረ ብ</w>
ላለ ፈ</w>
ጠብ ቅ።</w>
ይቀመጣ ል።</w>
የኢ ስታንቡል</w>
የሚያ በቃ</w>
የሚያ ሟላ</w>
ዋ ው
እን ጃ
እን ሻ
አይደለ ህም።</w>
አልፈ ቀደ
ና ለች።</w>
ቴ ኒስ</w>
ታ ቸውና</w>
በአ ጭ
ቁር አን
ስል ኬ</w>
መስቀ ሉ</w>
ለማድረግ ,</w>
M at
ገን ጠል</w>
ይወሰ ዳል።</w>
ይኸ ው
ይ ዙ
የሚ ፈጥ
የ ክለቡ</w>
ወሰ ዱት</w>
አይለ ወጥ
አላደረገ ም</w>
ተጠ ባባ
በመ መለስ</w>
ሰገ ዱ
ሰነ ዶ
መ ሞከር
" አን
ጋዜጠ ኛው</w>
ደረ ግም</w>
ይጫ ኑ።</w>
ያላ ቸው።</w>
የምት ሠ
ወንዶ ቹ</w>
ከልጅ ነቱ</w>
ኛ ውና</w>
ቼል ሲ</w>
ሙ ድ</w>
መርሐ ግብር</w>
ለ ጋ</w>
T O
16 ፤</w>
ጉዳ ተኛ</w>
የማ የው</w>
በመ ተው</w>
በ ክል
ቆ ጥረ
ሳ ለች።</w>
ራ ው
ራ ኄ
ሞክር .</w>
ማው ራ
ማሽ ቆልቆ
ማ ወዳደር</w>
ጇ ን</w>
ጀመረ ች</w>
ይወድ ቃሉ</w>
የት ኞቹን</w>
የምን ች
አይ ገደ
አል ፎም</w>
ት ጀምራ
ታ "</w>
ተሰ ው
ተሰ ቅ
ባህ ላችን</w>
በተ ቀደ
በመ ቃ
ቆም ም።</w>
ሰር ተው</w>
መጣ ያ</w>
ሀገ ራችንን</w>
or y</w>
" የም
የሚያን ፀባር
ከመጀመር ዎ</w>
እኔ ,</w>
እራ ስ</w>
አመ ቻ
ተዋ ጊዎች</w>
ስ ሱ</w>
ምእ መና
ጭፍ ሮች</w>
ይቀላቀ ሉ</w>
ይ ብላ
ያቀርባ ሉ።</w>
የጠፋ ውን</w>
የማይ ባል</w>
የ ጥሪ</w>
ኩ ሩ</w>
አ አ</w>
በነበር ኩበት</w>
በ ስራው</w>
ስ ሎ
ሲ ጠየቁ</w>
ሟ ቸውን</w>
ም /
ማህ በረ</w>
መረ ጋገ
ሓ </w>
ሉ ተር</w>
a k</w>
R om
ግ ሽ
ዕው ነ
ከ ኦ
ከ ሽያጭ</w>
እየተባባ ሰ</w>
ነ ቀል</w>
ታ ቸው
ተ ጻ
በ ፕሮጀክቱ</w>
ሲ መለከት</w>
መጥ ተዋል።</w>
መሸ ፈን</w>
መ ዓት</w>
b e
P E
36 5</w>
ገ ፋ</w>
የመ ግለጽ</w>
ዘ ህ</w>
እንደ መሆናችን</w>
አም ቦ</w>
አል ሄድ
አለመ ሆን</w>
ነ ትንና</w>
ብ ስለት</w>
ቅ ጹ</w>
መግ ነጢ
መ ኘ
ሊ ካሄድ</w>
ለች ፣</w>
ሄ ድም
in t</w>
26 _
ፔ </w>
ጭ ኑ</w>
ይጠይ ቃሉ።</w>
የማ ደርገውን</w>
ወድ ቁ</w>
ወረቀ ቱ</w>
አምላክ ህን</w>
ብ ሎች</w>
በ ናል።</w>
ር ፤</w>
ማ መሳሰል</w>
መር ማሪ</w>
መ ገብ
ለማ ሰስ</w>
ፍ ሰስ</w>
ዳይሬክቶ ሬት</w>
ወስ ጥ</w>
እርሱ ም፦</w>
ት ›</w>
ታሪ ፍ</w>
ባ ደረ
ቁ ጭ
ረ ናል።</w>
ሥርዓ ቱን</w>
ሞሮ ኮ</w>
መስተ ንግ
ለ እረፍት</w>
D S
ያስ ወጣ
ኮሙኒ ኬሽን</w>
አ ቆመ
ሸቀ ጣ</w>
ስ ቀ
ሬ ን
መጸ ዳጃ</w>
ፍር ግር
ደ ጀ</w>
ይከሰ ታል።</w>
ይቀጥ ላሉ።</w>
የዘመ ኑን</w>
የተደ ነገ
የተ ጠበቁ</w>
የ መልሶ</w>
ክርስቲያ ኒቱ</w>
እንደተ ናገሩት</w>
አጠ ገቡ</w>
አይ ደር
አብሮ ነት</w>
ነው ና፥</w>
ቆ ሎ</w>
ሰአ ታት</w>
ለማሳ መን</w>
b e</w>
ደላ ላ</w>
ይሰጣ ቸዋል</w>
የተ መለከቱ</w>
የሚያ በቃ
ዎ ።</w>
ኹ ን</w>
ከጓደኞ ችዎ</w>
እን ከፍ
እን ላለን</w>
አት መስ
አብሮ ኝ</w>
አል ፋ</w>
በ ቤቴ</w>
ሰ ሉት</w>
ህ ሊና
ሄ ዳ</w>
in vest
] ]</w>
1 19
ጫ ነ</w>
ግሩ ፕ</w>
ገ ጣሚ</w>
ያለ ውንም</w>
የሠ ሩትን</w>
የሚሰ በሰ
የሚ ኒስትሮች</w>
የህ መም</w>
ውስጠ -
ዋል ::</w>
ክ ራል</w>
እን ታ
እና ደርገ
አይገባ ውም።</w>
አይባል ም።</w>
አስከባ ሪ</w>
ተነሳ ሽ
በሚ ገርም</w>
በሚ ያቀር
ቃ ሉ.</w>
ሱ ባቸው</w>
ርዕ ሶችን</w>
ለ ሀገራችን</w>
ጃ ክሰን</w>
ይላ ኩ
እንደ ገባ</w>
እ ለ</w>
በቀጣ ይነት</w>
ስ ዩስ</w>
ል ህ።</w>
ለ አባቱ</w>
ጃፓ ንኛ</w>
ያል ኩ
የ ቴ
ዋ ቸዋል።</w>
ኮን ሰርት</w>
ከ ሻ
እየተ ከሰተ</w>
አል ነገር
ታዳ ጊ
ተስፋ ው</w>
ብራን ዶች</w>
ብ ሶ</w>
ሞከ ረ</w>
ማድረግ ,</w>
ለመ ጥራት</w>
W H
ፍ ፍ
ጭንቀ ትን</w>
ግድግዳ ዎች</w>
የሚጠ ላ</w>
የ ጐ
ኢንስቲት ዩት</w>
አይታሰብ ም።</w>
ባረ ክ</w>
በእውነ ቱ,</w>
በ ከተሞች</w>
ል በል</w>
ይለ ብ
የ ሩ
ዘም ኗል</w>
ዋል ፥</w>
ወገ ብ</w>
ክር ክር
ኪ ነት</w>
እንግዲ ያ
ተፈጥ ሯል።</w>
ተሸ ካ
በር ግጠ
ቅል ቅል</w>
ማድ ሪድ</w>
መር ዳ
ሃ ለሁ፥</w>
ጥ ፊ</w>
ጣ ሉ.</w>
ጊ ባ</w>
የተቀ ደ
የማ ከማቻ</w>
እያንዳን ዳችሁ</w>
እንደ መጣ
ኤምባ ሲ
አስተ ዋዋ
አራ ቱም</w>
ተቋማ ቱ</w>
ባረ ካ
መ ገደል</w>
ጥላ ቻን</w>
ይገር ማል</w>
ይላ ሉ፤</w>
ያ ፈር
የሚ ጠቀም</w>
ከመደ በኛ</w>
እንደሚ ገባም</w>
አስፋ ልት</w>
ተኛ -
ቤ ይ</w>
ባህር ያት</w>
በመ ጠን</w>
ስላ ንድ</w>
መቅ ደስ
ለን ...</w>
ድምፃ ቸውን</w>
ድ ዎ</w>
ዲ ያን</w>
የጻ ድ
የተ ከፈለ
የሚያጋ ባ</w>
ከሚ ገባው</w>
እያ ደር</w>
አታ ሳ
አልቻለ ም.</w>
በተፈጥ ሮው</w>
በ ክረምቱ</w>
ሲ ሉት</w>
ማ ካፈል</w>
ሐ ም
ለማ ተም</w>
r it
የገ ጠመ
ዌ ብ</w>
ከ ንግድ</w>
አይችል ም"</w>
አሰ ላለፍ</w>
በሚ ፈለገው</w>
በመ ምጣቱ</w>
መስጊ ድ</w>
ለመ ነ
8 _
ጠንቀ ቂያ</w>
ዳ ድ</w>
የሚ ራ
ከ የ
እንዳ ስተ
እንዲ ገኝ</w>
አሳማ ሚ</w>
ቱ ር
ተሰራ ጭ
ሽልማ ቱ</w>
ሊያ ካትት</w>
ሊ ቀርብ</w>
ig ht</w>
C on
ጨበ ጥ</w>
ጠ ማማ</w>
የማይ ገባ
የመ ግባ
ወር ቁ</w>
ከ ምርጫው</w>
እንጠይቃ ለን</w>
አኳ ኋ
ትርጓ ሜ
ታ ዩ
ቋንቋ ውን</w>
ቋቋ መው</w>
መነጋገ ሪያ</w>
ል ያ</w>
ለመ ከላከ
s a
ጥ ፍ
የ ከፋ
ወሰ ዳ
ኮምፒው ተ
ካን ቺ</w>
ከባ ከብ
አክ ሎም</w>
አቀረ በ።</w>
ኝ ነቱ</w>
ብስ ራት</w>
በተ ባሉ</w>
በበ ዓሉ</w>
በ ዬ
ስም :</w>
ማኑ ፋክቸ
ሙታ ንን</w>
m ail</w>
3 000</w>
የተ ነገረ</w>
የ ጠየ
እንደሚ ጠቁ
እንመለከታ ለን.</w>
እቅ ዱ</w>
አይ ሁን</w>
አስማ ታዊ</w>
ተገለ ፀ
ተ ባር
ብሩ ሽ</w>
ቀር ተዋል።</w>
ማስ መለስ</w>
ሃ ላፊ</w>
G al
ፉ ፤</w>
ያገ ቡ</w>
የት ናን
የሚያ ቀርበው</w>
የሚያ መላ
የ ውል</w>
አይችል ም!</w>
አልተ ፈጠረ
አለ ን!</w>
ነው ና
ነበረ ው.</w>
ቤተ ልሔም</w>
ጽድ ቅም</w>
ዮ ችም</w>
ይውሰ ዱ.</w>
ያ ቸውም</w>
የቀ ብር</w>
የ አንዳንድ</w>
ዓ ለት</w>
ወስደ ህ</w>
እኩ ሌ
ኑሮ ው</w>
ቀር ቡ
ስፖር ቱ</w>
ሰው ነቴ</w>
ማን ቂያ</w>
ማሳወ ቂያዎች</w>
ማ ቃጠል</w>
መታ ሰቢያ
ለም )</w>
ፎ ካከ
ጸጸ ት</w>
ጉዞ ን</w>
የኦ ሪ
ዋጋ ው</w>
ኩ "</w>
ከፈ ተ
ከ ዚህ
ከ ዘላለም</w>
እም ላለሁ</w>
አ ያን
ተመልከ ት.</w>
ባ ለማወቅ</w>
በቀረ በው</w>
ም ›</w>
ለህ ክምና</w>
U A
( ራእይ</w>
ፍ ኖ</w>
ጣ ቸውን</w>
ዲፕሎ ማ</w>
የምን ችልበት</w>
የሚገር መኝ</w>
የሚዛ መዱ</w>
ወን ዱ</w>
ከሚ ችለው</w>
በምላ ሹ</w>
ቀ መ
ሱ ንና</w>
ሮ ቦት</w>
ሞ ችም</w>
መጥ ተህ</w>
en c
ጮ ኹ
የተከለከ ሉ</w>
የሰ ጡትን</w>
ዝግጅ ቶችን</w>
እጠራ ጠራ
እስኪ ሆን</w>
አይጠፋ ም።</w>
በተ ያዘው</w>
በመር ዳት</w>
ቃ ሊቲ</w>
r ic
i r</w>
ጥራ ቱ</w>
ግብ ነት</w>
ገብ ረ</w>
ደረሰ ን</w>
ያስ ገኛ
ያ ነበ
የ እንቆቅልሽ</w>
የ እን
የ ሰራው</w>
ክፍ ያውን</w>
ክትባ ቱን</w>
ካሜ ራዎች</w>
ኢኮኖሚ ውን</w>
ት ነው</w>
በ ገባ
ቅ ይ
ቀመጠ </w>
ቀ ጣ</w>
ሰም ተህ</w>
መ ባሉ</w>
ለማድረግ .</w>
ለመ ገኘት</w>
t oc
ይጨም ራል.</w>
ይሰጠ ናል</w>
የሞ ቱት</w>
ክሪ ስታል</w>
ከ ቤተሰቡ</w>
እውቀ ትና</w>
አጣብ ቂኝ</w>
አድርገ ው
መሳ ብ</w>
ለ እርሱም</w>
ፍ ጽ
ገ ሃድ</w>
ድረስ ፣</w>
ይታ ያሉ.</w>
ያካት ታሉ</w>
የቀ ጣ
የ ኅ
እንደሚ ሠሩ</w>
ቷ ል፣</w>
ተላ ላ
በ 10</w>
ቀ ብ
ስላ ሉት</w>
ስለሚ ሆን</w>
ሰብስ ቦ</w>
ሊ ገዛ</w>
ለ ጠቅላይ</w>
ሁለ ተኛውም</w>
ጠራ ው።</w>
የወረ ደ</w>
እንደ ኾነ</w>
አሻፈረ ኝ</w>
አሮ ጊ
ታላ ቋ</w>
በጎ ነት</w>
ቀጠ ሮ
ሪፑ ብሊክ</w>
ማሻሻ ያዎችን</w>
መጡ ትን</w>
e "</w>
( መዝሙር</w>
ጵ ሮስ</w>
ጉ ና</w>
ይጠቁ ማል።</w>
ይመልከቱ )</w>
ዣ ን</w>
እስ ቲ
አጎ ቴ</w>
አደረ ሳ
ተ ሃል?</w>
በ ንግዱ</w>
ሽ ,</w>
ሰማያ ትን</w>
መሐ ላ</w>
ለመ ረ
የሰ ነ
ወዳን ተ</w>
አግኝ ቻለሁ።</w>
አለ ሙ</w>
በግም ባ
ማስ ቆጠር</w>
ማሳ ደ
ሊያ መል
ፈርዖ ንን</w>
ጮኸ </w>
ጮ ኽ</w>
ጢ ስ</w>
ድ ጎማ</w>
የወጣ ውን</w>
ዚ ን</w>
ወደ ተ
እን ነግር
እ ከተ
አደረግ ሁ</w>
አ ዞ
ታ ለን</w>
ባልደረ ባ</w>
ባለቤ ቴን</w>
ሚስ ጢር</w>
መጋ ቢ</w>
መ ጀመሩ</w>
et t
ፏ ቸው</w>
ፍ ሮ</w>
ጹ ሑ
ገ ኑ</w>
ዲዛ ይነ
ይሄን ንም</w>
የሚያቀር ቡት</w>
የሚታ ዩት</w>
ዕ ንቁ</w>
ዎች ;</w>
ከማ ች</w>
ከ ዕለታት</w>
እንዲ ሸ
ነገ ሩት።</w>
ቢ ቻል</w>
ለም ለም</w>
ለማስ ፈጸም</w>
ፈል ጊ
ፈ ነው</w>
ይጠብ ቁ
ያ ወጡ
የሰ ራ</w>
የሚከፈ ል</w>
የሚመጡ ትን</w>
ወቀ ሳ</w>
አል ፋ
ቴሌቭ ዥን</w>
ተመ ች
ሶ ል</w>
ስን ና</w>
መዝ ገበ
ህ ልማ
ms g
ጓ ዶች</w>
ጃ ውን</w>
ይወ ለ
ይኖራ ል?</w>
ይ ካ
ወረ ዱ</w>
አ ችንን</w>
ተከ ማ
ቧ ል.</w>
በ ጌታቸው</w>
ቀ ቅ
ስላ ለን</w>
ሲ ጠራ</w>
ሞተ ች</w>
ማ ክስ</w>
መን በር</w>
ል ናል</w>
ለን ታይን</w>
ድህ ረ-
ደረገ በት</w>
ያ ዥ</w>
ውስ ተ</w>
ከ ጓደኞቼ</w>
እ መለስ
ኤስ .</w>
አደ ን</w>
ንፅ ፅር</w>
ትዕዛ ዞችን</w>
ተፈ ራ</w>
በላይ ።</w>
በ ወቅታዊ</w>
ስበ ን</w>
ሳለ ,</w>
ለመ ሞት</w>
ለ ኃጢአት</w>
" የት</w>
ፍል ሚያ</w>
ጓደ ኞችን</w>
ገደ ቦችን</w>
ደር ሰናል።</w>
ያ ሰና
ዘ ንግ
ወጥ ተዋል።</w>
እነሆ ።</w>
አያ መል
አትላን ቲክ</w>
ብሄረ ሰቦች</w>
በ ዝርዝሩ</w>
ሳ ያውቅ</w>
ሊ ኮፕ
ሊ ተገበር</w>
ለን ::</w>
m in
የወሰ ደው</w>
የሚሸ ጡ</w>
ዤ </w>
ኢ ድ</w>
ትዕዛ ዙ</w>
ት እግ
በበ ጀት</w>
ቆይ ተው</w>
o m</w>
ጋገ ሪያ</w>
ገባ ኝ።</w>
የደረሰ ውን</w>
የተ ከናወ
የ ን።</w>
አውቃ ለሁ?</w>
አንድ ነትን</w>
ነበረ ን።</w>
ተገ ቢው</w>
ተሸ ና
መ ዘመር</w>
ሃ ይ</w>
የታ ሰ
ዋ ህዶ</w>
አገ ሪቷ</w>
አምራ ቹ</w>
ና ዊነት</w>
ነ ሃ
ች ህም</w>
ቶ ቿ</w>
ተናግ ሬ
በስተ መጨረሻ</w>
ቅ ብ</w>
ሶ ኒ</w>
ሱ ፐር</w>
ሰ ደደ
ሞ ኒ
ለመ ሰረዝ</w>
X box</w>
ጥቁ ሮች</w>
ጠበ ቁት</w>
ዳ ብር</w>
ከተ ነሳ</w>
ከ ደረሰ</w>
እንዲ ወስድ</w>
እነሆ ፤</w>
አገኘ ሁ
ኖ ቻቸው</w>
ተኛ ን</w>
ሹ ማ
መክ ሰስ</w>
ሁኔታ ዎች</w>
in s
" ጌታዬ</w>
ፍላጎ ታቸውን</w>
ጫ ፎች</w>
ጥብ ቅና</w>
ይ ሾ
የነበረ ች</w>
ከፈለ ጋችሁ</w>
እየ በላ
አን ፈልግም</w>
አመ ጸ
ት ያ
ተሳ ተ
መሳ ል</w>
W e
- ለ
ገብ ተን</w>
ደግ ፈው</w>
የወደ ድ
የታ የ</w>
የሚ ፈለገውን</w>
ዋ ላ</w>
ኬሚካ ሎች</w>
አደረ ሳችሁ</w>
አይ ብ</w>
ነሳ ም</w>
ተካሂ ዷል።</w>
ተ ናገር</w>
ስ ጡ</w>
ሲ ጨ
ሰብሳ ቢ
ሞ ባይ
ማራ ዘም</w>
ሐ ሴት</w>
ለሁ ፣
Add ed</w>
ገ ጃ</w>
ይወ ገዳ
የ ሃገ
ኪዳ ኑን</w>
ከተ ዘረዘሩት</w>
ከ ጅምሩ</w>
እና ገኘ
አንበ ሶች</w>
አቀ ንቃ
አል ኮ
ንስ ል</w>
ን ዱ</w>
በማየ ቴ</w>
ስ መለስ</w>
ሲ ሰጡ</w>
ሊ ደ
Aut o
8 9</w>
( ያህዌ)</w>
" ግን</w>
የሚ ሄደ
የ ዱ
የ ሸማቾች</w>
ው ም,</w>
ከመ ጡ</w>
ከ ቀድሞው</w>
ከ 5</w>
አስ ነብ
ኛ ችን</w>
ተዋ ው
ተዋ ሕዶ</w>
በፊ ታችሁ</w>
በበ ሩ</w>
ቆ ምም</w>
ስታ ይ</w>
ሰማ ።</w>
ሠን ጠረዥ</w>
ምል ክት
መዘ ገብ</w>
መና ፈሻ</w>
ጨምሮ ,</w>
ጌታ .</w>
የሚያስ ጨን
ዘ ነ
ዕድሜ ዬ</w>
ኮሌ ጁ</w>
እንዲ ማሩ</w>
ኣ ስ
ማ ቀናበር</w>
ማ መ
ሐ ዋ</w>
ል ኬቶች</w>
e B
c l
ፋይ ዳ
የሚታ መን</w>
የ ፍጆታ</w>
ዘነጋ ም።</w>
ከ እንደዚህ</w>
አስ መሳይ</w>
ቻ ቸውና</w>
ታ ደርግ</w>
ሪቻ ርድ</w>
ለዘላለ ምም</w>
ለመስ ቀል</w>
N O
F i
የ እሷ
ዘ ።</w>
ዋ ሚዎች</w>
አመ ቱን</w>
ኃ ት</w>
ት ጠፋ
ተሾ መ</w>
ተስማ ሙ</w>
ብዙ ዎችም</w>
ብር ተኝነት</w>
በዝግ ታ</w>
ምር ቃት</w>
ለመ ጀመርያ</w>
ر </w>
har d</w>
A M
ጡ ብ</w>
ጎና ጸ
ይችላ ልን?</w>
ያስ ቀመጥ
የነ ዚህ</w>
የተ ካሄደ</w>
የ አባቱ</w>
ወ ቀው</w>
ካለ ዎት,</w>
እም ብርት</w>
አለዎ ት.</w>
ብሮ ድካ
ሱ "</w>
መ ናገር
ጠላ ትን</w>
ጉ ጉ
ያገለግ ላል.</w>
ያስ ታውቃ
ከራ የት</w>
አይችል ም፤</w>
አማ ን</w>
በረ ሃ
በ ምክር</w>
ማ ደራጀት</w>
መጠ ናቀ
መድሃኒ ቱን</w>
መና ችሁ</w>
ሐ ይማኖት</w>
J </w>
ፖ ም</w>
ፐር ሰንት</w>
ጥርጣ ሬ
ደረጋ ችሁ</w>
ይሠራ ል?</w>
የት ራ
የ ጥቃት</w>
እ ፅዋ
አስ ነ
በ ኢየሩሳሌምም</w>
ሲ ገዙ</w>
ለ ድር</w>
ለ አነስተኛ</w>
ሆና ለች</w>
ህልው ና
IS O</w>
" ምነው</w>
ገለ ል</w>
ጀም በር</w>
ይገኛ ል?</w>
ይን ከባከባ
የዘ ወትር</w>
የሚረ ዱ
ዝ .</w>
ከል ቡ</w>
እንዲ ከሰት</w>
አይወድ ም።</w>
አይ ገና
አዘ ዛ
አላ ለም።</w>
ታደ ለ</w>
በመ ማር</w>
ቁ ብ</w>
ሞከረ ።</w>
ማ ሰባሰብ</w>
መና ው</w>
መረጃ .</w>
ec t
፲ ፮</w>
ፈጠ ራን</w>
ዮና ታ
የሚያስፈል ገን</w>
እንደ ወጣ</w>
እናስ ታው
እ ዚ
ባ ና
ቀም ጥ</w>
ሩ )</w>
ማን ,</w>
ልን "</w>
or s</w>
ዩ ት።</w>
የተ ጓ
የቀ ደመ
ወለ ሉ</w>
እነዚ ሁ</w>
አፋ ፍ</w>
ንጋ ይ</w>
ብን ም።</w>
በሳ ጨ
ስን ዴ
ሲያ ልቅ</w>
ሲ ነግ
ሚግ ሬሽን</w>
ሉ ም፤</w>
In ter
፲ ፩</w>
ጣ ቱ</w>
ግ ሮ
ጀም ሬ</w>
የተወደ ደ</w>
ዐ ውቃ
ክ ስን</w>
እያ ገኘ
አገ ረ</w>
አው ሬው</w>
አንሥ ቶ</w>
አት በል
አለ ፥</w>
በረ ሰቡ</w>
በ ነበረ
ሰጭ ዎች</w>
ርዝ መ
ምክንያ ቶችን</w>
ማ ጥፋ
ጐ ድ
ገና ን</w>
ደር ሰዋል</w>
ክክ ክክ
እ ያስተ
ት ሞታ
ተፈ ጻ
ምን ,</w>
ማኑፋክቸ ሪንግ</w>
መገ ዛት</w>
መልእ ክት
ሌሊ ት
th oug
ደረ ው</w>
ዩኒቨርስቲ ዎች</w>
የግ ጭት</w>
የሚ ጥል</w>
ክ ሪት</w>
ባር ሴሎ
ቀ ጠና
ስለ ሆንን</w>
ሐ ረር</w>
ላይ ፤</w>
ለ ነበረው</w>
year s</w>
198 3</w>
, ,</w>
ፍልስጥኤ ማውያን</w>
ደር ግን</w>
ያምና ሉ.</w>
የመጣ ው።</w>
የ ያዙት</w>
የ ቅዱሳን</w>
ዓሦ ች</w>
ካ ችን</w>
እይታ ን</w>
ነው ...
ተፈ ቀደ
በ ቡድኑ</w>
ሰን ጠረ
ማመልከ ቻው</w>
ማለ ትህ</w>
መለያ ዎን</w>
id e</w>
ፕሬዚዳን ት
ፕ ሮ</w>
ይሄዳ ሉ.</w>
ያስ ሱ</w>
የአባ ቴን</w>
የተጻ ፉ</w>
የበዛ በት</w>
የሠራ ተኛ</w>
የሚቀር ቡት</w>
ወር ድ
ከ ወራት</w>
ከ ሰራ
እየ ጠ
ኢንተር ኔ
ታውቃ ለች።</w>
ቪ ል</w>
ባለ ቀ</w>
በደረ ሰው</w>
በ ዩኒቨርሲቲው</w>
ለ ልጄ</w>
Sn ap
D F
ፍ ቱን</w>
ጆ ሴፍ</w>
ያ በቃል</w>
የተ ዳ
የሰማ ያትና</w>
የ ጨለማ</w>
ክን ውን</w>
እናሳ ውቃ
አብዛኞ ቹን</w>
ባ ሮች</w>
ባ ሃ
በሽታ ውን</w>
መላእክ ትን</w>
ለማ ፅዳት</w>
ሀብታ ሙ</w>
p ub
]] ></w>
5 G</w>
ጊ ኒ</w>
ይ ያዛ
ዬ ፣</w>
የወ ጡት</w>
የተነ ሣ
ውር ደ
ተገቢ ነት</w>
ተከራ ይ
ብሄረ ሰብ</w>
ርዕዮ ተ</w>
ሚን ቶ</w>
መ ኃ
ግንዛ ቤን</w>
ገብ ተዋል</w>
ያል ፋል።</w>
የተባለ ች</w>
ወንድማማ ች</w>
ወን ዞ
ከ ነበረበት</w>
አስ ረግ
አመን ዝ
ቀን ሱ</w>
ሸ ጠው</w>
ሳይ ክል</w>
ሮ ች።</w>
ማ ቋቋ
መ መረ
ህጻ ኑ</w>
® </w>
ፊልጵ ስዩስ</w>
ፊ ታቸውን</w>
ውሸ ትን</w>
ኮርፖ ሬ
አያይዘ ውም</w>
አያ ቱ</w>
አብራ ም</w>
አለው "</w>
ነጻ ነትን</w>
ነው ፣
ተን ሳ
ሸ ቀጥ</w>
ል ህን</w>
ለማስተካከ ል]</w>
ለማስ ቻል</w>
ለ እነሱም</w>
[ ለማስተካከል]</w>
4 7
2 ,000</w>
ፒ ን</w>
ጥ ለት</w>
ጠፍ ቶ
ደ ወል
ያየ ነው</w>
የማህ በሩ</w>
እንደተገለ ፀው</w>
እን ወደ
አውጥ ቼ</w>
ባ ውያን</w>
በህ ክምና</w>
በ ስምህ</w>
ቋ ራጭ</w>
ሠራ ሽ</w>
ሚኒ </w>
M ag
ፋኩል ቲ</w>
ፈል ጓቸው</w>
ጫ ካ
ገል በጥ</w>
ዶ ም
የማስ በው።</w>
ከተ ፈጠረ</w>
እወድ ሻለሁ</w>
እን ተወ
አጥብ ቄ</w>
ን ም?</w>
በ ሄድ
ቁጥ ሮችን</w>
መረጋ ጋ
ለያ የት</w>
ለው ድ
ሄዳ ቸው</w>
un e</w>
p m</w>
P )</w>
ፕሮቶ ኮ
ፍኖ ተ</w>
ይመስል ዎታል?</w>
ያክ ሉ</w>
ወገ ኑ</w>
ክር ክሮች</w>
እግዚአብሔር ፤</w>
እ ጣ
አያደርግ ም።</w>
አዘ ነ
አብ ሮን</w>
አል ለ
ኞ ቹም</w>
ምን ።</w>
ማን በብ
ፍላጎ ቱን</w>
ፈቃ ዶች</w>
ይቀ የራ
ወጣ ች</w>
አል ሰጡ
ላ ትም።</w>
H e
99 %</w>
ጥ ህ</w>
ይኑ ራ
የታቀ ደው</w>
የተ ጨማሪ</w>
የ ጨዋታው</w>
ወሰ ነው</w>
ካ ሰብ
እያንዳን ዷ</w>
እናውቃ ለን?</w>
አይ ,</w>
አስተ ማረ
አ ቸዋል።</w>
አ ቀርባለሁ</w>
ተግሣ ጽ</w>
በደ ፈ
ቀርበ ውን</w>
ቀ ፉ</w>
ሸ ው</w>
ሚ ዎቹ</w>
መዘር ጋት</w>
ሎ ዊን</w>
ለማ ድ
ለማ ሰ
f y</w>
T H
ይቀበ ላል።</w>
ይቀ የ
የሚ ጎዳ</w>
የሚ ሳተፉ</w>
የ እኔም</w>
ዓመታ ት.</w>
ከእንቅል ፉ</w>
ት መን
ብ ናል</w>
ቤ ዝ</w>
በማ ስተዋወቅ</w>
ስል ቶችን</w>
ሰር ቷል።</w>
ረዳ ቶች</w>
ማን ቃት</w>
መቅ ሠ
መ ካ</w>
ላ ሽ</w>
st r</w>
ያ ዬ</w>
የምት ፈልጉ</w>
ኢ አድ</w>
አል ሰሙ
ታት ሞ</w>
ታላ ችሁ?</w>
ቦ ላ</w>
ባ ሁኑ</w>
በአ ብ</w>
በ ውሸት</w>
በ ብድር</w>
በ 2016</w>
ቀ ሩ።</w>
ስነ ምግባር</w>
መሆን ዎ</w>
ላ ና</w>
V O
፲ ፫</w>
ፍለጋ ዎች</w>
ደግሞ ፤</w>
ያረ ጀ</w>
የተደራ ጁ</w>
እስ መ</w>
አብ ይን</w>
አማካ ሪ
አል ተሰማ
አ ነበ
ተኝ ነትን</w>
ቫል ቭ</w>
ሮ ቼ</w>
ሩ ት.</w>
ምዕራባ ውያን</w>
ምሥ ክር</w>
ምል ጃ</w>
ል ባዊ</w>
ፍትሃ ዊ
ጹ ።</w>
ጕድ ጓድ</w>
ደ ማ
ይጫወ ታል።</w>
ያየ ውን</w>
የ ህይወ
ካ ወቁ</w>
እን ሞታ
አጠራ ር</w>
አብረ ውኝ</w>
አለ ቀሰ
ት ሆን</w>
ቀን )</w>
ቀስ ታ</w>
ላለ ች
ለ ወራት</w>
E A</w>
ፕ ሊን</w>
ዘነበ </w>
አብ ሯቸው</w>
ነህ ,</w>
ባ ትና</w>
በል ባችሁ</w>
ሰላ ጣ</w>
ሞ ተዋል</w>
መታ ጠ
ለው ጠው</w>
ለህ ብረተሰቡ</w>
ፎ ችና</w>
ድ ገ
ዲና ር</w>
የቀ ኑ</w>
የማ ያውቁ
ወራ ሪ</w>
እ ወድ</w>
አ በረታታ
ኛ ል፣</w>
ና ትና
ታ ሞ</w>
ተና ል፤</w>
ልዕ ለ</w>
" የአ
! !
‹ የ
ድ ባብ</w>
የተመሠረ ቱ</w>
የስ ነ
የ ደንበኞ
እንዲያ ድግ</w>
አገ ለ
አስ ታዋ
ትሆና ለች</w>
ተናግራ ለች።</w>
በማስተ ዋል</w>
ሮ ማውያን</w>
ለ ዋል.</w>
ዲ ዎች</w>
ተረ ጎም</w>
ርዕዮ ት</w>
ማ ዞን</w>
ጀ ።</w>
ይ ያዙ
ይ ሞላ
ያስፈልጋ ል?</w>
የተ ሠራ
የሚወስ ነው</w>
የሚ ነገር</w>
ወደ ቀ።</w>
ወን ዶችን</w>
ከል ክ
እንደምት ፈልግ</w>
አባላ ትም</w>
አ ሦር</w>
በረ ከት
በመ ጽ
በ አገሩ</w>
በ ባህላዊ</w>
ቀር ባቸው</w>
ስለሚ ያስ
ሰዓ ቱን</w>
ሰማያ ትና</w>
ሰ መ
መሣሪያ ዎን</w>
መ ገደብ</w>
ል ቡን</w>
ለማ ቋረጥ</w>
ለ ድሆች</w>
ሆ ሊ
ሃ ዋይ</w>
ገ ሀ
ይቀበ ላሉ።</w>
ይሰማ ሃል?</w>
ያደርጋ ል?</w>
የተ ገባ</w>
የሚለ የው</w>
ው ::</w>
እንደሚ ሰራ
እና ታቸው</w>
እር ሳስ</w>
ኤ ደን</w>
ብቅ -
ይደ ነግ
ይወክ ላል</w>
ይወሰ ዳ
ያለቅ ስ</w>
የሰ ሞኑ</w>
የሚ ከናወኑ</w>
ዘለ ቀ</w>
እን ነጋገር</w>
አገ ኙ።</w>
አይ ጨምር
አር ነት</w>
ኝ :</w>
ተዳ ደር</w>
ቪዲዮ ን</w>
ቀ ብር</w>
ራ ቸውም</w>
ሃ ዘን</w>
ጽላ ቶች</w>
ጻድ ቃ
ጣ ለን።</w>
ጉዲ ፈቻ</w>
ይሰጣ ል,</w>
የሚያግ ዝ</w>
የሚ ሳተ
እየ ወሰደ</w>
እንድታ ደርግ</w>
እንዲ ቻል</w>
አዋ ጁን</w>
አረጋ ዊ</w>
ኒ ያን</w>
ች ውም</w>
ስ ንም</w>
ሰፋ ፊ</w>
ሰው ነትህ</w>
ድን በ
የመ ጀመር
የሕ ፃ
የሕ ገ</w>
ዝንጀ ሮ</w>
እየ ወጡ</w>
እረ ኞች</w>
ነ ጸ
ችን "</w>
ቻ ልን</w>
ቲማቲ ም</w>
ቫይረ ሶች</w>
ቆር ቆሮ</w>
ምር ታማ
መዘ ን</w>
ሊ ሰጡ</w>
ለመዳ ሰስ</w>
w </w>
ጮ ኹ</w>
ጥ ይ
ገነ ዝ
ደግ መን</w>
ያል ተሰ
የምፈልገ ው።</w>
የሚያስፈልግ ህ</w>
የ ያዙ
የ ቤቱን</w>
እየተ ስፋፋ</w>
እንዲ ጀምሩ</w>
እን ለ
አት በል</w>
ተካ ሂደ
ተናግ ረው</w>
በማ ህበረሰቡ</w>
በ ነበሩ</w>
ቅ መም</w>
ቁል ጭ</w>
ስር የት</w>
ስራ ም</w>
ል ፈ
toc urrenc
8 2</w>
ፓ ስተር</w>
ይካሄ ዳል.</w>
ዓይኖ ቼ</w>
ካ ል.</w>
እነ ዛ</w>
ተዋና ዮች</w>
ብል ፅግና</w>
በአ ፈ
በ ነበረ</w>
በ ሃገራችን</w>
ረ ህ</w>
ሕፃ ኑን</w>
ሌ ሉ
msg str</w>
4 ኛ</w>
19 70</w>
( ኦ
ደግ ፎ</w>
ይጫ ኑ
ክንው ኖች</w>
ከሚ ሰጡት</w>
እንመክራ ለን.</w>
አሠ ልጣ
ኒ ዮ</w>
ነ ሱት</w>
ባባ ስ</w>
በመ ከላከያ</w>
ሾር ባ</w>
መድ ፈር</w>
ለማ ካተት</w>
ሃ ዱ</w>
ጥያቄ ና</w>
ጣ ጠር</w>
ገንዘብ ዎን</w>
ጁ ላይ</w>
ይጫወ ታሉ.</w>
ይስ ማ
ይህ ስ</w>
ያስችለ ዋል</w>
የማ ታው
ከተማ ዎች</w>
እን ጠራ
አለ ህ።</w>
ኔ ና</w>
በአቅራ ቢያው</w>
በር ከ
ሰቃ ይ</w>
ረጋገ ጠው</w>
መድሀ ኒት</w>
ላ ድርግ
ላ ቹ
ለማ ህበራዊ</w>
ህ ንድ
ጽ ፌ</w>
ገለ ፀ
ያደርጉ ታል።</w>
የ በቀል</w>
ወንጀ ሉ</w>
ክህሎ ቶች</w>
ከማ የት</w>
እንደሚ ጀመር</w>
አይመጣ ም።</w>
አስር ተ</w>
ትንቢ ቶች</w>
ስምን ተኛ</w>
መድ ም</w>
ለማስ ቀጠል</w>
ለሚ ፈልግ</w>
ለመ ለጠፍ</w>
Goog le
ጦ ማር
ገ /
ያስ ባል</w>
ያ ላችሁን</w>
የ ፓርቲ
እንዳ ውም</w>
እንዲ ከበር</w>
አል ዋ
ኛ ውንም</w>
ታ ል፣</w>
ተረ ከ
በመ ባልም</w>
በ ቲ
መፈ ታት</w>
100 ,000</w>
ደረግ ለት</w>
ይገ ልጣ
ይወስዳ ል?</w>
የተወሰ ነው</w>
የሚ ደገፉ</w>
ው ፡</w>
እወዳ ለሁ.</w>
አያ ምኑም</w>
አማ ሌ
ችኋ ለሁ"</w>
ቴ ምበር</w>
ተቆ ል
በር ።</w>
በመ ጪዎቹ</w>
ቀና ትን</w>
ሽብር ተኝነት</w>
ስብከ ቱ</w>
ሳ ውያን</w>
መጨ ናነቅ</w>
ፊ ኬት</w>
ፈጠ ራዎች</w>
ፅሑ ፍ</w>
ጠላ ቴ</w>
ጋለ ሞ
ይታ መና
የ ዩኒቨርሲቲው</w>
ኩ ባቸው</w>
እንደ ደረ
እኔ ን</w>
ብ ጥ</w>
ባክቴ ሪያ</w>
[...]
