#version: movoc-tok constrained-merge BPE
ተ </w>
ር </w>
መ </w>
እ ን
እ ም
ሁ </w>
ለ </w>
ት </w>
ን </w>
ግ ዚ
ግዚ ኣ
ግዚኣ ብ
ግዚኣብ ሔ
ግዚኣብሔ ር</w>
እ ግዚኣብሔር</w>
ሠ </w>
ም </w>
ከ መ</w>
ግ ሠ</w>
ነ ግሠ</w>
ረ </w>
የ </w>
ወ እም
ይ ቤ
ድ ኅ
ው ስ
እን ተ</w>
ስ </w>
እ ስ
ሙ </w>
ውስ ተ</w>
ወ ል
ከ </w>
በ </w>
ወእም ድኅ
ነ </w>
ም ድ
ወ አ
ደ ቂ
ቅ </w>
ዳ ም</w>
አ ዳም</w>
ምድ ር</w>
መ ን
ይቤ </w>
ወእምድኅ ሬ
ወእምድኅሬ ሁ</w>
ወ ር
በ እንተ</w>
ሉ </w>
ጽ ዮ
ጽዮ ን</w>
እስ መ</w>
ቱ </w>
ም ስ
እ ለ</w>
ታ ቦ
ታቦ ተ</w>
ለ እግዚኣብሔር</w>
ፈ </w>
ዘ </w>
ዕ ረ
ዕረ ፈ</w>
ወ ነግሠ</w>
ቲ </w>
ብ </w>
ቀ </w>
ዱ </w>
ው እ
ወል ዱ</w>
ኵ ሉ</w>
ኮ ነ</w>
ል </w>
ደቂ ቀ</w>
ዊ ት</w>
ወአ ዕረፈ</w>
ወር ቅ</w>
ቦ </w>
ሰ ማ
ገ ብ
ይቤ ሎ
ይ እ
ይ </w>
ዝ </w>
ኪ ዳ
ራ </w>
ምስ ለ</w>
ላ ዕ
ሆ ሙ</w>
ግ ሥ
የ ን</w>
ዘ እን
ዘእን በ
ዘእንበ ለ</w>
ዘ ር
እን ዘ</w>
ኒ </w>
ኅ </w>
ቃ የን</w>
መን ግሥ
ሕ ግ
ሕ </w>
ድ </w>
ደ </w>
ይእ ቲ</w>
ወ ይቤሎ
አ </w>
ኀ በ</w>
በ ውስተ</w>
ሰማ ያ
ሰ </w>
ር ስ
መን ፈ
ላ </w>
ድ ቅ</w>
ዱ ስ</w>
ደ ብ
ደ ረ</w>
ይ ኅ</w>
ወ ት
ወ በ
ኢ ይ
አ ይኅ</w>
አ ቡ
አቡ ሁ</w>
ኖ ሕ</w>
ን ጉ
ኅ ደረ</w>
ብ ሐ
ብሐ ቲ
ቅ ዱስ</w>
ቁ </w>
ስ ብሐቲ
ሴ ም</w>
ሥ ጋ
ማ ኅደረ</w>
ሕግ </w>
ላዕ ለ</w>
ሊ ሁ</w>
ለ ደቂቀ</w>
ለ ሊሁ</w>
ዘ ወርቅ</w>
ውእ ቱ</w>
ውእ ቱ
ወ ውእቱ
ወ ኮነ</w>
ወ ቦ</w>
ኪዳ ን
ኪዳን የ</w>
እስ ከ</w>
እም ድኅ
ታ </w>
ብ ር</w>
ቅ ድ
ሰ ብ
ሬ </w>
መንፈ ስ</w>
ሌ ሆሙ</w>
ፈ ድ
ፈድ ፋ
ጽ ድቅ</w>
ዳ </w>
ዲ በ</w>
ደብ ተ
ደብተ ራ</w>
ደቂ ቁ</w>
ዘር አ</w>
ዕ በ</w>
ወይቤሎ </w>
ወእምድኅ ረ</w>
ወል ደ</w>
ወ ይቤ</w>
ወ ይ
ወ ሶ
ካ ዕበ</w>
ኩ ን</w>
እ ኁ
እ መ
ኤ ል</w>
አ ነ</w>
አ ብ</w>
አ ቤ
አቤ ል</w>
በ ጽድቅ</w>
በ ወርቅ</w>
በ ከመ</w>
ስብሐቲ ሁ</w>
ሴ </w>
ሰማያ ዊት</w>
ሥጋ </w>
መ ላ
ለ ታቦተ</w>
ለ ብ
ፍ </w>
ፈ ጠ
ጡ ፍ</w>
ጎ ር
ገብ ር</w>
ደ መ
ደመ ና
ደመና </w>
ይ ና
ይና ን</w>
ዝ ብ</w>
ዘር እ
ዘርእ ከ</w>
ዕ </w>
ዓ ለ
ዓለ ም</w>
ዐ ደ
ውስ ቴ
ውስቴ ታ</w>
ዋ </w>
ዉ </w>
ወውእቱ ኒ</w>
ወእም ዝ</w>
ወት ገብር</w>
ወል ድ</w>
ወ ከመ</w>
ወ ኣ
ወ ብ
ወ ምድር</w>
ክ ብር</w>
ክ </w>
ኪዳ ን</w>
አ ብ
አብ ራ
አብራ ም</w>
አ ም
አም ላ
ንጉ ሠ</w>
ን ጡፍ</w>
ን ቱ</w>
ቶ ሙ</w>
በ ክብር</w>
ቅድ መ</w>
ቃ ይናን</w>
ስ ም
ሳ ላ</w>
ሱ </w>
ር ዋ</w>
ረ ት</w>
ሞ ተ</w>
ምድ ረ</w>
መንግሥ ት</w>
ሕ ዝብ</w>
ለ ዘ</w>
ለ አዳም</w>
ለ ምድር</w>
ለ ማኅደረ</w>
ሄ ኖ
ፈድፋ ደ</w>
ፈ ጣ
ፈጣ ሬ</w>
ጦ </w>
ግ መ</w>
ጉ </w>
ገ ባ
ገባ ሬ</w>
ገ ሮ
ገሮ ሙ</w>
ገ ረ</w>
ዳ ግመ</w>
ዳ ዊት</w>
ዲ ያ
ዲያ ብ
ዲያብ ሎ
ዲያብሎ ስ</w>
ዮ </w>
ይ ሁ
ይሁ ዳ</w>
ዝ ውእቱ</w>
ዛ ዙ
ዛዙ </w>
ዘ ኢይ
ዘኢይ ነ
ዘኢይነ ቅ
ዘኢይነቅ ዝ</w>
ዕ ተ</w>
ዋ የ</w>
ዋ ዕተ</w>
ዋ ርስ
ዋርስ የ</w>
ወይቤሎ ሙ</w>
ወይ ት
ወይት ና
ወይትና ገሮሙ</w>
ወአ ራ
ወአራ ዊት</w>
ወአ ል
ወአል ቦ</w>
ወት ለብ
ወትለብ ጦ</w>
ወበ እን
ወበእን ተ
ወበእንተ ዝ</w>
ወሶ በ
ወሶበ ኒ</w>
ወር እ
ወርእ ዮ</w>
ወ ደቂቁ</w>
ወ ካዕበ</w>
ወ እንዘ</w>
ወ ምስለ</w>
ክ ት</w>
ክ ርስ
ክርስ ቶ
ክርስቶ ስ</w>
እን ስ
እንስ ሳ
እንስሳ </w>
እኁ ሁ</w>
እስ ራ
እስራ ኤል</w>
እምድኅ ሬ
እምድኅሬ ከ</w>
እምድኅ ረ</w>
እም ኔ
እምኔ ሁ</w>
እም ት
እምት እ
እምትእ ዛዙ</w>
እመ ት</w>
እ ክት</w>
እ </w>
አ ቱ</w>
ንጉ ሥ
ንጉሥ </w>
ን ዋየ</w>
ን አቱ</w>
ና ይ</w>
ታ ራ</w>
ተ ወልደ</w>
በ አይኅ</w>
በ ሥጋ</w>
ቅ ንአቱ</w>
ሴ ት</w>
ሰብ እ</w>
ሰብ አ</w>
ሰማያ ት</w>
ሰማ ይ</w>
ሥ ዋዕተ</w>
ሠ ናይ</w>
ምስ ሌሆሙ</w>
ሙ ሴ</w>
መንግሥ ተ</w>
መላ እክት</w>
መ ሥዋዕተ</w>
ሕ ጉ</w>
ል በ</w>
ላዕ ሌሆሙ</w>
ላ ቲ</w>
ለ ጽዮን</w>
ለ ደብተራ</w>
ለ እለ</w>
ለ ቃየን</w>
ለ ሙሴ</w>
ህ የ</w>
ሀ ገረ</w>
ፍ ጥ
ፍጥ ረት</w>
ፍ ር
ፍር ሀ
ፍርሀ ተ</w>
ፍ ራ
ፍራ ህ
ፍራህ </w>
ፋ ክ
ፋክ ስ
ፋክስ ድ</w>
ፈጠ ር
ፈጠር ኩ
ፈጠርኩ </w>
ፈጠ ራ</w>
ፈድፋ ደ
ፈድፋደ ሰ</w>
ፈ ጥ
ፈጥ ሩ
ፈጥሩ </w>
ፅ </w>
ጽ </w>
ጻ ድቅ</w>
ጹ ሕ</w>
ጹ </w>
ጸ ው
ጸው ርዋ</w>
ጳ ጳ
ጳጳ ሳ
ጳጳሳ ት</w>
ጥ </w>
ጣ ዖ
ጣዖ ተ</w>
ጣ ን</w>
ጢ አ
ጢአ ቶሙ</w>
ጠ </w>
ጎር ጎር
ጎርጎር ዮ
ጎርጎርዮ ስ</w>
ግ ብ</w>
ጋ ተ</w>
ገብ ርዋ</w>
ገብ ረት</w>
ገብ ረ</w>
ገ ጽ</w>
ገ ጹ</w>
ገ ሪ
ገሪ ሁ</w>
ዶ ሙ</w>
ድ የ</w>
ድ ዎ
ድዎ </w>
ድ ኀ
ድኀ ኒ
ድኀኒ ተ</w>
ዳ ሚ
ዳሚ </w>
ዲ ባ
ዲባ ጋተ</w>
ደብ ረ</w>
ደቂ ቅ
ደቂቅ ከ</w>
ደ ኃ
ደኃ ሪ
ደኃሪ </w>
ደ ሱ</w>
ዮ ም</w>
ይእ ዜ
ይእዜ </w>
ይቤሎ </w>
ይቤ ሉ</w>
ይ ጣን</w>
ይ ዕ
ይዕ ቀ
ይዕቀ ቡ
ይዕቀቡ </w>
ይ ኩን</w>
ይ ሢ
ይሢ ጥ</w>
ያ ት</w>
ያ ሮ
ያሮ ድ</w>
ያ ም</w>
ያ </w>
ዩ </w>
የ ዐ
የዐ ቅ
የዐቅ ብ</w>
ዞ </w>
ዝ ንቱ</w>
ዝ ኀ
ዝኀ </w>
ዝ ሙ
ዝሙ ቶሙ</w>
ዛ ቲ</w>
ዚ አ
ዚአ ሁ</w>
ዘ ፈጠርኩ</w>
ዘ ይቤ</w>
ዘ ዞ</w>
ዘ ኪዳን</w>
ዘ በእንተ</w>
ዘ ም
ዘም ዉ</w>
ዕ ፅ</w>
ዕ ለ</w>
ዑ </w>
ዐደ ዉ</w>
ዐደ ወ
ዐደወ </w>
ዐ ድዎ</w>
ው ታ</w>
ው ሉ
ውሉ ዶሙ</w>
ዊ ሆሙ</w>
ወይ ጸውርዋ</w>
ወውእቱ ሰ</w>
ወእም ነ</w>
ወእም ቅድመ</w>
ወኣ ወር
ወኣወር ዳ</w>
ወኣ ስ
ወኣስ ተ
ወኣስተ ር
ወኣስተር ኢ
ወኣስተርኢ </w>
ወአ ን
ወአን ሰ</w>
ወብ ት
ወብት ከ</w>
ወብ ር
ወብር ት</w>
ወበ ደኃሪ</w>
ወበ ኀበ</w>
ወሶ በ</w>
ወል ድየ</w>
ወ ፈድፋደሰ</w>
ወ ይቤሉ</w>
ወ የዐቅብ</w>
ወ ዘእንበለ</w>
ወ ወልድ</w>
ወ ወ
ወወ ሀ
ወወሀ ቦ</w>
ወ እ
ወእ ቤ
ወእቤ </w>
ወ ን
ወን ቡ
ወንቡ ር</w>
ወ ራ
ወራ ሴ</w>
ወ ም
ወም ል
ወምል እ
ወምልእ ተ</w>
ወ ሚ
ወሚ መ</w>
ወ መንፈስ</w>
ወ መንፈ
ወመንፈ ቀ</w>
ወ መ
ወመ ማ
ወመማ ሥ
ወመማሥ ጠ</w>
ወ ለ
ወለ መንፈስ</w>
ኮ ት</w>
ክ ተ</w>
ክ ረ</w>
ክ ል
ክል ኤ
ክልኤ </w>
ክ ሊ
ክሊ ላ
ክሊላ ተ</w>
ኬ ን
ኬን ያ</w>
ካ ህ
ካህ ና
ካህና ት</w>
ኪ የ</w>
ኩ ነ
ኩነ ኒ</w>
ከ ይ</w>
ከ ና
ከና ኣ
ከናኣ ን</w>
ከ ር
ከር ሠ</w>
እኁ ከ</w>
እም ደቂቀ</w>
እም ዮም</w>
እም ነ</w>
እም ቀ
እምቀ ዳሚ</w>
እመ ሰ</w>
እ ገሪሁ</w>
እ ዩ</w>
እ ከይ</w>
እ ሴ
እሴ ይ</w>
እ ሲ
እሲ </w>
እ ሙ
እሙ ንቱ</w>
እ መ</w>
እ ሉ</w>
እ ለብ
እለብ ስ</w>
ኢይ ዘምዉ</w>
ኢይ ብ
ኢይብ ል
ኢይብል ዑ</w>
ኢ ኮነ</w>
ኢ ት
ኢት ፍራህ</w>
ኢ ተ
ኢተ ዐደወ</w>
ኢ ር
ኢር ቱ
ኢርቱ ዕ</w>
አምላ ክ</w>
አምላ ኪየ</w>
አ ዘዞ</w>
አ ዕረፈ</w>
አ ክሊላተ</w>
አ ን
አን ተ</w>
አ በ
አበ ዊሆሙ</w>
አ ማ
አማ ል
አማል ክተ</w>
አ ል
አል ፋክስድ</w>
አ ላ</w>
ን ጹሕ</w>
ን ሶ
ንሶ ሱ</w>
ና የ</w>
ኑ </w>
ነ ብር</w>
ነ ቢ
ነቢ ያት</w>
ኅ ሊ
ኅሊ ናየ</w>
ኀ ጢአቶሙ</w>
ኀ ል
ኀል ቁ</w>
ት የ</w>
ት ነብር</w>
ት ረ</w>
ት መ
ትመ ስ
ትመስ ል</w>
ታ ንሶሱ</w>
ታ ሕ
ታሕ ተ</w>
ታ ሌ
ታሌ </w>
ቱ ሳላ</w>
ተ ፈጥሩ</w>
ተ ገብረት</w>
ተ ዐድዎ</w>
ቦ ኑ</w>
ብ ዝኀ</w>
ብ እሲ</w>
ባ ሕ
ባሕ ር</w>
በ ዲበ</w>
በ ደብረ</w>
በ ኀበ</w>
በ ትረ</w>
በ ብዝኀ</w>
በ ም
በም ክረ</w>
ቅድ ሜ
ቅድሜ ሁ</w>
ቅ ደሱ</w>
ቃ ል
ቃል የ</w>
ቃ ለ</w>
ቀ ታሌ</w>
ቀ ስ
ቀስ ተ</w>
ስብሐቲ ሆሙ</w>
ስም ዕ</w>
ስም ከ</w>
ሰ ይጣን</w>
ርስ ት</w>
ር ያም</w>
ራ እዩ</w>
ሥጋ ሁ</w>
ሥ ዕለ</w>
ምስ ሌ
ምስሌ ከ</w>
ሜ ኅ</w>
ማ የ</w>
ማ ውታ</w>
ማ ቱሳላ</w>
ማ ርያም</w>
ማ ሕ
ማሕ ላ</w>
መንግሥ ትየ</w>
መላ ል
መላል ኤል</w>
መ ድኀኒተ</w>
መ ቅደሱ</w>
መ ለ
መለ ኮት</w>
ሕግ የ</w>
ሎ ቱ</w>
ሎ ሙ</w>
ላ ሜኅ</w>
ለ ደቂቅከ</w>
ለ ዘርእከ</w>
ለ ዓለም</w>
ለ ኵሉ</w>
ለ እከይ</w>
ለ እኁከ</w>
ለ አቤል</w>
ለ ንጉሠ</w>
ለ መድኀኒተ</w>
ሄኖ ክ</w>
ሄኖ ስ</w>
